<unk>	0
<s>	0
</s>	0
<doc>	0
</doc>	0
<head>	0
</head>	0
<phr>	0
</phr>	0
▁p	-0
▁s	-1
▁v	-2
▁n	-3
ní	-4
st	-5
ch	-6
ov	-7
▁z	-8
ro	-9
▁j	-10
▁a	-11
▁t	-12
▁d	-13
▁k	-14
en	-15
▁m	-16
▁o	-17
le	-18
ou	-19
ra	-20
▁po	-21
li	-22
la	-23
te	-24
ho	-25
ře	-26
▁ne	-27
▁na	-28
▁b	-29
ce	-30
in	-31
▁je	-32
▁se	-33
sk	-34
em	-35
ak	-36
ně	-37
▁do	-38
▁pro	-39
at	-40
ni	-41
no	-42
lo	-43
že	-44
or	-45
ří	-46
▁P	-47
an	-48
▁u	-49
rá	-50
it	-51
ých	-52
de	-53
▁st	-54
ci	-55
▁za	-56
jí	-57
ku	-58
on	-59
al	-60
je	-61
ři	-62
▁č	-63
po	-64
ti	-65
▁vy	-66
ší	-67
to	-68
ck	-69
né	-70
re	-71
▁pře	-72
ka	-73
cí	-74
va	-75
▁by	-76
na	-77
▁ob	-78
▁"	-79
▁to	-80
mi	-81
▁S	-82
dy	-83
▁ro	-84
▁V	-85
▁že	-86
er	-87
ky	-88
vo	-89
▁ve	-90
▁kte	-91
▁N	-92
ru	-93
sti	-94
▁h	-95
lá	-96
ého	-97
ko	-98
mě	-99
▁zá	-100
vě	-101
▁f	-102
▁pod	-103
ze	-104
▁vý	-105
lu	-106
ad	-107
ná	-108
▁K	-109
▁od	-110
▁J	-111
mu	-112
▁i	-113
▁M	-114
me	-115
ová	-116
še	-117
▁ná	-118
tě	-119
ar	-120
av	-121
▁ú	-122
ob	-123
▁při	-124
il	-125
▁T	-126
tu	-127
▁pří	-128
ta	-129
dě	-130
▁js	-131
du	-132
by	-133
ji	-134
da	-135
▁1	-136
dní	-137
vá	-138
▁kter	-139
▁-	-140
ne	-141
▁mo	-142
ové	-143
ví	-144
ské	-145
▁tak	-146
▁A	-147
▁jak	-148
ým	-149
če	-150
▁B	-151
▁Z	-152
ly	-153
tí	-154
dá	-155
▁pr	-156
se	-157
mo	-158
▁ně	-159
ká	-160
▁D	-161
▁před	-162
▁roz	-163
lé	-164
▁jed	-165
▁O	-166
zi	-167
uje	-168
ční	-169
▁re	-170
▁te	-171
nost	-172
▁le	-173
bo	-174
di	-175
▁Po	-176
▁(	-177
ál	-178
ist	-179
▁ko	-180
ve	-181
hod	-182
▁c	-183
ním	-184
▁bu	-185
lov	-186
is	-187
▁mě	-188
nou	-189
rav	-190
ty	-191
ny	-192
▁li	-193
▁si	-194
ma	-195
▁nej	-196
cho	-197
čí	-198
▁e	-199
kla	-200
▁spo	-201
nu	-202
tel	-203
▁kon	-204
▁sv	-205
ova	-206
ím	-207
▁vě	-208
as	-209
ri	-210
▁sou	-211
ent	-212
vní	-213
pe	-214
▁ale	-215
ovat	-216
▁Č	-217
ný	-218
▁C	-219
▁ch	-220
ště	-221
ků	-222
do	-223
▁in	-224
át	-225
kon	-226
dí	-227
ži	-228
ick	-229
up	-230
rov	-231
ry	-232
bu	-233
lí	-234
▁R	-235
nosti	-236
▁H	-237
jící	-238
mí	-239
stav	-240
▁me	-241
▁vš	-242
▁ni	-243
oru	-244
my	-245
▁mu	-246
ží	-247
▁š	-248
▁jsou	-249
▁L	-250
▁které	-251
jší	-252
▁mí	-253
pad	-254
ních	-255
▁jako	-256
ba	-257
▁ma	-258
▁ce	-259
sí	-260
▁ji	-261
sle	-262
▁ka	-263
lou	-264
vy	-265
ování	-266
▁pra	-267
▁vz	-268
sob	-269
▁Je	-270
▁vo	-271
▁však	-272
rů	-273
▁ho	-274
ém	-275
ných	-276
pě	-277
▁mi	-278
▁:	-279
▁de	-280
▁nebo	-281
▁sp	-282
sta	-283
za	-284
len	-285
▁má	-286
ově	-287
vi	-288
bě	-289
stup	-290
men	-291
ez	-292
tá	-293
sa	-294
▁2	-295
vr	-296
▁I	-297
jem	-298
hu	-299
dou	-300
▁jen	-301
▁který	-302
▁kdy	-303
▁Ne	-304
▁prá	-305
▁E	-306
má	-307
kou	-308
▁19	-309
sto	-310
pu	-311
▁F	-312
žit	-313
leč	-314
▁ře	-315
▁bý	-316
▁jeho	-317
▁ze	-318
si	-319
▁bude	-320
ského	-321
ter	-322
zna	-323
prav	-324
▁Na	-325
▁min	-326
▁ví	-327
ali	-328
kt	-329
ovo	-330
cké	-331
ských	-332
ád	-333
ovan	-334
ního	-335
alší	-336
ský	-337
ran	-338
žen	-339
ství	-340
ir	-341
00	-342
▁U	-343
den	-344
su	-345
▁g	-346
zí	-347
▁pou	-348
bí	-349
▁co	-350
▁če	-351
vět	-352
ových	-353
▁tě	-354
▁tr	-355
▁aby	-356
či	-357
▁než	-358
hra	-359
ného	-360
▁vše	-361
ůže	-362
zen	-363
▁jedno	-364
log	-365
sla	-366
▁společ	-367
last	-368
▁další	-369
▁zp	-370
ový	-371
ují	-372
jich	-373
▁Pro	-374
klad	-375
ská	-376
▁vel	-377
▁dru	-378
koli	-379
▁tu	-380
vat	-381
hy	-382
oval	-383
pi	-384
▁už	-385
▁pot	-386
▁jin	-387
▁mož	-388
▁té	-389
lem	-390
nější	-391
stat	-392
ům	-393
▁až	-394
▁pa	-395
▁zem	-396
▁jejich	-397
el	-398
▁byl	-399
▁být	-400
▁jsem	-401
▁poli	-402
mé	-403
lat	-404
sku	-405
pa	-406
stře	-407
kem	-408
sko	-409
▁G	-410
▁proto	-411
ste	-412
▁stá	-413
ši	-414
▁podni	-415
▁di	-416
ec	-417
iná	-418
▁Če	-419
ální	-420
rát	-421
gra	-422
nit	-423
▁která	-424
▁také	-425
▁dě	-426
▁hod	-427
▁pů	-428
ut	-429
▁bez	-430
▁fir	-431
ha	-432
▁poz	-433
iny	-434
▁hla	-435
zení	-436
itu	-437
▁podle	-438
ie	-439
▁či	-440
▁jsme	-441
▁něk	-442
tní	-443
▁moh	-444
ani	-445
stí	-446
čně	-447
▁dů	-448
sx	-449
▁<	-450
▁sku	-451
raz	-452
chá	-453
▁nap	-454
▁3	-455
▁nep	-456
for	-457
▁bo	-458
řad	-459
řen	-460
kti	-461
▁ta	-462
▁může	-463
▁tře	-464
cích	-465
▁zd	-466
▁ži	-467
▁vlast	-468
řej	-469
há	-470
▁sy	-471
bli	-472
vro	-473
▁stra	-474
▁všech	-475
hle	-476
ců	-477
dem	-478
ového	-479
val	-480
ina	-481
ct	-482
spo	-483
▁ra	-484
rob	-485
▁vá	-486
▁mili	-487
vu	-488
▁prac	-489
▁mezi	-490
▁vět	-491
▁cen	-492
tek	-493
▁ří	-494
▁ž	-495
▁své	-496
▁není	-497
▁sa	-498
▁lé	-499
▁ani	-500
▁let	-501
▁Š	-502
spě	-503
om	-504
▁již	-505
▁bylo	-506
zu	-507
dle	-508
ším	-509
▁tom	-510
bor	-511
▁ty	-512
▁čá	-513
so	-514
ovi	-515
▁Pra	-516
tem	-517
▁To	-518
ným	-519
▁vlá	-520
▁ještě	-521
rou	-522
▁199	-523
▁když	-524
▁ex	-525
▁obje	-526
cen	-527
▁dne	-528
kra	-529
▁byla	-530
ovou	-531
▁stře	-532
▁koru	-533
▁mno	-534
lní	-535
čas	-536
dob	-537
ska	-538
▁druh	-539
▁toho	-540
).	-541
liv	-542
▁nez	-543
▁pre	-544
ení	-545
čit	-546
ření	-547
▁sta	-548
fi	-549
stě	-550
lze	-551
tick	-552
jen	-553
ými	-554
▁ten	-555
▁stát	-556
▁budou	-557
kud	-558
▁přes	-559
čen	-560
ul	-561
▁Pře	-562
šení	-563
rg	-564
▁případ	-565
kaz	-566
ovní	-567
▁dob	-568
▁minist	-569
▁pak	-570
nání	-571
▁Do	-572
vrop	-573
▁první	-574
nout	-575
▁zv	-576
vali	-577
sá	-578
tej	-579
▁vče	-580
pí	-581
stá	-582
isí	-583
ůsob	-584
ností	-585
ké	-586
▁svě	-587
řit	-588
un	-589
žení	-590
▁korun	-591
atím	-592
▁prů	-593
▁tím	-594
▁kaž	-595
▁kteří	-596
mer	-597
sky	-598
tr	-599
▁kde	-600
▁dá	-601
▁zna	-602
▁prav	-603
),	-604
▁W	-605
kl	-606
▁cel	-607
ické	-608
▁op	-609
stou	-610
dních	-611
▁více	-612
sled	-613
pis	-614
teč	-615
▁syst	-616
▁Za	-617
▁ry	-618
▁její	-619
ča	-620
▁ur	-621
ana	-622
▁prostře	-623
inu	-624
▁par	-625
ati	-626
▁roku	-627
▁představ	-628
▁obcho	-629
▁ov	-630
▁rozhod	-631
▁musí	-632
▁tedy	-633
vají	-634
lně	-635
▁4	-636
▁sm	-637
lení	-638
ot	-639
loven	-640
vně	-641
▁St	-642
▁zákon	-643
měr	-644
▁prob	-645
ané	-646
sou	-647
ští	-648
▁proti	-649
co	-650
šen	-651
▁několi	-652
kci	-653
slu	-654
▁tý	-655
▁živo	-656
▁nad	-657
▁sna	-658
▁nich	-659
sy	-660
vou	-661
▁Ně	-662
be	-663
▁slu	-664
▁zí	-665
skou	-666
▁pla	-667
fe	-668
vod	-669
▁5	-670
měst	-671
▁dva	-672
hla	-673
kce	-674
▁způsob	-675
ném	-676
▁ško	-677
▁nabí	-678
▁kom	-679
ory	-680
▁změ	-681
hlá	-682
pra	-683
▁sto	-684
ském	-685
hrani	-686
ině	-687
zem	-688
▁stej	-689
ved	-690
▁mají	-691
tech	-692
forma	-693
mů	-694
▁Ve	-695
▁so	-696
ato	-697
▁ru	-698
▁Mo	-699
ující	-700
chu	-701
▁my	-702
▁au	-703
dr	-704
▁rů	-705
pr	-706
▁ke	-707
▁roce	-708
▁lid	-709
▁pouze	-710
vé	-711
klá	-712
šem	-713
▁čin	-714
▁osob	-715
▁tomu	-716
pla	-717
tom	-718
cent	-719
lep	-720
▁tisí	-721
▁da	-722
▁ní	-723
▁každ	-724
▁progra	-725
▁někter	-726
hem	-727
ležit	-728
bi	-729
▁hra	-730
▁počí	-731
▁stav	-732
ver	-733
▁Ko	-734
▁problé	-735
▁zahrani	-736
říklad	-737
▁lo	-738
▁Jak	-739
▁posle	-740
chy	-741
▁Mi	-742
publi	-743
▁výrob	-744
nutí	-745
▁pat	-746
000	-747
čet	-748
▁še	-749
rit	-750
▁Zá	-751
chni	-752
▁eko	-753
▁tři	-754
tů	-755
▁dí	-756
▁nás	-757
šť	-758
ren	-759
tele	-760
▁pě	-761
▁vi	-762
▁čas	-763
čních	-764
ktu	-765
▁vyt	-766
▁třeba	-767
▁org	-768
tiž	-769
▁bě	-770
rodní	-771
▁nemo	-772
▁protože	-773
▁fun	-774
ckých	-775
▁tele	-776
▁odp	-777
ene	-778
▁čt	-779
▁proje	-780
▁totiž	-781
▁os	-782
▁ti	-783
▁republi	-784
nění	-785
▁sí	-786
▁této	-787
▁vů	-788
▁lze	-789
▁těch	-790
rat	-791
ctví	-792
čení	-793
řá	-794
aly	-795
▁Ka	-796
dev	-797
▁</	-798
▁spolu	-799
▁podob	-800
▁potře	-801
cha	-802
▁pov	-803
um	-804
▁fin	-805
vis	-806
ovali	-807
stu	-808
▁větš	-809
emo	-810
nomi	-811
ven	-812
emi	-813
▁asi	-814
▁něj	-815
▁člen	-816
zor	-817
▁byly	-818
▁skup	-819
▁čty	-820
▁cí	-821
im	-822
▁země	-823
▁rá	-824
▁milion	-825
děl	-826
yní	-827
▁zákla	-828
zku	-829
ace	-830
▁an	-831
▁Při	-832
▁součas	-833
▁6	-834
pit	-835
▁zač	-836
▁velmi	-837
>>	-838
čin	-839
řád	-840
nice	-841
devším	-842
roj	-843
kové	-844
▁zatím	-845
▁jednot	-846
▁stan	-847
zd	-848
rní	-849
▁neby	-850
▁nepo	-851
▁kvali	-852
té	-853
▁měl	-854
▁stu	-855
▁hrá	-856
por	-857
▁Podle	-858
zy	-859
kro	-860
van	-861
▁Ma	-862
ur	-863
▁nedo	-864
▁svět	-865
▁rych	-866
znam	-867
▁čer	-868
race	-869
▁samo	-870
▁včera	-871
tro	-872
▁kan	-873
hrá	-874
mín	-875
▁řekl	-876
telé	-877
▁Nej	-878
us	-879
▁měsí	-880
ke	-881
ník	-882
▁politi	-883
dit	-884
pro	-885
▁pomo	-886
▁zda	-887
sil	-888
dání	-889
ám	-890
ovala	-891
▁informa	-892
▁ja	-893
dů	-894
▁Ob	-895
▁nes	-896
▁pož	-897
ému	-898
stan	-899
▁In	-900
cký	-901
▁Vý	-902
▁část	-903
án	-904
▁otá	-905
čan	-906
liš	-907
oví	-908
▁Evrop	-909
▁finan	-910
▁firmy	-911
▁konce	-912
..	-913
sl	-914
▁dnes	-915
▁Ú	-916
dent	-917
▁vol	-918
prá	-919
▁zdra	-920
▁jeden	-921
měř	-922
▁Tak	-923
▁dvě	-924
ata	-925
▁především	-926
šší	-927
▁sk	-928
lan	-929
▁Ro	-930
▁Vy	-931
lově	-932
ily	-933
▁Ch	-934
▁jí	-935
bý	-936
zace	-937
▁zná	-938
▁žád	-939
pl	-940
▁zaměst	-941
▁případě	-942
▁leto	-943
▁vývo	-944
chop	-945
cháze	-946
rně	-947
▁vzni	-948
▁tisíc	-949
▁'	-950
▁Ji	-951
▁pracovní	-952
vání	-953
▁mal	-954
▁dvou	-955
▁uz	-956
stra	-957
▁hodno	-958
▁organi	-959
ždy	-960
nictví	-961
ing	-962
▁nám	-963
ované	-964
▁například	-965
mpi	-966
kre	-967
▁rov	-968
▁vyso	-969
ména	-970
▁chy	-971
pre	-972
inou	-973
▁prezi	-974
ér	-975
lik	-976
stva	-977
▁situ	-978
let	-979
tře	-980
ckého	-981
losti	-982
eme	-983
▁for	-984
▁tento	-985
cky	-986
▁slov	-987
os	-988
tra	-989
dním	-990
▁řad	-991
řejmě	-992
▁době	-993
▁mít	-994
▁vlastní	-995
mat	-996
▁neu	-997
▁dlou	-998
▁sil	-999
od	-1000
▁nyní	-1001
▁ekonomi	-1002
▁několik	-1003
▁určit	-1004
▁7	-1005
pět	-1006
plat	-1007
gi	-1008
▁obsa	-1009
lit	-1010
▁pe	-1011
▁pá	-1012
ovým	-1013
ským	-1014
sud	-1015
▁va	-1016
ček	-1017
sty	-1018
▁nabíd	-1019
▁postup	-1020
▁Te	-1021
vý	-1022
vedl	-1023
▁vyb	-1024
▁".	-1025
▁vyu	-1026
▁dese	-1027
▁odbor	-1028
...	-1029
▁rok	-1030
vit	-1031
muni	-1032
▁sch	-1033
▁Od	-1034
olog	-1035
▁jim	-1036
▁společnosti	-1037
nů	-1038
jed	-1039
▁lidí	-1040
▁mohou	-1041
mou	-1042
kání	-1043
álně	-1044
▁poji	-1045
▁ar	-1046
▁ča	-1047
▁nové	-1048
▁práce	-1049
▁počíta	-1050
nov	-1051
▁růz	-1052
▁Ná	-1053
▁su	-1054
▁výro	-1055
▁smlou	-1056
▁stále	-1057
lav	-1058
čast	-1059
▁Ale	-1060
▁inve	-1061
▁dokon	-1062
▁tohoto	-1063
▁těchto	-1064
ré	-1065
▁tvr	-1066
▁ovšem	-1067
▁zů	-1068
▁připrav	-1069
▁všechny	-1070
op	-1071
cela	-1072
▁Kdy	-1073
▁spe	-1074
id	-1075
▁čí	-1076
▁léka	-1077
met	-1078
▁no	-1079
▁ban	-1080
ove	-1081
poru	-1082
▁mode	-1083
lad	-1084
teri	-1085
dat	-1086
kách	-1087
▁hospo	-1088
▁prostřed	-1089
čka	-1090
▁Spo	-1091
▁kli	-1092
▁produ	-1093
▁podnika	-1094
ických	-1095
ůj	-1096
▁star	-1097
▁zemí	-1098
▁tra	-1099
▁vys	-1100
▁procent	-1101
zo	-1102
dního	-1103
rt	-1104
▁ci	-1105
jména	-1106
▁člově	-1107
ác	-1108
nat	-1109
nil	-1110
▁což	-1111
▁uni	-1112
▁soci	-1113
▁místo	-1114
▁přij	-1115
řízení	-1116
▁kterou	-1117
▁9	-1118
ech	-1119
▁ČS	-1120
kle	-1121
ment	-1122
sad	-1123
▁zvý	-1124
ložen	-1125
bou	-1126
ori	-1127
▁něm	-1128
▁posla	-1129
▁Ž	-1130
▁Ru	-1131
▁hle	-1132
▁systém	-1133
▁fak	-1134
▁Pokud	-1135
ari	-1136
gen	-1137
lekt	-1138
nými	-1139
▁8	-1140
min	-1141
▁den	-1142
ilo	-1143
telů	-1144
▁čtvr	-1145
▁%	-1146
▁jde	-1147
▁ba	-1148
▁jist	-1149
▁připo	-1150
vrh	-1151
▁Ja	-1152
vním	-1153
▁ote	-1154
▁naše	-1155
▁nevy	-1156
byt	-1157
hou	-1158
ňuje	-1159
▁náro	-1160
bal	-1161
▁získ	-1162
zná	-1163
štění	-1164
▁prode	-1165
▁dalších	-1166
▁sob	-1167
▁minister	-1168
čky	-1169
jeme	-1170
▁tří	-1171
peč	-1172
šní	-1173
▁amer	-1174
plo	-1175
ine	-1176
▁techni	-1177
nan	-1178
ost	-1179
čil	-1180
žně	-1181
ková	-1182
▁jednotliv	-1183
▁Bu	-1184
▁Pa	-1185
▁nic	-1186
▁měla	-1187
bá	-1188
sát	-1189
lympi	-1190
ena	-1191
▁úspě	-1192
▁veřej	-1193
cie	-1194
tečně	-1195
hro	-1196
sem	-1197
žní	-1198
dení	-1199
▁kou	-1200
▁chce	-1201
▁míst	-1202
▁domá	-1203
▁vytvo	-1204
zá	-1205
smu	-1206
▁ČR	-1207
cení	-1208
ovém	-1209
▁fot	-1210
▁nut	-1211
▁možné	-1212
fer	-1213
kům	-1214
▁zdravo	-1215
▁10	-1216
▁mimo	-1217
▁skuteč	-1218
vů	-1219
▁pen	-1220
▁zde	-1221
▁Praze	-1222
▁kdo	-1223
▁větší	-1224
dáv	-1225
věd	-1226
▁zejména	-1227
ději	-1228
letí	-1229
▁kro	-1230
▁Fran	-1231
▁nejen	-1232
▁provo	-1233
ol	-1234
▁at	-1235
▁zak	-1236
eň	-1237
▁muse	-1238
▁svou	-1239
▁právě	-1240
▁oby	-1241
▁téměř	-1242
šet	-1243
dech	-1244
▁nebu	-1245
▁prohlá	-1246
lů	-1247
mená	-1248
▁akci	-1249
▁Pe	-1250
▁Ten	-1251
▁nik	-1252
čního	-1253
osti	-1254
▁pova	-1255
gu	-1256
▁lá	-1257
▁výkon	-1258
▁la	-1259
▁Proto	-1260
▁posky	-1261
▁schop	-1262
▁strany	-1263
tně	-1264
▁Le	-1265
▁Se	-1266
▁Před	-1267
▁vždy	-1268
per	-1269
▁klu	-1270
▁sní	-1271
▁ostat	-1272
▁poč	-1273
▁dovo	-1274
▁podí	-1275
▁obdob	-1276
▁předse	-1277
cká	-1278
dal	-1279
poč	-1280
▁náv	-1281
▁oko	-1282
▁svo	-1283
▁snad	-1284
sté	-1285
jících	-1286
▁sprá	-1287
▁požad	-1288
▁By	-1289
▁naši	-1290
▁sice	-1291
ga	-1292
hl	-1293
dář	-1294
▁fil	-1295
▁zcela	-1296
dek	-1297
spe	-1298
▁obla	-1299
▁elekt	-1300
▁jednání	-1301
ge	-1302
bní	-1303
lán	-1304
žší	-1305
stli	-1306
▁nějak	-1307
▁svého	-1308
▁letech	-1309
▁r	-1310
▁Ř	-1311
lost	-1312
vatel	-1313
▁býval	-1314
▁možnost	-1315
pat	-1316
emokra	-1317
zv	-1318
▁žen	-1319
▁spor	-1320
▁použí	-1321
▁muž	-1322
zenta	-1323
▁polo	-1324
čů	-1325
zni	-1326
▁Kč	-1327
děli	-1328
▁vých	-1329
▁ředi	-1330
▁exist	-1331
ená	-1332
▁tex	-1333
roveň	-1334
▁Něme	-1335
▁neza	-1336
▁veli	-1337
▁svých	-1338
▁prostředí	-1339
▁",	-1340
ultu	-1341
▁pri	-1342
chani	-1343
▁výsled	-1344
▁zařízení	-1345
cet	-1346
těz	-1347
▁Co	-1348
▁set	-1349
▁parla	-1350
▁prost	-1351
kov	-1352
chod	-1353
řitom	-1354
▁zvlá	-1355
▁hlavní	-1356
řa	-1357
led	-1358
▁Pr	-1359
▁sed	-1360
▁000	-1361
▁tam	-1362
▁velk	-1363
▁Jed	-1364
▁vzta	-1365
stal	-1366
▁spí	-1367
▁chtě	-1368
▁zákaz	-1369
▁olympi	-1370
py	-1371
dět	-1372
▁mechani	-1373
zit	-1374
▁An	-1375
▁Bo	-1376
▁Me	-1377
chom	-1378
hled	-1379
▁jiné	-1380
krát	-1381
stvo	-1382
vati	-1383
▁otáz	-1384
▁plat	-1385
▁obraz	-1386
▁tomto	-1387
▁du	-1388
skos	-1389
▁slo	-1390
▁umo	-1391
▁České	-1392
ard	-1393
ško	-1394
▁fe	-1395
stru	-1396
jet	-1397
▁mé	-1398
▁pí	-1399
pozi	-1400
▁kole	-1401
▁světa	-1402
▁rod	-1403
▁umě	-1404
▁ozna	-1405
DS	-1406
▁led	-1407
▁celé	-1408
▁program	-1409
yzi	-1410
žuje	-1411
▁sva	-1412
▁občan	-1413
rální	-1414
▁nech	-1415
▁čtyři	-1416
▁potřeb	-1417
▁demokra	-1418
SA	-1419
▁vr	-1420
▁speci	-1421
orů	-1422
▁en	-1423
▁nem	-1424
ton	-1425
▁Mar	-1426
▁zbo	-1427
▁praž	-1428
▁sním	-1429
▁podstat	-1430
▁bi	-1431
▁zájem	-1432
opak	-1433
stro	-1434
▁dosa	-1435
▁zase	-1436
dru	-1437
desát	-1438
pravy	-1439
nes	-1440
čer	-1441
▁služ	-1442
▁druhé	-1443
pli	-1444
▁Re	-1445
▁něco	-1446
▁vlády	-1447
skosloven	-1448
ale	-1449
žel	-1450
chází	-1451
klady	-1452
bez	-1453
▁198	-1454
▁kra	-1455
▁milionů	-1456
nek	-1457
▁každý	-1458
▁pokud	-1459
▁život	-1460
▁politick	-1461
bec	-1462
▁vyj	-1463
▁tren	-1464
ovaných	-1465
šlo	-1466
▁zi	-1467
▁nemá	-1468
▁stejně	-1469
ický	-1470
▁úřad	-1471
▁říká	-1472
hlí	-1473
rán	-1474
hov	-1475
pon	-1476
▁př	-1477
pově	-1478
▁byli	-1479
▁kolem	-1480
▁působ	-1481
ili	-1482
ceti	-1483
hodu	-1484
▁obě	-1485
der	-1486
▁ceny	-1487
▁proce	-1488
▁pop	-1489
▁těž	-1490
▁části	-1491
▁zákona	-1492
▁hospodář	-1493
▁ode	-1494
▁něme	-1495
▁otev	-1496
▁Když	-1497
▁tyto	-1498
fon	-1499
něž	-1500
rál	-1501
šit	-1502
slav	-1503
▁gra	-1504
▁podmín	-1505
žil	-1506
feren	-1507
cit	-1508
▁akti	-1509
▁uzav	-1510
▁15	-1511
veden	-1512
▁zaji	-1513
▁příliš	-1514
řů	-1515
ován	-1516
▁fon	-1517
▁nov	-1518
▁mist	-1519
▁dosta	-1520
▁uvedl	-1521
dil	-1522
▁Vě	-1523
▁zb	-1524
▁opět	-1525
▁jedin	-1526
▁kultu	-1527
▁repre	-1528
▁význam	-1529
▁oblasti	-1530
▁poslední	-1531
▁hu	-1532
▁al	-1533
ckou	-1534
lých	-1535
méně	-1536
▁úda	-1537
větší	-1538
▁pohy	-1539
▁dobře	-1540
víc	-1541
čeká	-1542
▁patří	-1543
cím	-1544
ore	-1545
▁minu	-1546
▁poku	-1547
rna	-1548
▁pět	-1549
▁zji	-1550
▁svůj	-1551
▁dosud	-1552
▁komuni	-1553
▁příslu	-1554
jení	-1555
▁kni	-1556
▁zku	-1557
▁některých	-1558
▁Ni	-1559
▁Jan	-1560
▁práci	-1561
▁odpově	-1562
am	-1563
čá	-1564
ner	-1565
▁jež	-1566
▁firma	-1567
gli	-1568
boru	-1569
▁dra	-1570
▁gene	-1571
▁polov	-1572
lace	-1573
nici	-1574
řilo	-1575
▁cent	-1576
▁výraz	-1577
▁předpo	-1578
▁vůbec	-1579
▁pu	-1580
prve	-1581
tické	-1582
pas	-1583
▁Sou	-1584
koliv	-1585
álních	-1586
▁soutě	-1587
▁zboží	-1588
jde	-1589
icky	-1590
kace	-1591
kami	-1592
▁per	-1593
▁autom	-1594
▁některé	-1595
ten	-1596
teli	-1597
▁Kon	-1598
▁dis	-1599
▁tla	-1600
▁televi	-1601
rem	-1602
▁Li	-1603
▁ter	-1604
▁několika	-1605
▁pora	-1606
▁pros	-1607
▁neboť	-1608
▁vstup	-1609
0.	-1610
▁ku	-1611
▁vyšší	-1612
▁příští	-1613
rý	-1614
ber	-1615
voj	-1616
▁hor	-1617
▁pan	-1618
▁fyzi	-1619
▁hist	-1620
▁zástup	-1621
dně	-1622
tky	-1623
čním	-1624
aci	-1625
▁dom	-1626
▁nemoc	-1627
▁postav	-1628
til	-1629
prac	-1630
říve	-1631
káz	-1632
nak	-1633
šel	-1634
▁Al	-1635
huje	-1636
pení	-1637
▁zprá	-1638
▁povin	-1639
▁dr	-1640
▁mlu	-1641
▁poslan	-1642
jít	-1643
čné	-1644
▁12	-1645
stit	-1646
▁hro	-1647
▁umož	-1648
▁začí	-1649
▁rozdí	-1650
stů	-1651
zer	-1652
▁Evro	-1653
▁sebe	-1654
▁nejsou	-1655
▁návště	-1656
xi	-1657
▁Jo	-1658
▁zt	-1659
▁žá	-1660
▁kapit	-1661
▁systému	-1662
hru	-1663
spoň	-1664
▁Vác	-1665
▁aut	-1666
▁půl	-1667
álu	-1668
▁Ty	-1669
▁Pod	-1670
eníze	-1671
▁koali	-1672
▁příro	-1673
▁výcho	-1674
▁často	-1675
novu	-1676
átku	-1677
▁tre	-1678
ického	-1679
▁evrop	-1680
▁období	-1681
dají	-1682
▁tvo	-1683
kládá	-1684
▁měli	-1685
▁zají	-1686
řil	-1687
▁USA	-1688
ována	-1689
▁nemě	-1690
▁dokonce	-1691
čem	-1692
▁Pří	-1693
▁men	-1694
podob	-1695
▁jste	-1696
▁sám	-1697
▁stro	-1698
▁prezident	-1699
vil	-1700
zemí	-1701
mentu	-1702
ovací	-1703
▁západ	-1704
hat	-1705
zra	-1706
zuje	-1707
▁nejlep	-1708
inárodní	-1709
▁obchodní	-1710
teg	-1711
čku	-1712
▁pl	-1713
vodu	-1714
▁Roz	-1715
▁man	-1716
▁och	-1717
▁skon	-1718
kových	-1719
hé	-1720
tov	-1721
dává	-1722
ovět	-1723
zaci	-1724
▁odmí	-1725
OV	-1726
ek	-1727
kam	-1728
ovaly	-1729
▁lidé	-1730
vající	-1731
▁oprav	-1732
▁premi	-1733
▁třetí	-1734
▁společnost	-1735
▁Zem	-1736
▁tro	-1737
▁pozor	-1738
fé	-1739
hů	-1740
cem	-1741
pře	-1742
zní	-1743
měrně	-1744
zovat	-1745
▁doby	-1746
▁tuto	-1747
▁účast	-1748
▁problém	-1749
sů	-1750
man	-1751
▁18	-1752
nému	-1753
▁plo	-1754
▁sně	-1755
▁part	-1756
▁jedna	-1757
gy	-1758
ron	-1759
▁1992	-1760
▁např	-1761
▁trhu	-1762
▁vole	-1763
▁závě	-1764
▁šest	-1765
▁rovněž	-1766
▁společen	-1767
mit	-1768
deme	-1769
graf	-1770
vodní	-1771
▁Amer	-1772
hledem	-1773
▁studi	-1774
▁teplo	-1775
▁vítěz	-1776
▁kontro	-1777
▁takové	-1778
▁zaměstnan	-1779
kty	-1780
chno	-1781
▁kla	-1782
▁dola	-1783
▁méně	-1784
▁během	-1785
▁poskyt	-1786
▁informace	-1787
ktů	-1788
▁krit	-1789
▁nimi	-1790
▁přen	-1791
▁deset	-1792
▁počet	-1793
▁ústav	-1794
▁Sloven	-1795
▁privati	-1796
▁představi	-1797
▁výstav	-1798
krač	-1799
▁Kar	-1800
▁mez	-1801
▁níž	-1802
▁ener	-1803
▁zpra	-1804
▁konku	-1805
▁využí	-1806
ara	-1807
dla	-1808
▁Ho	-1809
doucí	-1810
▁vnit	-1811
▁mnoho	-1812
▁takže	-1813
▁telefon	-1814
del	-1815
▁zvy	-1816
▁situace	-1817
žeme	-1818
▁zápas	-1819
▁prodej	-1820
níků	-1821
▁pode	-1822
▁nebude	-1823
▁zahraničí	-1824
št	-1825
vky	-1826
inci	-1827
▁auto	-1828
▁nichž	-1829
▁očeká	-1830
rans	-1831
žití	-1832
▁majet	-1833
▁potvr	-1834
▁státní	-1835
▁zřejmě	-1836
▁Českosloven	-1837
kat	-1838
▁náz	-1839
▁nezá	-1840
▁prakti	-1841
▁zdravot	-1842
▁zeměděl	-1843
sáh	-1844
měru	-1845
hruba	-1846
▁přímo	-1847
ala	-1848
▁krá	-1849
▁tato	-1850
▁účin	-1851
▁hodin	-1852
▁bezpeč	-1853
▁fotbal	-1854
▁důležit	-1855
▁množ	-1856
▁investi	-1857
▁/	-1858
ple	-1859
rati	-1860
▁vám	-1861
telné	-1862
▁jehož	-1863
▁české	-1864
▁Evropy	-1865
▁peníze	-1866
▁znamená	-1867
hor	-1868
▁Lu	-1869
▁ply	-1870
▁materi	-1871
jů	-1872
pá	-1873
ráž	-1874
▁udě	-1875
▁komi	-1876
▁Zatím	-1877
děpodob	-1878
▁olympij	-1879
tou	-1880
▁osm	-1881
▁mana	-1882
var	-1883
▁druž	-1884
▁způsobem	-1885
▁posledních	-1886
fin	-1887
kli	-1888
lání	-1889
▁bych	-1890
▁přístup	-1891
▁největší	-1892
▁víc	-1893
▁dobu	-1894
▁dále	-1895
▁spíše	-1896
▁republiky	-1897
mysl	-1898
▁dál	-1899
hr	-1900
▁jas	-1901
▁uži	-1902
hdy	-1903
žné	-1904
▁ge	-1905
form	-1906
stává	-1907
▁profe	-1908
▁Ku	-1909
celá	-1910
▁Jen	-1911
▁navíc	-1912
▁přitom	-1913
▁rozhodnutí	-1914
▁Má	-1915
▁Vo	-1916
dění	-1917
▁uspo	-1918
ktivní	-1919
▁První	-1920
▁problémy	-1921
ag	-1922
ovy	-1923
▁pi	-1924
orie	-1925
▁kar	-1926
dělení	-1927
▁jednoho	-1928
▁vlastně	-1929
dce	-1930
ned	-1931
▁1.	-1932
▁ad	-1933
▁milió	-1934
▁rozpoč	-1935
▁naopak	-1936
ila	-1937
iti	-1938
lek	-1939
▁Ví	-1940
slov	-1941
ovaný	-1942
▁staro	-1943
▁množství	-1944
nem	-1945
▁Ta	-1946
▁Něk	-1947
▁ome	-1948
▁rychle	-1949
▁preziden	-1950
▁základní	-1951
rojů	-1952
▁ředitel	-1953
RO	-1954
níci	-1955
▁mohl	-1956
▁sedm	-1957
▁města	-1958
▁platí	-1959
▁znovu	-1960
▁pokrač	-1961
▁spotře	-1962
EN	-1963
oná	-1964
rch	-1965
▁Sta	-1966
▁umí	-1967
▁zví	-1968
ovalo	-1969
▁obec	-1970
▁našich	-1971
eny	-1972
▁20	-1973
raci	-1974
▁jej	-1975
▁zvo	-1976
▁okam	-1977
▁vláda	-1978
▁straně	-1979
▁techno	-1980
▁včetně	-1981
▁nejlepší	-1982
▁skutečně	-1983
lý	-1984
ps	-1985
rek	-1986
vor	-1987
ická	-1988
▁blí	-1989
▁fede	-1990
▁jaké	-1991
▁svým	-1992
▁úrov	-1993
▁považ	-1994
▁prezenta	-1995
▁většinou	-1996
kcí	-1997
▁Sa	-1998
▁kup	-1999
▁typ	-2000
▁čtyř	-2001
▁zhruba	-2002
nal	-2003
▁ok	-2004
▁ri	-2005
▁sr	-2006
▁srov	-2007
▁výbě	-2008
zřejmě	-2009
▁nájem	-2010
▁soukro	-2011
▁obyvatel	-2012
▁25	-2013
nila	-2014
▁nepří	-2015
nějších	-2016
▁jednodu	-2017
kup	-2018
rny	-2019
▁NA	-2020
ovány	-2021
▁zahá	-2022
ováním	-2023
▁řešení	-2024
lin	-2025
slí	-2026
▁ab	-2027
▁Min	-2028
▁vál	-2029
nické	-2030
▁málo	-2031
▁peně	-2032
▁toto	-2033
▁vybav	-2034
▁jiných	-2035
▁Mu	-2036
káza	-2037
plně	-2038
vůli	-2039
myslu	-2040
▁Jiří	-2041
▁para	-2042
▁zabý	-2043
▁velké	-2044
rie	-2045
▁myš	-2046
▁záj	-2047
▁přek	-2048
▁nelze	-2049
▁čtvrt	-2050
▁spoluprá	-2051
1.	-2052
tor	-2053
▁věn	-2054
▁firem	-2055
▁řízení	-2056
▁technolog	-2057
otu	-2058
▁lep	-2059
▁zkušen	-2060
ince	-2061
▁efe	-2062
▁uvá	-2063
▁zra	-2064
▁letos	-2065
▁nebez	-2066
▁procen	-2067
ft	-2068
pil	-2069
šek	-2070
▁hy	-2071
▁loň	-2072
▁neo	-2073
▁tzv	-2074
▁krát	-2075
▁příj	-2076
▁vyvo	-2077
▁nepře	-2078
▁pravi	-2079
▁dolarů	-2080
▁alespoň	-2081
▁smlouvy	-2082
ST	-2083
▁Mě	-2084
▁nor	-2085
▁roky	-2086
▁slou	-2087
▁posti	-2088
▁odpoví	-2089
cou	-2090
mír	-2091
sen	-2092
hody	-2093
kají	-2094
▁Vše	-2095
▁cest	-2096
▁zach	-2097
▁jedné	-2098
▁lékař	-2099
▁mů	-2100
čuje	-2101
▁uli	-2102
▁zdá	-2103
▁dost	-2104
▁povo	-2105
▁území	-2106
▁pomocí	-2107
▁přesvěd	-2108
fa	-2109
cům	-2110
nám	-2111
▁he	-2112
laci	-2113
▁kur	-2114
▁obrá	-2115
▁vývoj	-2116
▁oblast	-2117
▁činnosti	-2118
▁jednotlivých	-2119
pou	-2120
važ	-2121
ance	-2122
▁týd	-2123
▁meto	-2124
▁obou	-2125
▁opat	-2126
▁rozší	-2127
▁uveden	-2128
▁pravděpodob	-2129
cti	-2130
něl	-2131
▁vl	-2132
stane	-2133
▁stru	-2134
▁uplat	-2135
▁jednou	-2136
▁vysvět	-2137
▁ministr	-2138
▁konkuren	-2139
ada	-2140
onu	-2141
▁on	-2142
▁ut	-2143
leku	-2144
rych	-2145
pozor	-2146
ujeme	-2147
▁naší	-2148
▁nepři	-2149
▁návrh	-2150
▁získá	-2151
▁červen	-2152
▁finanční	-2153
▁sociální	-2154
FR	-2155
he	-2156
luje	-2157
skem	-2158
ější	-2159
▁vás	-2160
▁úče	-2161
▁dota	-2162
▁věde	-2163
▁trest	-2164
▁Přesto	-2165
▁národní	-2166
▁podnikatel	-2167
šti	-2168
▁Kla	-2169
▁maji	-2170
▁Ameri	-2171
▁Další	-2172
▁státu	-2173
▁světě	-2174
▁trans	-2175
dý	-2176
kré	-2177
slo	-2178
žet	-2179
▁Du	-2180
▁cho	-2181
▁armá	-2182
▁měst	-2183
▁výzku	-2184
družení	-2185
▁důsled	-2186
▁kancelá	-2187
▁různých	-2188
pt	-2189
▁ost	-2190
▁kone	-2191
▁obra	-2192
▁inter	-2193
▁později	-2194
zek	-2195
rání	-2196
▁sko	-2197
ovými	-2198
▁čist	-2199
▁škol	-2200
▁můžete	-2201
▁právní	-2202
▁člověk	-2203
▁programu	-2204
mci	-2205
čít	-2206
▁hlu	-2207
▁určen	-2208
▁nemůže	-2209
▁rozdíl	-2210
▁člověka	-2211
mav	-2212
lati	-2213
níku	-2214
▁ČSFR	-2215
▁Tento	-2216
▁Václav	-2217
▁domácí	-2218
▁jejichž	-2219
▁mezinárodní	-2220
▁Ze	-2221
rist	-2222
▁bychom	-2223
▁vedení	-2224
▁podniku	-2225
vem	-2226
▁13	-2227
▁ši	-2228
zent	-2229
diska	-2230
▁ztrá	-2231
▁pořad	-2232
▁Evropě	-2233
▁skupiny	-2234
hli	-2235
▁16	-2236
▁De	-2237
▁Vel	-2238
▁ver	-2239
inách	-2240
stech	-2241
▁věci	-2242
▁kvůli	-2243
▁lepší	-2244
▁svobo	-2245
▁století	-2246
▁kam	-2247
▁met	-2248
▁mělo	-2249
▁němž	-2250
stliže	-2251
▁budouc	-2252
▁služby	-2253
ký	-2254
alo	-2255
mek	-2256
▁Bě	-2257
▁CD	-2258
▁100	-2259
▁zby	-2260
▁zne	-2261
▁úspěš	-2262
▁deseti	-2263
▁souvis	-2264
▁stanov	-2265
RA	-2266
lez	-2267
mov	-2268
▁At	-2269
▁Di	-2270
čila	-2271
▁Hav	-2272
▁odh	-2273
▁prý	-2274
sledu	-2275
▁jinak	-2276
▁nedáv	-2277
▁týden	-2278
▁funkce	-2279
▁provoz	-2280
▁zahraniční	-2281
tuje	-2282
▁Kro	-2283
▁cír	-2284
hodné	-2285
ovaná	-2286
▁návr	-2287
▁paci	-2288
▁tabu	-2289
stické	-2290
▁kdyby	-2291
▁zprac	-2292
▁zásad	-2293
▁Společ	-2294
▁nových	-2295
▁přísluš	-2296
▁zároveň	-2297
▁La	-2298
xist	-2299
▁sty	-2300
rozen	-2301
skými	-2302
▁minul	-2303
▁tradi	-2304
▁vytvá	-2305
▁situaci	-2306
▁činnost	-2307
▁be	-2308
bili	-2309
kých	-2310
zích	-2311
▁ope	-2312
▁tým	-2313
▁kont	-2314
▁měly	-2315
cin	-2316
dlo	-2317
jte	-2318
pen	-2319
tím	-2320
▁So	-2321
▁ves	-2322
vyšší	-2323
▁možná	-2324
▁přesto	-2325
▁snímku	-2326
▁náklady	-2327
zó	-2328
jak	-2329
res	-2330
▁cy	-2331
hlas	-2332
▁daň	-2333
hodno	-2334
▁celý	-2335
▁cenu	-2336
▁máme	-2337
▁okre	-2338
▁poda	-2339
▁názor	-2340
▁odmít	-2341
▁tvrdí	-2342
NÍ	-2343
son	-2344
▁lu	-2345
ckým	-2346
ostí	-2347
kladů	-2348
▁graf	-2349
▁pěti	-2350
▁mohli	-2351
▁Německ	-2352
▁ostatní	-2353
dná	-2354
▁nu	-2355
▁moc	-2356
▁nav	-2357
▁udr	-2358
inále	-2359
konec	-2360
stitu	-2361
▁apli	-2362
▁papí	-2363
▁titu	-2364
▁prová	-2365
▁invest	-2366
▁upozor	-2367
alu	-2368
rev	-2369
▁17	-2370
▁Ba	-2371
kovi	-2372
▁nev	-2373
▁plá	-2374
hledu	-2375
jedno	-2376
kovou	-2377
▁1993	-2378
▁lety	-2379
▁svém	-2380
▁polici	-2381
▁nezávis	-2382
▁požadav	-2383
▁současné	-2384
sně	-2385
včí	-2386
▁14	-2387
padu	-2388
▁dat	-2389
▁vyz	-2390
▁vzá	-2391
▁děti	-2392
▁kraj	-2393
▁pořád	-2394
▁vyjád	-2395
▁prvním	-2396
▁automob	-2397
sní	-2398
vek	-2399
▁Be	-2400
▁OS	-2401
▁Praha	-2402
nie	-2403
rad	-2404
sel	-2405
ách	-2406
▁lí	-2407
fika	-2408
▁hlas	-2409
▁jich	-2410
▁poru	-2411
▁reali	-2412
▁pracov	-2413
▁získat	-2414
▁počítač	-2415
,5	-2416
bali	-2417
níky	-2418
šťov	-2419
▁Nap	-2420
▁trh	-2421
lostí	-2422
▁doku	-2423
▁zapo	-2424
▁důvod	-2425
▁jednu	-2426
▁místě	-2427
▁prove	-2428
▁stojí	-2429
▁večer	-2430
▁zapla	-2431
▁majetku	-2432
▁nakonec	-2433
▁střední	-2434
▁všechno	-2435
chi	-2436
tera	-2437
▁ním	-2438
▁nikdy	-2439
▁průbě	-2440
▁publi	-2441
▁prohlásil	-2442
dar	-2443
šla	-2444
▁30	-2445
▁Ti	-2446
▁dé	-2447
arak	-2448
dově	-2449
▁sla	-2450
▁mlad	-2451
▁popu	-2452
▁reži	-2453
▁tisk	-2454
▁špat	-2455
▁vojen	-2456
▁partner	-2457
▁vedoucí	-2458
SR	-2459
ňují	-2460
▁proč	-2461
▁dohod	-2462
▁součá	-2463
▁charak	-2464
▁konkré	-2465
▁otevřen	-2466
▁konferen	-2467
▁možnosti	-2468
go	-2469
▁Pav	-2470
▁nemu	-2471
▁obvy	-2472
▁vody	-2473
▁výši	-2474
pozici	-2475
▁letoš	-2476
▁moleku	-2477
▁nového	-2478
chů	-2479
dra	-2480
ord	-2481
▁My	-2482
lené	-2483
▁Nav	-2484
▁pom	-2485
▁pos	-2486
▁vrá	-2487
▁vyž	-2488
▁úto	-2489
▁desí	-2490
▁film	-2491
▁dříve	-2492
▁menší	-2493
▁stavu	-2494
▁států	-2495
prvé	-2496
smus	-2497
▁Jel	-2498
▁jmen	-2499
▁Inter	-2500
▁disku	-2501
▁pokle	-2502
ug	-2503
dky	-2504
dala	-2505
▁Prá	-2506
▁Prahy	-2507
▁sobotu	-2508
ii	-2509
én	-2510
par	-2511
čný	-2512
▁Win	-2513
ložit	-2514
▁váno	-2515
▁pohyb	-2516
▁vznik	-2517
nic	-2518
▁fo	-2519
chyb	-2520
nili	-2521
vala	-2522
▁sym	-2523
▁kilo	-2524
▁znám	-2525
kového	-2526
▁parlamentu	-2527
žky	-2528
fici	-2529
šetř	-2530
▁kri	-2531
▁zlo	-2532
známi	-2533
▁chví	-2534
▁námě	-2535
▁usku	-2536
DA	-2537
sli	-2538
sor	-2539
éra	-2540
▁boj	-2541
▁stří	-2542
▁nutné	-2543
▁pocho	-2544
▁prostor	-2545
▁struktu	-2546
TO	-2547
dov	-2548
roz	-2549
▁us	-2550
dali	-2551
▁jmé	-2552
▁zru	-2553
▁cena	-2554
▁roční	-2555
▁vyrov	-2556
▁předseda	-2557
▁ministerstva	-2558
áz	-2559
hlé	-2560
les	-2561
mem	-2562
žeb	-2563
nách	-2564
náct	-2565
rech	-2566
▁ide	-2567
▁smr	-2568
▁vyp	-2569
▁Není	-2570
▁Tato	-2571
▁hovo	-2572
▁posu	-2573
▁zemi	-2574
▁záko	-2575
▁kandi	-2576
▁nebyl	-2577
▁přece	-2578
▁funkci	-2579
sfé	-2580
couz	-2581
pisu	-2582
▁stě	-2583
▁vši	-2584
metrů	-2585
▁agen	-2586
▁poté	-2587
▁záva	-2588
▁přípa	-2589
▁dlouho	-2590
▁můžeme	-2591
▁spojen	-2592
▁policie	-2593
▁všichni	-2594
▁organizace	-2595
▁samozřejmě	-2596
dl	-2597
lil	-2598
ktor	-2599
livě	-2600
teří	-2601
řady	-2602
▁bran	-2603
▁přiz	-2604
▁tvor	-2605
▁defin	-2606
▁nikdo	-2607
▁potom	-2608
▁sever	-2609
▁stani	-2610
▁potrav	-2611
▁podniků	-2612
▁prezidenta	-2613
ca	-2614
ené	-2615
mát	-2616
▁SS	-2617
▁Ře	-2618
anou	-2619
▁200	-2620
▁geo	-2621
ickou	-2622
▁akce	-2623
▁hlavně	-2624
▁násled	-2625
▁sloven	-2626
▁poměrně	-2627
▁českých	-2628
éf	-2629
bit	-2630
pod	-2631
▁zú	-2632
řské	-2633
žili	-2634
▁Kaž	-2635
▁sti	-2636
▁stí	-2637
▁Jana	-2638
▁něho	-2639
▁vede	-2640
▁vzdá	-2641
▁věcí	-2642
verzit	-2643
▁Kromě	-2644
▁voleb	-2645
adi	-2646
aný	-2647
▁11	-2648
▁50	-2649
kový	-2650
▁byt	-2651
▁psy	-2652
▁přá	-2653
▁řád	-2654
▁diva	-2655
▁klub	-2656
▁text	-2657
sledek	-2658
▁dvěma	-2659
▁schvá	-2660
▁našeho	-2661
děla	-2662
álním	-2663
ovatel	-2664
álního	-2665
▁přine	-2666
▁vyhrá	-2667
▁doporu	-2668
▁trenér	-2669
gie	-2670
kvi	-2671
šli	-2672
ladi	-2673
▁kap	-2674
▁mar	-2675
▁SSSR	-2676
▁nový	-2677
▁přev	-2678
▁sobě	-2679
ovaného	-2680
▁následu	-2681
alý	-2682
▁ša	-2683
ckém	-2684
veřej	-2685
▁disk	-2686
▁práv	-2687
▁zbra	-2688
▁zkou	-2689
▁ochra	-2690
▁vzájem	-2691
0,	-2692
ane	-2693
jně	-2694
kám	-2695
ška	-2696
mají	-2697
vědo	-2698
▁úvě	-2699
kojen	-2700
▁data	-2701
▁rizi	-2702
▁kromě	-2703
▁někdy	-2704
▁podpo	-2705
▁doprav	-2706
▁komise	-2707
▁překva	-2708
▁trochu	-2709
▁zemích	-2710
▁života	-2711
▁podmínky	-2712
SK	-2713
xu	-2714
▁ky	-2715
enci	-2716
rací	-2717
▁smě	-2718
▁neob	-2719
▁správ	-2720
▁Minist	-2721
▁podporu	-2722
▁základě	-2723
et	-2724
hi	-2725
wer	-2726
zdy	-2727
ďar	-2728
letý	-2729
▁čím	-2730
telem	-2731
▁došlo	-2732
▁manaže	-2733
▁výroby	-2734
▁pojišťov	-2735
▁zdů	-2736
aných	-2737
▁Brit	-2738
▁regi	-2739
▁místa	-2740
▁čtená	-2741
▁většina	-2742
▁parlament	-2743
atu	-2744
zdu	-2745
tace	-2746
▁běž	-2747
▁svá	-2748
▁Milo	-2749
▁dobré	-2750
▁vnitř	-2751
▁mimořád	-2752
▁sdružení	-2753
▁Au	-2754
▁já	-2755
▁her	-2756
▁hned	-2757
▁výji	-2758
▁mnoha	-2759
▁nižší	-2760
nictvím	-2761
▁základ	-2762
▁samostat	-2763
bil	-2764
gist	-2765
padá	-2766
rost	-2767
stil	-2768
zují	-2769
chodu	-2770
▁růst	-2771
▁tvoří	-2772
▁výrazně	-2773
▁informací	-2774
▁(1	-2775
▁ODS	-2776
▁Pol	-2777
▁bar	-2778
▁Mezi	-2779
▁vůči	-2780
▁autor	-2781
▁jader	-2782
▁navrh	-2783
▁prodá	-2784
▁tabul	-2785
▁tehdy	-2786
▁vedle	-2787
▁vyhlá	-2788
▁myšlen	-2789
▁rozpočtu	-2790
mot	-2791
ral	-2792
žek	-2793
bách	-2794
idla	-2795
míně	-2796
stří	-2797
▁Fir	-2798
▁Sla	-2799
▁hry	-2800
vních	-2801
▁Jaro	-2802
▁Také	-2803
▁plán	-2804
▁angli	-2805
▁přije	-2806
▁zastup	-2807
▁40	-2808
čili	-2809
▁teď	-2810
hnout	-2811
ováno	-2812
znamu	-2813
▁blíz	-2814
▁fran	-2815
▁slav	-2816
▁času	-2817
▁jistě	-2818
▁odpad	-2819
▁stran	-2820
▁výbor	-2821
▁dosava	-2822
▁nebylo	-2823
▁soubor	-2824
▁milionu	-2825
▁rozhodu	-2826
▁vítězství	-2827
CH	-2828
OR	-2829
eno	-2830
kal	-2831
řít	-2832
šky	-2833
desá	-2834
ismu	-2835
ovky	-2836
řili	-2837
▁Dru	-2838
▁vla	-2839
▁úko	-2840
kladu	-2841
desáti	-2842
▁druhý	-2843
▁nepro	-2844
▁ovliv	-2845
▁pomoc	-2846
cházejí	-2847
▁poprvé	-2848
▁aktivit	-2849
▁prostředky	-2850
plý	-2851
více	-2852
▁Vět	-2853
▁Jako	-2854
▁soud	-2855
▁unie	-2856
▁princi	-2857
▁procenta	-2858
▁reprezent	-2859
šk	-2860
tit	-2861
▁24	-2862
nika	-2863
risti	-2864
▁Power	-2865
▁kterým	-2866
▁teprve	-2867
▁zatímco	-2868
▁prosince	-2869
▁výsledky	-2870
▁spolupráci	-2871
.,	-2872
LE	-2873
br	-2874
wa	-2875
ón	-2876
sek	-2877
▁ori	-2878
telně	-2879
▁kata	-2880
▁sezó	-2881
▁sled	-2882
▁sovět	-2883
▁miliar	-2884
▁záležit	-2885
▁prohlášení	-2886
AD	-2887
řel	-2888
▁Tu	-2889
nami	-2890
štní	-2891
▁Bar	-2892
▁zvu	-2893
ránit	-2894
▁1994	-2895
▁Jeho	-2896
▁abso	-2897
▁Atlan	-2898
▁dosáh	-2899
▁mohla	-2900
▁poško	-2901
▁přibli	-2902
▁sněmov	-2903
▁ministra	-2904
▁prakticky	-2905
eb	-2906
▁l	-2907
ant	-2908
eni	-2909
leg	-2910
nec	-2911
▁Vi	-2912
nech	-2913
▁bře	-2914
▁zat	-2915
nácti	-2916
▁plně	-2917
▁vliv	-2918
▁listo	-2919
▁působí	-2920
▁hlediska	-2921
▁nejvyšší	-2922
▁kr	-2923
valo	-2924
▁oce	-2925
▁rad	-2926
▁sub	-2927
▁malé	-2928
▁ohro	-2929
▁zača	-2930
kazuje	-2931
▁barev	-2932
▁celou	-2933
▁služeb	-2934
▁velice	-2935
▁automobil	-2936
▁republice	-2937
▁prostřednictvím	-2938
ja	-2939
dli	-2940
jní	-2941
▁br	-2942
▁poj	-2943
▁úro	-2944
mosfé	-2945
▁daně	-2946
▁někdo	-2947
▁tajem	-2948
▁žádné	-2949
▁zajímav	-2950
cé	-2951
ws	-2952
spí	-2953
▁im	-2954
chem	-2955
kraj	-2956
lech	-2957
něte	-2958
▁Rak	-2959
▁foto	-2960
▁strá	-2961
▁typu	-2962
▁řadu	-2963
▁strán	-2964
▁předmě	-2965
▁dispozici	-2966
▁souvislosti	-2967
aná	-2968
lém	-2969
éri	-2970
▁pé	-2971
itel	-2972
obec	-2973
tury	-2974
▁Pak	-2975
prava	-2976
stava	-2977
tropo	-2978
▁díky	-2979
▁jazy	-2980
▁mohlo	-2981
▁soupe	-2982
▁změny	-2983
▁šesti	-2984
▁Jelcin	-2985
▁budeme	-2986
▁mluvčí	-2987
▁průměr	-2988
asi	-2989
lie	-2990
▁fa	-2991
entů	-2992
orii	-2993
▁mne	-2994
▁ser	-2995
▁chem	-2996
▁doma	-2997
▁nena	-2998
▁vari	-2999
▁zvyš	-3000
▁dodal	-3001
▁ledna	-3002
▁rámci	-3003
▁sebou	-3004
▁státy	-3005
▁prostě	-3006
▁sportov	-3007
.)	-3008
cy	-3009
cku	-3010
mlu	-3011
▁Mí	-3012
▁PO	-3013
adva	-3014
káže	-3015
sion	-3016
vero	-3017
▁kal	-3018
▁oba	-3019
▁tou	-3020
▁udá	-3021
vodně	-3022
▁fakt	-3023
▁exper	-3024
▁přesně	-3025
▁elektro	-3026
▁nejméně	-3027
▁podařilo	-3028
klo	-3029
oin	-3030
šil	-3031
nebo	-3032
stev	-3033
▁dlu	-3034
▁divá	-3035
▁jenž	-3036
▁loni	-3037
▁pozi	-3038
▁roli	-3039
▁stal	-3040
▁závo	-3041
▁časo	-3042
žování	-3043
▁Angli	-3044
▁inform	-3045
▁sestav	-3046
SD	-3047
fri	-3048
▁2.	-3049
▁čs	-3050
kově	-3051
před	-3052
slím	-3053
čeno	-3054
lovat	-3055
▁zlep	-3056
▁červ	-3057
▁PowerP	-3058
▁příspě	-3059
▁atmosfé	-3060
▁mistrov	-3061
▁Například	-3062
mon	-3063
šak	-3064
▁Fe	-3065
bují	-3066
dows	-3067
mech	-3068
vobo	-3069
žené	-3070
▁Jde	-3071
jícím	-3072
▁Tyto	-3073
ložení	-3074
▁Klaus	-3075
▁prote	-3076
▁právo	-3077
▁Spojen	-3078
▁opravdu	-3079
▁Jestliže	-3080
ig	-3081
fik	-3082
▁SR	-3083
dělá	-3084
leko	-3085
▁náš	-3086
▁sig	-3087
▁zab	-3088
▁Poli	-3089
▁Praž	-3090
▁brit	-3091
▁neod	-3092
▁radi	-3093
▁všem	-3094
▁zdro	-3095
▁formu	-3096
stoupil	-3097
▁ekolog	-3098
▁histor	-3099
▁pohled	-3100
▁Zatímco	-3101
▁miliónů	-3102
▁smlouvu	-3103
▁politické	-3104
▁bezpečnost	-3105
AN	-3106
che	-3107
▁Vz	-3108
▁úva	-3109
teční	-3110
▁Dnes	-3111
▁indi	-3112
▁nadá	-3113
▁odvo	-3114
▁minut	-3115
▁odhad	-3116
▁peněz	-3117
ujících	-3118
▁kandidá	-3119
▁premiér	-3120
▁opatření	-3121
blí	-3122
jme	-3123
kali	-3124
ribu	-3125
rozu	-3126
▁Lid	-3127
▁kru	-3128
vější	-3129
▁1991	-3130
▁Petr	-3131
▁okol	-3132
▁schů	-3133
▁výše	-3134
▁dnech	-3135
▁ofici	-3136
▁uprav	-3137
▁jiného	-3138
▁středu	-3139
▁určité	-3140
▁nedávno	-3141
▁příležit	-3142
▁spoluprac	-3143
hý	-3144
ici	-3145
vám	-3146
zky	-3147
anci	-3148
však	-3149
zené	-3150
▁ciz	-3151
▁dět	-3152
▁klá	-3153
▁Čer	-3154
▁doda	-3155
▁reak	-3156
▁vyrá	-3157
▁Jejich	-3158
▁chtějí	-3159
▁jednoduch	-3160
▁podnikání	-3161
▁ministerstvo	-3162
▁zahraničních	-3163
tý	-3164
avy	-3165
dci	-3166
▁up	-3167
rali	-3168
▁Kdo	-3169
▁dop	-3170
▁hvě	-3171
▁pár	-3172
ickým	-3173
paněl	-3174
▁obli	-3175
▁rady	-3176
▁metrů	-3177
▁svazu	-3178
▁úřadu	-3179
▁měsíců	-3180
▁Windows	-3181
▁postupně	-3182
ON	-3183
ary	-3184
kan	-3185
ital	-3186
port	-3187
tila	-3188
▁hru	-3189
▁kře	-3190
▁zob	-3191
▁rodi	-3192
▁vzor	-3193
▁zpět	-3194
▁poptá	-3195
nických	-3196
▁rozhov	-3197
▁vyšetř	-3198
▁zastav	-3199
▁kterých	-3200
▁založen	-3201
▁PowerPoin	-3202
▁společenství	-3203
AL	-3204
jit	-3205
rum	-3206
tin	-3207
zně	-3208
▁Su	-3209
▁tá	-3210
nské	-3211
▁Jin	-3212
▁Rad	-3213
▁níz	-3214
▁Ško	-3215
lomou	-3216
násob	-3217
ňovat	-3218
▁Jsou	-3219
▁neví	-3220
▁ovlá	-3221
▁náhra	-3222
▁počtu	-3223
▁objekt	-3224
▁utkání	-3225
▁zúčast	-3226
▁podobně	-3227
▁soukrom	-3228
▁speciali	-3229
▁univerzit	-3230
▁reprezenta	-3231
car	-3232
uji	-3233
▁oz	-3234
▁ší	-3235
koho	-3236
nilo	-3237
oslá	-3238
volu	-3239
▁klí	-3240
▁naz	-3241
▁šéf	-3242
telný	-3243
zrael	-3244
▁sami	-3245
▁zamě	-3246
▁zisk	-3247
ugoslá	-3248
▁klubu	-3249
▁nahra	-3250
▁obsah	-3251
▁členů	-3252
▁dnešní	-3253
▁vzdálen	-3254
▁nezaměst	-3255
dé	-3256
alá	-3257
nos	-3258
ést	-3259
▁22	-3260
▁MS	-3261
enta	-3262
vost	-3263
žila	-3264
▁čem	-3265
nějším	-3266
znamen	-3267
▁objev	-3268
▁ročně	-3269
▁nadále	-3270
▁tlačít	-3271
▁turist	-3272
stoupení	-3273
▁zdravotní	-3274
ld	-3275
stek	-3276
řila	-3277
▁Joh	-3278
▁voj	-3279
hodně	-3280
počet	-3281
▁pohá	-3282
▁spra	-3283
▁týmu	-3284
▁jejím	-3285
▁snaží	-3286
▁číslo	-3287
▁mnohem	-3288
▁miliard	-3289
▁podniky	-3290
EM	-3291
▁Já	-3292
dila	-3293
tují	-3294
▁Ani	-3295
▁cit	-3296
▁špi	-3297
exist	-3298
šením	-3299
▁Větš	-3300
▁lépe	-3301
▁odpo	-3302
stoupi	-3303
▁Ostra	-3304
▁různé	-3305
▁obsahu	-3306
▁veliko	-3307
▁záznam	-3308
▁nabídky	-3309
▁západní	-3310
▁hospodářství	-3311
ár	-3312
▁Hu	-3313
▁Sy	-3314
dost	-3315
▁list	-3316
▁opak	-3317
▁výmě	-3318
▁fondu	-3319
▁hlubo	-3320
▁hodně	-3321
▁jenom	-3322
▁okolí	-3323
▁slova	-3324
▁musíme	-3325
▁noviná	-3326
▁obchod	-3327
▁vyslov	-3328
▁vysoké	-3329
▁Protože	-3330
▁kterého	-3331
▁umožňuje	-3332
▁podstatně	-3333
▁pojištění	-3334
▁přibližně	-3335
nd	-3336
ken	-3337
▁bí	-3338
hoda	-3339
▁Hla	-3340
▁blo	-3341
▁scé	-3342
▁sni	-3343
pravě	-3344
působ	-3345
střed	-3346
▁hrát	-3347
▁obtí	-3348
▁stup	-3349
▁řada	-3350
▁říci	-3351
zování	-3352
▁banky	-3353
▁městě	-3354
▁novou	-3355
▁podíl	-3356
▁prázd	-3357
▁tolik	-3358
▁nebyla	-3359
▁pomoci	-3360
▁proces	-3361
▁začíná	-3362
▁zdůraz	-3363
▁chování	-3364
▁obchodu	-3365
▁zvýšení	-3366
▁českého	-3367
▁možností	-3368
▁případech	-3369
IN	-3370
fo	-3371
bro	-3372
dak	-3373
čná	-3374
vili	-3375
átní	-3376
▁Kra	-3377
▁Mno	-3378
dejší	-3379
▁důvě	-3380
▁ocho	-3381
▁sítě	-3382
vatele	-3383
▁napro	-3384
▁Přitom	-3385
▁kterém	-3386
▁fotbali	-3387
▁obvykle	-3388
▁zaměstna	-3389
nce	-3390
vie	-3391
áct	-3392
ovit	-3393
čilo	-3394
▁Pre	-3395
hodob	-3396
lenou	-3397
skému	-3398
▁Nová	-3399
▁moci	-3400
▁voli	-3401
▁takto	-3402
▁manžel	-3403
▁otázku	-3404
▁nebezpe	-3405
▁průběhu	-3406
▁miliardy	-3407
▁politiky	-3408
mr	-3409
art	-3410
klu	-3411
nik	-3412
vka	-3413
▁ME	-3414
▁tj	-3415
nají	-3416
orit	-3417
tali	-3418
▁del	-3419
▁vod	-3420
▁dopl	-3421
▁opti	-3422
▁svaz	-3423
ňování	-3424
▁jakou	-3425
▁kateg	-3426
▁spole	-3427
▁turna	-3428
▁ulici	-3429
▁vrcho	-3430
▁žádný	-3431
▁nabízí	-3432
▁nemusí	-3433
▁osobní	-3434
▁platit	-3435
▁příjem	-3436
▁složit	-3437
▁nedosta	-3438
▁jednozna	-3439
nap	-3440
vin	-3441
álů	-3442
lého	-3443
pisy	-3444
ster	-3445
váme	-3446
▁reál	-3447
▁znak	-3448
ativní	-3449
▁bohat	-3450
▁souse	-3451
▁začal	-3452
▁Česká	-3453
konstru	-3454
▁autobu	-3455
▁biolog	-3456
▁celkem	-3457
▁chvíli	-3458
▁názoru	-3459
▁otázky	-3460
▁úrovni	-3461
▁projekt	-3462
▁životní	-3463
CE	-3464
mý	-3465
bud	-3466
žná	-3467
▁Ri	-3468
▁Už	-3469
mění	-3470
tili	-3471
ších	-3472
▁Bez	-3473
▁Cel	-3474
▁bud	-3475
▁pís	-3476
▁Země	-3477
▁stou	-3478
▁ukon	-3479
vnější	-3480
▁matem	-3481
▁rodin	-3482
▁uvádí	-3483
▁vyžad	-3484
▁dohody	-3485
▁nemají	-3486
▁odstra	-3487
▁předcho	-3488
▁východní	-3489
▁pracovníků	-3490
▁skutečnost	-3491
▁mistrovství	-3492
rb	-3493
rd	-3494
krá	-3495
▁bá	-3496
▁em	-3497
emoc	-3498
seda	-3499
átor	-3500
▁Sch	-3501
▁dvo	-3502
▁sem	-3503
▁sle	-3504
ledne	-3505
tečné	-3506
▁Jose	-3507
▁NATO	-3508
▁dětí	-3509
▁poně	-3510
▁pově	-3511
jícího	-3512
kládat	-3513
▁domní	-3514
▁našem	-3515
▁textu	-3516
▁okamži	-3517
▁podrob	-3518
▁rozvoj	-3519
▁znamen	-3520
▁skupina	-3521
▁zástupce	-3522
▁dlouhodob	-3523
▁společností	-3524
alí	-3525
jev	-3526
sah	-3527
▁Ge	-3528
sech	-3529
▁inf	-3530
▁mon	-3531
▁poh	-3532
lární	-3533
mínek	-3534
▁chyb	-3535
▁dvan	-3536
▁sama	-3537
▁čeká	-3538
vatelé	-3539
▁minim	-3540
▁nesta	-3541
▁velký	-3542
tických	-3543
▁dostal	-3544
▁místní	-3545
▁pojist	-3546
▁region	-3547
▁energie	-3548
▁konstru	-3549
▁objektů	-3550
▁pražské	-3551
▁provozu	-3552
▁americké	-3553
▁listopadu	-3554
▁obchodního	-3555
▁transforma	-3556
ast	-3557
řím	-3558
▁60	-3559
▁ús	-3560
cemi	-3561
lova	-3562
pisů	-3563
teré	-3564
vidu	-3565
čnou	-3566
▁Tím	-3567
▁děj	-3568
▁Naví	-3569
▁Stej	-3570
▁ukáz	-3571
▁řadě	-3572
▁Japon	-3573
▁Ještě	-3574
▁převá	-3575
▁tuzem	-3576
▁výjim	-3577
▁finále	-3578
▁nikoli	-3579
▁přítom	-3580
▁zdrojů	-3581
▁okamžit	-3582
▁čtvrtek	-3583
▁Evropské	-3584
▁oddělení	-3585
▁současně	-3586
▁postavení	-3587
ouf	-3588
ence	-3589
stvu	-3590
řené	-3591
žený	-3592
▁OSN	-3593
▁atd	-3594
▁sli	-3595
▁taj	-3596
dnost	-3597
slava	-3598
▁Brně	-3599
▁Nyní	-3600
enství	-3601
stroje	-3602
▁Navíc	-3603
▁hráčů	-3604
▁každé	-3605
▁kriti	-3606
▁podnik	-3607
▁letošní	-3608
▁výrobky	-3609
▁bývalého	-3610
▁produkce	-3611
▁představuje	-3612
▁skutečnosti	-3613
FA	-3614
adí	-3615
tku	-3616
ále	-3617
▁Dů	-3618
▁Čí	-3619
kací	-3620
sahu	-3621
tové	-3622
čané	-3623
čemž	-3624
▁uvo	-3625
átkem	-3626
▁filo	-3627
▁vzpo	-3628
▁cestu	-3629
▁muset	-3630
▁rekla	-3631
▁vyplý	-3632
▁včere	-3633
▁zmíně	-3634
▁dalším	-3635
▁neděli	-3636
▁smyslu	-3637
▁výboru	-3638
▁výzkum	-3639
▁zveřej	-3640
▁koncent	-3641
▁organiza	-3642
▁přednost	-3643
▁přirozen	-3644
▁prostředků	-3645
sme	-3646
▁23	-3647
▁Až	-3648
chov	-3649
dili	-3650
dělí	-3651
▁chu	-3652
▁rek	-3653
▁vyh	-3654
▁věc	-3655
ickém	-3656
vnost	-3657
▁Mosk	-3658
▁kapa	-3659
▁regu	-3660
▁soft	-3661
▁vide	-3662
ovanou	-3663
štěstí	-3664
▁Morav	-3665
▁posto	-3666
▁školy	-3667
▁měsíce	-3668
▁oznámi	-3669
▁stejné	-3670
▁studen	-3671
▁elektrá	-3672
▁hodnoty	-3673
▁přičemž	-3674
▁velkých	-3675
▁výrobků	-3676
▁začátku	-3677
▁francouz	-3678
▁součástí	-3679
▁spokojen	-3680
IV	-3681
haj	-3682
nad	-3683
▁Dě	-3684
▁Vá	-3685
pory	-3686
vést	-3687
▁Pou	-3688
▁buď	-3689
▁mlá	-3690
▁uží	-3691
stala	-3692
▁1989	-3693
▁apod	-3694
▁fung	-3695
▁ital	-3696
▁nevě	-3697
▁uved	-3698
komuni	-3699
stival	-3700
▁Vladi	-3701
▁akcií	-3702
▁konci	-3703
▁odliš	-3704
▁výhod	-3705
▁závod	-3706
stávají	-3707
▁jedním	-3708
▁přízni	-3709
▁takový	-3710
▁objektu	-3711
▁prvních	-3712
▁prezentace	-3713
▁privatizace	-3714
vlá	-3715
čtí	-3716
▁Ex	-3717
▁PC	-3718
▁Nem	-3719
▁Tře	-3720
▁těm	-3721
▁jiný	-3722
▁smlu	-3723
▁vhod	-3724
▁dospě	-3725
▁fakul	-3726
▁kolik	-3727
▁nastav	-3728
▁předem	-3729
▁teorie	-3730
▁zajišť	-3731
desátých	-3732
▁dopravy	-3733
▁student	-3734
▁problémů	-3735
▁zasedání	-3736
▁životního	-3737
▁charakteri	-3738
ER	-3739
xe	-3740
▁ať	-3741
člen	-3742
šila	-3743
▁Bra	-3744
▁drá	-3745
▁neú	-3746
▁opu	-3747
▁pok	-3748
žovat	-3749
▁Bylo	-3750
▁domů	-3751
▁nato	-3752
▁Podob	-3753
▁Sovět	-3754
▁Všech	-3755
▁mikro	-3756
▁nesou	-3757
▁práva	-3758
▁celého	-3759
▁komple	-3760
▁konstat	-3761
▁setkání	-3762
▁poslanců	-3763
▁pracovat	-3764
▁srovnání	-3765
▁státního	-3766
▁letošního	-3767
▁ostatních	-3768
▁zdravotnictví	-3769
EL	-3770
IT	-3771
ger	-3772
šku	-3773
▁Ha	-3774
▁gó	-3775
níka	-3776
soci	-3777
vině	-3778
visí	-3779
čují	-3780
▁Aby	-3781
▁mám	-3782
evrop	-3783
▁Spar	-3784
▁Toto	-3785
▁dává	-3786
▁květ	-3787
▁noci	-3788
▁nová	-3789
▁vědo	-3790
▁Pavel	-3791
▁respe	-3792
▁svými	-3793
▁tiská	-3794
▁podobě	-3795
▁strana	-3796
▁tisíce	-3797
▁kultury	-3798
▁nebezpečí	-3799
50	-3800
es	-3801
▁Ra	-3802
hléd	-3803
jezd	-3804
rovo	-3805
sáhl	-3806
▁pev	-3807
▁půj	-3808
hužel	-3809
▁Proč	-3810
▁Stra	-3811
▁klas	-3812
▁komb	-3813
▁meda	-3814
▁účet	-3815
▁člán	-3816
fikaci	-3817
▁Rakou	-3818
▁Zeman	-3819
▁probí	-3820
▁promě	-3821
▁přijí	-3822
▁smrti	-3823
▁zájmu	-3824
▁závis	-3825
▁umístě	-3826
▁uspořá	-3827
▁celkové	-3828
▁standar	-3829
▁společné	-3830
▁společně	-3831
▁politických	-3832
AV	-3833
uro	-3834
vak	-3835
véd	-3836
ích	-3837
▁He	-3838
▁Lé	-3839
míná	-3840
čítá	-3841
▁dia	-3842
▁leg	-3843
▁prv	-3844
▁srp	-3845
rátit	-3846
tický	-3847
▁podá	-3848
▁třet	-3849
kladem	-3850
▁jméno	-3851
▁údaje	-3852
▁koncep	-3853
▁koncer	-3854
▁občanů	-3855
▁skupin	-3856
▁získal	-3857
▁neexist	-3858
ždě	-3859
valy	-3860
▁doz	-3861
▁mas	-3862
▁Chce	-3863
▁Chor	-3864
▁lidi	-3865
▁vzdu	-3866
▁Britá	-3867
▁hnutí	-3868
▁soudu	-3869
▁stati	-3870
▁umění	-3871
▁důvodů	-3872
▁poplat	-3873
▁snímek	-3874
▁zdraví	-3875
▁nejvíce	-3876
▁soutěže	-3877
▁vzhledem	-3878
▁jednotlivé	-3879
ES	-3880
mad	-3881
moc	-3882
tat	-3883
▁Lo	-3884
▁SP	-3885
cion	-3886
lépe	-3887
tora	-3888
▁Dob	-3889
▁Fin	-3890
▁Man	-3891
▁Uni	-3892
datel	-3893
stěji	-3894
čením	-3895
▁1990	-3896
▁bývá	-3897
▁hlad	-3898
▁moti	-3899
▁osmi	-3900
▁vyře	-3901
▁ztra	-3902
▁hráči	-3903
▁jedná	-3904
▁stadi	-3905
▁získa	-3906
tického	-3907
▁hodiny	-3908
▁podpor	-3909
▁velkou	-3910
▁vnitřní	-3911
▁vybavení	-3912
▁investice	-3913
rné	-3914
zda	-3915
boli	-3916
bývá	-3917
lynu	-3918
nese	-3919
zeny	-3920
▁kab	-3921
▁trá	-3922
▁tvá	-3923
▁uči	-3924
▁zpo	-3925
stili	-3926
▁hoke	-3927
▁hote	-3928
▁jaký	-3929
▁muze	-3930
▁napo	-3931
▁naps	-3932
▁potí	-3933
▁požá	-3934
▁vaše	-3935
▁vybí	-3936
▁zahr	-3937
▁archi	-3938
▁mohly	-3939
▁okolo	-3940
▁plane	-3941
▁rozvo	-3942
▁signá	-3943
▁daleko	-3944
▁koncem	-3945
▁otázka	-3946
▁poziti	-3947
▁počítá	-3948
▁původní	-3949
▁považuje	-3950
▁počítače	-3951
tal	-3952
▁Op	-3953
▁ot	-3954
leží	-3955
voda	-3956
▁Bel	-3957
▁Itá	-3958
▁pru	-3959
▁zas	-3960
lejší	-3961
výcar	-3962
▁divi	-3963
▁prou	-3964
▁spíš	-3965
▁trén	-3966
▁věku	-3967
ňující	-3968
▁Maďar	-3969
▁chybě	-3970
▁oboru	-3971
▁rukou	-3972
▁tímto	-3973
▁Olomou	-3974
▁filozo	-3975
▁kontak	-3976
▁automat	-3977
▁náměstí	-3978
▁někteří	-3979
▁poněkud	-3980
▁obsahuje	-3981
▁zástupci	-3982
▁kilometrů	-3983
▁ekonomické	-3984
NA	-3985
OU	-3986
her	-3987
ret	-3988
řem	-3989
▁Ar	-3990
▁ly	-3991
terá	-3992
šker	-3993
▁Kčs	-3994
▁leh	-3995
▁pol	-3996
▁mužů	-3997
▁září	-3998
cházet	-3999
▁Kdyby	-4000
▁Posla	-4001
▁jasné	-4002
▁moder	-4003
▁dvacet	-4004
▁geomet	-4005
▁nechtě	-4006
▁psycho	-4007
▁přišel	-4008
▁relati	-4009
▁institu	-4010
▁objekty	-4011
▁prvního	-4012
▁výsledek	-4013
▁zaměstnání	-4014
▁zkušenosti	-4015
EZ	-4016
zů	-4017
čt	-4018
sím	-4019
ály	-4020
▁Da	-4021
▁Ke	-4022
▁Va	-4023
▁196	-4024
▁log	-4025
▁pát	-4026
▁smí	-4027
▁Bude	-4028
▁směr	-4029
▁absol	-4030
▁druhů	-4031
▁obrov	-4032
▁svoji	-4033
▁nejbli	-4034
▁povrch	-4035
▁poznat	-4036
▁přispě	-4037
▁Chorvat	-4038
▁hlavním	-4039
▁kapitál	-4040
▁každého	-4041
▁nebudou	-4042
▁problem	-4043
▁stanovi	-4044
▁zůstává	-4045
▁aplikace	-4046
▁existuje	-4047
▁nebezpeč	-4048
▁podmínek	-4049
▁dosavadní	-4050
▁profesion	-4051
▁vytvoření	-4052
dka	-4053
ity	-4054
rii	-4055
▁Pi	-4056
stau	-4057
▁Ber	-4058
▁dáv	-4059
▁dří	-4060
▁vaz	-4061
▁ven	-4062
mální	-4063
vosti	-4064
▁konf	-4065
▁post	-4066
▁roze	-4067
▁tady	-4068
▁chtěl	-4069
▁inici	-4070
▁likvi	-4071
▁samot	-4072
▁uměle	-4073
▁nabíze	-4074
▁snadno	-4075
▁vystav	-4076
▁začala	-4077
▁úroveň	-4078
▁případně	-4079
▁minulosti	-4080
▁zaměstnanců	-4081
2.	-4082
Dr	-4083
ňů	-4084
▁,	-4085
cii	-4086
gem	-4087
gre	-4088
cího	-4089
ovot	-4090
▁197	-4091
▁Již	-4092
▁Nad	-4093
▁ali	-4094
▁chá	-4095
▁mil	-4096
telná	-4097
řední	-4098
▁doba	-4099
▁domu	-4100
▁komp	-4101
▁pamě	-4102
▁širo	-4103
▁Jeden	-4104
▁Micha	-4105
▁praxi	-4106
▁pátek	-4107
▁český	-4108
▁druhém	-4109
▁onemoc	-4110
▁určitě	-4111
▁koalice	-4112
▁uskuteč	-4113
▁poslanci	-4114
alé	-4115
ben	-4116
kém	-4117
lka	-4118
nka	-4119
ňky	-4120
▁zu	-4121
logie	-4122
▁Prof	-4123
▁spou	-4124
▁ubyt	-4125
▁vydá	-4126
▁výda	-4127
vakrát	-4128
▁nekon	-4129
▁nesmí	-4130
▁vidět	-4131
▁vztah	-4132
▁šanci	-4133
▁souhla	-4134
▁dvaceti	-4135
▁kvality	-4136
▁světové	-4137
▁festival	-4138
▁připraven	-4139
▁.	-4140
běh	-4141
lné	-4142
xim	-4143
čce	-4144
▁1,	-4145
kční	-4146
livé	-4147
spěš	-4148
▁dny	-4149
▁dnů	-4150
▁pon	-4151
zením	-4152
zozem	-4153
▁Vždy	-4154
▁adre	-4155
▁dvoj	-4156
▁léta	-4157
▁síly	-4158
▁téma	-4159
▁vojá	-4160
▁vysí	-4161
řských	-4162
žených	-4163
▁Každý	-4164
▁dodáv	-4165
▁knihy	-4166
▁možno	-4167
▁příbu	-4168
▁redak	-4169
▁stačí	-4170
▁uvědo	-4171
▁členy	-4172
jednodu	-4173
▁klimat	-4174
▁ostrov	-4175
▁změnit	-4176
▁Německa	-4177
▁hospoda	-4178
▁nikoliv	-4179
▁použití	-4180
▁volbách	-4181
▁zvláštní	-4182
▁konkrétní	-4183
▁návštěvní	-4184
▁pozornost	-4185
▁základních	-4186
19	-4187
SČ	-4188
ií	-4189
dro	-4190
har	-4191
▁26	-4192
▁Ce	-4193
▁Tě	-4194
▁ga	-4195
▁kó	-4196
▁řá	-4197
hají	-4198
kého	-4199
pětí	-4200
tách	-4201
vých	-4202
▁Slu	-4203
▁ano	-4204
▁dal	-4205
▁gen	-4206
▁kle	-4207
denní	-4208
mysle	-4209
tická	-4210
▁Slov	-4211
▁buně	-4212
▁drob	-4213
▁oprá	-4214
▁reag	-4215
▁činí	-4216
fikace	-4217
vedení	-4218
▁model	-4219
▁tisku	-4220
znamená	-4221
▁jediný	-4222
▁přenos	-4223
▁abychom	-4224
▁kapacit	-4225
▁spojení	-4226
▁Minister	-4227
▁individu	-4228
▁odpovídá	-4229
▁podstatě	-4230
▁rychlost	-4231
▁července	-4232
AR	-4233
pů	-4234
sť	-4235
žít	-4236
neme	-4237
toři	-4238
▁Hra	-4239
▁Zde	-4240
▁pad	-4241
▁sen	-4242
aného	-4243
menty	-4244
stroj	-4245
▁odmě	-4246
▁pole	-4247
▁test	-4248
lových	-4249
▁Brati	-4250
▁analý	-4251
▁objem	-4252
▁opozi	-4253
▁slune	-4254
▁tepla	-4255
▁těžko	-4256
▁vylou	-4257
▁víken	-4258
▁výběr	-4259
▁úplně	-4260
stoupit	-4261
▁druhou	-4262
▁obvině	-4263
▁restau	-4264
▁výrobu	-4265
▁oprávně	-4266
▁pracuje	-4267
▁techniky	-4268
▁potřebuje	-4269
▁představitelé	-4270
ff	-4271
ROM	-4272
lal	-4273
řka	-4274
▁Br	-4275
▁Že	-4276
žela	-4277
▁Byl	-4278
▁Gra	-4279
▁Hor	-4280
▁síť	-4281
vního	-4282
žením	-4283
▁bank	-4284
▁celá	-4285
▁kola	-4286
▁míry	-4287
▁nábo	-4288
▁svěd	-4289
▁anebo	-4290
▁círke	-4291
▁inten	-4292
▁novin	-4293
▁pravo	-4294
▁systé	-4295
▁volby	-4296
▁zásob	-4297
▁šampi	-4298
▁nezbyt	-4299
▁návrhu	-4300
▁varian	-4301
▁zprávy	-4302
▁Některé	-4303
▁Přestože	-4304
gne	-4305
též	-4306
říž	-4307
▁fi	-4308
lest	-4309
mout	-4310
zena	-4311
▁mat	-4312
▁též	-4313
▁krok	-4314
▁shro	-4315
▁zvíř	-4316
▁žele	-4317
▁diplo	-4318
▁dělat	-4319
▁maxim	-4320
▁penzi	-4321
▁prosa	-4322
▁rekre	-4323
▁energe	-4324
▁financ	-4325
▁předlo	-4326
▁vyvolá	-4327
▁soustav	-4328
▁všeobec	-4329
▁vytvořit	-4330
▁vlastnosti	-4331
drž	-4332
gii	-4333
lín	-4334
mní	-4335
pří	-4336
růz	-4337
zev	-4338
▁oh	-4339
lací	-4340
rají	-4341
terý	-4342
čené	-4343
čkou	-4344
▁bod	-4345
▁rád	-4346
▁syn	-4347
▁tri	-4348
▁vra	-4349
▁vyv	-4350
▁úno	-4351
▁Její	-4352
▁dist	-4353
▁dítě	-4354
▁ráme	-4355
▁ženy	-4356
slední	-4357
▁skoro	-4358
▁sport	-4359
▁vybra	-4360
▁vybud	-4361
▁výhra	-4362
▁Franti	-4363
▁jednom	-4364
▁každém	-4365
▁vyrábě	-4366
▁Interne	-4367
▁dvakrát	-4368
▁konečně	-4369
▁nákladů	-4370
▁důležité	-4371
▁podnikatele	-4372
CI	-4373
ilí	-4374
viz	-4375
▁ES	-4376
▁út	-4377
jmen	-4378
lena	-4379
něme	-4380
časí	-4381
▁Nez	-4382
▁Ste	-4383
▁jít	-4384
▁ner	-4385
▁trž	-4386
dlení	-4387
lační	-4388
▁bytů	-4389
▁seku	-4390
myslov	-4391
stoupí	-4392
▁firmě	-4393
▁nejvý	-4394
▁nákup	-4395
▁osoby	-4396
▁popis	-4397
rálního	-4398
▁chcete	-4399
▁obrany	-4400
▁použit	-4401
▁použít	-4402
▁vešker	-4403
▁vztahu	-4404
▁Německu	-4405
▁Všechny	-4406
▁financí	-4407
▁hranice	-4408
▁federace	-4409
▁pravidel	-4410
▁průmyslu	-4411
▁včerejší	-4412
▁rekonstru	-4413
▁evropských	-4414
▁současnosti	-4415
ash	-4416
dné	-4417
ket	-4418
lob	-4419
lám	-4420
▁28	-4421
▁35	-4422
ladu	-4423
lají	-4424
např	-4425
ácti	-4426
šené	-4427
▁300	-4428
▁věd	-4429
delně	-4430
dříve	-4431
spěch	-4432
terní	-4433
vodem	-4434
čných	-4435
▁klíč	-4436
▁lete	-4437
▁míru	-4438
▁osla	-4439
▁Firma	-4440
▁Právě	-4441
▁cílem	-4442
▁slovo	-4443
▁zobra	-4444
▁objeví	-4445
▁pořada	-4446
▁staveb	-4447
▁středo	-4448
▁nejlépe	-4449
▁původně	-4450
▁strateg	-4451
▁prostoru	-4452
▁ředitele	-4453
▁amerických	-4454
▁zastupitel	-4455
▁Společenství	-4456
▁pravděpodobně	-4457
bra	-4458
▁Ži	-4459
▁194	-4460
▁500	-4461
▁Asi	-4462
▁Kom	-4463
▁eta	-4464
▁tem	-4465
▁výt	-4466
chách	-4467
pravu	-4468
tovat	-4469
ždění	-4470
▁bodů	-4471
▁maje	-4472
▁mono	-4473
▁pořá	-4474
▁uvaž	-4475
▁vidí	-4476
▁Čech	-4477
ington	-4478
kázala	-4479
tickou	-4480
▁Ukraj	-4481
▁rokem	-4482
▁rozdě	-4483
▁růstu	-4484
▁spočí	-4485
▁zisku	-4486
▁Ústav	-4487
▁udělat	-4488
▁dostane	-4489
▁podobné	-4490
▁počátku	-4491
▁sněmovny	-4492
▁přírodově	-4493
▁předpokládá	-4494
IS	-4495
ají	-4496
aty	-4497
ino	-4498
nci	-4499
nky	-4500
ser	-4501
set	-4502
sit	-4503
čov	-4504
hání	-4505
nitř	-4506
tura	-4507
šuje	-4508
▁Mez	-4509
▁kre	-4510
▁sbí	-4511
▁zmi	-4512
ticky	-4513
▁brzy	-4514
▁hude	-4515
▁nalé	-4516
▁změn	-4517
▁záru	-4518
zident	-4519
zované	-4520
šování	-4521
▁Josef	-4522
▁delší	-4523
▁domác	-4524
▁jejíž	-4525
▁silni	-4526
▁stala	-4527
▁subje	-4528
▁vypad	-4529
▁čísla	-4530
▁lékaře	-4531
▁partne	-4532
▁patrně	-4533
▁pravda	-4534
▁zdroje	-4535
▁úspěch	-4536
▁ústavu	-4537
▁majitel	-4538
▁turisti	-4539
▁zvláště	-4540
▁Vzhledem	-4541
▁příslušní	-4542
▁konkurence	-4543
▁veřejnosti	-4544
▁technologie	-4545
bri	-4546
lec	-4547
mrt	-4548
pal	-4549
tos	-4550
zdí	-4551
čte	-4552
▁21	-4553
▁AI	-4554
▁Bi	-4555
▁Ga	-4556
arié	-4557
bami	-4558
ingu	-4559
vané	-4560
vení	-4561
▁Par	-4562
▁kos	-4563
▁mír	-4564
▁Svět	-4565
▁fond	-4566
▁kolo	-4567
▁mění	-4568
▁péče	-4569
▁spis	-4570
▁ČSSD	-4571
▁řídí	-4572
odpově	-4573
▁denně	-4574
▁jinde	-4575
▁letad	-4576
▁nazna	-4577
▁pocit	-4578
▁podzi	-4579
▁rezer	-4580
▁tenis	-4581
▁vládě	-4582
▁vědět	-4583
▁řekla	-4584
▁Stejně	-4585
▁nemohou	-4586
▁potenci	-4587
▁souhlas	-4588
▁takovou	-4589
▁většinu	-4590
▁dokument	-4591
▁loňského	-4592
▁statisti	-4593
▁dovolenou	-4594
▁místopřed	-4595
▁národního	-4596
▁nezaměstna	-4597
▁0	-4598
EFA	-4599
ita	-4600
kář	-4601
▁%.	-4602
▁II	-4603
dace	-4604
dilo	-4605
taci	-4606
▁Gor	-4607
▁Nic	-4608
▁dem	-4609
▁kři	-4610
▁mor	-4611
▁tva	-4612
▁zav	-4613
stavě	-4614
řením	-4615
▁dodá	-4616
▁posí	-4617
kladní	-4618
stanou	-4619
zených	-4620
▁jisté	-4621
▁látky	-4622
▁musel	-4623
▁pozem	-4624
▁stalo	-4625
▁tržní	-4626
▁hovoří	-4627
▁nebyly	-4628
▁nechce	-4629
▁raději	-4630
▁termín	-4631
▁značně	-4632
▁údajně	-4633
▁procesu	-4634
▁soustře	-4635
▁výrobce	-4636
▁koaliční	-4637
▁polovině	-4638
▁nejbližší	-4639
ED	-4640
▁w	-4641
ang	-4642
hal	-4643
lož	-4644
pol	-4645
rel	-4646
▁27	-4647
nily	-4648
nově	-4649
vací	-4650
▁New	-4651
▁bra	-4652
ckými	-4653
razil	-4654
tních	-4655
▁UEFA	-4656
▁body	-4657
▁brně	-4658
▁hmot	-4659
▁pomá	-4660
▁rozu	-4661
▁zbav	-4662
▁Havel	-4663
▁cesty	-4664
▁myslí	-4665
▁nijak	-4666
▁podep	-4667
▁projev	-4668
▁vzniku	-4669
▁zákony	-4670
▁Jugoslá	-4671
▁olympiá	-4672
▁ukazuje	-4673
▁uzavřen	-4674
▁zranění	-4675
▁okamžitě	-4676
▁televizi	-4677
▁federální	-4678
▁bezpečnosti	-4679
uk	-4680
dor	-4681
vku	-4682
vůr	-4683
war	-4684
▁3.	-4685
▁70	-4686
▁Še	-4687
dách	-4688
gene	-4689
koná	-4690
lzeň	-4691
tají	-4692
třeb	-4693
čena	-4694
▁dní	-4695
▁mak	-4696
hledá	-4697
kadem	-4698
žnost	-4699
▁hráč	-4700
▁kore	-4701
▁řady	-4702
kázalo	-4703
▁Václa	-4704
▁avšak	-4705
▁sklad	-4706
▁velko	-4707
▁vládu	-4708
▁vypla	-4709
důležit	-4710
▁lékaři	-4711
▁prohrá	-4712
▁zbraní	-4713
▁řečeno	-4714
▁majetek	-4715
▁nábožen	-4716
▁potřeby	-4717
▁seznamu	-4718
▁členové	-4719
▁přírodní	-4720
▁kanceláře	-4721
▁demokracie	-4722
▁pokračovat	-4723
▁zpracování	-4724
▁reprezentan	-4725
gn	-4726
lii	-4727
ovu	-4728
tvr	-4729
▁km	-4730
běra	-4731
ceně	-4732
kazu	-4733
lila	-4734
mani	-4735
ovce	-4736
sila	-4737
zvem	-4738
▁dve	-4739
▁dát	-4740
▁hud	-4741
▁izo	-4742
▁kor	-4743
řitel	-4744
▁2000	-4745
▁Fede	-4746
▁círk	-4747
▁dobr	-4748
▁spoj	-4749
▁spon	-4750
▁trvá	-4751
▁zřej	-4752
grafie	-4753
▁Jedno	-4754
▁každo	-4755
▁lidem	-4756
▁přiná	-4757
▁střel	-4758
▁absolv	-4759
▁dodává	-4760
▁koment	-4761
▁názvem	-4762
▁police	-4763
▁příjmy	-4764
▁vládní	-4765
▁vývoje	-4766
▁zhodno	-4767
pravidla	-4768
▁dalšího	-4769
▁pracovi	-4770
▁hlavního	-4771
▁kvalitní	-4772
▁přístupu	-4773
▁rozhodně	-4774
▁Slovensku	-4775
▁dosáhnout	-4776
▁ekonomiky	-4777
▁požadavky	-4778
▁rozšíření	-4779
▁problemati	-4780
ia	-4781
ův	-4782
anu	-4783
ler	-4784
něn	-4785
ony	-4786
tru	-4787
▁Cí	-4788
▁Dí	-4789
bora	-4790
ními	-4791
vidí	-4792
▁Bos	-4793
▁byť	-4794
doval	-4795
rních	-4796
▁aniž	-4797
▁dopo	-4798
▁ligy	-4799
▁naro	-4800
▁nově	-4801
▁prod	-4802
jednou	-4803
ovaným	-4804
▁Novot	-4805
▁Svobo	-4806
▁Západ	-4807
▁jakým	-4808
▁ustan	-4809
▁částe	-4810
▁dokáže	-4811
▁dostat	-4812
▁jednak	-4813
▁nějaké	-4814
▁počasí	-4815
▁přihlá	-4816
▁příkaz	-4817
▁zabývá	-4818
▁Španěl	-4819
advaceti	-4820
▁Většina	-4821
▁druhého	-4822
▁systémů	-4823
▁republik	-4824
▁spotřebi	-4825
▁televize	-4826
▁mechaniky	-4827
důležitější	-4828
▁konference	-4829
▁společného	-4830
OS	-4831
čk	-4832
nii	-4833
rku	-4834
zka	-4835
▁80	-4836
dalo	-4837
enti	-4838
uper	-4839
činy	-4840
▁hlá	-4841
▁mla	-4842
▁ově	-4843
▁tun	-4844
▁zří	-4845
inace	-4846
jedná	-4847
níkům	-4848
▁Musí	-4849
▁Prav	-4850
▁cizí	-4851
▁nove	-4852
▁vozi	-4853
▁zařa	-4854
▁čele	-4855
dající	-4856
lených	-4857
▁Během	-4858
▁chlad	-4859
▁dosti	-4860
▁druhu	-4861
▁druhá	-4862
▁konzu	-4863
▁nezná	-4864
▁setká	-4865
▁velká	-4866
▁vývoz	-4867
▁škody	-4868
▁důchod	-4869
▁pozadí	-4870
▁prosad	-4871
▁shromá	-4872
▁vnitra	-4873
▁závěru	-4874
▁elektri	-4875
▁komplex	-4876
▁prodeje	-4877
▁souboru	-4878
▁takového	-4879
▁výsledků	-4880
▁Spojených	-4881
▁generální	-4882
▁rychlostí	-4883
▁Československu	-4884
LA	-4885
OM	-4886
nul	-4887
str	-4888
vii	-4889
▁Os	-4890
▁há	-4891
▁mj	-4892
▁ml	-4893
▁ný	-4894
jích	-4895
kaci	-4896
kuje	-4897
poví	-4898
vách	-4899
řuje	-4900
žují	-4901
▁Bru	-4902
▁Kou	-4903
▁Stá	-4904
▁arg	-4905
▁dře	-4906
▁nim	-4907
▁spl	-4908
▁Char	-4909
▁Nový	-4910
▁Přes	-4911
▁chod	-4912
▁němu	-4913
▁plyn	-4914
▁rada	-4915
▁Miloš	-4916
▁jinou	-4917
▁kláve	-4918
▁látek	-4919
▁město	-4920
▁najít	-4921
▁podez	-4922
▁třech	-4923
▁vedou	-4924
▁zabez	-4925
▁ohledu	-4926
▁regist	-4927
▁servis	-4928
▁severo	-4929
▁správy	-4930
▁starší	-4931
▁výběru	-4932
▁začali	-4933
▁úřední	-4934
▁Atlantě	-4935
▁desítky	-4936
▁manažer	-4937
▁moderní	-4938
▁referen	-4939
▁stabili	-4940
▁Čechách	-4941
▁měsících	-4942
▁zákoníku	-4943
▁předchozí	-4944
▁zemědělství	-4945
brž	-4946
rab	-4947
ráz	-4948
ánu	-4949
▁Ju	-4950
▁fá	-4951
dnes	-4952
leka	-4953
mali	-4954
medi	-4955
mení	-4956
něné	-4957
čích	-4958
▁For	-4959
▁Por	-4960
▁tém	-4961
▁úlo	-4962
inaci	-4963
čnost	-4964
▁Stře	-4965
▁aktu	-4966
▁ceně	-4967
▁hlou	-4968
▁plné	-4969
▁cyklu	-4970
▁dopad	-4971
▁důkaz	-4972
▁expor	-4973
▁inspe	-4974
▁nýbrž	-4975
▁orgán	-4976
▁prací	-4977
▁proná	-4978
▁trval	-4979
▁začne	-4980
▁jednat	-4981
▁přijde	-4982
▁snímků	-4983
▁třicet	-4984
▁uvedla	-4985
▁výpově	-4986
▁Francie	-4987
▁nabídku	-4988
▁pochopi	-4989
▁schopen	-4990
▁státech	-4991
▁zaplatí	-4992
ashington	-4993
▁distribu	-4994
▁naprosto	-4995
▁potřebné	-4996
▁povinnost	-4997
▁rozhodující	-4998
▁českosloven	-4999
ss	-5000
jas	-5001
mít	-5002
nut	-5003
vce	-5004
vez	-5005
▁ká	-5006
gram	-5007
hodě	-5008
▁Mon	-5009
▁ODA	-5010
▁Prů	-5011
▁cer	-5012
▁lou	-5013
▁úča	-5014
kální	-5015
radži	-5016
▁Může	-5017
▁hypo	-5018
▁jiná	-5019
▁malý	-5020
▁máte	-5021
▁nadě	-5022
▁prvo	-5023
▁ráno	-5024
▁užit	-5025
▁výbu	-5026
dařilo	-5027
dnosti	-5028
kazují	-5029
rových	-5030
važuje	-5031
▁Takže	-5032
▁abych	-5033
▁chybí	-5034
▁měsíc	-5035
▁obnov	-5036
▁propa	-5037
▁stane	-5038
▁titul	-5039
▁chtěli	-5040
▁dlouhé	-5041
▁králov	-5042
▁názory	-5043
▁využít	-5044
▁částky	-5045
vajících	-5046
▁Karadži	-5047
▁Národní	-5048
▁připoji	-5049
▁stanice	-5050
▁systémy	-5051
▁vyplývá	-5052
▁vysokou	-5053
▁evropské	-5054
▁okamžiku	-5055
▁převážně	-5056
▁rozpočet	-5057
▁zajistit	-5058
▁školství	-5059
▁hodnocení	-5060
▁poskytuje	-5061
▁PowerPoint	-5062
▁následující	-5063
NR	-5064
ok	-5065
rko	-5066
řům	-5067
žis	-5068
▁Tr	-5069
▁ha	-5070
jové	-5071
mili	-5072
psal	-5073
skup	-5074
▁Bor	-5075
▁Per	-5076
▁Sku	-5077
▁jím	-5078
▁léč	-5079
▁nau	-5080
▁ned	-5081
▁nom	-5082
▁sly	-5083
▁zla	-5084
▁zni	-5085
ismus	-5086
ovení	-5087
rážky	-5088
▁Jsem	-5089
▁léká	-5090
▁poby	-5091
▁týká	-5092
platit	-5093
▁Velké	-5094
▁celém	-5095
▁hraje	-5096
▁nejde	-5097
▁poměr	-5098
▁posou	-5099
▁smysl	-5100
▁budete	-5101
▁cestou	-5102
▁koupit	-5103
▁minulý	-5104
▁nejrůz	-5105
▁pochyb	-5106
▁pokles	-5107
▁pořadí	-5108
▁směrem	-5109
▁bohužel	-5110
▁kritéri	-5111
▁místech	-5112
▁vytváře	-5113
▁využití	-5114
▁výzkumu	-5115
▁družstva	-5116
▁nepříjem	-5117
▁sociálních	-5118
▁spolupráce	-5119
1,	-5120
HO	-5121
any	-5122
kne	-5123
mil	-5124
mun	-5125
mýš	-5126
oby	-5127
tka	-5128
▁Bó	-5129
▁Ca	-5130
▁Dr	-5131
▁Vl	-5132
entu	-5133
lové	-5134
mito	-5135
mlou	-5136
rovi	-5137
vila	-5138
zila	-5139
řiná	-5140
▁400	-5141
▁Hod	-5142
▁KSČ	-5143
▁Pla	-5144
▁dél	-5145
▁epi	-5146
▁hři	-5147
▁lev	-5148
▁str	-5149
▁váž	-5150
▁čte	-5151
ditel	-5152
produ	-5153
razit	-5154
▁Euro	-5155
▁deta	-5156
▁jaká	-5157
▁jezd	-5158
▁mini	-5159
▁rece	-5160
▁troj	-5161
▁vele	-5162
▁vědy	-5163
brojen	-5164
kající	-5165
▁Ostat	-5166
▁dvoji	-5167
▁efekt	-5168
▁nimiž	-5169
▁sedmi	-5170
▁video	-5171
▁zakáz	-5172
▁změnu	-5173
▁armády	-5174
▁bývalý	-5175
▁jestli	-5176
▁průzku	-5177
▁soutěž	-5178
▁taková	-5179
▁vhodné	-5180
▁vyhrál	-5181
▁vztahy	-5182
▁německé	-5183
▁pondělí	-5184
▁předtím	-5185
▁povolení	-5186
▁speciální	-5187
▁tentokrát	-5188
▁pravidelně	-5189
▁prezentaci	-5190
▁Mezinárodní	-5191
bav	-5192
cát	-5193
dím	-5194
hav	-5195
vov	-5196
zeň	-5197
▁4.	-5198
▁LN	-5199
▁ju	-5200
▁úz	-5201
lují	-5202
plan	-5203
stní	-5204
tyři	-5205
řily	-5206
▁HIV	-5207
▁Nik	-5208
▁Zna	-5209
▁dub	-5210
▁pas	-5211
rační	-5212
tegra	-5213
zoval	-5214
▁Hrad	-5215
▁Ivan	-5216
▁dané	-5217
▁fron	-5218
▁pane	-5219
strojů	-5220
▁fanou	-5221
▁hodlá	-5222
▁motor	-5223
▁něhož	-5224
▁přeru	-5225
▁přesu	-5226
▁směru	-5227
▁údajů	-5228
▁blízko	-5229
▁museli	-5230
▁příjmů	-5231
▁příčin	-5232
▁rodiny	-5233
▁rostli	-5234
▁slouží	-5235
▁středi	-5236
▁zákonů	-5237
▁závěre	-5238
▁úrovně	-5239
▁června	-5240
▁částku	-5241
▁Václava	-5242
▁antropo	-5243
▁přechod	-5244
▁radnice	-5245
▁družstev	-5246
▁politiku	-5247
▁projedná	-5248
▁výjimkou	-5249
▁uplatnění	-5250
▁veřejnost	-5251
▁konferenci	-5252
▁onemocnění	-5253
▁podmínkách	-5254
▁hospodářské	-5255
ací	-5256
bán	-5257
dlí	-5258
oni	-5259
poz	-5260
▁Ří	-5261
hých	-5262
tern	-5263
▁Mas	-5264
▁Pan	-5265
▁Pat	-5266
▁Vši	-5267
▁hře	-5268
▁mrt	-5269
▁zim	-5270
▁zpě	-5271
bilní	-5272
jezdu	-5273
ováni	-5274
zační	-5275
▁dodr	-5276
▁nale	-5277
▁poje	-5278
▁stat	-5279
▁zaru	-5280
▁zpro	-5281
dělání	-5282
▁hráče	-5283
▁porov	-5284
▁rakou	-5285
▁vyspě	-5286
▁války	-5287
▁řešit	-5288
▁Součas	-5289
▁jejího	-5290
▁neustá	-5291
▁odstav	-5292
▁pohybu	-5293
▁přehlí	-5294
▁rostou	-5295
▁uspoko	-5296
▁vydání	-5297
▁aliance	-5298
▁hodnotu	-5299
▁skupině	-5300
▁většině	-5301
▁zodpově	-5302
▁aktivity	-5303
▁architek	-5304
▁polovinu	-5305
▁Washington	-5306
▁jednoznačně	-5307
▁podnikatelů	-5308
DU	-5309
ČS	-5310
bem	-5311
čeb	-5312
čej	-5313
▁Ky	-5314
▁ků	-5315
▁sá	-5316
lovi	-5317
nové	-5318
vody	-5319
čily	-5320
▁Dva	-5321
▁PRO	-5322
▁bur	-5323
▁var	-5324
▁zvě	-5325
antní	-5326
rního	-5327
▁John	-5328
▁edit	-5329
▁here	-5330
▁jiho	-5331
▁leží	-5332
▁paní	-5333
▁usil	-5334
▁žena	-5335
ologie	-5336
▁Gorba	-5337
▁Jenže	-5338
▁dobrý	-5339
▁japon	-5340
▁najde	-5341
▁neměl	-5342
▁rozum	-5343
▁třemi	-5344
▁začít	-5345
▁Státní	-5346
▁centra	-5347
▁nějaký	-5348
▁odmítl	-5349
▁vystup	-5350
▁životě	-5351
▁Německo	-5352
▁budoucí	-5353
▁filozof	-5354
▁padesát	-5355
▁pořádku	-5356
▁většiny	-5357
▁vždycky	-5358
▁Vladimír	-5359
▁definiti	-5360
▁politice	-5361
▁předsedy	-5362
▁státních	-5363
▁takových	-5364
▁Prezident	-5365
▁nemocnice	-5366
▁amerického	-5367
▁pracovníci	-5368
▁univerzity	-5369
▁budoucnosti	-5370
ěk	-5371
hel	-5372
out	-5373
rky	-5374
vím	-5375
zat	-5376
čím	-5377
▁ST	-5378
▁We	-5379
▁ač	-5380
▁úč	-5381
dnou	-5382
hrad	-5383
jské	-5384
měry	-5385
▁19.	-5386
▁Kan	-5387
▁Nak	-5388
▁Vlá	-5389
▁oči	-5390
kázal	-5391
nutím	-5392
▁AIDS	-5393
▁Díky	-5394
▁atra	-5395
▁skla	-5396
▁stál	-5397
▁Švéd	-5398
spekti	-5399
stický	-5400
▁Exist	-5401
▁Možná	-5402
▁Rusko	-5403
▁Vždyť	-5404
▁hlasů	-5405
▁přija	-5406
▁srpna	-5407
▁vysky	-5408
▁úřady	-5409
▁Škoda	-5410
sociace	-5411
▁nástup	-5412
▁person	-5413
▁podíle	-5414
▁výkonu	-5415
▁managem	-5416
▁miliony	-5417
▁používá	-5418
▁případů	-5419
▁rozhodl	-5420
▁snížení	-5421
▁Británie	-5422
▁důsledku	-5423
▁matemati	-5424
▁nedostat	-5425
▁premiéra	-5426
▁projektu	-5427
▁proveden	-5428
▁vytvořen	-5429
▁přizpůsob	-5430
▁účetnictví	-5431
▁obyvatelstva	-5432
3,	-5433
30	-5434
NI	-5435
kry	-5436
los	-5437
mně	-5438
sné	-5439
teř	-5440
čko	-5441
žku	-5442
▁ři	-5443
cové	-5444
dové	-5445
klád	-5446
ktem	-5447
ravě	-5448
vilo	-5449
▁Lon	-5450
▁Lze	-5451
▁Tra	-5452
▁kry	-5453
▁opa	-5454
▁osa	-5455
▁por	-5456
▁psa	-5457
▁zap	-5458
nická	-5459
strof	-5460
▁Miro	-5461
▁Naše	-5462
▁Nové	-5463
▁budu	-5464
▁dneš	-5465
▁extr	-5466
▁klep	-5467
▁muži	-5468
▁obdr	-5469
▁obor	-5470
▁piva	-5471
▁učin	-5472
finále	-5473
▁buněk	-5474
▁jiným	-5475
▁kompe	-5476
▁napad	-5477
▁název	-5478
▁proku	-5479
▁předá	-5480
▁sděli	-5481
▁těžké	-5482
▁známo	-5483
▁částí	-5484
▁čísle	-5485
▁chceme	-5486
▁myslím	-5487
▁prohlí	-5488
▁prázdn	-5489
▁přijat	-5490
▁přátel	-5491
▁dochází	-5492
▁dvanáct	-5493
▁kvalitu	-5494
▁nejprve	-5495
▁průměru	-5496
▁příštím	-5497
▁Američan	-5498
▁Bratisla	-5499
▁diplomat	-5500
▁hlavních	-5501
▁očekávat	-5502
▁programy	-5503
▁tajemství	-5504
▁zpravidla	-5505
▁povinnosti	-5506
▁ustanovení	-5507
ue	-5508
uš	-5509
blo	-5510
cka	-5511
dám	-5512
hře	-5513
jat	-5514
lej	-5515
▁96	-5516
▁NE	-5517
▁am	-5518
▁dy	-5519
▁py	-5520
leté	-5521
lová	-5522
stěh	-5523
tisk	-5524
zeno	-5525
▁Srb	-5526
▁Sto	-5527
▁bou	-5528
▁sdě	-5529
▁žeb	-5530
kační	-5531
kovat	-5532
nický	-5533
rovna	-5534
vysla	-5535
▁moře	-5536
▁půvo	-5537
▁splá	-5538
▁tvůr	-5539
▁zavá	-5540
▁čase	-5541
nicích	-5542
▁cesta	-5543
▁marek	-5544
▁občas	-5545
▁odsou	-5546
▁pacha	-5547
▁překá	-5548
▁režis	-5549
▁teore	-5550
▁těles	-5551
▁vrace	-5552
▁úvahu	-5553
ovatelů	-5554
▁Izrael	-5555
▁bývalé	-5556
▁dialog	-5557
▁navští	-5558
▁příbuz	-5559
▁vysoko	-5560
▁vývoji	-5561
▁zřejmé	-5562
▁článku	-5563
▁Zároveň	-5564
▁dostala	-5565
▁nemovit	-5566
▁přijetí	-5567
▁přírody	-5568
▁skončil	-5569
▁zdaleka	-5570
▁agentury	-5571
▁příštího	-5572
▁vyžaduje	-5573
▁zpravoda	-5574
▁průmyslov	-5575
▁telefonní	-5576
▁vlastních	-5577
▁privatizaci	-5578
▁nejdůležitější	-5579
dž	-5580
ák	-5581
boj	-5582
cko	-5583
kým	-5584
plá	-5585
tak	-5586
tex	-5587
šly	-5588
▁PŘ	-5589
▁Pů	-5590
lený	-5591
livu	-5592
lovy	-5593
moci	-5594
míru	-5595
nová	-5596
ratu	-5597
seli	-5598
▁Oba	-5599
▁Změ	-5600
▁brá	-5601
▁evi	-5602
▁kus	-5603
▁ste	-5604
▁čtr	-5605
▁říj	-5606
atoli	-5607
ených	-5608
slení	-5609
▁Afri	-5610
▁Samo	-5611
▁bytu	-5612
▁chrá	-5613
▁gale	-5614
▁glob	-5615
▁libe	-5616
▁liší	-5617
▁neut	-5618
▁poko	-5619
▁proz	-5620
▁seri	-5621
▁slib	-5622
▁směř	-5623
nesení	-5624
▁Místo	-5625
▁banka	-5626
▁byste	-5627
▁deleg	-5628
▁devět	-5629
▁druhy	-5630
▁jména	-5631
▁nechá	-5632
▁odvět	-5633
▁roste	-5634
▁svému	-5635
▁verze	-5636
častěji	-5637
▁Hlavní	-5638
▁hotelu	-5639
▁jejích	-5640
▁premié	-5641
▁režimu	-5642
▁stranu	-5643
▁vrátit	-5644
▁počítat	-5645
▁restitu	-5646
▁složení	-5647
▁vědecké	-5648
▁věnovat	-5649
▁historii	-5650
▁kulturní	-5651
▁politika	-5652
▁pravidla	-5653
▁relativně	-5654
▁pracovních	-5655
au	-5656
zt	-5657
bře	-5658
díl	-5659
pel	-5660
▁RO	-5661
leně	-5662
rátu	-5663
▁Ben	-5664
▁Fot	-5665
▁Mic	-5666
▁Pri	-5667
▁díl	-5668
▁kov	-5669
▁sme	-5670
▁tan	-5671
tější	-5672
▁1995	-5673
▁Rich	-5674
▁nere	-5675
▁slab	-5676
▁typy	-5677
▁ucha	-5678
▁žije	-5679
islati	-5680
▁Karel	-5681
▁analy	-5682
▁obrat	-5683
▁písem	-5684
▁střet	-5685
▁válce	-5686
▁změna	-5687
▁změně	-5688
nějšího	-5689
▁hromad	-5690
▁kabine	-5691
▁předná	-5692
▁trénin	-5693
▁žádnou	-5694
▁akcioná	-5695
▁hranici	-5696
▁nějakou	-5697
▁průmysl	-5698
▁smlouva	-5699
▁sociali	-5700
▁veřejné	-5701
▁výrobců	-5702
▁získala	-5703
▁Jaroslav	-5704
▁Poslední	-5705
▁poslanec	-5706
▁počítačů	-5707
▁vzdělání	-5708
▁mechanika	-5709
ID	-5710
KA	-5711
arů	-5712
eru	-5713
ito	-5714
lub	-5715
při	-5716
▁90	-5717
▁MB	-5718
▁Ov	-5719
▁Tý	-5720
rami	-5721
roso	-5722
rách	-5723
star	-5724
vaný	-5725
vede	-5726
▁150	-5727
▁Něm	-5728
▁Pop	-5729
▁dům	-5730
▁mlé	-5731
▁opo	-5732
▁utr	-5733
hodou	-5734
lnění	-5735
▁Lidé	-5736
▁neda	-5737
▁nedá	-5738
▁obcí	-5739
▁ruce	-5740
▁svat	-5741
▁uzná	-5742
▁vést	-5743
▁včas	-5744
▁zneu	-5745
▁zápa	-5746
▁řidi	-5747
▁žádo	-5748
ickými	-5749
minist	-5750
sahuje	-5751
▁Jinak	-5752
▁Letos	-5753
▁dopis	-5754
▁končí	-5755
▁lednu	-5756
▁monit	-5757
▁musím	-5758
▁měnit	-5759
▁posta	-5760
▁soudí	-5761
▁stroj	-5762
▁zvíře	-5763
▁úterý	-5764
▁časem	-5765
▁šance	-5766
▁akadem	-5767
▁kapali	-5768
▁lékařů	-5769
▁neznám	-5770
▁stroje	-5771
▁uplynu	-5772
▁Někteří	-5773
▁nejrych	-5774
▁oblastí	-5775
▁potřebu	-5776
▁tvrzení	-5777
▁vznikla	-5778
▁všechna	-5779
▁závodní	-5780
▁zůstane	-5781
▁jestliže	-5782
▁kapitálu	-5783
▁někdejší	-5784
▁programů	-5785
▁působení	-5786
▁uživatel	-5787
▁problémem	-5788
▁zákazníků	-5789
▁přesvědčen	-5790
▁demokratické	-5791
ic	-5792
ble	-5793
ice	-5794
kom	-5795
lti	-5796
myš	-5797
tné	-5798
▁Té	-5799
bylo	-5800
cher	-5801
nský	-5802
roti	-5803
ženo	-5804
▁Har	-5805
▁Hol	-5806
▁Zdá	-5807
▁jád	-5808
▁kód	-5809
▁peč	-5810
▁pěk	-5811
▁vlo	-5812
ation	-5813
lních	-5814
rovat	-5815
▁Léka	-5816
▁Nepo	-5817
▁dove	-5818
▁děje	-5819
▁dělá	-5820
▁malá	-5821
▁mzdy	-5822
▁mého	-5823
▁nece	-5824
▁typů	-5825
▁voda	-5826
▁vrst	-5827
▁zách	-5828
▁zása	-5829
chodem	-5830
nského	-5831
zující	-5832
▁dotaz	-5833
▁konec	-5834
▁verzi	-5835
prostře	-5836
▁doslov	-5837
▁kapito	-5838
▁litera	-5839
▁softwa	-5840
▁tisíci	-5841
▁zprávu	-5842
▁zvlášť	-5843
kladatel	-5844
▁odpověď	-5845
▁soutěži	-5846
▁tabulky	-5847
▁televiz	-5848
▁zabezpe	-5849
▁existují	-5850
▁najednou	-5851
▁nejdříve	-5852
▁potvrdil	-5853
▁používat	-5854
▁počítači	-5855
▁členství	-5856
▁legislati	-5857
▁technické	-5858
▁připravuje	-5859
▁spolupracovní	-5860
Sc	-5861
▁38	-5862
bled	-5863
leti	-5864
stoj	-5865
voká	-5866
víti	-5867
▁12.	-5868
▁Pob	-5869
▁ana	-5870
▁kní	-5871
▁lov	-5872
▁váš	-5873
▁šet	-5874
entní	-5875
vnitř	-5876
▁Bělo	-5877
▁Clin	-5878
▁Nebo	-5879
▁Pohá	-5880
▁anti	-5881
▁císa	-5882
▁díla	-5883
▁nená	-5884
▁vymě	-5885
▁úmrt	-5886
▁územ	-5887
rálové	-5888
▁Vlast	-5889
▁Zákon	-5890
▁běžné	-5891
▁kamen	-5892
▁neroz	-5893
▁novým	-5894
▁památ	-5895
▁sekun	-5896
▁touto	-5897
▁vyjad	-5898
▁vyzna	-5899
▁zůsta	-5900
nického	-5901
procent	-5902
▁Severo	-5903
▁centru	-5904
▁funkcí	-5905
▁odpadů	-5906
▁poměru	-5907
▁pozici	-5908
▁předvá	-5909
▁stejný	-5910
▁třetím	-5911
▁Nicméně	-5912
▁dalšími	-5913
▁katalog	-5914
▁spočívá	-5915
▁volební	-5916
▁výrobci	-5917
▁získali	-5918
▁Největší	-5919
▁ozbrojen	-5920
▁velvysla	-5921
▁vojenské	-5922
▁odborníků	-5923
▁posledním	-5924
▁sportovní	-5925
▁Společnost	-5926
▁soukromých	-5927
▁zaměstnanci	-5928
▁zahraničního	-5929
▁Československa	-5930
6,	-5931
AM	-5932
NO	-5933
uj	-5934
óz	-5935
dia	-5936
díž	-5937
mys	-5938
rod	-5939
▁',	-5940
▁(2	-5941
▁as	-5942
▁ny	-5943
aným	-5944
cené	-5945
enty	-5946
kova	-5947
land	-5948
něji	-5949
sťan	-5950
zený	-5951
čném	-5952
řích	-5953
▁20.	-5954
▁DNA	-5955
▁Dav	-5956
▁bio	-5957
▁hov	-5958
promi	-5959
stran	-5960
▁Dále	-5961
▁Gene	-5962
▁Jsme	-5963
▁Tomá	-5964
▁Tren	-5965
▁host	-5966
▁leti	-5967
▁prim	-5968
▁půdě	-5969
▁těle	-5970
▁zvyk	-5971
imbled	-5972
telnou	-5973
▁Občan	-5974
▁bosen	-5975
▁firmu	-5976
▁hrozí	-5977
▁insta	-5978
▁koleg	-5979
▁mnozí	-5980
▁morav	-5981
▁mozku	-5982
▁propo	-5983
▁přede	-5984
▁známé	-5985
▁Český	-5986
▁Martin	-5987
▁Myslím	-5988
▁metody	-5989
▁odběra	-5990
▁poháru	-5991
▁radost	-5992
▁uchaze	-5993
▁uložen	-5994
▁vznikl	-5995
▁zpráva	-5996
▁účasti	-5997
▁Švýcar	-5998
▁ochranu	-5999
▁odborné	-6000
▁pohledu	-6001
▁teploty	-6002
▁překvapi	-6003
▁slavnost	-6004
▁tlačítko	-6005
▁zaznamen	-6006
▁oficiální	-6007
▁republika	-6008
▁schopnost	-6009
▁olympijské	-6010
▁telekomuni	-6011
▁hospodaření	-6012
▁shromáždění	-6013
AT	-6014
fu	-6015
avá	-6016
ile	-6017
jil	-6018
kol	-6019
mal	-6020
rnu	-6021
rům	-6022
▁Ač	-6023
▁Ry	-6024
▁SE	-6025
▁mý	-6026
akti	-6027
aned	-6028
cker	-6029
cuje	-6030
lada	-6031
lách	-6032
niky	-6033
vého	-6034
čera	-6035
▁17.	-6036
▁Com	-6037
▁Kre	-6038
▁lhů	-6039
▁mně	-6040
▁neb	-6041
▁neg	-6042
▁spu	-6043
▁úse	-6044
bytek	-6045
vence	-6046
▁Poté	-6047
▁arab	-6048
▁déle	-6049
▁dílo	-6050
▁hrub	-6051
▁pali	-6052
▁povr	-6053
▁uměl	-6054
▁vaší	-6055
▁zaká	-6056
▁Úřad	-6057
▁špič	-6058
větším	-6059
▁disci	-6060
▁karty	-6061
▁propu	-6062
▁prvků	-6063
▁start	-6064
▁tudíž	-6065
▁vyprá	-6066
▁Teprve	-6067
▁důvodu	-6068
▁hledat	-6069
▁každou	-6070
▁obrazu	-6071
▁rodiče	-6072
▁vztahů	-6073
▁výroba	-6074
▁výrobě	-6075
▁značné	-6076
▁zůstat	-6077
stického	-6078
▁Clinton	-6079
▁Nizozem	-6080
▁natolik	-6081
▁podpory	-6082
▁poznání	-6083
▁kompeten	-6084
▁lidských	-6085
▁paragraf	-6086
▁částečně	-6087
▁šampioná	-6088
▁katastrof	-6089
▁rozdělení	-6090
▁středních	-6091
▁světových	-6092
▁dostatečně	-6093
▁vlastností	-6094
▁Ministerstvo	-6095
▁reprezentace	-6096
▁Československo	-6097
DR	-6098
cu	-6099
hlo	-6100
pin	-6101
anta	-6102
celo	-6103
gace	-6104
hové	-6105
rich	-6106
sili	-6107
tiku	-6108
želi	-6109
▁Otá	-6110
▁Tři	-6111
▁hmo	-6112
▁naj	-6113
▁řeč	-6114
orvat	-6115
▁Geor	-6116
▁jemu	-6117
▁mani	-6118
▁nese	-6119
▁odst	-6120
▁okru	-6121
▁pove	-6122
▁vyme	-6123
▁vypo	-6124
▁dávno	-6125
▁magne	-6126
▁maďar	-6127
▁obsad	-6128
▁okres	-6129
▁označ	-6130
▁pokou	-6131
▁přeno	-6132
▁rozši	-6133
▁sluch	-6134
▁stimu	-6135
▁surov	-6136
▁urych	-6137
▁vyrob	-6138
▁zahra	-6139
▁závěr	-6140
▁úřadů	-6141
▁česká	-6142
kládání	-6143
telných	-6144
▁databá	-6145
▁dohodu	-6146
▁dostup	-6147
▁konzer	-6148
▁lokali	-6149
▁odboru	-6150
▁paměti	-6151
▁pomalu	-6152
▁potíže	-6153
▁přestá	-6154
▁svědčí	-6155
▁tomuto	-6156
▁ztráty	-6157
▁integra	-6158
▁měsíční	-6159
▁patnáct	-6160
▁severní	-6161
▁takovém	-6162
cházející	-6163
▁interpre	-6164
▁letošním	-6165
▁poloviny	-6166
▁problému	-6167
▁přestože	-6168
▁rozhodne	-6169
▁zjednodu	-6170
▁Slovenska	-6171
▁oblastech	-6172
▁odpoledne	-6173
▁bezprostře	-6174
▁neexistuje	-6175
▁kvalifikaci	-6176
▁olympijských	-6177
/2	-6178
9.	-6179
TA	-6180
ym	-6181
ans	-6182
cel	-6183
eri	-6184
fii	-6185
gin	-6186
hne	-6187
ude	-6188
šné	-6189
▁Fi	-6190
▁Ol	-6191
▁Pu	-6192
▁Sb	-6193
nali	-6194
nuje	-6195
orií	-6196
orti	-6197
ovek	-6198
čným	-6199
žena	-6200
▁Chy	-6201
▁Krá	-6202
▁Stu	-6203
▁bit	-6204
▁hou	-6205
▁ins	-6206
▁lig	-6207
▁oni	-6208
▁výu	-6209
▁výz	-6210
▁šir	-6211
▁žlu	-6212
delní	-6213
dovat	-6214
formu	-6215
kázat	-6216
níkem	-6217
ujete	-6218
▁KSČM	-6219
▁Kaza	-6220
▁Zají	-6221
▁Zvlá	-6222
▁medi	-6223
▁navr	-6224
▁odvá	-6225
▁rádi	-6226
▁uvol	-6227
▁výno	-6228
▁zalo	-6229
▁zlat	-6230
▁řádu	-6231
▁Londý	-6232
▁Ovšem	-6233
▁dekla	-6234
▁filmu	-6235
▁licen	-6236
▁mnohé	-6237
▁nutno	-6238
▁nárok	-6239
▁praxe	-6240
▁radio	-6241
▁rozví	-6242
▁super	-6243
▁zastá	-6244
▁zdrav	-6245
▁Itálie	-6246
▁dodnes	-6247
▁dynami	-6248
▁efekti	-6249
▁hokeji	-6250
▁lidské	-6251
▁napsal	-6252
▁nejvíc	-6253
▁rekord	-6254
▁riziko	-6255
▁vybrat	-6256
▁vánoce	-6257
▁vývozu	-6258
▁zdejší	-6259
▁zvlášt	-6260
▁zvolen	-6261
▁závodu	-6262
stoupili	-6263
▁Ostravě	-6264
▁desítek	-6265
▁hodnota	-6266
▁metropo	-6267
▁nicméně	-6268
▁označil	-6269
▁očekává	-6270
▁smluvní	-6271
▁stránce	-6272
▁určitou	-6273
▁veškeré	-6274
▁výrobní	-6275
▁iniciati	-6276
▁minulých	-6277
▁nabízejí	-6278
▁neustále	-6279
▁soustavy	-6280
▁společný	-6281
▁velikost	-6282
▁zahájení	-6283
▁zajímavé	-6284
▁František	-6285
▁materiálů	-6286
▁psycholog	-6287
▁rozhovoru	-6288
▁vytváření	-6289
▁desetiletí	-6290
▁uspořádání	-6291
LI	-6292
enu	-6293
had	-6294
hly	-6295
one	-6296
ros	-6297
tla	-6298
▁FS	-6299
gací	-6300
letě	-6301
mrtí	-6302
vise	-6303
▁Ano	-6304
▁obá	-6305
▁sfé	-6306
▁vze	-6307
hodin	-6308
tolog	-6309
▁Opti	-6310
▁duše	-6311
▁mohu	-6312
▁okna	-6313
▁prof	-6314
▁skvě	-6315
▁vítě	-6316
▁věří	-6317
▁zbyt	-6318
žnosti	-6319
▁astro	-6320
▁certi	-6321
▁hledá	-6322
▁požád	-6323
▁sekre	-6324
▁stisk	-6325
▁ztrát	-6326
▁závaz	-6327
cionali	-6328
ovatelé	-6329
ujícího	-6330
▁Jednou	-6331
▁Naopak	-6332
▁altern	-6333
▁dramat	-6334
▁jediná	-6335
▁kontra	-6336
▁neměli	-6337
▁návrhy	-6338
▁revolu	-6339
▁seznam	-6340
▁sjedno	-6341
▁stovky	-6342
▁vyprac	-6343
▁výtvar	-6344
▁zvířat	-6345
▁špatně	-6346
prostřed	-6347
▁Podobně	-6348
▁Všichni	-6349
▁rozsahu	-6350
▁tiskové	-6351
▁vzduchu	-6352
▁zákonem	-6353
▁úspěchu	-6354
▁Francouz	-6355
▁materiál	-6356
▁náměstek	-6357
▁poptávky	-6358
▁činností	-6359
▁odborníci	-6360
▁potřebují	-6361
▁vlastnost	-6362
▁zprostřed	-6363
▁nakladatel	-6364
▁automaticky	-6365
▁koncentrace	-6366
▁záležitostí	-6367
▁bezpečnostní	-6368
▁připojištění	-6369
PE	-6370
baj	-6371
bat	-6372
die	-6373
dný	-6374
ený	-6375
jíž	-6376
žím	-6377
▁Si	-6378
▁of	-6379
aném	-6380
chal	-6381
dějí	-6382
ební	-6383
hují	-6384
isté	-6385
kupu	-6386
leny	-6387
lili	-6388
mání	-6389
psat	-6390
sket	-6391
vitu	-6392
zili	-6393
žije	-6394
▁10.	-6395
▁18.	-6396
▁Bus	-6397
▁Dom	-6398
▁Sva	-6399
▁ilu	-6400
▁Ště	-6401
▁šlo	-6402
chová	-6403
jením	-6404
lením	-6405
▁Obec	-6406
▁daní	-6407
▁domě	-6408
▁hroz	-6409
▁muže	-6410
▁námi	-6411
▁ozná	-6412
▁pana	-6413
▁poch	-6414
▁poho	-6415
tových	-6416
čnosti	-6417
▁Petra	-6418
▁každá	-6419
▁lidmi	-6420
▁nehod	-6421
▁ochot	-6422
▁resor	-6423
▁rozli	-6424
▁staré	-6425
▁zdroj	-6426
▁diváků	-6427
▁dosáhl	-6428
▁fanouš	-6429
▁hodinu	-6430
▁jinými	-6431
▁koruny	-6432
▁krátce	-6433
▁magist	-6434
▁nechat	-6435
▁oproti	-6436
▁seminá	-6437
▁srovna	-6438
▁zajíma	-6439
▁zbraně	-6440
hlédnout	-6441
▁dodávky	-6442
▁dostává	-6443
▁příklad	-6444
▁respekt	-6445
▁rozvoje	-6446
▁soutěží	-6447
▁vychází	-6448
▁využívá	-6449
▁vánoční	-6450
▁Českého	-6451
▁Gorbačov	-6452
▁domácích	-6453
▁minulého	-6454
▁pohybuje	-6455
▁produktů	-6456
▁studentů	-6457
▁zákazník	-6458
▁materiálu	-6459
▁rychlosti	-6460
▁budoucnost	-6461
▁investovat	-6462
▁vystoupení	-6463
▁záležitost	-6464
▁šampionátu	-6465
OVÁ	-6466
dni	-6467
ery	-6468
gal	-6469
kly	-6470
nom	-6471
ona	-6472
rce	-6473
rož	-6474
▁1:	-6475
▁36	-6476
▁Pl	-6477
inem	-6478
lala	-6479
mace	-6480
mati	-6481
mino	-6482
razí	-6483
▁195	-6484
▁Bre	-6485
▁Egy	-6486
▁Kam	-6487
▁Len	-6488
▁Nor	-6489
▁Vol	-6490
▁dar	-6491
▁ren	-6492
▁sam	-6493
▁úpl	-6494
jíren	-6495
▁Pomu	-6496
▁Prac	-6497
▁Snad	-6498
▁komu	-6499
▁kost	-6500
▁míře	-6501
▁nasa	-6502
▁přit	-6503
▁soli	-6504
▁sval	-6505
▁úsil	-6506
▁Češi	-6507
chodní	-6508
kázali	-6509
vaných	-6510
vatelů	-6511
čených	-6512
▁akcie	-6513
▁celek	-6514
▁cestě	-6515
▁garan	-6516
▁kampa	-6517
▁multi	-6518
▁nepat	-6519
▁pokro	-6520
▁pozdě	-6521
▁pozná	-6522
▁týdne	-6523
▁těsně	-6524
▁třídy	-6525
▁vyber	-6526
▁vyhov	-6527
▁vyhra	-6528
▁zraně	-6529
▁žádná	-6530
▁konver	-6531
▁nebyli	-6532
▁nemoci	-6533
▁pozice	-6534
▁pozoru	-6535
▁pravdu	-6536
▁snímky	-6537
▁snížit	-6538
▁specif	-6539
▁tvorbu	-6540
▁umožní	-6541
▁vynika	-6542
▁zvýšit	-6543
stických	-6544
▁centrum	-6545
▁chorvat	-6546
▁doslova	-6547
▁hledání	-6548
▁měsíčně	-6549
▁odvětví	-6550
▁oznámil	-6551
▁poklesu	-6552
▁povrchu	-6553
▁skupinu	-6554
▁správně	-6555
▁vyrovná	-6556
▁cestovní	-6557
▁historie	-6558
▁pojistné	-6559
▁polovina	-6560
▁poslance	-6561
▁sluneční	-6562
▁Především	-6563
▁dvojnásob	-6564
▁festivalu	-6565
▁minimálně	-6566
▁okolností	-6567
▁připomíná	-6568
▁přístroje	-6569
▁elektrárny	-6570
▁PowerPointu	-6571
▁zaměstnance	-6572
5,	-6573
7,	-6574
8,	-6575
až	-6576
klé	-6577
ány	-6578
▁Ir	-6579
▁cm	-6580
bere	-6581
hned	-6582
leno	-6583
mene	-6584
nicí	-6585
onec	-6586
pady	-6587
pání	-6588
▁600	-6589
▁Ban	-6590
▁Her	-6591
▁Tam	-6592
▁The	-6593
▁zře	-6594
▁ČNR	-6595
lánek	-6596
místě	-6597
třebí	-6598
▁Byla	-6599
▁Inve	-6600
▁Vzni	-6601
▁Zden	-6602
▁dědi	-6603
▁funk	-6604
▁knih	-6605
▁kvan	-6606
▁myší	-6607
▁navá	-6608
▁norm	-6609
▁novo	-6610
▁pobo	-6611
▁pops	-6612
▁port	-6613
▁půdy	-6614
▁sexu	-6615
▁spol	-6616
▁úkol	-6617
▁češt	-6618
▁řeči	-6619
▁Proti	-6620
▁komer	-6621
▁pivov	-6622
▁spekt	-6623
▁speku	-6624
▁výsky	-6625
▁čtení	-6626
▁škola	-6627
▁armáda	-6628
▁bankov	-6629
▁hormon	-6630
▁izrael	-6631
▁kontin	-6632
▁malých	-6633
▁musela	-6634
▁obecně	-6635
▁optimi	-6636
▁otevře	-6637
▁připad	-6638
▁studie	-6639
▁vykoná	-6640
▁zemřel	-6641
▁úpravy	-6642
▁bydlení	-6643
▁divadla	-6644
▁loňském	-6645
▁potřeba	-6646
▁zrušení	-6647
▁zásadní	-6648
▁prospěch	-6649
▁soukromé	-6650
▁vysokých	-6651
▁existence	-6652
▁jaderných	-6653
▁příslušné	-6654
▁slovenské	-6655
▁vyjádření	-6656
▁zákazníky	-6657
▁Samozřejmě	-6658
▁pojišťovny	-6659
▁nezávislých	-6660
▁podnikatelé	-6661
ET	-6662
SM	-6663
ts	-6664
děj	-6665
git	-6666
jmu	-6667
lip	-6668
mut	-6669
org	-6670
tít	-6671
vým	-6672
zel	-6673
ónu	-6674
▁2,	-6675
▁32	-6676
▁is	-6677
▁mó	-6678
burg	-6679
daci	-6680
duje	-6681
lali	-6682
zací	-6683
álem	-6684
řeny	-6685
šily	-6686
▁Chi	-6687
▁Ost	-6688
▁Sil	-6689
▁StB	-6690
▁Teď	-6691
▁Tou	-6692
▁hlí	-6693
▁jíz	-6694
▁sal	-6695
atlan	-6696
proti	-6697
prová	-6698
četní	-6699
▁Máme	-6700
▁Star	-6701
▁byty	-6702
▁hygi	-6703
▁klad	-6704
▁létě	-6705
▁nazý	-6706
▁nosi	-6707
▁tero	-6708
▁vůle	-6709
▁zato	-6710
▁zaří	-6711
▁zkra	-6712
hdejší	-6713
ovaném	-6714
čtější	-6715
▁Němci	-6716
▁dostá	-6717
▁dozvě	-6718
▁koord	-6719
▁mysli	-6720
▁nespo	-6721
▁refor	-6722
▁symbo	-6723
▁termí	-6724
▁týdny	-6725
▁zájmy	-6726
▁úspor	-6727
▁žebří	-6728
ovacích	-6729
▁Evropa	-6730
▁Rozhod	-6731
▁alkoho	-6732
▁autorů	-6733
▁církve	-6734
▁jakých	-6735
▁krimin	-6736
▁mistrů	-6737
▁odmítá	-6738
▁přišla	-6739
▁původu	-6740
▁složen	-6741
▁strate	-6742
▁vzniká	-6743
▁výdaje	-6744
▁španěl	-6745
▁Barcelo	-6746
▁Ministr	-6747
▁aktivní	-6748
▁mladých	-6749
▁objedná	-6750
▁princip	-6751
▁přehled	-6752
▁souvise	-6753
▁uspořád	-6754
▁uvedené	-6755
▁železni	-6756
▁aplikací	-6757
▁dokonale	-6758
▁důsledky	-6759
▁lidského	-6760
▁rozhodla	-6761
▁vlastním	-6762
▁Internetu	-6763
▁maximálně	-6764
▁německého	-6765
▁německých	-6766
▁představy	-6767
▁velikosti	-6768
▁zapotřebí	-6769
▁zobrazení	-6770
▁jednoduché	-6771
▁posledního	-6772
▁rozhodování	-6773
2,	-6774
6.	-6775
HL	-6776
nku	-6777
zie	-6778
▁3,	-6779
▁Ča	-6780
ační	-6781
ista	-6782
metr	-6783
ráží	-6784
sali	-6785
smem	-6786
sání	-6787
átek	-6788
škod	-6789
▁16.	-6790
▁Kal	-6791
▁Tur	-6792
▁Vil	-6793
▁bom	-6794
▁emi	-6795
▁ona	-6796
▁pán	-6797
▁zní	-6798
ináro	-6799
tečná	-6800
čného	-6801
▁Chtě	-6802
▁Mart	-6803
▁Paří	-6804
▁beze	-6805
▁osud	-6806
▁shod	-6807
▁tová	-6808
▁těla	-6809
inásob	-6810
konomi	-6811
menout	-6812
pouště	-6813
pustil	-6814
▁Avšak	-6815
▁Jedna	-6816
▁Staro	-6817
▁civil	-6818
▁demon	-6819
▁dělní	-6820
▁formá	-6821
▁ihned	-6822
▁kroky	-6823
▁obavy	-6824
▁obětí	-6825
▁odpor	-6826
▁půjde	-6827
▁silné	-6828
▁snaha	-6829
▁stává	-6830
▁třiná	-6831
▁vyplá	-6832
▁záměr	-6833
kládají	-6834
▁Moskvě	-6835
▁Pomuku	-6836
▁dávají	-6837
▁firmou	-6838
▁intera	-6839
▁jediné	-6840
▁katoli	-6841
▁lustra	-6842
▁mluvit	-6843
▁obyčej	-6844
▁omezen	-6845
▁srovná	-6846
▁vědomí	-6847
▁zločin	-6848
▁zvýšen	-6849
▁Francii	-6850
▁kterému	-6851
▁mužstva	-6852
▁placení	-6853
▁pojiště	-6854
▁postupu	-6855
▁prodlou	-6856
▁příprav	-6857
▁ročníku	-6858
▁Ředitel	-6859
▁Předseda	-6860
▁Představ	-6861
▁administ	-6862
▁dovolené	-6863
▁kancelář	-6864
▁molekuly	-6865
▁pacientů	-6866
▁populace	-6867
▁příštích	-6868
▁zavedení	-6869
▁nemocnici	-6870
▁perspekti	-6871
▁policejní	-6872
▁zdůraznil	-6873
▁úmrtnosti	-6874
▁finančních	-6875
▁investiční	-6876
▁organizací	-6877
5.	-6878
8.	-6879
NS	-6880
RÁ	-6881
ít	-6882
UDr	-6883
dej	-6884
hlu	-6885
jor	-6886
rka	-6887
▁45	-6888
▁UK	-6889
▁pó	-6890
kyně	-6891
letá	-6892
mněl	-6893
růst	-6894
stál	-6895
▁Hus	-6896
▁Kur	-6897
▁Obě	-6898
▁PCB	-6899
▁Rob	-6900
▁Rom	-6901
▁Val	-6902
▁Ves	-6903
▁saz	-6904
▁slá	-6905
▁zdr	-6906
iment	-6907
zájem	-6908
štích	-6909
▁Stát	-6910
▁Více	-6911
▁Wale	-6912
▁kami	-6913
▁komo	-6914
▁líst	-6915
▁nevý	-6916
▁obce	-6917
▁oble	-6918
▁omlu	-6919
▁přím	-6920
▁smrt	-6921
▁ušet	-6922
▁znal	-6923
▁úraz	-6924
▁úvěr	-6925
▁škod	-6926
▁Pobor	-6927
▁Třetí	-6928
▁Vedle	-6929
▁Vláda	-6930
▁Zájem	-6931
▁aspoň	-6932
▁evolu	-6933
▁karié	-6934
▁mladí	-6935
▁mluví	-6936
▁mláde	-6937
▁nápad	-6938
▁přemě	-6939
▁všeho	-6940
▁všemi	-6941
▁úmrtí	-6942
▁ústře	-6943
▁účely	-6944
jmenším	-6945
▁Poháru	-6946
▁Slavie	-6947
▁cestov	-6948
▁formou	-6949
▁implan	-6950
▁kolegy	-6951
▁kvalit	-6952
▁metoda	-6953
▁měření	-6954
▁neměla	-6955
▁noviny	-6956
▁náklad	-6957
▁propad	-6958
▁příjmu	-6959
▁rozliš	-6960
▁studiu	-6961
▁vrátil	-6962
▁zápasu	-6963
▁zápasy	-6964
▁částka	-6965
stoupila	-6966
▁Ostrava	-6967
▁Program	-6968
▁dostali	-6969
▁generál	-6970
▁jedinou	-6971
▁kterými	-6972
▁matemat	-6973
▁operace	-6974
▁poraden	-6975
▁prodává	-6976
▁přestup	-6977
▁sdělení	-6978
▁souvisí	-6979
▁starých	-6980
▁trenéra	-6981
▁třiceti	-6982
▁vedením	-6983
▁zvyšuje	-6984
▁Základní	-6985
▁budoucnu	-6986
▁partnery	-6987
▁produktu	-6988
▁sledovat	-6989
▁tehdejší	-6990
▁tradiční	-6991
▁usnesení	-6992
▁výhradně	-6993
▁zabránit	-6994
▁hlasování	-6995
▁minimální	-6996
▁největším	-6997
▁policistů	-6998
▁pracovník	-6999
▁televizní	-7000
▁výsledkem	-7001
▁automobilů	-7002
▁konkurenci	-7003
▁povinností	-7004
▁pracovníky	-7005
▁rozhodnout	-7006
▁představují	-7007
▁olympijského	-7008
▁příležitosti	-7009
▁nakladatelství	-7010
EC	-7011
199	-7012
lík	-7013
mum	-7014
rin	-7015
žka	-7016
▁34	-7017
cena	-7018
dily	-7019
ením	-7020
kala	-7021
lená	-7022
líně	-7023
rova	-7024
vrat	-7025
zrae	-7026
řený	-7027
▁193	-7028
▁Hil	-7029
▁Rov	-7030
▁ada	-7031
▁dce	-7032
▁pit	-7033
denci	-7034
ovést	-7035
▁Kore	-7036
▁Stav	-7037
▁chla	-7038
▁deva	-7039
▁douf	-7040
▁lesy	-7041
▁oblí	-7042
▁podi	-7043
▁poly	-7044
▁poro	-7045
▁sdru	-7046
▁sítí	-7047
▁zkla	-7048
kování	-7049
lestin	-7050
▁Izrae	-7051
▁Plzeň	-7052
▁Ruska	-7053
▁dovoz	-7054
▁hotel	-7055
▁klasi	-7056
▁koupi	-7057
▁krize	-7058
▁místy	-7059
▁nomin	-7060
▁někde	-7061
▁ploch	-7062
▁slovy	-7063
▁trené	-7064
▁uzaví	-7065
▁vystu	-7066
▁zachy	-7067
▁úsilí	-7068
počátku	-7069
▁Moravy	-7070
▁absolu	-7071
▁devíti	-7072
▁druhým	-7073
▁důstoj	-7074
▁kanali	-7075
▁konzul	-7076
▁nemáme	-7077
▁podzim	-7078
▁pojetí	-7079
▁pravid	-7080
▁prodat	-7081
▁proměn	-7082
▁předvo	-7083
▁rozsáh	-7084
▁těmito	-7085
▁udržet	-7086
▁uvnitř	-7087
▁zjiště	-7088
▁záleží	-7089
▁červnu	-7090
▁Ostatně	-7091
▁hodnotě	-7092
▁hudební	-7093
▁koncert	-7094
▁myšlení	-7095
▁nabídka	-7096
▁obrázek	-7097
▁omezení	-7098
▁přináší	-7099
▁případu	-7100
▁rozporu	-7101
▁schopni	-7102
▁výhodné	-7103
▁živnost	-7104
▁jednotky	-7105
▁mezináro	-7106
▁prodávat	-7107
▁předpově	-7108
▁přichází	-7109
▁společní	-7110
▁uzavření	-7111
▁zaplatit	-7112
▁začátkem	-7113
▁znalosti	-7114
▁Slovensko	-7115
▁místnosti	-7116
▁pražského	-7117
▁strojíren	-7118
▁informační	-7119
▁obchodních	-7120
▁zastoupení	-7121
▁Washingtonu	-7122
▁parlamentní	-7123
▁transformace	-7124
3.	-7125
NÁ	-7126
IST	-7127
div	-7128
dol	-7129
gií	-7130
hým	-7131
leb	-7132
lum	-7133
tar	-7134
ted	-7135
tev	-7136
zon	-7137
ání	-7138
énu	-7139
šně	-7140
▁Bí	-7141
▁DO	-7142
atři	-7143
bení	-7144
jším	-7145
kres	-7146
nala	-7147
práv	-7148
rand	-7149
ruje	-7150
tami	-7151
tilo	-7152
tová	-7153
vale	-7154
zech	-7155
▁Kde	-7156
▁fav	-7157
▁kří	-7158
▁mou	-7159
▁poš	-7160
▁pás	-7161
▁řek	-7162
jších	-7163
loval	-7164
metry	-7165
stvem	-7166
sáhla	-7167
votní	-7168
▁Brno	-7169
▁cíle	-7170
▁nedě	-7171
▁neji	-7172
▁nemů	-7173
▁okno	-7174
▁palá	-7175
▁péči	-7176
▁skal	-7177
▁sklo	-7178
▁vyví	-7179
▁znát	-7180
▁čímž	-7181
▁žalo	-7182
chybně	-7183
cházel	-7184
▁Sever	-7185
▁buňky	-7186
▁integ	-7187
▁jiném	-7188
▁konfi	-7189
▁malou	-7190
▁nahrá	-7191
▁plynu	-7192
▁poslu	-7193
▁prvky	-7194
▁ruské	-7195
▁stará	-7196
▁vodní	-7197
▁změní	-7198
▁černo	-7199
▁Kazach	-7200
▁docela	-7201
▁doktor	-7202
▁doplně	-7203
▁modelu	-7204
▁musíte	-7205
▁návrat	-7206
▁odstup	-7207
▁osvobo	-7208
▁otázce	-7209
▁postoj	-7210
▁strojů	-7211
▁určitý	-7212
▁uzavře	-7213
▁vložen	-7214
▁voličů	-7215
▁začalo	-7216
▁začaly	-7217
▁zůstal	-7218
▁čtenář	-7219
▁žádném	-7220
ologické	-7221
▁Nakonec	-7222
▁Spojené	-7223
▁dividen	-7224
▁domácím	-7225
▁dovolit	-7226
▁moderni	-7227
▁provést	-7228
▁případy	-7229
▁rozdíly	-7230
▁součást	-7231
▁stanici	-7232
▁stejnou	-7233
▁symboli	-7234
▁americký	-7235
▁kompromi	-7236
▁návštěvě	-7237
▁partnera	-7238
▁zlepšení	-7239
▁nabídnout	-7240
▁oficiálně	-7241
▁pozitivní	-7242
▁poškození	-7243
▁provedení	-7244
▁připravit	-7245
▁uskuteční	-7246
▁vlastního	-7247
▁západních	-7248
▁Bratislavě	-7249
▁domácnosti	-7250
▁nedostatek	-7251
▁nepodařilo	-7252
▁financování	-7253
▁přírodověde	-7254
▁nezaměstnanosti	-7255
AK	-7256
DE	-7257
KU	-7258
LO	-7259
ůl	-7260
▁x	-7261
aku	-7262
cvi	-7263
deň	-7264
din	-7265
mar	-7266
sch	-7267
tvo	-7268
zal	-7269
zet	-7270
▁%,	-7271
▁0,	-7272
▁48	-7273
▁Gu	-7274
▁IF	-7275
▁Ly	-7276
▁Pě	-7277
▁ki	-7278
▁šť	-7279
dané	-7280
poli	-7281
pust	-7282
rově	-7283
strá	-7284
tocy	-7285
utor	-7286
čině	-7287
šili	-7288
žily	-7289
▁Men	-7290
▁Mlu	-7291
▁SRN	-7292
▁San	-7293
▁are	-7294
▁zdo	-7295
▁čet	-7296
knout	-7297
morav	-7298
ovému	-7299
parát	-7300
rgani	-7301
tugal	-7302
▁3000	-7303
▁Bohu	-7304
▁Brna	-7305
▁Vyso	-7306
▁celo	-7307
▁dají	-7308
▁jimi	-7309
▁míní	-7310
▁naje	-7311
▁nerv	-7312
▁poví	-7313
▁rake	-7314
▁tvář	-7315
▁vedl	-7316
▁vním	-7317
▁zálo	-7318
▁útva	-7319
▁účel	-7320
▁čeho	-7321
minoky	-7322
organi	-7323
▁Téměř	-7324
▁altru	-7325
▁cykli	-7326
▁dojde	-7327
▁dějin	-7328
▁formě	-7329
▁horší	-7330
▁legen	-7331
▁oceně	-7332
▁pokus	-7333
▁primá	-7334
▁veden	-7335
▁zařad	-7336
▁čistí	-7337
ugosláv	-7338
šetření	-7339
▁Olympi	-7340
▁Výsled	-7341
▁advoká	-7342
▁dobrou	-7343
▁dohoda	-7344
▁komory	-7345
▁orient	-7346
▁osobně	-7347
▁otázek	-7348
▁pobytu	-7349
▁přispí	-7350
▁sezóně	-7351
▁vstupu	-7352
▁vypadá	-7353
▁útoční	-7354
▁členem	-7355
▁štěstí	-7356
▁doprová	-7357
▁fakulty	-7358
▁fakultě	-7359
▁funguje	-7360
▁jaderné	-7361
▁komentá	-7362
▁letadla	-7363
▁nájemné	-7364
▁německý	-7365
▁operaci	-7366
▁ostatně	-7367
▁pacient	-7368
▁podpora	-7369
▁poslane	-7370
▁prodeji	-7371
▁prosper	-7372
▁turnaje	-7373
▁vyberte	-7374
▁vytváří	-7375
▁víkendu	-7376
▁úspěšně	-7377
▁Sdružení	-7378
▁jugosláv	-7379
▁kontrolu	-7380
▁lékařské	-7381
▁nesouhla	-7382
▁náhradní	-7383
▁pražském	-7384
▁prostory	-7385
▁přiznání	-7386
▁vyjádřil	-7387
▁významné	-7388
▁existenci	-7389
▁kategorie	-7390
▁nájemného	-7391
▁obyvatelé	-7392
▁porovnání	-7393
▁struktury	-7394
▁rozhodovat	-7395
SE	-7396
dox	-7397
dár	-7398
kor	-7399
vol	-7400
žto	-7401
▁5.	-7402
▁Bý	-7403
▁Gi	-7404
▁Ša	-7405
kují	-7406
mezí	-7407
měrů	-7408
stri	-7409
turu	-7410
vace	-7411
vech	-7412
vere	-7413
číta	-7414
škol	-7415
▁Kni	-7416
▁Mat	-7417
▁Pit	-7418
▁Tat	-7419
▁Tvr	-7420
▁cha	-7421
▁far	-7422
▁lib	-7423
▁míč	-7424
▁omy	-7425
▁pal	-7426
▁uta	-7427
kolik	-7428
lovou	-7429
ovské	-7430
čtyři	-7431
žoval	-7432
▁Jiho	-7433
▁Mana	-7434
▁Nech	-7435
▁Prob	-7436
▁Soci	-7437
▁akcí	-7438
▁auta	-7439
▁infe	-7440
▁kape	-7441
▁léky	-7442
▁nava	-7443
▁nevi	-7444
▁peri	-7445
▁redu	-7446
▁trhy	-7447
▁tělo	-7448
právně	-7449
rového	-7450
zovali	-7451
ženého	-7452
▁Bosně	-7453
▁Jižní	-7454
▁Stačí	-7455
▁dráhy	-7456
▁jezdí	-7457
▁měřít	-7458
▁nakup	-7459
▁neuro	-7460
▁novém	-7461
▁odbyt	-7462
▁přená	-7463
▁přimě	-7464
▁týdnů	-7465
▁volné	-7466
▁zvlád	-7467
▁širší	-7468
▁Anglie	-7469
▁Chcete	-7470
▁Jiřího	-7471
▁Předpo	-7472
▁církev	-7473
▁discip	-7474
▁fyziky	-7475
▁konfli	-7476
▁labora	-7477
▁nezapo	-7478
▁odehrá	-7479
▁plochy	-7480
▁podobu	-7481
▁přijít	-7482
▁server	-7483
▁soudní	-7484
▁tvorby	-7485
▁vnější	-7486
▁vyjadř	-7487
▁vzrost	-7488
▁českou	-7489
▁Králové	-7490
▁protest	-7491
▁státním	-7492
▁vytvoří	-7493
▁významu	-7494
▁zjistit	-7495
▁Olomouci	-7496
▁hodinách	-7497
▁pacienta	-7498
▁poznatky	-7499
▁přijmout	-7500
▁spravedl	-7501
▁starosti	-7502
▁stavební	-7503
▁zbytečné	-7504
▁ministrem	-7505
▁nejlepším	-7506
▁obrazovky	-7507
▁policisté	-7508
▁předsedou	-7509
▁příspěvek	-7510
▁zůstávají	-7511
▁účastníků	-7512
▁experiment	-7513
▁nejčastěji	-7514
▁základního	-7515
▁představení	-7516
▁příležitost	-7517
▁vyšetřování	-7518
▁administrati	-7519
▁ekonomických	-7520
▁individuální	-7521
▁přinejmenším	-7522
▁podnikatelské	-7523
%.	-7524
7.	-7525
TI	-7526
ju	-7527
nt	-7528
KON	-7529
anů	-7530
dku	-7531
mno	-7532
rus	-7533
sly	-7534
smů	-7535
tna	-7536
zdá	-7537
ČSL	-7538
▁33	-7539
▁Ad	-7540
▁Dá	-7541
▁hr	-7542
▁Ši	-7543
afri	-7544
alup	-7545
mady	-7546
mile	-7547
niku	-7548
nova	-7549
nuto	-7550
ovku	-7551
pise	-7552
tily	-7553
▁Car	-7554
▁Dvě	-7555
▁NHL	-7556
▁Nes	-7557
▁cuk	-7558
▁mot	-7559
▁moz	-7560
▁něž	-7561
▁ryt	-7562
▁věz	-7563
▁zám	-7564
▁ČEZ	-7565
▁Žád	-7566
inami	-7567
vostí	-7568
váním	-7569
▁Indi	-7570
▁Ital	-7571
▁Mech	-7572
▁Tele	-7573
▁klid	-7574
▁meta	-7575
▁okra	-7576
▁vozů	-7577
▁vyvá	-7578
▁výpo	-7579
▁zdán	-7580
▁zhor	-7581
▁zpří	-7582
▁zvět	-7583
jedině	-7584
pozice	-7585
rování	-7586
vateli	-7587
▁Milan	-7588
▁celku	-7589
▁chodí	-7590
▁doplň	-7591
▁dočas	-7592
▁dětem	-7593
▁důraz	-7594
▁jasně	-7595
▁konta	-7596
▁kyslí	-7597
▁liber	-7598
▁mysle	-7599
▁nemlu	-7600
▁nízké	-7601
▁sorti	-7602
▁zakou	-7603
▁zemře	-7604
▁Anglii	-7605
▁George	-7606
▁Jedním	-7607
▁Zdeněk	-7608
▁chvíle	-7609
▁detail	-7610
▁export	-7611
▁instal	-7612
▁inteli	-7613
▁jménem	-7614
▁krátko	-7615
▁manipu	-7616
▁market	-7617
▁mistra	-7618
▁obratu	-7619
▁presti	-7620
▁svobod	-7621
▁zaslou	-7622
▁článek	-7623
▁živoči	-7624
dělování	-7625
▁Microso	-7626
▁Podnika	-7627
▁Poslane	-7628
▁Profitu	-7629
▁aminoky	-7630
▁medaile	-7631
▁mužstvo	-7632
▁nejnově	-7633
▁nestačí	-7634
▁objevil	-7635
▁rostlin	-7636
▁soupeře	-7637
▁stanoví	-7638
▁strážní	-7639
▁třikrát	-7640
▁uzavřít	-7641
▁veřejně	-7642
▁vyhrála	-7643
▁zabývat	-7644
▁způsobu	-7645
▁získání	-7646
▁Miroslav	-7647
▁Nejvyšší	-7648
▁asociace	-7649
▁dvanácti	-7650
▁jedenáct	-7651
▁kvalifik	-7652
▁navzájem	-7653
▁odpovědi	-7654
▁označení	-7655
▁připomín	-7656
▁rozhodčí	-7657
▁silniční	-7658
▁skončila	-7659
▁využívat	-7660
▁výstavby	-7661
▁celkového	-7662
▁centrální	-7663
▁fotbalové	-7664
▁osobnosti	-7665
▁požadavek	-7666
▁trestního	-7667
▁zkušenost	-7668
▁největších	-7669
▁zemědělské	-7670
▁odpovědnost	-7671
▁prezidentem	-7672
▁vlastnictví	-7673
▁odpovídající	-7674
▁pochopitelně	-7675
▁místopředseda	-7676
běr	-7677
dex	-7678
jce	-7679
mus	-7680
ope	-7681
pti	-7682
tud	-7683
zím	-7684
▁55	-7685
▁zo	-7686
dago	-7687
kými	-7688
liko	-7689
tovo	-7690
vami	-7691
řech	-7692
▁Lit	-7693
▁Rus	-7694
▁Sko	-7695
▁aku	-7696
▁bla	-7697
▁dov	-7698
▁har	-7699
▁mem	-7700
▁nas	-7701
▁slí	-7702
▁Čím	-7703
▁ště	-7704
itelé	-7705
logra	-7706
stila	-7707
▁Cent	-7708
▁Graf	-7709
▁Obje	-7710
▁Syst	-7711
▁frek	-7712
▁ikon	-7713
▁nejú	-7714
▁oddě	-7715
▁poky	-7716
▁prov	-7717
▁spad	-7718
▁vlaj	-7719
▁zmen	-7720
▁údrž	-7721
▁čemu	-7722
oevrop	-7723
ujícím	-7724
▁chtít	-7725
▁digit	-7726
▁dobou	-7727
▁hrají	-7728
▁kdysi	-7729
▁koupí	-7730
▁limit	-7731
▁mladé	-7732
▁podří	-7733
▁přene	-7734
▁volně	-7735
▁zjišť	-7736
▁zneči	-7737
▁závaž	-7738
stickou	-7739
▁Polska	-7740
▁Slunce	-7741
▁Takové	-7742
▁jejímž	-7743
▁motocy	-7744
▁nejspí	-7745
▁nemělo	-7746
▁nezají	-7747
▁občané	-7748
▁opravy	-7749
▁panelu	-7750
▁porozu	-7751
▁ročník	-7752
▁startu	-7753
▁studia	-7754
▁system	-7755
▁takřka	-7756
▁titulu	-7757
▁vysoká	-7758
▁vzdělá	-7759
▁ústavy	-7760
▁Českou	-7761
▁čekají	-7762
▁žádost	-7763
▁Důležit	-7764
▁Karlovy	-7765
▁dostalo	-7766
▁křesťan	-7767
▁možných	-7768
▁městské	-7769
▁ochrany	-7770
▁přenosu	-7771
▁regionu	-7772
▁sekundu	-7773
▁softwar	-7774
▁souladu	-7775
▁těžkých	-7776
▁vyhodno	-7777
▁bývalých	-7778
▁fotograf	-7779
▁generace	-7780
▁investor	-7781
▁ministrů	-7782
▁ministři	-7783
▁nástrojů	-7784
▁potravin	-7785
▁považuji	-7786
▁projekty	-7787
▁přechodu	-7788
▁předpisů	-7789
▁skončilo	-7790
▁skutečné	-7791
▁vzájemně	-7792
▁zjištění	-7793
▁zpracová	-7794
▁časopisu	-7795
▁alternati	-7796
▁neznamená	-7797
▁odborných	-7798
▁odpadních	-7799
▁organismu	-7800
▁podobných	-7801
▁vyspělých	-7802
▁výpočetní	-7803
▁zákazníka	-7804
▁Sovětského	-7805
▁organizaci	-7806
▁pojišťovna	-7807
▁schopnosti	-7808
▁Severoatlan	-7809
▁politického	-7810
▁zabezpečení	-7811
▁profesionální	-7812
dm	-7813
kva	-7814
meň	-7815
mán	-7816
nej	-7817
oku	-7818
pie	-7819
rií	-7820
zin	-7821
žad	-7822
▁2:	-7823
▁6.	-7824
▁mr	-7825
▁Čs	-7826
domí	-7827
kaza	-7828
ktní	-7829
káží	-7830
leji	-7831
leni	-7832
mitu	-7833
skok	-7834
skop	-7835
tním	-7836
átky	-7837
ózní	-7838
řena	-7839
šejí	-7840
šena	-7841
▁15.	-7842
▁31.	-7843
▁Ham	-7844
▁Poz	-7845
▁Slá	-7846
▁Wil	-7847
▁bak	-7848
▁dot	-7849
▁gym	-7850
▁gól	-7851
▁klo	-7852
▁kol	-7853
▁les	-7854
▁ovo	-7855
▁ple	-7856
▁plu	-7857
▁srá	-7858
▁val	-7859
chala	-7860
draží	-7861
kovým	-7862
ktoru	-7863
lební	-7864
roční	-7865
staly	-7866
tečný	-7867
čkami	-7868
▁Stru	-7869
▁agre	-7870
▁bada	-7871
▁brát	-7872
▁drží	-7873
▁lesů	-7874
▁myši	-7875
▁naka	-7876
▁neje	-7877
▁papr	-7878
▁proh	-7879
▁píše	-7880
▁rezi	-7881
▁skan	-7882
▁séri	-7883
▁tane	-7884
▁tote	-7885
▁vyžá	-7886
▁čest	-7887
▁řeší	-7888
▁žádá	-7889
ktivit	-7890
▁Odbor	-7891
▁arche	-7892
▁bilan	-7893
▁cenou	-7894
▁dojem	-7895
▁filmů	-7896
▁firmá	-7897
▁fondů	-7898
▁kniha	-7899
▁kupní	-7900
▁mandá	-7901
▁osoba	-7902
▁osvěd	-7903
▁oteví	-7904
▁pohle	-7905
▁pohod	-7906
▁porad	-7907
▁pravé	-7908
▁prově	-7909
▁rovno	-7910
▁silně	-7911
▁stáří	-7912
▁těmto	-7913
▁ustav	-7914
▁vodou	-7915
▁vrátí	-7916
▁vědci	-7917
▁všude	-7918
▁zaned	-7919
▁zpráv	-7920
▁želez	-7921
▁Chceme	-7922
▁Organi	-7923
▁Postup	-7924
▁elektř	-7925
▁inžený	-7926
▁květnu	-7927
▁mnohdy	-7928
▁modelů	-7929
▁místem	-7930
▁podaří	-7931
▁překon	-7932
▁rozumě	-7933
▁službu	-7934
▁stupně	-7935
▁trvale	-7936
▁uznání	-7937
▁vystří	-7938
▁zbytek	-7939
▁zápase	-7940
▁zápasů	-7941
▁špatné	-7942
▁Nejvíce	-7943
▁inflace	-7944
▁kvalita	-7945
▁některá	-7946
▁odchodu	-7947
▁pracují	-7948
▁přírodě	-7949
▁sponzor	-7950
▁turistů	-7951
▁ukázalo	-7952
▁vyplatí	-7953
▁výstava	-7954
▁zahájen	-7955
▁zajiště	-7956
▁způsoby	-7957
▁delegace	-7958
▁dopravní	-7959
▁dřívější	-7960
▁osobních	-7961
▁poptávka	-7962
▁prosadit	-7963
▁přípravě	-7964
▁sovětské	-7965
▁atmosféře	-7966
▁materiály	-7967
▁politická	-7968
▁potraviná	-7969
▁stanovení	-7970
▁vysvětlit	-7971
▁Evropského	-7972
▁představit	-7973
▁přicházejí	-7974
▁standardní	-7975
▁stanovisko	-7976
▁zkušeností	-7977
▁slovenských	-7978
▁představitelů	-7979
10	-7980
4,	-7981
PI	-7982
adu	-7983
ban	-7984
bur	-7985
gna	-7986
las	-7987
nět	-7988
tan	-7989
top	-7990
vel	-7991
átů	-7992
▁7.	-7993
▁ZA	-7994
▁ag	-7995
▁hů	-7996
dlem	-7997
dovi	-7998
enek	-7999
fiká	-8000
hách	-8001
kázá	-8002
loží	-8003
nete	-8004
otva	-8005
prch	-8006
sové	-8007
stka	-8008
teru	-8009
tiky	-8010
vaci	-8011
zilo	-8012
čeny	-8013
ženy	-8014
▁120	-8015
▁250	-8016
▁800	-8017
▁Arg	-8018
▁Ser	-8019
▁Vla	-8020
▁eli	-8021
▁hum	-8022
▁ing	-8023
▁můj	-8024
▁osu	-8025
▁sum	-8026
▁uji	-8027
▁usi	-8028
▁vez	-8029
▁zah	-8030
▁zma	-8031
denti	-8032
něním	-8033
pisem	-8034
schop	-8035
selin	-8036
slech	-8037
stero	-8038
tosti	-8039
znává	-8040
čítat	-8041
▁Cena	-8042
▁Dlou	-8043
▁Mimo	-8044
▁Tuto	-8045
▁balí	-8046
▁bodu	-8047
▁boji	-8048
▁char	-8049
▁dění	-8050
▁dřív	-8051
▁léků	-8052
▁maxi	-8053
▁naho	-8054
▁naru	-8055
▁nedů	-8056
▁nene	-8057
▁neře	-8058
▁obhá	-8059
▁ocit	-8060
▁tram	-8061
▁unii	-8062
nající	-8063
zovala	-8064
▁1992.	-8065
▁Brazí	-8066
▁Jedin	-8067
▁Nikdo	-8068
▁Návrh	-8069
▁Rumun	-8070
▁Stále	-8071
▁barvy	-8072
▁centi	-8073
▁kosmi	-8074
▁listu	-8075
▁montá	-8076
▁muzea	-8077
▁nalez	-8078
▁nepod	-8079
▁nákla	-8080
▁oběma	-8081
▁pobře	-8082
▁pohro	-8083
▁schém	-8084
▁splat	-8085
▁totéž	-8086
▁uvést	-8087
▁vážně	-8088
▁výnos	-8089
▁zakon	-8090
▁záslu	-8091
advacet	-8092
▁Sparty	-8093
▁budovy	-8094
▁dlouhá	-8095
▁moment	-8096
▁mínění	-8097
▁naději	-8098
▁nejmen	-8099
▁nekone	-8100
▁nemohl	-8101
▁neprav	-8102
▁nároky	-8103
▁přiblí	-8104
▁rozhra	-8105
▁složky	-8106
▁veletr	-8107
▁vysoce	-8108
▁vysoký	-8109
▁vyzkou	-8110
▁závisí	-8111
▁čtyřmi	-8112
hraniční	-8113
▁Mechani	-8114
▁angličt	-8115
▁konfigu	-8116
▁milióny	-8117
▁nabídce	-8118
▁nástroj	-8119
▁probíhá	-8120
▁přízniv	-8121
▁stranou	-8122
▁studium	-8123
▁takovým	-8124
▁událost	-8125
▁ukazují	-8126
▁čtyřech	-8127
procentní	-8128
▁Obchodní	-8129
▁agentura	-8130
▁chemické	-8131
▁nemůžeme	-8132
▁normální	-8133
▁návštěvu	-8134
▁patnácti	-8135
▁považují	-8136
▁poznamen	-8137
▁rozšířit	-8138
▁systémem	-8139
▁tiskárny	-8140
▁umístění	-8141
▁vzájemné	-8142
▁žebříčku	-8143
▁charakter	-8144
▁představu	-8145
▁světového	-8146
▁koaličních	-8147
▁představen	-8148
▁vysvětluje	-8149
▁předpokládat	-8150
60	-8151
ks	-8152
wo	-8153
žá	-8154
bar	-8155
bel	-8156
bčí	-8157
lig	-8158
měs	-8159
řky	-8160
▁Go	-8161
▁SV	-8162
bert	-8163
citu	-8164
enou	-8165
lový	-8166
orku	-8167
rche	-8168
rním	-8169
▁Bil	-8170
▁Gre	-8171
▁Gro	-8172
▁Lin	-8173
▁Mám	-8174
▁buň	-8175
▁bíl	-8176
▁hrd	-8177
▁hut	-8178
▁obo	-8179
▁obr	-8180
▁res	-8181
kvali	-8182
sledy	-8183
▁Alex	-8184
▁Clip	-8185
▁Kone	-8186
▁Mari	-8187
▁argu	-8188
▁atom	-8189
▁cítí	-8190
▁kusů	-8191
▁menš	-8192
▁nímž	-8193
▁pivo	-8194
▁risk	-8195
▁tlak	-8196
▁vlny	-8197
▁vypu	-8198
▁zavo	-8199
▁zkrá	-8200
▁říct	-8201
nských	-8202
čování	-8203
šených	-8204
▁Pouze	-8205
▁Počet	-8206
▁Připo	-8207
▁Tomáš	-8208
▁asist	-8209
▁chemi	-8210
▁denní	-8211
▁dílem	-8212
▁hlavu	-8213
▁islám	-8214
▁kartu	-8215
▁klubů	-8216
▁koste	-8217
▁manže	-8218
▁nezmě	-8219
▁nucen	-8220
▁pobyt	-8221
▁scéná	-8222
▁vrací	-8223
▁zkuše	-8224
▁znaků	-8225
ovicích	-8226
rálních	-8227
▁Itálii	-8228
▁Masary	-8229
▁Moravě	-8230
▁cyklus	-8231
▁důklad	-8232
▁hodnot	-8233
▁hypoté	-8234
▁knihov	-8235
▁najevo	-8236
▁nákupu	-8237
▁pedago	-8238
▁poslou	-8239
▁poznám	-8240
▁překro	-8241
▁přijal	-8242
▁rychlé	-8243
▁sdělil	-8244
▁stříbr	-8245
▁velkým	-8246
▁vyvola	-8247
▁výjime	-8248
▁výstup	-8249
▁zjistí	-8250
▁zrovna	-8251
▁závodě	-8252
▁českým	-8253
bývající	-8254
▁Naproti	-8255
▁Policie	-8256
▁Zejména	-8257
▁akciové	-8258
▁celkově	-8259
▁domnívá	-8260
▁dvojice	-8261
▁důvodem	-8262
▁hodnotí	-8263
▁intenzi	-8264
▁kilogra	-8265
▁molekul	-8266
▁ojedině	-8267
▁orienta	-8268
▁podívat	-8269
▁povinen	-8270
▁příspěv	-8271
▁různými	-8272
▁schopna	-8273
▁spojené	-8274
▁vybírat	-8275
▁vzpomín	-8276
▁výstavy	-8277
▁zmíněné	-8278
▁čtenáře	-8279
▁dosahuje	-8280
▁obligace	-8281
▁otevření	-8282
▁padesáti	-8283
▁přípravy	-8284
▁starosta	-8285
▁tajemník	-8286
▁vyslovil	-8287
▁znamenat	-8288
▁zástupců	-8289
▁mimořádně	-8290
▁politický	-8291
▁předmětem	-8292
▁zajištění	-8293
▁Jugoslávii	-8294
▁molekulární	-8295
▁místopředse	-8296
20	-8297
CS	-8298
ng	-8299
NDr	-8300
cas	-8301
det	-8302
dio	-8303
drý	-8304
dři	-8305
fií	-8306
mím	-8307
obe	-8308
ski	-8309
tří	-8310
zar	-8311
óny	-8312
žný	-8313
▁65	-8314
▁Ci	-8315
▁ap	-8316
▁et	-8317
▁zr	-8318
arma	-8319
gres	-8320
livá	-8321
lína	-8322
nská	-8323
obil	-8324
pech	-8325
stán	-8326
tací	-8327
vard	-8328
šilo	-8329
▁11.	-8330
▁Bal	-8331
▁Boy	-8332
▁CAD	-8333
▁Lad	-8334
▁bav	-8335
▁cvi	-8336
▁děl	-8337
▁obe	-8338
▁san	-8339
chově	-8340
dence	-8341
enátu	-8342
ktory	-8343
onové	-8344
pením	-8345
rkono	-8346
roval	-8347
žních	-8348
▁Bene	-8349
▁Ceny	-8350
▁Nabí	-8351
▁Např	-8352
▁RNDr	-8353
▁Stan	-8354
▁Vých	-8355
▁hrál	-8356
▁juni	-8357
▁natá	-8358
▁opra	-8359
▁přin	-8360
▁role	-8361
▁sedi	-8362
▁skrý	-8363
▁sobo	-8364
▁trag	-8365
▁tvrd	-8366
▁vlád	-8367
▁vlák	-8368
▁víme	-8369
▁vůli	-8370
▁zahy	-8371
▁zauj	-8372
nickou	-8373
něných	-8374
sticky	-8375
žívání	-8376
▁Elekt	-8377
▁Kolik	-8378
▁Lékař	-8379
▁Mnoho	-8380
▁Mnozí	-8381
▁Výbor	-8382
▁bloku	-8383
▁brání	-8384
▁budov	-8385
▁běžně	-8386
▁domov	-8387
▁dřevě	-8388
▁hlavy	-8389
▁hloub	-8390
▁hrách	-8391
▁nezna	-8392
▁plánu	-8393
▁použi	-8394
▁přání	-8395
▁rekor	-8396
▁státě	-8397
▁uprch	-8398
▁váleč	-8399
▁zítra	-8400
▁února	-8401
▁úvěrů	-8402
▁čísel	-8403
▁škole	-8404
▁Bójové	-8405
▁Fotbal	-8406
▁Oznámi	-8407
▁Rovněž	-8408
▁Slovin	-8409
▁abyste	-8410
▁basket	-8411
▁civili	-8412
▁dohodě	-8413
▁důvody	-8414
▁jakého	-8415
▁kompli	-8416
▁nadace	-8417
▁napětí	-8418
▁pojmen	-8419
▁ponech	-8420
▁popula	-8421
▁regene	-8422
▁rizika	-8423
▁správu	-8424
▁svěřen	-8425
▁zvýšil	-8426
▁švýcar	-8427
▁Richard	-8428
▁Svoboda	-8429
▁Znamená	-8430
▁bezplat	-8431
▁konfron	-8432
▁nachází	-8433
▁návratu	-8434
▁pečlivě	-8435
▁prezent	-8436
▁působit	-8437
▁reprodu	-8438
▁ruského	-8439
▁signálu	-8440
▁velkého	-8441
▁vesnici	-8442
▁vyšších	-8443
▁zaveden	-8444
▁jednotek	-8445
▁koncepce	-8446
▁kontroly	-8447
▁procesor	-8448
▁prodejní	-8449
▁předpisy	-8450
▁rychleji	-8451
▁skončení	-8452
▁vytvářet	-8453
▁zdánlivě	-8454
▁závodech	-8455
▁čtyřicet	-8456
▁dostávají	-8457
▁existovat	-8458
▁informaci	-8459
▁obchodním	-8460
▁ostatními	-8461
▁republiká	-8462
▁střediska	-8463
▁atraktivní	-8464
▁komunikace	-8465
▁nejlepších	-8466
▁umožňující	-8467
▁fotbalového	-8468
▁vzdálenosti	-8469
▁mezinárodních	-8470
BM	-8471
Bo	-8472
KO	-8473
RU	-8474
SO	-8475
ph	-8476
we	-8477
.).	-8478
ENÍ	-8479
ini	-8480
mie	-8481
rid	-8482
use	-8483
átu	-8484
éma	-8485
▁4,	-8486
▁CO	-8487
▁Mc	-8488
▁OH	-8489
▁Pí	-8490
▁Ur	-8491
▁ps	-8492
cená	-8493
cest	-8494
chou	-8495
cová	-8496
fyzi	-8497
komu	-8498
káře	-8499
lovo	-8500
ovně	-8501
tání	-8502
ární	-8503
éhož	-8504
érie	-8505
číst	-8506
▁14.	-8507
▁30.	-8508
▁Bro	-8509
▁Cor	-8510
▁Den	-8511
▁Kri	-8512
▁Sig	-8513
▁jih	-8514
▁oxi	-8515
▁tep	-8516
▁žít	-8517
bajtů	-8518
diště	-8519
nomie	-8520
ovaní	-8521
ovský	-8522
rovou	-8523
stříc	-8524
telům	-8525
zdory	-8526
ženou	-8527
▁1988	-8528
▁Bush	-8529
▁Kovo	-8530
▁Lebe	-8531
▁Lubo	-8532
▁duch	-8533
▁kalů	-8534
▁modu	-8535
▁muzi	-8536
▁napl	-8537
▁ohlá	-8538
▁povz	-8539
▁příz	-8540
▁těmi	-8541
▁vodu	-8542
▁vědě	-8543
▁zadr	-8544
mentem	-8545
stická	-8546
tečnou	-8547
zeného	-8548
▁Autor	-8549
▁ClipA	-8550
▁Koali	-8551
▁Rusku	-8552
▁Ruské	-8553
▁blíží	-8554
▁fondy	-8555
▁hvězd	-8556
▁jedni	-8557
▁kalku	-8558
▁knize	-8559
▁motiv	-8560
▁ovzdu	-8561
▁parti	-8562
▁potre	-8563
▁prona	-8564
▁rubri	-8565
▁tábor	-8566
▁volej	-8567
▁vědců	-8568
▁znaky	-8569
▁úvěry	-8570
▁Krkono	-8571
▁Ostrav	-8572
▁Profit	-8573
▁Taková	-8574
▁Techni	-8575
▁daňové	-8576
▁extrém	-8577
▁kombin	-8578
▁měsíci	-8579
▁nechal	-8580
▁náměst	-8581
▁názorů	-8582
▁obrazů	-8583
▁origin	-8584
▁ostrav	-8585
▁podání	-8586
▁pomůže	-8587
▁proběh	-8588
▁předbě	-8589
▁rozpad	-8590
▁sportu	-8591
▁viděli	-8592
▁vojáků	-8593
▁vyrábí	-8594
▁větším	-8595
▁záření	-8596
▁dlouhou	-8597
▁doprava	-8598
▁dopravě	-8599
▁kvalitě	-8600
▁minulém	-8601
▁otázkou	-8602
▁režisér	-8603
▁souborů	-8604
▁termínu	-8605
▁třináct	-8606
▁východo	-8607
▁výpravy	-8608
▁častěji	-8609
▁Pracovní	-8610
▁Rakousku	-8611
▁finančně	-8612
▁laborato	-8613
▁levnější	-8614
▁nepřízni	-8615
▁novináři	-8616
▁objevuje	-8617
▁partnerů	-8618
▁požaduje	-8619
▁případné	-8620
▁určitých	-8621
▁vznikají	-8622
▁Microsoft	-8623
▁blízkosti	-8624
▁dohodnout	-8625
▁jednoduše	-8626
▁kvalifika	-8627
▁používání	-8628
▁projevuje	-8629
▁ubytování	-8630
▁upozornil	-8631
▁uprostřed	-8632
▁uvedených	-8633
▁demokracii	-8634
▁ekologické	-8635
▁několikrát	-8636
▁pracoviště	-8637
▁pracovního	-8638
▁sociálního	-8639
▁vynikající	-8640
▁nezaměstnan	-8641
▁technických	-8642
▁technologií	-8643
▁reprezentant	-8644
RI	-8645
kr	-8646
ODS	-8647
jel	-8648
kop	-8649
krý	-8650
leš	-8651
lým	-8652
net	-8653
pan	-8654
znu	-8655
čům	-8656
ške	-8657
▁CH	-8658
▁Dy	-8659
▁Čá	-8660
bice	-8661
blíž	-8662
cina	-8663
dová	-8664
díme	-8665
kalo	-8666
kola	-8667
koru	-8668
nané	-8669
něna	-8670
oria	-8671
píše	-8672
přes	-8673
zřej	-8674
čana	-8675
činu	-8676
šeny	-8677
▁Fil	-8678
▁Fon	-8679
▁Han	-8680
▁Hrá	-8681
▁bli	-8682
▁cíl	-8683
▁ptá	-8684
▁ran	-8685
▁tlu	-8686
▁zvá	-8687
▁šel	-8688
bních	-8689
eného	-8690
letou	-8691
nicky	-8692
novou	-8693
ovice	-8694
platí	-8695
ranné	-8696
rátor	-8697
tební	-8698
tivní	-8699
ument	-8700
čovat	-8701
štěné	-8702
▁Byly	-8703
▁Diva	-8704
▁Poji	-8705
▁Svat	-8706
▁Tady	-8707
▁cosi	-8708
▁divo	-8709
▁dělí	-8710
▁jaře	-8711
▁jimž	-8712
▁kláš	-8713
▁krve	-8714
▁kurz	-8715
▁obci	-8716
▁pale	-8717
▁poří	-8718
▁psát	-8719
▁přís	-8720
▁taky	-8721
▁vyřa	-8722
▁vzít	-8723
▁úhra	-8724
cování	-8725
rované	-8726
▁Bohem	-8727
▁Dosud	-8728
▁Druhý	-8729
▁Havla	-8730
▁Každá	-8731
▁Major	-8732
▁Premi	-8733
▁choro	-8734
▁domin	-8735
▁dubna	-8736
▁dveře	-8737
▁hlasy	-8738
▁kluby	-8739
▁nepla	-8740
▁nábyt	-8741
▁penze	-8742
▁pokry	-8743
▁promí	-8744
▁rakov	-8745
▁stráž	-8746
▁testu	-8747
▁trvat	-8748
▁ulice	-8749
▁vydat	-8750
▁výpla	-8751
▁zlato	-8752
▁zázra	-8753
▁útoku	-8754
▁člena	-8755
▁šťast	-8756
ovatele	-8757
▁Alexan	-8758
▁areálu	-8759
▁důvěry	-8760
▁formát	-8761
▁hladov	-8762
▁klient	-8763
▁kompre	-8764
▁naděje	-8765
▁neobvy	-8766
▁občany	-8767
▁orgány	-8768
▁orgánů	-8769
▁pouště	-8770
▁přišli	-8771
▁rodina	-8772
▁severu	-8773
▁stavby	-8774
▁turnaj	-8775
▁vašeho	-8776
▁výhody	-8777
▁zahrnu	-8778
▁ztrácí	-8779
▁Americe	-8780
▁Investi	-8781
▁brankář	-8782
▁jaterní	-8783
▁nádraží	-8784
▁pobřeží	-8785
▁pokládá	-8786
▁policii	-8787
▁postupy	-8788
▁sloužit	-8789
▁soubory	-8790
▁spraved	-8791
▁světový	-8792
▁vyrábět	-8793
▁Evropská	-8794
▁Portugal	-8795
▁důležitý	-8796
▁kabinetu	-8797
▁kontakty	-8798
▁místních	-8799
▁obvinění	-8800
▁oznámila	-8801
▁partneři	-8802
▁pohybují	-8803
▁postavit	-8804
▁principy	-8805
▁produkty	-8806
▁provádět	-8807
▁rozhodli	-8808
▁software	-8809
▁souhlasu	-8810
▁techniku	-8811
▁události	-8812
▁událostí	-8813
▁vyjádřit	-8814
▁zachovat	-8815
▁zaměstná	-8816
▁zastavit	-8817
▁začínají	-8818
▁zjistili	-8819
▁Jaroslava	-8820
▁Slovenské	-8821
▁dokumentu	-8822
▁dopoledne	-8823
▁negativní	-8824
▁obsahovat	-8825
▁odpověděl	-8826
▁odstranit	-8827
▁podstatné	-8828
▁používají	-8829
▁považovat	-8830
▁příkladem	-8831
▁rozhoduje	-8832
▁snižování	-8833
▁strategie	-8834
▁politickou	-8835
▁poskytnout	-8836
▁počítačové	-8837
▁regionální	-8838
▁sovětských	-8839
▁vystudoval	-8840
▁vysvětlení	-8841
▁konstatoval	-8842
▁managementu	-8843
▁nejrychleji	-8844
▁návštěvníků	-8845
▁ministerstvu	-8846
▁rekonstrukci	-8847
EK	-8848
IL	-8849
UT	-8850
ml	-8851
dly	-8852
ens	-8853
klí	-8854
koj	-8855
pce	-8856
smy	-8857
sus	-8858
tav	-8859
áři	-8860
▁75	-8861
▁No	-8862
▁Or	-8863
▁fó	-8864
bírá	-8865
dard	-8866
hala	-8867
klid	-8868
lích	-8869
menu	-8870
mila	-8871
mské	-8872
ovic	-8873
pali	-8874
sích	-8875
tika	-8876
vaná	-8877
zové	-8878
žším	-8879
▁(19	-8880
▁Bon	-8881
▁Cho	-8882
▁Dán	-8883
▁Mot	-8884
▁Muž	-8885
▁Ter	-8886
▁Zač	-8887
▁bru	-8888
▁oži	-8889
▁spá	-8890
▁tax	-8891
▁tru	-8892
▁vyš	-8893
▁Čas	-8894
deční	-8895
jstří	-8896
lepší	-8897
nském	-8898
praví	-8899
rické	-8900
šovat	-8901
▁1000	-8902
▁Hist	-8903
▁Jaká	-8904
▁Jaké	-8905
▁Klad	-8906
▁Mají	-8907
▁Rada	-8908
▁Váno	-8909
▁boje	-8910
▁chro	-8911
▁dali	-8912
▁dová	-8913
▁levi	-8914
▁metr	-8915
▁mrav	-8916
▁nebe	-8917
▁sklá	-8918
▁vydr	-8919
▁věda	-8920
leného	-8921
pouští	-8922
právní	-8923
řování	-8924
▁Boris	-8925
▁Nelze	-8926
▁Slová	-8927
▁Stani	-8928
▁Tehdy	-8929
▁chyby	-8930
▁dokud	-8931
▁duchu	-8932
▁forma	-8933
▁formy	-8934
▁grafi	-8935
▁jakém	-8936
▁jemuž	-8937
▁jenže	-8938
▁klesá	-8939
▁kupón	-8940
▁makro	-8941
▁našel	-8942
▁nesmě	-8943
▁násil	-8944
▁obslu	-8945
▁ostře	-8946
▁pohád	-8947
▁popla	-8948
▁přiví	-8949
▁režim	-8950
▁sotva	-8951
▁srdce	-8952
▁staví	-8953
▁strav	-8954
▁totem	-8955
▁téhož	-8956
▁třídě	-8957
▁udělá	-8958
▁volbu	-8959
▁zaklá	-8960
▁zvýší	-8961
▁čekat	-8962
▁činit	-8963
cházeli	-8964
hromady	-8965
logické	-8966
později	-8967
▁Dalším	-8968
▁Odpově	-8969
▁Popper	-8970
▁března	-8971
▁chtěla	-8972
▁dostav	-8973
▁modely	-8974
▁nedovo	-8975
▁nepřed	-8976
▁papíru	-8977
▁přišlo	-8978
▁reakce	-8979
▁reakci	-8980
▁rozsah	-8981
▁soupeř	-8982
▁strach	-8983
▁určené	-8984
▁vstříc	-8985
▁vězení	-8986
▁účinky	-8987
▁českém	-8988
▁čtvere	-8989
hodnější	-8990
zovaných	-8991
▁Wimbled	-8992
▁diskusi	-8993
▁dopravu	-8994
▁formátu	-8995
▁kolekti	-8996
▁miliónu	-8997
▁najdete	-8998
▁neschop	-8999
▁obchody	-9000
▁obtížné	-9001
▁opozice	-9002
▁ovzduší	-9003
▁předchů	-9004
▁připadá	-9005
▁rozmezí	-9006
▁snižuje	-9007
▁školách	-9008
▁dostanou	-9009
▁globální	-9010
▁koncertu	-9011
▁nástroje	-9012
▁obligací	-9013
▁profesor	-9014
▁příčinou	-9015
▁středově	-9016
▁týkající	-9017
▁výsledku	-9018
▁Federální	-9019
▁Staroměst	-9020
▁Univerzit	-9021
▁funkcioná	-9022
▁geometrie	-9023
▁postižené	-9024
▁praktické	-9025
▁pravomoci	-9026
▁pražských	-9027
▁referendu	-9028
▁zpravodaj	-9029
▁čtvrtletí	-9030
▁objektivní	-9031
▁samostatně	-9032
▁současného	-9033
▁nejrůznějších	-9034
▁následujících	-9035
▁představiteli	-9036
▁zaměstnavatele	-9037
40	-9038
Hz	-9039
OD	-9040
bl	-9041
žď	-9042
avý	-9043
brá	-9044
byl	-9045
cad	-9046
ces	-9047
chý	-9048
fun	-9049
mož	-9050
pak	-9051
phi	-9052
rok	-9053
tle	-9054
yer	-9055
zeb	-9056
ózy	-9057
ďte	-9058
▁29	-9059
▁9.	-9060
▁SD	-9061
▁hř	-9062
daly	-9063
hrál	-9064
jdou	-9065
kazy	-9066
lami	-9067
měsí	-9068
padě	-9069
rový	-9070
selu	-9071
tala	-9072
tuře	-9073
řine	-9074
žejí	-9075
▁Con	-9076
▁Fer	-9077
▁Mal	-9078
▁Mus	-9079
▁Náš	-9080
▁Sam	-9081
▁gig	-9082
▁hez	-9083
▁hol	-9084
▁kul	-9085
▁lux	-9086
▁měk	-9087
▁sho	-9088
▁tox	-9089
▁uví	-9090
bního	-9091
dělat	-9092
ktive	-9093
leran	-9094
pustí	-9095
rizon	-9096
rokra	-9097
stilo	-9098
vinut	-9099
znamy	-9100
álové	-9101
čkách	-9102
řenou	-9103
řátel	-9104
▁Auto	-9105
▁form	-9106
▁havá	-9107
▁semi	-9108
▁stud	-9109
▁tari	-9110
▁tune	-9111
▁tvar	-9112
▁vteř	-9113
▁vyho	-9114
▁vypl	-9115
▁vědí	-9116
▁švéd	-9117
tickým	-9118
vnosti	-9119
zována	-9120
▁Obdob	-9121
▁Práce	-9122
▁anony	-9123
▁kuchy	-9124
▁musli	-9125
▁mírně	-9126
▁nukle	-9127
▁obráz	-9128
▁pohla	-9129
▁poráž	-9130
▁progn	-9131
▁písni	-9132
▁přímé	-9133
▁stylu	-9134
▁svoje	-9135
▁tajné	-9136
▁vazby	-9137
▁volný	-9138
▁vyhlí	-9139
▁října	-9140
ovanými	-9141
▁Otázka	-9142
▁Prostě	-9143
▁dlužní	-9144
▁důvěru	-9145
▁hranic	-9146
▁hřišti	-9147
▁medicí	-9148
▁mladší	-9149
▁nikoho	-9150
▁národů	-9151
▁pokuty	-9152
▁průběh	-9153
▁sezóny	-9154
▁sklení	-9155
▁služba	-9156
▁státem	-9157
▁vesměs	-9158
▁vlasti	-9159
▁vydělá	-9160
▁výkony	-9161
▁zrušit	-9162
▁částic	-9163
▁Zajímav	-9164
▁divadlo	-9165
▁dosáhla	-9166
▁exportu	-9167
▁funkční	-9168
▁histori	-9169
▁krajiny	-9170
▁kyslíku	-9171
▁menších	-9172
▁neplatí	-9173
▁označit	-9174
▁poradit	-9175
▁produkt	-9176
▁reklamy	-9177
▁rovnová	-9178
▁sekretá	-9179
▁stejným	-9180
▁svobody	-9181
▁tradice	-9182
▁třetiny	-9183
▁uvažuje	-9184
▁vozidel	-9185
▁východě	-9186
▁začátek	-9187
▁zásadně	-9188
▁zůstalo	-9189
▁Internet	-9190
▁Rakouska	-9191
▁aktuální	-9192
▁jednoráz	-9193
▁majitele	-9194
▁majitelé	-9195
▁myšlenky	-9196
▁narození	-9197
▁nepotřeb	-9198
▁obsahují	-9199
▁podepsal	-9200
▁poplatky	-9201
▁porušení	-9202
▁poslucha	-9203
▁povolání	-9204
▁pracoval	-9205
▁prosinci	-9206
▁prozatím	-9207
▁samozřej	-9208
▁spolehli	-9209
▁starožit	-9210
▁tuzemsku	-9211
▁ukončení	-9212
▁zahrnuje	-9213
▁institucí	-9214
▁kanceláří	-9215
▁komplexní	-9216
▁připravil	-9217
▁veřejného	-9218
▁volebního	-9219
▁výrobních	-9220
▁účastníci	-9221
▁živnosten	-9222
▁nesouhlasí	-9223
▁respektive	-9224
▁schopností	-9225
▁definitivně	-9226
▁mechanismus	-9227
▁ozbrojených	-9228
▁přítomnosti	-9229
▁zdravotního	-9230
▁záležitosti	-9231
▁příležitostí	-9232
▁transformaci	-9233
AP	-9234
AS	-9235
BC	-9236
JE	-9237
PS	-9238
ža	-9239
bie	-9240
ell	-9241
kul	-9242
lom	-9243
onů	-9244
tip	-9245
zbe	-9246
zil	-9247
áty	-9248
šce	-9249
žal	-9250
žbě	-9251
▁("	-9252
▁6:	-9253
▁8.	-9254
▁Ag	-9255
▁DP	-9256
▁Fa	-9257
▁KB	-9258
▁OD	-9259
▁On	-9260
▁Rů	-9261
▁ZÁ	-9262
amer	-9263
divu	-9264
hého	-9265
mage	-9266
rové	-9267
tské	-9268
valý	-9269
vana	-9270
zeni	-9271
šeli	-9272
žívá	-9273
▁189	-9274
▁192	-9275
▁21.	-9276
▁25.	-9277
▁Bul	-9278
▁Cen	-9279
▁GSM	-9280
▁Mni	-9281
▁Sna	-9282
▁Zku	-9283
▁fax	-9284
▁fix	-9285
▁lam	-9286
▁noc	-9287
▁nád	-9288
▁oké	-9289
▁rop	-9290
▁zad	-9291
▁Řím	-9292
chopi	-9293
dáním	-9294
entem	-9295
hospo	-9296
kovém	-9297
láním	-9298
noucí	-9299
ročně	-9300
členě	-9301
ůžeme	-9302
▁Jist	-9303
▁List	-9304
▁Meči	-9305
▁Osob	-9306
▁Tool	-9307
▁Zemi	-9308
▁aspe	-9309
▁dala	-9310
▁dílů	-9311
▁hono	-9312
▁jiní	-9313
▁koho	-9314
▁koně	-9315
▁kovů	-9316
▁krás	-9317
▁kvar	-9318
▁mine	-9319
▁mnou	-9320
▁nesk	-9321
▁obez	-9322
▁obvo	-9323
▁potě	-9324
▁spal	-9325
▁styl	-9326
▁sále	-9327
▁takz	-9328
▁vaši	-9329
▁vlně	-9330
▁vyna	-9331
▁vyná	-9332
▁zatí	-9333
▁útok	-9334
▁Řada	-9335
krátka	-9336
lující	-9337
myslem	-9338
nových	-9339
ologii	-9340
pustit	-9341
strace	-9342
řených	-9343
▁Druhá	-9344
▁Jihla	-9345
▁Peter	-9346
▁Proje	-9347
▁Třeba	-9348
▁Vojen	-9349
▁Vývoj	-9350
▁cizin	-9351
▁husto	-9352
▁jižní	-9353
▁lehce	-9354
▁nechy	-9355
▁oběti	-9356
▁podot	-9357
▁režii	-9358
▁sezná	-9359
▁sporu	-9360
▁trend	-9361
▁tribu	-9362
▁znění	-9363
▁Úřadu	-9364
▁úprav	-9365
▁řetěz	-9366
▁škodu	-9367
▁Argent	-9368
▁Evropu	-9369
▁Trenér	-9370
▁blízké	-9371
▁bránit	-9372
▁faktor	-9373
▁krátké	-9374
▁libovo	-9375
▁nedůvě	-9376
▁plnění	-9377
▁počtem	-9378
▁pravdi	-9379
▁reálné	-9380
▁rodičů	-9381
▁schval	-9382
▁tvořit	-9383
▁ukázal	-9384
▁vypoví	-9385
▁výborů	-9386
▁východ	-9387
▁výdajů	-9388
▁výklad	-9389
▁zdarma	-9390
▁zvítěz	-9391
▁závodů	-9392
▁účinek	-9393
▁Jelcina	-9394
▁Podstat	-9395
▁běžných	-9396
▁dobrovo	-9397
▁fakultu	-9398
▁komplik	-9399
▁nejenom	-9400
▁náhodou	-9401
▁objekti	-9402
▁pedagog	-9403
▁pražská	-9404
▁provádě	-9405
▁přístav	-9406
▁příčiny	-9407
▁rozhlas	-9408
▁smlouvě	-9409
▁správné	-9410
▁tabulce	-9411
▁teplota	-9412
▁týdnech	-9413
▁třetího	-9414
▁výstavě	-9415
▁zdrojem	-9416
▁Současně	-9417
▁akademie	-9418
▁dostatek	-9419
▁objevují	-9420
▁ovládání	-9421
▁politiků	-9422
▁principu	-9423
▁produkci	-9424
▁spotřeby	-9425
▁stejného	-9426
▁systemat	-9427
▁trenérem	-9428
▁základem	-9429
▁kriminali	-9430
▁podobného	-9431
▁předložit	-9432
▁radioakti	-9433
▁schválení	-9434
▁veřejných	-9435
▁vysvětlil	-9436
▁zachování	-9437
▁zajišťuje	-9438
▁fotbalistů	-9439
▁závislosti	-9440
▁spotřebitel	-9441
▁zastupitelstva	-9442
4.	-9443
IC	-9444
žu	-9445
dav	-9446
dre	-9447
ela	-9448
lát	-9449
rac	-9450
rný	-9451
stý	-9452
těž	-9453
čků	-9454
šný	-9455
▁85	-9456
▁Fo	-9457
▁Jí	-9458
▁šé	-9459
chla	-9460
hrou	-9461
jeli	-9462
lilo	-9463
naje	-9464
sala	-9465
skal	-9466
stku	-9467
stři	-9468
čený	-9469
číme	-9470
řeně	-9471
šený	-9472
▁1,5	-9473
▁Cha	-9474
▁Kor	-9475
▁Lud	-9476
▁Mer	-9477
▁Spe	-9478
▁Sám	-9479
▁bal	-9480
▁dro	-9481
▁lát	-9482
▁mld	-9483
▁mlý	-9484
▁mra	-9485
▁mzd	-9486
▁nou	-9487
▁ord	-9488
▁zmí	-9489
cisté	-9490
isíce	-9491
ktech	-9492
meňme	-9493
měrné	-9494
nální	-9495
stoup	-9496
tační	-9497
tního	-9498
zován	-9499
četně	-9500
▁Klep	-9501
▁Krát	-9502
▁adap	-9503
▁atle	-9504
▁dalo	-9505
▁dikt	-9506
▁hasi	-9507
▁hlub	-9508
▁hůře	-9509
▁indu	-9510
▁kurs	-9511
▁naří	-9512
▁netr	-9513
▁nezí	-9514
▁nežá	-9515
▁resp	-9516
▁ruky	-9517
▁síti	-9518
▁výky	-9519
▁údaj	-9520
▁úkon	-9521
▁číst	-9522
cených	-9523
dliště	-9524
hlížet	-9525
▁Dokon	-9526
▁Karla	-9527
▁Někdy	-9528
▁Němec	-9529
▁Potvr	-9530
▁Určit	-9531
▁celní	-9532
▁desít	-9533
▁dešti	-9534
▁dobro	-9535
▁dobrá	-9536
▁dosah	-9537
▁fanta	-9538
▁grafu	-9539
▁krizi	-9540
▁málok	-9541
▁nejni	-9542
▁nevím	-9543
▁objed	-9544
▁ochla	-9545
▁ovoce	-9546
▁plzeň	-9547
▁pokrý	-9548
▁převa	-9549
▁příru	-9550
▁sněhu	-9551
▁tlaku	-9552
▁utrpě	-9553
▁vedla	-9554
▁vysla	-9555
▁vyčer	-9556
▁vězňů	-9557
▁zbroj	-9558
▁zmize	-9559
▁známý	-9560
▁zvítě	-9561
▁zvěře	-9562
▁Česko	-9563
▁Člově	-9564
▁česko	-9565
cházelo	-9566
formace	-9567
ovského	-9568
▁Hradci	-9569
▁Senátu	-9570
▁ToolBo	-9571
▁Vedení	-9572
▁Zástup	-9573
▁adresu	-9574
▁bílkov	-9575
▁chystá	-9576
▁dovozu	-9577
▁epidem	-9578
▁jedině	-9579
▁klidně	-9580
▁konkur	-9581
▁neboli	-9582
▁nemohu	-9583
▁objemu	-9584
▁prozra	-9585
▁psychi	-9586
▁rovině	-9587
▁rozvod	-9588
▁snažit	-9589
▁srážek	-9590
▁tenist	-9591
▁tvorbě	-9592
▁vyvinu	-9593
▁víkend	-9594
▁výročí	-9595
▁zobraz	-9596
▁zákono	-9597
▁Bruselu	-9598
▁analýzy	-9599
▁barevné	-9600
▁byrokra	-9601
▁cenných	-9602
▁civilní	-9603
▁diskuse	-9604
▁důchodu	-9605
▁horizon	-9606
▁ideální	-9607
▁italské	-9608
▁jediným	-9609
▁medaili	-9610
▁nepřija	-9611
▁nizozem	-9612
▁nynější	-9613
▁opustit	-9614
▁pouhých	-9615
▁přispět	-9616
▁silnice	-9617
▁turisty	-9618
▁vesnice	-9619
▁volných	-9620
▁vypadat	-9621
▁vyřešit	-9622
▁Českých	-9623
▁čtrnáct	-9624
▁autobusy	-9625
▁oblečení	-9626
▁ostatním	-9627
▁rozhraní	-9628
▁současný	-9629
▁vnějších	-9630
▁zbytečně	-9631
▁čtrnácti	-9632
▁Američané	-9633
▁atmosféry	-9634
▁dohromady	-9635
▁kandidátů	-9636
▁kilobajtů	-9637
▁krátkodob	-9638
▁neoprávně	-9639
▁podezření	-9640
▁poskytují	-9641
▁předložen	-9642
▁připojení	-9643
▁vybudovat	-9644
▁všeobecně	-9645
▁Chorvatska	-9646
▁Univerzity	-9647
▁ekonomický	-9648
▁občanského	-9649
▁podporovat	-9650
▁prezentací	-9651
▁přesvědčit	-9652
▁samostatné	-9653
▁sjednocení	-9654
advacetiletý	-9655
▁generálního	-9656
▁konkurenční	-9657
▁společenské	-9658
▁zahraničním	-9659
▁programového	-9660
▁průmyslových	-9661
12	-9662
9,	-9663
MU	-9664
ůh	-9665
hnu	-9666
ilu	-9667
isa	-9668
kál	-9669
lar	-9670
lym	-9671
pky	-9672
rip	-9673
sků	-9674
tům	-9675
zav	-9676
zít	-9677
ónů	-9678
▁'.	-9679
▁6,	-9680
▁Ed	-9681
▁Hy	-9682
▁JE	-9683
▁KD	-9684
▁Rá	-9685
▁mm	-9686
chaj	-9687
doby	-9688
kore	-9689
mise	-9690
mocí	-9691
míme	-9692
nuté	-9693
něny	-9694
sení	-9695
sána	-9696
tice	-9697
vené	-9698
zkou	-9699
řená	-9700
řský	-9701
žená	-9702
žíme	-9703
▁Ali	-9704
▁Bej	-9705
▁Can	-9706
▁Cup	-9707
▁Dra	-9708
▁KDU	-9709
▁Kli	-9710
▁Lan	-9711
▁Tho	-9712
▁akt	-9713
▁bás	-9714
▁dle	-9715
▁obu	-9716
▁ole	-9717
▁pli	-9718
▁sel	-9719
▁shr	-9720
▁vle	-9721
▁zdi	-9722
▁úle	-9723
disko	-9724
gorit	-9725
gresu	-9726
hraje	-9727
jního	-9728
kován	-9729
logii	-9730
plývá	-9731
ránce	-9732
rátil	-9733
tární	-9734
ventu	-9735
átorů	-9736
žiště	-9737
▁Domá	-9738
▁Hlav	-9739
▁Krem	-9740
▁Teme	-9741
▁domy	-9742
▁feno	-9743
▁jeví	-9744
▁koní	-9745
▁mali	-9746
▁mezd	-9747
▁ocen	-9748
▁oceá	-9749
▁přeh	-9750
▁skry	-9751
▁thaj	-9752
▁týmy	-9753
▁učeb	-9754
▁vrch	-9755
▁vytí	-9756
▁vzác	-9757
▁vína	-9758
▁zmoc	-9759
▁účtu	-9760
▁čili	-9761
▁činu	-9762
▁šéfa	-9763
lované	-9764
včetně	-9765
álními	-9766
▁Finan	-9767
▁Hodno	-9768
▁Ivana	-9769
▁Motor	-9770
▁Pardu	-9771
▁Pavla	-9772
▁Rudol	-9773
▁Slavi	-9774
▁Spolu	-9775
▁Sport	-9776
▁Velká	-9777
▁břehu	-9778
▁celků	-9779
▁dojít	-9780
▁držet	-9781
▁hmoty	-9782
▁letní	-9783
▁luxus	-9784
▁metod	-9785
▁mistr	-9786
▁neome	-9787
▁odhod	-9788
▁odkud	-9789
▁platy	-9790
▁samos	-9791
▁svrch	-9792
▁tamní	-9793
▁tlačí	-9794
▁výpoč	-9795
▁zelen	-9796
▁únoru	-9797
▁čerst	-9798
▁čisté	-9799
▁škoda	-9800
lostech	-9801
ovacího	-9802
▁Mluvčí	-9803
▁Paříži	-9804
▁Peníze	-9805
▁Systém	-9806
▁celost	-9807
▁doping	-9808
▁dělají	-9809
▁dělení	-9810
▁dětské	-9811
▁instan	-9812
▁odhali	-9813
▁poblíž	-9814
▁podpis	-9815
▁recept	-9816
▁rozhla	-9817
▁setkal	-9818
▁sezónu	-9819
▁soused	-9820
▁teorii	-9821
▁vybírá	-9822
▁využit	-9823
▁zaháji	-9824
▁zdůvod	-9825
▁záměru	-9826
▁úvodní	-9827
▁účetní	-9828
atřiceti	-9829
▁Hlavním	-9830
▁Jednání	-9831
▁Michael	-9832
▁Vlastní	-9833
▁dalšímu	-9834
▁fyzické	-9835
▁hledají	-9836
▁hluboko	-9837
▁každému	-9838
▁městech	-9839
▁nemohli	-9840
▁nutnost	-9841
▁ohledem	-9842
▁podobný	-9843
▁prohrál	-9844
▁provádí	-9845
▁přijdou	-9846
▁přinést	-9847
▁připomí	-9848
▁reformy	-9849
▁svobodu	-9850
▁ukázala	-9851
▁vyhledá	-9852
▁vyprávě	-9853
▁výpověď	-9854
▁větších	-9855
▁zájemce	-9856
▁šedesát	-9857
▁žádosti	-9858
▁žádostí	-9859
▁Karadžič	-9860
▁Miloslav	-9861
▁Většinou	-9862
▁domácího	-9863
▁kódování	-9864
▁mluvčího	-9865
▁navrhuje	-9866
▁nechtějí	-9867
▁neodpoví	-9868
▁obsazení	-9869
▁osobnost	-9870
▁otevřena	-9871
▁připojit	-9872
▁rozhovor	-9873
▁sněmovně	-9874
▁souhlasí	-9875
▁vyrovnan	-9876
▁vyvolává	-9877
▁vzpomíná	-9878
▁zpočátku	-9879
▁způsobil	-9880
▁fotbalový	-9881
▁kategorii	-9882
▁likvidace	-9883
▁metropoli	-9884
▁multimedi	-9885
▁nastavení	-9886
▁národních	-9887
▁odborníky	-9888
▁pokračuje	-9889
▁potvrzuje	-9890
▁vědeckých	-9891
▁záznamník	-9892
▁čtyřiceti	-9893
▁Zahraniční	-9894
▁elektráren	-9895
▁finančního	-9896
▁jednoduchá	-9897
▁nejpozději	-9898
▁nepochybně	-9899
▁obsahující	-9900
▁překvapení	-9901
▁restauraci	-9902
▁složitější	-9903
▁stavebních	-9904
▁zákazníkům	-9905
▁přesvědčení	-9906
▁aminokyselin	-9907
▁privatizační	-9908
▁zemědělských	-9909
▁pravděpodobnost	-9910
KÁ	-9911
LU	-9912
OH	-9913
OT	-9914
CSI	-9915
asa	-9916
atí	-9917
leh	-9918
čká	-9919
▁95	-9920
▁Ot	-9921
▁Wa	-9922
gaci	-9923
jský	-9924
meny	-9925
nesl	-9926
názi	-9927
pané	-9928
stem	-9929
tici	-9930
vent	-9931
zala	-9932
čist	-9933
říme	-9934
▁DEM	-9935
▁Dne	-9936
▁Gru	-9937
▁Hle	-9938
▁Měl	-9939
▁Sem	-9940
▁baz	-9941
▁fra	-9942
▁kád	-9943
▁nen	-9944
▁ryb	-9945
▁seh	-9946
▁vím	-9947
běhla	-9948
cením	-9949
garet	-9950
hodná	-9951
horší	-9952
inací	-9953
manit	-9954
mentů	-9955
ovaně	-9956
účast	-9957
částí	-9958
žitel	-9959
▁Děti	-9960
▁Olym	-9961
▁SCSI	-9962
▁Soli	-9963
▁Thaj	-9964
▁Závě	-9965
▁bese	-9966
▁bron	-9967
▁diag	-9968
▁kopí	-9969
▁modi	-9970
▁nebý	-9971
▁nelí	-9972
▁odev	-9973
▁síla	-9974
▁zimě	-9975
▁Člen	-9976
grafii	-9977
jského	-9978
letého	-9979
myslně	-9980
nového	-9981
řského	-9982
šeného	-9983
▁Cílem	-9984
▁Ladis	-9985
▁Nedáv	-9986
▁Plzni	-9987
▁Uvedl	-9988
▁Výcho	-9989
▁Výrob	-9990
▁Včera	-9991
▁daném	-9992
▁devat	-9993
▁diske	-9994
▁expon	-9995
▁filmy	-9996
▁hokej	-9997
▁hradu	-9998
▁hudby	-9999
▁jazyk	-10000
▁kanad	-10001
▁klidu	-10002
▁konat	-10003
▁konfe	-10004
▁lesní	-10005
▁léčeb	-10006
▁námit	-10007
▁národ	-10008
▁názvu	-10009
▁objas	-10010
▁obtíž	-10011
▁opera	-10012
▁parku	-10013
▁podat	-10014
▁popří	-10015
▁prota	-10016
▁přetr	-10017
▁původ	-10018
▁recen	-10019
▁scény	-10020
▁sprav	-10021
▁starý	-10022
▁tarif	-10023
▁terit	-10024
▁upřím	-10025
▁uvidí	-10026
▁uvádě	-10027
▁úroky	-10028
▁úvahy	-10029
▁školu	-10030
staneme	-10031
telektu	-10032
▁Afriky	-10033
▁Běloru	-10034
▁Klause	-10035
▁Mečiar	-10036
▁Michal	-10037
▁Miloše	-10038
▁Sparta	-10039
▁bývají	-10040
▁chodit	-10041
▁dotací	-10042
▁hlavou	-10043
▁inscen	-10044
▁musejí	-10045
▁nalézt	-10046
▁okruhu	-10047
▁ovlada	-10048
▁paliva	-10049
▁podílu	-10050
▁prohla	-10051
▁schrán	-10052
▁skončí	-10053
▁snížil	-10054
▁stejno	-10055
▁teorií	-10056
▁trzích	-10057
▁univer	-10058
▁venkov	-10059
▁začnou	-10060
▁zásady	-10061
▁Ústavu	-10062
▁úkolem	-10063
▁Člověk	-10064
▁školní	-10065
▁Ameriky	-10066
▁Bohužel	-10067
▁Londýně	-10068
▁Republi	-10069
▁Všeobec	-10070
▁ačkoliv	-10071
▁bojovat	-10072
▁britské	-10073
▁chránit	-10074
▁dokázal	-10075
▁doporuč	-10076
▁energii	-10077
▁favorit	-10078
▁gymnázi	-10079
▁jednomu	-10080
▁narozen	-10081
▁nedávné	-10082
▁nesmysl	-10083
▁obrázky	-10084
▁organiz	-10085
▁paradox	-10086
▁pochází	-10087
▁poradce	-10088
▁předčas	-10089
▁přeprav	-10090
▁rejstří	-10091
▁rámeček	-10092
▁schůzky	-10093
▁stejném	-10094
▁stíhání	-10095
▁tradici	-10096
▁třetinu	-10097
▁velkoob	-10098
▁vesmíru	-10099
▁výkonem	-10100
▁výrobek	-10101
▁zájemci	-10102
▁zůstala	-10103
▁Existují	-10104
▁Poslanci	-10105
▁Součástí	-10106
▁daňových	-10107
▁dosažení	-10108
▁klepněte	-10109
▁koncepci	-10110
▁metaboli	-10111
▁necelých	-10112
▁nejúspěš	-10113
▁nezbytné	-10114
▁platnost	-10115
▁primátor	-10116
▁připojen	-10117
▁přístroj	-10118
▁starosty	-10119
▁světovou	-10120
▁tradičně	-10121
▁ústřední	-10122
▁časopisů	-10123
▁Policisté	-10124
▁nejvýznam	-10125
▁nemocných	-10126
▁parametrů	-10127
▁právnické	-10128
▁střetnutí	-10129
▁uživatele	-10130
▁způsobuje	-10131
▁důležitých	-10132
▁ekonomicky	-10133
▁elektrické	-10134
▁informoval	-10135
▁nebezpečné	-10136
▁poskytovat	-10137
▁uskutečnit	-10138
▁zhodnocení	-10139
▁nejbližších	-10140
▁nezávislost	-10141
▁organizační	-10142
▁čtvrtfinále	-10143
▁hospodářskou	-10144
▁investičních	-10145
▁zahraničními	-10146
▁bezprostředně	-10147
▁spravedlnosti	-10148
CD	-10149
JÍ	-10150
iz	-10151
LOV	-10152
PEG	-10153
asy	-10154
fil	-10155
hrn	-10156
isi	-10157
klů	-10158
lor	-10159
moř	-10160
pek	-10161
vaz	-10162
vra	-10163
ČNÍ	-10164
žby	-10165
▁")	-10166
▁3:	-10167
▁46	-10168
▁47	-10169
▁El	-10170
▁Im	-10171
▁MI	-10172
▁Ph	-10173
▁RE	-10174
▁ak	-10175
bano	-10176
bude	-10177
chel	-10178
dami	-10179
inek	-10180
inka	-10181
kovy	-10182
káři	-10183
meno	-10184
mové	-10185
sová	-10186
tero	-10187
tost	-10188
vkou	-10189
váte	-10190
řeno	-10191
▁13.	-10192
▁Blí	-10193
▁Bur	-10194
▁CSc	-10195
▁Dvo	-10196
▁Fis	-10197
▁Hel	-10198
▁Mil	-10199
▁Ned	-10200
▁Sez	-10201
▁Tex	-10202
▁Těž	-10203
▁imu	-10204
▁opí	-10205
▁ozó	-10206
▁sep	-10207
▁srb	-10208
▁vir	-10209
▁vnu	-10210
▁šif	-10211
▁živ	-10212
chody	-10213
jíždě	-10214
kazem	-10215
moder	-10216
plení	-10217
vedla	-10218
žitek	-10219
▁Anto	-10220
▁Brat	-10221
▁Byli	-10222
▁Běle	-10223
▁Chem	-10224
▁Egyp	-10225
▁IFOR	-10226
▁Jaký	-10227
▁Kali	-10228
▁Ture	-10229
▁azbe	-10230
▁cíli	-10231
▁déšť	-10232
▁fázi	-10233
▁hard	-10234
▁krat	-10235
▁pěta	-10236
▁skří	-10237
▁spat	-10238
▁sráž	-10239
▁uhli	-10240
▁vozy	-10241
▁úsmě	-10242
▁řeky	-10243
ativně	-10244
nectví	-10245
sování	-10246
stevní	-10247
čitého	-10248
čnější	-10249
▁Budou	-10250
▁Jedná	-10251
▁Jenom	-10252
▁Pozor	-10253
▁Rober	-10254
▁Smlou	-10255
▁Svazu	-10256
▁barvu	-10257
▁blíže	-10258
▁deník	-10259
▁desky	-10260
▁dodat	-10261
▁drahé	-10262
▁dvojí	-10263
▁hosti	-10264
▁hrála	-10265
▁humor	-10266
▁jasno	-10267
▁klade	-10268
▁koope	-10269
▁ledov	-10270
▁neděl	-10271
▁normy	-10272
▁obhaj	-10273
▁pamat	-10274
▁ploše	-10275
▁plynů	-10276
▁podlé	-10277
▁pojem	-10278
▁posád	-10279
▁sjezd	-10280
▁styku	-10281
▁stíhá	-10282
▁suver	-10283
▁tvrdé	-10284
▁týdně	-10285
▁těžce	-10286
▁vyšel	-10287
▁vězni	-10288
▁zasla	-10289
▁úvodu	-10290
cházela	-10291
nostech	-10292
zervati	-10293
▁Franci	-10294
▁Musíme	-10295
▁Potřeb	-10296
▁Případ	-10297
▁březnu	-10298
▁cenách	-10299
▁chalup	-10300
▁dispon	-10301
▁divize	-10302
▁dražší	-10303
▁drobné	-10304
▁dítěte	-10305
▁honorá	-10306
▁horách	-10307
▁kompon	-10308
▁muzeum	-10309
▁napsat	-10310
▁nastup	-10311
▁někoho	-10312
▁pomáhá	-10313
▁pořádá	-10314
▁promít	-10315
▁proslu	-10316
▁přemýš	-10317
▁srážky	-10318
▁ukázat	-10319
▁učitel	-10320
▁vlivem	-10321
▁vrstvy	-10322
▁vypově	-10323
▁vzorky	-10324
▁věnuje	-10325
▁změnil	-10326
▁značky	-10327
▁ztráta	-10328
▁ztrátu	-10329
▁záchra	-10330
▁úrovní	-10331
▁účelem	-10332
▁žijící	-10333
▁Abychom	-10334
▁Atlanty	-10335
▁Martina	-10336
▁Novotná	-10337
▁dokumen	-10338
▁doposud	-10339
▁klimatu	-10340
▁letiště	-10341
▁nechtěl	-10342
▁podezře	-10343
▁požádat	-10344
▁pražský	-10345
▁přinesl	-10346
▁sektoru	-10347
▁situací	-10348
▁spoustu	-10349
▁svědomí	-10350
▁toleran	-10351
▁udržení	-10352
▁umožnit	-10353
▁většího	-10354
▁zahájil	-10355
▁zajímat	-10356
▁zjistil	-10357
▁změnila	-10358
▁značnou	-10359
▁úspěšné	-10360
▁Británii	-10361
▁aktivita	-10362
▁intenzit	-10363
▁japonské	-10364
▁jediného	-10365
▁komerční	-10366
▁listopad	-10367
▁následek	-10368
▁odvolání	-10369
▁pololetí	-10370
▁pravidlo	-10371
▁procento	-10372
▁projektů	-10373
▁průzkumu	-10374
▁sociálně	-10375
▁standard	-10376
▁studenti	-10377
▁tlačítka	-10378
▁uvažovat	-10379
▁varianty	-10380
▁výstavbě	-10381
▁založena	-10382
▁červenci	-10383
▁Barceloně	-10384
▁Stanislav	-10385
▁Tentokrát	-10386
▁ekonomice	-10387
▁fyzických	-10388
▁instalaci	-10389
▁likvidaci	-10390
▁optimální	-10391
▁paragrafu	-10392
▁parametry	-10393
▁podmínkou	-10394
▁představí	-10395
▁příspěvky	-10396
▁spokojeni	-10397
▁tlačítkem	-10398
▁vedoucího	-10399
▁zvyšování	-10400
▁Evropských	-10401
▁Poslanecké	-10402
▁přírodních	-10403
▁francouzský	-10404
▁investování	-10405
▁kvalifikace	-10406
▁nejrůznější	-10407
▁právnických	-10408
▁příslušníci	-10409
▁spolupracovníků	-10410
15	-10411
LÁ	-10412
TU	-10413
▁)	-10414
.),	-10415
12.	-10416
jmy	-10417
nin	-10418
pov	-10419
tvá	-10420
vaj	-10421
voz	-10422
zny	-10423
▁As	-10424
▁Ať	-10425
▁Cy	-10426
▁FI	-10427
▁Vů	-10428
aker	-10429
alou	-10430
anem	-10431
ceny	-10432
dací	-10433
dují	-10434
hali	-10435
jíma	-10436
mena	-10437
naly	-10438
něno	-10439
ovka	-10440
stům	-10441
zali	-10442
zená	-10443
šeně	-10444
šují	-10445
žilo	-10446
▁130	-10447
▁23.	-10448
▁700	-10449
▁IBM	-10450
▁Mit	-10451
▁Pen	-10452
▁Pět	-10453
▁Sen	-10454
▁apa	-10455
▁deb	-10456
▁neh	-10457
▁nos	-10458
▁odv	-10459
▁ono	-10460
▁pád	-10461
▁sav	-10462
▁vlh	-10463
▁zje	-10464
▁ČST	-10465
diční	-10466
dělal	-10467
ktorů	-10468
meček	-10469
stají	-10470
stali	-10471
stral	-10472
tržit	-10473
vanou	-10474
venci	-10475
vněji	-10476
zenou	-10477
zeným	-10478
známě	-10479
zvané	-10480
čejně	-10481
české	-10482
řství	-10483
▁Dosa	-10484
▁JUDr	-10485
▁Kana	-10486
▁Komá	-10487
▁Naši	-10488
▁Nemo	-10489
▁Open	-10490
▁Para	-10491
▁Situ	-10492
▁Zdra	-10493
▁Zlat	-10494
▁afri	-10495
▁běhu	-10496
▁díly	-10497
▁eleg	-10498
▁enzy	-10499
▁jest	-10500
▁kolí	-10501
▁kres	-10502
▁lyža	-10503
▁neva	-10504
▁oblé	-10505
▁pomů	-10506
▁pone	-10507
▁pozů	-10508
▁prud	-10509
▁sbor	-10510
▁sílu	-10511
▁vych	-10512
▁vyda	-10513
▁zani	-10514
▁zábě	-10515
▁živé	-10516
vaného	-10517
áteční	-10518
štovní	-10519
▁1993.	-10520
▁1994.	-10521
▁Firmě	-10522
▁Labem	-10523
▁Platí	-10524
▁Tchaj	-10525
▁Velmi	-10526
▁aktiv	-10527
▁burze	-10528
▁chová	-10529
▁císař	-10530
▁jater	-10531
▁karta	-10532
▁kated	-10533
▁mládí	-10534
▁neček	-10535
▁nutně	-10536
▁orche	-10537
▁oslov	-10538
▁osobě	-10539
▁osvět	-10540
▁papír	-10541
▁podal	-10542
▁pozna	-10543
▁shodu	-10544
▁snahy	-10545
▁spory	-10546
▁statu	-10547
▁tratí	-10548
▁tvrdě	-10549
▁týmem	-10550
▁veške	-10551
▁vážné	-10552
▁zasáh	-10553
▁zpěvá	-10554
▁zákro	-10555
▁zámku	-10556
▁Účast	-10557
▁úlohu	-10558
▁černé	-10559
▁řadou	-10560
hradský	-10561
stavení	-10562
▁Austrá	-10563
▁Budeme	-10564
▁Můžete	-10565
▁Soubor	-10566
▁Výstav	-10567
▁dotace	-10568
▁gramot	-10569
▁hygien	-10570
▁hřiště	-10571
▁instru	-10572
▁komedi	-10573
▁konsen	-10574
▁malého	-10575
▁navrhl	-10576
▁nápově	-10577
▁olomou	-10578
▁paláce	-10579
▁patrné	-10580
▁povede	-10581
▁přední	-10582
▁přehrá	-10583
▁schéma	-10584
▁signál	-10585
▁snahou	-10586
▁soudce	-10587
▁svátky	-10588
▁určena	-10589
▁určuje	-10590
▁vložit	-10591
▁vládou	-10592
▁vydává	-10593
▁vysíla	-10594
▁vyzval	-10595
▁zbavit	-10596
▁ziskem	-10597
▁značný	-10598
▁zákazu	-10599
▁zápisu	-10600
▁široké	-10601
▁šíření	-10602
▁Demokra	-10603
▁Jaromír	-10604
▁Premiér	-10605
▁Původně	-10606
▁experti	-10607
▁faktorů	-10608
▁fotbalu	-10609
▁galerie	-10610
▁inženýr	-10611
▁jistotu	-10612
▁monitor	-10613
▁nehodlá	-10614
▁obchodů	-10615
▁oblíben	-10616
▁ochotni	-10617
▁pohledá	-10618
▁překoná	-10619
▁přežití	-10620
▁přiznal	-10621
▁příznak	-10622
▁sdělova	-10623
▁třetina	-10624
▁vrcholu	-10625
▁vzestup	-10626
▁výbuchu	-10627
▁výstavu	-10628
▁zachová	-10629
▁zájemců	-10630
▁Existuje	-10631
▁Ukrajiny	-10632
▁dnešních	-10633
▁důsledně	-10634
▁investic	-10635
▁myšlenku	-10636
▁nahradit	-10637
▁nejnižší	-10638
▁následky	-10639
▁ohrožení	-10640
▁podporou	-10641
▁počátkem	-10642
▁pronájem	-10643
▁prázdnin	-10644
▁rozsáhlé	-10645
▁spořitel	-10646
▁telefonu	-10647
▁usilovat	-10648
▁založení	-10649
▁šestnáct	-10650
▁digitální	-10651
▁divadelní	-10652
▁dokumentů	-10653
▁filozofie	-10654
▁integraci	-10655
▁marketing	-10656
▁maximální	-10657
▁myšlenkou	-10658
▁naposledy	-10659
▁nastoupil	-10660
▁odhadnout	-10661
▁ovlivňuje	-10662
▁pochopení	-10663
▁podnicích	-10664
▁podnikové	-10665
▁podporuje	-10666
▁popřípadě	-10667
▁programem	-10668
▁přehlídky	-10669
▁přístrojů	-10670
▁republiku	-10671
▁rozlišení	-10672
▁sportovců	-10673
▁spotřební	-10674
▁struktura	-10675
▁testování	-10676
▁znamenalo	-10677
▁způsobené	-10678
▁zákazníci	-10679
▁členských	-10680
▁Podnikatel	-10681
▁doporučení	-10682
▁jednoduchý	-10683
▁kolektivní	-10684
▁kulturních	-10685
▁manželství	-10686
▁nejnovější	-10687
▁nespokojen	-10688
▁porozumění	-10689
▁poznamenal	-10690
▁prosazovat	-10691
▁připraveni	-10692
▁uplynulých	-10693
▁výhodnější	-10694
▁železniční	-10695
▁náboženství	-10696
▁pokračování	-10697
▁předpoklady	-10698
▁středoevrop	-10699
▁technického	-10700
▁telekomunikační	-10701
25	-10702
UD	-10703
VÍ	-10704
bů	-10705
bla	-10706
bod	-10707
bus	-10708
cos	-10709
gar	-10710
jez	-10711
jug	-10712
kve	-10713
lií	-10714
lky	-10715
ork	-10716
pán	-10717
sán	-10718
tes	-10719
tre	-10720
trá	-10721
tám	-10722
vát	-10723
éry	-10724
čel	-10725
ňka	-10726
šan	-10727
▁Hi	-10728
▁IV	-10729
▁ÚV	-10730
▁ČZ	-10731
bale	-10732
chen	-10733
demo	-10734
dium	-10735
ivní	-10736
line	-10737
livý	-10738
lými	-10739
matu	-10740
resu	-10741
tonu	-10742
tápě	-10743
vádí	-10744
vště	-10745
zvlá	-10746
čkem	-10747
šeno	-10748
želo	-10749
žkou	-10750
▁22.	-10751
▁3,5	-10752
▁DPH	-10753
▁Die	-10754
▁Gry	-10755
▁III	-10756
▁KON	-10757
▁Oli	-10758
▁Rum	-10759
▁Zda	-10760
▁ble	-10761
▁chi	-10762
▁dav	-10763
▁hal	-10764
▁hot	-10765
▁pré	-10766
▁pun	-10767
▁rem	-10768
▁těs	-10769
▁uch	-10770
▁zro	-10771
▁Špa	-10772
▁šká	-10773
dávky	-10774
ietna	-10775
mněli	-10776
stiky	-10777
zemní	-10778
ňoval	-10779
školá	-10780
šťast	-10781
▁Casi	-10782
▁Hovo	-10783
▁Husa	-10784
▁Ková	-10785
▁Loni	-10786
▁Malé	-10787
▁Nemá	-10788
▁Podí	-10789
▁Rady	-10790
▁Rych	-10791
▁Skup	-10792
▁Tedy	-10793
▁Tour	-10794
▁absu	-10795
▁anga	-10796
▁anke	-10797
▁bram	-10798
▁chci	-10799
▁chud	-10800
▁fáze	-10801
▁leck	-10802
▁měny	-10803
▁nohy	-10804
▁odby	-10805
▁odva	-10806
▁oper	-10807
▁poci	-10808
▁pěst	-10809
▁půdu	-10810
▁setr	-10811
▁uhlí	-10812
▁vodí	-10813
▁vola	-10814
▁vynu	-10815
▁vzru	-10816
▁vámi	-10817
▁výdě	-10818
▁vším	-10819
▁zouf	-10820
▁zvol	-10821
▁čini	-10822
▁žijí	-10823
atické	-10824
cových	-10825
hlásil	-10826
mských	-10827
nickém	-10828
rající	-10829
skočil	-10830
starší	-10831
tující	-10832
▁1992,	-10833
▁Dodal	-10834
▁Nejde	-10835
▁Nejen	-10836
▁Novák	-10837
▁Pomoc	-10838
▁Rakuš	-10839
▁Vstup	-10840
▁Výzku	-10841
▁desát	-10842
▁dolní	-10843
▁fotoa	-10844
▁funda	-10845
▁hlásí	-10846
▁horní	-10847
▁jmění	-10848
▁jádro	-10849
▁linky	-10850
▁listy	-10851
▁marně	-10852
▁metru	-10853
▁modem	-10854
▁narko	-10855
▁naším	-10856
▁něčem	-10857
▁obilí	-10858
▁odvod	-10859
▁oxidu	-10860
▁perio	-10861
▁plány	-10862
▁psych	-10863
▁přehá	-10864
▁ruský	-10865
▁sobot	-10866
▁spolé	-10867
▁sudet	-10868
▁teplá	-10869
▁ukáže	-10870
▁vedlo	-10871
▁viděl	-10872
▁zopak	-10873
▁zálož	-10874
▁zásil	-10875
▁úkolů	-10876
▁Často	-10877
▁Černo	-10878
▁čeští	-10879
zentuje	-10880
▁Ačkoli	-10881
▁Belgie	-10882
▁Bulhar	-10883
▁Celkem	-10884
▁Formát	-10885
▁Josefa	-10886
▁Komise	-10887
▁chápat	-10888
▁editor	-10889
▁franků	-10890
▁geolog	-10891
▁hvězdy	-10892
▁každým	-10893
▁komisi	-10894
▁května	-10895
▁minuty	-10896
▁neuspě	-10897
▁novými	-10898
▁obvodu	-10899
▁oceánu	-10900
▁orgánu	-10901
▁poklad	-10902
▁polohy	-10903
▁polovi	-10904
▁pověst	-10905
▁přežít	-10906
▁schůze	-10907
▁stejná	-10908
▁stovek	-10909
▁stupňů	-10910
▁termin	-10911
▁totali	-10912
▁užitek	-10913
▁zahynu	-10914
▁Ekonomi	-10915
▁Nejprve	-10916
▁Výstava	-10917
▁bilance	-10918
▁celková	-10919
▁celkový	-10920
▁externí	-10921
▁hrubého	-10922
▁jakousi	-10923
▁kapalin	-10924
▁koalici	-10925
▁nedokon	-10926
▁nejspíš	-10927
▁nějakým	-10928
▁německá	-10929
▁obrázků	-10930
▁obtížně	-10931
▁obvyklé	-10932
▁ochraně	-10933
▁ostrovy	-10934
▁projevu	-10935
▁rozsáhl	-10936
▁rozvoji	-10937
▁samotné	-10938
▁uložení	-10939
▁upravit	-10940
▁uvedení	-10941
▁volbami	-10942
▁vyvolat	-10943
▁výběrem	-10944
▁zpochyb	-10945
▁základy	-10946
▁šetření	-10947
▁školení	-10948
▁Japonsku	-10949
▁Koaliční	-10950
▁Německem	-10951
▁Občanské	-10952
▁Zvláštní	-10953
▁anglické	-10954
▁důležitá	-10955
▁exportní	-10956
▁fanoušků	-10957
▁inspekce	-10958
▁jakékoli	-10959
▁kapacity	-10960
▁majetkem	-10961
▁manželka	-10962
▁monitoru	-10963
▁nastavit	-10964
▁nedaleko	-10965
▁nepříliš	-10966
▁návštěvy	-10967
▁operační	-10968
▁opoziční	-10969
▁posoudit	-10970
▁poznatků	-10971
▁realitní	-10972
▁rostoucí	-10973
▁skupinou	-10974
▁stanovit	-10975
▁vysloven	-10976
▁výstavbu	-10977
▁zabývají	-10978
▁Generální	-10979
▁certifiká	-10980
▁dodatečně	-10981
▁dokumenty	-10982
▁ekonomika	-10983
▁elektřiny	-10984
▁instalace	-10985
▁intelektu	-10986
▁konkrétně	-10987
▁mimořádný	-10988
▁nacionali	-10989
▁obyvatele	-10990
▁osobností	-10991
▁očekávání	-10992
▁potvrzení	-10993
▁primátora	-10994
▁přesvědči	-10995
▁upozornit	-10996
▁využívání	-10997
▁Investiční	-10998
▁evropského	-10999
▁konstrukce	-11000
▁konzervati	-11001
▁management	-11002
▁odstranění	-11003
▁pohledávek	-11004
▁požadované	-11005
▁připravena	-11006
▁přítomnost	-11007
▁restaurace	-11008
▁upozorňuje	-11009
▁fotbalových	-11010
▁prodávající	-11011
▁skutečností	-11012
▁sportovních	-11013
▁televizních	-11014
▁historických	-11015
▁mezinárodního	-11016
▁představitele	-11017
▁spolupracovat	-11018
▁přírodovědecké	-11019
DP	-11020
GF	-11021
IA	-11022
MA	-11023
ex	-11024
gr	-11025
ENT	-11026
dec	-11027
ffi	-11028
gol	-11029
gur	-11030
mes	-11031
pem	-11032
rig	-11033
rův	-11034
tus	-11035
ván	-11036
éři	-11037
šov	-11038
žer	-11039
▁49	-11040
▁58	-11041
▁FM	-11042
▁Fu	-11043
▁Hr	-11044
▁Há	-11045
▁gu	-11046
▁tí	-11047
▁ul	-11048
bené	-11049
berg	-11050
bral	-11051
brat	-11052
celu	-11053
chta	-11054
dice	-11055
dolí	-11056
dáme	-11057
goni	-11058
lywo	-11059
mará	-11060
muje	-11061
ovny	-11062
rada	-11063
svět	-11064
zání	-11065
čeho	-11066
čova	-11067
▁180	-11068
▁28.	-11069
▁Eva	-11070
▁Hen	-11071
▁Kře	-11072
▁Lou	-11073
▁NOV	-11074
▁Neu	-11075
▁Ral	-11076
▁Tre	-11077
▁Van	-11078
▁Voj	-11079
▁bre	-11080
▁bul	-11081
▁hří	-11082
▁odě	-11083
▁poe	-11084
▁sek	-11085
▁sná	-11086
▁von	-11087
▁váz	-11088
▁vůd	-11089
▁vůz	-11090
▁Šéf	-11091
borat	-11092
chyby	-11093
covat	-11094
dosti	-11095
jmout	-11096
lumbi	-11097
rnách	-11098
růstá	-11099
stojí	-11100
sáhle	-11101
átory	-11102
šných	-11103
▁Menc	-11104
▁Nedo	-11105
▁Ozna	-11106
▁Spol	-11107
▁bojů	-11108
▁chao	-11109
▁divu	-11110
▁jevy	-11111
▁jevů	-11112
▁kles	-11113
▁malí	-11114
▁mapy	-11115
▁mete	-11116
▁mnoh	-11117
▁nejv	-11118
▁odve	-11119
▁olej	-11120
▁ruku	-11121
▁rybá	-11122
▁rysy	-11123
▁teku	-11124
▁téže	-11125
▁těší	-11126
▁utká	-11127
▁věty	-11128
▁Číny	-11129
chopil	-11130
ktické	-11131
lového	-11132
mismus	-11133
myslel	-11134
ovýcho	-11135
pisuje	-11136
rozumi	-11137
rálním	-11138
ňujeme	-11139
▁EuroT	-11140
▁Konce	-11141
▁Mladi	-11142
▁Myslí	-11143
▁blaho	-11144
▁bydle	-11145
▁domlu	-11146
▁dubnu	-11147
▁forem	-11148
▁hráli	-11149
▁hydro	-11150
▁jaksi	-11151
▁jimiž	-11152
▁kalen	-11153
▁kondo	-11154
▁konto	-11155
▁metra	-11156
▁mocen	-11157
▁možný	-11158
▁našim	-11159
▁nemám	-11160
▁odraz	-11161
▁okraj	-11162
▁perfe	-11163
▁podně	-11164
▁podru	-11165
▁pohře	-11166
▁postu	-11167
▁pouhé	-11168
▁praví	-11169
▁příbě	-11170
▁sboru	-11171
▁soubo	-11172
▁stavě	-11173
▁tepel	-11174
▁trati	-11175
▁tvaru	-11176
▁vstře	-11177
▁zvuku	-11178
▁zájmů	-11179
▁úkoly	-11180
▁Čtyři	-11181
livosti	-11182
měsíční	-11183
podstat	-11184
struktu	-11185
▁Domácí	-11186
▁Druhou	-11187
▁Komuni	-11188
▁Počíta	-11189
▁Slavii	-11190
▁Středo	-11191
▁Takový	-11192
▁autora	-11193
▁bytové	-11194
▁centrá	-11195
▁dobách	-11196
▁důkazy	-11197
▁firmám	-11198
▁fronty	-11199
▁hotelů	-11200
▁humani	-11201
▁invali	-11202
▁kamará	-11203
▁loňský	-11204
▁minulé	-11205
▁monopo	-11206
▁nepřes	-11207
▁nerozu	-11208
▁nevědí	-11209
▁náskok	-11210
▁obecné	-11211
▁obecní	-11212
▁odbory	-11213
▁okrese	-11214
▁papírů	-11215
▁sekund	-11216
▁silnic	-11217
▁sjezdu	-11218
▁slyšet	-11219
▁stanic	-11220
▁stavbu	-11221
▁světla	-11222
▁světlo	-11223
▁trvalo	-11224
▁učinit	-11225
▁vracet	-11226
▁zdokon	-11227
▁změnou	-11228
▁úspory	-11229
▁říkají	-11230
grafické	-11231
stěhoval	-11232
škodnění	-11233
▁Kalvoda	-11234
▁Možnost	-11235
▁Podobné	-11236
▁Všechno	-11237
▁hluboké	-11238
▁hovořit	-11239
▁interpe	-11240
▁jednalo	-11241
▁kabinet	-11242
▁klientů	-11243
▁náhradu	-11244
▁náležit	-11245
▁objevit	-11246
▁obrázku	-11247
▁odpočin	-11248
▁operací	-11249
▁planety	-11250
▁postoje	-11251
▁profesi	-11252
▁provede	-11253
▁písemně	-11254
▁převzít	-11255
▁přijímá	-11256
▁přinese	-11257
▁redakce	-11258
▁resortu	-11259
▁sluchát	-11260
▁snažili	-11261
▁sobotní	-11262
▁stránek	-11263
▁summitu	-11264
▁teplotě	-11265
▁trestní	-11266
▁určitém	-11267
▁užívání	-11268
▁výjimky	-11269
▁výkonný	-11270
▁věnoval	-11271
▁známých	-11272
▁ztrátou	-11273
▁úspěšný	-11274
▁řešením	-11275
▁Michaela	-11276
▁argument	-11277
▁bankovní	-11278
▁daňového	-11279
▁disciplí	-11280
▁duchovní	-11281
▁kritéria	-11282
▁kritérií	-11283
▁naštěstí	-11284
▁nákladní	-11285
▁některým	-11286
▁odstavce	-11287
▁otevřené	-11288
▁podnikat	-11289
▁postižen	-11290
▁požadují	-11291
▁prodlení	-11292
▁průměrná	-11293
▁předměty	-11294
▁regulace	-11295
▁spoluhrá	-11296
▁technika	-11297
▁uplatnit	-11298
▁vstoupit	-11299
▁znalostí	-11300
▁zvítězil	-11301
▁úředníků	-11302
▁šedesáti	-11303
▁životním	-11304
desátiletý	-11305
▁Pražského	-11306
▁demokraté	-11307
▁domnívají	-11308
▁efektivní	-11309
▁evropském	-11310
▁jednáních	-11311
▁kandidáty	-11312
▁mimořádné	-11313
▁národnost	-11314
▁obrazovce	-11315
▁občanství	-11316
▁orientaci	-11317
▁rejstříku	-11318
▁rekreační	-11319
▁současném	-11320
▁společnou	-11321
▁stiskněte	-11322
▁vyšetření	-11323
▁základním	-11324
▁zákonodár	-11325
▁šestnácti	-11326
▁Wimbledonu	-11327
▁cestovních	-11328
▁charakteru	-11329
▁chemických	-11330
▁doporučuje	-11331
▁nepříjemné	-11332
▁obchodníci	-11333
▁olympijský	-11334
▁pozorování	-11335
▁pracovnice	-11336
▁pracovníka	-11337
▁spisovatel	-11338
▁významných	-11339
▁Českomorav	-11340
▁definitivní	-11341
▁nemovitosti	-11342
▁předchozích	-11343
▁přizpůsobit	-11344
▁soustředění	-11345
▁související	-11346
▁mezinárodním	-11347
▁nejrychlejší	-11348
▁parlamentních	-11349
▁zaměstnavatel	-11350
▁nezaměstnanost	-11351
CO	-11352
ZP	-11353
ev	-11354
ki	-11355
tj	-11356
ša	-11357
RAV	-11358
adě	-11359
aka	-11360
fak	-11361
ika	-11362
lye	-11363
mas	-11364
mir	-11365
oty	-11366
peň	-11367
sin	-11368
upi	-11369
vné	-11370
wic	-11371
zou	-11372
žce	-11373
▁5,	-11374
▁99	-11375
▁Cu	-11376
▁Kr	-11377
▁Mé	-11378
▁aj	-11379
▁eu	-11380
▁zn	-11381
avor	-11382
cytů	-11383
erby	-11384
hady	-11385
hist	-11386
hnou	-11387
icko	-11388
jako	-11389
jice	-11390
kaly	-11391
kovo	-11392
lomu	-11393
léze	-11394
nést	-11395
rují	-11396
rurg	-11397
stát	-11398
sáno	-11399
zetí	-11400
řská	-11401
škrt	-11402
štej	-11403
žnou	-11404
žích	-11405
▁26.	-11406
▁Bla	-11407
▁Chu	-11408
▁Fre	-11409
▁Kup	-11410
▁Mad	-11411
▁Než	-11412
▁Opa	-11413
▁Sti	-11414
▁Var	-11415
▁hno	-11416
▁jaz	-11417
▁kub	-11418
▁maj	-11419
▁mří	-11420
▁niž	-11421
▁pne	-11422
▁pul	-11423
▁ras	-11424
▁ská	-11425
▁spě	-11426
▁svr	-11427
▁sví	-11428
▁uzá	-11429
▁zre	-11430
▁šla	-11431
asing	-11432
genní	-11433
jezdy	-11434
jních	-11435
jugan	-11436
kolog	-11437
likvi	-11438
ložil	-11439
látor	-11440
magne	-11441
padlo	-11442
pamat	-11443
tální	-11444
venti	-11445
▁1987	-11446
▁Blíz	-11447
▁Celý	-11448
▁Chci	-11449
▁Data	-11450
▁Douf	-11451
▁Malý	-11452
▁Neza	-11453
▁Plat	-11454
▁Soft	-11455
▁Srbů	-11456
▁Strá	-11457
▁Výji	-11458
▁bole	-11459
▁daný	-11460
▁dešť	-11461
▁doty	-11462
▁figu	-11463
▁homo	-11464
▁jímž	-11465
▁kruh	-11466
▁lidu	-11467
▁nevz	-11468
▁neče	-11469
▁nápo	-11470
▁odol	-11471
▁otec	-11472
▁potr	-11473
▁pádu	-11474
▁sepa	-11475
▁simu	-11476
▁stři	-11477
▁stůl	-11478
▁trpí	-11479
▁těho	-11480
▁vaku	-11481
▁vzal	-11482
▁vědu	-11483
▁věnu	-11484
▁zame	-11485
▁čela	-11486
atolog	-11487
bírají	-11488
habili	-11489
lement	-11490
livost	-11491
ložili	-11492
ostech	-11493
seliny	-11494
skutku	-11495
vržení	-11496
čující	-11497
▁Alžbě	-11498
▁Andre	-11499
▁Johna	-11500
▁Kniha	-11501
▁Lebeď	-11502
▁Maast	-11503
▁Mazda	-11504
▁Nevím	-11505
▁Němců	-11506
▁Potom	-11507
▁Takto	-11508
▁Trans	-11509
▁Vídni	-11510
▁absur	-11511
▁adres	-11512
▁atent	-11513
▁bance	-11514
▁deale	-11515
▁délce	-11516
▁explo	-11517
▁faktu	-11518
▁hlasu	-11519
▁jistý	-11520
▁kosmo	-11521
▁listů	-11522
▁lázeň	-11523
▁mezit	-11524
▁našli	-11525
▁nejas	-11526
▁nízká	-11527
▁oborů	-11528
▁osudu	-11529
▁plnou	-11530
▁pojmů	-11531
▁proni	-11532
▁silný	-11533
▁snaze	-11534
▁stála	-11535
▁termo	-11536
▁testy	-11537
▁trium	-11538
▁tváří	-11539
▁témat	-11540
▁ukaza	-11541
▁uniká	-11542
▁vyhle	-11543
▁vyhro	-11544
▁vůdce	-11545
▁zazně	-11546
▁zimní	-11547
▁znepo	-11548
▁zásah	-11549
▁říjnu	-11550
▁židov	-11551
demokra	-11552
fikovat	-11553
ladatel	-11554
▁CADKON	-11555
▁Doporu	-11556
▁Doprav	-11557
▁Jestli	-11558
▁Police	-11559
▁Polsko	-11560
▁Význam	-11561
▁Zemana	-11562
▁Zjugan	-11563
▁adresá	-11564
▁akcept	-11565
▁autoři	-11566
▁církvi	-11567
▁dokáží	-11568
▁hotely	-11569
▁hráčem	-11570
▁jazyka	-11571
▁jistou	-11572
▁literá	-11573
▁nastat	-11574
▁nemuse	-11575
▁neměly	-11576
▁nápady	-11577
▁nástro	-11578
▁nějaká	-11579
▁odejít	-11580
▁okresů	-11581
▁podílí	-11582
▁pokusy	-11583
▁pomohl	-11584
▁přeroz	-11585
▁přímou	-11586
▁reakcí	-11587
▁rodinu	-11588
▁růstem	-11589
▁schůzi	-11590
▁skládá	-11591
▁splnit	-11592
▁titulů	-11593
▁ukládá	-11594
▁uložit	-11595
▁určitá	-11596
▁vkladů	-11597
▁zeměmi	-11598
▁zprávě	-11599
▁zpátky	-11600
▁zvolit	-11601
▁zálivu	-11602
▁členům	-11603
▁Novotný	-11604
▁Následu	-11605
▁Několik	-11606
▁Stručně	-11607
▁Vedoucí	-11608
▁brambor	-11609
▁běžného	-11610
▁dočasně	-11611
▁hovořil	-11612
▁jedince	-11613
▁jmenuje	-11614
▁letních	-11615
▁maximum	-11616
▁najdeme	-11617
▁narodil	-11618
▁nejisto	-11619
▁nejvýše	-11620
▁neznámý	-11621
▁nižších	-11622
▁nábytku	-11623
▁náročné	-11624
▁odmítli	-11625
▁podmíně	-11626
▁požádal	-11627
▁projeví	-11628
▁pronají	-11629
▁přijala	-11630
▁trestný	-11631
▁univerz	-11632
▁velkými	-11633
▁vládnou	-11634
▁vozidla	-11635
▁vyjedná	-11636
▁vzápětí	-11637
▁zakázky	-11638
▁zvířata	-11639
▁zvýšila	-11640
▁člověku	-11641
▁čtenáři	-11642
▁čtenářů	-11643
spektivní	-11644
▁Brazílie	-11645
▁Intergra	-11646
▁Jihoafri	-11647
▁Poborský	-11648
▁Rozhodně	-11649
▁Sociální	-11650
▁dnešního	-11651
▁dokázali	-11652
▁dědictví	-11653
▁jmenován	-11654
▁každoden	-11655
▁kongresu	-11656
▁kontrola	-11657
▁kontrole	-11658
▁kreslení	-11659
▁kupující	-11660
▁návštěva	-11661
▁objevily	-11662
▁občanské	-11663
▁odpovědí	-11664
▁oznámení	-11665
▁pachatel	-11666
▁palestin	-11667
▁ponechat	-11668
▁premiéru	-11669
▁právních	-11670
▁psychiat	-11671
▁předmětů	-11672
▁reagovat	-11673
▁schématu	-11674
▁softwaru	-11675
▁stabilní	-11676
▁stejných	-11677
▁ukládání	-11678
▁vedlejší	-11679
▁vládních	-11680
▁zůstanou	-11681
▁Karlových	-11682
▁americkém	-11683
▁instituce	-11684
▁jedenácti	-11685
▁kilogramů	-11686
▁kombinaci	-11687
▁navrhnout	-11688
▁nesouhlas	-11689
▁pohybovat	-11690
▁posuzovat	-11691
▁potenciál	-11692
▁předpoklá	-11693
▁rozložení	-11694
▁schválila	-11695
▁sledování	-11696
▁sortiment	-11697
▁strategii	-11698
▁uživatelů	-11699
▁vedoucích	-11700
▁vojenskou	-11701
▁vybraných	-11702
▁účinnosti	-11703
▁ředitelem	-11704
▁bosenských	-11705
▁dlouhodobé	-11706
▁komunikaci	-11707
▁mechanismu	-11708
▁nepřetržit	-11709
▁osvobození	-11710
▁padesátých	-11711
▁programové	-11712
▁průmyslové	-11713
▁předpoklád	-11714
▁splatnosti	-11715
▁společných	-11716
▁vysokoškol	-11717
▁obchodování	-11718
▁osmdesátých	-11719
▁postižených	-11720
▁potřebujeme	-11721
▁prodloužení	-11722
▁předpokladu	-11723
▁respektovat	-11724
▁rozhodnutím	-11725
▁technologii	-11726
▁západoevrop	-11727
▁Ministerstva	-11728
▁představitel	-11729
▁zdravotnické	-11730
▁reprezentanti	-11731
▁reprezentantů	-11732
▁reprezentační	-11733
▁nezaměstnaných	-11734
▁Československé	-11735
11	-11736
sc	-11737
yč	-11738
ŘÍ	-11739
▁Á	-11740
ODA	-11741
ZDS	-11742
báj	-11743
fle	-11744
fur	-11745
hry	-11746
jek	-11747
jné	-11748
lia	-11749
lok	-11750
lus	-11751
líč	-11752
nde	-11753
nné	-11754
něk	-11755
oke	-11756
ole	-11757
ong	-11758
oro	-11759
plň	-11760
rak	-11761
tox	-11762
tán	-11763
vač	-11764
yho	-11765
šte	-11766
▁37	-11767
▁52	-11768
▁66	-11769
▁EU	-11770
▁Il	-11771
▁Ki	-11772
▁Ká	-11773
▁MO	-11774
▁Zu	-11775
▁Zí	-11776
▁er	-11777
▁kg	-11778
▁uh	-11779
▁Šu	-11780
bici	-11781
chat	-11782
ctva	-11783
erho	-11784
houb	-11785
inku	-11786
ktně	-11787
lník	-11788
lori	-11789
lyší	-11790
mana	-11791
mera	-11792
nuta	-11793
ordá	-11794
ovné	-11795
rala	-11796
robi	-11797
tiků	-11798
tých	-11799
álka	-11800
číte	-11801
řadí	-11802
škem	-11803
▁190	-11804
▁27.	-11805
▁Del	-11806
▁Fak	-11807
▁NDR	-11808
▁Tig	-11809
▁Typ	-11810
▁Zvý	-11811
▁fau	-11812
▁imp	-11813
▁jez	-11814
▁kat	-11815
▁kva	-11816
▁zpí	-11817
▁úvo	-11818
▁štá	-11819
anými	-11820
bájdž	-11821
běžně	-11822
dkyně	-11823
harmo	-11824
jasno	-11825
kálně	-11826
letně	-11827
nitel	-11828
povat	-11829
stánu	-11830
tkání	-11831
vaným	-11832
vedli	-11833
zákon	-11834
▁Jack	-11835
▁Maji	-11836
▁Mist	-11837
▁Měst	-11838
▁Nevy	-11839
▁Poku	-11840
▁Stro	-11841
▁Začí	-11842
▁dolů	-11843
▁dotá	-11844
▁emit	-11845
▁endo	-11846
▁fale	-11847
▁hrad	-11848
▁kaze	-11849
▁lesa	-11850
▁lodi	-11851
▁menu	-11852
▁míra	-11853
▁noso	-11854
▁nutí	-11855
▁nále	-11856
▁odpů	-11857
▁opou	-11858
▁plav	-11859
▁revi	-11860
▁rock	-11861
▁rozv	-11862
▁rytí	-11863
▁sedí	-11864
▁sken	-11865
▁syna	-11866
▁toku	-11867
▁vese	-11868
▁volí	-11869
▁vozu	-11870
▁vraž	-11871
▁vypr	-11872
▁zdát	-11873
▁řeme	-11874
▁žada	-11875
kázaly	-11876
letých	-11877
renské	-11878
▁David	-11879
▁Dříve	-11880
▁Frank	-11881
▁Jablo	-11882
▁Jistě	-11883
▁Komer	-11884
▁Marie	-11885
▁Nikdy	-11886
▁Očeká	-11887
▁Tepli	-11888
▁Zákaz	-11889
▁barié	-11890
▁byzny	-11891
▁deviz	-11892
▁dovez	-11893
▁fakta	-11894
▁finál	-11895
▁gigan	-11896
▁harmo	-11897
▁hovor	-11898
▁hyper	-11899
▁inzer	-11900
▁kanál	-11901
▁kroku	-11902
▁laser	-11903
▁neoby	-11904
▁ničem	-11905
▁nátla	-11906
▁obvin	-11907
▁oceán	-11908
▁patři	-11909
▁posun	-11910
▁pozmě	-11911
▁strom	-11912
▁texty	-11913
▁tohle	-11914
▁tvarů	-11915
▁vašem	-11916
▁vloni	-11917
▁vyjde	-11918
▁válka	-11919
▁vždyť	-11920
▁známe	-11921
▁známá	-11922
▁řídit	-11923
▁šablo	-11924
balisté	-11925
kálních	-11926
▁Africe	-11927
▁Bývalý	-11928
▁Excelu	-11929
▁Jednot	-11930
▁Jindři	-11931
▁Lidové	-11932
▁Moskva	-11933
▁Můžeme	-11934
▁Prvním	-11935
▁armádě	-11936
▁bližší	-11937
▁budově	-11938
▁dvacát	-11939
▁fenomé	-11940
▁identi	-11941
▁jezdit	-11942
▁jistot	-11943
▁kladen	-11944
▁klobou	-11945
▁kláves	-11946
▁konala	-11947
▁koupil	-11948
▁kratší	-11949
▁krokem	-11950
▁menším	-11951
▁mládež	-11952
▁muselo	-11953
▁nejsil	-11954
▁nespor	-11955
▁novely	-11956
▁obnovu	-11957
▁obrazy	-11958
▁okresy	-11959
▁plocha	-11960
▁počkat	-11961
▁prince	-11962
▁projed	-11963
▁propag	-11964
▁překrý	-11965
▁převlá	-11966
▁přidat	-11967
▁přitaž	-11968
▁příběh	-11969
▁přínos	-11970
▁rozpor	-11971
▁složek	-11972
▁stupni	-11973
▁trvání	-11974
▁uvedli	-11975
▁uveřej	-11976
▁vnitro	-11977
▁vojáci	-11978
▁výhodu	-11979
▁výměnu	-11980
▁výslov	-11981
▁včerej	-11982
▁změnám	-11983
▁záměry	-11984
▁závody	-11985
▁zázemí	-11986
▁úpravu	-11987
imbledon	-11988
ratislav	-11989
zerbájdž	-11990
▁Elektro	-11991
▁doprovo	-11992
▁druhému	-11993
▁galerii	-11994
▁informu	-11995
▁klávesu	-11996
▁konečné	-11997
▁kontrol	-11998
▁letecké	-11999
▁mezitím	-12000
▁mládeže	-12001
▁nepřine	-12002
▁nájemce	-12003
▁oborech	-12004
▁ochoten	-12005
▁otevřít	-12006
▁podobná	-12007
▁podílet	-12008
▁položky	-12009
▁procesy	-12010
▁projevy	-12011
▁radnici	-12012
▁seriálu	-12013
▁sestavy	-12014
▁složité	-12015
▁správný	-12016
▁starého	-12017
▁stránky	-12018
▁stávají	-12019
▁taneční	-12020
▁trénink	-12021
▁udržuje	-12022
▁volného	-12023
▁vskutku	-12024
▁vstupen	-12025
▁vyhnout	-12026
▁zvýšené	-12027
▁zvýšily	-12028
▁závazky	-12029
▁získané	-12030
▁zřízení	-12031
čtyřiceti	-12032
▁Asociace	-12033
▁Finanční	-12034
▁Ladislav	-12035
▁Maďarsku	-12036
▁Pojišťov	-12037
▁aktivitu	-12038
▁celkovém	-12039
▁geometri	-12040
▁kvalitou	-12041
▁liberali	-12042
▁mechanik	-12043
▁nejmoder	-12044
▁nejznámě	-12045
▁nepřátel	-12046
▁nesmírně	-12047
▁novinách	-12048
▁novinářů	-12049
▁objevili	-12050
▁obrovské	-12051
▁odmítají	-12052
▁pochopit	-12053
▁podpořit	-12054
▁podílejí	-12055
▁poplatek	-12056
▁prodejem	-12057
▁prodejny	-12058
▁průměrné	-12059
▁přehledu	-12060
▁původním	-12061
▁stadiónu	-12062
▁studenty	-12063
▁uvědomit	-12064
▁vyhovuje	-12065
▁vyrovnat	-12066
▁vytvořil	-12067
▁bohatství	-12068
▁dokončení	-12069
▁hmotnosti	-12070
▁katolické	-12071
▁metropole	-12072
▁množstvím	-12073
▁nezávislé	-12074
▁okresního	-12075
▁plánování	-12076
▁polojasno	-12077
▁požadovat	-12078
▁procesoru	-12079
▁rychlejší	-12080
▁současnou	-12081
▁středního	-12082
▁vystoupil	-12083
▁vytvořila	-12084
▁včerejším	-12085
▁wimbledon	-12086
▁zastavení	-12087
▁živočichů	-12088
▁Jugoslávie	-12089
▁biologické	-12090
▁brněnského	-12091
▁centimetrů	-12092
▁ekonomická	-12093
▁fotbalisté	-12094
▁konstatuje	-12095
▁magistrátu	-12096
▁materiálem	-12097
▁nedostatku	-12098
▁pořadatelé	-12099
▁předpoklad	-12100
▁překvapivě	-12101
▁přírodního	-12102
▁referendum	-12103
▁semifinále	-12104
▁současných	-12105
▁vzdálenost	-12106
▁konkrétních	-12107
▁mikroorgani	-12108
▁nemovitostí	-12109
▁telefonních	-12110
▁informačních	-12111
▁odpovědnosti	-12112
▁spotřebitele	-12113
▁představenstva	-12114
▁specializované	-12115
▁československé	-12116
80	-12117
ZE	-12118
tt	-12119
xí	-12120
ŘE	-12121
▁á	-12122
agu	-12123
asá	-12124
bky	-12125
clé	-12126
fie	-12127
inů	-12128
jal	-12129
klý	-12130
lím	-12131
pec	-12132
prů	-12133
pul	-12134
pád	-12135
rim	-12136
sau	-12137
tré	-12138
vec	-12139
ďme	-12140
žou	-12141
▁44	-12142
▁Sk	-12143
▁Sr	-12144
▁Sí	-12145
▁lů	-12146
▁ub	-12147
bece	-12148
cejí	-12149
cený	-12150
cibi	-12151
daří	-12152
enst	-12153
inám	-12154
iště	-12155
jela	-12156
míra	-12157
něný	-12158
pala	-12159
pati	-12160
pera	-12161
pple	-12162
sche	-12163
sexu	-12164
sily	-12165
vita	-12166
zory	-12167
škou	-12168
žijí	-12169
▁10,	-12170
▁24.	-12171
▁900	-12172
▁Boj	-12173
▁Frý	-12174
▁Kad	-12175
▁Kas	-12176
▁Klu	-12177
▁Lux	-12178
▁Nov	-12179
▁Ode	-12180
▁Rád	-12181
▁Sně	-12182
▁Sun	-12183
▁Svo	-12184
▁Zná	-12185
▁ben	-12186
▁dla	-12187
▁fan	-12188
▁raz	-12189
▁smu	-12190
▁tal	-12191
▁tká	-12192
▁use	-12193
▁vad	-12194
▁van	-12195
▁vyd	-12196
▁zně	-12197
▁úst	-12198
▁účt	-12199
▁ští	-12200
acích	-12201
bírat	-12202
cenou	-12203
chové	-12204
chozí	-12205
dávna	-12206
inský	-12207
likož	-12208
mátek	-12209
psané	-12210
rovod	-12211
rovým	-12212
stice	-12213
stání	-12214
vadní	-12215
ville	-12216
západ	-12217
části	-12218
▁Armá	-12219
▁Asie	-12220
▁Gret	-12221
▁Hned	-12222
▁Mlad	-12223
▁Mode	-12224
▁Mold	-12225
▁Měsí	-12226
▁Nobe	-12227
▁Námě	-12228
▁Otev	-12229
▁Paul	-12230
▁Poru	-12231
▁Přen	-12232
▁Sara	-12233
▁Sedm	-12234
▁Siem	-12235
▁Slez	-12236
▁Tomu	-12237
▁arch	-12238
▁bomb	-12239
▁chuť	-12240
▁defi	-12241
▁desi	-12242
▁dole	-12243
▁dých	-12244
▁hale	-12245
▁hrom	-12246
▁hrou	-12247
▁jdou	-12248
▁kmen	-12249
▁kůže	-12250
▁manu	-12251
▁mise	-12252
▁moři	-12253
▁naby	-12254
▁netu	-12255
▁nimž	-12256
▁ohně	-12257
▁plná	-12258
▁poři	-12259
▁samy	-12260
▁skro	-12261
▁tito	-12262
▁veče	-12263
▁vice	-12264
▁vizu	-12265
▁vzbu	-12266
▁výži	-12267
▁zare	-12268
▁zaví	-12269
▁zuby	-12270
▁úzce	-12271
▁Část	-12272
▁činů	-12273
▁žáků	-12274
grafií	-12275
hledně	-12276
inární	-12277
ložené	-12278
ovacím	-12279
státní	-12280
tovali	-12281
vědomí	-12282
zovaná	-12283
ňovali	-12284
žností	-12285
▁Autom	-12286
▁Buděj	-12287
▁Egypt	-12288
▁Grand	-12289
▁Hospo	-12290
▁Někdo	-12291
▁Paříž	-12292
▁Penti	-12293
▁Poldi	-12294
▁Schne	-12295
▁Těžko	-12296
▁Vytvo	-12297
▁Výkon	-12298
▁Změny	-12299
▁ducha	-12300
▁herec	-12301
▁jindy	-12302
▁kompo	-12303
▁kytar	-12304
▁malým	-12305
▁nepou	-12306
▁nezvy	-12307
▁nešlo	-12308
▁oblač	-12309
▁obory	-12310
▁obvod	-12311
▁obřad	-12312
▁oleje	-12313
▁otrav	-12314
▁ozdob	-12315
▁plyne	-12316
▁podla	-12317
▁provi	-12318
▁pěkně	-12319
▁sféry	-12320
▁spojů	-12321
▁stali	-12322
▁stopy	-12323
▁tragé	-12324
▁turné	-12325
▁upřes	-12326
▁uznat	-12327
▁všemu	-12328
▁zahrá	-12329
▁zavra	-12330
▁zábav	-12331
▁čistý	-12332
▁řekli	-12333
▁řidič	-12334
ational	-12335
mentali	-12336
telného	-12337
▁Dienst	-12338
▁Lékaři	-12339
▁Nadace	-12340
▁Návště	-12341
▁Rudolf	-12342
▁Slavia	-12343
▁Uveden	-12344
▁Varech	-12345
▁armádu	-12346
▁biskup	-12347
▁cement	-12348
▁charit	-12349
▁cizích	-12350
▁daních	-12351
▁dlouhý	-12352
▁efektu	-12353
▁jakési	-12354
▁jakými	-12355
▁jejími	-12356
▁jinému	-12357
▁korunu	-12358
▁minutě	-12359
▁musely	-12360
▁měnové	-12361
▁nejsem	-12362
▁návrhů	-12363
▁ochran	-12364
▁postrá	-12365
▁posunu	-12366
▁proudu	-12367
▁průvod	-12368
▁přejít	-12369
▁přítel	-12370
▁slabší	-12371
▁slovem	-12372
▁službě	-12373
▁spojit	-12374
▁spoleh	-12375
▁stavbě	-12376
▁telefo	-12377
▁tlakem	-12378
▁udělal	-12379
▁určení	-12380
▁vrchol	-12381
▁vyhově	-12382
▁výkonů	-12383
▁výnosy	-12384
▁zachrá	-12385
▁zbytky	-12386
▁zjevně	-12387
▁značná	-12388
▁záruky	-12389
▁zásadě	-12390
▁úprava	-12391
cibiskup	-12392
▁Konečně	-12393
▁Náklady	-12394
▁Německý	-12395
▁Olomouc	-12396
▁Ostatní	-12397
▁Připrav	-12398
▁Severní	-12399
▁Skupina	-12400
▁algorit	-12401
▁austral	-12402
▁chirurg	-12403
▁dobrých	-12404
▁dodávek	-12405
▁doklady	-12406
▁dokázat	-12407
▁faktory	-12408
▁firemní	-12409
▁inflaci	-12410
▁investo	-12411
▁kapitán	-12412
▁klienty	-12413
▁leasing	-12414
▁logicky	-12415
▁metodou	-12416
▁nastala	-12417
▁nedošlo	-12418
▁nemohla	-12419
▁nezákon	-12420
▁návrhem	-12421
▁některý	-12422
▁ocenění	-12423
▁památek	-12424
▁pivovar	-12425
▁poskytl	-12426
▁posléze	-12427
▁protilá	-12428
▁průzkum	-12429
▁přistup	-12430
▁rodinné	-12431
▁ruských	-12432
▁rámečku	-12433
▁shodují	-12434
▁sněžení	-12435
▁stránku	-12436
▁světová	-12437
▁tribuná	-12438
▁uprchlí	-12439
▁usiluje	-12440
▁vybrané	-12441
▁výskytu	-12442
▁zajistí	-12443
▁ztratil	-12444
▁úspěchy	-12445
inásobnou	-12446
▁Nejlepší	-12447
▁alkoholu	-12448
▁brankáře	-12449
▁brněnské	-12450
▁družstvo	-12451
▁družstvu	-12452
▁kdykoliv	-12453
▁konverti	-12454
▁kuponové	-12455
▁minulost	-12456
▁myšlenka	-12457
▁místního	-12458
▁nabídkou	-12459
▁nutnosti	-12460
▁německém	-12461
▁objevila	-12462
▁okolnost	-12463
▁osmdesát	-12464
▁pacienti	-12465
▁procenty	-12466
▁prohráli	-12467
▁předních	-12468
▁přiznává	-12469
▁příjemné	-12470
▁přípravu	-12471
▁rozmístě	-12472
▁seznámit	-12473
▁současná	-12474
▁takovému	-12475
▁uspokoji	-12476
▁vládního	-12477
▁založené	-12478
▁zaměření	-12479
▁zaslouží	-12480
▁úspěchem	-12481
▁Maastrich	-12482
▁Mechanika	-12483
▁absolutní	-12484
▁argumenty	-12485
▁atmosféra	-12486
▁dividendy	-12487
▁dostaneme	-12488
▁důsledkem	-12489
▁geometrii	-12490
▁integrace	-12491
▁inteligen	-12492
▁městského	-12493
▁naznačuje	-12494
▁neutrální	-12495
▁olympiády	-12496
▁olympiádě	-12497
▁podepsali	-12498
▁předložil	-12499
▁představa	-12500
▁příslušný	-12501
▁příspěvku	-12502
▁původních	-12503
▁rozšiřuje	-12504
▁sedimentů	-12505
▁sedmdesát	-12506
▁souhlasit	-12507
▁společném	-12508
▁stávající	-12509
▁středisko	-12510
▁středisku	-12511
▁uživatelé	-12512
▁vlastními	-12513
▁vstupenek	-12514
▁vyhlášení	-12515
▁vyskytují	-12516
▁významnou	-12517
▁zahájením	-12518
▁zaplacení	-12519
▁zaznamená	-12520
▁zúčastnit	-12521
▁Pracovníci	-12522
▁Rozhodnutí	-12523
▁fotbalista	-12524
▁každoročně	-12525
▁konferencí	-12526
▁literatury	-12527
▁personální	-12528
▁pojistného	-12529
▁postupovat	-12530
▁připraveny	-12531
▁regenerace	-12532
▁republikou	-12533
▁skupenství	-12534
▁slavnostní	-12535
▁univerzitě	-12536
▁vojenských	-12537
▁začínající	-12538
▁šedesátých	-12539
▁Bělohradský	-12540
▁dosavadních	-12541
▁podrobnosti	-12542
▁produktivit	-12543
▁příslušného	-12544
▁příslušníků	-12545
▁příslušných	-12546
▁ekonomického	-12547
▁klimatických	-12548
▁rekonstrukce	-12549
▁sedmdesátých	-12550
▁velvyslanectví	-12551
%,	-12552
GI	-12553
IF	-12554
cs	-12555
fy	-12556
ll	-12557
ux	-12558
LAV	-12559
OLE	-12560
dré	-12561
iss	-12562
ité	-12563
itě	-12564
ker	-12565
kři	-12566
lár	-12567
mak	-12568
mrz	-12569
sze	-12570
▁64	-12571
▁AC	-12572
▁AT	-12573
▁Ab	-12574
▁En	-12575
▁Ig	-12576
▁SN	-12577
▁Zů	-12578
▁cé	-12579
▁uc	-12580
▁ÚS	-12581
▁ČT	-12582
▁Žá	-12583
chro	-12584
eným	-12585
féry	-12586
gran	-12587
hová	-12588
háně	-12589
inky	-12590
její	-12591
lant	-12592
lera	-12593
lice	-12594
loha	-12595
mlad	-12596
něch	-12597
plní	-12598
rnou	-12599
stad	-12600
tari	-12601
uter	-12602
utná	-12603
vený	-12604
vest	-12605
vity	-12606
volá	-12607
vova	-12608
ware	-12609
xfor	-12610
zolu	-12611
čala	-12612
čnat	-12613
ňské	-12614
žník	-12615
▁2,5	-12616
▁70.	-12617
▁Ada	-12618
▁JAK	-12619
▁Mla	-12620
▁Nie	-12621
▁Oby	-12622
▁Pal	-12623
▁Pau	-12624
▁Pel	-12625
▁Rou	-12626
▁Tan	-12627
▁Vlk	-12628
▁Vyu	-12629
▁Váš	-12630
▁Wal	-12631
▁ato	-12632
▁lec	-12633
▁mik	-12634
▁sma	-12635
▁top	-12636
▁vyú	-12637
▁zaz	-12638
▁zdě	-12639
hodný	-12640
jiště	-12641
metru	-12642
nejvý	-12643
něnou	-12644
ovská	-12645
předu	-12646
rovná	-12647
rovol	-12648
stará	-12649
terou	-12650
vačka	-12651
vejme	-12652
čkové	-12653
řovat	-12654
▁1500	-12655
▁1984	-12656
▁5000	-12657
▁Akci	-12658
▁Bole	-12659
▁Dole	-12660
▁Gale	-12661
▁HZDS	-12662
▁Komo	-12663
▁Kraj	-12664
▁Miku	-12665
▁Polá	-12666
▁Spor	-12667
▁Tisk	-12668
▁Voda	-12669
▁Zlín	-12670
▁brat	-12671
▁dete	-12672
▁euro	-12673
▁exhi	-12674
▁hekt	-12675
▁kaza	-12676
▁kopi	-12677
▁mzda	-12678
▁měří	-12679
▁mříž	-12680
▁odci	-12681
▁odsu	-12682
▁ohni	-12683
▁otře	-12684
▁palu	-12685
▁pasi	-12686
▁play	-12687
▁plný	-12688
▁polí	-12689
▁reli	-12690
▁ráda	-12691
▁slad	-12692
▁smut	-12693
▁spla	-12694
▁spán	-12695
▁taxo	-12696
▁tera	-12697
▁týče	-12698
▁tříd	-12699
▁uspě	-12700
▁vrtu	-12701
▁vybu	-12702
▁vyma	-12703
▁vítr	-12704
▁výlu	-12705
▁zadá	-12706
▁Šest	-12707
itivní	-12708
jských	-12709
nostní	-12710
razila	-12711
stější	-12712
řeného	-12713
▁1991.	-12714
▁Boyle	-12715
▁Domní	-12716
▁Gabčí	-12717
▁Liber	-12718
▁Ruská	-12719
▁Vítěz	-12720
▁Věřím	-12721
▁Wales	-12722
▁Zcela	-12723
▁aplik	-12724
▁asoci	-12725
▁druho	-12726
▁dívat	-12727
▁etapě	-12728
▁fosil	-12729
▁hosty	-12730
▁hrálo	-12731
▁image	-12732
▁jídla	-12733
▁kinem	-12734
▁kmito	-12735
▁mamin	-12736
▁mateř	-12737
▁matka	-12738
▁matky	-12739
▁nakou	-12740
▁neobe	-12741
▁nespl	-12742
▁neuvě	-12743
▁nohou	-12744
▁noční	-12745
▁nádor	-12746
▁návod	-12747
▁odhal	-12748
▁pevný	-12749
▁plnit	-12750
▁plném	-12751
▁popře	-12752
▁převy	-12753
▁smrtí	-12754
▁světu	-12755
▁tržby	-12756
▁tvary	-12757
▁umělé	-12758
▁usnad	-12759
▁uvede	-12760
▁učili	-12761
▁valné	-12762
▁vazeb	-12763
▁vedly	-12764
▁volbě	-12765
▁vysti	-12766
▁vyšla	-12767
▁válku	-12768
▁věřit	-12769
▁zakot	-12770
▁znemo	-12771
▁údolí	-12772
▁úseku	-12773
▁čistě	-12774
▁žádat	-12775
borator	-12776
cházely	-12777
vatelem	-12778
▁Belgii	-12779
▁Obecně	-12780
▁Poprvé	-12781
▁Zaměst	-12782
▁Zhruba	-12783
▁agresi	-12784
▁bolest	-12785
▁celých	-12786
▁chybět	-12787
▁císaře	-12788
▁dějiny	-12789
▁eventu	-12790
▁fyzika	-12791
▁knížky	-12792
▁kolech	-12793
▁kořeny	-12794
▁krajin	-12795
▁menšin	-12796
▁nemocí	-12797
▁nízkou	-12798
▁občana	-12799
▁odchod	-12800
▁odletě	-12801
▁odporu	-12802
▁okraji	-12803
▁parale	-12804
▁poměry	-12805
▁povahy	-12806
▁právem	-12807
▁publik	-12808
▁přijme	-12809
▁přivez	-12810
▁přídav	-12811
▁příště	-12812
▁rekrea	-12813
▁smečky	-12814
▁snadné	-12815
▁stavět	-12816
▁stupeň	-12817
▁svědky	-12818
▁témata	-12819
▁vojáky	-12820
▁volbou	-12821
▁vrstev	-12822
▁vydala	-12823
▁vítěze	-12824
▁výbuch	-12825
▁zemské	-12826
▁zákonu	-12827
▁zásahu	-12828
▁čtvrté	-12829
zovaného	-12830
▁Fischer	-12831
▁Jakmile	-12832
▁Manažer	-12833
▁Nedávno	-12834
▁Vesmíru	-12835
▁dosáhly	-12836
▁hluboce	-12837
▁hodlají	-12838
▁ideolog	-12839
▁kariéru	-12840
▁logické	-12841
▁nezbývá	-12842
▁nezmění	-12843
▁nosorož	-12844
▁obchodě	-12845
▁obrátit	-12846
▁okamžik	-12847
▁pokusil	-12848
▁priorit	-12849
▁publiku	-12850
▁převést	-12851
▁přijali	-12852
▁přírodu	-12853
▁signali	-12854
▁slibuje	-12855
▁splnění	-12856
▁srdeční	-12857
▁staletí	-12858
▁trenérů	-12859
▁turnaji	-12860
▁typické	-12861
▁týdenní	-12862
▁uvedeno	-12863
▁vyměnit	-12864
▁vznikly	-12865
▁výrazné	-12866
▁vývojem	-12867
▁založil	-12868
▁zkrátka	-12869
▁získává	-12870
▁češtině	-12871
▁čistého	-12872
▁čištění	-12873
▁částkou	-12874
▁škodliv	-12875
▁žádoucí	-12876
▁Kreslení	-12877
▁Poslanec	-12878
▁Výsledky	-12879
▁aplikaci	-12880
▁budoucna	-12881
▁filharmo	-12882
▁formální	-12883
▁grafické	-12884
▁hlasovat	-12885
▁horských	-12886
▁kandidát	-12887
▁naznačil	-12888
▁normálně	-12889
▁označuje	-12890
▁platební	-12891
▁popisuje	-12892
▁pozdější	-12893
▁počínaje	-12894
▁průměrně	-12895
▁rehabili	-12896
▁silnější	-12897
▁snižovat	-12898
▁starostí	-12899
▁stejnému	-12900
▁svobodné	-12901
▁umělecké	-12902
▁uzavřena	-12903
▁volebním	-12904
▁vystoupí	-12905
▁víceméně	-12906
▁výpovědi	-12907
▁zpřístup	-12908
▁ztratila	-12909
▁Atlantiku	-12910
▁Dosavadní	-12911
▁astronomi	-12912
▁celkových	-12913
▁cestující	-12914
▁demokratů	-12915
▁důležitou	-12916
▁hokejisté	-12917
▁kapacitou	-12918
▁kompromis	-12919
▁lustrační	-12920
▁magistrát	-12921
▁mechaniku	-12922
▁ovlivňují	-12923
▁podmínkám	-12924
▁politicky	-12925
▁potvrdila	-12926
▁považován	-12927
▁přirozené	-12928
▁přirozeně	-12929
▁racionali	-12930
▁referenda	-12931
▁sedmnácti	-12932
▁setkáváme	-12933
▁strukturu	-12934
▁trojnásob	-12935
▁vládnoucí	-12936
▁vytvořili	-12937
▁zmíněných	-12938
▁zvládnout	-12939
▁Španělska	-12940
▁Intergraph	-12941
▁fotografie	-12942
▁historické	-12943
▁kanalizace	-12944
▁kompetence	-12945
▁kontinentu	-12946
▁nejlepšího	-12947
▁potřeboval	-12948
▁přijatelné	-12949
▁specifické	-12950
▁zdravotním	-12951
▁zveřejnění	-12952
▁Předpokládá	-12953
▁kontrolovat	-12954
▁zaměstnanec	-12955
▁antropologie	-12956
▁turistických	-12957
▁hospodářského	-12958
▁pravděpodobné	-12959
13	-12960
17	-12961
KD	-12962
St	-12963
TE	-12964
fá	-12965
gh	-12966
ič	-12967
lt	-12968
ŠE	-12969
ŠT	-12970
ESK	-12971
IDI	-12972
RAN	-12973
UJE	-12974
ase	-12975
bin	-12976
bám	-12977
cén	-12978
han	-12979
kus	-12980
lid	-12981
lův	-12982
med	-12983
mný	-12984
ndý	-12985
nií	-12986
obí	-12987
oři	-12988
pev	-12989
reš	-12990
rix	-12991
tát	-12992
érů	-12993
čík	-12994
žem	-12995
▁(3	-12996
▁FB	-12997
▁Lá	-12998
▁MA	-12999
▁PR	-13000
▁Sv	-13001
▁Vr	-13002
▁or	-13003
arda	-13004
bley	-13005
cími	-13006
dexu	-13007
dobí	-13008
kaně	-13009
liam	-13010
lily	-13011
lána	-13012
madě	-13013
mála	-13014
máčk	-13015
novi	-13016
pato	-13017
rátí	-13018
ston	-13019
síme	-13020
toto	-13021
víme	-13022
čeni	-13023
šeme	-13024
šená	-13025
▁29.	-13026
▁Bou	-13027
▁Daň	-13028
▁Gol	-13029
▁HGF	-13030
▁Kin	-13031
▁LDS	-13032
▁Lob	-13033
▁MHz	-13034
▁Mir	-13035
▁OLE	-13036
▁Ote	-13037
▁Sní	-13038
▁Své	-13039
▁Tým	-13040
▁Vra	-13041
▁Wem	-13042
▁Wer	-13043
▁Zak	-13044
▁aro	-13045
▁atp	-13046
▁azy	-13047
▁bon	-13048
▁bát	-13049
▁dou	-13050
▁hli	-13051
▁iro	-13052
▁jet	-13053
▁jíž	-13054
▁mod	-13055
▁net	-13056
▁nul	-13057
▁plí	-13058
▁učí	-13059
▁zbý	-13060
▁útě	-13061
▁šok	-13062
ckner	-13063
deník	-13064
hněte	-13065
hrady	-13066
hradě	-13067
kleid	-13068
kovní	-13069
lárně	-13070
niční	-13071
práva	-13072
slavi	-13073
staru	-13074
tiště	-13075
třebu	-13076
čenou	-13077
čnými	-13078
▁Chip	-13079
▁Fili	-13080
▁Isla	-13081
▁Klub	-13082
▁Leto	-13083
▁MUDr	-13084
▁Mexi	-13085
▁Okre	-13086
▁Soud	-13087
▁Svou	-13088
▁Test	-13089
▁Vino	-13090
▁bezb	-13091
▁bytí	-13092
▁bílé	-13093
▁chat	-13094
▁dele	-13095
▁done	-13096
▁geno	-13097
▁geny	-13098
▁hrob	-13099
▁hvěz	-13100
▁jeze	-13101
▁kovy	-13102
▁krav	-13103
▁levé	-13104
▁lize	-13105
▁neur	-13106
▁odle	-13107
▁odlu	-13108
▁oken	-13109
▁padě	-13110
▁pilo	-13111
▁plní	-13112
▁remí	-13113
▁ruka	-13114
▁shlu	-13115
▁slep	-13116
▁uhra	-13117
▁umět	-13118
▁vjem	-13119
▁vodě	-13120
▁vyčí	-13121
▁váží	-13122
▁záhy	-13123
▁Ústí	-13124
▁Říká	-13125
▁šíří	-13126
alisté	-13127
lostní	-13128
lywood	-13129
nickým	-13130
telným	-13131
tečným	-13132
tickém	-13133
zenými	-13134
zovaný	-13135
zovány	-13136
▁1989.	-13137
▁Bayer	-13138
▁Chtěl	-13139
▁Dvořá	-13140
▁Kvůli	-13141
▁Mohou	-13142
▁Prahu	-13143
▁Provo	-13144
▁Sezna	-13145
▁Výjim	-13146
▁bratr	-13147
▁chodu	-13148
▁chybu	-13149
▁cítit	-13150
▁dávat	-13151
▁dětmi	-13152
▁index	-13153
▁jesky	-13154
▁kamer	-13155
▁klíče	-13156
▁korup	-13157
▁kosme	-13158
▁kruhy	-13159
▁lhůty	-13160
▁lidov	-13161
▁mobil	-13162
▁měste	-13163
▁napří	-13164
▁neprů	-13165
▁odtud	-13166
▁očima	-13167
▁pevné	-13168
▁pohár	-13169
▁prvek	-13170
▁půlno	-13171
▁reakt	-13172
▁smluv	-13173
▁snahu	-13174
▁spraš	-13175
▁sprin	-13176
▁srpnu	-13177
▁stere	-13178
▁stolu	-13179
▁svěde	-13180
▁série	-13181
▁týdnu	-13182
▁venku	-13183
▁videa	-13184
▁volit	-13185
▁vylep	-13186
▁vídeň	-13187
▁výlet	-13188
▁výrok	-13189
▁věděl	-13190
▁zaměř	-13191
▁zhoub	-13192
▁znají	-13193
▁zrych	-13194
▁zápor	-13195
▁zážit	-13196
▁řekne	-13197
▁říkám	-13198
ekonomi	-13199
▁Casimi	-13200
▁Manžel	-13201
▁Nebylo	-13202
▁Podmín	-13203
▁Počítá	-13204
▁Průměr	-13205
▁Strako	-13206
▁Zbytek	-13207
▁Záleží	-13208
▁Zřejmě	-13209
▁chemie	-13210
▁chladu	-13211
▁deníku	-13212
▁diagra	-13213
▁dostih	-13214
▁družst	-13215
▁efekty	-13216
▁hotové	-13217
▁jakoby	-13218
▁jakýsi	-13219
▁kanálů	-13220
▁klubem	-13221
▁komfor	-13222
▁lidský	-13223
▁mistry	-13224
▁nabídl	-13225
▁nahoru	-13226
▁nechci	-13227
▁neděle	-13228
▁nejroz	-13229
▁nevidí	-13230
▁nevíme	-13231
▁novela	-13232
▁odměny	-13233
▁opravě	-13234
▁papíry	-13235
▁platné	-13236
▁plochu	-13237
▁pocity	-13238
▁podoby	-13239
▁pouští	-13240
▁povzbu	-13241
▁promlu	-13242
▁přečet	-13243
▁přišly	-13244
▁příliv	-13245
▁půjčky	-13246
▁sankce	-13247
▁sehnat	-13248
▁silným	-13249
▁stavba	-13250
▁stačit	-13251
▁stromy	-13252
▁studií	-13253
▁symbol	-13254
▁teplot	-13255
▁týkají	-13256
▁určeny	-13257
▁užitku	-13258
▁velkém	-13259
▁voliči	-13260
▁vzduch	-13261
▁vzhled	-13262
▁vítězů	-13263
▁většin	-13264
▁zákoně	-13265
▁zčásti	-13266
▁úmyslu	-13267
▁činila	-13268
▁čtvrtý	-13269
▁Řešení	-13270
cionální	-13271
kajících	-13272
▁Ačkoliv	-13273
▁Bohemia	-13274
▁ClipArt	-13275
▁Důvodem	-13276
▁Francou	-13277
▁Kdybych	-13278
▁Mostaru	-13279
▁Smlouva	-13280
▁Wembley	-13281
▁autobus	-13282
▁centrem	-13283
▁divadel	-13284
▁divadle	-13285
▁expertů	-13286
▁formulá	-13287
▁intelig	-13288
▁konečný	-13289
▁koordin	-13290
▁letišti	-13291
▁minimum	-13292
▁nebrání	-13293
▁nechala	-13294
▁nepatří	-13295
▁neúspěš	-13296
▁odmítla	-13297
▁ostrovů	-13298
▁peněžní	-13299
▁podruhé	-13300
▁ponechá	-13301
▁porazil	-13302
▁porovná	-13303
▁potravy	-13304
▁prestiž	-13305
▁prozkou	-13306
▁právník	-13307
▁předsti	-13308
▁přijeli	-13309
▁rozpadu	-13310
▁schopny	-13311
▁směřuje	-13312
▁spojuje	-13313
▁srozumi	-13314
▁stoupen	-13315
▁surovin	-13316
▁tabulka	-13317
▁tabulku	-13318
▁trestné	-13319
▁turisté	-13320
▁tělesné	-13321
▁udělali	-13322
▁umístit	-13323
▁uvádějí	-13324
▁vstupné	-13325
▁vyhráli	-13326
▁výkladu	-13327
▁výpočet	-13328
▁výrobku	-13329
▁zdanění	-13330
▁změnách	-13331
▁způsobů	-13332
▁závažné	-13333
▁zážitek	-13334
▁ústavní	-13335
▁řekněme	-13336
▁Švédsku	-13337
▁Americký	-13338
▁Maďarsko	-13339
▁Olomouce	-13340
▁Výsledek	-13341
▁Zjuganov	-13342
▁budování	-13343
▁dětských	-13344
▁evidenci	-13345
▁hovořili	-13346
▁kategori	-13347
▁klasické	-13348
▁kontaktu	-13349
▁ledových	-13350
▁majitelů	-13351
▁mořských	-13352
▁navzdory	-13353
▁nějakého	-13354
▁obrovský	-13355
▁otázkách	-13356
▁ovlivnit	-13357
▁pohotovo	-13358
▁postupem	-13359
▁preferen	-13360
▁proběhla	-13361
▁prodejně	-13362
▁provozní	-13363
▁průměrný	-13364
▁reagoval	-13365
▁revoluce	-13366
▁rostliny	-13367
▁rozdělit	-13368
▁rozhodlo	-13369
▁semináře	-13370
▁sousední	-13371
▁telefony	-13372
▁trvající	-13373
▁určených	-13374
▁určitého	-13375
▁uvolnění	-13376
▁veřejnou	-13377
▁vycházet	-13378
▁vysokého	-13379
▁vývojové	-13380
▁významný	-13381
▁způsobit	-13382
▁zvyšovat	-13383
▁západním	-13384
▁čistíren	-13385
jednodušší	-13386
ologických	-13387
▁Františka	-13388
▁Karadžiče	-13389
▁Miroslava	-13390
▁Policejní	-13391
▁akcionářů	-13392
▁atmosféru	-13393
▁basketbal	-13394
▁britského	-13395
▁budoucího	-13396
▁definovat	-13397
▁inspektor	-13398
▁kombinace	-13399
▁komunismu	-13400
▁kontrolní	-13401
▁kontrolou	-13402
▁navštívil	-13403
▁novinářům	-13404
▁některého	-13405
▁policisty	-13406
▁populární	-13407
▁producent	-13408
▁připustil	-13409
▁realizaci	-13410
▁rozhovory	-13411
▁rozhovorů	-13412
▁sportovci	-13413
▁strategií	-13414
▁stížnosti	-13415
▁technikou	-13416
▁transform	-13417
▁vykonávat	-13418
▁zdravotně	-13419
▁zemědělců	-13420
▁získávají	-13421
cházejících	-13422
▁Poborského	-13423
▁Pojišťovna	-13424
▁dlouhodobě	-13425
▁dodržování	-13426
▁existující	-13427
▁konstrukcí	-13428
▁království	-13429
▁kulturního	-13430
▁nejvyšších	-13431
▁odpovídají	-13432
▁potenciálu	-13433
▁potřebovat	-13434
▁považujeme	-13435
▁pozornosti	-13436
▁požadavkům	-13437
▁prostorách	-13438
▁sportovním	-13439
▁uhličitého	-13440
▁upozorňují	-13441
▁vlastníkem	-13442
▁znečištění	-13443
▁dvojnásobek	-13444
▁modernizaci	-13445
▁poskytování	-13446
▁pracujících	-13447
▁předvolební	-13448
▁připomenout	-13449
▁architektury	-13450
▁fundamentali	-13451
▁kvalifikační	-13452
▁legislativní	-13453
▁podnikatelům	-13454
▁problematiku	-13455
▁Mezinárodního	-13456
18	-13457
BA	-13458
MF	-13459
NF	-13460
cá	-13461
ed	-13462
vó	-13463
ÁT	-13464
ďá	-13465
ŘI	-13466
▁ř	-13467
BAL	-13468
ELE	-13469
RIT	-13470
are	-13471
can	-13472
cht	-13473
ché	-13474
cty	-13475
deo	-13476
diu	-13477
dií	-13478
dří	-13479
hoř	-13480
int	-13481
ise	-13482
kar	-13483
kin	-13484
mií	-13485
mra	-13486
oti	-13487
sce	-13488
tah	-13489
tko	-13490
tur	-13491
ung	-13492
vot	-13493
wan	-13494
zce	-13495
zii	-13496
éru	-13497
ózu	-13498
čtu	-13499
čín	-13500
žír	-13501
▁54	-13502
▁7,	-13503
▁92	-13504
▁DV	-13505
▁Sh	-13506
▁TV	-13507
▁ol	-13508
▁rý	-13509
▁só	-13510
ancí	-13511
anka	-13512
bila	-13513
ceno	-13514
ctvo	-13515
díte	-13516
havě	-13517
ider	-13518
jetí	-13519
jním	-13520
lalo	-13521
liví	-13522
lohy	-13523
loze	-13524
malo	-13525
mann	-13526
mluv	-13527
náší	-13528
obra	-13529
ovaž	-13530
puje	-13531
ralo	-13532
rana	-13533
rová	-13534
salo	-13535
týká	-13536
utno	-13537
vary	-13538
vist	-13539
wicz	-13540
zejí	-13541
čase	-13542
řice	-13543
▁").	-13544
▁125	-13545
▁Che	-13546
▁Don	-13547
▁Duk	-13548
▁Dál	-13549
▁Ein	-13550
▁Geo	-13551
▁Hou	-13552
▁Hro	-13553
▁Las	-13554
▁Los	-13555
▁Mel	-13556
▁Můj	-13557
▁Old	-13558
▁SNS	-13559
▁Sal	-13560
▁Syn	-13561
▁USD	-13562
▁Ven	-13563
▁Vir	-13564
▁Wor	-13565
▁bor	-13566
▁cca	-13567
▁die	-13568
▁ero	-13569
▁faš	-13570
▁fol	-13571
▁fáz	-13572
▁jar	-13573
▁kno	-13574
▁lym	-13575
▁mém	-13576
▁nit	-13577
▁psů	-13578
▁sdí	-13579
▁vul	-13580
▁šat	-13581
▁žán	-13582
ality	-13583
celku	-13584
chají	-13585
covou	-13586
deček	-13587
entně	-13588
grace	-13589
ktoři	-13590
myslí	-13591
nolog	-13592
pokud	-13593
právy	-13594
sadil	-13595
sobru	-13596
stika	-13597
trans	-13598
vlast	-13599
vrcho	-13600
znala	-13601
žební	-13602
žných	-13603
▁1996	-13604
▁Doba	-13605
▁FIFA	-13606
▁Fond	-13607
▁Koši	-13608
▁Krit	-13609
▁Liby	-13610
▁Měli	-13611
▁Navr	-13612
▁Něco	-13613
▁Peck	-13614
▁Schu	-13615
▁Weiz	-13616
▁boku	-13617
▁bytě	-13618
▁chle	-13619
▁daří	-13620
▁genů	-13621
▁inci	-13622
▁inje	-13623
▁jevi	-13624
▁kaly	-13625
▁kůži	-13626
▁láka	-13627
▁namí	-13628
▁neup	-13629
▁plno	-13630
▁popí	-13631
▁prvé	-13632
▁páté	-13633
▁ryby	-13634
▁rána	-13635
▁samé	-13636
▁stvo	-13637
▁svis	-13638
▁tatí	-13639
▁trpě	-13640
▁udrž	-13641
▁vtip	-13642
▁víno	-13643
▁věta	-13644
▁zata	-13645
▁úchy	-13646
▁úkor	-13647
▁ČSAV	-13648
▁čáry	-13649
dování	-13650
hledné	-13651
instal	-13652
kovými	-13653
losvět	-13654
lování	-13655
milion	-13656
nejvýš	-13657
onální	-13658
razili	-13659
rácení	-13660
sahují	-13661
tového	-13662
upiter	-13663
šující	-13664
▁1990,	-13665
▁Bejbl	-13666
▁Budin	-13667
▁Kapit	-13668
▁Kvali	-13669
▁Mazdy	-13670
▁Pořad	-13671
▁Speci	-13672
▁Stalo	-13673
▁Večer	-13674
▁Změna	-13675
▁archí	-13676
▁bakté	-13677
▁bezpo	-13678
▁bodem	-13679
▁chvil	-13680
▁cirku	-13681
▁dresu	-13682
▁druži	-13683
▁délku	-13684
▁hlavě	-13685
▁hradí	-13686
▁inspi	-13687
▁jichž	-13688
▁jádra	-13689
▁jídlo	-13690
▁kartě	-13691
▁knihu	-13692
▁kráde	-13693
▁kádru	-13694
▁letou	-13695
▁linek	-13696
▁léčba	-13697
▁mírou	-13698
▁nejpo	-13699
▁nekom	-13700
▁nerov	-13701
▁nevyu	-13702
▁neško	-13703
▁námoř	-13704
▁obžal	-13705
▁odstí	-13706
▁osamo	-13707
▁oslav	-13708
▁osobu	-13709
▁penal	-13710
▁platu	-13711
▁plave	-13712
▁pochy	-13713
▁podce	-13714
▁přidě	-13715
▁roztr	-13716
▁ruchu	-13717
▁různá	-13718
▁sešli	-13719
▁synte	-13720
▁tempo	-13721
▁ukraj	-13722
▁uzávě	-13723
▁volba	-13724
▁vyjas	-13725
▁vykon	-13726
▁zabit	-13727
▁zapis	-13728
▁zasvě	-13729
▁zlata	-13730
▁Čečen	-13731
▁členě	-13732
▁řádek	-13733
▁řádně	-13734
stickým	-13735
venství	-13736
začních	-13737
▁Albert	-13738
▁Antoní	-13739
▁Bezpeč	-13740
▁Komora	-13741
▁Krimin	-13742
▁Libano	-13743
▁Polsku	-13744
▁Prakti	-13745
▁Příští	-13746
▁Vesmír	-13747
▁Viktor	-13748
▁Vyšetř	-13749
▁chorob	-13750
▁chrání	-13751
▁cizině	-13752
▁datové	-13753
▁dodala	-13754
▁doklad	-13755
▁dopisy	-13756
▁duchov	-13757
▁fyziku	-13758
▁hovoru	-13759
▁jedine	-13760
▁jednal	-13761
▁kanclé	-13762
▁kanálu	-13763
▁komora	-13764
▁lidská	-13765
▁lístky	-13766
▁membrá	-13767
▁metodu	-13768
▁měchov	-13769
▁navště	-13770
▁nebudu	-13771
▁nemění	-13772
▁neskon	-13773
▁nevylu	-13774
▁nevzni	-13775
▁nárůst	-13776
▁obrace	-13777
▁opravd	-13778
▁opravu	-13779
▁planet	-13780
▁popsat	-13781
▁portfo	-13782
▁potrvá	-13783
▁průkaz	-13784
▁přijel	-13785
▁rezolu	-13786
▁rozbor	-13787
▁roztří	-13788
▁setkat	-13789
▁správě	-13790
▁spánku	-13791
▁stadia	-13792
▁stoupá	-13793
▁sídlem	-13794
▁terénu	-13795
▁trestu	-13796
▁uchová	-13797
▁určený	-13798
▁užívat	-13799
▁veliká	-13800
▁vidění	-13801
▁volání	-13802
▁válkou	-13803
▁výkyvy	-13804
▁výnosu	-13805
▁výskyt	-13806
▁zahájí	-13807
▁zavést	-13808
▁zdravé	-13809
▁známým	-13810
▁údržbu	-13811
▁číslem	-13812
▁řidiči	-13813
ovanosti	-13814
pouštějí	-13815
sáhlejší	-13816
▁Dokonce	-13817
▁Hodnota	-13818
▁Kalifor	-13819
▁Nejméně	-13820
▁Odpověď	-13821
▁Oznámil	-13822
▁Problém	-13823
▁Situace	-13824
▁Vyplývá	-13825
▁William	-13826
▁cizince	-13827
▁cizinci	-13828
▁doplnit	-13829
▁dopředu	-13830
▁filmový	-13831
▁firmami	-13832
▁jedinci	-13833
▁konstan	-13834
▁kostela	-13835
▁letadlo	-13836
▁lékáren	-13837
▁manžela	-13838
▁monopol	-13839
▁morální	-13840
▁myslíte	-13841
▁městská	-13842
▁měřítku	-13843
▁nakolik	-13844
▁naproti	-13845
▁nestalo	-13846
▁okresní	-13847
▁opozici	-13848
▁ovládat	-13849
▁pozemky	-13850
▁procesů	-13851
▁převzal	-13852
▁redakci	-13853
▁servisu	-13854
▁soupeři	-13855
▁správce	-13856
▁starost	-13857
▁stačilo	-13858
▁středně	-13859
▁tržního	-13860
▁ukládat	-13861
▁vodního	-13862
▁vydělat	-13863
▁vzniklé	-13864
▁zimních	-13865
▁zkoušky	-13866
▁zlepšit	-13867
▁záchran	-13868
▁zájezdy	-13869
▁zůstaly	-13870
atografie	-13871
▁Japonska	-13872
▁Komerční	-13873
▁Pražském	-13874
▁Sovětský	-13875
▁Zástupci	-13876
▁americká	-13877
▁biologie	-13878
▁celkovou	-13879
▁kalendář	-13880
▁kontamin	-13881
▁kritické	-13882
▁manažera	-13883
▁manažerů	-13884
▁nanejvýš	-13885
▁nejhorší	-13886
▁nečekaně	-13887
▁následně	-13888
▁okresech	-13889
▁ošetření	-13890
▁penzijní	-13891
▁postupné	-13892
▁právního	-13893
▁přeháňky	-13894
▁přinesla	-13895
▁režiséra	-13896
▁schválil	-13897
▁sedmnáct	-13898
▁sekretář	-13899
▁středním	-13900
▁subjekty	-13901
▁takovéto	-13902
▁tiskárna	-13903
▁variantu	-13904
▁veškerou	-13905
▁vstoupil	-13906
▁vstupuje	-13907
▁vykazuje	-13908
▁vyloučit	-13909
▁vyžadují	-13910
▁vztahuje	-13911
▁významně	-13912
▁základnu	-13913
▁zásluhou	-13914
▁zúčastní	-13915
▁špičkové	-13916
▁Slovinska	-13917
▁bratislav	-13918
▁deklarace	-13919
▁fyzikální	-13920
▁hranicích	-13921
▁investorů	-13922
▁kdybychom	-13923
▁komunisté	-13924
▁komunistů	-13925
▁laborator	-13926
▁lékařskou	-13927
▁moderních	-13928
▁nominální	-13929
▁oblačnost	-13930
▁odmítnout	-13931
▁partnerem	-13932
▁poloviční	-13933
▁potřebnou	-13934
▁požadavků	-13935
▁pracující	-13936
▁projevilo	-13937
▁sestavení	-13938
▁standardu	-13939
▁struktuře	-13940
▁teroristi	-13941
▁uspořádat	-13942
▁večerních	-13943
▁volebních	-13944
▁vytvářejí	-13945
▁významným	-13946
▁zařízením	-13947
▁způsobila	-13948
▁zvláštním	-13949
▁účastníky	-13950
▁Bratislava	-13951
▁Chorvatsko	-13952
▁Krkonoších	-13953
▁Organizace	-13954
▁dodavatele	-13955
▁informovat	-13956
▁intenzivně	-13957
▁konkrétním	-13958
▁matematiky	-13959
▁obchodníků	-13960
▁prohlásila	-13961
▁rozhodnuto	-13962
▁technologi	-13963
▁tisíciletí	-13964
▁tuzemských	-13965
▁vybudování	-13966
▁závěrečném	-13967
▁Maastrichtu	-13968
▁automatické	-13969
▁informovali	-13970
▁jugoslávské	-13971
▁návštěvníci	-13972
▁přesvědčeni	-13973
▁sdělovacích	-13974
▁zdravotních	-13975
▁jednotlivými	-13976
▁komunistické	-13977
▁ministerstev	-13978
▁následujícím	-13979
▁projednávání	-13980
▁spokojenosti	-13981
▁východoevrop	-13982
▁francouzského	-13983
▁mikroorganismů	-13984
▁podnikatelskou	-13985
▁zdravotnických	-13986
CC	-13987
CÍ	-13988
GB	-13989
IP	-13990
fí	-13991
ik	-13992
tz	-13993
úd	-13994
ČÍ	-13995
KDU	-13996
ami	-13997
cal	-13998
ceg	-13999
dba	-14000
glo	-14001
jci	-14002
lib	-14003
lný	-14004
láš	-14005
nor	-14006
oko	-14007
rej	-14008
rub	-14009
sař	-14010
sia	-14011
the	-14012
tiv	-14013
tli	-14014
vič	-14015
yne	-14016
ářů	-14017
óze	-14018
úto	-14019
ňák	-14020
šňů	-14021
žte	-14022
▁0:	-14023
▁31	-14024
▁39	-14025
▁4:	-14026
▁56	-14027
▁72	-14028
▁AB	-14029
▁AL	-14030
▁LI	-14031
▁OP	-14032
▁Sc	-14033
▁šo	-14034
acek	-14035
bier	-14036
bová	-14037
broj	-14038
běhl	-14039
dape	-14040
dorf	-14041
dělo	-14042
feje	-14043
gypt	-14044
havé	-14045
hlík	-14046
hově	-14047
idel	-14048
isty	-14049
knou	-14050
kost	-14051
letu	-14052
lovu	-14053
mují	-14054
může	-14055
nera	-14056
nový	-14057
něná	-14058
ranž	-14059
skov	-14060
slem	-14061
spon	-14062
szew	-14063
ujte	-14064
view	-14065
vory	-14066
voří	-14067
čina	-14068
řují	-14069
šším	-14070
ůjde	-14071
▁"),	-14072
▁260	-14073
▁350	-14074
▁80.	-14075
▁Cal	-14076
▁Dub	-14077
▁Edu	-14078
▁Irá	-14079
▁Jac	-14080
▁Ján	-14081
▁MOV	-14082
▁Myš	-14083
▁PRA	-14084
▁Pet	-14085
▁Plá	-14086
▁RAM	-14087
▁Ran	-14088
▁Smí	-14089
▁Tom	-14090
▁Tro	-14091
▁Tru	-14092
▁Uži	-14093
▁Ver	-14094
▁Vít	-14095
▁War	-14096
▁Zdů	-14097
▁Zji	-14098
▁Zno	-14099
▁doj	-14100
▁emo	-14101
▁han	-14102
▁hoř	-14103
▁hus	-14104
▁jev	-14105
▁lat	-14106
▁los	-14107
▁loď	-14108
▁med	-14109
▁mni	-14110
▁očí	-14111
▁pam	-14112
▁rám	-14113
▁sup	-14114
▁trů	-14115
▁vin	-14116
▁voz	-14117
▁věk	-14118
▁vší	-14119
▁zep	-14120
alita	-14121
burgu	-14122
dejme	-14123
dných	-14124
ktora	-14125
lecom	-14126
lníků	-14127
mutov	-14128
nesli	-14129
pozit	-14130
roste	-14131
stein	-14132
steru	-14133
stily	-14134
stvím	-14135
terie	-14136
totož	-14137
třeba	-14138
umati	-14139
vedly	-14140
zatím	-14141
zivní	-14142
čková	-14143
▁1968	-14144
▁1986	-14145
▁Alma	-14146
▁Evan	-14147
▁Host	-14148
▁Karl	-14149
▁Kubí	-14150
▁MIDI	-14151
▁Mila	-14152
▁Vese	-14153
▁Víme	-14154
▁amat	-14155
▁bari	-14156
▁blok	-14157
▁bělo	-14158
▁chvá	-14159
▁coby	-14160
▁daly	-14161
▁dnem	-14162
▁domo	-14163
▁drah	-14164
▁dres	-14165
▁duši	-14166
▁emis	-14167
▁genu	-14168
▁gólu	-14169
▁hava	-14170
▁inka	-14171
▁jízd	-14172
▁král	-14173
▁léto	-14174
▁mate	-14175
▁mých	-14176
▁nevá	-14177
▁nezů	-14178
▁oltá	-14179
▁poka	-14180
▁popř	-14181
▁radu	-14182
▁reci	-14183
▁rost	-14184
▁ruko	-14185
▁scho	-14186
▁styk	-14187
▁svát	-14188
▁síni	-14189
▁ukra	-14190
▁vozí	-14191
▁vymo	-14192
▁vypí	-14193
▁všim	-14194
▁zále	-14195
▁únos	-14196
▁ČESK	-14197
▁ČSAD	-14198
▁Čtvr	-14199
▁Žena	-14200
dynami	-14201
hající	-14202
hující	-14203
kovali	-14204
kvival	-14205
mladší	-14206
měrech	-14207
ováleč	-14208
pisech	-14209
plnění	-14210
racích	-14211
rovaný	-14212
steroi	-14213
termin	-14214
tečním	-14215
zajíma	-14216
čeného	-14217
členné	-14218
žnější	-14219
žující	-14220
▁1990.	-14221
▁1993,	-14222
▁Barto	-14223
▁Bavor	-14224
▁Chval	-14225
▁Dukly	-14226
▁Inspe	-14227
▁Kolem	-14228
▁Konec	-14229
▁Konku	-14230
▁Kopři	-14231
▁Krist	-14232
▁Litví	-14233
▁Město	-14234
▁Produ	-14235
▁Skali	-14236
▁Veřej	-14237
▁Weizs	-14238
▁abece	-14239
▁barva	-14240
▁bronz	-14241
▁burzy	-14242
▁běžný	-14243
▁dezin	-14244
▁expan	-14245
▁exter	-14246
▁hradě	-14247
▁kapal	-14248
▁karet	-14249
▁klima	-14250
▁kormi	-14251
▁kraje	-14252
▁kroků	-14253
▁kruhu	-14254
▁kámen	-14255
▁londý	-14256
▁módní	-14257
▁nejle	-14258
▁nejvy	-14259
▁nutná	-14260
▁náhlé	-14261
▁němuž	-14262
▁odkaz	-14263
▁orien	-14264
▁ozónu	-14265
▁očích	-14266
▁pevně	-14267
▁pocti	-14268
▁písma	-14269
▁recep	-14270
▁repor	-14271
▁scénu	-14272
▁sehrá	-14273
▁stavy	-14274
▁stálé	-14275
▁stěží	-14276
▁sídla	-14277
▁sídlí	-14278
▁udává	-14279
▁učení	-14280
▁vezme	-14281
▁vydal	-14282
▁vyjít	-14283
▁vápen	-14284
▁zbývá	-14285
▁známa	-14286
▁zrcad	-14287
▁zápla	-14288
▁Čechy	-14289
▁česky	-14290
▁řádky	-14291
▁šlech	-14292
▁Želez	-14293
bilních	-14294
matické	-14295
nějšími	-14296
skupení	-14297
tečných	-14298
zemních	-14299
životní	-14300
▁Bierho	-14301
▁Chtěli	-14302
▁Doufám	-14303
▁Manche	-14304
▁Mandle	-14305
▁Nejsem	-14306
▁Olszew	-14307
▁Optima	-14308
▁Podnik	-14309
▁Problé	-14310
▁Předse	-14311
▁Příbra	-14312
▁Rallye	-14313
▁Rozdíl	-14314
▁Velkou	-14315
▁Vietna	-14316
▁Vložit	-14317
▁abstra	-14318
▁autory	-14319
▁balení	-14320
▁branku	-14321
▁církví	-14322
▁diváci	-14323
▁domova	-14324
▁draslí	-14325
▁hepato	-14326
▁hlubší	-14327
▁imunit	-14328
▁jejímu	-14329
▁kapitu	-14330
▁kataly	-14331
▁komisí	-14332
▁kontex	-14333
▁kopané	-14334
▁leccos	-14335
▁léčení	-14336
▁metodi	-14337
▁minutu	-14338
▁narazí	-14339
▁naučit	-14340
▁našemu	-14341
▁náleží	-14342
▁odvolá	-14343
▁osobám	-14344
▁patřil	-14345
▁pořadu	-14346
▁prefer	-14347
▁prosin	-14348
▁prosím	-14349
▁převez	-14350
▁přihlí	-14351
▁rodině	-14352
▁rozlou	-14353
▁sbírky	-14354
▁scénář	-14355
▁sektor	-14356
▁slunce	-14357
▁souboj	-14358
▁stromu	-14359
▁takhle	-14360
▁triumf	-14361
▁tvorba	-14362
▁tvrdil	-14363
▁tvůrce	-14364
▁učinil	-14365
▁vraždy	-14366
▁vyděla	-14367
▁vzorků	-14368
▁výměny	-14369
▁zajímá	-14370
▁zastou	-14371
▁zbožím	-14372
▁zbytku	-14373
▁zkušeb	-14374
▁znázor	-14375
▁zvyklí	-14376
▁zájezd	-14377
▁zákoni	-14378
▁zásahy	-14379
▁zásoby	-14380
▁závěry	-14381
▁ústavů	-14382
▁územní	-14383
▁Štědrý	-14384
zujících	-14385
▁Evropou	-14386
▁Jackson	-14387
▁Okresní	-14388
▁Počítač	-14389
▁Pražský	-14390
▁Telecom	-14391
▁Ukázalo	-14392
▁analýza	-14393
▁bolesti	-14394
▁databáz	-14395
▁diferen	-14396
▁dohodli	-14397
▁grafiky	-14398
▁hladiny	-14399
▁hygieni	-14400
▁infekce	-14401
▁jakkoli	-14402
▁jakmile	-14403
▁jakožto	-14404
▁licence	-14405
▁medailí	-14406
▁nabídne	-14407
▁navštěv	-14408
▁nekvali	-14409
▁nešťast	-14410
▁náhodně	-14411
▁obhájce	-14412
▁oblačno	-14413
▁obránce	-14414
▁opozicí	-14415
▁osmnáct	-14416
▁otevírá	-14417
▁oživení	-14418
▁podotkl	-14419
▁položku	-14420
▁postupů	-14421
▁pozemků	-14422
▁předání	-14423
▁přelomu	-14424
▁přiletě	-14425
▁přivedl	-14426
▁příroda	-14427
▁působil	-14428
▁rozumět	-14429
▁snížila	-14430
▁sousedů	-14431
▁strašně	-14432
▁stěžují	-14433
▁středem	-14434
▁suverén	-14435
▁uzavírá	-14436
▁vicepre	-14437
▁vstupní	-14438
▁vybaven	-14439
▁vynález	-14440
▁vyslech	-14441
▁vznikne	-14442
▁východu	-14443
▁výchovy	-14444
▁výhodou	-14445
▁výrobou	-14446
▁závazků	-14447
▁závislá	-14448
▁získají	-14449
▁získalo	-14450
▁účastní	-14451
▁červené	-14452
▁čtvrtém	-14453
například	-14454
▁Americká	-14455
▁Izraelem	-14456
▁Japonsko	-14457
▁Klepněte	-14458
▁Maďarska	-14459
▁Naštěstí	-14460
▁Palestin	-14461
▁Podařilo	-14462
▁Rumunsko	-14463
▁Ukrajina	-14464
▁Zajímavé	-14465
▁celosvět	-14466
▁dobrovol	-14467
▁doprovod	-14468
▁dovoluje	-14469
▁drobných	-14470
▁expozice	-14471
▁kapitoly	-14472
▁kláštera	-14473
▁krasobru	-14474
▁nalezení	-14475
▁nasazení	-14476
▁nastoupí	-14477
▁některou	-14478
▁německým	-14479
▁obsadili	-14480
▁okolních	-14481
▁opakovat	-14482
▁osmnácti	-14483
▁personál	-14484
▁podzimní	-14485
▁porazila	-14486
▁posílení	-14487
▁potřebný	-14488
▁požádali	-14489
▁premiéře	-14490
▁prosadil	-14491
▁protivní	-14492
▁překážky	-14493
▁příkazem	-14494
▁příkladu	-14495
▁působící	-14496
▁rozhlasu	-14497
▁skončily	-14498
▁slavného	-14499
▁spotřebu	-14500
▁subjektů	-14501
▁světovém	-14502
▁tendenci	-14503
▁uchazečů	-14504
▁umožňují	-14505
▁užitečné	-14506
▁varování	-14507
▁veletrhu	-14508
▁vlastník	-14509
▁výslovně	-14510
▁výstavní	-14511
▁zahynulo	-14512
▁zajímavá	-14513
▁zařazeny	-14514
▁zneužití	-14515
zerbájdžán	-14516
▁Sovětském	-14517
▁ToolBooku	-14518
▁Výsledkem	-14519
▁diagnosti	-14520
▁evropským	-14521
▁finančním	-14522
▁majitelem	-14523
▁městských	-14524
▁nakupovat	-14525
▁nemocného	-14526
▁platnosti	-14527
▁pokračují	-14528
▁politikou	-14529
▁poslancům	-14530
▁počítačem	-14531
▁pracovním	-14532
▁prvenství	-14533
▁publikace	-14534
▁připomněl	-14535
▁přístupem	-14536
▁původního	-14537
▁sekretari	-14538
▁současným	-14539
▁spojených	-14540
▁stability	-14541
▁vnitřního	-14542
▁vyrovnání	-14543
▁vzniknout	-14544
▁zasáhnout	-14545
▁zemědělci	-14546
▁způsobilo	-14547
▁zvukových	-14548
▁zvítězila	-14549
▁získaných	-14550
▁Švýcarska	-14551
▁španělské	-14552
zajímavější	-14553
▁Kazachstán	-14554
▁anglického	-14555
▁arcibiskup	-14556
▁kandidovat	-14557
▁kvalitních	-14558
▁následovat	-14559
▁někdejšího	-14560
▁odškodnění	-14561
▁prezervati	-14562
▁prokurátor	-14563
▁provozovat	-14564
▁připravila	-14565
▁uměleckých	-14566
▁uživatelům	-14567
▁vojenského	-14568
▁vzdělávání	-14569
▁dosavadního	-14570
▁dostatečnou	-14571
▁francouzské	-14572
▁koncentraci	-14573
▁potřebujete	-14574
▁prázdninách	-14575
▁příslušníky	-14576
▁speciálních	-14577
▁demokratická	-14578
▁počítačových	-14579
▁prezidentovi	-14580
▁rozhodujícím	-14581
▁vyšetřovatel	-14582
▁zaměstnancům	-14583
▁multimediální	-14584
▁společenských	-14585
▁bezpečnostních	-14586
▁prezidentských	-14587
1)	-14588
70	-14589
89	-14590
OB	-14591
OK	-14592
PR	-14593
VI	-14594
th	-14595
ÁL	-14596
ORU	-14597
STI	-14598
bas	-14599
bon	-14600
con	-14601
cto	-14602
des	-14603
dig	-14604
era	-14605
hví	-14606
jím	-14607
kot	-14608
kův	-14609
neb	-14610
ort	-14611
pka	-14612
tik	-14613
ána	-14614
řes	-14615
řou	-14616
šná	-14617
štá	-14618
žba	-14619
▁(5	-14620
▁51	-14621
▁74	-14622
▁7:	-14623
▁FC	-14624
▁LE	-14625
▁NT	-14626
▁OB	-14627
▁Pá	-14628
▁RU	-14629
▁SI	-14630
▁ZP	-14631
▁Zy	-14632
anti	-14633
ding	-14634
encí	-14635
hart	-14636
hrnu	-14637
hrob	-14638
isto	-14639
itou	-14640
jská	-14641
komo	-14642
lete	-14643
líte	-14644
many	-14645
máhá	-14646
radi	-14647
ravý	-14648
roši	-14649
seku	-14650
silo	-14651
skyt	-14652
stin	-14653
stky	-14654
stor	-14655
tebo	-14656
tedy	-14657
telu	-14658
víte	-14659
zoru	-14660
šela	-14661
žely	-14662
▁140	-14663
▁186	-14664
▁Air	-14665
▁Ará	-14666
▁Bře	-14667
▁Dag	-14668
▁Hal	-14669
▁Hvě	-14670
▁ISO	-14671
▁JED	-14672
▁Kos	-14673
▁Kři	-14674
▁Lar	-14675
▁Mak	-14676
▁POD	-14677
▁Plo	-14678
▁Rei	-14679
▁SNR	-14680
▁SPT	-14681
▁Svě	-14682
▁Thu	-14683
▁Vin	-14684
▁WAV	-14685
▁ari	-14686
▁blu	-14687
▁bro	-14688
▁hmy	-14689
▁hní	-14690
▁lar	-14691
▁lit	-14692
▁mag	-14693
▁pav	-14694
▁shá	-14695
▁tón	-14696
▁uvě	-14697
▁vak	-14698
▁Čar	-14699
▁Číň	-14700
▁Šum	-14701
anech	-14702
ardin	-14703
dejte	-14704
hrozí	-14705
inské	-14706
lejte	-14707
livým	-14708
lníci	-14709
lovar	-14710
mismu	-14711
ovače	-14712
portu	-14713
pravo	-14714
puště	-14715
rický	-14716
růsta	-14717
sloví	-14718
slých	-14719
varní	-14720
verpo	-14721
večer	-14722
znamů	-14723
čtete	-14724
škách	-14725
▁1980	-14726
▁Dopo	-14727
▁Ježí	-14728
▁Jste	-14729
▁Kohl	-14730
▁Meto	-14731
▁Moto	-14732
▁Máte	-14733
▁Nadě	-14734
▁Nemě	-14735
▁Pist	-14736
▁Ruml	-14737
▁Smit	-14738
▁Toho	-14739
▁Vaše	-14740
▁Výše	-14741
▁Znám	-14742
▁bere	-14743
▁bezú	-14744
▁bázi	-14745
▁běží	-14746
▁dech	-14747
▁dere	-14748
▁hold	-14749
▁inze	-14750
▁inzu	-14751
▁jede	-14752
▁kabe	-14753
▁koná	-14754
▁letá	-14755
▁letý	-14756
▁moje	-14757
▁mála	-14758
▁naci	-14759
▁necí	-14760
▁neří	-14761
▁noví	-14762
▁park	-14763
▁pití	-14764
▁pláž	-14765
▁poto	-14766
▁přep	-14767
▁salo	-14768
▁tepe	-14769
▁ture	-14770
▁týmů	-14771
▁ukaz	-14772
▁upev	-14773
▁vina	-14774
▁vlna	-14775
▁vylé	-14776
▁zmír	-14777
▁zvěř	-14778
▁záku	-14779
▁závi	-14780
▁činy	-14781
▁šoku	-14782
▁žalu	-14783
alistů	-14784
bility	-14785
ceného	-14786
ctoria	-14787
enácti	-14788
kovány	-14789
lovali	-14790
lynulo	-14791
nomové	-14792
árních	-14793
ňována	-14794
ženými	-14795
▁Baker	-14796
▁Balká	-14797
▁Hrdli	-14798
▁Keple	-14799
▁Lobko	-14800
▁Městě	-14801
▁Novém	-14802
▁Odhad	-14803
▁Patri	-14804
▁Profe	-14805
▁Publi	-14806
▁Roman	-14807
▁Ruský	-14808
▁Totéž	-14809
▁Tímto	-14810
▁Vědci	-14811
▁Záhře	-14812
▁absen	-14813
▁audio	-14814
▁bezes	-14815
▁bezpe	-14816
▁celky	-14817
▁cestá	-14818
▁cukru	-14819
▁derby	-14820
▁dimen	-14821
▁domku	-14822
▁doplá	-14823
▁dráhu	-14824
▁egypt	-14825
▁etapy	-14826
▁exklu	-14827
▁hřbit	-14828
▁klien	-14829
▁lukra	-14830
▁léčbě	-14831
▁mostu	-14832
▁muzeu	-14833
▁měkký	-14834
▁nefun	-14835
▁novot	-14836
▁nález	-14837
▁obdiv	-14838
▁odvez	-14839
▁okruh	-14840
▁omlou	-14841
▁ošetř	-14842
▁plyná	-14843
▁pociť	-14844
▁posud	-14845
▁počty	-14846
▁přepí	-14847
▁přesá	-14848
▁přibý	-14849
▁renta	-14850
▁rozto	-14851
▁sazby	-14852
▁scéně	-14853
▁sezón	-14854
▁skoku	-14855
▁slevy	-14856
▁sníží	-14857
▁stínu	-14858
▁sérii	-14859
▁sídle	-14860
▁testů	-14861
▁trase	-14862
▁vazbě	-14863
▁veter	-14864
▁vidím	-14865
▁vlivu	-14866
▁vyboj	-14867
▁vzdal	-14868
▁zabrá	-14869
▁zamít	-14870
▁zamýš	-14871
▁zasta	-14872
▁zbraň	-14873
▁zhrou	-14874
▁ústup	-14875
▁účelu	-14876
▁čelit	-14877
entálně	-14878
loviční	-14879
lárních	-14880
možňuje	-14881
tečnost	-14882
▁Akadem	-14883
▁Atleti	-14884
▁Holbro	-14885
▁Karpov	-14886
▁Krátce	-14887
▁Nejsou	-14888
▁Nepomu	-14889
▁Nieder	-14890
▁Násled	-14891
▁Olympu	-14892
▁Pořada	-14893
▁Prodej	-14894
▁Rozhov	-14895
▁Saraje	-14896
▁altrui	-14897
▁analog	-14898
▁anketě	-14899
▁branky	-14900
▁budova	-14901
▁běžným	-14902
▁cenami	-14903
▁cenové	-14904
▁ceremo	-14905
▁cukrov	-14906
▁daného	-14907
▁dařilo	-14908
▁disple	-14909
▁hráčům	-14910
▁hvězda	-14911
▁jazyků	-14912
▁kampaň	-14913
▁kdežto	-14914
▁kolegů	-14915
▁krásné	-14916
▁kurzor	-14917
▁lidové	-14918
▁myslet	-14919
▁najdou	-14920
▁našimi	-14921
▁noveli	-14922
▁odborů	-14923
▁odměnu	-14924
▁odpady	-14925
▁odráží	-14926
▁odvahu	-14927
▁okresu	-14928
▁otravy	-14929
▁partie	-14930
▁podvod	-14931
▁pokutu	-14932
▁polské	-14933
▁povahu	-14934
▁pravdy	-14935
▁pravém	-14936
▁prudce	-14937
▁pětinu	-14938
▁předal	-14939
▁přesný	-14940
▁přidru	-14941
▁přísně	-14942
▁přízna	-14943
▁rezerv	-14944
▁reálná	-14945
▁rychlý	-14946
▁sbírek	-14947
▁sdělit	-14948
▁silami	-14949
▁složku	-14950
▁snažil	-14951
▁souhrn	-14952
▁stoupa	-14953
▁stromů	-14954
▁studii	-14955
▁svědků	-14956
▁světem	-14957
▁tituly	-14958
▁tvrdit	-14959
▁třicát	-14960
▁uvolně	-14961
▁ušetří	-14962
▁vidíte	-14963
▁vrchní	-14964
▁vypořá	-14965
▁zlomen	-14966
▁známou	-14967
▁zrušil	-14968
▁západu	-14969
▁účinku	-14970
▁Červen	-14971
▁časové	-14972
alizovat	-14973
ristické	-14974
telnější	-14975
▁Jediným	-14976
▁Moderní	-14977
▁Pentium	-14978
▁Pithart	-14979
▁Polskem	-14980
▁Pražská	-14981
▁Pražské	-14982
▁Privati	-14983
▁Příklad	-14984
▁Radovan	-14985
▁Siemens	-14986
▁Svorada	-14987
▁cigaret	-14988
▁cizinců	-14989
▁dobrého	-14990
▁dostaly	-14991
▁dělníků	-14992
▁ekvival	-14993
▁element	-14994
▁filmové	-14995
▁herečka	-14996
▁hromada	-14997
▁jedinec	-14998
▁jednost	-14999
▁kliniky	-15000
▁kontinu	-15001
▁lidstva	-15002
▁maličko	-15003
▁meteoro	-15004
▁mrtvých	-15005
▁mužstvu	-15006
▁nemocen	-15007
▁nemožné	-15008
▁nenechá	-15009
▁nevěděl	-15010
▁nějakém	-15011
▁občanům	-15012
▁ohledně	-15013
▁opravit	-15014
▁památky	-15015
▁papíren	-15016
▁platfor	-15017
▁podpisu	-15018
▁pomáhat	-15019
▁postačí	-15020
▁použita	-15021
▁pravice	-15022
▁protein	-15023
▁provedl	-15024
▁přetrvá	-15025
▁přibylo	-15026
▁přístro	-15027
▁redukci	-15028
▁rodinou	-15029
▁sebevra	-15030
▁sleduje	-15031
▁smyslem	-15032
▁spousta	-15033
▁umožnil	-15034
▁ušetřit	-15035
▁vracejí	-15036
▁vrátili	-15037
▁vyvrcho	-15038
▁výhrady	-15039
▁výrazný	-15040
▁znamení	-15041
▁základu	-15042
▁záměrně	-15043
▁zápasem	-15044
▁zárukou	-15045
▁závazek	-15046
▁závislé	-15047
▁záznamu	-15048
▁Ústavní	-15049
▁útočník	-15050
▁členské	-15051
▁Alexandr	-15052
▁Nejdříve	-15053
▁dlužníka	-15054
▁domnívám	-15055
▁dozvěděl	-15056
▁generaci	-15057
▁jednáním	-15058
▁jihoafri	-15059
▁kapacitu	-15060
▁kupónové	-15061
▁manažery	-15062
▁mírových	-15063
▁nejmenší	-15064
▁nesrovna	-15065
▁obecních	-15066
▁obnovení	-15067
▁odborník	-15068
▁oteplení	-15069
▁podobným	-15070
▁polského	-15071
▁poplatků	-15072
▁potvrdit	-15073
▁počítají	-15074
▁pracovně	-15075
▁prochází	-15076
▁prodejce	-15077
▁prodejna	-15078
▁předsedu	-15079
▁překonat	-15080
▁přestane	-15081
▁převzetí	-15082
▁přijímat	-15083
▁případem	-15084
▁separati	-15085
▁sestavit	-15086
▁skutečný	-15087
▁součásti	-15088
▁správnou	-15089
▁stranách	-15090
▁suroviny	-15091
▁tuzemské	-15092
▁vhodných	-15093
▁volejbal	-15094
▁vybaveny	-15095
▁vysílání	-15096
▁zahájena	-15097
▁zemského	-15098
▁zájemcům	-15099
▁základny	-15100
▁Běloruska	-15101
▁americkou	-15102
▁britských	-15103
▁donedávna	-15104
▁filozofii	-15105
▁italského	-15106
▁jaderného	-15107
▁kandidáta	-15108
▁kombinací	-15109
▁kompletní	-15110
▁konfliktu	-15111
▁literární	-15112
▁nákladech	-15113
▁obchodech	-15114
▁ojediněle	-15115
▁otevřenou	-15116
▁označením	-15117
▁pohromadě	-15118
▁posouzení	-15119
▁potraviny	-15120
▁pořadatel	-15121
▁propojení	-15122
▁prosazuje	-15123
▁protagoni	-15124
▁prázdniny	-15125
▁přerušení	-15126
▁příznivců	-15127
▁radikální	-15128
▁relativní	-15129
▁rodinných	-15130
▁skupinách	-15131
▁skutečnou	-15132
▁sluchátka	-15133
▁speciálně	-15134
▁společným	-15135
▁stabilitu	-15136
▁uplatňují	-15137
▁uskutečně	-15138
▁výkonného	-15139
▁zachránit	-15140
▁zbývající	-15141
▁znamenala	-15142
▁Španělsko	-15143
▁Dienstbier	-15144
▁Nejčastěji	-15145
▁automobilu	-15146
▁chorvatské	-15147
▁domácností	-15148
▁hlasováním	-15149
▁iniciativa	-15150
▁klasických	-15151
▁komunismus	-15152
▁mechanismy	-15153
▁největšího	-15154
▁nákladních	-15155
▁originální	-15156
▁podmínkami	-15157
▁pracovišti	-15158
▁prohlašuje	-15159
▁samostatný	-15160
▁souvislost	-15161
▁sovětského	-15162
▁spolehlivě	-15163
▁upozornění	-15164
▁uspokojení	-15165
▁výraznější	-15166
▁výsledcích	-15167
▁zabývající	-15168
▁zajímavých	-15169
▁Federálního	-15170
▁Kazachstánu	-15171
▁Pravděpodob	-15172
▁Západoevrop	-15173
▁alternativy	-15174
▁ekonomickou	-15175
▁hospodářský	-15176
▁jednotlivým	-15177
▁konfiguraci	-15178
▁nedostatkem	-15179
[...]
