<unk>	0
<s>	0
</s>	0
<doc>	0
</doc>	0
<head>	0
</head>	0
<phr>	0
</phr>	0
▁	-1.78872
,	-3.44589
.	-3.57905
u	-4.34782
a	-4.4353
▁a	-4.52509
▁v	-4.5509
m	-4.59755
y	-4.66013
i	-4.66417
▁se	-4.67378
▁na	-4.74304
ch	-4.9565
▁je	-5.21018
▁s	-5.25152
▁z	-5.26312
o	-5.30637
s	-5.31322
á	-5.33433
ho	-5.34302
e	-5.39609
▁"	-5.3979
í	-5.40698
▁že	-5.46405
t	-5.53243
▁do	-5.59098
▁o	-5.62292
é	-5.63925
▁po	-5.66059
ě	-5.67623
ů	-5.67913
ou	-5.696
▁za	-5.71292
em	-5.71737
▁pro	-5.75037
ž	-5.81963
z	-5.92328
▁-	-5.9805
to	-5.98858
▁k	-6.00413
▁V	-6.05292
d	-6.07372
ní	-6.10219
▁to	-6.15632
p	-6.16323
v	-6.17292
ý	-6.17529
▁ve	-6.1764
l	-6.18759
mi	-6.19957
▁(	-6.20535
k	-6.23414
▁od	-6.24374
ně	-6.27886
▁by	-6.30159
r	-6.31943
▁S	-6.37733
▁při	-6.38646
▁ale	-6.40309
▁i	-6.41498
>	-6.41649
ce	-6.42594
▁vy	-6.43501
b	-6.43735
▁ne	-6.43954
na	-6.44169
▁si	-6.50482
ých	-6.51252
li	-6.56004
te	-6.58961
▁jsou	-6.59192
▁jako	-6.60836
▁které	-6.64316
ná	-6.64595
me	-6.64998
la	-6.65826
ku	-6.65852
ka	-6.65896
č	-6.66564
ci	-6.66984
le	-6.67222
né	-6.69981
)	-6.70346
▁však	-6.72109
st	-6.74769
x	-6.75695
▁tak	-6.7607
▁:	-6.76379
n	-6.77547
it	-6.79164
▁Po	-6.81876
lo	-6.82171
š	-6.83208
▁který	-6.83752
▁před	-6.84369
▁A	-6.86535
ové	-6.86843
h	-6.89487
ky	-6.89906
▁nebo	-6.90295
j	-6.90754
c	-6.92445
▁jeho	-6.92612
▁bude	-6.93569
uje	-6.96132
?	-6.96203
▁jen	-6.99627
ého	-7.00129
▁Z	-7.01949
en	-7.0423
mu	-7.0449
▁Na	-7.05522
ovat	-7.06558
ni	-7.0658
▁než	-7.08149
▁O	-7.08297
▁má	-7.08591
ek	-7.12537
▁už	-7.13316
g	-7.14567
in	-7.14772
ří	-7.15359
▁pře	-7.158
nou	-7.16257
▁aby	-7.16577
ech	-7.16928
ze	-7.17061
ře	-7.17543
▁jak	-7.17677
no	-7.18045
▁P	-7.18594
▁byl	-7.18811
▁jejich	-7.19998
ta	-7.20016
f	-7.20455
▁být	-7.21261
▁jsem	-7.21335
al	-7.21514
vá	-7.21944
▁K	-7.2279
▁až	-7.23712
▁Je	-7.24321
že	-7.25588
▁která	-7.26046
po	-7.26187
▁také	-7.26792
jí	-7.28141
cí	-7.28889
▁podle	-7.29457
ný	-7.29968
▁jsme	-7.30013
ová	-7.30533
▁<	-7.31152
il	-7.32014
ru	-7.32808
ro	-7.3418
ti	-7.35133
ne	-7.3541
ra	-7.35427
ým	-7.36543
ko	-7.37878
▁ze	-7.37886
ování	-7.38723
▁mezi	-7.39576
▁co	-7.40323
vě	-7.43333
▁není	-7.43613
lu	-7.44524
▁let	-7.4512
▁ani	-7.46066
▁bylo	-7.46787
ř	-7.4714
pl	-7.47176
▁své	-7.47187
▁pod	-7.47733
▁roz	-7.48829
▁ještě	-7.49447
▁či	-7.49673
ách	-7.49793
▁již	-7.50142
▁Ne	-7.50669
on	-7.51498
▁když	-7.51529
▁může	-7.52544
va	-7.52725
ma	-7.53183
ské	-7.53938
ných	-7.54073
▁korun	-7.5408
ov	-7.54543
ují	-7.54797
▁ob	-7.54873
▁byla	-7.54902
or	-7.55826
kud	-7.55987
▁M	-7.5607
▁toho	-7.56487
ových	-7.57013
ba	-7.57046
čí	-7.57754
/	-7.5801
ny	-7.58167
ň	-7.58568
ři	-7.5984
▁To	-7.59846
če	-7.60591
da	-7.61058
kou	-7.61207
el	-7.61307
).	-7.61701
▁J	-7.61796
lá	-7.63229
at	-7.63242
▁bez	-7.63339
vý	-7.63501
▁pak	-7.63608
▁H	-7.6487
▁další	-7.65217
▁kteří	-7.67119
▁D	-7.6732
▁kde	-7.6758
▁Do	-7.67795
▁tím	-7.68792
S	-7.69029
ost	-7.69645
▁U	-7.69944
ví	-7.70827
▁více	-7.70884
er	-7.71507
tu	-7.7198
ům	-7.72499
děl	-7.72744
▁tedy	-7.73426
▁první	-7.73767
▁roku	-7.73859
▁té	-7.73981
ním	-7.746
D	-7.76895
se	-7.77418
),	-7.77712
je	-7.78148
▁nich	-7.78433
▁I	-7.78951
▁Za	-7.79929
tě	-7.80469
▁Pro	-7.80754
▁musí	-7.80804
tr	-7.80976
vol	-7.8109
ovi	-7.8131
ri	-7.8184
▁kdy	-7.81974
lí	-7.82948
▁mají	-7.83037
cích	-7.83428
▁B	-7.83834
vi	-7.84021
ly	-7.84276
▁proti	-7.85174
nu	-7.86107
▁nej	-7.8766
▁roce	-7.87807
▁pouze	-7.88061
-	-7.88303
▁G	-7.88817
▁nad	-7.88904
kr	-7.8989
▁tu	-7.90234
▁tom	-7.90269
▁proto	-7.9113
ty	-7.91215
▁ke	-7.91528
▁tomu	-7.91785
de	-7.9205
P	-7.9248
ného	-7.92644
re	-7.92709
▁vlastní	-7.93655
ší	-7.93903
hr	-7.94092
▁budou	-7.94788
ků	-7.95442
6	-7.95598
ém	-7.95673
▁třeba	-7.9587
ace	-7.9614
by	-7.96181
ový	-7.96269
ha	-7.96278
▁F	-7.9636
an	-7.96496
M	-7.96521
▁protože	-7.97203
▁li	-7.97264
oval	-7.97885
▁totiž	-7.97922
▁lze	-7.98961
či	-7.99156
▁nás	-7.9919
T	-7.99193
nost	-7.99601
▁přes	-7.99931
še	-8.00548
ká	-8.00948
▁asi	-8.01775
ních	-8.0189
▁její	-8.02032
ve	-8.0224
▁ú	-8.02659
▁L	-8.03241
od	-8.03611
▁Při	-8.03933
du	-8.04181
ry	-8.04574
▁poslední	-8.04629
5	-8.04677
ově	-8.05002
▁ji	-8.05148
▁velmi	-8.05386
▁byly	-8.05508
▁měl	-8.05882
▁zatím	-8.05977
2	-8.06032
▁T	-8.06077
▁řekl	-8.06299
co	-8.06341
osti	-8.06861
is	-8.0691
ží	-8.09047
bu	-8.09051
▁včera	-8.10673
▁Ko	-8.11075
▁tisíc	-8.11151
za	-8.11753
ská	-8.1208
ovou	-8.12515
pr	-8.12728
dí	-8.12852
ců	-8.12898
ového	-8.12983
us	-8.13103
ení	-8.13304
tá	-8.1461
▁dnes	-8.14789
▁všech	-8.14789
hl	-8.14944
N	-8.15025
kem	-8.15259
▁C	-8.15805
pe	-8.15891
si	-8.15921
▁Š	-8.15961
4	-8.15961
▁dva	-8.16041
▁firmy	-8.16073
C	-8.16278
ských	-8.16561
▁19	-8.16703
tra	-8.17585
ami	-8.17877
▁především	-8.18379
7	-8.18471
nější	-8.18518
str	-8.1893
B	-8.19177
ující	-8.19179
▁Jak	-8.19345
▁Ve	-8.20118
3	-8.20238
▁nám	-8.20254
ský	-8.20347
ální	-8.20753
kon	-8.20843
▁případě	-8.20877
dr	-8.20959
V	-8.20972
▁ty	-8.21007
tí	-8.21061
▁dvou	-8.21191
ným	-8.21465
ši	-8.21478
▁'	-8.21726
pra	-8.22228
K	-8.22396
▁například	-8.22498
▁rok	-8.22543
R	-8.23176
ích	-8.23217
▁procent	-8.23342
lé	-8.23368
▁mít	-8.2405
▁Co	-8.24449
▁jim	-8.24527
pa	-8.24723
ické	-8.25413
I	-8.25475
▁tři	-8.25614
▁době	-8.25672
ím	-8.25783
▁nyní	-8.25785
val	-8.25829
ar	-8.2593
▁zda	-8.25988
▁de	-8.27108
ám	-8.27152
▁kon	-8.27828
aci	-8.27983
ol	-8.28272
právě	-8.2828
▁Podl	-8.29324
nosti	-8.29371
ec	-8.29474
spo	-8.29909
dy	-8.30546
▁mohou	-8.30681
▁lidí	-8.30768
O	-8.30883
▁společnosti	-8.31008
▁jeden	-8.31086
▁práce	-8.31122
▁stále	-8.31727
1	-8.31799
stav	-8.31814
ček	-8.32174
▁těchto	-8.32341
▁ovšem	-8.32466
ými	-8.32508
ční	-8.32569
U	-8.326
▁E	-8.32614
▁všechny	-8.32754
et	-8.33027
lou	-8.33649
9	-8.34297
ského	-8.34652
0	-8.34742
▁několik	-8.3491
▁re	-8.34949
▁Ale	-8.35543
vod	-8.35758
...	-8.36323
▁něm	-8.36514
▁nez	-8.3657
ter	-8.36699
ji	-8.36749
▁kterou	-8.36845
ila	-8.37138
w	-8.37315
▁což	-8.3746
▁mě	-8.38333
▁větší	-8.38519
▁W	-8.38602
vr	-8.39033
man	-8.3949
▁tento	-8.39643
ací	-8.40454
ova	-8.40719
▁pří	-8.41008
vat	-8.41739
▁možné	-8.41919
▁jednání	-8.41988
fi	-8.42456
ur	-8.42547
ili	-8.42768
ť	-8.42886
▁České	-8.43125
dob	-8.43144
▁stát	-8.43404
os	-8.43603
klad	-8.43826
zí	-8.43895
▁dalších	-8.43955
stup	-8.44213
▁Od	-8.44448
bě	-8.44661
cela	-8.44851
▁R	-8.45114
▁nové	-8.4519
ští	-8.45332
vy	-8.454
há	-8.45552
▁mu	-8.45619
vo	-8.45728
lit	-8.45914
sti	-8.45967
▁ČR	-8.46501
ob	-8.46597
▁měla	-8.46639
L	-8.4664
▁kdo	-8.46708
▁naše	-8.46901
▁Praze	-8.47263
mat	-8.47362
op	-8.47756
▁zejména	-8.47855
ot	-8.47961
pis	-8.48109
ání	-8.4819
téměř	-8.4823
hu	-8.483
Á	-8.48524
▁zařízení	-8.48653
▁základní	-8.48673
▁svou	-8.48867
br	-8.48878
▁3	-8.4913
▁Vy	-8.49238
8	-8.49477
▁10	-8.49933
▁jde	-8.50576
▁Proto	-8.50715
▁strany	-8.50965
▁část	-8.51027
▁možnost	-8.521
▁neu	-8.52192
ič	-8.52428
nout	-8.52515
▁naši	-8.52531
▁prostředí	-8.52657
▁systém	-8.52666
ing	-8.52699
pat	-8.53079
▁letech	-8.53438
ované	-8.54089
rod	-8.54107
▁čas	-8.54127
▁sice	-8.54167
let	-8.5427
es	-8.54299
▁dvě	-8.54355
▁Kdy	-8.54374
vedl	-8.54527
▁svého	-8.54591
▁každý	-8.55292
ního	-8.55615
▁svět	-8.55629
▁svých	-8.55735
▁jiné	-8.56132
▁zákon	-8.56734
Z	-8.56922
ační	-8.57025
▁nejen	-8.57029
ají	-8.57152
▁nepo	-8.57314
sta	-8.57346
ú	-8.57474
▁Ch	-8.58396
▁místo	-8.58594
▁země	-8.58666
▁nevy	-8.588
▁4	-8.58901
A	-8.58971
▁obchodní	-8.59307
F	-8.59547
ven	-8.59645
▁uvedl	-8.59699
ství	-8.59811
án	-8.60023
▁tomto	-8.60025
ant	-8.60065
nit	-8.60087
▁světa	-8.60128
E	-8.6016
▁Ro	-8.60282
▁Te	-8.60325
▁postup	-8.60425
ovali	-8.6069
▁zde	-8.61235
▁Tak	-8.61498
per	-8.61652
nov	-8.61812
▁N	-8.61996
▁druhé	-8.62029
sp	-8.62315
▁způsob	-8.63193
▁milionů	-8.63761
nik	-8.63849
men	-8.63925
▁000	-8.63928
▁hodin	-8.64012
form	-8.64012
as	-8.64369
▁sociální	-8.64948
▁něco	-8.65005
00	-8.65027
▁svým	-8.65144
▁vlády	-8.6517
ník	-8.65448
ga	-8.66056
▁nic	-8.66197
▁stejně	-8.66642
▁5	-8.6667
▁říká	-8.66886
▁nedo	-8.67177
cen	-8.67294
▁sto	-8.67964
▁některé	-8.68211
▁kolem	-8.68223
▁Bo	-8.68627
ali	-8.68894
skou	-8.6913
▁ceny	-8.69139
▁nes	-8.69545
▁zboží	-8.6974
▁zákona	-8.69803
▁tam	-8.69907
▁Jan	-8.7054
▁pracovní	-8.70623
ste	-8.70808
▁Ma	-8.70879
▁opět	-8.71391
%	-8.71492
▁oblasti	-8.71672
té	-8.71968
▁2	-8.72121
▁dobře	-8.72188
▁příliš	-8.72235
▁6	-8.7225
kov	-8.72303
▁patří	-8.72411
▁program	-8.72521
▁několika	-8.72813
gr	-8.72842
▁finanční	-8.72889
▁svůj	-8.73069
▁dosud	-8.7308
▁některých	-8.73449
▁práci	-8.73749
▁Se	-8.74059
▁firma	-8.74089
ář	-8.7419
▁zemí	-8.742
čka	-8.74342
▁%	-8.74785
▁osob	-8.74859
▁prezident	-8.74973
▁vůbec	-8.7512
do	-8.75598
▁1	-8.75789
▁byli	-8.75904
sk	-8.75967
ovací	-8.76213
▁vždy	-8.76323
▁období	-8.76863
ice	-8.77075
▁pa	-8.77363
▁pět	-8.77698
▁neboť	-8.77712
zn	-8.77747
▁státní	-8.77815
▁výstav	-8.77903
▁největší	-8.77922
ovala	-8.77952
ovým	-8.78036
sku	-8.78085
ik	-8.78117
▁zájem	-8.78248
▁ten	-8.78514
dní	-8.7855
▁zahraniční	-8.7904
▁velký	-8.79356
ck	-8.79741
hy	-8.79939
▁půl	-8.80449
žen	-8.80506
▁rozdíl	-8.80828
rad	-8.80912
ber	-8.80928
▁nejsou	-8.81176
▁Ta	-8.81384
▁často	-8.81508
▁sebe	-8.81631
▁vyšší	-8.81673
rů	-8.81705
▁střední	-8.81841
ev	-8.81931
▁Re	-8.8223
▁velké	-8.8228
▁nemá	-8.82364
kové	-8.82599
▁20	-8.82903
ul	-8.83005
▁systému	-8.83292
▁dokonce	-8.83399
▁USA	-8.83409
▁Le	-8.83484
kl	-8.83588
▁jedn	-8.83614
▁jste	-8.83794
ější	-8.83975
▁jež	-8.84067
▁přímo	-8.84181
▁vše	-8.84401
hled	-8.84492
▁společnost	-8.8467
▁Ty	-8.84801
▁neza	-8.84941
ad	-8.85009
▁čtyři	-8.85265
álně	-8.85318
olog	-8.8534
▁měli	-8.85365
▁sám	-8.85454
mluv	-8.85474
:	-8.85621
▁Má	-8.85746
▁Č	-8.85818
▁Kč	-8.85864
▁prodej	-8.85956
▁lidé	-8.86087
▁St	-8.8622
▁ředitel	-8.86259
▁celé	-8.8628
nění	-8.86297
▁části	-8.86371
jde	-8.86748
▁cen	-8.86764
▁doby	-8.86991
▁nebude	-8.86996
rt	-8.8705
během	-8.87127
▁Js	-8.8722
ed	-8.87367
▁rovněž	-8.87618
▁snad	-8.87706
▁Před	-8.8785
▁výkon	-8.88061
▁den	-8.88061
▁stav	-8.88067
▁začal	-8.88152
id	-8.88234
kol	-8.88345
bou	-8.88381
▁informace	-8.88399
▁níž	-8.88433
plat	-8.88495
ském	-8.8852
▁1992	-8.88602
▁Mo	-8.88816
up	-8.88944
▁trhu	-8.88969
sko	-8.89112
▁vám	-8.89147
▁První	-8.89201
▁nimi	-8.89277
vní	-8.89283
▁boj	-8.89467
▁mnoho	-8.89707
vůli	-8.89719
včetně	-8.89997
▁tří	-8.90034
▁život	-8.90037
▁trh	-8.90192
zřejmě	-8.90253
▁soud	-8.90349
▁situace	-8.90391
▁počet	-8.90452
▁mohl	-8.90586
▁takže	-8.906
čení	-8.90793
▁zahraničí	-8.91199
▁Pa	-8.91352
ran	-8.91976
rán	-8.91997
▁životní	-8.92022
▁Ob	-8.921
▁kontrol	-8.92418
tato	-8.9243
▁návrh	-8.92642
▁ex	-8.92669
níci	-8.9309
▁méně	-8.93236
▁Pří	-8.93316
por	-8.93338
▁např	-8.93502
▁ministr	-8.93714
▁obchod	-8.93901
▁současné	-8.93934
▁spolu	-8.94045
▁Evropy	-8.9408
▁peníze	-8.9408
▁řešení	-8.94144
▁trenér	-8.94499
▁takové	-8.94787
čin	-8.9488
▁vedení	-8.94909
▁Zatím	-8.94944
▁víc	-8.94955
nes	-8.95029
▁Li	-8.95067
ném	-8.95154
▁něj	-8.95483
jezd	-8.95824
▁jedna	-8.95827
▁podíl	-8.96098
▁chce	-8.96127
▁dost	-8.96225
▁způsobem	-8.96228
itel	-8.96389
ován	-8.96439
▁Ka	-8.96633
šel	-8.96674
▁člověk	-8.96715
he	-8.96943
nice	-8.96945
iště	-8.96945
▁spíše	-8.97067
▁význam	-8.97075
▁české	-8.97332
▁dále	-8.97352
▁republiky	-8.97353
▁Pod	-8.97472
ment	-8.97633
▁bo	-8.97694
▁di	-8.97995
▁mezinárodní	-8.98086
▁Tr	-8.98312
sky	-8.98323
▁navíc	-8.98348
be	-8.98352
▁přitom	-8.98395
▁rozhodnutí	-8.98424
jší	-8.98469
G	-8.98557
H	-8.98804
ilo	-8.98851
▁dobu	-8.99008
▁znamená	-8.99206
▁vlastně	-8.99293
▁šest	-8.99412
▁jednotlivý	-8.99451
▁15	-8.99463
tur	-8.99569
▁problémy	-8.99639
▁jednoho	-8.99671
▁mimo	-8.99691
ač	-8.99817
pro	-8.99833
▁pan	-8.99931
▁naopak	-9.00105
krát	-9.00114
▁znovu	-9.00116
▁plán	-9.0013
▁prostor	-9.0016
ska	-9.00194
▁Ú	-9.00317
▁množství	-9.0055
▁Mi	-9.0056
▁mo	-9.00848
dle	-9.01009
▁chyb	-9.01031
▁Nej	-9.01324
ď	-9.01395
ud	-9.01468
▁provoz	-9.01596
nt	-9.01688
▁letošní	-9.02223
▁naší	-9.02347
voz	-9.02369
var	-9.02417
▁skutečně	-9.02463
nými	-9.02551
▁města	-9.02551
▁Petr	-9.02666
ště	-9.02854
▁platí	-9.02975
▁straně	-9.03118
gen	-9.03253
▁většinou	-9.03257
iz	-9.03286
▁určen	-9.03366
ák	-9.03414
▁zhruba	-9.0378
ir	-9.03792
rn	-9.03984
▁slov	-9.04027
▁základ	-9.04135
▁1.	-9.0414
íme	-9.04235
▁jaké	-9.04426
▁vývoj	-9.04494
▁dlouho	-9.0461
▁Vý	-9.04913
▁obě	-9.04918
Í	-9.05034
ovaných	-9.05239
▁Al	-9.05311
▁kole	-9.05369
▁vláda	-9.05472
ST	-9.05501
šlo	-9.05523
▁řízení	-9.05526
kách	-9.0555
▁území	-9.05572
▁text	-9.0573
bud	-9.05888
ón	-9.05939
▁Jiří	-9.06044
▁nejlepší	-9.06072
▁jiných	-9.06086
ér	-9.06133
▁deset	-9.06357
▁jej	-9.06396
▁nelze	-9.06515
▁minut	-9.06519
▁celý	-9.06527
nil	-9.06731
les	-9.06848
▁firem	-9.06989
bor	-9.07098
▁bych	-9.07236
▁Zá	-9.07335
▁nemoc	-9.07459
▁zase	-9.07517
mysl	-9.0766
▁projekt	-9.07742
▁hor	-9.07834
▁Ná	-9.07895
vede	-9.07944
hal	-9.08041
▁letos	-9.08075
▁smlouvy	-9.08422
▁tzv	-9.08472
raz	-9.08479
▁dolarů	-9.0849
▁vedoucí	-9.08959
ner	-9.09085
▁problém	-9.09348
▁podnik	-9.09416
zen	-9.09605
▁pěti	-9.09619
▁Václav	-9.0966
▁jedné	-9.09867
▁kom	-9.09988
ající	-9.10111
▁představ	-9.10133
▁pomocí	-9.10201
▁lepší	-9.10373
▁Da	-9.10411
▁model	-9.10535
ak	-9.10573
▁druhý	-9.10801
tní	-9.11028
▁Byl	-9.11086
ému	-9.11145
▁plat	-9.11183
▁činnosti	-9.11257
▁roky	-9.1128
RA	-9.11307
▁vyh	-9.11386
▁prohlásil	-9.11469
▁jedno	-9.11534
▁třetí	-9.11557
▁In	-9.1173
pt	-9.119
▁prav	-9.11902
dra	-9.12409
ického	-9.1247
▁Přesto	-9.12472
dů	-9.12531
▁dál	-9.12666
▁znám	-9.12699
lin	-9.12776
ovém	-9.12845
▁Další	-9.12857
▁7	-9.13088
▁obraz	-9.13133
▁vás	-9.13143
▁moc	-9.13179
▁jednou	-9.13189
▁málo	-9.13213
▁různých	-9.13413
▁světě	-9.13468
rát	-9.13483
kla	-9.13487
koli	-9.13659
tek	-9.13721
▁později	-9.13872
▁vstup	-9.13917
▁americké	-9.14002
ických	-9.14041
▁hlavní	-9.14157
fr	-9.14229
▁konce	-9.14265
▁plyn	-9.14383
fo	-9.14651
▁nemůže	-9.14793
pol	-9.14986
▁můžete	-9.1509
stal	-9.15347
▁30	-9.15385
▁zdravotní	-9.15408
▁ČSFR	-9.15408
▁menší	-9.15419
▁státu	-9.15479
▁18	-9.15951
▁nepři	-9.15954
nese	-9.15985
▁člověka	-9.16327
▁programu	-9.16378
▁bývalé	-9.16432
▁Evropě	-9.16447
▁já	-9.16464
ována	-9.16728
▁svobod	-9.1697
▁století	-9.16971
▁řád	-9.16994
▁tým	-9.17139
▁majitel	-9.1723
▁skupiny	-9.17237
▁podniku	-9.17315
▁věd	-9.17426
rob	-9.17434
▁služby	-9.17496
▁kam	-9.17548
▁autor	-9.17564
▁dá	-9.17593
▁Lu	-9.17601
nul	-9.17624
▁věci	-9.17764
▁Pře	-9.17799
▁hlas	-9.18099
tře	-9.18197
▁led	-9.18239
▁činnost	-9.1825
▁CD	-9.18502
▁domácí	-9.18505
▁funkce	-9.18558
▁jinak	-9.18564
aj	-9.18639
▁prý	-9.18659
ig	-9.18732
▁16	-9.18842
kor	-9.19135
měř	-9.19276
▁fakt	-9.19281
▁zároveň	-9.19286
▁mělo	-9.19323
▁škol	-9.19542
▁situaci	-9.1963
▁nových	-9.19842
▁dnešní	-9.20172
▁dobré	-9.20193
▁La	-9.20236
ele	-9.20256
▁list	-9.20293
ené	-9.20309
znal	-9.20373
▁připraven	-9.20714
▁možná	-9.20714
▁snímku	-9.20718
bl	-9.20876
potřeb	-9.20916
čil	-9.20926
▁malé	-9.2101
iny	-9.21075
▁obou	-9.21084
viz	-9.21127
▁náklady	-9.21142
vin	-9.21257
▁stojí	-9.21383
▁100	-9.21581
▁přesto	-9.21581
▁oprav	-9.2175
▁Ho	-9.21957
▁ostatní	-9.21989
▁prvním	-9.22079
ily	-9.2208
tů	-9.22284
▁titul	-9.22369
▁republik	-9.22451
ův	-9.22465
▁stran	-9.22553
čky	-9.22654
▁místní	-9.22654
atel	-9.22719
▁máme	-9.22757
▁Ten	-9.22902
▁1993	-9.22918
▁děti	-9.22919
▁11	-9.22963
▁tvrdí	-9.22987
▁mohli	-9.23103
▁Rad	-9.2317
kul	-9.23274
dit	-9.23369
▁měly	-9.23373
nutí	-9.23375
átor	-9.23447
▁cenu	-9.23558
▁De	-9.2356
slov	-9.23798
NÍ	-9.23973
▁získat	-9.24038
▁Praha	-9.24039
▁vů	-9.24504
▁vyp	-9.24527
bychom	-9.25008
▁osm	-9.25045
▁určité	-9.25078
ární	-9.25156
▁států	-9.25165
▁majetku	-9.25171
▁dokument	-9.25172
▁nakonec	-9.25173
del	-9.25274
ic	-9.25297
▁ode	-9.25367
▁Kr	-9.25381
▁všechno	-9.25402
▁těch	-9.25435
▁toto	-9.25448
▁nikdy	-9.25751
▁vz	-9.25756
ovaný	-9.25889
▁9	-9.25891
mer	-9.25928
▁čtyř	-9.2605
▁neo	-9.26113
▁25	-9.26232
ct	-9.26245
▁17	-9.26263
▁případ	-9.26442
ící	-9.26495
kládá	-9.26625
▁právní	-9.26634
Č	-9.26642
▁čtvrt	-9.26707
▁premiér	-9.26707
▁Ba	-9.26717
ovány	-9.2679
▁výši	-9.26806
jem	-9.26929
tisk	-9.27042
▁podniků	-9.27097
pokoj	-9.27294
▁Mar	-9.27395
▁14	-9.2741
▁papír	-9.27489
gu	-9.27511
▁pár	-9.27546
▁svém	-9.27579
čet	-9.27584
res	-9.27948
▁souhlas	-9.28062
▁vliv	-9.28144
stoupil	-9.28158
▁dříve	-9.2819
▁obyvatel	-9.28289
lem	-9.28293
ici	-9.28347
▁dne	-9.28512
▁nového	-9.28711
nem	-9.28744
▁vody	-9.28789
počíta	-9.2879
ložit	-9.28843
▁možnosti	-9.28917
vání	-9.29045
▁test	-9.29056
▁místě	-9.29091
▁lety	-9.29128
▁osobní	-9.29188
▁dat	-9.29197
▁sobotu	-9.29242
▁Prahy	-9.29242
▁zdá	-9.29311
▁nebyl	-9.29377
ala	-9.29492
lek	-9.29508
ge	-9.29539
▁bod	-9.29557
ková	-9.2956
nek	-9.29594
▁proč	-9.29682
CH	-9.29719
vil	-9.2981
▁nutné	-9.29838
▁kdyby	-9.29986
▁deseti	-9.30052
▁odbor	-9.30077
rat	-9.3026
▁týden	-9.30304
chází	-9.3032
nské	-9.30569
▁stavu	-9.30614
▁Br	-9.30641
▁Cen	-9.30905
OS	-9.3127
▁parlamentu	-9.31285
▁předseda	-9.3135
ovaly	-9.314
ang	-9.31511
fe	-9.31595
ver	-9.31609
▁Ž	-9.31693
▁zisk	-9.3173
▁12	-9.31738
▁Tento	-9.3191
▁ministerstva	-9.32254
▁pohled	-9.32265
▁svaz	-9.32294
▁zemi	-9.32324
▁přece	-9.32473
▁bychom	-9.32544
ej	-9.32719
▁vítěz	-9.32851
▁telefon	-9.33082
▁změn	-9.33274
▁Tato	-9.33305
ó	-9.3334
nos	-9.33425
▁informací	-9.33485
▁organizace	-9.33485
▁policie	-9.33485
▁všichni	-9.33485
vou	-9.33527
▁samozřejmě	-9.33563
▁akce	-9.33577
▁potom	-9.33589
dl	-9.33661
nk	-9.33776
▁rychle	-9.3407
▁přístup	-9.34109
▁nikdo	-9.34112
▁střed	-9.3421
▁poté	-9.34215
▁můžeme	-9.34315
▁Není	-9.34355
ický	-9.34407
▁živ	-9.34494
bar	-9.34622
▁nový	-9.34663
▁Klaus	-9.3475
▁hlavně	-9.34755
▁vys	-9.34823
▁poměrně	-9.34872
nebo	-9.35004
▁skupin	-9.35173
▁českých	-9.35194
▁původní	-9.35233
tem	-9.35254
▁Kromě	-9.3536
▁nižší	-9.3536
ským	-9.35398
▁film	-9.35448
J	-9.35694
▁dodal	-9.35822
▁věcí	-9.35828
šť	-9.35883
▁sdružení	-9.35993
kami	-9.35993
trochu	-9.35993
▁návštěv	-9.36002
ké	-9.3601
byl	-9.36063
▁dvěma	-9.36139
▁prezidenta	-9.36276
▁krok	-9.36425
▁člen	-9.36458
nka	-9.36474
▁něho	-9.36477
mír	-9.36481
▁doprav	-9.36633
▁schopn	-9.36769
nci	-9.36793
Š	-9.3693
vu	-9.37035
▁cena	-9.3717
▁výrazně	-9.37256
▁SSSR	-9.37271
▁sobě	-9.37284
▁efekt	-9.3731
▁Ti	-9.37381
▁Di	-9.37408
▁sta	-9.37473
ster	-9.37503
▁50	-9.37566
▁Jana	-9.37673
▁klub	-9.37707
Ž	-9.37825
tvo	-9.37833
▁prohlášení	-9.37916
▁Mezi	-9.37931
býval	-9.37931
ujeme	-9.37992
ická	-9.37993
▁chod	-9.38226
▁200	-9.38315
ovy	-9.38374
ané	-9.38402
▁výhod	-9.38417
prve	-9.38526
▁podmínky	-9.38565
▁komise	-9.38566
▁Jestli	-9.38567
▁někdy	-9.38568
jedná	-9.38642
▁žádné	-9.38789
nici	-9.38854
▁Jako	-9.38855
▁budov	-9.39048
▁vod	-9.39151
ovalo	-9.39153
ika	-9.39251
dal	-9.3927
ností	-9.39328
graf	-9.39341
▁obsah	-9.39493
▁večer	-9.3951
▁pís	-9.39653
▁základě	-9.39708
▁spoj	-9.39747
▁13	-9.39749
ření	-9.39754
▁služeb	-9.39877
▁výroby	-9.39877
▁mnoh	-9.39902
▁zemích	-9.39935
ca	-9.4008
jich	-9.40095
▁západní	-9.40156
der	-9.40292
▁Evropské	-9.40323
▁kromě	-9.40354
▁došlo	-9.40417
ard	-9.40484
▁většina	-9.40539
▁vzor	-9.40642
zo	-9.40701
▁Pr	-9.40782
inter	-9.40849
van	-9.40897
vali	-9.41
▁projev	-9.41022
▁An	-9.41055
hle	-9.41071
tor	-9.41153
dním	-9.41165
▁podporu	-9.41251
▁růst	-9.41288
▁čím	-9.41522
▁místa	-9.41584
cké	-9.41686
▁hned	-9.41893
držel	-9.419
▁dr	-9.42001
▁hra	-9.42024
▁rodin	-9.42068
rop	-9.42076
▁mnoha	-9.42443
▁šesti	-9.42471
dla	-9.4249
▁peněz	-9.42553
▁tvoří	-9.42567
▁závod	-9.42592
▁nejvyšší	-9.42676
hla	-9.428
▁Ku	-9.42912
▁miliard	-9.42962
▁názor	-9.42977
▁práv	-9.43093
sil	-9.43121
▁pomoc	-9.43207
▁tehdy	-9.43233
▁jich	-9.43237
▁jistě	-9.43244
▁rozpočtu	-9.43244
▁objekt	-9.43255
▁života	-9.43272
▁výbor	-9.43319
py	-9.43342
▁uměl	-9.43371
▁pokus	-9.43383
brán	-9.43609
zv	-9.43686
▁sedm	-9.43691
▁start	-9.43707
bal	-9.43874
▁8	-9.43915
▁vysoké	-9.43918
▁hry	-9.44018
▁1991	-9.44136
▁muž	-9.44251
▁nějak	-9.44328
▁malý	-9.44495
▁pořád	-9.44552
▁dosavadní	-9.44607
▁vyhrál	-9.44608
▁vítězství	-9.44628
▁nepro	-9.44632
▁teď	-9.44643
▁správ	-9.44733
▁východní	-9.44736
mohlo	-9.44759
▁Čí	-9.44763
ok	-9.44774
▁založen	-9.4495
▁milionu	-9.44983
▁členů	-9.45041
▁nebylo	-9.45191
dom	-9.45197
▁manžel	-9.45284
▁prosince	-9.45302
▁nena	-9.45303
▁poprvé	-9.45308
▁ploch	-9.4531
▁prostředky	-9.45314
▁úřad	-9.45325
▁úkol	-9.4537
proti	-9.45427
▁40	-9.45442
ide	-9.45764
▁chtěl	-9.45783
mohla	-9.45853
▁neod	-9.45961
alo	-9.45969
▁konkrétní	-9.46001
▁unie	-9.46013
nic	-9.46122
▁spor	-9.46258
kat	-9.46268
slav	-9.4627
tky	-9.46279
nd	-9.46512
▁žádný	-9.4652
▁post	-9.46532
▁her	-9.46544
and	-9.46631
▁spolupráci	-9.46705
▁výsledky	-9.46705
▁opatření	-9.46705
▁zůstal	-9.46709
▁teprve	-9.46731
▁dal	-9.46909
▁rozvoj	-9.46921
řad	-9.47062
den	-9.4722
▁vznik	-9.47267
par	-9.47307
go	-9.47363
▁díl	-9.47438
▁politické	-9.47642
▁zas	-9.47717
čku	-9.47725
▁času	-9.47841
ina	-9.47909
▁stud	-9.47946
cím	-9.47955
pad	-9.47957
šti	-9.48023
▁ODS	-9.48095
▁1994	-9.48129
▁prakticky	-9.48129
▁sil	-9.48165
▁vnitřní	-9.48279
rak	-9.48522
▁Du	-9.48543
▁Ar	-9.4866
▁skutečnost	-9.48712
měr	-9.48762
▁jenž	-9.48792
▁Roz	-9.48829
▁hlediska	-9.48848
▁manažer	-9.48848
▁prostřednictví	-9.48849
▁utkání	-9.48917
▁Gr	-9.49002
▁výběr	-9.49006
plav	-9.49118
ňuje	-9.49172
▁šéf	-9.49319
▁stejné	-9.49361
▁nep	-9.49398
▁republice	-9.49573
pravidla	-9.49573
stane	-9.49574
▁velice	-9.49583
▁stál	-9.49654
▁celou	-9.49667
tím	-9.49821
▁ministra	-9.49934
▁dostal	-9.49941
pustil	-9.50004
▁procenta	-9.50138
▁někdo	-9.50305
inu	-9.50322
▁celkové	-9.50371
▁úspěch	-9.50469
▁daně	-9.50523
ostí	-9.50581
len	-9.50768
▁jejím	-9.50787
ovaná	-9.50902
kli	-9.51029
▁dispozici	-9.51038
▁následující	-9.51039
cký	-9.51196
▁nepře	-9.51201
▁syn	-9.51202
▁souvislosti	-9.51318
port	-9.51342
óz	-9.51353
50	-9.51365
▁24	-9.51386
▁auto	-9.51463
št	-9.51486
▁Jelcin	-9.51578
ává	-9.51638
díky	-9.51655
▁1990	-9.51779
▁mluvčí	-9.51796
▁Že	-9.51824
▁prv	-9.51899
▁typu	-9.52013
▁musel	-9.5208
▁kterým	-9.52127
lék	-9.5219
▁řadu	-9.52238
▁sestav	-9.52324
▁záměr	-9.52528
▁přechod	-9.52534
▁rámci	-9.52536
▁nákup	-9.52636
▁Jen	-9.52742
▁ledna	-9.52751
▁pu	-9.52778
▁prostě	-9.52872
ten	-9.52888
▁změny	-9.52927
▁Pak	-9.53129
OV	-9.53216
▁nejméně	-9.53298
▁podařilo	-9.53401
▁teplot	-9.53505
▁skončil	-9.53537
▁budeme	-9.53573
▁byt	-9.53584
▁mil	-9.53724
bývá	-9.53733
▁Já	-9.53806
nc	-9.5381
▁vln	-9.53842
▁materiál	-9.53856
ance	-9.53875
trž	-9.53992
▁mne	-9.54015
▁míst	-9.5402
star	-9.5408
nský	-9.54144
▁společné	-9.54171
▁všem	-9.5419
▁roli	-9.5425
▁loni	-9.54258
▁sebou	-9.54394
▁kart	-9.54429
▁jednot	-9.54544
▁proces	-9.54657
▁Ha	-9.54782
▁Například	-9.54798
▁podnikání	-9.54856
koliv	-9.54919
▁různé	-9.54933
▁vět	-9.54982
kázal	-9.54983
ať	-9.54991
▁automobil	-9.55059
čně	-9.55081
eta	-9.55162
▁vládní	-9.55205
▁příprav	-9.55221
▁bank	-9.55265
▁státy	-9.55396
blíž	-9.5545
▁čs	-9.55479
▁princip	-9.55528
▁minulý	-9.55572
▁opravdu	-9.55617
▁tolik	-9.55726
▁tenis	-9.55743
▁výše	-9.55797
▁výzkum	-9.55817
▁Jde	-9.55835
jat	-9.55874
▁stal	-9.55898
ovo	-9.56044
denní	-9.56061
▁fond	-9.56071
▁doma	-9.56129
▁právo	-9.56137
▁tr	-9.56173
▁účast	-9.5626
▁funkci	-9.56342
▁miliónů	-9.56342
▁smlouvu	-9.56342
▁snaží	-9.56347
▁nedávno	-9.56391
▁příčin	-9.56421
vést	-9.56451
▁volební	-9.56519
icky	-9.56534
tel	-9.56594
▁příklad	-9.56634
vé	-9.56672
▁náš	-9.56676
▁kap	-9.568
▁zákaz	-9.5708
▁kandidát	-9.57124
▁termín	-9.57124
▁získal	-9.57127
▁nárok	-9.57136
▁Dnes	-9.57227
kovi	-9.57254
▁disk	-9.57318
▁lev	-9.57342
vz	-9.57495
▁zvýšení	-9.57496
▁rozhodl	-9.57501
uji	-9.57598
oč	-9.57661
▁fa	-9.57762
▁my	-9.57778
AN	-9.5783
▁okolí	-9.57918
▁věc	-9.57984
▁uveden	-9.58011
jdou	-9.58016
lení	-9.58085
▁Kdo	-9.58101
▁posl	-9.58125
dat	-9.58185
▁měsíců	-9.58264
▁ministerstvo	-9.58705
▁zvláštní	-9.58705
▁koaliční	-9.58705
▁chtějí	-9.58705
vají	-9.58744
▁ústav	-9.58815
▁dnech	-9.58869
▁pojištění	-9.58898
žije	-9.58913
▁novin	-9.58929
ij	-9.58935
▁chování	-9.58947
dává	-9.58949
▁klid	-9.59195
žení	-9.59249
▁slova	-9.59342
ík	-9.59348
▁ztrát	-9.59355
▁léč	-9.59439
▁jiného	-9.59449
▁Windows	-9.59505
▁hvězd	-9.59505
▁bývalý	-9.59518
▁jediný	-9.59519
▁Zeman	-9.59533
▁objevil	-9.59538
▁středu	-9.59557
▁přednost	-9.59605
000	-9.59646
▁ekonomické	-9.59732
▁metrů	-9.59813
▁dosáhl	-9.59814
▁starost	-9.59844
▁dopis	-9.59857
▁národní	-9.59875
▁úřadu	-9.59908
▁hotel	-9.59943
ký	-9.59962
dávají	-9.59981
▁postupně	-9.60013
nky	-9.60059
klo	-9.60101
ickou	-9.60109
▁padesát	-9.60111
▁gen	-9.60124
▁hráčů	-9.60193
▁zahraničních	-9.60288
▁zpět	-9.60311
▁obr	-9.60338
▁společenství	-9.60368
SK	-9.60488
▁rady	-9.60514
▁Bar	-9.60524
▁ochran	-9.60664
pit	-9.607
▁vztah	-9.60707
▁div	-9.60711
ismu	-9.60899
▁stanov	-9.61052
▁Čech	-9.61108
▁podobně	-9.61127
lep	-9.61138
dění	-9.61164
šli	-9.61185
hn	-9.61205
▁2.	-9.61242
▁Dr	-9.6142
hlav	-9.61599
ění	-9.6168
gan	-9.61705
ovými	-9.61731
aly	-9.61768
stává	-9.61777
▁občan	-9.6185
fer	-9.61858
▁svazu	-9.61912
▁MS	-9.61939
▁nemusí	-9.61944
▁číslo	-9.61993
▁sever	-9.62035
▁čeká	-9.62052
stroj	-9.62151
▁tvrd	-9.62393
nec	-9.62405
zení	-9.62502
pas	-9.62522
▁Zde	-9.62535
▁pracovníků	-9.62567
ovaného	-9.62681
▁host	-9.62701
▁poslanců	-9.6277
▁přibližn	-9.6277
▁zástupce	-9.6277
▁nadále	-9.62774
▁ročně	-9.62782
▁vede	-9.62833
zem	-9.62853
ivé	-9.6286
▁tržní	-9.6309
▁kulturní	-9.63107
din	-9.63162
stran	-9.6321
▁Bude	-9.63268
▁obrat	-9.63296
▁evropské	-9.63358
▁pra	-9.63396
▁odmítl	-9.63604
▁klubu	-9.63608
▁koncert	-9.63635
▁dalším	-9.63671
▁vaše	-9.63735
▁pohyb	-9.6389
ismus	-9.63891
zu	-9.63932
jící	-9.64001
lat	-9.64133
▁důvod	-9.64151
▁každ	-9.6416
EN	-9.64162
▁poměr	-9.64216
▁zásad	-9.6423
▁účel	-9.64372
▁Většin	-9.64444
▁hospodářství	-9.64444
▁jazyk	-9.64444
▁výrobní	-9.64444
▁nabídky	-9.64445
▁lépe	-9.64465
▁podobné	-9.64476
19	-9.64516
▁hodně	-9.64597
tivní	-9.64737
▁Bu	-9.64738
▁střel	-9.64753
SE	-9.64854
▁přenos	-9.65032
▁oba	-9.65158
▁Be	-9.65178
▁generální	-9.65179
čel	-9.65234
▁počtu	-9.65241
▁podniky	-9.65252
▁spojen	-9.65278
▁umožňuje	-9.65291
puštěn	-9.65302
▁podstatně	-9.65349
zní	-9.65423
▁jenom	-9.6543
▁pre	-9.65438
▁přijat	-9.65493
▁Už	-9.65598
▁vznikl	-9.65623
▁přesně	-9.65664
▁týmu	-9.65696
▁22	-9.65775
▁sami	-9.65894
▁problémů	-9.65951
íte	-9.66032
padl	-9.6607
ško	-9.66117
▁musíme	-9.66146
▁považuje	-9.66146
▁začíná	-9.6615
▁olympijské	-9.66169
▁hrál	-9.66193
▁případech	-9.66264
▁potvrdil	-9.66343
▁jmen	-9.66404
▁říci	-9.6641
▁novou	-9.66418
▁městě	-9.66488
▁úvěr	-9.66564
jasn	-9.66596
íky	-9.66639
▁počítač	-9.66645
jev	-9.66701
hraje	-9.66719
▁fondu	-9.66721
▁trval	-9.66733
před	-9.66952
áři	-9.66984
▁sport	-9.66988
▁důchod	-9.67008
▁obvykle	-9.67008
▁sítě	-9.67026
▁uzavře	-9.67068
▁Ani	-9.67103
▁oddělení	-9.67118
▁českého	-9.67143
▁občanů	-9.67149
▁banky	-9.67221
▁pomoci	-9.67338
▁řada	-9.6743
kryt	-9.67441
▁možností	-9.67562
▁kop	-9.67581
▁měst	-9.67654
▁vedle	-9.67671
rd	-9.67692
▁otázku	-9.67878
▁výrobků	-9.67878
▁nebyla	-9.67884
půjč	-9.67906
ger	-9.6807
un	-9.68105
▁politiky	-9.68186
▁čem	-9.68199
▁průběhu	-9.68294
nické	-9.68313
ke	-9.68373
▁Če	-9.68438
ren	-9.68468
nů	-9.68503
rit	-9.68576
ujících	-9.68643
tal	-9.68675
ned	-9.68706
▁nabízí	-9.68755
▁událost	-9.68755
▁vrchol	-9.68755
▁bohat	-9.68757
▁adres	-9.68766
▁export	-9.68772
▁příjem	-9.68792
hi	-9.68825
▁nějaké	-9.68857
ávat	-9.68868
▁kterém	-9.68908
▁nemají	-9.68909
▁ryb	-9.69012
▁ulici	-9.69019
eb	-9.69063
▁zdrojů	-9.69077
▁miliardy	-9.69105
sídl	-9.69215
son	-9.69225
tah	-9.69325
▁polo	-9.69427
LA	-9.69463
▁stejn	-9.69496
pen	-9.69521
▁otázka	-9.6964
▁otázky	-9.6964
▁úrovni	-9.6964
▁celkem	-9.6964
▁autobus	-9.6964
▁reprezentant	-9.69641
▁chvíli	-9.69641
▁dotaz	-9.69665
▁Ze	-9.69666
▁Česká	-9.69671
▁klíč	-9.69684
▁takto	-9.69773
▁moci	-9.69785
▁uvádí	-9.69844
part	-9.69905
leč	-9.7008
▁čtenář	-9.70104
▁moderní	-9.70145
jak	-9.70316
▁pražské	-9.70368
elný	-9.70425
sad	-9.70472
▁mistrovství	-9.70533
▁předchozí	-9.70535
ěte	-9.70674
▁tvar	-9.70683
▁postavení	-9.70772
▁každém	-9.70799
Dr	-9.70825
▁jednom	-9.70932
▁potřebuje	-9.70942
ložil	-9.71063
▁objektů	-9.71082
▁dohody	-9.71083
▁60	-9.71167
▁stejný	-9.71197
▁červen	-9.71264
rem	-9.71274
▁každé	-9.7133
▁názoru	-9.71345
▁Sa	-9.71425
▁energie	-9.71434
▁dětí	-9.71434
▁sportovní	-9.71435
▁zaměstnanců	-9.71436
▁NATO	-9.71437
▁výměn	-9.71503
▁vyz	-9.71656
▁cestu	-9.71683
ena	-9.71694
▁pozornost	-9.71835
▁podnikatel	-9.71853
W	-9.71961
isté	-9.72034
▁trest	-9.72034
měnit	-9.72063
pil	-9.72075
▁lékař	-9.721
▁pla	-9.72268
▁kterých	-9.72293
▁odhad	-9.72339
▁finále	-9.72343
▁Ber	-9.72353
▁soubor	-9.72425
▁obor	-9.72458
▁počítače	-9.72483
▁knih	-9.72484
▁textu	-9.72494
▁společností	-9.72513
▁21	-9.72519
▁působí	-9.72599
CE	-9.72602
▁prů	-9.72629
▁užit	-9.72659
▁listopadu	-9.72673
▁představuje	-9.72715
▁vybavení	-9.72835
▁Ru	-9.72841
▁parlament	-9.72853
▁setkání	-9.7294
níků	-9.72975
▁strana	-9.72982
▁takový	-9.72998
▁měsíce	-9.73005
ováno	-9.73022
nému	-9.73037
▁měsíc	-9.73076
▁nikoli	-9.73081
▁sama	-9.73099
▁Izrael	-9.7326
▁regul	-9.73261
▁prostředků	-9.73267
týká	-9.73268
ben	-9.73281
▁Země	-9.73282
sed	-9.73314
▁budoucí	-9.73315
▁cizí	-9.73353
▁čtvrtek	-9.7339
▁Ještě	-9.73407
▁Tím	-9.73453
▁současně	-9.73507
▁příští	-9.73652
▁řadě	-9.73657
šek	-9.73667
▁světové	-9.73668
▁ME	-9.73838
▁obchodního	-9.73894
▁kolik	-9.73976
▁Ra	-9.74006
kar	-9.74121
lů	-9.74182
▁výrobky	-9.74186
▁Navíc	-9.74187
▁OSN	-9.74194
▁Nyní	-9.74194
▁produkce	-9.74268
▁skupina	-9.7435
▁druhém	-9.74548
▁neděli	-9.74587
▁Cel	-9.74683
▁atd	-9.74702
▁nemohl	-9.74862
▁výraz	-9.74868
▁zdroje	-9.75001
ených	-9.75086
▁Josef	-9.75121
▁federální	-9.75121
▁reklam	-9.75122
▁zasedání	-9.75132
▁těles	-9.75136
pul	-9.75141
▁muset	-9.75155
▁motor	-9.75155
▁hrát	-9.75192
▁dobrý	-9.75209
▁hlavním	-9.75263
▁akci	-9.75271
▁platit	-9.75281
stické	-9.75328
▁skutečnosti	-9.75419
▁popis	-9.75471
▁provozu	-9.75474
vádí	-9.75555
▁kterého	-9.75611
LE	-9.75691
▁porad	-9.75732
ton	-9.75882
▁kvalitní	-9.75888
čné	-9.7599
▁PO	-9.76005
▁oznámil	-9.76064
▁prezentace	-9.76064
▁speciální	-9.76064
▁začátku	-9.76064
▁kapacit	-9.76065
▁srovnání	-9.76066
▁třetin	-9.76067
▁spokojen	-9.76068
ickým	-9.76079
▁tlak	-9.76162
▁70	-9.76164
▁zápas	-9.76233
▁Pe	-9.76245
▁smyslu	-9.76301
rou	-9.76302
rád	-9.76347
▁blok	-9.76444
▁jiný	-9.76454
▁součástí	-9.76516
▁kal	-9.76526
šit	-9.76551
cházejí	-9.76657
▁akcií	-9.76684
▁hodnoty	-9.76797
▁použití	-9.76804
pír	-9.7681
▁výboru	-9.76917
race	-9.76951
jedna	-9.76966
OR	-9.77016
▁teorie	-9.77016
▁přízniv	-9.77017
▁přírodní	-9.77019
▁1989	-9.77028
▁buď	-9.77028
▁privatizace	-9.77029
▁strom	-9.77065
▁apod	-9.77069
▁rozum	-9.77115
▁útok	-9.7713
▁Hor	-9.77328
▁Star	-9.77328
▁jasné	-9.77402
▁přiče	-9.77449
stál	-9.7747
třech	-9.77479
▁škod	-9.77561
obec	-9.77665
▁konci	-9.77697
▁plně	-9.77739
▁školy	-9.7776
nictví	-9.77794
lík	-9.7782
dají	-9.77824
psat	-9.78007
▁přesvědčen	-9.78052
▁metod	-9.78148
▁těm	-9.78155
▁ostrov	-9.78251
ejte	-9.78271
tovat	-9.78292
▁domů	-9.78322
vykl	-9.78407
ška	-9.78469
▁dostane	-9.78507
▁našem	-9.78561
▁závěr	-9.78562
koupit	-9.7857
▁samo	-9.78573
lid	-9.78612
vané	-9.78671
▁Jedno	-9.78681
▁bran	-9.78715
ováním	-9.78721
▁jednotlivé	-9.78727
rovná	-9.78783
▁možno	-9.78806
30	-9.78835
mar	-9.78846
▁objektu	-9.78848
tit	-9.78932
▁Američan	-9.78949
▁Někter	-9.78949
▁zdravotnictví	-9.78949
▁variant	-9.78949
▁veřejné	-9.78949
▁umění	-9.78952
▁tuzemsk	-9.78957
▁Martin	-9.78961
▁struktur	-9.78967
▁zvolen	-9.79037
▁Ivan	-9.7904
razil	-9.79156
drží	-9.79241
▁obchodu	-9.79284
▁dopravy	-9.79409
▁student	-9.79685
sáhl	-9.79704
▁údaje	-9.79755
šil	-9.7981
▁rozhodující	-9.79929
▁gól	-9.7993
▁respekt	-9.7993
▁nebezpečí	-9.79931
▁podobě	-9.79936
▁Pavel	-9.79941
▁Bylo	-9.79949
▁technik	-9.79964
díl	-9.8
▁Podobn	-9.80146
▁celého	-9.80178
▁investice	-9.80187
▁ostatních	-9.80209
▁opak	-9.8034
▁státního	-9.80404
▁nějaký	-9.80482
▁kultury	-9.80497
▁Ca	-9.80531
▁noci	-9.80567
dání	-9.80595
▁práva	-9.80677
▁řad	-9.80693
vláště	-9.80736
▁podrob	-9.80769
▁telefonní	-9.80795
▁Kar	-9.8082
▁spojení	-9.80917
▁žádost	-9.8092
▁jízd	-9.80937
▁vzájemn	-9.80957
násob	-9.8099
užit	-9.81006
▁společně	-9.81086
▁aktivit	-9.81126
RO	-9.81239
píše	-9.81262
▁soutěže	-9.81276
▁nová	-9.81342
▁snadno	-9.8138
▁typ	-9.8139
▁politických	-9.81393
prostřed	-9.81513
▁smrti	-9.81574
▁záznam	-9.81633
▁volb	-9.8167
▁zájmu	-9.81722
cího	-9.81783
bezpeč	-9.81813
▁metr	-9.81822
▁Proč	-9.81873
▁jméno	-9.81919
▁televizní	-9.81919
▁trans	-9.81922
▁Miloš	-9.81926
ňování	-9.82079
est	-9.82119
▁Toto	-9.82253
např	-9.82338
procesor	-9.82368
ence	-9.82373
▁tisíce	-9.82433
roj	-9.82462
věří	-9.82644
vát	-9.82712
▁východ	-9.82737
▁Me	-9.82818
▁předpoklad	-9.8293
▁John	-9.8293
▁Rakousk	-9.82931
svoji	-9.82933
▁snímek	-9.82934
▁hnutí	-9.82961
▁Stejn	-9.82981
▁zdraví	-9.8299
▁jaký	-9.82998
▁orgán	-9.83095
řitom	-9.83099
▁Ří	-9.83103
▁lidi	-9.83119
▁vidí	-9.83132
▁nejvíce	-9.8318
▁styl	-9.83191
▁dané	-9.83202
▁poně	-9.83313
▁důvodů	-9.83344
antní	-9.83348
▁vytvoření	-9.83376
▁český	-9.83709
rovna	-9.83865
▁Jaroslav	-9.8395
▁motiv	-9.83951
▁náročn	-9.83952
▁vzhledem	-9.83952
▁jisté	-9.8399
▁pás	-9.84024
▁náhod	-9.84239
▁trvá	-9.84338
▁plné	-9.84342
psal	-9.84422
▁23	-9.84478
šení	-9.84507
▁sezón	-9.84639
▁předem	-9.84653
▁mužů	-9.84662
ODA	-9.84669
▁povrch	-9.84723
▁stanoven	-9.84764
▁velkou	-9.84796
▁hráči	-9.84811
▁rád	-9.84842
▁region	-9.84953
▁signál	-9.84981
▁zvýšil	-9.84981
▁těžko	-9.84982
▁planet	-9.84989
▁okolo	-9.84993
išť	-9.85016
▁podobný	-9.85054
▁pocit	-9.85142
▁daleko	-9.85229
▁celkov	-9.85361
▁data	-9.85393
nského	-9.85395
IN	-9.85398
▁spíš	-9.85566
▁Český	-9.85593
▁slib	-9.85617
th	-9.85847
ros	-9.85853
plnění	-9.85899
však	-9.85946
▁hru	-9.86013
▁náměstí	-9.86022
▁zástupci	-9.86022
▁kontakt	-9.86023
LI	-9.86023
▁delší	-9.86034
▁někteří	-9.86035
▁přátel	-9.86035
▁září	-9.86074
▁zaměstnání	-9.86075
▁kilometrů	-9.86125
▁rukou	-9.86133
▁obsahuje	-9.86175
▁Tu	-9.86204
▁soudu	-9.86263
▁pokut	-9.86362
▁uživatel	-9.86624
her	-9.86625
▁Bez	-9.86644
▁dovoz	-9.86913
▁věku	-9.86917
▁určitý	-9.87016
▁výsledek	-9.87075
cházet	-9.87075
▁cestovní	-9.87076
▁očekává	-9.87087
▁koncem	-9.87102
▁smysl	-9.87103
▁tvář	-9.87147
▁hodiny	-9.87148
TI	-9.87326
▁obvod	-9.87343
▁cíl	-9.87377
onu	-9.87425
▁druhů	-9.87455
▁mohly	-9.87455
▁přišel	-9.87495
▁hmot	-9.87524
kových	-9.87541
▁oboru	-9.87544
▁ředitele	-9.87588
▁zkušenosti	-9.87627
▁zvyk	-9.8786
▁Pan	-9.87998
▁aplikace	-9.88139
▁patnáct	-9.88139
▁existuje	-9.88139
▁nejbližší	-9.88139
▁podmínek	-9.88139
▁nebudou	-9.8814
▁zůstává	-9.88141
▁Může	-9.88142
front	-9.88144
▁slavn	-9.88188
▁dnů	-9.88191
jet	-9.88204
▁NE	-9.88338
ES	-9.88396
▁koalice	-9.88399
▁Kčs	-9.88446
pek	-9.88468
▁olympijský	-9.885
▁objekty	-9.88561
ER	-9.88595
▁hospodářské	-9.88758
ologie	-9.88767
▁rizik	-9.88769
▁každého	-9.88831
▁způsobil	-9.88857
▁jednotliv	-9.88903
▁stavební	-9.89049
▁úroveň	-9.89214
▁dospěl	-9.89214
▁památ	-9.89215
▁starší	-9.89223
▁výnos	-9.89233
▁tady	-9.89285
▁společný	-9.89311
▁úprav	-9.89346
▁Hlavní	-9.89376
▁minulosti	-9.89549
▁případně	-9.89562
▁mal	-9.89644
cení	-9.8975
cem	-9.89789
,5	-9.89804
▁druh	-9.89892
▁rychlost	-9.89927
rp	-9.89965
▁neměl	-9.90002
▁fotbal	-9.90014
TA	-9.9007
▁Přes	-9.90123
vad	-9.90161
▁hrad	-9.90174
▁běžné	-9.90207
▁poslanci	-9.90301
▁pátek	-9.90302
▁praxi	-9.90304
měl	-9.90392
▁Jeden	-9.90427
▁dostat	-9.90502
▁určitě	-9.90515
▁soukrom	-9.90529
▁dává	-9.90548
▁Každý	-9.9055
▁Brně	-9.90612
▁světový	-9.90632
mět	-9.90667
EL	-9.90698
▁německé	-9.90914
▁pracovat	-9.9101
nce	-9.91029
KA	-9.91063
▁kraj	-9.91075
▁prvního	-9.9127
taj	-9.91284
▁příslušn	-9.91294
▁nedostat	-9.91317
▁smí	-9.91325
▁sklad	-9.91394
▁důležité	-9.914
▁vidět	-9.914
▁šanci	-9.91401
▁rekord	-9.91401
▁příkaz	-9.91405
▁(1	-9.91488
pustit	-9.9149
▁postižen	-9.91503
▁přijal	-9.9152
kovou	-9.91712
und	-9.91761
▁krajin	-9.9185
▁Ni	-9.9187
▁lékaře	-9.91926
▁kvality	-9.91975
▁oblast	-9.92155
▁roční	-9.92233
ený	-9.92241
mor	-9.92264
▁Nové	-9.92434
▁mám	-9.92439
▁výrobce	-9.92511
▁zvířat	-9.92511
▁návrat	-9.92511
▁uvědom	-9.92511
▁síly	-9.92534
▁volbách	-9.92577
▁stačí	-9.92645
▁odpovídá	-9.92648
▁léta	-9.92706
▁tun	-9.9272
▁července	-9.92721
▁schopnost	-9.92721
▁nikoliv	-9.92784
set	-9.92859
▁hráče	-9.92881
▁dny	-9.9292
▁loňské	-9.93037
▁NA	-9.93345
▁změnit	-9.93421
▁Německa	-9.93478
▁prodeje	-9.93572
▁hráč	-9.93628
▁týdne	-9.93635
▁hromad	-9.93635
▁zemřel	-9.93638
raději	-9.93665
mž	-9.9367
▁knihy	-9.93672
▁jediné	-9.93698
▁zákazníků	-9.93781
▁podstatě	-9.93833
áci	-9.93901
skal	-9.93912
IS	-9.93935
fu	-9.93943
▁pevn	-9.93952
▁tisku	-9.94083
▁zranění	-9.94113
▁nákladů	-9.94134
▁členy	-9.94192
wa	-9.94297
▁záležitost	-9.94318
ROM	-9.9433
▁voleb	-9.94526
▁35	-9.94638
▁časopis	-9.94642
▁Fran	-9.94692
HO	-9.9477
▁Ministerstv	-9.94771
▁analýz	-9.94771
▁oprávněn	-9.94771
▁technologie	-9.94771
▁výrobu	-9.94771
▁tepla	-9.94776
stoupit	-9.94776
▁úplně	-9.94796
▁vrátil	-9.94798
▁dělat	-9.94857
▁investiční	-9.94881
▁objem	-9.94905
AR	-9.94926
▁zkouš	-9.94971
▁přehled	-9.95012
pře	-9.95014
▁osmi	-9.95026
▁představitelé	-9.95027
▁rozšíření	-9.9508
▁druhou	-9.95137
▁doba	-9.9525
▁Již	-9.95313
rez	-9.95477
pád	-9.95501
▁park	-9.95558
▁Nad	-9.95564
áme	-9.95573
▁předmět	-9.95699
dali	-9.9588
▁techniky	-9.95881
▁družstev	-9.95921
▁příspěvk	-9.95921
▁zásob	-9.95921
▁nezbytn	-9.95921
▁síť	-9.95933
stoupí	-9.95944
bře	-9.95948
▁polovin	-9.95995
▁technické	-9.96098
▁dějin	-9.96142
▁90	-9.96199
▁celá	-9.96205
▁míry	-9.96214
oma	-9.96237
▁staré	-9.96253
▁vývoje	-9.96258
▁jakým	-9.96264
▁omezen	-9.96342
▁podnikatele	-9.96364
▁činí	-9.9643
▁liber	-9.96466
▁zprávy	-9.96501
▁použit	-9.96586
ll	-9.96731
▁Nový	-9.9683
ávají	-9.96881
▁ukázal	-9.96907
60	-9.96954
značně	-9.96963
▁pochyb	-9.97008
ion	-9.97035
▁scén	-9.97047
▁olympiád	-9.97083
▁vytvořit	-9.97083
▁volby	-9.97084
▁úspor	-9.97089
▁studiu	-9.97103
okres	-9.97107
▁dvakrát	-9.97159
lka	-9.97217
▁drah	-9.97279
▁slab	-9.97312
skoro	-9.97349
▁chcete	-9.97477
▁podnikatelů	-9.97606
▁Kon	-9.97656
▁Vol	-9.97656
▁vlastnosti	-9.97698
▁národ	-9.97732
kám	-9.97749
čních	-9.9777
▁500	-9.97937
▁vývoz	-9.98168
▁bytů	-9.98232
oje	-9.98234
▁Španěl	-9.9826
▁financí	-9.9826
▁zjistil	-9.9826
kázat	-9.98262
▁konečně	-9.98349
▁Kdyby	-9.98401
▁partner	-9.98404
▁počítá	-9.98526
net	-9.98543
▁seznam	-9.98565
▁domu	-9.98577
▁Hrad	-9.98694
▁též	-9.98775
kraji	-9.98779
▁pozor	-9.98794
▁soupeř	-9.9889
áni	-9.99025
▁Asi	-9.99072
dělal	-9.99073
KO	-9.99155
▁formul	-9.99169
▁staro	-9.99179
▁dvacet	-9.99211
▁ruské	-9.99227
ckých	-9.99246
▁pravidel	-9.99262
▁SR	-9.99266
▁Její	-9.99353
ler	-9.99376
▁jít	-9.99432
kům	-9.99433
▁federace	-9.9945
▁firmě	-9.9945
▁výsledků	-9.9945
▁použít	-9.9945
▁Všechny	-9.99451
▁současnosti	-9.9948
zhledem	-9.99554
▁evropských	-9.99554
▁zpracování	-9.99565
▁návrhu	-9.99628
▁dvaceti	-9.99682
NO	-9.99751
▁Kol	-9.99798
▁včerejší	-9.99831
ávání	-9.99854
▁Kub	-9.99908
▁hranice	-9.99989
▁klient	-10.0001
▁průmyslu	-10.0003
▁pokles	-10.0009
izovat	-10.001
▁obrany	-10.0016
▁Lib	-10.0017
▁úrok	-10.0027
myšlen	-10.0033
Ř	-10.0037
vnitř	-10.004
▁bodů	-10.0042
▁probíh	-10.0043
▁bezpečnostní	-10.0046
NI	-10.0053
▁snah	-10.0056
▁Německu	-10.0057
har	-10.0058
▁vojenské	-10.006
▁náklad	-10.0065
▁Společenství	-10.0066
▁Vladimír	-10.0066
▁investor	-10.0066
▁Právě	-10.0066
▁nejlépe	-10.0066
▁zbraní	-10.0066
▁relativn	-10.0067
▁drobn	-10.007
▁Běh	-10.0072
▁původně	-10.0075
▁pravděpodobně	-10.0076
▁roze	-10.0076
▁realiz	-10.0077
▁silnic	-10.0086
▁Měl	-10.0097
▁změnil	-10.0105
rozměr	-10.0108
▁míru	-10.0108
ins	-10.0108
▁fotbalové	-10.0109
▁Hus	-10.0109
▁objeví	-10.0115
▁Spo	-10.0116
▁čin	-10.0125
▁dokázal	-10.0125
▁amerických	-10.0128
▁Firma	-10.0131
JE	-10.0139
pak	-10.0152
▁kancelář	-10.0156
▁fin	-10.0156
▁cílem	-10.0159
řízení	-10.0167
▁placen	-10.0169
MU	-10.0186
▁dlouhé	-10.0187
▁předpokládá	-10.0187
▁udělat	-10.0188
▁dokáže	-10.0188
▁formát	-10.0188
▁patrně	-10.019
▁80	-10.0202
bírá	-10.0208
▁disku	-10.021
rst	-10.0222
sadil	-10.0223
▁charakter	-10.0225
▁hodnot	-10.0226
▁vhodné	-10.0247
▁sněmovny	-10.025
ovský	-10.0257
▁slovo	-10.0258
nové	-10.0258
▁někter	-10.026
bývají	-10.0269
níku	-10.028
▁osoby	-10.0281
▁kurz	-10.0283
CI	-10.029
▁Rusk	-10.0294
▁pracuje	-10.0297
▁armád	-10.03
▁Ke	-10.0307
▁informační	-10.0311
▁využívá	-10.0311
▁hovoří	-10.0311
▁subjekt	-10.0311
▁čísla	-10.0311
▁využití	-10.0311
▁brzy	-10.0311
▁kanál	-10.0313
RU	-10.0316
▁pravda	-10.0324
▁pozná	-10.0328
▁příležitost	-10.0342
kan	-10.0347
ovské	-10.0354
▁Fa	-10.0357
▁těmi	-10.0358
▁proud	-10.0374
ona	-10.0375
▁čist	-10.0378
dělit	-10.0384
▁vlast	-10.0389
▁rokem	-10.0399
pel	-10.04
OU	-10.04
▁Japonsk	-10.0401
▁veřejnosti	-10.0403
▁mini	-10.042
▁prostoru	-10.0426
▁růstu	-10.0428
▁dovolenou	-10.0436
▁místopředsed	-10.0436
▁nemohou	-10.0436
▁většinu	-10.0436
▁rezerv	-10.0436
▁jinde	-10.0436
▁podzim	-10.0436
▁péče	-10.0436
▁oceán	-10.0437
▁začne	-10.044
▁lidský	-10.0441
▁rad	-10.0448
▁volné	-10.0452
▁zisku	-10.0455
▁vědět	-10.0456
▁molekul	-10.0465
nějších	-10.0466
▁vládě	-10.0468
▁dát	-10.0478
▁ženy	-10.0482
▁kolo	-10.0488
▁témat	-10.0491
bere	-10.0495
lib	-10.0499
▁denně	-10.0502
bin	-10.0511
▁ústavu	-10.0511
▁národního	-10.0514
▁takovou	-10.0518
▁Chorvatsk	-10.052
izaci	-10.052
izace	-10.0526
dával	-10.053
▁1,	-10.054
NA	-10.0543
▁severní	-10.0543
▁čele	-10.0546
demokratick	-10.0548
▁neznám	-10.0552
▁uložen	-10.0556
▁2000	-10.0559
▁poslanec	-10.0559
ČS	-10.056
▁pokračovat	-10.0562
▁sluneční	-10.0563
▁podepsal	-10.0563
▁pozadí	-10.0563
▁látky	-10.0564
▁nechce	-10.0567
▁kruh	-10.0569
▁vědecké	-10.0579
▁mění	-10.0589
ozi	-10.0591
▁snížení	-10.0592
▁New	-10.0592
▁veřejnost	-10.0596
bla	-10.0597
ista	-10.0599
▁stala	-10.0599
▁vytvořil	-10.06
ejme	-10.0608
DE	-10.0608
10	-10.0613
slovensk	-10.062
ovu	-10.063
▁prací	-10.0641
▁potřebné	-10.0647
znamenal	-10.0647
oři	-10.0649
kový	-10.0653
ňovat	-10.0661
▁současn	-10.0665
▁26	-10.0666
▁neví	-10.0675
▁účt	-10.0676
▁prac	-10.0679
DO	-10.0683
▁UEFA	-10.0691
▁demokracie	-10.0691
▁důležitý	-10.0691
▁hodnocení	-10.0691
▁oficiální	-10.0691
▁označil	-10.0691
▁potenciál	-10.0691
▁televizi	-10.0691
▁naprosto	-10.0691
▁důkaz	-10.0691
▁Spojený	-10.0691
▁Havel	-10.0691
▁pojistné	-10.0692
▁příslušné	-10.0692
▁kurs	-10.0692
▁nijak	-10.0693
▁zaměřen	-10.0693
kládat	-10.0696
▁stalo	-10.0704
▁okamžitě	-10.0704
▁pacient	-10.0705
▁pracovník	-10.0706
▁ukazuje	-10.0709
▁300	-10.0719
▁Sta	-10.0724
▁žen	-10.073
bývající	-10.0735
něk	-10.0743
▁zabývá	-10.0749
▁bezpečnosti	-10.0751
leté	-10.0755
▁demokrat	-10.0764
dávat	-10.0765
ickém	-10.0765
▁rada	-10.0767
▁nebyly	-10.0769
▁procesu	-10.0781
▁cesty	-10.0781
přes	-10.0782
▁pole	-10.0785
▁fotbalist	-10.0791
▁28	-10.08
▁ČSSD	-10.0812
▁majetek	-10.0821
▁počasí	-10.0821
▁šedesát	-10.0821
▁řečeno	-10.0821
▁realit	-10.0822
▁protest	-10.0822
vrátit	-10.0822
áno	-10.0824
▁novel	-10.0835
▁členové	-10.0842
▁stanice	-10.0854
▁proměn	-10.0857
▁potřeby	-10.0859
▁téma	-10.086
ovce	-10.0867
▁Bud	-10.0869
▁kanceláře	-10.0876
▁vodní	-10.0881
ckého	-10.089
▁vytvořen	-10.0894
▁dokonč	-10.0899
AV	-10.0904
▁body	-10.0918
▁vzniku	-10.0924
▁No	-10.0942
▁vládu	-10.0949
▁standard	-10.0949
▁hokej	-10.0952
▁onemocnění	-10.0952
▁požadavky	-10.0952
▁rozhodně	-10.0952
▁příjmy	-10.0952
▁názvem	-10.0952
▁učitel	-10.0952
▁bývá	-10.0953
▁lékaři	-10.0957
dis	-10.0957
nova	-10.096
▁lidem	-10.0967
▁dosáhnout	-10.097
▁objev	-10.0975
▁řady	-10.0977
▁získá	-10.0984
▁odborné	-10.0992
vel	-10.0994
slyš	-10.0994
klád	-10.0999
▁Slovensku	-10.0999
▁Ben	-10.1005
▁teplo	-10.1008
tický	-10.1009
▁zahájení	-10.1015
▁dodává	-10.1022
▁krátk	-10.1022
▁vlád	-10.1024
OH	-10.1024
▁systémů	-10.1032
▁Nová	-10.1037
▁Dva	-10.1038
MA	-10.1042
▁ekonomiky	-10.1042
níky	-10.1047
rot	-10.1053
▁postoj	-10.1055
ovaným	-10.1056
ovanou	-10.106
▁Nez	-10.1061
rab	-10.1065
▁hlavního	-10.1079
pořád	-10.1081
▁výš	-10.1083
▁potravin	-10.1085
▁Svobod	-10.1085
▁funkcí	-10.1085
▁konference	-10.1085
▁televize	-10.1085
▁vánoční	-10.1086
▁policejní	-10.1086
▁ligy	-10.1087
▁odchod	-10.1087
kládání	-10.1091
▁viděl	-10.1104
▁nejde	-10.1106
volat	-10.1124
▁Státní	-10.1126
▁třicet	-10.1126
▁celém	-10.1128
▁zákony	-10.1134
▁vybaven	-10.1148
▁Velk	-10.1152
▁jednak	-10.1156
▁mechaniky	-10.1163
loží	-10.1164
80	-10.1174
▁vztahu	-10.1177
▁společného	-10.1177
▁soutěž	-10.1185
▁kapitál	-10.1185
▁Hol	-10.1185
▁jednat	-10.1194
kají	-10.1212
stavit	-10.1213
▁právnick	-10.1217
▁Oba	-10.122
▁dodavatel	-10.1221
▁Prezident	-10.1221
▁poskytuje	-10.1221
▁zásah	-10.1221
▁Československu	-10.1221
▁připravil	-10.1221
▁příbuzn	-10.1221
▁zločin	-10.1221
▁vnitra	-10.1222
▁velká	-10.1222
▁odpad	-10.1224
▁mikro	-10.1225
▁PowerPoint	-10.1227
vedou	-10.1228
▁přístupu	-10.1232
▁troj	-10.1235
tion	-10.1239
▁osud	-10.1245
▁nechal	-10.1245
▁Společnost	-10.1246
ivost	-10.1255
věřil	-10.1257
▁aktiv	-10.1264
▁hod	-10.1274
▁rychlostí	-10.1277
▁map	-10.1281
▁druhá	-10.1282
dané	-10.1289
▁zub	-10.1294
▁prost	-10.1308
▁dvoj	-10.1313
▁druhého	-10.1314
▁cest	-10.1316
▁Aby	-10.1317
▁Vše	-10.1326
▁jakou	-10.1326
▁Velké	-10.1328
počítá	-10.1328
▁radost	-10.1331
▁řekla	-10.1346
▁novinář	-10.1355
▁zobraz	-10.1356
▁škody	-10.1357
▁Francouz	-10.1358
▁Olymp	-10.1358
▁kláves	-10.1358
▁parametr	-10.1358
▁servis	-10.1358
▁zemědělství	-10.1358
▁Sovětské	-10.1358
▁spotřebitel	-10.1358
▁hotov	-10.1358
▁Belgi	-10.1358
▁zákoníku	-10.1358
▁povinnost	-10.1359
▁ohledu	-10.136
▁zaplatí	-10.136
▁Per	-10.136
▁látek	-10.136
▁měsících	-10.1362
▁parlamentní	-10.1362
▁desítky	-10.1364
▁najít	-10.1364
▁Čechách	-10.1368
▁důsled	-10.1374
brž	-10.1379
▁Atlantě	-10.1379
▁druhu	-10.1385
▁počátku	-10.1386
▁zvuk	-10.1391
▁soused	-10.1391
▁lékařů	-10.1392
▁akt	-10.1393
osud	-10.1397
▁27	-10.1397
▁odst	-10.14
▁hladin	-10.1403
▁závěru	-10.1404
▁My	-10.1405
▁vydání	-10.1415
ctví	-10.1415
▁souboru	-10.1416
▁myslí	-10.1419
▁jinou	-10.143
▁město	-10.1438
uto	-10.1451
klep	-10.1456
▁takového	-10.1467
šp	-10.1472
odpovědn	-10.1475
metr	-10.1476
▁napsal	-10.148
znamená	-10.1484
řek	-10.1484
▁znak	-10.1488
prázdn	-10.149
▁hudební	-10.1496
▁schopen	-10.1496
▁tradiční	-10.1496
▁ustanovení	-10.1496
▁výrobců	-10.1496
▁těžký	-10.1497
▁Francie	-10.1497
▁Národní	-10.1497
▁nabídku	-10.1497
dvacet	-10.1497
▁snímků	-10.1497
▁pořadatel	-10.1497
▁Fr	-10.1498
pustí	-10.1498
▁nápad	-10.1501
ju	-10.1503
▁uplatnění	-10.1506
▁trestní	-10.1513
ičky	-10.1515
méně	-10.1515
48	-10.1526
▁dalšího	-10.1526
▁Jin	-10.1528
▁současný	-10.1533
▁zákonů	-10.1534
▁sbír	-10.1541
▁státech	-10.1541
VA	-10.1544
AD	-10.1544
▁ráno	-10.1547
▁správy	-10.1549
▁daní	-10.1553
▁posun	-10.1554
řka	-10.1555
▁přijde	-10.1557
▁zvýšen	-10.157
▁chlad	-10.1574
▁minulé	-10.1575
jímá	-10.1575
▁ekonomik	-10.1576
▁hranic	-10.1579
hlásil	-10.1588
istů	-10.1588
▁cit	-10.159
▁symbol	-10.159
▁Nov	-10.1597
staví	-10.1603
▁výběru	-10.1607
▁míč	-10.1611
ble	-10.1626
NÁ	-10.1629
ita	-10.163
▁těžké	-10.1637
▁využít	-10.1637
▁expert	-10.1638
▁přijetí	-10.1638
▁působení	-10.1639
▁odměn	-10.1639
▁řešit	-10.1639
▁Západ	-10.164
▁rozpočet	-10.1642
▁mimořádn	-10.1642
▁školství	-10.1642
▁hodlá	-10.1643
▁tentokrát	-10.1645
▁převážně	-10.1648
bíd	-10.1648
▁rozhovor	-10.1649
▁zajistit	-10.1649
trh	-10.1651
▁řeč	-10.1651
hodný	-10.1653
▁Or	-10.1666
▁způsoben	-10.1669
▁nově	-10.1669
▁Takže	-10.1671
▁fyzik	-10.1672
▁nerv	-10.1674
▁pořadí	-10.1679
▁vyplývá	-10.1679
▁vysokou	-10.1685
▁domov	-10.1687
▁částky	-10.1692
▁Mal	-10.1692
▁začali	-10.1694
▁okamžiku	-10.1702
zoval	-10.1703
▁přístroj	-10.1709
vala	-10.1712
▁demokratické	-10.1716
▁slovenské	-10.1727
▁takovém	-10.1727
árně	-10.173
▁%.	-10.1733
▁obcí	-10.1748
▁dopravní	-10.1752
40	-10.1759
▁jiná	-10.176
ive	-10.1762
▁městské	-10.1763
utí	-10.1764
▁smrt	-10.1773
▁nesmí	-10.1776
▁ceně	-10.1779
▁speciali	-10.1779
▁nejrůznější	-10.178
▁bohužel	-10.178
▁družstva	-10.178
▁kritéri	-10.178
▁nepříjemn	-10.178
▁spolupráce	-10.178
dostatečně	-10.1781
▁Mezinárodní	-10.1781
▁chybí	-10.1781
rej	-10.1784
řídil	-10.1786
▁Ri	-10.1788
boj	-10.1789
▁povolení	-10.1793
▁místech	-10.1795
▁směrem	-10.1807
▁seznamu	-10.1808
▁udělal	-10.1809
▁nim	-10.1816
▁cestou	-10.1817
▁400	-10.1818
▁moře	-10.1822
▁údajů	-10.1824
▁chtěli	-10.1831
▁nebezpečn	-10.1836
▁názory	-10.1838
pracovat	-10.184
▁typick	-10.1851
▁150	-10.1859
▁poloh	-10.1865
RE	-10.187
ony	-10.1871
rám	-10.1872
▁Ste	-10.1882
▁Ře	-10.1886
▁zdroj	-10.1891
▁Německ	-10.1894
▁kola	-10.1894
razí	-10.1902
telné	-10.1904
tud	-10.1906
▁dvanáct	-10.1909
▁změna	-10.1917
▁mistr	-10.1919
▁jestli	-10.192
▁filozof	-10.1925
▁pondělí	-10.1925
▁prezentaci	-10.1925
▁průzkum	-10.1925
▁výtvarn	-10.1925
▁uspořáda	-10.1925
▁jistot	-10.1925
▁devět	-10.1926
▁vyslovil	-10.1926
▁Paříž	-10.1926
▁odbyt	-10.1928
▁smluvní	-10.1928
▁video	-10.1929
▁měsíční	-10.1934
hřeb	-10.1935
▁Fin	-10.1935
▁Čern	-10.1941
▁předtím	-10.1948
▁pravidelně	-10.1948
▁máte	-10.1949
▁doplň	-10.196
▁ES	-10.1968
▁myslím	-10.1984
▁žádn	-10.1989
MI	-10.1999
hem	-10.2003
▁odpor	-10.2003
▁Han	-10.2005
▁styk	-10.2009
faktor	-10.2013
áním	-10.2018
▁výzkumu	-10.2024
▁turnaj	-10.2029
ička	-10.2031
▁armády	-10.2038
▁Char	-10.2038
řídit	-10.2041
AL	-10.2043
▁údaj	-10.2043
bran	-10.2052
▁případů	-10.2069
▁HIV	-10.2072
▁Poslední	-10.2072
▁konferenci	-10.2072
▁podmínkách	-10.2072
▁pravomoc	-10.2072
▁příjmů	-10.2072
▁úrovně	-10.2072
▁června	-10.2072
▁obsazen	-10.2072
▁slouží	-10.2072
▁detail	-10.2072
▁spoust	-10.2073
▁radnice	-10.2075
▁uvedla	-10.2078
kyně	-10.2079
▁Mlad	-10.208
▁Pavl	-10.2081
▁závěrečn	-10.2081
▁rostlin	-10.2083
jel	-10.2086
▁Zákon	-10.2087
▁rovin	-10.2088
▁Čas	-10.2089
číst	-10.2091
▁Morav	-10.2091
▁výjimkou	-10.2093
▁vztahy	-10.2098
▁půd	-10.21
▁LN	-10.2101
▁podpis	-10.2105
čili	-10.2116
▁velikost	-10.2126
koupil	-10.214
▁taková	-10.2142
▁systémy	-10.2144
▁politiku	-10.2144
▁částku	-10.2144
▁různ	-10.2147
▁německý	-10.215
▁vysoký	-10.215
▁politický	-10.2151
▁daň	-10.2152
ičtí	-10.2155
▁mechanika	-10.2157
▁daňové	-10.2159
▁rod	-10.217
▁soukromé	-10.2171
art	-10.2175
▁Lab	-10.2178
▁součást	-10.2179
▁Každ	-10.2188
▁konkurence	-10.2195
▁vzdálen	-10.2198
ovky	-10.2198
▁vědy	-10.2203
bil	-10.2209
▁optim	-10.2219
▁architekt	-10.222
▁Bra	-10.2221
▁Největší	-10.2221
▁Současn	-10.2221
▁diplomat	-10.2221
▁tvrzení	-10.2221
▁účetnictví	-10.2221
▁většině	-10.2221
vádějí	-10.2221
▁jedenáct	-10.2221
▁požadovan	-10.2221
▁kapitol	-10.2222
▁války	-10.2222
▁aliance	-10.2222
▁brankář	-10.2222
kář	-10.2223
razit	-10.2223
▁čtyřicet	-10.2224
ick	-10.223
▁centra	-10.2235
▁směru	-10.2236
▁změnu	-10.2236
▁Jedin	-10.2237
▁němu	-10.2237
▁Fo	-10.224
▁elektron	-10.2244
▁váš	-10.2247
děk	-10.2251
▁vydal	-10.2255
▁sedmi	-10.226
▁museli	-10.2262
▁jednoznačně	-10.2262
▁tiskové	-10.2265
▁Naše	-10.2271
▁jím	-10.2275
bili	-10.2276
▁pražský	-10.2283
▁Karl	-10.2285
▁rodiny	-10.2286
▁Par	-10.2286
▁svá	-10.2287
▁nepod	-10.2291
▁PRO	-10.23
▁skupině	-10.2304
ěji	-10.2315
▁známé	-10.233
▁spol	-10.2345
20	-10.2351
▁zvukov	-10.2355
mark	-10.2356
▁hospod	-10.2359
▁Kor	-10.2362
▁náhrad	-10.2363
▁aktivity	-10.2367
75	-10.2372
▁Evropa	-10.2373
▁Gorbačov	-10.2373
▁většiny	-10.2373
▁politice	-10.2373
▁prohrál	-10.2373
▁vždycky	-10.2373
▁Rusko	-10.2373
▁záruk	-10.2374
▁schéma	-10.2374
▁začít	-10.2375
▁nemocnice	-10.2377
kombin	-10.2379
▁hodnotu	-10.2381
▁třemi	-10.2384
▁obdobn	-10.2387
▁Jenže	-10.2388
▁polovinu	-10.2392
▁individuální	-10.2393
▁leží	-10.2393
▁odpovědnost	-10.2396
▁dluh	-10.2399
tická	-10.24
▁pořádku	-10.2405
▁Jedna	-10.2407
▁Bi	-10.2415
padá	-10.2416
ica	-10.2419
▁Německo	-10.2429
▁pracovníci	-10.2432
▁hlasování	-10.2433
▁nutno	-10.2437
▁Václava	-10.2441
lín	-10.2442
▁diváků	-10.2447
hel	-10.2448
▁budoucnosti	-10.2454
▁předsedy	-10.2456
▁dodá	-10.2457
▁změně	-10.2459
▁proveden	-10.2461
▁univerzity	-10.2464
▁oslav	-10.2471
▁dělá	-10.2472
míněn	-10.2479
▁námi	-10.2503
▁životě	-10.2505
out	-10.2511
vající	-10.2513
▁Bur	-10.2521
▁AIDS	-10.2527
▁Británie	-10.2527
▁management	-10.2527
▁publika	-10.2527
▁vzdělání	-10.2527
▁obyvatelstva	-10.2527
▁Možná	-10.2527
▁srpna	-10.2527
produkt	-10.2527
běžně	-10.253
▁super	-10.2531
▁Vždyť	-10.2534
▁průměrn	-10.2537
▁nástup	-10.254
tickou	-10.2543
▁konec	-10.2551
▁oči	-10.2558
stru	-10.256
▁studentů	-10.2566
iletý	-10.2577
▁lidské	-10.2579
▁známý	-10.2587
▁miliony	-10.2589
▁Škoda	-10.2592
▁čase	-10.2596
LO	-10.2597
▁důsledku	-10.2597
kazuje	-10.2601
▁používá	-10.2603
líbil	-10.2614
▁Sam	-10.2616
▁nutnost	-10.262
▁složení	-10.262
ároveň	-10.2626
▁hlasů	-10.2628
▁pán	-10.263
▁překvap	-10.263
▁stroje	-10.2631
▁mnohé	-10.2632
bral	-10.2635
pir	-10.2653
▁běžný	-10.2656
čila	-10.2657
▁přítomnost	-10.2659
▁paní	-10.2659
▁3.	-10.2661
▁dohod	-10.2666
▁takových	-10.2666
▁aktivní	-10.267
▁známo	-10.2674
snad	-10.2674
▁jejího	-10.2676
▁uvedené	-10.2677
▁normální	-10.2683
▁připravuje	-10.2683
▁tajemství	-10.2683
▁katastrof	-10.2683
▁očekávat	-10.2683
▁silniční	-10.2683
hovořil	-10.2683
▁název	-10.2683
▁výprav	-10.2683
▁čísle	-10.2684
▁piva	-10.2684
▁buněk	-10.2684
směs	-10.2688
▁verze	-10.2688
▁prázdnin	-10.269
▁tráv	-10.2692
▁uspořádání	-10.2697
▁zdalek	-10.2701
▁průměru	-10.2701
▁zařazen	-10.2702
▁stop	-10.2706
▁státních	-10.2715
▁pobyt	-10.2717
▁ekonom	-10.2725
▁pravé	-10.2732
▁chceme	-10.2734
yl	-10.2735
jmenován	-10.2738
▁příštím	-10.2741
▁úřady	-10.2741
▁zásadní	-10.2742
dem	-10.2748
elné	-10.275
▁volný	-10.2755
▁ostr	-10.2761
▁představitel	-10.2761
▁americký	-10.2772
▁zákazník	-10.2772
▁poznání	-10.2776
▁zájm	-10.2779
▁počítačů	-10.2781
procentní	-10.2783
▁dochází	-10.2783
ívají	-10.2784
▁jiným	-10.2785
▁povinnosti	-10.2794
▁kvalitu	-10.2795
▁zápase	-10.2807
ór	-10.2817
▁přizpůsob	-10.282
tav	-10.2824
ána	-10.2825
atmosfér	-10.2826
tvrdil	-10.2833
ON	-10.2841
▁režisér	-10.2842
▁zřejmé	-10.2842
▁argument	-10.2842
▁dialog	-10.2842
▁zpravodaj	-10.2842
▁zůstat	-10.2842
▁občas	-10.2842
▁pachatel	-10.2842
▁přírody	-10.2842
▁fotograf	-10.2842
▁trend	-10.2842
▁privatizaci	-10.2843
▁marek	-10.2844
▁Úřad	-10.2845
▁sdělil	-10.2849
▁Karel	-10.285
▁soudní	-10.2853
▁článku	-10.2856
▁vyžaduje	-10.2862
▁Mark	-10.2868
▁vánoce	-10.2871
▁jaderné	-10.2873
▁banka	-10.2874
▁Sv	-10.2874
▁vyjádřil	-10.2878
IT	-10.2881
▁agentury	-10.2882
ativní	-10.2884
▁velko	-10.2892
▁premiéra	-10.2894
TE	-10.2894
▁zajímavé	-10.2895
▁sovětské	-10.2898
▁Tři	-10.2898
▁hlavních	-10.2906
▁univerzit	-10.2907
▁odborníků	-10.2909
▁sam	-10.291
▁okresní	-10.2914
▁pozitivní	-10.2921
▁muži	-10.2925
▁příštího	-10.2926
▁jaderný	-10.2943
▁částí	-10.2948
▁úvahu	-10.2951
šly	-10.2959
▁Ostrava	-10.2964
ria	-10.2969
TO	-10.2979
▁jaká	-10.2984
▁96	-10.3
▁Miroslav	-10.3003
▁Myslím	-10.3003
▁jména	-10.3003
▁nemovitost	-10.3003
▁organizací	-10.3003
▁perspektiv	-10.3003
▁tlačítko	-10.3003
▁čtrnáct	-10.3003
▁zahájil	-10.3003
▁požádal	-10.3003
▁věnovat	-10.3003
▁historii	-10.3003
▁válce	-10.3003
▁následn	-10.3003
▁rozhlas	-10.3003
og	-10.3006
▁Rozhod	-10.301
▁Česko	-10.3011
▁Inter	-10.3011
▁roste	-10.3013
ologické	-10.3015
85	-10.3018
▁vaší	-10.3027
ňují	-10.3031
▁obran	-10.3032
▁ztratil	-10.3032
mj	-10.3033
▁přísn	-10.3035
▁konstru	-10.3049
dent	-10.3051
▁výkonu	-10.3052
letý	-10.3052
▁liší	-10.3068
▁šíř	-10.3069
▁projektu	-10.3073
▁politika	-10.3075
▁nedá	-10.3083
▁přeprav	-10.3105
▁bit	-10.3109
▁soutěži	-10.3119
▁režimu	-10.312
počet	-10.3122
▁významný	-10.3124
▁dopad	-10.3136
▁dar	-10.3137
▁mechanik	-10.3143
▁přesun	-10.3143
▁přestáv	-10.3143
▁programy	-10.3143
▁druhy	-10.3148
▁překr	-10.3153
neme	-10.3154
▁abych	-10.3165
ěkteří	-10.3165
▁jednoduché	-10.3167
▁kabinet	-10.3167
▁nabízejí	-10.3167
▁tajemník	-10.3167
▁závažn	-10.3167
▁1995	-10.3167
▁považován	-10.3167
▁Někd	-10.3167
▁Základní	-10.3167
sloužil	-10.3167
▁snížil	-10.3167
▁špatné	-10.3167
▁zůstane	-10.3167
▁zvíře	-10.3168
▁hormon	-10.3168
▁pivovar	-10.3168
▁doktor	-10.3168
celku	-10.3169
▁vývoji	-10.3171
▁kultur	-10.3171
▁zimní	-10.3172
povídá	-10.3177
DA	-10.319
▁barev	-10.319
▁úřadů	-10.3192
▁smlouva	-10.3196
▁déle	-10.3206
/2	-10.3216
▁porazil	-10.3231
izované	-10.3237
▁programů	-10.3238
▁Stál	-10.3243
▁cesta	-10.3247
▁typů	-10.3248
▁doklad	-10.3251
▁Františ	-10.3262
▁Ex	-10.3262
cházející	-10.3268
▁hotelu	-10.3269
ovského	-10.3275
▁postih	-10.3276
▁hranici	-10.3281
jedno	-10.3289
hrát	-10.329
padal	-10.3292
▁psa	-10.3312
držet	-10.3312
▁existují	-10.3324
▁pacientů	-10.3328
hav	-10.3332
▁globální	-10.3334
▁monitor	-10.3334
▁sponzor	-10.3334
▁závazk	-10.3334
▁řidič	-10.3334
▁úterý	-10.3334
▁výbuch	-10.3334
▁iniciativ	-10.3334
▁kapalin	-10.3334
▁Lidé	-10.3334
▁Letos	-10.3334
▁někdejší	-10.3335
▁včas	-10.3335
▁černo	-10.3335
▁akademi	-10.3336
▁odborník	-10.3336
▁typy	-10.3337
▁šance	-10.3338
▁veškeré	-10.334
▁jestliže	-10.3342
▁lednu	-10.3347
▁republika	-10.3352
čan	-10.3355
▁chud	-10.3365
▁pořad	-10.337
▁podnikatelské	-10.337
▁anti	-10.3371
▁končí	-10.3382
land	-10.3387
▁ruce	-10.3391
▁oblastí	-10.3402
▁hledání	-10.3402
▁riziko	-10.3404
věřit	-10.3405
padají	-10.3406
72	-10.3414
▁získala	-10.3422
▁soudí	-10.3426
EM	-10.3427
▁malá	-10.3428
SA	-10.3428
▁profesionální	-10.3433
▁stranu	-10.3436
▁značné	-10.344
budete	-10.3441
▁skutečné	-10.3444
▁dům	-10.3445
▁Nebo	-10.3448
▁problémem	-10.3451
kovat	-10.3458
▁novým	-10.3463
▁Jedn	-10.3466
ráže	-10.3475
▁muže	-10.3477
šky	-10.3479
▁fotbalový	-10.3485
ečná	-10.3485
EC	-10.3489
▁kapitálu	-10.3496
▁Federální	-10.3503
▁nejdříve	-10.3503
▁používat	-10.3503
▁trénink	-10.3503
▁zvlášť	-10.3503
▁Lékař	-10.3503
▁útvar	-10.3503
▁verzi	-10.3503
▁potíže	-10.3503
▁pěkn	-10.3503
▁mzdy	-10.3504
▁najednou	-10.3504
bytek	-10.3506
▁shromáždění	-10.3508
▁členství	-10.3508
▁palác	-10.351
▁vystoupení	-10.351
▁výklad	-10.351
operační	-10.3512
▁Zdá	-10.3512
▁studie	-10.3514
▁úmysl	-10.3516
stávají	-10.3517
▁tabulky	-10.3519
▁údajn	-10.3519
▁zbytečn	-10.3519
▁sluš	-10.352
▁odpověď	-10.3525
brat	-10.3527
kin	-10.3531
▁experiment	-10.3532
▁Změn	-10.354
▁rozdělení	-10.3544
▁děje	-10.3546
▁svému	-10.3553
▁budu	-10.357
▁bytu	-10.3573
▁centru	-10.3574
▁Chce	-10.3586
▁označení	-10.3591
▁Her	-10.3598
▁dávno	-10.3598
▁vznikla	-10.3605
▁třetím	-10.3608
zdrav	-10.3608
▁lékařské	-10.3612
▁Kam	-10.3617
▁délk	-10.3617
▁vztahů	-10.362
▁zprávu	-10.3621
▁akcie	-10.3623
▁Auto	-10.3626
váží	-10.3626
elná	-10.3628
▁dosah	-10.3637
bel	-10.3641
▁akcí	-10.3645
▁časem	-10.365
▁těsně	-10.3656
tabulk	-10.366
▁deník	-10.367
▁Michael	-10.3676
▁katalog	-10.3676
▁primátor	-10.3676
▁prospěch	-10.3676
▁umožnil	-10.3676
▁výrobci	-10.3676
▁hospodaření	-10.3676
▁paragraf	-10.3676
▁rozhodne	-10.3676
▁spočívá	-10.3676
▁Československa	-10.3676
▁domnívá	-10.3676
▁císař	-10.3676
▁odpovídající	-10.3676
▁Nicméně	-10.3676
san	-10.3677
▁zaměstnanci	-10.3678
ČSL	-10.3679
munist	-10.368
▁Ši	-10.3687
chůd	-10.3693
▁nalezen	-10.3694
▁počítači	-10.3694
▁sedmdesát	-10.3694
▁soukromých	-10.37
▁pozici	-10.3712
▁programové	-10.3716
▁MB	-10.372
▁odpadů	-10.372
ejít	-10.3722
▁záznamník	-10.3725
▁Rus	-10.3738
▁král	-10.3738
ložení	-10.374
▁písemn	-10.3741
▁zaměstnavatel	-10.3753
▁sjezd	-10.3753
▁předsed	-10.3768
▁posledním	-10.3771
ller	-10.3774
▁úst	-10.3781
praví	-10.3785
▁bíl	-10.381
▁12.	-10.3817
▁určit	-10.3821
tají	-10.383
▁pracoval	-10.3833
▁silné	-10.384
▁případné	-10.3841
▁škole	-10.3841
▁komunik	-10.3845
izraelsk	-10.3851
▁odvětví	-10.3851
▁uchazeč	-10.3851
▁odběratel	-10.3851
▁firmu	-10.3851
▁ohrožen	-10.3851
▁hrozí	-10.3851
▁mozku	-10.3851
▁Tomáš	-10.3851
▁propag	-10.3852
▁Dále	-10.3852
▁hovor	-10.3853
▁Pohár	-10.3854
▁britské	-10.3856
▁hledat	-10.3856
▁DNA	-10.3859
▁prvků	-10.3862
▁mnozí	-10.3862
▁bezprostředn	-10.3864
▁horší	-10.3865
▁pohybu	-10.387
entní	-10.387
▁vyrovná	-10.3873
▁Pražské	-10.3874
▁získali	-10.3887
▁aut	-10.3889
též	-10.3891
▁půdě	-10.3892
běhl	-10.3893
▁letošním	-10.3899
KU	-10.3903
▁vnější	-10.3904
nesou	-10.3916
▁vědomí	-10.3919
▁vznikají	-10.3923
▁vědeck	-10.3933
▁budoucnost	-10.3935
▁jiném	-10.3942
lidov	-10.3944
▁poměru	-10.3949
skok	-10.3958
▁Ci	-10.3958
dor	-10.3961
▁poháru	-10.3972
▁rozvoje	-10.3975
▁ochotn	-10.3979
náší	-10.399
▁zemědělské	-10.3994
zaměstnan	-10.4005
▁platnost	-10.4011
▁neroz	-10.4016
▁metody	-10.4027
znamenat	-10.403
▁aplikací	-10.403
▁problematik	-10.403
▁upozornil	-10.403
▁zdůraznil	-10.403
▁Československo	-10.403
▁výrobě	-10.403
▁Existuj	-10.403
▁natolik	-10.403
▁výroba	-10.403
▁informoval	-10.403
▁nechtěl	-10.403
▁rodiče	-10.403
▁tudíž	-10.403
▁podpory	-10.403
▁bankovní	-10.403
▁díla	-10.4031
▁reprezentace	-10.4031
jedině	-10.4031
čištění	-10.4031
▁ruský	-10.4032
▁zmíněné	-10.4032
koupí	-10.4039
▁částečně	-10.404
▁limit	-10.4041
▁vytváření	-10.4042
▁křiv	-10.4051
▁uzavření	-10.4053
▁umí	-10.4061
▁Plat	-10.4062
▁účasti	-10.4069
▁vlastností	-10.4074
▁Sb	-10.4077
▁režim	-10.4081
▁teploty	-10.4083
▁hospodářsk	-10.4083
▁zavedení	-10.4085
▁centrální	-10.4089
▁Poté	-10.4095
▁zpráva	-10.4103
▁přinesl	-10.4106
▁Švédsk	-10.4113
▁ochranu	-10.4135
▁účastníků	-10.4143
▁umístěn	-10.4151
▁klima	-10.4158
▁technick	-10.4159
istický	-10.416
počátku	-10.4173
▁Hr	-10.4175
▁Musí	-10.4182
▁dílo	-10.4192
▁obecně	-10.4196
▁Ústav	-10.4199
▁kvalit	-10.4202
skými	-10.4203
vir	-10.4204
▁dalšími	-10.4211
▁neexistuje	-10.4211
▁odpoledne	-10.4211
▁připojištění	-10.4211
▁rozhodčí	-10.4211
▁svědčí	-10.4211
▁organismu	-10.4211
▁paměti	-10.4211
▁stimul	-10.4212
▁pomalu	-10.4212
▁vyloučen	-10.4212
▁kvalifikaci	-10.4213
▁Americk	-10.4213
▁Milan	-10.4214
povídal	-10.4217
▁připomíná	-10.4218
▁česká	-10.422
▁oblastech	-10.4225
▁povinn	-10.4236
pravit	-10.4237
▁pohledu	-10.4237
žijí	-10.4238
▁Lidov	-10.424
MO	-10.4249
▁zkušenost	-10.4258
▁nynější	-10.4259
▁karty	-10.426
volal	-10.426
▁Slovenska	-10.4272
▁olej	-10.4289
tických	-10.4292
hání	-10.43
▁sněmovn	-10.4302
psané	-10.4307
▁produk	-10.4307
inak	-10.4308
▁nájem	-10.4309
▁loňském	-10.4311
▁materiálů	-10.4312
▁důvodu	-10.4312
▁kup	-10.4317
▁směr	-10.4318
▁zraněn	-10.4319
padlo	-10.432
pětí	-10.4325
▁The	-10.4328
dostala	-10.4332
▁potřeba	-10.4343
▁nejvíc	-10.4351
▁radi	-10.4357
▁brněnské	-10.4364
▁poloviny	-10.4364
▁dohodu	-10.4366
▁děj	-10.4368
▁integr	-10.4386
▁kód	-10.4388
▁vzájemné	-10.439
▁osobnost	-10.4393
▁koncentr	-10.4394
alternativ	-10.4397
▁Itálie	-10.4397
▁Ovšem	-10.4397
▁Program	-10.4397
▁konflikt	-10.4397
▁maďarsk	-10.4397
▁spolehliv	-10.4397
▁zveřejněn	-10.4397
▁úspěšně	-10.4397
▁Londýn	-10.4397
▁Ministr	-10.4397
▁výhradn	-10.4397
▁neustále	-10.4397
▁stránce	-10.4397
▁minimální	-10.4397
▁rychlé	-10.4397
▁desetiletí	-10.4397
▁snažil	-10.4397
▁praxe	-10.4397
▁záchran	-10.4397
Vesmír	-10.4397
▁rozliš	-10.4397
▁chorob	-10.4397
▁dodnes	-10.4397
hlédnout	-10.4397
▁vysíla	-10.4397
▁KSČM	-10.4398
▁pouhý	-10.4399
▁nicméně	-10.4399
▁vyjádření	-10.44
▁paliv	-10.44
▁úsek	-10.4401
▁regionální	-10.4402
▁desítek	-10.4403
▁zdejší	-10.4405
▁náhradní	-10.4409
▁Ital	-10.441
▁rádi	-10.4412
▁vybrat	-10.4416
▁Ostravě	-10.442
▁činitel	-10.4426
▁Mat	-10.4426
ůj	-10.4428
▁ztráty	-10.4432
▁určitou	-10.4433
▁vlastnost	-10.445
▁slev	-10.4451
řez	-10.4452
▁významné	-10.4456
▁Bre	-10.4474
▁lov	-10.4477
▁chat	-10.4478
▁soustavy	-10.4479
IC	-10.4485
vítá	-10.4487
▁registr	-10.4494
▁přístroje	-10.4495
▁obrazu	-10.45
▁ročník	-10.4503
nést	-10.4508
průměr	-10.4537
▁autorů	-10.4543
▁Nejs	-10.4547
▁značn	-10.4555
▁roh	-10.4557
▁zpráv	-10.4559
▁Car	-10.4565
▁rozhovoru	-10.4569
▁Karadžič	-10.4585
▁profesor	-10.4585
▁Všichni	-10.4585
▁jednoduchý	-10.4585
▁náměstek	-10.4585
▁poptávky	-10.4585
▁zvítězil	-10.4585
▁zúčastnil	-10.4585
▁špatně	-10.4585
▁teoretick	-10.4585
▁Naopak	-10.4585
▁jediná	-10.4586
▁skvěl	-10.4586
▁poslance	-10.4587
▁specializovan	-10.4587
▁Snad	-10.4588
▁zaměstnance	-10.4589
▁čtení	-10.4589
▁kostel	-10.4589
▁odborníci	-10.459
▁standardní	-10.459
▁potřebují	-10.4593
▁voda	-10.4594
▁koncentrace	-10.4594
▁měření	-10.4595
▁žena	-10.4595
▁produktů	-10.4595
▁nabídl	-10.4596
▁Výstav	-10.4596
▁okna	-10.4597
▁atlet	-10.46
▁stráž	-10.46
▁Tam	-10.4601
▁29	-10.4603
▁vývozu	-10.4604
▁statistick	-10.4609
vodí	-10.4611
▁nastal	-10.4614
▁odboru	-10.4619
▁II	-10.4624
▁stovky	-10.4639
▁vychází	-10.4641
▁totem	-10.4644
třel	-10.4644
▁přestup	-10.4646
▁italské	-10.4646
▁úvah	-10.4648
▁pohár	-10.465
▁česko	-10.465
▁automaticky	-10.4651
▁zrušení	-10.4659
▁záležitostí	-10.4661
▁vzduchu	-10.4662
ticky	-10.4668
sion	-10.467
ekonomický	-10.468
stával	-10.4682
▁rozsahu	-10.4682
▁ekologick	-10.4684
▁reálné	-10.4688
▁vzal	-10.4691
▁lidsk	-10.4693
▁Evropsk	-10.4698
▁problému	-10.4714
▁občanské	-10.4716
▁nástroj	-10.4717
▁domácím	-10.4732
▁rozpad	-10.4735
▁zajímav	-10.4745
▁činností	-10.475
▁neměli	-10.4753
áků	-10.4754
▁závodu	-10.4757
▁zlom	-10.4758
ung	-10.4765
▁investovat	-10.4778
▁Ředitel	-10.4778
▁šestnáct	-10.4778
▁historie	-10.4778
▁upraven	-10.4778
▁mladé	-10.4778
▁resort	-10.4778
▁zakázk	-10.4778
▁konzul	-10.4778
▁zbraně	-10.4778
▁turistů	-10.4778
▁bydlení	-10.4778
povídají	-10.4778
bavit	-10.4778
▁věnoval	-10.4778
▁získan	-10.4779
▁pojetí	-10.4779
▁zápis	-10.478
▁nechat	-10.478
▁stíhán	-10.4781
▁lidmi	-10.4786
▁slun	-10.479
▁krátce	-10.479
ováni	-10.4791
▁dodávky	-10.4795
▁ZA	-10.4796
▁pozice	-10.4799
▁pohybuje	-10.4804
ujte	-10.4806
▁zákonem	-10.4815
▁soutěží	-10.4817
▁šampionátu	-10.4825
ějším	-10.4834
▁Val	-10.4838
▁domě	-10.484
▁hodnota	-10.4842
▁čekají	-10.4844
▁pražsk	-10.4845
▁voličů	-10.4847
▁češt	-10.4848
působit	-10.4851
erie	-10.4852
▁obecní	-10.4857
isty	-10.486
▁směn	-10.4865
▁forma	-10.4866
▁dostává	-10.4872
▁Soud	-10.4875
▁Olomouc	-10.4878
▁filmu	-10.4881
▁řádu	-10.4882
▁provedení	-10.4887
▁Svět	-10.4888
sát	-10.4894
mořsk	-10.4895
▁váh	-10.4897
▁omezení	-10.4903
▁podstat	-10.4905
▁obviněn	-10.4908
ňující	-10.4914
▁výchov	-10.4915
▁investic	-10.4922
▁nejdůležitější	-10.4926
tát	-10.4928
▁úspěchu	-10.4929
▁činil	-10.4935
mot	-10.4938
▁představují	-10.4941
▁postav	-10.4943
▁posíl	-10.4946
▁rychlosti	-10.4948
▁jinými	-10.4955
▁nájemné	-10.4957
▁vešker	-10.4966
▁distribu	-10.4972
▁Především	-10.4974
▁elektrárny	-10.4974
▁měsíčně	-10.4974
▁sobotní	-10.4974
▁umožní	-10.4974
▁úspěšné	-10.4974
▁Richard	-10.4974
▁minimálně	-10.4974
▁snížit	-10.4974
▁veřejný	-10.4974
▁Spojené	-10.4974
▁zvýšit	-10.4974
▁úsilí	-10.4974
▁srovnateln	-10.4974
▁okruh	-10.4974
▁seminář	-10.4974
▁snímky	-10.4975
▁sektor	-10.4975
▁setkal	-10.4975
▁doslova	-10.4975
▁míře	-10.4976
▁kritik	-10.4976
▁černé	-10.4976
▁tvorbu	-10.4977
▁poškození	-10.4977
▁zobrazení	-10.4978
spektr	-10.4979
▁Češi	-10.498
▁celek	-10.4983
▁nucen	-10.4983
▁myší	-10.4985
▁silný	-10.4986
▁Karlov	-10.4986
▁osmdesát	-10.4988
▁pravdu	-10.4988
▁žádném	-10.5007
▁okolností	-10.5007
ŘE	-10.5017
▁rozvod	-10.5023
▁cestě	-10.5024
▁policistů	-10.5026
▁správně	-10.5028
▁anglické	-10.503
▁návrhy	-10.5038
▁žádná	-10.5039
▁různým	-10.504
▁domácích	-10.5041
▁Kla	-10.5041
▁mistrů	-10.5043
▁tiskov	-10.506
▁ústavní	-10.5061
▁znát	-10.5064
▁soupeře	-10.5067
70	-10.5067
▁cítí	-10.5068
▁600	-10.5074
▁čt	-10.5076
vest	-10.5077
▁třídy	-10.5078
hradí	-10.5079
▁festivalu	-10.5083
pust	-10.5084
▁centrum	-10.5092
▁moravsk	-10.5097
▁konstatoval	-10.5108
▁materiálu	-10.5111
▁koalic	-10.5126
▁mně	-10.5135
rah	-10.5136
▁dítě	-10.5148
okr	-10.5155
▁dodat	-10.5156
far	-10.5158
▁nejlepším	-10.516
▁PowerPointu	-10.5165
plynul	-10.5174
▁existence	-10.5174
▁konkurenční	-10.5174
▁matematik	-10.5174
▁pojišťovny	-10.5174
▁rozhodování	-10.5174
▁specifick	-10.5174
▁úspěšný	-10.5174
▁ČNR	-10.5174
▁Samozřejmě	-10.5174
▁širší	-10.5174
▁schůzk	-10.5174
▁výdaje	-10.5174
▁divadla	-10.5174
▁dobrovoln	-10.5174
▁editor	-10.5174
▁půjde	-10.5174
▁výskyt	-10.5174
▁sdělení	-10.5174
hlédn	-10.5174
▁nabídka	-10.5174
▁Vznik	-10.5174
▁úvodní	-10.5174
▁Řad	-10.5175
▁strach	-10.518
▁polovina	-10.5181
▁obsadil	-10.5183
▁celní	-10.5183
▁představení	-10.5188
▁Ano	-10.5188
▁195	-10.5188
▁nezávislých	-10.5189
▁vzniká	-10.519
▁úraz	-10.519
▁poklesu	-10.519
▁Muž	-10.5191
▁myšlení	-10.5192
▁generál	-10.52
▁vykoná	-10.5211
▁krásn	-10.5219
▁společenské	-10.5223
▁povrchu	-10.5226
▁podnikatelé	-10.5254
▁obyčejn	-10.5259
▁oper	-10.5264
▁vysokých	-10.5271
▁Proti	-10.5278
▁temp	-10.5282
▁nastoupil	-10.5285
▁prodá	-10.5288
▁vyhlášen	-10.5291
hladov	-10.5294
▁nebyli	-10.5295
▁zákazníky	-10.5297
▁(2	-10.5298
▁půdy	-10.5305
▁Slovensko	-10.5305
šování	-10.5307
▁bezpečnost	-10.5321
dol	-10.5328
▁samotné	-10.5329
▁společn	-10.5353
▁úpravy	-10.5354
▁Kur	-10.5357
▁Pre	-10.5359
▁mysli	-10.5365
▁Man	-10.5369
státní	-10.5369
▁nemoci	-10.5373
▁Němci	-10.5378
▁alkohol	-10.5378
▁církve	-10.5378
▁důstojn	-10.5378
▁nábožensk	-10.5378
▁přehlídk	-10.5378
▁týdny	-10.5378
▁úředník	-10.5378
▁odmítá	-10.5378
▁usnesení	-10.5378
▁surovin	-10.5378
▁nízké	-10.5378
▁kolegy	-10.5378
▁rozporu	-10.5378
▁zapotřebí	-10.5378
▁vražd	-10.5378
▁přišla	-10.5379
▁privatizační	-10.5379
▁1988	-10.538
▁mód	-10.5381
▁zbytk	-10.5381
▁létě	-10.5385
▁Teď	-10.5386
▁chemické	-10.5387
▁sluch	-10.5388
hradil	-10.539
▁skupinu	-10.5391
▁StB	-10.5393
▁přímé	-10.5406
hradit	-10.5406
▁technický	-10.5408
▁porušení	-10.5408
▁žijící	-10.5414
lární	-10.5417
▁maximáln	-10.5418
soci	-10.5421
▁mladých	-10.5421
▁postaven	-10.5427
▁výuk	-10.5433
▁vůle	-10.5442
▁ochot	-10.5443
▁armáda	-10.5444
▁Indi	-10.5446
▁důsledky	-10.5448
▁nehod	-10.5452
▁lidského	-10.5453
▁fakult	-10.5455
kož	-10.5457
▁založil	-10.5457
letěl	-10.5462
▁vesnic	-10.5464
▁německého	-10.5469
hodil	-10.5473
▁Internetu	-10.5475
▁německých	-10.5477
bod	-10.5489
kupní	-10.5489
▁původu	-10.5491
▁okraj	-10.5493
▁zájmy	-10.55
▁tříd	-10.5501
padne	-10.5501
▁velikosti	-10.551
▁Kde	-10.5511
▁automobilů	-10.5515
▁představitelů	-10.5519
▁čisté	-10.5537
▁dřív	-10.5539
▁pomohl	-10.554
posled	-10.555
▁mluví	-10.5554
▁Pražsk	-10.5559
▁33	-10.5568
▁poškoz	-10.557
▁elektro	-10.5573
▁odpadní	-10.5576
▁částka	-10.5578
▁daňový	-10.5579
▁Egypt	-10.5586
▁firmou	-10.5586
▁funkční	-10.5586
▁nabízen	-10.5586
▁pokračoval	-10.5586
▁spisovatel	-10.5586
▁technologick	-10.5586
▁technologií	-10.5586
▁zvyšuje	-10.5586
▁Druhý	-10.5586
▁Moskvě	-10.5586
▁třináct	-10.5586
▁vynikající	-10.5586
▁Místo	-10.5586
▁mužstva	-10.5586
▁dětské	-10.5586
▁populace	-10.5586
▁Třetí	-10.5586
hlásí	-10.5586
▁devíti	-10.5586
▁dovolené	-10.5586
▁ihned	-10.5586
▁štěstí	-10.5586
KDU	-10.5586
▁Předseda	-10.5586
ičtější	-10.5586
▁Francii	-10.5586
▁Pomuku	-10.5587
▁reprezentační	-10.5587
▁nasazen	-10.5587
▁Bush	-10.5588
▁tábor	-10.5588
vzdor	-10.5589
objednáv	-10.5589
▁nemocnici	-10.559
▁Svaz	-10.559
▁spotřební	-10.5591
▁špičkov	-10.5592
▁Více	-10.5593
▁Boris	-10.5593
▁cm	-10.5593
▁mluvit	-10.5597
▁bomb	-10.5597
▁obětí	-10.5599
▁vyrovnan	-10.5603
▁šok	-10.5604
▁úmrtnosti	-10.5605
izovan	-10.5607
▁Avšak	-10.5608
▁kont	-10.5611
▁těla	-10.5622
▁stačil	-10.5623
▁podklad	-10.5635
▁zastoupení	-10.5635
spal	-10.5638
▁fan	-10.5645
▁přichází	-10.5646
▁CS	-10.5649
▁všeho	-10.5653
▁obavy	-10.5654
jal	-10.5657
▁barevné	-10.5662
▁PC	-10.5668
▁klade	-10.5679
▁Dobr	-10.568
▁prodává	-10.569
▁rozhodla	-10.5696
▁Jižní	-10.5703
▁řeči	-10.5708
▁českým	-10.5736
▁obce	-10.5736
▁tradic	-10.5738
▁jednoznačn	-10.5743
▁32	-10.5747
▁molekuly	-10.5747
zemní	-10.5749
▁samotn	-10.575
▁příštích	-10.575
▁účastní	-10.5752
▁ročníku	-10.5758
▁znalost	-10.5766
▁setká	-10.5767
▁lesní	-10.5769
▁pražském	-10.5773
▁dostih	-10.5774
nder	-10.5781
▁představy	-10.5789
▁prodejní	-10.5792
platit	-10.5795
▁dlužník	-10.5799
▁financování	-10.5799
▁konkurenci	-10.5799
▁magistrát	-10.5799
▁nakladatelství	-10.5799
▁tehdejší	-10.5799
▁transformace	-10.5799
▁výsledkem	-10.5799
▁závislost	-10.5799
▁úmrtí	-10.5799
▁implant	-10.5799
▁sledovat	-10.5799
▁zlepšení	-10.5799
▁španělsk	-10.5799
▁mládež	-10.5799
▁rozhodnout	-10.5799
▁negativní	-10.5799
▁budoucnu	-10.5799
▁příjmu	-10.5799
▁katolick	-10.5799
▁zabránit	-10.5799
▁civilní	-10.5799
▁souvisí	-10.5799
stěhoval	-10.5799
▁Vláda	-10.5799
▁cukr	-10.5799
▁Slavie	-10.5799
▁jedinou	-10.5799
▁svěřen	-10.58
▁Kanad	-10.58
▁PCB	-10.5802
▁mladí	-10.5802
▁střet	-10.5802
▁operace	-10.5803
▁Euro	-10.5803
▁Wales	-10.5803
▁hrají	-10.5803
▁Zájem	-10.5804
▁překvapení	-10.5804
▁takzvan	-10.5806
▁Vedle	-10.5813
ZE	-10.5815
▁přítel	-10.5821
▁děd	-10.5822
▁San	-10.5823
cvič	-10.5826
▁zaplatit	-10.5834
▁produktu	-10.5835
▁formou	-10.5839
▁3000	-10.5839
▁vyzval	-10.5844
kládají	-10.5849
▁výhodné	-10.585
pracuje	-10.5851
▁UK	-10.5853
▁vážně	-10.5868
▁povinností	-10.5871
▁starých	-10.5876
▁snaha	-10.5879
▁jezdí	-10.5888
▁0,	-10.589
▁prodat	-10.5892
▁modern	-10.5894
▁západ	-10.5904
▁napětí	-10.5905
▁novém	-10.5906
▁kroky	-10.5908
▁celkový	-10.5918
▁soustav	-10.5926
▁byty	-10.5934
ecká	-10.594
▁krátké	-10.594
▁komor	-10.5952
▁Alb	-10.5958
ejména	-10.596
▁příležitosti	-10.5962
▁partnery	-10.5974
ráží	-10.5978
rgi	-10.598
▁správné	-10.5981
▁Atlant	-10.5982
▁jakých	-10.5983
▁zbytečné	-10.5995
dařilo	-10.6001
▁škola	-10.6004
▁dojde	-10.601
působil	-10.6011
▁někde	-10.6016
▁Ostatně	-10.6016
▁Plzeň	-10.6016
▁Sdružení	-10.6016
▁astronom	-10.6016
▁obrázek	-10.6016
▁rekreační	-10.6016
▁služba	-10.6016
▁záleží	-10.6016
▁červnu	-10.6016
▁následk	-10.6016
▁přiznání	-10.6016
▁pozorovatel	-10.6016
▁účetní	-10.6016
▁porovnání	-10.6017
▁vesmír	-10.6017
▁krize	-10.6017
▁navrhl	-10.6017
▁výrok	-10.6018
▁zápasy	-10.6018
▁sítí	-10.602
hodnotí	-10.6021
▁Výbor	-10.6022
▁místnosti	-10.6024
▁Ačkoli	-10.6025
▁adapt	-10.6026
▁pracovníky	-10.6029
▁úzk	-10.6029
fyzikální	-10.6035
ismem	-10.6035
▁strojů	-10.6035
▁přináší	-10.6037
▁požár	-10.6038
▁neměla	-10.6039
han	-10.6039
▁historické	-10.6041
▁udržet	-10.6045
▁účely	-10.6046
▁začátkem	-10.6046
▁zahrad	-10.6049
▁jednotky	-10.605
▁Kraj	-10.6056
▁noviny	-10.6063
▁Obě	-10.6067
▁prodávat	-10.6074
▁Washingtonu	-10.6076
Švýcarsk	-10.6076
▁hodnotě	-10.6078
▁turnaje	-10.6081
▁dostali	-10.6094
▁lesy	-10.6096
▁nemáme	-10.6097
▁zápasu	-10.6098
▁starý	-10.6107
Ú	-10.6113
izační	-10.6115
▁znalosti	-10.6116
▁Firm	-10.6119
▁historický	-10.6125
▁jasně	-10.6126
▁nezávislost	-10.6129
▁hlad	-10.6131
▁letní	-10.6141
▁pražského	-10.6147
tivně	-10.6153
▁Pal	-10.6156
▁Moravy	-10.6159
▁třiceti	-10.6171
▁schválen	-10.6171
▁americk	-10.6177
▁vědom	-10.6184
▁všemi	-10.62
pozn	-10.6204
▁nákladní	-10.6208
▁120	-10.6223
▁Bratislavě	-10.6238
▁dividend	-10.6238
▁kompromis	-10.6238
▁monopol	-10.6238
▁odpověděl	-10.6238
▁otázce	-10.6238
▁rozpočtov	-10.6238
▁stadión	-10.6238
▁týdnů	-10.6238
▁uskuteční	-10.6238
▁potvrzen	-10.6238
▁Návrh	-10.6238
▁nabídnout	-10.6238
▁jaterní	-10.6238
▁Nakonec	-10.6238
▁stížnost	-10.6239
▁péči	-10.6239
▁žalob	-10.6239
▁podpora	-10.6239
▁Graf	-10.6239
▁patřil	-10.6239
▁interak	-10.6239
▁dovolit	-10.6239
▁server	-10.6239
běhu	-10.624
▁kategorie	-10.624
▁nepodařilo	-10.624
nášejí	-10.6243
▁žlut	-10.6244
▁okno	-10.6245
▁Podnik	-10.6249
▁Ruska	-10.6251
▁partnerů	-10.6252
▁nedostatek	-10.6255
▁připravit	-10.626
ston	-10.6266
▁Brno	-10.6268
▁zjistit	-10.627
▁prvky	-10.627
▁vyspělý	-10.6272
▁stará	-10.6273
▁přítomn	-10.6274
▁hře	-10.6279
▁vyvíj	-10.6279
▁tajné	-10.6283
TU	-10.6283
▁školní	-10.6284
▁sub	-10.6295
▁místy	-10.6296
▁vložen	-10.6297
hodnou	-10.6299
▁nezaměstnanosti	-10.63
▁buňky	-10.6303
▁soust	-10.6304
▁přiznal	-10.631
▁Novotn	-10.631
▁domácnosti	-10.6315
soudit	-10.6316
▁stejném	-10.6318
▁získání	-10.6322
▁malou	-10.6325
▁stanici	-10.6326
▁hledá	-10.6332
▁provést	-10.6333
▁víkend	-10.6334
tkání	-10.6353
▁návštěvě	-10.6361
hodné	-10.6362
▁hlubo	-10.6363
▁Lin	-10.6363
▁osobně	-10.6363
▁vojenský	-10.6363
LU	-10.6365
ební	-10.6369
▁vědecký	-10.6373
ezi	-10.6378
▁past	-10.6388
pálen	-10.639
▁jižní	-10.6394
▁Bor	-10.6394
▁modelů	-10.6394
▁církev	-10.64
▁něž	-10.6401
▁Evropský	-10.6406
▁odstup	-10.6423
▁okrese	-10.6427
▁55	-10.6436
▁srážk	-10.6442
▁tamní	-10.6442
▁desít	-10.6447
▁širok	-10.6459
▁advokát	-10.6466
▁existenci	-10.6466
▁funguje	-10.6466
▁křesťan	-10.6466
▁otevření	-10.6466
▁otázek	-10.6466
▁pojišťovna	-10.6466
▁rozhodovat	-10.6466
▁vyšetřování	-10.6466
▁poskytnut	-10.6466
▁Slunce	-10.6466
▁lokalit	-10.6466
▁ostatně	-10.6466
▁vytvoří	-10.6466
▁aktuální	-10.6466
▁přání	-10.6466
▁zálož	-10.6466
▁situací	-10.6466
▁vyberte	-10.6466
▁legend	-10.6466
▁zůstávají	-10.6466
▁islám	-10.6466
▁Znamen	-10.6466
▁letadla	-10.6466
▁žádá	-10.6466
▁dlouhodobé	-10.6467
▁stáří	-10.6467
▁molekulární	-10.6467
▁dobrou	-10.6468
▁partnera	-10.6468
▁operaci	-10.6469
▁prud	-10.6469
▁pochod	-10.6471
▁SRN	-10.6471
pozoruhodn	-10.6473
▁míní	-10.6473
▁protein	-10.6474
▁vystudoval	-10.6476
▁Obecn	-10.6479
▁příslušný	-10.6486
▁zájemců	-10.6486
▁prodal	-10.6486
▁magnet	-10.6487
▁západních	-10.6487
▁vypadá	-10.6493
▁Slov	-10.6499
▁nástroje	-10.6503
▁fakultě	-10.6504
nických	-10.6507
▁formě	-10.6509
▁filmů	-10.6518
▁oceněn	-10.652
▁nájemného	-10.6527
OVÁ	-10.6527
▁zjištění	-10.6527
▁tvor	-10.6529
▁Brna	-10.6529
▁potřeboval	-10.6529
▁začalo	-10.653
VI	-10.6538
▁sezóně	-10.6543
▁návštěvníků	-10.6544
▁složen	-10.6552
▁komory	-10.6567
▁fakulty	-10.6572
IL	-10.6575
ruší	-10.6576
▁označen	-10.6579
éměř	-10.6579
▁vojensk	-10.6579
▁docela	-10.6583
▁členem	-10.6588
▁trvale	-10.6592
▁víkendu	-10.6599
▁příběh	-10.6601
▁takovým	-10.6602
▁ministrů	-10.6606
▁obyvatelé	-10.6608
▁případy	-10.6608
▁nevím	-10.6611
logický	-10.6616
▁spojené	-10.6616
▁změní	-10.6632
▁přicházejí	-10.6638
▁čeho	-10.6639
▁pobytu	-10.6658
▁metoda	-10.6662
▁zjištěn	-10.667
▁interpret	-10.6683
▁struktury	-10.6694
▁Anglie	-10.6698
▁George	-10.6698
▁Nejvyšší	-10.6698
▁disciplín	-10.6698
▁institucí	-10.6698
▁jugoslávsk	-10.6698
▁laboratoř	-10.6698
▁literatur	-10.6698
▁mladší	-10.6698
▁nejčastěji	-10.6698
▁organizační	-10.6698
▁přinejmenším	-10.6698
▁příspěvek	-10.6698
▁software	-10.6698
▁spravedlnost	-10.6698
▁zabezpečení	-10.6698
▁dráhy	-10.6698
▁přispěl	-10.6698
▁rodičů	-10.6698
▁nestačí	-10.6698
▁pochopitelně	-10.6699
▁účinnost	-10.6699
▁souboj	-10.6699
▁předpisů	-10.6699
▁přírodovědeck	-10.6699
▁Polici	-10.6699
▁vlastnictví	-10.6699
▁přijít	-10.67
▁úloh	-10.6701
▁tvorby	-10.6702
▁podobu	-10.6704
dostanou	-10.6704
▁výplat	-10.6704
▁nezávisl	-10.6706
▁vrátí	-10.6706
▁poznatky	-10.6706
▁poruch	-10.6707
▁Stačí	-10.6709
▁Střed	-10.6709
▁vědců	-10.6712
▁přijmout	-10.6714
▁ekonomických	-10.6715
▁Bosně	-10.6715
▁most	-10.6716
▁Králové	-10.6724
▁nemusel	-10.6724
▁zničen	-10.6725
86	-10.6731
▁policisté	-10.6731
▁vozů	-10.6737
▁cíle	-10.6741
ěřitel	-10.6742
▁hodinách	-10.6744
▁uznání	-10.6744
▁předsedou	-10.6745
▁38	-10.675
cker	-10.6751
▁smut	-10.6751
▁obrazovky	-10.6758
▁levnější	-10.6759
▁dohoda	-10.6761
▁bot	-10.6764
▁církevní	-10.6766
▁léky	-10.677
▁českém	-10.6774
▁Er	-10.6776
▁klubů	-10.6783
▁komplexní	-10.6797
▁ideální	-10.6799
▁festival	-10.6805
▁sekund	-10.6806
▁Olomouci	-10.6813
▁Har	-10.6816
▁skutečný	-10.6831
▁původ	-10.6835
89	-10.6844
▁uvažuje	-10.6845
▁zápasů	-10.6855
▁fyziky	-10.6858
ohra	-10.686
nedávn	-10.6861
staral	-10.6863
▁českou	-10.6866
▁milion	-10.6882
▁ministrem	-10.6891
▁Stát	-10.6894
těsn	-10.6895
může	-10.6902
▁čekal	-10.6904
▁vydává	-10.6915
▁postižené	-10.6916
▁auta	-10.6917
71	-10.6918
▁pacienta	-10.6919
▁pojme	-10.6923
▁inteligen	-10.6936
▁Anglii	-10.6936
▁Jaromír	-10.6936
▁Microsoft	-10.6936
▁NHL	-10.6936
▁duchovní	-10.6936
▁francouzské	-10.6936
▁jménem	-10.6936
▁medaile	-10.6936
▁navzájem	-10.6936
▁odpovědi	-10.6936
▁požadavek	-10.6936
▁praktické	-10.6936
▁sortiment	-10.6936
▁tvůrc	-10.6936
▁uzavřít	-10.6936
▁veřejně	-10.6936
▁využívat	-10.6936
▁výpočetní	-10.6936
▁zabývat	-10.6936
▁zástupců	-10.6936
▁článek	-10.6936
▁manipul	-10.6936
▁mužstvo	-10.6936
▁Major	-10.6936
▁asociace	-10.6936
▁měřítk	-10.6936
▁poskytují	-10.6936
▁řetěz	-10.6936
▁prestiž	-10.6937
▁dětem	-10.6937
▁ČEZ	-10.6937
▁dočasn	-10.6937
▁chvíle	-10.6937
▁sfér	-10.6937
▁bolest	-10.6937
▁zhorš	-10.6938
▁Chtěl	-10.6939
▁venkov	-10.6944
▁okolní	-10.6945
▁risk	-10.6945
▁vzrostl	-10.6947
▁Odbor	-10.6948
ODS	-10.6948
▁třikrát	-10.6951
▁vysvětlit	-10.6951
▁hrob	-10.6953
▁disket	-10.6958
▁Prav	-10.6961
▁výstavby	-10.6961
▁dres	-10.6965
▁Kap	-10.697
▁Slav	-10.6974
15	-10.6975
▁přeměn	-10.6981
▁starosti	-10.6986
▁propad	-10.6986
▁týkající	-10.699
▁věděl	-10.6991
▁ulice	-10.6992
musela	-10.6994
▁sloup	-10.6997
▁překvapiv	-10.7002
▁Paul	-10.7005
▁250	-10.7011
volání	-10.7013
▁volně	-10.7017
▁umístění	-10.702
▁zemské	-10.7027
▁Takové	-10.7034
▁vydá	-10.7036
▁pracující	-10.7041
▁minulém	-10.7046
učili	-10.7049
▁obecné	-10.705
▁účastník	-10.7053
▁Profitu	-10.7057
▁používání	-10.706
▁obsahující	-10.7068
soudil	-10.707
▁osobnosti	-10.7077
▁stanovení	-10.708
▁Dvě	-10.708
▁společensk	-10.7084
▁novinářů	-10.7089
likvid	-10.7093
▁částic	-10.7094
spraš	-10.7101
▁fondů	-10.7103
▁herec	-10.7104
▁uvaž	-10.7109
rušení	-10.7116
▁stanoví	-10.7122
▁rozdělen	-10.7123
omín	-10.7124
histor	-10.7125
▁mistra	-10.7137
▁pokusil	-10.7138
▁výjimk	-10.7146
▁počítačové	-10.7155
▁dán	-10.7157
▁pracují	-10.7167
▁prezidentem	-10.7175
▁špičk	-10.7179
šetřit	-10.718
▁Důležit	-10.718
▁Obchodní	-10.718
▁dlouhý	-10.718
▁organizaci	-10.718
▁považuji	-10.718
▁souladu	-10.718
▁související	-10.718
▁údržb	-10.718
▁expozi	-10.718
▁kongres	-10.718
▁ministři	-10.718
▁generace	-10.718
▁vyhlášk	-10.718
▁vysoká	-10.718
▁Polska	-10.718
▁doporučen	-10.718
▁Žádn	-10.718
▁Potřeb	-10.718
▁El	-10.718
▁obrátil	-10.7181
šetří	-10.7181
▁chtít	-10.7181
▁motocykl	-10.7181
▁doping	-10.7181
▁vyplatí	-10.7181
▁Michal	-10.7181
▁Čtyř	-10.7181
▁vlajk	-10.7181
▁Možnost	-10.7182
ŘÍ	-10.7183
▁vystaven	-10.7183
▁tepeln	-10.7184
▁nejspíš	-10.7184
▁studia	-10.7184
▁územní	-10.7185
▁omyl	-10.7186
▁uvedený	-10.719
▁nedělní	-10.7191
čátkem	-10.7192
▁ukazují	-10.7202
▁odborných	-10.7203
enství	-10.7203
kupovat	-10.7207
▁dolar	-10.7208
▁dvanácti	-10.7208
▁samostatné	-10.7209
▁předložil	-10.721
▁neznamená	-10.7211
ňoval	-10.7211
▁hospodářský	-10.7213
▁Zlín	-10.7222
▁lesů	-10.7222
▁nástrojů	-10.7225
▁Představ	-10.7235
▁zajištění	-10.7238
▁nechá	-10.7239
▁prst	-10.7241
▁chodí	-10.7242
▁kdysi	-10.7242
skočil	-10.7246
age	-10.7248
▁možných	-10.7251
▁vystoupil	-10.7255
▁nedávné	-10.7259
▁silně	-10.7264
▁získáva	-10.7267
▁stiskn	-10.7268
OLE	-10.7268
tažení	-10.7272
ukce	-10.7273
▁panelu	-10.7277
▁hus	-10.7284
▁občané	-10.7289
▁hluboko	-10.729
▁nemělo	-10.7295
▁Karlovy	-10.7302
▁noční	-10.7304
▁ekologické	-10.7305
EK	-10.7305
▁Slovenské	-10.7307
▁zahájen	-10.7311
▁Konce	-10.7311
12	-10.7315
▁sekundu	-10.7317
nický	-10.7322
lezl	-10.7327
▁vědě	-10.733
▁ačkoli	-10.7337
▁věk	-10.7343
▁skončilo	-10.7345
▁red	-10.7347
▁politického	-10.735
▁souvislost	-10.7352
▁značný	-10.7357
▁Poslaneck	-10.7358
▁dostalo	-10.7359
▁možný	-10.7361
▁zákazníka	-10.7369
▁sousední	-10.737
▁samostatn	-10.7385
zie	-10.7386
▁pojištěn	-10.7392
▁některým	-10.7397
▁schopnosti	-10.7401
▁zpěv	-10.7402
▁hran	-10.7405
článk	-10.7409
jmout	-10.7414
▁dokonale	-10.7425
▁samé	-10.743
▁atmosféře	-10.743
▁delegace	-10.743
▁dozvěděl	-10.743
▁elektřin	-10.743
▁francouzský	-10.743
▁inflace	-10.743
▁květnu	-10.743
▁poptávka	-10.743
▁službu	-10.743
▁očekávan	-10.743
▁sedmnáct	-10.743
▁vysokoškol	-10.743
▁badatel	-10.743
▁mandát	-10.743
▁nejnovější	-10.743
▁Skutečn	-10.743
▁oblíben	-10.743
▁považují	-10.743
▁všude	-10.743
▁Nejvíce	-10.743
▁Viktor	-10.743
▁doprovod	-10.743
▁stanovisko	-10.743
▁přírodě	-10.743
▁soustředěn	-10.743
▁penzijní	-10.743
▁politická	-10.743
▁prosadit	-10.743
▁zábav	-10.743
▁Popper	-10.743
▁dohodnut	-10.7431
▁čísel	-10.7431
▁devadesát	-10.7431
▁tvořen	-10.7431
▁vyšetřovatel	-10.7431
▁Podnikatel	-10.7431
▁citliv	-10.7432
ovněž	-10.7432
▁vysloven	-10.7433
▁rytm	-10.7433
▁velitel	-10.7433
▁podaří	-10.7433
pravují	-10.7434
▁slovenských	-10.7435
▁dřívější	-10.7436
kazují	-10.7436
▁uživatelů	-10.7437
▁široké	-10.7438
▁vysvětlení	-10.7439
▁vrací	-10.744
▁výstup	-10.7441
▁myši	-10.7442
▁brát	-10.7444
▁mínění	-10.7445
▁grafik	-10.7445
▁zlato	-10.7446
▁získává	-10.7449
reform	-10.7449
▁Chceme	-10.745
▁řeší	-10.7453
▁časopisu	-10.7459
▁bilanc	-10.7461
ME	-10.7461
▁stupně	-10.7462
▁klepn	-10.7465
▁léků	-10.7466
▁průmyslový	-10.7469
▁vysvětlil	-10.7472
▁kamer	-10.7477
▁nedostal	-10.748
▁Kolik	-10.7482
11	-10.7484
▁podílel	-10.7484
▁dosahuje	-10.7487
jedou	-10.7489
▁podal	-10.7492
▁vědci	-10.7493
▁zkušeností	-10.7493
▁pohybují	-10.75
▁kvalita	-10.75
▁představit	-10.7501
▁mimořádné	-10.7503
tematick	-10.7509
31	-10.7512
▁zbytek	-10.7515
▁800	-10.7524
▁nesouhlasí	-10.7525
▁znaků	-10.7533
▁ukázalo	-10.754
vlas	-10.7542
▁Postup	-10.7542
▁místem	-10.7543
ED	-10.7545
▁přípravě	-10.7545
▁třídě	-10.7549
▁rozsah	-10.7556
▁stanic	-10.7557
▁Dán	-10.7558
lezsk	-10.7559
▁policist	-10.7582
▁rodinné	-10.7583
▁mimořádný	-10.7605
AC	-10.7611
▁závodě	-10.7611
▁dojem	-10.7612
▁volič	-10.7614
▁nebe	-10.7623
▁uzavřel	-10.7635
▁vodou	-10.7636
stupovat	-10.7643
▁orgánů	-10.7645
▁kanceláří	-10.7645
cc	-10.7646
▁role	-10.7654
pravděpodobností	-10.7656
▁mnohd	-10.7659
▁přírodověd	-10.7686
hlížet	-10.7687
▁Výsledk	-10.7687
▁atraktivní	-10.7687
▁blízké	-10.7687
▁centimetr	-10.7687
▁milióny	-10.7687
▁požadavků	-10.7687
▁rozšířit	-10.7687
▁telekomunikační	-10.7687
▁tiskárny	-10.7687
▁žebříčku	-10.7687
▁Zajímav	-10.7687
▁montáž	-10.7687
▁rozhraní	-10.7687
▁složky	-10.7687
▁dlouhá	-10.7687
▁předpokládat	-10.7687
▁Brazíli	-10.7687
▁používají	-10.7687
▁chráněn	-10.7687
▁koncepce	-10.7687
▁Důvod	-10.7687
▁závisí	-10.7687
▁zaplacen	-10.7687
▁externí	-10.7687
▁nabídce	-10.7687
▁naděje	-10.7687
▁vysoce	-10.7687
▁Sparty	-10.7687
▁vozidl	-10.7688
▁muzea	-10.7688
▁barvy	-10.7688
▁učinil	-10.7689
▁mozkov	-10.7691
▁naději	-10.7694
▁Knih	-10.7695
▁vysvětluje	-10.7695
▁unii	-10.7696
▁RN	-10.7697
▁Novák	-10.7703
▁koho	-10.7705
▁názorů	-10.7706
▁umožňující	-10.7707
▁Irsk	-10.7707
▁Chyb	-10.7712
▁můj	-10.7713
▁Nikdo	-10.7722
▁Nebyl	-10.7723
▁čtyřech	-10.7723
▁totéž	-10.7725
▁dvojice	-10.7727
▁čtvrté	-10.7735
ouze	-10.7742
▁přesvědč	-10.7744
OP	-10.7745
hnal	-10.7746
pamatuj	-10.7752
▁Stran	-10.7755
▁nemůžeme	-10.7756
▁šat	-10.7757
▁uvést	-10.776
▁stín	-10.776
▁agentura	-10.7768
▁grafické	-10.7771
příč	-10.7781
▁čtyřmi	-10.7785
prodej	-10.7787
▁Tur	-10.7793
▁podstatné	-10.7794
▁akciové	-10.7794
▁Autor	-10.78
▁čtenáře	-10.7812
▁Profit	-10.7819
▁finančn	-10.7826
▁jakékoli	-10.7832
▁zaměstnavatele	-10.7833
▁komplex	-10.7839
▁divák	-10.7841
▁světového	-10.7852
▁britský	-10.7859
večer	-10.786
▁stranou	-10.787
▁uzná	-10.789
elektrick	-10.7891
kládal	-10.7891
▁Met	-10.7892
projevuje	-10.7896
▁potřebný	-10.7901
místě	-10.7906
wan	-10.7907
▁fotbalistů	-10.7907
▁okolnost	-10.7908
▁občansk	-10.7908
▁stěn	-10.7913
▁Nizozemsk	-10.7918
▁Celkov	-10.7922
▁podání	-10.7923
korun	-10.7935
▁závodník	-10.7944
▁pivo	-10.7949
favorit	-10.795
▁Itálii	-10.795
▁Masaryk	-10.795
▁divadelní	-10.795
▁inženýr	-10.795
▁obligace	-10.795
▁orientac	-10.795
▁otevřené	-10.795
▁pedagog	-10.795
▁peněžní	-10.795
▁požaduje	-10.795
▁snižování	-10.795
▁vojáků	-10.795
▁výjimečn	-10.795
▁Miloslav	-10.795
▁komentář	-10.795
▁reagoval	-10.795
▁přirozený	-10.795
▁komplet	-10.795
▁rychlý	-10.795
▁úrovní	-10.795
▁zjistí	-10.795
▁zkušebn	-10.795
▁odsouzen	-10.795
▁poskytován	-10.795
▁skončení	-10.795
▁povinen	-10.795
▁absolvent	-10.795
▁nevěděl	-10.795
▁průkaz	-10.795
▁kilogram	-10.795
▁menšin	-10.795
▁Jugoslávii	-10.795
▁podívat	-10.795
▁důkladn	-10.7951
▁odstraněn	-10.7951
▁každodenn	-10.7951
▁najevo	-10.7952
▁kusů	-10.7953
▁zaplatil	-10.7954
▁reáln	-10.7954
▁zavře	-10.7956
▁říct	-10.7956
▁bytové	-10.7957
▁Peter	-10.7957
▁Mik	-10.7958
▁jistý	-10.7958
▁vybírat	-10.7959
▁plát	-10.7962
▁polské	-10.7968
▁geolog	-10.797
▁nesmírn	-10.7972
▁odvolání	-10.7973
▁strav	-10.7973
▁agent	-10.7974
▁průmysl	-10.7981
▁fax	-10.799
▁povolání	-10.7991
▁japonské	-10.7991
▁cyklus	-10.7994
▁vyhledá	-10.7996
▁Hra	-10.7998
▁Počet	-10.8002
▁plný	-10.8011
▁Moravě	-10.8012
▁pokyn	-10.8013
▁hlavu	-10.8022
▁předmětem	-10.8029
rážky	-10.805
▁klasick	-10.8052
▁politik	-10.8052
árek	-10.8053
▁důvodem	-10.8058
▁profesionál	-10.806
▁plno	-10.8061
▁skladb	-10.8064
▁pořádá	-10.8074
▁Stav	-10.8076
▁působ	-10.8077
▁resp	-10.8077
▁Fotbal	-10.8088
▁úvěrů	-10.809
▁klientů	-10.8093
▁dílem	-10.8096
▁schválil	-10.8098
▁podřízen	-10.8099
▁hmotnost	-10.8108
▁dramatick	-10.8113
▁31.	-10.8116
▁noc	-10.8123
važoval	-10.813
▁objektiv	-10.8141
▁nebezpečné	-10.8142
▁národů	-10.8152
▁dálnic	-10.8154
HA	-10.8169
▁zaveden	-10.8176
tisícov	-10.818
▁zajištěn	-10.818
▁Moh	-10.8185
biologick	-10.819
držení	-10.8191
▁Např	-10.8199
ěsíční	-10.8203
▁Maďar	-10.8211
▁průběh	-10.8213
▁Kovo	-10.8217
▁recept	-10.822
▁Kazachstán	-10.822
▁Oznámil	-10.822
▁Univerzit	-10.822
▁existovat	-10.822
▁informaci	-10.822
▁obtížné	-10.822
▁prezentací	-10.822
▁stříbrn	-10.822
▁svědomí	-10.822
▁ubytování	-10.822
▁vyjádřit	-10.822
▁vytvářet	-10.822
▁zdánlivě	-10.822
▁ztrácí	-10.822
▁poskytovat	-10.822
▁prodloužen	-10.822
▁Několik	-10.822
▁Problém	-10.822
▁bariér	-10.822
▁komerční	-10.822
▁komunismu	-10.822
▁sediment	-10.822
▁československé	-10.822
▁střediska	-10.822
▁veletrh	-10.822
▁února	-10.822
▁slavnostní	-10.822
▁Slovinsk	-10.8221
▁propojen	-10.8221
▁zmizel	-10.8221
▁zvětš	-10.8221
záběr	-10.8221
▁junio	-10.8221
▁kvantov	-10.8221
▁pěst	-10.8221
▁vlákn	-10.8221
▁předpisy	-10.8221
▁hrdin	-10.8223
▁vybraný	-10.8225
▁optimální	-10.8225
najdete	-10.8225
▁udělá	-10.8225
▁komunikace	-10.8226
▁prováděn	-10.8227
▁náskok	-10.8227
střelil	-10.8228
▁uvolněn	-10.8228
▁kupující	-10.8228
▁zítra	-10.8229
▁Bójové	-10.8229
▁továrn	-10.823
▁rychleji	-10.8231
▁bezplatn	-10.8233
▁zmíněný	-10.8234
▁Voj	-10.8234
▁hrách	-10.8238
▁zvolil	-10.8239
▁Ruské	-10.8243
▁sále	-10.8243
▁předložen	-10.8247
▁představil	-10.8247
▁Ostrav	-10.8252
▁závodech	-10.8253
▁psycholog	-10.8255
▁uplynul	-10.8255
▁podnikové	-10.8256
▁jednotek	-10.8257
▁klimatický	-10.8259
▁atomov	-10.8267
▁dohodl	-10.8268
▁ústřední	-10.8269
▁Mnoho	-10.8269
▁objevuje	-10.8271
▁hlavy	-10.8276
▁dohodě	-10.8281
▁dostávají	-10.8285
pana	-10.829
▁podvod	-10.829
nozí	-10.8291
▁zaznamenal	-10.8294
▁všeobecné	-10.8297
▁nadace	-10.8297
▁tradice	-10.83
úpln	-10.8306
ocel	-10.8307
44	-10.8308
▁vzdálenosti	-10.8311
▁obvinění	-10.8311
▁fyzické	-10.8313
▁politiků	-10.8314
▁brání	-10.8317
▁ostatními	-10.8328
▁vesnici	-10.8341
▁připoj	-10.8342
▁souborů	-10.8357
▁Vlastní	-10.8358
▁34	-10.8361
▁hledají	-10.8364
▁kalů	-10.8365
▁Internet	-10.8368
▁nájemní	-10.8377
▁mírové	-10.8387
▁trestný	-10.8398
sovětsk	-10.8399
▁automatick	-10.8402
▁domácnost	-10.8403
▁chyt	-10.8406
PS	-10.842
▁jasno	-10.8439
▁konečné	-10.8449
41	-10.8456
▁stán	-10.8458
sáhnout	-10.846
▁zajímavý	-10.8475
▁kontinent	-10.8483
▁privatiz	-10.8489
▁restaur	-10.8491
▁mohu	-10.8492
▁pečlivě	-10.8497
▁filmový	-10.8497
ačtyřicet	-10.8498
▁ClipArt	-10.8498
▁Krkonoš	-10.8498
▁basketbal	-10.8498
▁demokracii	-10.8498
▁fanoušků	-10.8498
▁lustrační	-10.8498
▁navštívil	-10.8498
▁nepochybn	-10.8498
▁nádraží	-10.8498
▁obligací	-10.8498
▁opoziční	-10.8498
▁osmnáct	-10.8498
▁otevřel	-10.8498
▁otázkou	-10.8498
▁ovzduší	-10.8498
▁pracoviště	-10.8498
▁prokurátor	-10.8498
▁vyrábí	-10.8498
▁železniční	-10.8498
▁jednoduše	-10.8498
▁pobřeží	-10.8498
▁častěji	-10.8498
poloviční	-10.8498
▁oblečení	-10.8498
▁Rumunsk	-10.8498
▁Pracovní	-10.8498
▁příchod	-10.8498
▁statut	-10.8498
▁odstranit	-10.8498
▁knize	-10.8499
▁modul	-10.8499
▁věnován	-10.8499
▁knížk	-10.8499
▁záření	-10.8499
▁obnoven	-10.85
▁blízkosti	-10.85
▁Tehd	-10.8501
▁vážné	-10.8502
▁dohodnout	-10.8502
▁raket	-10.8502
▁poradensk	-10.8503
▁Motor	-10.8507
▁říkal	-10.8508
▁scénář	-10.8508
▁přínos	-10.8509
▁několikrát	-10.8511
▁písmen	-10.8511
▁chyběl	-10.8513
nutil	-10.8513
▁Rád	-10.8514
tivnější	-10.8518
myslet	-10.8518
případě	-10.852
▁společník	-10.8522
▁pramen	-10.8526
▁Pět	-10.8526
▁ovládání	-10.8528
atrně	-10.8529
▁komunistické	-10.8529
▁vyvolal	-10.8529
▁připadá	-10.853
▁neznámý	-10.8532
▁přijímá	-10.8532
týdenní	-10.8535
▁převzal	-10.8537
▁pomůže	-10.8541
▁Sun	-10.8543
▁dělník	-10.8545
▁kvalitě	-10.8551
krás	-10.8553
▁mrav	-10.8556
▁uprostřed	-10.856
hodnotit	-10.8564
▁Taková	-10.857
▁1000	-10.8571
▁fyzick	-10.8571
▁závodů	-10.8572
lizace	-10.8605
▁žít	-10.8609
▁aminokyselin	-10.8609
ohledem	-10.8619
poví	-10.8643
▁chemický	-10.8647
▁okamžik	-10.8653
▁přijel	-10.8653
▁Lon	-10.8664
▁Škod	-10.8665
▁tajný	-10.867
daných	-10.8682
▁blíží	-10.8705
dél	-10.8713
▁začínají	-10.8725
▁pevné	-10.8733
řazen	-10.8747
ářské	-10.8748
▁přerušen	-10.8772
:3	-10.8783
▁konzerv	-10.8783
▁pochopit	-10.8783
▁dopoledne	-10.8784
▁doporučuje	-10.8784
▁ministerstvu	-10.8784
▁nejrychleji	-10.8784
▁partneři	-10.8784
▁poskytnout	-10.8784
▁považovat	-10.8784
▁rekonstrukci	-10.8784
▁rozhoduje	-10.8784
▁spravedliv	-10.8784
▁strategie	-10.8784
▁vyrábět	-10.8784
▁Americe	-10.8784
▁areálu	-10.8784
▁kompres	-10.8784
▁neobvykl	-10.8784
▁mateřsk	-10.8784
▁dveře	-10.8784
▁klášte	-10.8784
▁policii	-10.8784
▁reakce	-10.8784
▁úhrad	-10.8784
▁Trenér	-10.8784
▁dubna	-10.8784
▁taneční	-10.8784
▁majetkov	-10.8784
▁Havla	-10.8784
▁politickou	-10.8784
▁sledoval	-10.8784
▁sloužit	-10.8784
▁praktický	-10.8784
▁srdce	-10.8784
▁jaře	-10.8784
▁muzik	-10.8784
▁Excel	-10.8785
nášet	-10.8785
▁humor	-10.8785
▁Pozor	-10.8785
▁sovětských	-10.8786
▁Klub	-10.8787
▁penze	-10.8788
▁vězení	-10.8789
▁psát	-10.8789
▁rozlišení	-10.8789
krácen	-10.879
▁vzít	-10.879
▁zachovat	-10.8795
▁krve	-10.8796
▁výlet	-10.8796
▁Konečn	-10.8797
▁dotací	-10.8797
škodliv	-10.8797
▁klesl	-10.8798
▁porážk	-10.88
▁trvat	-10.88
BA	-10.8802
▁ukončení	-10.8811
▁provádět	-10.8815
▁kořen	-10.8817
▁stavby	-10.8819
▁vyhlásil	-10.882
▁produkty	-10.882
▁obsahovat	-10.8822
▁Mont	-10.8824
▁dřev	-10.8826
▁foto	-10.8827
▁dítěte	-10.8832
▁Musím	-10.8834
▁narození	-10.8834
▁evropsk	-10.8837
▁přišli	-10.8846
▁elektrické	-10.8848
▁připojení	-10.8849
▁vydat	-10.8851
▁cestující	-10.8857
▁zastavit	-10.8859
▁schválení	-10.8871
▁vším	-10.8874
▁zjevn	-10.8877
▁čekat	-10.8879
▁postavit	-10.888
▁objektivní	-10.8887
▁mírně	-10.8896
▁cosi	-10.8903
▁tvrdé	-10.8924
▁maximální	-10.8925
▁stati	-10.8927
▁správný	-10.8928
▁Eva	-10.893
▁pozitiv	-10.8931
DI	-10.8934
▁Vlast	-10.8947
▁46	-10.8952
IP	-10.8967
▁samostatně	-10.8991
▁větr	-10.8996
▁rozšířen	-10.8998
▁právník	-10.9
oporu	-10.9003
▁cyklu	-10.9028
▁Mnoh	-10.9029
▁rostou	-10.9039
▁poskytl	-10.9044
▁Clinton	-10.9045
vádět	-10.9045
▁Mag	-10.9051
▁odkaz	-10.9058
legislativ	-10.9058
▁vlak	-10.9068
▁horní	-10.907
▁blízko	-10.9075
▁Stanislav	-10.9078
▁Wimbledon	-10.9078
▁geometrie	-10.9078
▁miliónu	-10.9078
▁nepřízniv	-10.9078
▁opozice	-10.9078
▁producent	-10.9078
▁referendu	-10.9078
▁výsledku	-10.9078
▁zahrnuje	-10.9078
▁zásluh	-10.9078
švédsk	-10.9078
▁inspekto	-10.9078
▁snižuje	-10.9078
▁vstříc	-10.9078
zapomněl	-10.9078
▁figur	-10.9078
▁účinky	-10.9078
▁března	-10.9078
▁zahynul	-10.9078
▁závazn	-10.9078
▁šťastn	-10.9078
▁funkcionář	-10.9078
▁rozmezí	-10.9078
▁čtvrtletí	-10.9078
▁uprchl	-10.9078
▁aparát	-10.9078
▁páté	-10.9078
▁terorist	-10.9078
▁sotva	-10.9078
▁kupónov	-10.9078
▁využil	-10.9078
▁zvýší	-10.9078
▁klesá	-10.9079
▁středověk	-10.9079
▁rakouské	-10.9079
▁nositel	-10.9079
▁necelý	-10.9079
▁morální	-10.9079
▁terén	-10.9079
▁knihovn	-10.908
vládnout	-10.9081
▁duchu	-10.9081
▁Fond	-10.9081
▁útočník	-10.9082
▁téhož	-10.9082
▁pověst	-10.9083
▁130	-10.9084
▁diskusi	-10.9086
▁nesmysl	-10.909
▁Šest	-10.9091
▁zajišťuje	-10.9096
▁průmyslové	-10.9098
▁návod	-10.9106
▁školách	-10.9111
▁věnuje	-10.9114
▁vybral	-10.9114
▁nedovol	-10.9118
▁únik	-10.9126
▁zachování	-10.9127
▁vzpomíná	-10.9128
chybějí	-10.9141
▁činit	-10.9142
▁poradce	-10.9156
▁běžn	-10.9163
▁vysvětl	-10.9163
▁přestal	-10.9164
▁kovů	-10.9169
skutk	-10.9171
dvacetiletý	-10.9178
▁Zemi	-10.9178
nická	-10.9182
▁samostatný	-10.9183
▁krajan	-10.9196
▁skutečn	-10.9197
▁Med	-10.9201
zákon	-10.9206
rent	-10.9209
čková	-10.9213
příliš	-10.922
▁urychlen	-10.9224
▁chladn	-10.9227
▁potřebu	-10.923
▁personál	-10.9239
off	-10.9245
logicky	-10.9268
ložený	-10.9273
▁minulost	-10.9286
▁ostře	-10.9286
končit	-10.9296
▁čistý	-10.9298
riti	-10.9307
▁obsahují	-10.9308
▁obrovské	-10.9309
▁ozbrojený	-10.931
▁pravděpodobn	-10.9315
▁koordin	-10.9318
▁Občanské	-10.9331
▁projevil	-10.9334
▁Malé	-10.9337
▁zásadně	-10.9346
▁samozřejm	-10.9346
▁večerní	-10.9356
▁vzdálenost	-10.9366
▁poznat	-10.9369
▁reakci	-10.9375
▁Otázka	-10.9381
▁definitivně	-10.9381
▁digitální	-10.9381
▁důvěru	-10.9381
▁gigant	-10.9381
▁hřišti	-10.9381
▁jednorázov	-10.9381
▁kyslíku	-10.9381
▁navrhuje	-10.9381
▁otevřený	-10.9381
▁označit	-10.9381
▁pokračování	-10.9381
▁prognóz	-10.9381
▁rovnová	-10.9381
▁rozšířil	-10.9381
▁sekretář	-10.9381
▁softwarov	-10.9381
▁transformaci	-10.9381
▁vyjadřuj	-10.9381
▁výdajů	-10.9381
▁vězňů	-10.9381
▁začátek	-10.9381
▁divadlo	-10.9381
▁infekc	-10.9381
▁předvolební	-10.9381
▁zemědělců	-10.9381
▁sexuální	-10.9381
▁tarif	-10.9381
▁výročí	-10.9381
▁zvyšování	-10.9381
▁používal	-10.9381
▁vozidel	-10.9381
▁Československé	-10.9381
▁prozatím	-10.9381
▁prosinci	-10.9381
▁náměstk	-10.9381
▁dětský	-10.9381
▁vyskytují	-10.9381
▁Třeba	-10.9381
▁využívají	-10.9381
▁října	-10.9381
▁vazby	-10.9381
▁zrušit	-10.9381
▁ukázk	-10.9381
▁Býval	-10.9381
▁opačné	-10.9381
▁skleník	-10.9381
▁vteřin	-10.9381
PI	-10.9381
▁statistik	-10.9381
▁poplatky	-10.9381
▁počtem	-10.9381
počtů	-10.9381
▁Práce	-10.9381
▁rozsáhlé	-10.9381
▁nastavení	-10.9381
▁nikoho	-10.9381
▁svoje	-10.9381
▁obvyklé	-10.9382
▁rakovin	-10.9382
▁neplatí	-10.9382
▁Pomoc	-10.9382
▁Východ	-10.9382
▁Prostě	-10.9382
▁Tvrd	-10.9383
▁hluboké	-10.9383
▁uplatňuj	-10.9383
▁přispíva	-10.9385
▁myšlenky	-10.9385
▁zastavil	-10.9387
▁Hill	-10.9388
▁Němec	-10.9397
▁Člen	-10.9399
▁Cest	-10.9401
▁tunel	-10.9405
látka	-10.9407
▁koupi	-10.9408
▁mechanismus	-10.9417
▁poradit	-10.9419
▁sídle	-10.9421
▁stručn	-10.9421
▁rostoucí	-10.9421
VÍ	-10.9429
zemědělských	-10.9429
▁oběti	-10.9433
▁Uvedl	-10.9436
▁staveb	-10.9438
příště	-10.9441
▁bratr	-10.9447
▁loňský	-10.9451
▁vydělá	-10.9468
▁vstupné	-10.9474
▁odešl	-10.948
edení	-10.9485
vrácení	-10.9486
▁dramat	-10.9505
▁pravděpodobnost	-10.9516
▁kapel	-10.9529
▁Světové	-10.9534
▁barevný	-10.9537
▁objevují	-10.9543
mála	-10.9568
▁průměrné	-10.9581
▁postavil	-10.9583
bírají	-10.9598
dáme	-10.9604
▁žil	-10.9608
blok	-10.9615
▁důraz	-10.9637
gel	-10.9645
▁lékařsk	-10.9655
▁Tad	-10.9658
▁Bój	-10.9683
ografie	-10.9693
▁paradox	-10.9693
▁Angličan	-10.9693
▁Argentin	-10.9693
▁Evropu	-10.9693
▁Mechanik	-10.9693
▁Mečiar	-10.9693
▁Němců	-10.9693
▁Premiér	-10.9693
▁Staroměstské	-10.9693
▁Systém	-10.9693
▁absolutní	-10.9693
▁definitivní	-10.9693
▁kilobajtů	-10.9693
▁podepsán	-10.9693
▁podezření	-10.9693
▁potvrzuje	-10.9693
▁připomněl	-10.9693
▁tabulce	-10.9693
▁teorií	-10.9693
▁vyžádal	-10.9693
▁zastupitelstva	-10.9693
▁sjednocení	-10.9693
▁smlouvě	-10.9693
▁Vývoj	-10.9693
▁kyselin	-10.9693
▁komplikov	-10.9693
▁tvořit	-10.9693
▁účinek	-10.9693
▁GSM	-10.9693
▁poločas	-10.9693
▁pochopil	-10.9693
▁režii	-10.9693
máhat	-10.9693
▁schůze	-10.9693
▁aspekt	-10.9693
▁pohádk	-10.9693
▁Druhá	-10.9693
▁zdarma	-10.9693
▁zrušil	-10.9693
▁lehce	-10.9693
▁Jihlav	-10.9693
▁celků	-10.9693
▁membrán	-10.9694
▁pokrok	-10.9694
▁ukončil	-10.9694
▁čerstv	-10.9694
▁popř	-10.9694
▁nález	-10.9694
▁špatný	-10.9694
táhne	-10.9694
▁tramvaj	-10.9695
▁střetnutí	-10.9695
▁hustot	-10.9695
▁("	-10.9696
▁vyřešen	-10.9696
▁spotřeby	-10.9697
▁nádor	-10.9698
▁nejenom	-10.9699
▁pověřen	-10.9699
▁neprav	-10.97
▁projednáva	-10.97
▁nedokázal	-10.97
▁vězni	-10.9701
▁Jednání	-10.9702
▁bránit	-10.9702
▁termo	-10.9704
▁duše	-10.9704
▁diskuse	-10.9705
▁Cíle	-10.9706
88	-10.9707
▁ovoce	-10.9707
▁balík	-10.9707
▁kódování	-10.971
▁189	-10.9711
▁existující	-10.9711
▁kamion	-10.9714
▁produkci	-10.9715
▁dostatek	-10.9718
tratil	-10.9719
▁Dodal	-10.972
▁snaz	-10.9721
▁Řeck	-10.9724
▁vyvolává	-10.9724
▁systematick	-10.9724
▁přístav	-10.9725
▁vaši	-10.973
▁sláv	-10.9737
▁zvěře	-10.9749
▁předložit	-10.9752
▁ceník	-10.9758
▁cenný	-10.9765
▁dolní	-10.9765
▁užívání	-10.9768
svědčil	-10.9773
iletá	-10.9776
▁Jelcinov	-10.9779
▁rodinný	-10.9792
CA	-10.9796
▁pokladn	-10.9796
▁přímý	-10.9802
▁klasický	-10.9806
▁strážník	-10.9806
▁obrovský	-10.9816
▁živnost	-10.9822
▁anglický	-10.9826
▁zdravotnické	-10.9829
▁Severní	-10.9833
▁běh	-10.9837
LOV	-10.9845
▁listin	-10.9853
▁nezávislé	-10.9865
▁vzduch	-10.9885
▁moment	-10.9899
▁zdravé	-10.9901
▁představitele	-10.991
▁socialist	-10.991
▁počítačový	-10.9927
▁nájemník	-10.9938
ařské	-10.9939
▁loňsk	-10.9941
▁Vlk	-10.9949
▁ponech	-10.9974
▁okamžit	-10.9981
pomínají	-10.9988
plňuje	-10.9992
ontrol	-11.0005
▁analog	-11.0012
pomeňme	-11.0016
▁Bruselu	-11.0016
▁ToolBook	-11.0016
▁dohromady	-11.0016
▁nejnižší	-11.0016
▁pokračuje	-11.0016
▁porozumění	-11.0016
▁přispět	-11.0016
▁spořiteln	-11.0016
▁uskutečnit	-11.0016
▁volejbal	-11.0016
▁Člověk	-11.0016
▁Určit	-11.0016
▁demonstra	-11.0016
▁dražší	-11.0016
▁každoročn	-11.0016
▁sportovců	-11.0016
▁dynamick	-11.0016
▁nemohu	-11.0016
▁snažit	-11.0016
▁Vítěz	-11.0016
▁pokračují	-11.0016
▁Elektr	-11.0016
▁Poslanc	-11.0016
▁index	-11.0016
▁podporovat	-11.0016
▁vyplývají	-11.0016
▁medaili	-11.0016
▁vyřešit	-11.0016
▁chystá	-11.0016
▁krizi	-11.0016
▁vybudovat	-11.0016
sáhne	-11.0016
▁Mnichov	-11.0016
▁bílkovin	-11.0016
▁vypadat	-11.0016
▁Histori	-11.0016
▁Vysok	-11.0016
▁srážek	-11.0016
▁uvidí	-11.0016
▁hůře	-11.0016
▁Osobn	-11.0016
▁turisty	-11.0016
▁doufá	-11.0016
▁mlýn	-11.0016
▁umělecké	-11.0016
▁skončí	-11.0016
▁přiměřen	-11.0017
▁kolegů	-11.0017
▁sněhu	-11.0017
mítnut	-11.0017
▁mzdov	-11.0018
▁zhodnocení	-11.0018
▁dobrá	-11.0018
▁tvorbě	-11.0019
▁obilí	-11.002
▁mld	-11.0021
▁vedlejší	-11.0021
▁pouští	-11.0022
▁chlap	-11.0024
▁sběr	-11.0026
▁ráz	-11.0026
▁síti	-11.0027
▁penzion	-11.0029
▁spodní	-11.003
▁dcer	-11.003
▁těší	-11.0032
▁dešti	-11.0033
▁přesvědčit	-11.0034
▁připojit	-11.0035
▁deviz	-11.0036
vázal	-11.0036
▁vyřazen	-11.0036
▁všeobecně	-11.0036
▁Form	-11.0037
▁čestn	-11.0043
▁přinést	-11.0048
ačnou	-11.0049
▁atmosféry	-11.0049
▁Hradci	-11.0052
▁filmové	-11.0053
▁Ústavní	-11.0056
▁tělo	-11.0063
▁spolupracovníků	-11.0063
▁pohyboval	-11.0064
IA	-11.0065
▁Krát	-11.0068
▁stávající	-11.0075
▁obav	-11.008
▁úkon	-11.0081
▁Cup	-11.0081
▁ruky	-11.0087
▁svalov	-11.0088
▁postoje	-11.0094
▁nadšen	-11.0096
▁klasické	-11.0105
▁ulic	-11.0121
ALI	-11.0126
▁grafický	-11.0146
▁mlh	-11.0168
▁personální	-11.0169
▁kolektiv	-11.0176
třída	-11.0178
▁kolektivní	-11.0187
▁Sever	-11.0214
▁městský	-11.022
▁Novotný	-11.0244
nutně	-11.025
▁buňk	-11.0256
▁panel	-11.0272
▁mladý	-11.0278
▁Nic	-11.0347
▁Mluvčí	-11.0349
▁Rudolf	-11.0349
▁elektráren	-11.0349
▁intenzit	-11.0349
▁jednoduchá	-11.0349
▁metropoli	-11.0349
▁nechtějí	-11.0349
▁nejpozději	-11.0349
▁obsažen	-11.0349
▁otevřena	-11.0349
▁pochopení	-11.0349
▁výpověď	-11.0349
▁Pardubic	-11.0349
▁dosažení	-11.0349
▁teorii	-11.0349
▁tradičně	-11.0349
▁Obsah	-11.0349
▁očekával	-11.0349
▁hrozb	-11.0349
▁neutrální	-11.0349
plácet	-11.0349
táhnout	-11.0349
▁jmění	-11.0349
▁složitější	-11.0349
▁únoru	-11.0349
▁Moskva	-11.0349
▁vysílá	-11.0349
▁Peníze	-11.0349
▁mechanick	-11.0349
▁reakcí	-11.0349
▁řídící	-11.035
▁multi	-11.035
▁mezd	-11.035
▁likvidace	-11.035
▁Divadl	-11.035
▁anket	-11.035
▁břehu	-11.035
▁vzácn	-11.035
▁nevýhod	-11.0351
▁hezk	-11.0351
▁poplatník	-11.0352
▁Rozdíl	-11.0352
▁letecké	-11.0352
▁restauraci	-11.0352
▁Zástupc	-11.0353
▁přesahuj	-11.0353
▁úlev	-11.0354
▁kabel	-11.0355
▁operací	-11.0355
▁kategorii	-11.0355
▁dotace	-11.0355
▁dojít	-11.0356
evropský	-11.0356
▁Obdobn	-11.0357
nvestiční	-11.0357
▁grafick	-11.0358
▁dělají	-11.0358
▁1,5	-11.0359
▁platil	-11.0361
▁Slovan	-11.0362
▁předběžn	-11.0364
▁výhodnější	-11.0364
▁vtip	-11.0365
počtu	-11.0365
▁utrpěl	-11.0367
▁bytost	-11.037
▁reformy	-11.0371
▁podporuje	-11.0373
▁udržení	-11.0376
▁ideál	-11.0381
▁městech	-11.0381
▁konečný	-11.0385
visí	-11.0386
▁oblačnost	-11.0389
▁podnikatelský	-11.039
▁množ	-11.039
▁komunisti	-11.0394
ČE	-11.0401
▁vyvolá	-11.0412
▁účinně	-11.0421
▁Kohl	-11.0425
ptal	-11.0429
hraniční	-11.0444
▁Nemá	-11.0445
národních	-11.0448
▁kapitálové	-11.0454
vláda	-11.0473
▁Takový	-11.0479
▁Bank	-11.0502
▁průměrný	-11.0508
▁vzpomínk	-11.0516
▁hledal	-11.0541
▁reálný	-11.0552
▁trestné	-11.0555
▁tank	-11.0561
▁mluvil	-11.0562
▁Zahraničn	-11.0564
atřicet	-11.0573
▁nezaměstnanost	-11.0599
▁stranick	-11.0601
▁soli	-11.0606
oučástí	-11.0633
▁narozen	-11.0635
dpověď	-11.0649
▁Stal	-11.065
▁kilometr	-11.066
hrává	-11.067
▁Afriky	-11.0694
▁Ameriky	-11.0694
▁Bohužel	-11.0694
▁Ladislav	-11.0694
▁Nedávn	-11.0694
▁Plzni	-11.0694
▁SCSI	-11.0694
▁Telecom	-11.0694
▁bosenský	-11.0694
▁devatenáct	-11.0694
▁energii	-11.0694
▁gymnázi	-11.0694
▁instituce	-11.0694
▁investování	-11.0694
▁konkrétně	-11.0694
▁nejvýznamnější	-11.0694
▁nejúspěšnější	-11.0694
▁obrázky	-11.0694
▁plzeňsk	-11.0694
▁upozorněn	-11.0694
▁Účast	-11.0694
▁čtvereční	-11.0694
▁čtvrtfinále	-11.0694
▁nizozemsk	-11.0694
▁rámeček	-11.0694
▁strojírensk	-11.0694
▁výrobek	-11.0694
▁hudby	-11.0694
▁podpořil	-11.0694
▁přirozené	-11.0694
▁hloubk	-11.0694
▁ohrožuj	-11.0694
▁garant	-11.0694
▁lokální	-11.0694
▁požadují	-11.0694
▁Policisté	-11.0694
▁kapitán	-11.0694
▁předčasn	-11.0694
▁chránit	-11.0694
▁ztráce	-11.0694
▁mládí	-11.0694
▁pobočk	-11.0694
▁koncepci	-11.0694
▁názvu	-11.0694
▁nalézt	-11.0694
▁trzích	-11.0694
▁David	-11.0694
▁schránk	-11.0694
máhají	-11.0695
▁Včera	-11.0695
▁Všeobecn	-11.0695
▁odstavce	-11.0695
▁okénk	-11.0695
▁pouhé	-11.0695
▁umělecký	-11.0695
▁klasifik	-11.0695
▁zaujal	-11.0695
▁závad	-11.0695
▁léčebn	-11.0695
▁zimě	-11.0695
▁použil	-11.0695
▁ekonomicky	-11.0696
▁dražb	-11.0696
▁vybrané	-11.0696
▁stabilní	-11.0696
▁Chip	-11.0696
pouštějí	-11.0697
ight	-11.0698
▁věnovan	-11.07
najdeme	-11.07
▁Tentokrát	-11.0701
▁nadcházející	-11.0703
beton	-11.0703
▁Britsk	-11.0704
▁koncern	-11.0705
▁sklon	-11.0707
▁Nevím	-11.0707
▁kategorií	-11.0708
▁kated	-11.0708
▁síla	-11.0717
▁hlavou	-11.072
▁faktorů	-11.072
▁lamp	-11.0721
JÍ	-11.0724
▁navazuj	-11.0724
▁opravdov	-11.0724
▁49	-11.073
▁plod	-11.0731
▁světovou	-11.0732
▁připojen	-11.0739
▁tón	-11.0745
▁originální	-11.0748
▁51	-11.0755
▁dvojic	-11.0755
▁DEM	-11.0763
mlouva	-11.0763
ogenní	-11.0782
▁Japon	-11.0791
'	-11.0793
▁biologické	-11.0793
▁relac	-11.0798
▁výrazný	-11.0805
▁vyvoláva	-11.0831
▁nekonečn	-11.087
▁textový	-11.0873
▁blíže	-11.0889
▁vlk	-11.0889
stihnout	-11.0891
▁turistický	-11.0904
▁chemick	-11.0911
▁nesouhlas	-11.0916
etické	-11.0918
▁listopad	-11.0921
▁konve	-11.0928
cestoval	-11.0948
▁objevit	-11.0959
▁zvlád	-11.0959
vnějších	-11.0988
▁zastoupen	-11.0995
▁stovk	-11.1002
▁poukaz	-11.1002
▁řízen	-11.1018
reprezenta	-11.1046
ntelektuál	-11.1051
▁Alexandr	-11.1051
▁Barceloně	-11.1051
▁Británii	-11.1051
▁Bělehrad	-11.1051
▁IFOR	-11.1051
▁Nejlepší	-11.1051
▁Portugalsk	-11.1051
▁azbest	-11.1051
▁chorvatské	-11.1051
▁cigaret	-11.1051
▁honorář	-11.1051
▁instalaci	-11.1051
▁multimediální	-11.1051
▁následek	-11.1051
▁podmínkou	-11.1051
▁požádat	-11.1051
▁publikován	-11.1051
▁tlačítka	-11.1051
▁tlačítkem	-11.1051
▁týdně	-11.1051
▁umožnit	-11.1051
▁úsměv	-11.1051
palestinsk	-11.1051
▁Bohemia	-11.1051
▁fázi	-11.1051
▁populární	-11.1051
▁pravidlo	-11.1051
nápověd	-11.1051
▁1987	-11.1051
▁březnu	-11.1051
▁normy	-11.1051
▁1996	-11.1051
▁bazén	-11.1051
▁pomáhá	-11.1051
▁Organiza	-11.1051
▁déšť	-11.1051
▁kratší	-11.1051
▁pololetí	-11.1051
▁vrstvy	-11.1051
▁naléhav	-11.1051
▁zklamán	-11.1051
▁chalup	-11.1051
▁příslušníci	-11.1051
▁ploše	-11.1051
spěje	-11.1051
▁doposud	-11.1051
▁těžce	-11.1051
▁Srbsk	-11.1051
▁vyplácen	-11.1051
▁kanadsk	-11.1051
▁ukáže	-11.1052
▁Věřím	-11.1052
▁provozovatel	-11.1052
▁divize	-11.1052
▁norma	-11.1052
▁sociálně	-11.1052
▁Soubor	-11.1052
▁zajímat	-11.1052
▁Robert	-11.1052
▁značky	-11.1052
▁likvidaci	-11.1052
▁někoho	-11.1052
▁úvodu	-11.1052
▁Část	-11.1052
▁pozdější	-11.1052
▁barvu	-11.1052
▁Závěr	-11.1052
▁ocitl	-11.1053
▁prodávající	-11.1053
certifik	-11.1054
▁stoupl	-11.1054
▁Hodnot	-11.1055
▁kvalifikace	-11.1055
▁komisi	-11.1055
▁nedokáž	-11.1055
▁ekonomice	-11.1055
▁nutný	-11.1056
▁historik	-11.1056
ČNÍ	-11.1057
▁Jenom	-11.1057
▁Případ	-11.1058
▁zkušen	-11.1058
▁debat	-11.1058
▁zeleni	-11.1059
▁zjednoduš	-11.106
▁klimatu	-11.1061
▁drog	-11.1064
▁uvažovat	-11.1064
▁Generální	-11.1065
abilní	-11.1067
▁99	-11.1073
▁desky	-11.108
▁obrovsk	-11.1082
▁pozorování	-11.1083
▁důsledk	-11.1084
krýt	-11.1086
vlastn	-11.1088
mínil	-11.1093
▁180	-11.11
▁myšlenka	-11.1102
▁posílen	-11.1108
▁Slovensk	-11.1112
▁průmyslov	-11.112
▁vánoc	-11.1125
▁členský	-11.1127
▁Znám	-11.1127
▁absolvoval	-11.113
▁výkonné	-11.1138
▁masov	-11.1149
řád	-11.1155
▁britsk	-11.117
▁plet	-11.1175
▁výkonnost	-11.119
▁odložen	-11.119
▁poklesl	-11.1193
konala	-11.1193
▁fyzický	-11.1198
▁Mohl	-11.1222
bíral	-11.1225
▁poledn	-11.1239
▁historick	-11.1273
.12.	-11.1291
krývají	-11.1301
▁nejedn	-11.1316
▁Velm	-11.1316
yplývá	-11.132
▁psycho	-11.1327
jmenovaný	-11.1342
▁Správ	-11.1346
▁pouště	-11.1351
▁Společn	-11.1352
▁vymezen	-11.1366
▁stupni	-11.1373
▁Nikd	-11.1374
jíždějí	-11.1405
psaný	-11.1408
▁zjednodušen	-11.1412
▁působící	-11.1415
▁vyšetřova	-11.142
▁antropolog	-11.1421
▁Chomutov	-11.1422
▁Původně	-11.1422
▁Zvláštní	-11.1422
▁akcionářů	-11.1422
▁církví	-11.1422
▁deficit	-11.1422
▁galerie	-11.1422
▁náboženství	-11.1422
▁obrázků	-11.1422
▁ovlivňuje	-11.1422
▁potrestán	-11.1422
▁priorit	-11.1422
▁produktivit	-11.1422
▁prosazovat	-11.1422
▁páteční	-11.1422
▁srdeční	-11.1422
▁upozorňuje	-11.1422
▁Ukrajiny	-11.1422
▁nedaleko	-11.1422
▁obsluh	-11.1422
▁orchestr	-11.1422
▁ovladač	-11.1422
▁zpracováva	-11.1422
▁1997	-11.1422
▁posádk	-11.1422
▁přežití	-11.1422
▁sledování	-11.1422
▁specifik	-11.1422
▁Koaliční	-11.1422
▁hřiště	-11.1422
▁naznačil	-11.1422
▁IBM	-11.1422
▁určuje	-11.1422
▁šetření	-11.1422
▁držitel	-11.1422
▁bronz	-11.1422
▁nepřátel	-11.1422
▁dveří	-11.1422
▁oxidu	-11.1422
▁vrstev	-11.1422
▁burze	-11.1422
▁příznak	-11.1422
▁středoevropsk	-11.1422
▁vzrůst	-11.1422
▁enzym	-11.1422
▁usilovat	-11.1422
▁patrné	-11.1422
▁podnicích	-11.1422
připravovan	-11.1422
▁proslul	-11.1422
▁Tchaj	-11.1422
▁podporou	-11.1422
▁příslušníků	-11.1422
▁potíží	-11.1422
▁pronájem	-11.1422
▁sdělovací	-11.1422
▁Formát	-11.1422
▁fáze	-11.1422
▁Trans	-11.1422
▁kritické	-11.1422
▁Tureck	-11.1422
▁příliv	-11.1422
▁filozofie	-11.1423
▁Word	-11.1423
▁královn	-11.1423
▁vzestup	-11.1423
▁lyžař	-11.1423
▁Situac	-11.1423
▁naposledy	-11.1423
▁zámku	-11.1423
hodlají	-11.1424
▁svátky	-11.1424
vázat	-11.1424
▁myšlenkou	-11.1424
▁modifik	-11.1425
▁násilí	-11.1425
▁hutní	-11.1427
▁integraci	-11.1427
střih	-11.1428
cházelo	-11.1428
▁hostitel	-11.1428
▁těžb	-11.1428
▁myšlenku	-11.1428
▁válka	-11.1429
▁Kreml	-11.143
▁odhadnout	-11.143
▁nehodlá	-11.1431
▁Týr	-11.1431
▁manželství	-11.1432
▁uhlí	-11.1432
hodinové	-11.1432
▁měnové	-11.1432
▁šíření	-11.1432
▁sílu	-11.1433
▁slabší	-11.1434
▁tratí	-11.1436
▁profil	-11.1436
▁prováze	-11.1436
▁nevhodn	-11.1436
▁vážný	-11.1437
▁podnět	-11.1439
▁obnovu	-11.1443
▁dlouhodobě	-11.1443
▁nízko	-11.1443
▁znamenalo	-11.1446
▁návštěvník	-11.1462
▁zaměstnanec	-11.1462
▁Komis	-11.1465
▁Nizozem	-11.1467
psychologick	-11.1469
▁silnější	-11.1473
▁jádro	-11.1474
▁společenský	-11.1477
bíhají	-11.1491
▁vymez	-11.1497
▁začínající	-11.1498
nechává	-11.1511
▁mírový	-11.1524
▁poslání	-11.1525
▁kvalifik	-11.1525
▁totožn	-11.1532
ézt	-11.1546
▁jezer	-11.1549
▁KON	-11.156
▁potřebn	-11.1565
▁zachoval	-11.158
kryl	-11.1592
▁agentur	-11.1597
▁italský	-11.1599
vesel	-11.1619
▁představoval	-11.1624
▁kvalifikovan	-11.1632
▁Tisk	-11.1642
▁vzdá	-11.1662
▁Jac	-11.1669
části	-11.1674
▁vysoko	-11.1676
▁centrál	-11.1679
▁slovník	-11.1684
studoval	-11.1711
▁obrazovk	-11.1715
▁snížen	-11.1719
▁Výhod	-11.1734
▁zrušen	-11.1747
▁zajímavost	-11.1773
jištěn	-11.1774
▁lidové	-11.1778
▁trati	-11.1784
▁vzhled	-11.1787
▁hygienic	-11.1789
▁obtížně	-11.1801
kupuje	-11.1802
radioaktivní	-11.1806
▁Průměrn	-11.1806
▁Rakušan	-11.1806
▁Republik	-11.1806
▁Vedoucí	-11.1806
▁Výzkum	-11.1806
▁důležitá	-11.1806
▁fotoaparát	-11.1806
▁inspekce	-11.1806
▁instalace	-11.1806
▁majetkem	-11.1806
▁oznámení	-11.1806
▁pohledávek	-11.1806
▁redakce	-11.1806
▁upozornit	-11.1806
▁vyšetření	-11.1806
▁1984	-11.1806
▁Sovětský	-11.1806
▁Thajsk	-11.1806
▁dodatečně	-11.1806
▁franků	-11.1806
▁května	-11.1806
▁nezměnil	-11.1806
▁1968	-11.1806
▁DPH	-11.1806
▁Nejdřív	-11.1806
▁nejmenší	-11.1806
▁Temelín	-11.1806
▁zoufal	-11.1806
▁Bejbl	-11.1806
▁stupňů	-11.1806
▁hrubého	-11.1806
▁zakladatel	-11.1806
▁konstrukce	-11.1806
▁period	-11.1806
tvrzují	-11.1806
▁pojmů	-11.1806
▁certifikát	-11.1806
▁zkratk	-11.1806
▁vyvinul	-11.1806
▁ordinac	-11.1806
▁stovek	-11.1807
▁dvojnásobn	-11.1807
▁jedince	-11.1807
▁teplá	-11.1807
▁vojsk	-11.1807
▁Bílé	-11.1807
▁audio	-11.1807
▁přežít	-11.1807
▁chápat	-11.1807
▁sehrál	-11.1807
▁Sokol	-11.1807
▁pružn	-11.1807
▁zkoumá	-11.1807
▁Asociac	-11.1808
▁Řešení	-11.1808
▁ozdob	-11.1808
▁kvalifikační	-11.1808
▁platební	-11.1809
▁vyroben	-11.1809
▁uváděn	-11.1809
▁sněhov	-11.181
▁spolupracovat	-11.181
▁Norsk	-11.181
▁německá	-11.181
losování	-11.1811
▁Plán	-11.1811
▁poznatků	-11.1811
▁1986	-11.1811
▁restaurace	-11.1811
▁III	-11.1812
▁něčem	-11.1812
▁formální	-11.1812
▁kuponov	-11.1812
▁modem	-11.1812
▁vázán	-11.1812
▁zatížen	-11.1813
▁Dan	-11.1814
▁složité	-11.1814
▁rychlejší	-11.1814
▁poslanecké	-11.1817
▁3,5	-11.1817
pravicov	-11.1818
▁podzemní	-11.1818
▁volbami	-11.1818
▁žáků	-11.1819
▁Bill	-11.182
▁marně	-11.182
▁nohy	-11.1821
▁rozložení	-11.1821
▁Cheb	-11.1825
nutit	-11.1825
▁zlaté	-11.1825
▁ČZ	-11.1828
▁mírn	-11.1829
▁Potom	-11.1831
▁legislativní	-11.1832
▁týdeník	-11.1842
SKO	-11.1854
▁přesvědčiv	-11.187
▁pozván	-11.1871
tisknout	-11.1876
▁vystupuj	-11.1882
▁doplněn	-11.1883
▁jevů	-11.1887
▁ozbrojen	-11.1897
▁věrn	-11.1908
▁neshod	-11.1941
▁turistick	-11.1968
morav	-11.1981
vyšších	-11.1987
▁hydro	-11.1997
▁spotřebu	-11.2009
▁charakterizova	-11.2029
▁olympijsk	-11.2059
▁podstatný	-11.2063
▁zdravotnický	-11.2091
▁Obča	-11.2098
svědčení	-11.2108
▁rozhodnut	-11.2133
hruba	-11.2152
▁zřetel	-11.2173
▁koš	-11.2176
▁Smlouv	-11.2182
trpěl	-11.2184
▁Vždy	-11.2205
▁kalendář	-11.2206
▁EuroTel	-11.2206
▁Kalvoda	-11.2206
▁Okresní	-11.2206
▁Sociální	-11.2206
▁brambor	-11.2206
▁energetik	-11.2206
▁firmám	-11.2206
▁hovořit	-11.2206
▁komponent	-11.2206
▁naštěstí	-11.2206
▁nejrychlejší	-11.2206
▁nežádoucí	-11.2206
▁náležit	-11.2206
▁ovlivňují	-11.2206
▁označuje	-11.2206
▁posuzovat	-11.2206
▁pracovnice	-11.2206
▁převzít	-11.2206
▁redaktor	-11.2206
▁rejstříku	-11.2206
▁velkoobchod	-11.2206
▁zdokonal	-11.2206
zanedbateln	-11.2206
▁celostátní	-11.2206
▁domnívají	-11.2206
▁publiku	-11.2206
▁radikální	-11.2206
▁spoluhráč	-11.2206
glaciál	-11.2206
▁Domácí	-11.2206
▁připomínk	-11.2206
▁vyhlídk	-11.2206
▁zázemí	-11.2206
▁dubnu	-11.2206
▁stránek	-11.2206
▁uplatnit	-11.2206
▁kamarád	-11.2206
▁vyžadují	-11.2206
▁Českomoravsk	-11.2206
▁Poborský	-11.2206
▁souhrn	-11.2206
▁Druhou	-11.2206
▁odlišný	-11.2206
▁přál	-11.2206
▁efektivní	-11.2206
▁Všechno	-11.2206
▁osvobození	-11.2206
▁zásilk	-11.2206
▁pokoušel	-11.2206
▁viditeln	-11.2206
▁nevědí	-11.2206
▁záloh	-11.2206
▁Musel	-11.2206
▁fungují	-11.2206
▁učinit	-11.2206
▁Zákaz	-11.2207
▁Označ	-11.2207
▁nestačil	-11.2207
▁invalid	-11.2207
▁navržen	-11.2207
▁sněžení	-11.2207
▁Šéf	-11.2207
▁prodlení	-11.2207
▁forem	-11.2207
▁samospráv	-11.2207
▁slyšet	-11.2207
▁Slavii	-11.2208
▁ztracen	-11.2208
biologie	-11.2208
▁dlouhodobý	-11.2208
▁přijatelné	-11.2208
▁rysy	-11.2208
▁vracet	-11.2208
▁podílejí	-11.2208
▁škál	-11.221
▁obrazovce	-11.221
přát	-11.221
▁říkají	-11.221
▁Grand	-11.2211
žádají	-11.2211
▁Objekt	-11.2211
▁vezme	-11.2212
▁studií	-11.2212
▁občanství	-11.2215
▁Vesel	-11.2217
lepnutím	-11.2218
▁dohad	-11.2225
▁viděn	-11.2225
ujme	-11.2239
jistit	-11.2245
▁zpěvák	-11.2253
▁Dohod	-11.2255
▁Zelen	-11.2279
▁dávk	-11.2298
▁případný	-11.2306
novými	-11.2316
▁úplné	-11.2337
atřicetilet	-11.2349
▁Králov	-11.2365
▁odehráv	-11.2382
▁Františk	-11.2384
hodnost	-11.2405
členné	-11.2409
▁mořský	-11.2416
▁vnímá	-11.2441
▁zřízen	-11.2501
▁osvět	-11.2505
dávky	-11.251
▁Prac	-11.2549
▁mechanismu	-11.2573
ifikace	-11.261
▁předcházel	-11.2616
▁administra	-11.2622
▁komunální	-11.2623
mýšlí	-11.2623
▁CADKON	-11.2623
▁Finanční	-11.2623
▁Intergraph	-11.2623
▁Lebeď	-11.2623
▁Následuj	-11.2623
▁Pithart	-11.2623
▁Zjuganov	-11.2623
▁bližší	-11.2623
▁církvi	-11.2623
▁fenomén	-11.2623
▁hektar	-11.2623
▁konferencí	-11.2623
▁lázeňsk	-11.2623
▁navrhnout	-11.2623
▁nepřetržit	-11.2623
▁neschopnost	-11.2623
▁nábytku	-11.2623
▁odmítají	-11.2623
▁odpovědí	-11.2623
▁ovlivněn	-11.2623
▁psychiatr	-11.2623
▁reagovat	-11.2623
▁schůzi	-11.2623
▁softwaru	-11.2623
▁strategii	-11.2623
▁technologii	-11.2623
▁triumf	-11.2623
▁ukazatel	-11.2623
▁uzavírá	-11.2623
▁vytvářejí	-11.2623
▁zpoždění	-11.2623
▁zpátky	-11.2623
▁zálivu	-11.2623
▁zůstanou	-11.2623
▁živočichů	-11.2623
▁žádoucí	-11.2623
rehabilit	-11.2623
▁Alžbět	-11.2623
▁Nejčastěj	-11.2623
▁Srbů	-11.2623
▁altruismu	-11.2623
▁dědictví	-11.2623
▁leasing	-11.2623
▁nejstarší	-11.2623
▁otevírá	-11.2623
▁Vídni	-11.2623
▁asistent	-11.2623
▁jazz	-11.2623
▁atentát	-11.2623
▁nárůst	-11.2623
▁public	-11.2623
▁říjnu	-11.2623
▁květin	-11.2623
▁nezaměstnaných	-11.2623
▁dovednost	-11.2623
▁Bratink	-11.2623
▁Mencl	-11.2623
▁vyvinut	-11.2623
▁splatnosti	-11.2623
▁Mazda	-11.2623
▁zastavení	-11.2623
zajišťují	-11.2623
▁vyznačuj	-11.2623
▁podpoře	-11.2623
▁Praktick	-11.2623
▁nízká	-11.2623
▁zpomal	-11.2623
▁Polsko	-11.2623
▁dokáží	-11.2623
▁mřížk	-11.2623
sazování	-11.2623
▁splnit	-11.2623
následuj	-11.2623
jíždí	-11.2623
▁diagram	-11.2623
štejn	-11.2624
▁maximum	-11.2624
▁jistou	-11.2624
▁kombinaci	-11.2624
podivu	-11.2624
▁zazněl	-11.2624
▁přednášk	-11.2625
▁stůl	-11.2625
▁Andre	-11.2625
▁náprav	-11.2625
▁zvolit	-11.2625
▁rozsáhlý	-11.2625
▁zahrnut	-11.2626
▁brzd	-11.2626
▁Nabídk	-11.2626
▁interval	-11.2626
▁zařadil	-11.2626
▁vyrovnal	-11.2626
▁délce	-11.2627
▁trpí	-11.2627
▁Charles	-11.2627
▁vrchní	-11.2627
▁Mimo	-11.2628
▁ligové	-11.2628
▁komunikaci	-11.2629
▁nejvýše	-11.263
▁Sedm	-11.263
▁ponechat	-11.263
▁kreslení	-11.263
▁Zálež	-11.263
kryje	-11.263
▁simul	-11.2632
▁nakažen	-11.2633
▁nastat	-11.2633
▁Technick	-11.2636
▁Bonn	-11.2637
▁otec	-11.2638
oprvé	-11.2641
▁blesk	-11.2646
chytit	-11.2653
▁energetické	-11.2661
charakterizuj	-11.2671
▁Mír	-11.269
▁nazýva	-11.272
▁zvěř	-11.2749
▁zkresl	-11.276
ower	-11.2773
▁fotbalov	-11.2795
schválila	-11.2815
▁jezdil	-11.2822
kreslen	-11.2915
▁včerejš	-11.2918
vládne	-11.2925
▁královsk	-11.2929
▁čínské	-11.2959
▁plic	-11.2974
stoupení	-11.3005
▁Siln	-11.3007
▁Invest	-11.3007
plyn	-11.3036
pomíná	-11.304
▁uplynulý	-11.3049
▁pozdě	-11.3054
prezentuje	-11.3057
▁nejmodernější	-11.3058
▁Bratislava	-11.3058
▁Demokratick	-11.3058
▁Jindřich	-11.3058
▁cizince	-11.3058
▁dodržování	-11.3058
▁galerii	-11.3058
▁hlubší	-11.3058
▁hypotéz	-11.3058
▁identifik	-11.3058
▁kompetence	-11.3058
▁konstatuje	-11.3058
▁metropole	-11.3058
▁mikroorganism	-11.3058
▁nejhorší	-11.3058
▁nejznámější	-11.3058
▁nominální	-11.3058
▁otevřít	-11.3058
▁podpořit	-11.3058
▁požadovat	-11.3058
▁prohlídk	-11.3058
▁představenstva	-11.3058
▁reaktor	-11.3058
▁semifinále	-11.3058
▁strategií	-11.3058
▁udržuje	-11.3058
▁vojáci	-11.3058
▁wimbledonsk	-11.3058
▁zveřejnil	-11.3058
▁šablon	-11.3058
▁Nedvěd	-11.3058
▁Počítač	-11.3058
▁Tigrid	-11.3058
▁generací	-11.3058
▁literární	-11.3058
▁požadoval	-11.3058
▁přitažliv	-11.3058
▁vydavatel	-11.3058
▁výsledn	-11.3058
▁zúčastněn	-11.3058
▁Africe	-11.3058
▁Casimir	-11.3058
▁NDR	-11.3058
▁Ostatní	-11.3058
▁byznys	-11.3058
▁charakteristik	-11.3058
▁polojasno	-11.3058
▁složek	-11.3058
▁žadatel	-11.3058
dostatečnou	-11.3058
▁Majitel	-11.3058
▁strávil	-11.3058
▁stránky	-11.3058
▁kodex	-11.3058
▁Podstatn	-11.3058
▁nátlak	-11.3058
▁vyhovuje	-11.3058
▁údolí	-11.3058
střílel	-11.3058
▁vystřídal	-11.3058
▁Dříve	-11.3058
▁divadle	-11.3058
▁patřičn	-11.3058
▁položky	-11.3058
▁čtvrteční	-11.3058
▁rytíř	-11.3058
▁nevidí	-11.3058
▁nízký	-11.3058
▁Městsk	-11.3058
▁logické	-11.3058
▁doporučil	-11.3058
▁vyrovnat	-11.3058
▁Jugoslávie	-11.3058
▁poplatek	-11.3058
▁počínaj	-11.3058
▁informovan	-11.3058
▁stoupá	-11.3058
chlazení	-11.3058
▁splnil	-11.3058
▁Prodej	-11.3058
▁potravinářské	-11.3058
▁účinku	-11.3058
▁podobná	-11.3059
▁štáb	-11.3059
povídat	-11.3059
▁Komerčn	-11.3059
▁Rychl	-11.3059
▁fotografie	-11.3059
▁přijme	-11.3059
▁počkat	-11.306
▁rakouský	-11.306
▁ekonomická	-11.306
▁peset	-11.306
▁Maďarsku	-11.306
▁zaručen	-11.306
▁ničem	-11.3061
▁korekc	-11.3061
▁Marie	-11.3061
▁nápoj	-11.3062
▁radnici	-11.3062
▁verzí	-11.3063
▁Začal	-11.3063
▁barva	-11.3065
▁malíř	-11.3065
▁neděle	-11.3066
▁černý	-11.3066
▁dozor	-11.3068
▁Ruml	-11.3069
▁vstupenk	-11.3069
▁teple	-11.3071
▁odhalen	-11.3072
▁lodi	-11.3072
▁Uveden	-11.3073
▁divok	-11.3078
▁řekne	-11.308
pochyby	-11.3087
▁zlatý	-11.3099
▁odvet	-11.3101
▁přelom	-11.3103
▁složitý	-11.3109
▁zvaný	-11.3119
▁prožil	-11.3127
▁akciov	-11.3139
▁krut	-11.3149
▁energetický	-11.3154
padesát	-11.3166
▁Děl	-11.3182
▁symbolick	-11.3206
▁čínský	-11.3213
▁úrokov	-11.3216
▁Vaše	-11.3218
íčko	-11.3255
▁optick	-11.3267
▁obuv	-11.3267
který	-11.3272
▁průběžn	-11.3345
přijeli	-11.3363
Severoatlantické	-11.3378
▁pozic	-11.3414
▁vyspěl	-11.3442
hrával	-11.3453
▁převážn	-11.3478
▁konečn	-11.3506
▁zved	-11.3507
▁Kongres	-11.3512
FIFA	-11.3512
▁Budějovic	-11.3512
▁Bulharsk	-11.3512
▁Dienstbier	-11.3512
▁Dosavadní	-11.3512
▁Fischer	-11.3512
▁Manažer	-11.3512
▁Návštěv	-11.3512
▁Siemens	-11.3512
▁Skupina	-11.3512
▁Těžko	-11.3512
▁biskup	-11.3512
▁byrokrat	-11.3512
▁chirurg	-11.3512
▁družstvo	-11.3512
▁družstvu	-11.3512
▁geometrii	-11.3512
▁inflaci	-11.3512
▁naznačuje	-11.3512
▁normálně	-11.3512
▁organizáto	-11.3512
▁označován	-11.3512
▁regenerace	-11.3512
▁rekonstrukce	-11.3512
▁rozšiřuje	-11.3512
▁rámečku	-11.3512
▁seznámit	-11.3512
▁skupenství	-11.3512
▁službě	-11.3512
▁strategické	-11.3512
▁transformační	-11.3512
▁vyhodnocen	-11.3512
▁zajistí	-11.3512
▁zúčastnit	-11.3512
▁Štědrý	-11.3512
▁design	-11.3512
▁neuspěl	-11.3512
▁velvyslanectví	-11.3512
▁čistíren	-11.3512
▁1982	-11.3512
▁disponuj	-11.3512
▁obličej	-11.3512
▁přiznává	-11.3512
▁zákrok	-11.3512
▁neomezen	-11.3512
▁shodují	-11.3512
▁stránku	-11.3512
▁výživ	-11.3512
následoval	-11.3512
připravoval	-11.3512
▁Poldi	-11.3512
▁Červen	-11.3512
▁Dušan	-11.3512
▁posuzován	-11.3512
▁dodávek	-11.3512
▁vládnoucí	-11.3512
▁vstupenek	-11.3512
▁středisko	-11.3512
▁Armád	-11.3512
▁nabídkou	-11.3512
▁žádat	-11.3512
▁posléze	-11.3512
▁usiluje	-11.3512
▁informován	-11.3512
▁uznat	-11.3512
▁Náklady	-11.3512
▁konstrukcí	-11.3512
▁skromn	-11.3512
▁Bavor	-11.3512
▁Manžel	-11.3512
▁Otevř	-11.3512
▁udržova	-11.3512
▁vazeb	-11.3512
▁vazba	-11.3512
▁zastánc	-11.3512
▁jindy	-11.3512
▁Varech	-11.3513
▁tribunál	-11.3513
▁salát	-11.3513
▁spoléha	-11.3513
▁leckd	-11.3513
▁hrůz	-11.3513
▁Projekt	-11.3513
▁nabídne	-11.3514
▁přejít	-11.3514
▁zodpovědnost	-11.3514
▁Slavia	-11.3514
▁náhlé	-11.3514
▁nepotřebuje	-11.3514
▁senátní	-11.3514
allye	-11.3515
▁duševní	-11.3515
▁Rozhodnutí	-11.3515
▁chuť	-11.3515
▁chaos	-11.3515
▁profesi	-11.3515
▁rozmístěn	-11.3515
▁směřuje	-11.3516
▁trvající	-11.3516
▁Milán	-11.3517
▁Oprav	-11.3518
hrádk	-11.3519
▁nejsem	-11.3519
▁ohně	-11.352
střelen	-11.3521
▁nesporn	-11.3522
▁nezákonn	-11.3523
▁napaden	-11.3534
▁bojovn	-11.355
▁tmav	-11.3553
▁svatb	-11.3562
Přerov	-11.3563
▁Clintonov	-11.3564
▁brněnsk	-11.3594
kurzor	-11.3623
▁Poslanec	-11.3646
zývají	-11.3649
▁zatčen	-11.3651
▁přenosov	-11.3721
▁zvon	-11.3728
▁Nemoh	-11.374
například	-11.374
▁Fotbalist	-11.3741
▁urychl	-11.3755
schopné	-11.3765
▁světeln	-11.3788
▁násiln	-11.3794
rovné	-11.3799
▁elektronický	-11.3844
▁Washington	-11.3857
▁užívá	-11.3878
▁důvěry	-11.3879
nejvýš	-11.3981
▁zhodnoc	-11.3985
▁ubytovací	-11.3988
▁Blízké	-11.3988
▁Ekonomick	-11.3988
▁Gabčíkov	-11.3988
▁William	-11.3988
▁aplikaci	-11.3988
▁důležitou	-11.3988
▁filharmoni	-11.3988
▁kariéru	-11.3988
▁neexistují	-11.3988
▁ovlivnit	-11.3988
▁paralel	-11.3988
▁podmínkám	-11.3988
▁popularit	-11.3988
▁přirozeně	-11.3988
▁referenda	-11.3988
▁vyráběn	-11.3988
▁výpovědi	-11.3988
▁zneužití	-11.3988
▁Kreslení	-11.3988
▁Předpokládá	-11.3988
▁kanalizace	-11.3988
▁konkurent	-11.3988
▁nepřítel	-11.3988
▁předpokládal	-11.3988
▁snižovat	-11.3988
▁svědky	-11.3988
▁vynález	-11.3988
▁zázrak	-11.3988
▁komunistů	-11.3988
▁setkáváme	-11.3988
▁lehké	-11.3988
▁fosilní	-11.3988
▁kontrakt	-11.3988
▁pomůck	-11.3988
▁Michail	-11.3988
atlantick	-11.3988
▁stupeň	-11.3988
▁etapě	-11.3988
▁obrátit	-11.3988
▁rubrik	-11.3988
▁přivezl	-11.3988
▁jedinců	-11.3988
zřídka	-11.3988
▁československý	-11.3988
▁zvyšují	-11.3988
▁klobouk	-11.3988
▁nezmění	-11.3988
▁politicky	-11.3988
▁přídav	-11.3989
▁talent	-11.3989
▁povahy	-11.3989
imochodem	-11.3989
▁Dynam	-11.3989
▁Atlantiku	-11.3989
▁válku	-11.3989
▁budoucna	-11.3989
▁češtině	-11.3989
▁přírodu	-11.3989
▁antropologie	-11.3989
▁organick	-11.3989
▁týče	-11.3989
▁staletí	-11.3989
▁zbaven	-11.3989
▁smečky	-11.3989
▁administrativní	-11.3989
▁zkrátka	-11.3989
▁image	-11.3989
▁Karpov	-11.3989
hlíží	-11.3989
▁výtečn	-11.3989
▁Lendl	-11.399
▁chybět	-11.399
▁Boyle	-11.399
průchod	-11.399
▁kombinace	-11.399
▁mzda	-11.399
▁vyšla	-11.3991
▁hokejisté	-11.3991
▁obzor	-11.3991
▁rumunsk	-11.3991
▁stavět	-11.3991
▁vytížen	-11.3991
▁Zdeňk	-11.3992
▁arabské	-11.3992
▁distributor	-11.3992
▁induk	-11.3993
▁kritický	-11.3993
▁Středisk	-11.3993
▁JAK	-11.3994
▁poražen	-11.3995
▁ocenil	-11.3995
▁nálad	-11.3995
▁převah	-11.3996
▁dostupné	-11.3996
▁solidní	-11.3997
kcionáři	-11.3997
▁rozprav	-11.4
▁psů	-11.4
▁Maďarsko	-11.4002
▁arabský	-11.4004
▁zabit	-11.4005
bydlí	-11.4005
zkoušet	-11.4008
▁ligový	-11.4009
▁Pokus	-11.401
▁ohni	-11.4011
ukční	-11.4014
rovnávací	-11.4016
▁hračk	-11.4016
▁euro	-11.4016
▁ráj	-11.4025
▁Krist	-11.4031
▁nápln	-11.4037
kazil	-11.4039
▁stád	-11.4043
přesněji	-11.4048
▁genetick	-11.4056
zřetelně	-11.4058
▁Slovák	-11.406
▁uznávan	-11.4064
jadern	-11.4076
▁zachován	-11.4077
▁absolv	-11.4079
▁vyprš	-11.409
▁italsk	-11.4119
▁totemismu	-11.4122
escu	-11.4128
řejmě	-11.4151
▁kluk	-11.4209
▁archeolog	-11.4228
▁rusk	-11.4245
▁Král	-11.4265
▁krav	-11.4283
▁převlád	-11.4322
tvrdí	-11.4327
místo	-11.4329
příkladu	-11.4343
▁týkají	-11.4375
▁japon	-11.4395
▁řešen	-11.4425
▁oddělen	-11.4436
olicejní	-11.4485
▁obdiv	-11.4488
▁anonymní	-11.4488
▁komfort	-11.4488
▁kriminál	-11.4488
▁pohotovost	-11.4488
▁počáteční	-11.4488
▁strategický	-11.4488
▁uskutečň	-11.4488
▁Doufám	-11.4488
▁PŘED	-11.4488
▁Výsledek	-11.4488
▁Wembley	-11.4488
▁Zdravotn	-11.4488
▁cizinců	-11.4488
▁definovat	-11.4488
▁dvojnásobek	-11.4488
▁evidenci	-11.4488
▁humanitární	-11.4488
▁intenzivně	-11.4488
▁království	-11.4488
▁lhůty	-11.4488
▁neúspěch	-11.4488
▁otázkách	-11.4488
▁ošetření	-11.4488
▁podruhé	-11.4488
▁převzetí	-11.4488
▁připomenout	-11.4488
▁revoluce	-11.4488
▁tvůrčí	-11.4488
▁týdnu	-11.4488
▁uhličitého	-11.4488
▁upozorňují	-11.4488
▁veřejnou	-11.4488
▁zdravotně	-11.4488
▁zvyšovat	-11.4488
▁zážitek	-11.4488
peptid	-11.4488
▁HGF	-11.4488
▁dětmi	-11.4488
▁nabídnut	-11.4488
▁srozumiteln	-11.4488
▁výrobku	-11.4488
▁zajistil	-11.4488
neštěstí	-11.4488
▁Boleslav	-11.4488
▁projednávání	-11.4488
▁užitečné	-11.4488
▁řekněme	-11.4488
▁Poborského	-11.4488
▁ostravské	-11.4488
▁sankce	-11.4488
▁zloděj	-11.4488
▁Výjimk	-11.4488
▁sportovci	-11.4488
▁Havlov	-11.4488
▁LDS	-11.4488
▁promítá	-11.4488
▁série	-11.4488
▁skener	-11.4488
▁umístit	-11.4488
▁Nobelov	-11.4488
▁souprav	-11.4488
▁popsán	-11.4488
▁mobilní	-11.4488
▁srpnu	-11.4488
▁pátý	-11.4488
▁Mostaru	-11.4488
▁opačný	-11.4488
pomáhal	-11.4488
▁krystal	-11.4488
▁MHz	-11.4488
▁sleduje	-11.4489
▁Počítá	-11.4489
▁chemie	-11.4489
▁odevzda	-11.4489
▁kompost	-11.4489
▁potravy	-11.4489
▁pozemků	-11.4489
▁centrem	-11.4489
▁zhoubn	-11.4489
▁nepatří	-11.4489
▁Komora	-11.4489
▁komisí	-11.4489
▁Názor	-11.4489
▁rozvinut	-11.4489
▁stačit	-11.4489
▁stěžují	-11.4489
▁sehnat	-11.4489
▁národnostní	-11.4489
▁letišti	-11.4489
▁minimum	-11.4489
▁román	-11.4489
skočit	-11.4489
▁veličin	-11.4489
▁Prahu	-11.4489
▁konzervativní	-11.4489
záhad	-11.4489
▁Filip	-11.4489
▁Ústí	-11.4489
▁kostým	-11.4489
▁shluk	-11.4489
▁obránce	-11.4489
▁modernizaci	-11.4489
▁Úprav	-11.4489
▁proběhla	-11.4489
▁turisté	-11.449
▁vyhověl	-11.449
▁Večer	-11.449
▁nebrání	-11.449
▁obnovit	-11.449
▁Strakoni	-11.449
▁remíz	-11.4491
▁karet	-11.4492
vážet	-11.4492
▁pilot	-11.4493
▁diskusí	-11.4493
▁emise	-11.4493
▁azyl	-11.4493
▁moudr	-11.4494
▁Klepn	-11.4494
▁chrání	-11.4494
▁podobnost	-11.4496
▁zaslal	-11.4498
ohledně	-11.4498
▁dovoluje	-11.4499
▁vylepš	-11.45
rozuměj	-11.4503
▁dárk	-11.4506
▁bát	-11.4507
určují	-11.4514
rychlostní	-11.4519
▁útočn	-11.4522
▁prosím	-11.4533
▁Bosn	-11.4534
▁Seznam	-11.4535
▁kolekc	-11.4552
▁pták	-11.457
0.000	-11.4572
důrazně	-11.4582
pouštět	-11.4586
▁Chorvat	-11.4662
bírat	-11.4711
▁vzpomín	-11.4714
cestovat	-11.4719
▁klinick	-11.4737
▁registrac	-11.4739
▁věčn	-11.4767
▁Turist	-11.4805
▁zemědělsk	-11.4832
tvořily	-11.4856
▁šampionát	-11.4884
▁spolupracovník	-11.4938
▁povolen	-11.4987
ografii	-11.5014
sekretariát	-11.5015
▁Dvořák	-11.5015
▁Lubomír	-11.5015
▁Maastrichtu	-11.5015
▁Schneider	-11.5015
▁Vinohrad	-11.5015
▁Weizs	-11.5015
▁cizinci	-11.5015
▁deklarace	-11.5015
▁evoluční	-11.5015
▁institut	-11.5015
▁kancléř	-11.5015
▁kmitočt	-11.5015
▁kytarist	-11.5015
▁lékáren	-11.5015
▁medailí	-11.5015
▁ministerstev	-11.5015
▁nemožné	-11.5015
▁opozici	-11.5015
▁oživení	-11.5015
▁portfoli	-11.5015
▁posouzení	-11.5015
▁přeháňky	-11.5015
▁redakci	-11.5015
▁restituční	-11.5015
▁skript	-11.5015
▁struktuře	-11.5015
▁tabulátor	-11.5015
▁tiskárna	-11.5015
▁tisíciletí	-11.5015
▁univerzáln	-11.5015
▁uspokojení	-11.5015
▁uzávěr	-11.5015
▁vyloučit	-11.5015
▁zúčastní	-11.5015
zrcadl	-11.5015
▁Bayern	-11.5015
▁Sarajev	-11.5015
▁archív	-11.5015
▁bratislavsk	-11.5015
▁cizině	-11.5015
▁komunisté	-11.5015
▁minerální	-11.5015
▁nečekaně	-11.5015
▁oslaben	-11.5015
▁spánku	-11.5015
▁vyrábějí	-11.5015
▁Antonín	-11.5015
▁Benešov	-11.5015
▁Náměst	-11.5015
▁altruist	-11.5015
▁informovat	-11.5015
▁nejsilnější	-11.5015
▁nevznik	-11.5015
▁ohlášen	-11.5015
▁výkyvy	-11.5015
▁zlepšit	-11.5015
▁Jednotliv	-11.5015
▁princezn	-11.5015
▁přidružen	-11.5015
▁svatební	-11.5015
▁stadia	-11.5015
▁zlepšil	-11.5015
▁krádež	-11.5015
▁Libanon	-11.5015
instalovat	-11.5015
šetřil	-11.5015
▁stoupenc	-11.5015
▁USD	-11.5015
▁družic	-11.5015
▁nahrazen	-11.5015
▁lístky	-11.5015
▁Mazdy	-11.5015
▁letadlo	-11.5015
▁preventivn	-11.5015
▁řemesl	-11.5015
▁zasvěcen	-11.5015
▁válkou	-11.5015
▁ohrom	-11.5015
▁licence	-11.5015
▁porušil	-11.5015
▁Něco	-11.5015
▁slalom	-11.5015
▁ovládat	-11.5015
▁ČSAV	-11.5015
▁pozemky	-11.5015
hlédl	-11.5015
▁jídlo	-11.5015
▁čáry	-11.5015
▁kádru	-11.5015
▁neuvažuj	-11.5015
▁doplnit	-11.5015
▁jedinečn	-11.5015
▁Polsku	-11.5015
▁penalt	-11.5015
▁vydělat	-11.5015
▁odškodnění	-11.5015
rozhodoval	-11.5015
▁dealer	-11.5015
▁jedinci	-11.5015
▁zahájí	-11.5015
▁Odhad	-11.5015
▁užívat	-11.5016
▁účinný	-11.5016
▁potrvá	-11.5016
▁umístil	-11.5016
▁veliká	-11.5016
▁využije	-11.5016
▁nestalo	-11.5016
šňů	-11.5016
▁hlášen	-11.5017
▁kůži	-11.5017
▁městečk	-11.5017
pálil	-11.5017
▁žánr	-11.5017
▁nemění	-11.5017
▁uklid	-11.5018
▁odvozen	-11.5018
▁Holub	-11.5018
▁vracejí	-11.5019
▁hornin	-11.5019
▁dřevěný	-11.5019
▁přečte	-11.502
▁otřes	-11.5021
dražil	-11.5023
▁dešťov	-11.5023
▁východisk	-11.5025
▁Nesmí	-11.5028
▁zakončen	-11.503
▁odstín	-11.5033
▁převeden	-11.504
▁přenesen	-11.5042
projevilo	-11.505
▁letoun	-11.5059
▁oceňuj	-11.5084
strašně	-11.5165
▁Severoatlantick	-11.5173
▁Hodn	-11.5217
▁uskutečnil	-11.5242
▁smrteln	-11.5242
ždyť	-11.5294
▁kvalitativn	-11.5316
čínsk	-11.5316
▁jeskyn	-11.5343
▁všeobecn	-11.538
▁oblačno	-11.5503
edmdesát	-11.5509
▁věnuj	-11.5522
▁umožňují	-11.5526
jišťuje	-11.5536
▁pojistn	-11.5566
ografické	-11.557
▁Bezpečnost	-11.557
▁chorvatský	-11.557
▁laboratorní	-11.557
ejzajímavější	-11.557
populárnější	-11.557
▁Bierhoff	-11.557
▁Evropou	-11.557
▁Jackson	-11.557
▁Jupiter	-11.557
▁Karadžic	-11.557
▁Kopřiv	-11.557
▁Křesťan	-11.557
▁Letošní	-11.557
▁Litvínov	-11.557
▁Naštěstí	-11.557
▁Obyvatel	-11.557
▁Olszewsk	-11.557
▁Softwar	-11.557
▁Stehlík	-11.557
▁Vietnam	-11.557
▁arcibiskup	-11.557
▁burzy	-11.557
▁celosvětov	-11.557
▁charitativní	-11.557
▁dirigent	-11.557
▁energií	-11.557
▁kandidovat	-11.557
▁krátkodobé	-11.557
▁leccos	-11.557
▁londýn	-11.557
▁nešťastn	-11.557
▁následovat	-11.557
▁opozicí	-11.557
▁ovlivnil	-11.557
▁premiéře	-11.557
▁prezervativ	-11.557
▁prokuratur	-11.557
▁překážky	-11.557
▁restitucí	-11.557
▁stability	-11.557
▁sudetský	-11.557
▁televizor	-11.557
▁viceprezident	-11.557
▁vzdělávání	-11.557
▁zdůvodnil	-11.557
▁závislá	-11.557
▁Úspěšn	-11.557
▁úspěšnost	-11.557
Standard	-11.557
▁Sněmovn	-11.557
▁Soutěž	-11.557
▁imunitní	-11.557
▁nahrávk	-11.557
▁neexistoval	-11.557
▁poskytne	-11.557
▁seriózní	-11.557
▁totalitní	-11.557
▁Čtvrt	-11.557
▁dostatečné	-11.557
▁kontext	-11.557
▁ozónu	-11.557
▁podotkl	-11.557
▁socialismu	-11.557
▁výslovně	-11.557
▁zakázán	-11.557
▁získají	-11.557
▁Madrid	-11.557
▁incident	-11.557
▁odlišné	-11.557
▁preferenc	-11.557
▁tendenci	-11.557
▁učebnic	-11.557
▁vyměnil	-11.557
▁výkres	-11.557
▁záleže	-11.557
škráb	-11.557
▁Město	-11.557
▁Ukrajina	-11.557
▁výrobou	-11.557
▁zachránil	-11.557
▁Atleti	-11.557
▁mrtvé	-11.557
▁Moderní	-11.557
▁Podívej	-11.557
▁Pražan	-11.557
▁herečka	-11.557
▁kapitul	-11.557
▁těžší	-11.557
německou	-11.557
▁abeced	-11.557
▁porušování	-11.557
▁náleží	-11.557
▁Mandler	-11.557
▁znamení	-11.557
▁Island	-11.557
▁vyžádá	-11.557
▁zemědělci	-11.557
burgu	-11.557
▁filtr	-11.557
▁MIDI	-11.557
▁laserov	-11.557
▁profese	-11.557
▁chápán	-11.557
▁Dukly	-11.557
tlačit	-11.557
▁živnostenský	-11.557
▁položku	-11.557
▁zapsán	-11.557
▁ČSAD	-11.557
▁naučit	-11.5571
▁nutná	-11.5571
▁hrozil	-11.5571
▁Obvodní	-11.5571
▁druzí	-11.5571
▁obvinil	-11.5571
▁Vojenské	-11.5571
▁příroda	-11.5571
▁Dlouho	-11.5571
▁zajímal	-11.5571
▁necelé	-11.5571
▁Hapal	-11.5571
▁převažuj	-11.5571
▁stěží	-11.5571
▁rozumět	-11.5571
▁výlučn	-11.5572
▁kubismu	-11.5572
▁uplatňova	-11.5572
▁mýtu	-11.5572
▁frakc	-11.5573
ampión	-11.5573
▁vystupoval	-11.5573
sudek	-11.5573
▁přečetl	-11.5574
▁utajen	-11.5575
členný	-11.5575
▁poctiv	-11.5575
▁proměnliv	-11.5575
▁ČESK	-11.558
▁kresb	-11.5581
▁úměrn	-11.5582
▁cítil	-11.5583
nechávají	-11.559
háněl	-11.5591
▁integrovan	-11.5594
▁přidělen	-11.5595
▁Politick	-11.5596
▁utekl	-11.5604
ČSSD	-11.5609
▁Prag	-11.561
▁trůn	-11.5611
poškozené	-11.5618
systém	-11.5619
▁zadržen	-11.562
především	-11.5621
▁dostupný	-11.5623
▁zanikl	-11.5627
▁mistrovsk	-11.5633
▁předsednictv	-11.5639
účtování	-11.5655
▁magi	-11.5662
▁pětadvacet	-11.5674
▁částečn	-11.5684
▁nezískal	-11.5713
▁Občansk	-11.5784
▁nálož	-11.579
▁momentáln	-11.5795
▁ověřen	-11.5821
archeologi	-11.5869
▁lacin	-11.5946
pracování	-11.5955
▁Švýcar	-11.5994
▁začínal	-11.6095
▁rostl	-11.6141
▁tečk	-11.6143
vyjádřen	-11.6148
▁Jugosláv	-11.6157
svobozen	-11.6158
egyptsk	-11.6158
▁Běloruska	-11.6158
▁Jihoafrick	-11.6158
▁Manchester	-11.6158
▁Niederl	-11.6158
▁Pentium	-11.6158
▁Polskem	-11.6158
▁Poštovní	-11.6158
▁Pravděpodobn	-11.6158
▁Rozhovor	-11.6158
▁Svorada	-11.6158
▁asteroid	-11.6158
▁displej	-11.6158
▁doprovázen	-11.6158
▁ekvivalent	-11.6158
▁hřbitov	-11.6158
▁konfiguraci	-11.6158
▁mechanismy	-11.6158
▁ministerstvem	-11.6158
▁mrtvých	-11.6158
▁nejlevnější	-11.6158
▁nejvhodnější	-11.6158
▁nepřijatelné	-11.6158
▁nesprávn	-11.6158
▁organismů	-11.6158
▁oteplení	-11.6158
▁ovlivňova	-11.6158
▁podmínkami	-11.6158
▁pohromadě	-11.6158
▁potvrdit	-11.6158
▁pracovišti	-11.6158
▁prohlašuje	-11.6158
▁protagonist	-11.6158
▁redukci	-11.6158
▁sluchátka	-11.6158
▁stabilitu	-11.6158
▁strojírenství	-11.6158
▁svědků	-11.6158
▁ubytovn	-11.6158
▁uskutečněn	-11.6158
▁vyjadřova	-11.6158
▁vzdělávací	-11.6158
▁výhrady	-11.6158
▁výsledcích	-11.6158
▁zachránit	-11.6158
▁zaměstnává	-11.6158
▁zvláštnost	-11.6158
▁zvýhodněn	-11.6158
▁závazek	-11.6158
▁závislé	-11.6158
▁švýcarské	-11.6158
doporučují	-11.6158
▁Eduard	-11.6158
▁Hrdličk	-11.6158
▁Městě	-11.6158
▁Významn	-11.6158
▁generaci	-11.6158
▁gramotnost	-11.6158
▁inzerát	-11.6158
▁lidstva	-11.6158
▁mužstvu	-11.6158
▁označují	-11.6158
▁rozvržení	-11.6158
▁spolupracují	-11.6158
▁vyvrchol	-11.6158
▁zbraň	-11.6158
▁1981	-11.6158
▁Pořadatel	-11.6158
▁instance	-11.6158
▁kampaň	-11.6158
▁kooperac	-11.6158
▁odehrál	-11.6158
▁vyjednávání	-11.6158
▁Kepler	-11.6158
▁Uvažuje	-11.6158
▁Vědci	-11.6158
▁meteorolog	-11.6158
▁složku	-11.6158
▁zastávk	-11.6158
▁bázi	-11.6158
přihlášk	-11.6158
▁Thomas	-11.6158
▁kliniky	-11.6158
▁profesí	-11.6158
▁prokázán	-11.6158
▁Balkán	-11.6158
▁pátrá	-11.6158
▁čistírn	-11.6158
▁očekávají	-11.6158
▁sazby	-11.6158
▁uplatnil	-11.6158
▁komentoval	-11.6159
▁kosmický	-11.6159
▁Výběr	-11.6159
▁vyznačen	-11.6159
▁Právní	-11.6159
▁pouštní	-11.6159
▁jedinec	-11.6159
omputer	-11.6159
▁obtíže	-11.6159
▁podléha	-11.6159
▁překonat	-11.6159
▁vazbě	-11.6159
▁kontrast	-11.6159
opakovaně	-11.6159
▁SNR	-11.6159
▁dráhu	-11.6159
▁hmyz	-11.6159
▁sérii	-11.6159
▁vyřešil	-11.6159
▁zahrnují	-11.6159
▁Baker	-11.6159
▁ojediněle	-11.6159
▁poplatků	-11.6159
režie	-11.6159
▁odvahu	-11.6159
▁přijímat	-11.6159
▁přehrad	-11.6159
▁prvotní	-11.6159
▁neviděl	-11.6159
▁otravy	-11.6159
▁doplnil	-11.6159
▁Smith	-11.6159
▁kolaps	-11.6159
▁Gross	-11.6159
▁povahu	-11.6159
▁Reuter	-11.6159
▁partie	-11.6159
▁2:1	-11.6159
KDS	-11.6159
hlížel	-11.6159
▁absenc	-11.6159
▁nadějn	-11.6159
▁sladk	-11.6159
▁jarní	-11.6159
▁postačí	-11.6159
▁obezit	-11.616
▁liberalizac	-11.616
▁patent	-11.616
▁Radovan	-11.616
▁Vilém	-11.616
pravdě	-11.6161
▁Kučer	-11.6161
▁dimenz	-11.6161
obdržela	-11.6162
▁dvor	-11.6162
ohrozil	-11.6162
▁konverz	-11.6162
▁lůžk	-11.6163
▁Kvalit	-11.6163
běhne	-11.6163
▁zaměřuje	-11.6163
▁zmenšen	-11.6164
▁Hráč	-11.6166
ředstavitelé	-11.6169
▁nadměrn	-11.6172
▁vpravo	-11.6172
▁jakéhokoli	-11.6179
▁tureck	-11.6181
▁vynesl	-11.6184
▁retro	-11.6185
▁vyzván	-11.6185
eportáž	-11.6187
▁usilují	-11.6188
▁protivník	-11.6193
▁vzkaz	-11.6195
▁udělen	-11.6199
▁mohutn	-11.6203
▁dávn	-11.6216
▁ideologick	-11.6223
▁zkrac	-11.6241
▁Palác	-11.6253
▁myln	-11.6263
kromě	-11.6321
▁anglick	-11.6344
program	-11.6352
▁maxim	-11.6352
▁muslimsk	-11.6362
▁stabiliz	-11.6364
svědčuje	-11.6458
▁dvaadvacet	-11.6464
způsobují	-11.6545
▁hrozn	-11.6585
▁splněn	-11.6622
▁ústřed	-11.6672
významn	-11.6705
▁ovládá	-11.6714
▁rozlož	-11.6716
▁ukončen	-11.6723
smdesát	-11.6738
▁vzrost	-11.676
▁algoritm	-11.6764
▁databázový	-11.6783
▁švýcarský	-11.6783
Cagiva	-11.6783
▁Barcelony	-11.6783
▁Dudajev	-11.6783
▁Frankfurt	-11.6783
▁Honecker	-11.6783
▁Konkrétn	-11.6783
▁Liverpool	-11.6783
▁Lobkowicz	-11.6783
▁Myslíte	-11.6783
▁Schumacher	-11.6783
▁angličtiny	-11.6783
▁atribut	-11.6783
▁dosaženo	-11.6783
▁dětství	-11.6783
▁efektivnosti	-11.6783
▁epidemie	-11.6783
▁eventuáln	-11.6783
▁expanz	-11.6783
▁fundamentalist	-11.6783
▁hollywoodsk	-11.6783
▁intenzivní	-11.6783
▁jménu	-11.6783
▁kinematografie	-11.6783
▁komplikace	-11.6783
▁konkurs	-11.6783
▁kriminalist	-11.6783
▁kritizoval	-11.6783
▁lhůtě	-11.6783
▁metabolick	-11.6783
▁mláďat	-11.6783
▁nabízel	-11.6783
▁nabízet	-11.6783
▁nejmladší	-11.6783
▁notebook	-11.6783
▁ohrozit	-11.6783
▁pohledávky	-11.6783
▁pozůstatk	-11.6783
▁pronájmu	-11.6783
▁pódiu	-11.6783
▁redakční	-11.6783
▁rozšiřování	-11.6783
▁skrývá	-11.6783
▁spekulace	-11.6783
▁spekulací	-11.6783
▁svědectví	-11.6783
▁tlačítek	-11.6783
▁vyčleněn	-11.6783
▁vztazích	-11.6783
▁zdůrazňuje	-11.6783
▁ÚSES	-11.6783
▁úředníci	-11.6783
▁Čarnogursk	-11.6783
▁Moskvy	-11.6783
▁Měsíc	-11.6783
▁Stráský	-11.6783
▁Větší	-11.6783
▁cizinec	-11.6783
▁evoluce	-11.6783
▁exhibic	-11.6783
▁extremist	-11.6783
▁nelíbí	-11.6783
▁nesmějí	-11.6783
▁poloostrov	-11.6783
▁polštář	-11.6783
▁počínání	-11.6783
▁separatist	-11.6783
▁seznámil	-11.6783
▁trápí	-11.6783
▁výdělečn	-11.6783
▁znepokojen	-11.6783
▁ČSTK	-11.6783
▁Harrachov	-11.6783
▁Luboš	-11.6783
▁TNF	-11.6783
▁omezování	-11.6783
generační	-11.6783
▁Apple	-11.6783
▁bydliště	-11.6783
▁nacházel	-11.6783
▁předpokládají	-11.6783
kontaminac	-11.6783
▁Budinský	-11.6783
▁Opět	-11.6783
▁hnízd	-11.6783
▁levněji	-11.6783
▁nazývá	-11.6783
▁profesní	-11.6783
▁stadion	-11.6783
▁bezespor	-11.6783
▁lůžek	-11.6783
▁plynáren	-11.6783
▁ropovod	-11.6783
▁Vánoční	-11.6784
▁ilustrac	-11.6784
▁HDP	-11.6784
▁rozmnož	-11.6784
▁prodavač	-11.6784
Oscar	-11.6784
▁nerozumí	-11.6784
▁Haagu	-11.6784
▁poskytovan	-11.6784
▁sdružuj	-11.6784
▁učební	-11.6784
▁matematické	-11.6784
▁mrtvol	-11.6784
kompenz	-11.6784
▁kosmické	-11.6784
▁výzvu	-11.6784
▁vyhrazen	-11.6784
▁šlecht	-11.6784
▁terminologi	-11.6784
KDH	-11.6784
▁přiznat	-11.6784
▁Vánoce	-11.6784
▁minulou	-11.6784
▁skandál	-11.6784
▁nekončí	-11.6784
▁belgick	-11.6784
▁demisi	-11.6784
▁nazvaný	-11.6784
▁pojmy	-11.6784
▁převyšuj	-11.6784
▁odlišuj	-11.6784
▁plakát	-11.6784
▁recenze	-11.6784
▁stereo	-11.6784
šplha	-11.6784
▁trojnásobn	-11.6784
▁vyplacen	-11.6785
▁žádal	-11.6785
▁PŘI	-11.6785
▁snižují	-11.6785
týkal	-11.6785
▁levicov	-11.6785
▁usiloval	-11.6786
▁vyvážen	-11.6786
kročit	-11.6786
▁Vodičk	-11.6786
2:0	-11.6786
▁rovnost	-11.6788
▁průhledn	-11.679
▁vyrobil	-11.679
▁vápenc	-11.679
▁vyrůst	-11.679
▁složitost	-11.6792
▁pyšn	-11.6792
▁Thun	-11.6795
▁běžc	-11.6797
▁geografick	-11.6803
▁Brněnsk	-11.6808
▁teplý	-11.681
Finsko	-11.6815
▁selekčn	-11.6817
kontinentální	-11.6817
▁předešl	-11.6817
uskutečnila	-11.6831
rozuměl	-11.686
pracovala	-11.6892
▁koordinac	-11.6917
▁konstatova	-11.6996
▁zlikvidov	-11.7012
bílých	-11.7013
1992	-11.7102
▁nepřinesl	-11.7131
▁Švéd	-11.7138
▁neobyčejn	-11.7167
sunut	-11.7352
▁Způsob	-11.7385
▁etnick	-11.7387
▁dvacát	-11.7415
▁naplněn	-11.7429
▁penzi	-11.7429
▁KSČ	-11.7447
obyčejně	-11.7448
▁elementární	-11.745
▁mediální	-11.745
JPEG	-11.745
sloučenin	-11.745
▁Austrálie	-11.745
▁Domnívám	-11.745
▁Oldřich	-11.745
▁Pivovar	-11.745
▁Saúdsk	-11.745
▁Vešker	-11.745
▁Vídeň	-11.745
▁WWW	-11.745
▁bankovnictví	-11.745
▁biochemi	-11.745
▁deklaraci	-11.745
▁důležitější	-11.745
▁federaci	-11.745
▁firmách	-11.745
▁fungování	-11.745
▁funkčnost	-11.745
▁hardwarov	-11.745
▁infarkt	-11.745
▁jednodušší	-11.745
▁komentátor	-11.745
▁konfigurace	-11.745
▁konkurovat	-11.745
▁kosmonaut	-11.745
▁literatuře	-11.745
▁makléř	-11.745
▁marketingu	-11.745
▁médií	-11.745
▁nominaci	-11.745
▁novotvary	-11.745
▁nukleární	-11.745
▁odpovědět	-11.745
▁pneumatik	-11.745
▁pojišťovnou	-11.745
▁poptávku	-11.745
▁problematice	-11.745
▁pseudo	-11.745
▁předpovědi	-11.745
▁předvánoční	-11.745
▁přerozdělování	-11.745
▁racionální	-11.745
▁rekreaci	-11.745
▁rozsáhlejší	-11.745
▁rubrice	-11.745
▁symplektick	-11.745
▁trénovat	-11.745
▁vypráví	-11.745
▁vyžadovat	-11.745
▁zapomenout	-11.745
▁zaručit	-11.745
▁zavražděn	-11.745
▁zodpovězen	-11.745
▁zákulisí	-11.745
▁úložiště	-11.745
▁Četrans	-11.745
▁červnov	-11.745
hlídce	-11.745
▁FBIS	-11.745
▁Hamburk	-11.745
▁Informace	-11.745
▁Ludvík	-11.745
▁Mitterrand	-11.745
▁cementárn	-11.745
▁definice	-11.745
▁krasobruslař	-11.745
▁nenávist	-11.745
▁referát	-11.745
▁rozvíjejí	-11.745
▁seskupení	-11.745
▁tiskáren	-11.745
▁tolerance	-11.745
▁vláken	-11.745
▁východoevropský	-11.745
▁1983	-11.745
▁Harvard	-11.745
▁Pistol	-11.745
▁Stráž	-11.745
▁kvót	-11.745
▁nacionalism	-11.745
▁pozměň	-11.745
▁praktik	-11.745
▁prozradil	-11.745
▁přihlášen	-11.745
▁rozvíjet	-11.745
▁rozčleněn	-11.745
▁stěžovat	-11.745
▁domorodc	-11.745
▁1976	-11.745
▁interiér	-11.745
▁palubě	-11.745
▁špatnou	-11.745
▁povolební	-11.745
▁procedur	-11.745
▁Maďarskem	-11.745
▁Návrat	-11.745
▁osaměl	-11.745
▁plošný	-11.745
▁rozsudk	-11.745
▁tendence	-11.745
▁kampaně	-11.745
▁populaci	-11.745
▁infikova	-11.745
▁milimetr	-11.745
▁otazník	-11.745
▁zjišťova	-11.745
▁analytick	-11.745
▁archiv	-11.745
▁Právo	-11.745
▁neškodn	-11.745
▁odvezl	-11.745
▁Kladně	-11.745
▁mikrofon	-11.745
▁účinků	-11.745
▁Veřejn	-11.745
▁uvítal	-11.745
▁fází	-11.745
▁vzbudil	-11.745
▁placentál	-11.745
▁reagují	-11.745
znamenají	-11.745
▁ujistil	-11.745
▁finalist	-11.745
přízeň	-11.7451
▁domníval	-11.7451
▁Irák	-11.7451
▁účinné	-11.7451
▁ustavující	-11.7451
▁vybojoval	-11.7451
▁chaotick	-11.7451
▁dřevěné	-11.7451
▁Marián	-11.7451
▁osazen	-11.7451
▁přehnan	-11.7451
▁ovládací	-11.7452
▁pól	-11.7452
▁plastik	-11.7452
▁tragick	-11.7452
▁přípustn	-11.7453
▁střídají	-11.7453
▁fixac	-11.7453
▁brazilsk	-11.7453
▁narkom	-11.7454
▁oboustrann	-11.7454
▁uplatňován	-11.7454
▁jednostrann	-11.7454
▁Uhersk	-11.7455
▁architektonick	-11.7455
▁rockov	-11.7459
▁nepřesnost	-11.746
▁Značn	-11.7461
▁šipk	-11.7469
▁Aktiv	-11.7475
▁uheln	-11.7495
▁příznačn	-11.7531
symetri	-11.7542
milionový	-11.76
▁předsedkyn	-11.7606
▁protějš	-11.7622
▁zoologick	-11.7622
▁definovan	-11.78
milionové	-11.7848
▁citeln	-11.7914
▁vrácen	-11.7915
1991	-11.7933
ometrick	-11.7936
magnetické	-11.7945
▁strašn	-11.7964
▁Začátk	-11.8029
přineslo	-11.8088
gramů	-11.8108
▁překonal	-11.8121
▁velvyslanec	-11.8164
▁Bohuslav	-11.8164
▁ceremoniál	-11.8164
▁databáze	-11.8164
▁diktátor	-11.8164
▁inzulín	-11.8164
▁kanalizací	-11.8164
▁katalyzátor	-11.8164
▁milisekund	-11.8164
▁olomoucké	-11.8164
▁paměť	-11.8164
▁podezřelý	-11.8164
▁pořizovací	-11.8164
▁severozápad	-11.8164
▁telekomunikací	-11.8164
▁vlhkost	-11.8164
▁vrtulník	-11.8164
▁zajišťoval	-11.8164
▁Černomyrdin	-11.8164
LSNS	-11.8164
extrémně	-11.8164
▁Akademie	-11.8164
▁Albertville	-11.8164
▁Bratislavy	-11.8164
▁Delphi	-11.8164
▁Digital	-11.8164
▁General	-11.8164
▁Hospodářsk	-11.8164
▁Kuvajt	-11.8164
▁Muslim	-11.8164
▁Místopředsed	-11.8164
▁Netanjahu	-11.8164
▁Princip	-11.8164
▁Pálffy	-11.8164
▁Reichel	-11.8164
▁SPIRIT	-11.8164
▁TWA	-11.8164
▁brožur	-11.8164
▁bulharsk	-11.8164
▁databázi	-11.8164
▁delegát	-11.8164
▁drůbež	-11.8164
▁dveřmi	-11.8164
▁havárii	-11.8164
▁holding	-11.8164
▁komedie	-11.8164
▁kompetencí	-11.8164
▁nechybí	-11.8164
▁nereáln	-11.8164
▁nosorožců	-11.8164
▁novorozen	-11.8164
▁odpolední	-11.8164
▁ofsajd	-11.8164
▁organismy	-11.8164
▁paradigma	-11.8164
▁pojišťoven	-11.8164
▁pojišťovně	-11.8164
▁portfeje	-11.8164
▁poštovní	-11.8164
▁prospěšn	-11.8164
▁přibližuj	-11.8164
▁přísluší	-11.8164
▁raketoplán	-11.8164
▁těhotenství	-11.8164
▁vyčerpán	-11.8164
▁vídeňské	-11.8164
▁zahájit	-11.8164
▁zakázek	-11.8164
▁zaručuje	-11.8164
▁zdůraznit	-11.8164
▁zneužívání	-11.8164
▁zpracovává	-11.8164
▁zázračn	-11.8164
▁Život	-11.8164
▁železnice	-11.8164
ýpovědní	-11.8164
▁Teplice	-11.8164
▁Vynikající	-11.8164
▁buněčné	-11.8164
▁finálové	-11.8164
▁kultuře	-11.8164
▁lidstvo	-11.8164
▁nedaleké	-11.8164
▁pátku	-11.8164
▁radikálně	-11.8164
▁splátek	-11.8164
▁stěžuje	-11.8164
▁vyzkoušel	-11.8164
▁zopakoval	-11.8164
▁záruční	-11.8164
▁bezmocn	-11.8164
▁kazašsk	-11.8164
▁komisař	-11.8164
▁pohodlné	-11.8164
▁sféře	-11.8164
▁thajské	-11.8164
▁Československý	-11.8164
▁1979	-11.8164
▁Němce	-11.8164
▁konstantní	-11.8164
▁omezit	-11.8164
▁prodluž	-11.8164
▁KGB	-11.8164
▁nesrovnateln	-11.8164
▁FMV	-11.8164
▁málokdo	-11.8164
▁stadiu	-11.8164
▁tekutin	-11.8164
▁účinnou	-11.8164
▁Zpráv	-11.8164
▁emitent	-11.8164
▁PET	-11.8164
▁injekc	-11.8164
▁lehký	-11.8164
▁překonání	-11.8164
▁SGI	-11.8164
▁obyvatelstvo	-11.8164
▁poválečn	-11.8164
▁Západoevropsk	-11.8165
▁komodit	-11.8165
▁trénuj	-11.8165
▁Zajímal	-11.8165
▁svrchované	-11.8165
▁James	-11.8165
▁informuje	-11.8165
▁udržován	-11.8165
▁chystají	-11.8165
pravdivost	-11.8165
▁netrpěliv	-11.8165
▁Holandsk	-11.8165
▁přeplněn	-11.8165
▁umírněn	-11.8165
▁železné	-11.8165
▁srbské	-11.8165
▁Automatick	-11.8165
▁loupež	-11.8165
▁Kadlec	-11.8165
▁vzdělan	-11.8165
▁Mlýn	-11.8165
▁tvořiv	-11.8165
▁podporoval	-11.8165
▁přetížen	-11.8166
běhnout	-11.8166
▁mocenské	-11.8166
▁šancí	-11.8166
▁sochař	-11.8166
opouštěl	-11.8166
▁odvážn	-11.8167
▁Týden	-11.8167
▁Samotn	-11.817
▁Zvýšen	-11.817
▁hlučn	-11.8171
▁princ	-11.8173
▁Klasick	-11.8175
▁Hledá	-11.818
▁republikánsk	-11.8182
▁únosn	-11.8183
▁koncepčn	-11.8194
kontroluje	-11.824
poskytla	-11.8249
konkurenceschopn	-11.8296
▁důvěryhodn	-11.8332
▁zmiňuj	-11.8368
formulovat	-11.8375
Komensk	-11.8424
zemědělská	-11.8464
▁individu	-11.8486
muslimské	-11.8671
▁vyplněn	-11.8719
▁odebíra	-11.8845
▁vytvářen	-11.8879
▁souvisl	-11.888
▁západoevropský	-11.8934
▁Navrátil	-11.8934
▁antropogenní	-11.8934
▁biotechnologi	-11.8934
▁izolační	-11.8934
▁příchozí	-11.8934
▁rovnoběž	-11.8934
deutsche	-11.8934
navrhovatel	-11.8934
soustřeďuje	-11.8934
▁Australan	-11.8934
▁Bedřich	-11.8934
▁Chvalovský	-11.8934
▁Frýdku	-11.8934
▁Giovanni	-11.8934
▁Gretzky	-11.8934
▁Holbrooke	-11.8934
▁Kontakt	-11.8934
▁Kravčuk	-11.8934
▁Margaret	-11.8934
▁Marseille	-11.8934
▁MicroStation	-11.8934
▁OpenScript	-11.8934
▁Oxfordu	-11.8934
▁Padesát	-11.8934
▁Pospíšil	-11.8934
▁Překvap	-11.8934
▁Rangers	-11.8934
▁Silvestr	-11.8934
▁Sládka	-11.8934
▁Solidarit	-11.8934
▁Sportovní	-11.8934
▁Stockholm	-11.8934
▁Varšav	-11.8934
▁Zeitung	-11.8934
▁analytik	-11.8934
▁bezšňůrov	-11.8934
▁biosfér	-11.8934
▁cyklů	-11.8934
▁delegací	-11.8934
▁dominantní	-11.8934
▁doporučit	-11.8934
▁elektrárna	-11.8934
▁epizod	-11.8934
▁fanoušci	-11.8934
▁fyziologick	-11.8934
▁havárie	-11.8934
▁horizontu	-11.8934
▁hypoték	-11.8934
▁hřbet	-11.8934
▁instalační	-11.8934
▁investoři	-11.8934
▁jihovýchodní	-11.8934
▁kariéry	-11.8934
▁karlovarsk	-11.8934
▁knihkupectví	-11.8934
▁konvertibilit	-11.8934
▁libovolné	-11.8934
▁lukrativní	-11.8934
▁manažeři	-11.8934
▁média	-11.8934
▁navštívit	-11.8934
▁nejčastější	-11.8934
▁organizován	-11.8934
▁perfektní	-11.8934
▁podmínku	-11.8934
▁poliklinik	-11.8934
▁portrét	-11.8934
▁poselství	-11.8934
▁prezentován	-11.8934
▁připomínal	-11.8934
▁reprezentovat	-11.8934
▁revoluci	-11.8934
▁rovnoměrn	-11.8934
▁roztříštěn	-11.8934
▁službách	-11.8934
▁substantiv	-11.8934
▁tiskárnu	-11.8934
▁trolejbus	-11.8934
▁turistiky	-11.8934
▁třicátých	-11.8934
▁utrpení	-11.8934
▁ušlechtil	-11.8934
▁veterinární	-11.8934
▁výcvik	-11.8934
▁začátečn	-11.8934
▁zákonodárn	-11.8934
▁závislý	-11.8934
▁Štěpán	-11.8934
korespond	-11.8934
restrukturalizac	-11.8934
▁Bukureš	-11.8934
▁Dlouhý	-11.8934
▁Hendrix	-11.8934
▁Hercegovin	-11.8934
▁Parlament	-11.8934
▁Plzně	-11.8934
▁deregulac	-11.8934
▁diktatur	-11.8934
▁handicap	-11.8934
▁medvěd	-11.8934
▁odcházel	-11.8934
▁osamostatn	-11.8934
▁podrážděn	-11.8934
▁povzbuz	-11.8934
▁prvoligov	-11.8934
▁přicházel	-11.8934
▁půvab	-11.8934
▁schvalování	-11.8934
▁stránkách	-11.8934
▁tělovýchov	-11.8934
▁upravuje	-11.8934
▁uspokojit	-11.8934
▁zásuvk	-11.8934
Místku	-11.8934
vyskytuje	-11.8934
ŠTÍ	-11.8934
▁Hovořil	-11.8934
▁Očekává	-11.8934
▁Památk	-11.8934
▁disident	-11.8934
▁diskrimin	-11.8934
▁křesla	-11.8934
▁návaznost	-11.8934
▁posuzoval	-11.8934
▁všelijak	-11.8934
▁zlepšování	-11.8934
▁zvážit	-11.8934
▁definován	-11.8934
▁odhodlán	-11.8934
▁zapomenut	-11.8934
▁domnívat	-11.8934
▁výchozí	-11.8934
▁Klient	-11.8934
▁Kralup	-11.8934
▁barokní	-11.8934
▁evidentn	-11.8934
pište	-11.8934
▁konektor	-11.8934
▁nevyhnul	-11.8934
▁útlum	-11.8934
▁fázové	-11.8934
▁ministerský	-11.8934
▁náznak	-11.8934
▁pařížsk	-11.8934
▁tabák	-11.8934
▁studijní	-11.8934
▁sváteční	-11.8934
▁nervozit	-11.8934
▁neskončil	-11.8934
▁delikt	-11.8934
▁nebytový	-11.8934
▁romantick	-11.8934
▁židovské	-11.8934
▁potravinářský	-11.8934
▁Vytvořen	-11.8934
▁vybuchl	-11.8934
▁vypovězen	-11.8934
▁fašismu	-11.8934
▁prověrk	-11.8934
▁trošk	-11.8934
▁motýl	-11.8935
▁zachycuj	-11.8935
▁monarchi	-11.8935
▁klasik	-11.8935
▁pohodlně	-11.8935
▁Pravidl	-11.8936
▁čtyřnásobn	-11.8936
▁podporovan	-11.8937
▁krabic	-11.8937
▁úročen	-11.8939
▁dědičn	-11.894
▁určován	-11.8942
▁podceňova	-11.8943
obtížnější	-11.8945
dokonalejší	-11.8951
▁obměn	-11.8971
▁principiáln	-11.8974
dvacátého	-11.8975
podstatnější	-11.8978
▁slovinsk	-11.8985
interpretaci	-11.8987
▁nerozhodn	-11.9006
působí	-11.9087
▁garáž	-11.9117
▁vypracován	-11.913
světlení	-11.9142
mnohých	-11.9176
socialistický	-11.9196
nekonečně	-11.9343
▁zpracoval	-11.9354
▁stabilizovan	-11.948
nezávislý	-11.9632
▁Hlavn	-11.9639
yžaduje	-11.9678
▁společenstv	-11.9706
▁uplatněn	-11.9708
svědčit	-11.9759
emigrant	-11.9767
inflační	-11.9767
▁Komárk	-11.9767
▁Leopold	-11.9767
▁Nazarbajev	-11.9767
▁Nejdůležitější	-11.9767
▁Wernisch	-11.9767
(	-12.7309
"	-12.9785
<	-13.1632
