<unk>	0
<s>	0
</s>	0
<doc>	0
</doc>	0
<head>	0
</head>	0
<phr>	0
</phr>	0
▁	-1.74167
,	-3.31863
.	-3.46517
▁a	-4.39169
▁v	-4.45252
a	-4.54715
▁se	-4.55838
▁na	-4.66686
u	-4.70315
m	-4.73997
i	-4.89527
y	-4.91514
ch	-4.95124
▁je	-5.08346
ho	-5.24064
▁"	-5.26827
▁z	-5.31192
▁s	-5.32143
▁že	-5.33634
e	-5.5117
o	-5.52183
á	-5.5596
▁do	-5.58143
▁o	-5.58737
ou	-5.62414
í	-5.70687
s	-5.74224
▁pro	-5.76844
em	-5.77437
é	-5.7989
▁za	-5.8122
ě	-5.82952
▁-	-5.85222
▁po	-5.91395
▁k	-5.9479
t	-5.99546
ů	-6.01648
▁to	-6.04499
▁V	-6.05965
to	-6.06648
▁(	-6.07214
▁ve	-6.07606
ž	-6.10687
▁i	-6.13502
▁by	-6.17105
mi	-6.20725
▁ale	-6.27074
>	-6.28685
ý	-6.31454
▁si	-6.36089
▁od	-6.40504
▁jsou	-6.46228
▁jako	-6.48968
▁při	-6.49636
▁které	-6.51387
ní	-6.53285
ých	-6.56029
)	-6.58185
▁však	-6.59187
▁:	-6.62335
▁tak	-6.64108
z	-6.64282
▁ne	-6.64316
▁který	-6.70782
me	-6.74363
l	-6.7484
▁S	-6.76118
ně	-6.79013
▁nebo	-6.79037
▁jeho	-6.79919
v	-6.80916
▁bude	-6.81028
p	-6.81595
x	-6.82658
?	-6.8324
d	-6.85566
▁jen	-6.86896
r	-6.87666
te	-6.87673
▁Po	-6.89279
ce	-6.90503
▁A	-6.91664
▁vy	-6.94231
k	-6.94384
▁než	-6.94958
▁má	-6.96423
▁před	-6.97833
ka	-6.9996
▁Na	-7.00378
▁už	-7.01886
▁aby	-7.03304
▁byl	-7.05112
▁jejich	-7.07043
▁jak	-7.07199
▁jsem	-7.08371
▁být	-7.08601
▁až	-7.09334
mu	-7.1217
▁Z	-7.1295
▁která	-7.13081
▁také	-7.13738
ové	-7.14859
ého	-7.15872
▁jsme	-7.17049
▁podle	-7.18106
▁<	-7.18188
▁Je	-7.19902
▁ze	-7.20326
li	-7.20955
na	-7.21176
la	-7.27753
▁O	-7.29167
▁co	-7.29781
ku	-7.29977
č	-7.30234
▁není	-7.30289
ky	-7.3071
ná	-7.31826
▁P	-7.32373
▁mezi	-7.32504
né	-7.32984
▁bylo	-7.33917
ech	-7.34138
ci	-7.34678
▁ani	-7.34882
▁či	-7.35249
▁své	-7.3636
▁ještě	-7.36418
▁již	-7.37665
▁když	-7.38498
▁může	-7.39327
▁K	-7.40867
▁byla	-7.41519
▁let	-7.41609
b	-7.41834
▁toho	-7.43673
n	-7.44565
kud	-7.45444
▁korun	-7.45688
ek	-7.46031
/	-7.47005
že	-7.48056
it	-7.50449
).	-7.50967
uje	-7.5193
cí	-7.5206
▁pak	-7.52129
ým	-7.52599
ovat	-7.533
▁další	-7.53372
▁kteří	-7.54154
▁kde	-7.54507
▁tím	-7.54776
š	-7.54794
ová	-7.55392
j	-7.56246
▁pře	-7.56644
▁té	-7.57348
le	-7.57405
▁více	-7.58362
▁To	-7.58632
lo	-7.59349
▁roku	-7.60632
▁první	-7.60677
▁tedy	-7.60888
▁pod	-7.61881
▁bez	-7.62413
st	-7.62494
c	-7.63767
nou	-7.64332
▁nich	-7.65319
ni	-7.67651
),	-7.67833
▁Ne	-7.68583
▁mají	-7.69833
en	-7.71669
▁tu	-7.72447
ách	-7.72885
-	-7.74431
▁roce	-7.74809
▁pouze	-7.75089
ň	-7.75277
▁musí	-7.754
▁tom	-7.76501
▁kdy	-7.76636
ný	-7.77803
▁Za	-7.77894
▁tomu	-7.78376
h	-7.79058
ze	-7.7971
al	-7.79998
▁ke	-7.8009
in	-7.80401
▁proto	-7.80592
▁M	-7.80668
▁li	-7.80706
▁budou	-7.82032
il	-7.82316
▁U	-7.82507
▁proti	-7.82558
▁I	-7.82899
▁třeba	-7.83396
ování	-7.83577
▁protože	-7.84222
f	-7.84368
▁totiž	-7.84957
ových	-7.8574
▁nás	-7.86381
▁lze	-7.87426
▁nad	-7.87939
ům	-7.88434
jí	-7.88688
ost	-7.90117
ovi	-7.90336
▁D	-7.90431
no	-7.90553
▁Pro	-7.91242
▁byly	-7.91925
▁její	-7.92201
▁měl	-7.92326
▁poslední	-7.92397
▁velmi	-7.92418
▁asi	-7.9268
▁řekl	-7.93469
▁zatím	-7.93567
▁roz	-7.95194
ří	-7.95422
g	-7.95589
ných	-7.95969
ské	-7.96818
▁J	-7.97365
ra	-7.9742
▁včera	-7.97708
ne	-7.98306
on	-7.98548
ře	-7.98679
po	-7.98775
▁Do	-7.99318
▁H	-7.99395
ta	-8.01412
▁ty	-8.01472
▁Podl	-8.02347
▁dnes	-8.02352
▁přes	-8.02955
▁firmy	-8.03109
ují	-8.03958
cích	-8.04013
▁dva	-8.04266
ři	-8.05067
co	-8.05082
▁Při	-8.05275
▁především	-8.05449
▁tisíc	-8.06537
▁vlastní	-8.06568
▁případě	-8.07928
ro	-8.08028
▁všech	-8.08521
▁'	-8.08819
ko	-8.09033
vá	-8.09549
▁například	-8.09576
▁nám	-8.11916
▁rok	-8.12295
▁době	-8.12538
lu	-8.12579
▁nyní	-8.12769
osti	-8.13526
▁mít	-8.13597
▁Ve	-8.14088
kou	-8.1485
▁tři	-8.15667
▁ji	-8.16035
▁procent	-8.16237
ř	-8.16508
ti	-8.16532
je	-8.17143
▁G	-8.17252
▁jim	-8.1774
▁lidí	-8.17744
▁společnosti	-8.17928
▁práce	-8.18158
ru	-8.18291
▁dvou	-8.18444
▁mohou	-8.18447
▁stále	-8.18666
vě	-8.1868
▁jeden	-8.18849
pl	-8.19031
▁těchto	-8.19369
▁ovšem	-8.19502
▁zda	-8.19517
▁všechny	-8.19818
at	-8.21968
▁několik	-8.22084
▁nej	-8.22285
ny	-8.22302
ový	-8.22967
or	-8.23009
el	-8.23853
▁kterou	-8.23881
er	-8.24171
▁což	-8.24264
▁T	-8.24474
▁něm	-8.25211
...	-8.25617
ov	-8.25702
ovou	-8.2624
či	-8.26593
▁tento	-8.26657
▁Co	-8.26667
se	-8.2695
ém	-8.27132
ly	-8.27542
va	-8.27694
právě	-8.27709
če	-8.27825
S	-8.28093
▁možné	-8.28954
da	-8.29753
▁České	-8.30027
▁Ale	-8.30279
▁nové	-8.30671
▁Jak	-8.30805
▁jde	-8.3095
▁dalších	-8.30986
cela	-8.31131
lí	-8.31467
ami	-8.32065
D	-8.3284
oval	-8.33015
▁měla	-8.33379
ými	-8.33447
▁ČR	-8.33523
▁kdo	-8.3363
▁Praze	-8.34299
▁B	-8.34379
M	-8.34583
▁jednání	-8.34669
▁Od	-8.34846
▁zejména	-8.34885
téměř	-8.35174
▁naše	-8.35374
▁zařízení	-8.35643
▁svou	-8.35804
ty	-8.36813
▁Proto	-8.37615
▁strany	-8.37832
T	-8.37892
▁L	-8.37893
▁prostředí	-8.39675
▁letech	-8.4041
▁sice	-8.40444
ově	-8.41103
▁dvě	-8.41333
▁Kdy	-8.41413
ích	-8.41596
▁svého	-8.41754
▁základní	-8.41851
čí	-8.42109
▁ob	-8.42565
▁větší	-8.42583
de	-8.42696
▁svých	-8.42823
ám	-8.43
tu	-8.43191
ská	-8.43521
děl	-8.43541
lá	-8.43565
▁možnost	-8.4362
spo	-8.43726
▁nejen	-8.43964
▁R	-8.44281
kr	-8.44404
▁jiné	-8.4481
nu	-8.45027
▁C	-8.4506
tr	-8.45158
us	-8.45459
ri	-8.46149
▁naši	-8.4628
▁světa	-8.4654
si	-8.4665
ba	-8.46745
ného	-8.4681
▁tomto	-8.47017
▁místo	-8.47377
▁Tak	-8.47916
ním	-8.48645
▁každý	-8.48912
ví	-8.49192
an	-8.49335
▁000	-8.50084
ového	-8.50237
▁část	-8.50621
▁druhé	-8.50736
▁milionů	-8.50784
▁nic	-8.5088
K	-8.51007
3	-8.51038
du	-8.51163
L	-8.51233
▁zde	-8.51405
R	-8.51768
▁něco	-8.52015
▁stát	-8.52042
▁vlády	-8.52086
▁svým	-8.52244
▁uvedl	-8.53036
tě	-8.53425
ší	-8.53654
ský	-8.53741
ry	-8.53783
▁říká	-8.53887
▁stejně	-8.53976
A	-8.54507
ující	-8.54593
2	-8.54685
▁některé	-8.55077
vol	-8.55276
▁mu	-8.55418
▁ceny	-8.55544
re	-8.55642
ným	-8.55749
▁10	-8.56069
▁zákona	-8.56456
▁kolem	-8.56554
▁systém	-8.5658
ků	-8.56711
▁zboží	-8.56787
▁země	-8.57264
▁tam	-8.57489
ních	-8.58335
▁oblasti	-8.58618
ští	-8.58936
▁dobře	-8.59161
ma	-8.59242
B	-8.59288
▁příliš	-8.59381
▁patří	-8.59434
▁finanční	-8.599
▁svůj	-8.60105
▁dosud	-8.60109
tá	-8.60254
▁pracovní	-8.60504
▁některých	-8.60531
▁2	-8.60617
▁práci	-8.60784
▁byli	-8.60944
▁F	-8.61133
▁zemí	-8.61164
tí	-8.61435
▁vůbec	-8.62212
ec	-8.62294
▁opět	-8.62495
▁několika	-8.62734
ha	-8.63223
P	-8.63266
▁sociální	-8.63357
I	-8.63622
▁období	-8.63898
▁vždy	-8.63977
by	-8.64047
▁N	-8.64145
vý	-8.64252
nost	-8.64297
▁%	-8.64558
▁neboť	-8.6471
▁1	-8.64743
ova	-8.64755
ských	-8.65184
od	-8.65358
▁zákon	-8.65392
▁de	-8.6542
▁mě	-8.65429
hl	-8.66162
et	-8.66854
nější	-8.66862
hr	-8.67158
kem	-8.67345
lé	-8.67347
C	-8.67398
▁firma	-8.67627
▁střední	-8.68019
▁jež	-8.68176
▁nejsou	-8.68209
▁často	-8.68435
▁vyšší	-8.68869
za	-8.69088
V	-8.69156
▁ten	-8.69318
ského	-8.69436
dr	-8.69523
is	-8.69527
vi	-8.69558
▁systému	-8.69605
▁dokonce	-8.70434
ji	-8.70636
▁Jan	-8.70789
▁jste	-8.70817
ím	-8.70891
ve	-8.71125
▁USA	-8.71443
ť	-8.71502
▁hodin	-8.7158
▁3	-8.71767
▁měli	-8.71803
1	-8.71923
▁společnost	-8.72016
▁sám	-8.72035
▁den	-8.7204
▁čas	-8.72357
N	-8.72481
▁Js	-8.72529
▁Kč	-8.72658
ká	-8.72928
▁lidé	-8.73107
pr	-8.73225
▁celé	-8.73234
▁nebude	-8.74142
os	-8.74157
▁doby	-8.74223
▁přímo	-8.74356
během	-8.74391
▁rovněž	-8.74652
▁níž	-8.74719
tra	-8.74994
▁trhu	-8.75383
▁informace	-8.75435
w	-8.76052
▁nimi	-8.76147
4	-8.76149
▁počet	-8.76658
vůli	-8.7667
včetně	-8.77028
zřejmě	-8.77255
Z	-8.77293
▁Ty	-8.77364
▁situace	-8.77427
▁Vy	-8.77451
▁části	-8.77484
▁takže	-8.77509
▁pět	-8.77816
▁sebe	-8.77955
▁zahraničí	-8.78235
▁státní	-8.78289
ení	-8.78815
▁mohl	-8.79358
▁nepo	-8.7945
▁Ko	-8.7974
ob	-8.80143
tato	-8.80213
▁vše	-8.80267
▁5	-8.80283
▁méně	-8.80588
▁Š	-8.8063
▁např	-8.80993
▁ministr	-8.80995
še	-8.81031
▁Evropy	-8.81116
▁peníze	-8.81116
▁prezident	-8.81794
▁Zatím	-8.81971
▁víc	-8.81978
▁snad	-8.82033
▁něj	-8.82394
▁čtyři	-8.82545
▁chce	-8.82573
▁vám	-8.82701
▁znamená	-8.82776
▁jednotlivý	-8.82786
▁mnoho	-8.82898
▁způsobem	-8.83034
▁největší	-8.8312
ží	-8.83231
▁takové	-8.83285
▁ředitel	-8.83776
▁spíše	-8.83929
▁české	-8.83933
▁půl	-8.83936
▁republiky	-8.83997
▁nemá	-8.84433
▁velký	-8.84657
val	-8.84937
▁dobu	-8.85237
▁dále	-8.85367
▁navíc	-8.85382
▁přitom	-8.85411
lou	-8.85593
▁První	-8.86016
▁obchodní	-8.86157
▁vlastně	-8.86276
▁problémy	-8.86407
ši	-8.86502
▁jednoho	-8.8669
▁naopak	-8.87141
5	-8.87945
ili	-8.87997
▁E	-8.88135
ila	-8.88571
ické	-8.88643
ur	-8.88954
▁řízení	-8.8907
▁zájem	-8.89191
▁20	-8.8921
▁města	-8.89265
▁letošní	-8.89283
ční	-8.89416
▁skutečně	-8.89427
▁1992	-8.89668
▁nevy	-8.89893
ální	-8.9006
▁straně	-8.90072
▁život	-8.90135
ají	-8.90245
▁znovu	-8.90343
bu	-8.90515
vr	-8.90563
▁zahraniční	-8.90579
▁většinou	-8.90636
▁zhruba	-8.9081
00	-8.90864
▁šest	-8.90977
▁platí	-8.91059
▁životní	-8.91153
▁jej	-8.91297
▁vláda	-8.91388
0	-8.91521
▁řešení	-8.91559
▁současné	-8.91815
6	-8.91824
▁mimo	-8.91934
▁program	-8.92251
ovali	-8.92288
▁území	-8.92608
▁rozdíl	-8.92627
E	-8.92682
ar	-8.92821
▁jiných	-8.93043
▁Jiří	-8.93078
▁tří	-8.93349
▁nelze	-8.93583
▁celý	-8.93848
▁člověk	-8.93946
▁bych	-8.94171
▁velké	-8.94348
▁zase	-8.94439
pa	-8.94442
▁začal	-8.94525
▁W	-8.94614
pe	-8.95047
▁letos	-8.9506
▁sto	-8.95456
▁smlouvy	-8.95458
▁tzv	-8.95476
▁dolarů	-8.95488
stav	-8.95514
9	-8.95531
▁rozhodnutí	-8.95542
U	-8.9592
ter	-8.96279
▁jedné	-8.967
lit	-8.96839
▁osob	-8.9686
Á	-8.96905
▁Před	-8.96907
▁pomocí	-8.97126
▁stav	-8.97155
▁Petr	-8.97378
▁lepší	-8.97406
▁množství	-8.97644
▁činnosti	-8.98098
ův	-8.98129
op	-8.98281
▁prohlásil	-8.98412
ste	-8.98727
▁1.	-8.98878
let	-8.99242
▁Přesto	-8.99495
▁naší	-8.99506
▁vás	-8.99644
▁roky	-8.99715
▁dost	-9.00152
▁světě	-9.00184
▁pan	-9.00224
dy	-9.00349
▁různých	-9.00412
br	-9.00521
▁jednou	-9.00566
▁trh	-9.00619
▁svět	-9.00637
aci	-9.00697
▁hlavní	-9.00826
▁později	-9.01288
ců	-9.01325
▁státu	-9.01361
dí	-9.01704
▁můžete	-9.01948
▁programu	-9.02421
▁vedení	-9.02423
▁ČSFR	-9.02444
▁člověka	-9.03082
▁Evropě	-9.03483
▁podniku	-9.03726
▁pěti	-9.03825
▁skupiny	-9.03918
ované	-9.03924
ing	-9.03932
▁století	-9.04012
▁jedn	-9.04046
mat	-9.04207
▁bývalé	-9.04291
▁věci	-9.04493
ol	-9.04519
▁služby	-9.04533
▁Václav	-9.04648
▁deset	-9.04687
ace	-9.04843
▁moc	-9.04858
▁dlouho	-9.04862
▁málo	-9.04939
▁soud	-9.05084
▁domácí	-9.05244
▁spolu	-9.05256
O	-9.05273
▁neu	-9.05387
▁činnost	-9.05585
▁funkce	-9.05595
▁jinak	-9.05596
▁prý	-9.05638
ad	-9.05657
zí	-9.05794
▁mělo	-9.05861
pra	-9.05976
fi	-9.06101
▁zároveň	-9.06306
rt	-9.06408
▁situaci	-9.06666
▁obou	-9.06676
▁Ta	-9.07184
▁dnešní	-9.07209
▁dobré	-9.07216
nosti	-9.07331
str	-9.07597
▁možná	-9.0775
▁snímku	-9.07751
es	-9.07876
▁náklady	-9.07906
▁problém	-9.07971
skou	-9.07996
▁nez	-9.08245
▁návrh	-9.08328
▁4	-9.08357
▁přesto	-9.08415
▁100	-9.08461
ační	-9.08785
ací	-9.08928
▁místní	-9.08971
▁prvním	-9.0898
ější	-9.09004
▁cenu	-9.09095
▁CD	-9.09134
▁nových	-9.09161
▁nemůže	-9.09184
▁stojí	-9.09224
hu	-9.09494
8	-9.09564
▁máme	-9.09604
▁měly	-9.09633
▁tvrdí	-9.09772
▁jaké	-9.09813
▁mohli	-9.0985
▁děti	-9.09954
▁1993	-9.09955
▁firem	-9.10279
pat	-9.108
%	-9.10886
▁získat	-9.11074
▁Praha	-9.11075
▁jedna	-9.11722
▁států	-9.11804
▁toto	-9.11821
▁Byl	-9.12168
▁těch	-9.12204
▁majetku	-9.12208
▁nakonec	-9.12208
▁způsob	-9.12342
▁všechno	-9.12393
man	-9.12449
▁nikdy	-9.12781
▁Má	-9.12929
ik	-9.13084
▁jedno	-9.13534
▁výši	-9.13612
▁právní	-9.13742
ovým	-9.13855
▁podniků	-9.13875
▁postup	-9.13928
▁svém	-9.14095
▁lety	-9.14152
▁re	-9.14244
▁konce	-9.14246
▁Le	-9.1441
▁místě	-9.14919
▁proč	-9.15017
▁vliv	-9.15122
▁vody	-9.15136
▁americké	-9.15408
▁možnosti	-9.15455
▁třetí	-9.15677
jší	-9.15751
▁nového	-9.15812
▁dříve	-9.16033
▁30	-9.16147
H	-9.1621
▁Prahy	-9.16278
▁sobotu	-9.16336
▁stavu	-9.164
ovala	-9.16446
▁obě	-9.16764
▁nutné	-9.16873
▁nes	-9.16875
▁dál	-9.16903
▁kdyby	-9.16947
▁nebyl	-9.16961
ven	-9.17107
▁mezinárodní	-9.17249
▁15	-9.17358
án	-9.17409
▁neza	-9.17772
▁ú	-9.17827
sta	-9.17936
▁parlamentu	-9.18057
▁bychom	-9.18181
▁týden	-9.18211
ovací	-9.1822
▁Re	-9.18269
▁předseda	-9.18558
ck	-9.18563
▁přece	-9.18586
▁osm	-9.18611
▁stran	-9.18654
há	-9.18777
▁Tento	-9.189
▁zemi	-9.19049
▁pohled	-9.19243
▁Ro	-9.19272
▁ministerstva	-9.1929
id	-9.1952
▁Tato	-9.20174
sti	-9.20454
▁informací	-9.20521
▁všichni	-9.20521
▁policie	-9.20521
▁organizace	-9.20521
▁samozřejmě	-9.20558
▁potom	-9.20577
▁Není	-9.20601
▁prostor	-9.20698
▁poté	-9.20758
▁50	-9.20772
▁Další	-9.20839
▁podnik	-9.20944
▁já	-9.21044
▁rychle	-9.21114
▁nikdo	-9.21144
▁Ten	-9.21265
dl	-9.21267
▁můžeme	-9.21273
▁dne	-9.21475
▁malé	-9.21496
F	-9.21672
▁nový	-9.21692
ič	-9.21738
rad	-9.21745
▁hlavně	-9.21773
▁poměrně	-9.2187
cen	-9.21889
▁druhý	-9.21936
▁Se	-9.21964
▁českých	-9.22192
ice	-9.2234
▁Kromě	-9.22396
ul	-9.22603
▁podíl	-9.22637
▁dodal	-9.2268
▁věcí	-9.2268
▁prezidenta	-9.22719
▁něho	-9.22823
▁sdružení	-9.23047
trochu	-9.23049
nebo	-9.23061
▁dvěma	-9.23091
▁6	-9.23347
▁Tr	-9.23356
ot	-9.23598
▁pár	-9.23679
▁vedoucí	-9.237
▁St	-9.23958
▁Jana	-9.24198
▁SSSR	-9.24307
▁sobě	-9.24311
ému	-9.2462
sk	-9.24645
▁Mezi	-9.24958
▁prohlášení	-9.24964
bychom	-9.24993
ga	-9.25025
▁pří	-9.25061
▁200	-9.25108
kové	-9.25135
jich	-9.25252
▁Jako	-9.25461
▁žádné	-9.25506
▁podmínky	-9.25601
▁Jestli	-9.25602
▁komise	-9.25602
▁někdy	-9.25602
▁nedo	-9.25692
▁Mar	-9.25695
7	-9.26026
ák	-9.2611
▁večer	-9.26138
čka	-9.26173
ant	-9.26175
▁jí	-9.26215
▁základě	-9.26465
ání	-9.26537
▁minut	-9.26654
zn	-9.26659
▁Evropské	-9.2695
▁výroby	-9.2696
▁zemích	-9.26978
do	-9.27179
▁došlo	-9.27237
▁kromě	-9.27499
▁většina	-9.27575
ství	-9.27598
▁čím	-9.27643
▁stal	-9.2795
▁premiér	-9.28121
gr	-9.28158
▁čtyř	-9.28354
nit	-9.28388
▁místa	-9.28428
dním	-9.28465
▁ostatní	-9.28534
▁význam	-9.28553
▁určité	-9.28838
▁hned	-9.28919
▁nejlepší	-9.29094
mohlo	-9.29246
▁šesti	-9.293
vy	-9.29333
▁19	-9.29406
ník	-9.29511
▁Ch	-9.29511
▁peněz	-9.29589
▁výrazně	-9.29624
▁života	-9.299
ran	-9.29926
ali	-9.29937
▁tehdy	-9.30269
▁rozpočtu	-9.30272
vat	-9.30347
▁miliard	-9.30374
▁jistě	-9.30504
▁hry	-9.30525
dle	-9.30571
▁Bo	-9.3058
▁Ma	-9.30687
nik	-9.30705
▁jich	-9.30801
nutí	-9.30887
ován	-9.3095
▁vysoké	-9.30954
▁mnoha	-9.30992
▁objekt	-9.31
▁tvoří	-9.31122
▁východní	-9.31148
▁vývoj	-9.31194
▁1991	-9.31262
▁cena	-9.31316
sp	-9.31583
▁teď	-9.31653
▁vítězství	-9.31686
proti	-9.3189
▁milionu	-9.31902
▁nebylo	-9.32131
▁provoz	-9.3219
▁prosince	-9.32338
▁prostředky	-9.3234
▁poprvé	-9.32341
nout	-9.32349
▁názor	-9.32838
vo	-9.32943
ního	-9.32988
▁unie	-9.33041
ú	-9.33151
▁40	-9.33181
▁přístup	-9.33222
▁času	-9.33289
Í	-9.3342
▁žádný	-9.33498
▁stejné	-9.33616
▁spolupráci	-9.33741
▁výsledky	-9.33755
▁teprve	-9.33767
▁akce	-9.33773
▁opatření	-9.33777
▁nějak	-9.33779
▁jenž	-9.34246
sku	-9.34854
▁7	-9.34919
▁dat	-9.35119
▁prakticky	-9.35211
▁vnitřní	-9.35298
▁ODS	-9.35431
▁politické	-9.35463
▁11	-9.35518
▁mnoh	-9.35563
hle	-9.35705
▁hlediska	-9.35884
▁prostřednictví	-9.35884
▁utkání	-9.35943
▁text	-9.35945
▁zdravotní	-9.35981
ud	-9.36099
nými	-9.36403
▁procenta	-9.36494
▁republice	-9.36609
kon	-9.36613
▁kam	-9.36656
▁velice	-9.36712
▁ministra	-9.36742
▁celou	-9.36827
ct	-9.36904
▁zisk	-9.36914
▁bo	-9.36947
▁někdo	-9.3734
▁daně	-9.37398
▁deseti	-9.37412
ilo	-9.37514
▁chyb	-9.38015
▁dispozici	-9.38077
▁nižší	-9.38088
▁dostal	-9.38126
olog	-9.38151
▁souvislosti	-9.38228
díky	-9.38251
per	-9.38362
vod	-9.38565
▁kterým	-9.3863
▁typu	-9.38719
▁řadu	-9.38734
▁1990	-9.38817
▁18	-9.39131
pro	-9.39293
mohla	-9.39308
▁změny	-9.39435
▁obyvatel	-9.39454
▁osobní	-9.39529
▁rámci	-9.39563
▁ledna	-9.39606
▁prostě	-9.39786
šel	-9.39986
▁mne	-9.40192
▁původní	-9.40248
▁nejméně	-9.40328
as	-9.40334
▁podařilo	-9.4042
▁budeme	-9.40437
bě	-9.40522
▁sebou	-9.40615
▁menší	-9.40721
len	-9.40722
▁doma	-9.40857
▁roli	-9.41119
▁různé	-9.41285
▁státy	-9.41342
▁Pa	-9.41437
krát	-9.41475
▁čs	-9.41529
▁Například	-9.41834
▁podnikání	-9.4186
ber	-9.41867
šlo	-9.41903
▁sedm	-9.41914
nice	-9.41937
ver	-9.42004
▁Jen	-9.42346
hn	-9.42487
▁opravdu	-9.42614
▁výše	-9.42625
▁pomoc	-9.42629
up	-9.42645
▁tolik	-9.42677
▁Jde	-9.42702
▁úřad	-9.42713
bou	-9.42733
▁12	-9.4297
▁právo	-9.42974
▁západní	-9.43284
▁miliónů	-9.43378
▁smlouvu	-9.43378
▁snaží	-9.43379
▁nejvyšší	-9.43426
▁nedávno	-9.43436
▁náš	-9.43458
▁minulý	-9.43494
▁trenér	-9.43513
▁kole	-9.43532
gen	-9.43745
▁služeb	-9.43931
▁přednost	-9.44043
▁funkci	-9.4416
▁loni	-9.44169
▁Dnes	-9.4422
▁zdá	-9.44235
▁Pře	-9.44273
▁zvýšení	-9.44273
čin	-9.44278
ář	-9.44313
ském	-9.44827
▁25	-9.44881
kách	-9.449
▁slova	-9.44902
▁okolí	-9.44949
▁Kdo	-9.45027
▁Klaus	-9.4507
▁měsíců	-9.45126
▁středu	-9.4531
▁fakt	-9.4533
CH	-9.45397
▁chování	-9.45401
▁Te	-9.45676
▁ministerstvo	-9.45741
▁chtějí	-9.45741
▁koaliční	-9.45741
▁ta	-9.45791
▁dnech	-9.45853
▁pojištění	-9.45885
té	-9.45901
▁cen	-9.46007
▁růst	-9.46121
▁získal	-9.46171
ící	-9.46178
▁škol	-9.46239
▁úřadu	-9.46472
čky	-9.46486
▁jiného	-9.46498
▁Windows	-9.4655
ovy	-9.46617
▁metrů	-9.46665
▁národní	-9.46673
▁postupně	-9.46696
▁rady	-9.46966
▁zahraničních	-9.46989
žen	-9.47001
▁hráčů	-9.47153
▁společenství	-9.4739
▁dosavadní	-9.47429
▁slov	-9.47431
tře	-9.47442
▁nepři	-9.47524
ily	-9.4765
▁obraz	-9.47777
▁Ú	-9.47864
▁svazu	-9.47876
▁bývalý	-9.47898
▁pokus	-9.48105
▁členů	-9.48223
▁jejím	-9.48242
▁24	-9.48292
▁sil	-9.4838
▁výkon	-9.48415
ic	-9.48506
▁malý	-9.48575
▁Pak	-9.48591
▁vů	-9.48594
▁nemusí	-9.4898
▁číslo	-9.49008
▁2.	-9.49044
▁řád	-9.49095
▁práv	-9.49156
▁16	-9.49229
▁Zde	-9.4927
▁Ob	-9.49279
▁Nej	-9.49302
▁8	-9.49383
▁pracovníků	-9.49384
ostí	-9.49545
▁ex	-9.49637
▁podobně	-9.49653
ig	-9.49668
▁klubu	-9.49721
▁podporu	-9.49732
▁poslanců	-9.49806
▁ročně	-9.49809
▁zástupce	-9.49819
▁nadále	-9.49925
▁Ba	-9.49951
▁tržní	-9.49953
pis	-9.50005
▁Bude	-9.50154
▁míst	-9.50223
ovaných	-9.50297
▁počtu	-9.50365
:	-9.50593
▁ti	-9.51053
stup	-9.51158
hal	-9.51184
▁mo	-9.51396
G	-9.51447
▁Většin	-9.5148
▁nabídky	-9.5148
▁hospodářství	-9.5148
▁lépe	-9.51485
▁týmu	-9.51506
▁hodně	-9.51538
▁projekt	-9.51588
del	-9.51608
▁podniky	-9.51642
▁MS	-9.51659
▁sami	-9.5169
dob	-9.51753
▁generální	-9.51834
▁každ	-9.51902
▁přesně	-9.51937
slov	-9.52008
hy	-9.52134
nov	-9.52259
ována	-9.52283
▁umožňuje	-9.52327
▁podstatně	-9.52341
nt	-9.52379
▁jenom	-9.52405
▁Ani	-9.52489
▁přibližn	-9.52656
▁problémů	-9.52662
zen	-9.52742
▁olympijské	-9.52788
J	-9.52848
▁fondu	-9.53041
▁14	-9.53104
van	-9.53136
kla	-9.53168
▁považuje	-9.53182
▁začíná	-9.53183
▁musíme	-9.53234
▁říci	-9.53239
▁případech	-9.53242
▁dá	-9.53283
▁her	-9.53283
▁novou	-9.53289
nem	-9.53324
▁městě	-9.53354
▁1994	-9.53418
▁občanů	-9.53615
▁La	-9.53645
▁banky	-9.53852
men	-9.53916
▁pomoci	-9.54015
▁obvykle	-9.54044
ina	-9.54049
▁sítě	-9.54049
▁řada	-9.54084
ón	-9.54094
▁oddělení	-9.54128
▁efekt	-9.54153
▁možností	-9.54189
sko	-9.5421
▁českého	-9.54272
bal	-9.5434
rů	-9.54413
▁vedle	-9.54491
ať	-9.54547
▁ním	-9.54554
▁vede	-9.54643
▁nebyla	-9.54718
prve	-9.54756
▁otázku	-9.54914
▁výrobků	-9.54918
Dr	-9.55004
ev	-9.55005
▁politiky	-9.55029
▁průběhu	-9.55204
kl	-9.55315
▁vod	-9.55329
▁účast	-9.55388
ač	-9.55441
▁nabízí	-9.55791
bl	-9.55806
▁tým	-9.55852
▁nemají	-9.55857
▁miliardy	-9.55859
▁ulici	-9.55929
▁skupin	-9.56028
▁zdrojů	-9.56053
var	-9.56084
▁Roz	-9.56099
▁změn	-9.56132
▁moci	-9.56226
▁kterém	-9.56231
▁celkové	-9.56392
kov	-9.56415
▁takto	-9.56461
▁skutečnost	-9.5648
▁věc	-9.56541
▁otázky	-9.56676
▁úrovni	-9.56676
▁chvíli	-9.56676
▁celkem	-9.5668
▁Česká	-9.56689
▁uvádí	-9.56761
▁moderní	-9.56879
ických	-9.56927
▁výzkum	-9.56962
lek	-9.57175
▁cestu	-9.57185
▁pražské	-9.57285
and	-9.57539
▁mistrovství	-9.57569
▁postavení	-9.578
▁názoru	-9.57829
▁dohody	-9.57878
▁jednom	-9.57886
▁Už	-9.57956
▁objektů	-9.57983
▁textu	-9.58071
▁my	-9.58279
mysl	-9.58302
ed	-9.58424
▁energie	-9.5847
▁dětí	-9.5847
▁NATO	-9.58471
▁neo	-9.58692
RA	-9.58704
čení	-9.58977
vní	-9.59079
▁počítače	-9.59087
▁strana	-9.591
▁provozu	-9.59238
viz	-9.59243
▁společností	-9.5927
▁finále	-9.59379
▁kterých	-9.59432
▁republik	-9.59475
ném	-9.59486
▁představuje	-9.59498
▁takový	-9.59526
▁měsíce	-9.59606
▁listopadu	-9.59608
▁vybavení	-9.59661
▁všem	-9.59666
▁základ	-9.59675
▁oba	-9.59691
▁Ze	-9.59702
▁Mo	-9.59709
▁setkání	-9.59719
▁působí	-9.59819
▁sama	-9.59988
▁obsah	-9.6002
▁každé	-9.60046
▁Ka	-9.60116
▁nikoli	-9.60196
▁světové	-9.60285
▁prostředků	-9.60297
▁hrát	-9.60312
▁čtvrtek	-9.60328
▁skupina	-9.6035
▁Ještě	-9.60358
▁Tím	-9.60384
▁cizí	-9.60402
▁film	-9.60424
▁současně	-9.60503
▁obchodního	-9.60505
ovém	-9.60538
▁řadě	-9.60566
▁příští	-9.60671
hled	-9.60796
▁platit	-9.60835
▁musel	-9.60837
nos	-9.60918
les	-9.61006
▁parlament	-9.61129
koli	-9.61222
▁Navíc	-9.61222
▁Nyní	-9.61226
▁výrobky	-9.61228
▁OSN	-9.61232
▁produkce	-9.61238
▁obchodu	-9.61253
▁Ná	-9.61319
▁atd	-9.6135
tek	-9.61366
▁volební	-9.61391
▁Ti	-9.61461
▁neděli	-9.61509
rn	-9.61572
▁skutečnosti	-9.62012
▁disk	-9.62029
mluv	-9.62033
▁Josef	-9.62157
▁federální	-9.62157
▁zasedání	-9.62161
Š	-9.62185
▁dobrý	-9.62201
▁kvalitní	-9.62224
▁Vý	-9.62229
▁muset	-9.62241
▁zdroje	-9.62421
iny	-9.62499
ková	-9.62568
ment	-9.62573
ovaný	-9.62605
ster	-9.6273
▁výboru	-9.62819
▁hlavním	-9.62822
▁čeká	-9.6293
be	-9.63005
▁poně	-9.63078
▁začátku	-9.63148
▁srovnání	-9.63176
▁přiče	-9.63212
▁vládní	-9.63277
▁jiný	-9.63405
▁součástí	-9.63409
▁použití	-9.63468
▁akcií	-9.6347
▁13	-9.63498
▁mluvčí	-9.63513
dávají	-9.6359
▁prezentace	-9.6361
▁hodnoty	-9.63619
▁bank	-9.63697
▁kterého	-9.63832
▁Lu	-9.63852
▁školy	-9.63971
▁teorie	-9.64052
▁buď	-9.64054
▁1989	-9.64055
▁privatizace	-9.64056
▁apod	-9.64064
bor	-9.64096
▁jasné	-9.64152
▁zvláštní	-9.64242
▁případ	-9.6426
▁vzor	-9.64369
▁společné	-9.6442
▁Ha	-9.64502
▁těm	-9.64688
▁Pod	-9.64701
▁ME	-9.64729
▁nepro	-9.6475
▁60	-9.6497
▁Země	-9.65029
▁chtěl	-9.65108
▁dopravy	-9.65147
▁domů	-9.65175
▁plně	-9.65236
▁šéf	-9.65306
▁objektu	-9.65316
▁jednotlivé	-9.65365
ická	-9.65389
▁dr	-9.65437
▁kolik	-9.65446
št	-9.65486
▁nena	-9.65518
▁svaz	-9.65732
▁našem	-9.65769
▁telefonní	-9.65832
ovány	-9.65853
▁možno	-9.65927
▁ekonomické	-9.65976
▁veřejné	-9.65985
▁zdravotnictví	-9.65985
▁umění	-9.65986
▁Někter	-9.65987
▁Ivan	-9.66037
▁22	-9.66107
▁údaje	-9.66338
▁Bylo	-9.66674
řitom	-9.66765
▁Jelcin	-9.66778
▁nebezpečí	-9.66966
▁podobě	-9.66967
▁Pavel	-9.6697
cký	-9.66998
▁Podobn	-9.67006
▁ostatních	-9.6703
pokoj	-9.6706
he	-9.67067
▁investice	-9.67125
vin	-9.67169
iz	-9.67173
▁práva	-9.67234
ický	-9.67269
▁státního	-9.67319
▁noci	-9.6732
▁kultury	-9.67359
▁celého	-9.67368
rát	-9.67374
íky	-9.67381
fr	-9.67409
▁spojení	-9.67537
▁dalším	-9.67679
▁model	-9.67802
▁společně	-9.68059
▁mil	-9.6809
jde	-9.68096
▁vstup	-9.68101
▁zájmu	-9.68238
▁snadno	-9.68251
▁soutěže	-9.68266
mž	-9.68318
▁smrti	-9.6832
▁politických	-9.68341
▁Proč	-9.68356
např	-9.68385
▁sta	-9.68584
▁vzájemn	-9.68625
▁dává	-9.68697
lin	-9.68715
▁Toto	-9.68865
▁televizní	-9.68955
▁jméno	-9.68957
▁tisíce	-9.69015
000	-9.69026
čet	-9.69031
ěte	-9.69063
▁klub	-9.69217
ner	-9.69229
ček	-9.69669
▁předem	-9.69739
▁zápas	-9.69888
▁trvá	-9.69929
▁snímek	-9.69967
▁Stejn	-9.69974
▁hnutí	-9.69977
▁zdraví	-9.69992
▁lidi	-9.70038
ík	-9.70053
▁důvodů	-9.70168
▁vytvoření	-9.70168
▁nejvíce	-9.70188
rán	-9.70264
sky	-9.7042
▁di	-9.70493
▁vztah	-9.70518
▁list	-9.7061
Ž	-9.70764
▁zpět	-9.70814
▁Sa	-9.70885
▁Pr	-9.70955
▁Jaroslav	-9.70986
▁vzhledem	-9.71066
▁připraven	-9.71086
vil	-9.71139
ujeme	-9.71152
▁velkou	-9.71182
▁počítač	-9.71309
▁pracovat	-9.71357
▁mužů	-9.71385
form	-9.71397
▁konkrétní	-9.71432
▁jisté	-9.71442
▁Český	-9.71561
iště	-9.71614
▁hráči	-9.71629
▁Li	-9.71675
▁soudu	-9.71716
▁schopn	-9.71727
▁trest	-9.71781
▁otázka	-9.71801
gu	-9.7184
však	-9.72007
▁těžko	-9.72017
▁okolo	-9.72019
▁podobný	-9.7203
▁potvrdil	-9.721
▁pa	-9.72121
▁bod	-9.72241
▁Kr	-9.72244
▁světový	-9.72249
nil	-9.72275
▁daleko	-9.72281
▁nákup	-9.72321
▁spíš	-9.72658
ovaly	-9.72787
▁typ	-9.72809
▁kom	-9.72894
▁muž	-9.72923
▁hodiny	-9.72994
svoji	-9.73015
▁byt	-9.73048
▁náměstí	-9.73059
▁delší	-9.73063
▁někteří	-9.73065
▁zástupci	-9.73066
▁září	-9.73074
▁rukou	-9.73084
▁zaměstnání	-9.73098
▁kilometrů	-9.73129
▁obsahuje	-9.73133
▁oboru	-9.73434
▁In	-9.73438
▁přijat	-9.73482
▁věku	-9.73516
atel	-9.73539
▁koncem	-9.73597
▁kulturní	-9.7384
ené	-9.73849
▁mohly	-9.73889
NÍ	-9.73986
▁výsledek	-9.74111
▁cestovní	-9.74111
slav	-9.74186
itel	-9.74238
▁celkov	-9.74286
▁Ho	-9.74314
▁přišel	-9.74324
▁druhů	-9.74369
ským	-9.74406
▁zkušenosti	-9.74451
ložit	-9.74499
▁ba	-9.74507
raz	-9.74859
nici	-9.74934
▁Kčs	-9.75
▁spojen	-9.75007
▁start	-9.75024
▁hospodářské	-9.75102
▁existuje	-9.75175
▁nejbližší	-9.75175
▁podmínek	-9.75175
▁nebudou	-9.75175
▁zůstává	-9.75175
▁Může	-9.75176
▁dnů	-9.75191
▁nějaké	-9.7522
▁objekty	-9.75247
▁olympijský	-9.75262
▁koalice	-9.75285
▁zaměstnanců	-9.75349
▁stavební	-9.75471
▁rozvoj	-9.75505
▁český	-9.75529
▁plyn	-9.75802
▁Br	-9.75822
▁každého	-9.759
▁smyslu	-9.75931
▁Dr	-9.75949
▁hlas	-9.7595
▁prodej	-9.76124
▁úroveň	-9.7625
▁starší	-9.76253
▁17	-9.76262
▁kon	-9.76276
▁tady	-9.76283
▁fond	-9.76332
▁termín	-9.7642
▁dosáhl	-9.76427
▁úspěch	-9.76448
▁minulosti	-9.76517
ovými	-9.76645
▁běžné	-9.76663
▁mám	-9.7672
▁Zá	-9.76784
vedl	-9.76809
pravidla	-9.77015
mar	-9.77051
▁tun	-9.77157
▁případně	-9.77192
▁rychlost	-9.77302
▁poslanci	-9.77337
▁pátek	-9.77337
▁praxi	-9.77338
cké	-9.7738
▁jediný	-9.77399
▁Já	-9.77427
▁určitě	-9.77504
▁Každý	-9.77514
▁loňské	-9.77529
▁pozornost	-9.7769
▁Al	-9.77707
go	-9.77716
▁Brně	-9.77752
ge	-9.77767
znal	-9.77774
voz	-9.77966
ovalo	-9.7813
nek	-9.78163
▁příklad	-9.78167
Č	-9.7819
▁dotaz	-9.78268
▁důležité	-9.78436
▁vidět	-9.78436
▁šanci	-9.78438
▁lékaře	-9.78443
▁konci	-9.78501
▁kvality	-9.78509
▁budoucí	-9.78561
▁Bez	-9.78646
▁prvního	-9.78749
▁plat	-9.78767
▁Tu	-9.78817
▁lékař	-9.78866
▁krok	-9.79038
ovaná	-9.7912
▁70	-9.79121
ak	-9.79247
▁Přes	-9.79324
šť	-9.79451
potřeb	-9.79451
▁obchod	-9.79451
nic	-9.79505
▁síly	-9.79556
▁volbách	-9.79558
▁výrobce	-9.79562
▁stačí	-9.7958
▁července	-9.79585
▁druhém	-9.79586
▁odpovídá	-9.79632
▁dny	-9.79635
▁nikoliv	-9.79685
klad	-9.79766
▁změnit	-9.79768
▁bývá	-9.79773
▁doba	-9.79787
▁knihy	-9.79926
▁nárok	-9.79936
▁Německa	-9.80089
▁členy	-9.8012
ající	-9.80159
ovo	-9.80183
▁Da	-9.8019
uji	-9.80383
třech	-9.80561
jící	-9.80601
raději	-9.80686
▁Jeden	-9.80703
nění	-9.80764
▁podstatě	-9.80799
▁nákladů	-9.80863
▁zranění	-9.81026
▁nepře	-9.8106
▁hvězd	-9.81062
▁speciální	-9.81078
ROM	-9.8111
ště	-9.81142
▁Ku	-9.81254
ca	-9.81394
▁řad	-9.81411
▁tisku	-9.81419
tur	-9.81474
▁žen	-9.81507
kor	-9.81716
▁Ministerstv	-9.81807
▁technologie	-9.81807
▁tepla	-9.81808
▁úplně	-9.81823
▁činí	-9.81892
▁představitelé	-9.81906
▁výrobu	-9.81909
▁investiční	-9.81927
▁techniky	-9.81969
▁znám	-9.81992
▁rozšíření	-9.82037
▁dvacet	-9.82129
▁druhou	-9.82163
▁koncert	-9.82184
stal	-9.8223
▁telefon	-9.82373
▁podobné	-9.82415
▁Nový	-9.82493
▁Rad	-9.82522
▁Již	-9.82609
▁majitel	-9.82616
▁ruské	-9.82663
▁Jedno	-9.82832
inu	-9.8289
▁podnikatele	-9.82895
▁Č	-9.83002
▁voleb	-9.83024
▁míry	-9.83076
▁volby	-9.83137
▁celá	-9.83149
▁pracuje	-9.83218
níci	-9.83273
vou	-9.83305
▁dal	-9.83351
alo	-9.8337
▁léta	-9.83379
▁zprávy	-9.83389
▁Pan	-9.83402
un	-9.83416
▁ryb	-9.83478
▁počítá	-9.83511
kami	-9.83514
▁domu	-9.8353
▁výrobní	-9.83543
▁polovin	-9.83747
▁pre	-9.83924
▁vznikl	-9.83965
▁představ	-9.84088
álně	-9.84158
▁dvakrát	-9.84169
▁vytvořit	-9.84183
▁titul	-9.84238
▁80	-9.84242
jet	-9.84364
▁chcete	-9.84415
▁vlastnosti	-9.84467
ard	-9.84471
vede	-9.84471
vláště	-9.84515
nd	-9.84571
nka	-9.84633
▁autor	-9.84686
▁bytů	-9.84721
▁výběr	-9.84734
vu	-9.84741
▁návrhu	-9.84884
▁hra	-9.84884
skoro	-9.84918
▁též	-9.85011
▁druh	-9.85095
OV	-9.85169
tím	-9.85257
▁financí	-9.85296
▁konečně	-9.85366
▁závěr	-9.8547
▁každém	-9.85542
▁akci	-9.85591
10	-9.85607
nk	-9.85622
▁De	-9.85663
▁SR	-9.8574
▁vyhrál	-9.85843
▁Její	-9.85843
bar	-9.85924
▁fotbalové	-9.85978
▁dělat	-9.86112
▁jít	-9.86192
▁federace	-9.86486
▁firmě	-9.86486
▁použít	-9.86486
zhledem	-9.8649
▁výsledků	-9.8651
▁dvaceti	-9.86512
▁současnosti	-9.86513
▁led	-9.8652
▁evropských	-9.86525
▁Všechny	-9.86553
▁zpracování	-9.86596
▁hráč	-9.86619
▁seznam	-9.86693
▁hranice	-9.86711
▁průmyslu	-9.86877
tem	-9.86911
▁bodů	-9.86912
ó	-9.86952
▁Německu	-9.86978
▁Zeman	-9.87002
▁vojenské	-9.87131
nul	-9.87323
plat	-9.87468
ej	-9.87576
cím	-9.87604
uto	-9.87613
▁rozhodující	-9.87627
▁ode	-9.87686
▁Společenství	-9.87691
▁Vladimír	-9.87691
▁Právě	-9.87691
▁zbraní	-9.87692
▁nejlépe	-9.87693
▁pravděpodobně	-9.87703
▁Běh	-9.87718
▁původně	-9.87747
▁osmi	-9.87803
▁Měl	-9.87807
▁lidský	-9.87849
▁objeví	-9.8792
▁ředitele	-9.87947
pil	-9.87979
th	-9.88105
▁amerických	-9.8817
▁údajn	-9.88181
▁Firma	-9.8827
plav	-9.8828
zo	-9.88299
▁cílem	-9.883
▁osoby	-9.88303
▁neod	-9.88335
▁přírodní	-9.88365
▁rád	-9.88388
▁následující	-9.8845
kul	-9.88622
nese	-9.88677
▁slovo	-9.8868
pen	-9.88706
ici	-9.88773
ben	-9.8882
▁ženy	-9.88888
CE	-9.88889
▁dlouhé	-9.88911
▁udělat	-9.88951
▁sněmovny	-9.8898
▁dokáže	-9.8899
▁vítěz	-9.89048
ler	-9.89053
▁důvod	-9.89159
30	-9.89292
▁vhodné	-9.89299
▁jaký	-9.89316
značně	-9.89322
19	-9.89385
▁prostoru	-9.89477
ala	-9.89552
▁popis	-9.89676
▁předpokládá	-9.89741
pol	-9.8975
ška	-9.89949
▁roční	-9.89974
▁pokles	-9.90012
▁vyp	-9.90016
▁těmi	-9.90084
▁patrně	-9.90138
▁informační	-9.90145
▁hovoří	-9.90145
▁čísla	-9.90145
▁brzy	-9.90146
▁závod	-9.90151
▁pravda	-9.90168
▁využití	-9.90283
▁úvěr	-9.90295
SK	-9.90296
▁růstu	-9.90311
▁Miloš	-9.90365
ického	-9.90442
▁zisku	-9.90454
▁obrany	-9.90531
▁Ke	-9.90565
fo	-9.9073
▁severní	-9.90743
▁přechod	-9.90762
▁ústavu	-9.90836
▁rokem	-9.90842
▁poměr	-9.90866
▁veřejnosti	-9.90874
ké	-9.91087
mír	-9.91171
▁plán	-9.91286
jdou	-9.91319
▁většinu	-9.91395
▁jinde	-9.91395
▁péče	-9.91395
▁začne	-9.91418
▁nemohou	-9.91428
▁dovolenou	-9.91459
▁vědecké	-9.91475
▁vodní	-9.91486
▁vědět	-9.91522
▁vládě	-9.91563
▁místopředsed	-9.91573
jev	-9.91696
▁Že	-9.91753
▁denně	-9.91787
▁čele	-9.91825
rop	-9.9204
▁takovou	-9.92097
▁motor	-9.92117
tky	-9.92147
son	-9.92187
▁data	-9.92203
▁prací	-9.92214
W	-9.92232
▁národního	-9.9224
▁čem	-9.92311
čil	-9.92437
ST	-9.9249
▁stala	-9.92497
▁aplikace	-9.92554
▁pokračovat	-9.92661
▁pozadí	-9.92661
▁látky	-9.92665
zv	-9.92683
▁sluneční	-9.92774
▁500	-9.9282
port	-9.92854
▁snížení	-9.92881
▁stanoven	-9.92881
▁rada	-9.93095
▁2000	-9.93171
▁veřejnost	-9.93192
▁potřebné	-9.93308
▁smysl	-9.93483
▁procesu	-9.9353
▁výbor	-9.93558
rod	-9.93582
▁stalo	-9.9361
▁kolo	-9.93736
sil	-9.93793
ění	-9.93833
▁300	-9.93882
ir	-9.93905
▁UEFA	-9.93943
▁demokracie	-9.93943
▁důležitý	-9.93943
▁oficiální	-9.93943
▁označil	-9.93943
▁televizi	-9.93943
▁Spojený	-9.93944
▁kurs	-9.93947
▁Havel	-9.93948
▁nijak	-9.9395
▁hodnocení	-9.93982
▁ukazuje	-9.93984
▁okamžitě	-9.94
▁Hrad	-9.94103
▁míru	-9.94107
▁zabývá	-9.94133
aj	-9.94142
▁nebyly	-9.94245
py	-9.94249
▁papír	-9.94331
▁plné	-9.94339
▁naprosto	-9.94344
ele	-9.94371
▁oblast	-9.94378
▁cesty	-9.94378
▁bezpečnosti	-9.94409
▁pocit	-9.94518
nů	-9.94626
ovaného	-9.94641
▁určen	-9.94676
▁odmítl	-9.94697
▁vzniku	-9.94755
▁post	-9.94786
▁body	-9.94939
▁dát	-9.9497
LA	-9.95119
▁téma	-9.95224
▁majetek	-9.95242
▁řečeno	-9.95242
▁počasí	-9.95244
din	-9.9526
dává	-9.95267
▁současn	-9.95285
▁členové	-9.95314
▁pole	-9.95338
▁ČSSD	-9.95379
▁potřeby	-9.95391
▁stanice	-9.95444
▁odborné	-9.95453
mor	-9.95483
▁kanceláře	-9.95492
ska	-9.95614
tor	-9.95764
▁Čech	-9.95767
▁vládu	-9.95777
tah	-9.95789
▁respekt	-9.95985
▁lékaři	-9.96124
▁řady	-9.96196
▁ES	-9.96229
▁vývoje	-9.9644
▁nějaký	-9.96554
▁názvem	-9.96558
▁onemocnění	-9.96558
▁požadavky	-9.96558
▁příjmy	-9.96558
▁rozhodně	-9.96558
▁Nové	-9.96591
šli	-9.96613
▁systémů	-9.96627
▁lidem	-9.96631
▁dosáhnout	-9.96647
▁ekonomiky	-9.96685
▁zákony	-9.96689
▁Martin	-9.96812
▁Slovensku	-9.96886
▁dodává	-9.96948
▁třicet	-9.9711
psal	-9.97124
▁Cen	-9.97137
íte	-9.97181
▁počátku	-9.97236
měř	-9.9732
▁postoj	-9.97503
ten	-9.97535
ismus	-9.97552
nské	-9.97718
rovna	-9.97779
▁21	-9.97786
cházet	-9.97806
▁motiv	-9.97866
AN	-9.97873
▁konference	-9.97891
▁televize	-9.97891
▁vánoční	-9.97892
▁ligy	-9.97894
▁policejní	-9.97896
▁dostat	-9.97914
▁funkcí	-9.97921
tel	-9.97942
▁hlavního	-9.97965
puštěn	-9.97978
▁tenis	-9.97979
rat	-9.98016
▁slib	-9.98102
▁Státní	-9.98102
▁jednak	-9.9814
▁obcí	-9.98153
tní	-9.98191
▁proces	-9.98213
▁hodnot	-9.98245
▁mechaniky	-9.98278
▁přístupu	-9.9828
▁Kar	-9.984
▁celém	-9.98454
▁9	-9.98469
▁chod	-9.98474
ér	-9.98482
▁bran	-9.98521
ita	-9.98535
▁soubor	-9.9859
▁společného	-9.98681
ena	-9.98793
▁prodeje	-9.98833
▁nová	-9.98857
HO	-9.98889
tů	-9.98897
▁získá	-9.98919
nský	-9.98934
ion	-9.9907
▁vyh	-9.99089
brán	-9.99099
▁Prezident	-9.99242
▁poskytuje	-9.99242
▁Československu	-9.99242
▁zločin	-9.99243
▁vnitra	-9.99245
▁velká	-9.99247
vání	-9.99292
▁ochran	-9.99343
▁New	-9.994
▁živ	-9.99408
▁parlamentní	-9.99419
▁řekla	-9.99419
▁stud	-9.99453
▁Společnost	-9.99541
▁škody	-9.99553
jat	-9.9956
▁nechal	-9.99578
▁trestní	-9.99591
▁Aby	-9.99644
▁rychlostí	-9.99661
▁druhá	-9.99691
▁PowerPoint	-9.99698
▁skončil	-9.99753
der	-9.99755
net	-9.99839
brž	-9.99842
tivní	-9.99882
▁auto	-9.99886
▁Velké	-9.99913
ovu	-9.99945
óz	-9.9996
▁radost	-9.99981
▁spoj	-10.0003
▁soutěž	-10.0008
▁pís	-10.0014
▁souboru	-10.0016
▁obrat	-10.0017
dra	-10.0027
▁závěru	-10.0029
▁druhu	-10.0029
▁příkaz	-10.0029
▁druhého	-10.0036
ď	-10.0038
▁boj	-10.0042
letý	-10.0044
▁lékařů	-10.0051
▁měsíc	-10.0056
▁kláves	-10.0061
▁zemědělství	-10.0061
▁látek	-10.0062
▁desítky	-10.0063
▁najít	-10.0063
▁měsících	-10.0064
▁Ra	-10.0064
▁ohledu	-10.0065
▁Čechách	-10.0066
▁Atlantě	-10.0068
▁zaplatí	-10.0071
▁Ž	-10.0075
dal	-10.008
▁zákoníku	-10.0083
▁vydání	-10.0086
▁přátel	-10.0089
▁dopravní	-10.0089
▁povinnost	-10.0093
dat	-10.0095
▁jinou	-10.0095
nes	-10.0097
▁správy	-10.0098
lem	-10.0099
▁město	-10.0099
▁prav	-10.0108
ujících	-10.0108
▁vývoz	-10.0108
mj	-10.0109
méně	-10.0109
▁manžel	-10.0114
▁rozhodl	-10.0116
pustí	-10.0132
▁disku	-10.0132
▁zákonů	-10.014
▁Cel	-10.0149
▁takového	-10.0157
▁napsal	-10.016
▁řeč	-10.0167
▁výběru	-10.0168
▁tr	-10.0176
▁síť	-10.0179
▁zemřel	-10.0184
▁schopen	-10.02
▁tradiční	-10.02
▁hudební	-10.02
▁těžký	-10.02
▁Francie	-10.02
▁nabídku	-10.02
▁ustanovení	-10.02
▁snímků	-10.02
▁výrobců	-10.02
▁evropské	-10.0201
▁střel	-10.0205
▁uplatnění	-10.0207
▁přenos	-10.021
kovi	-10.0219
▁přijde	-10.0221
▁ráno	-10.0224
kli	-10.0229
▁státech	-10.0231
▁oznámil	-10.0233
tal	-10.0244
ností	-10.0247
▁Pří	-10.025
▁nově	-10.0264
ává	-10.0269
▁začali	-10.028
▁dalšího	-10.0285
▁nim	-10.0294
▁hráče	-10.0296
fer	-10.0306
▁Národní	-10.031
átor	-10.0312
▁ceně	-10.0315
rád	-10.0323
▁těžké	-10.0341
▁využít	-10.0341
▁přijetí	-10.0341
▁působení	-10.0341
▁řešit	-10.0342
▁hodlá	-10.0343
▁školství	-10.0343
▁rozpočet	-10.0343
▁tentokrát	-10.0346
▁zajistit	-10.0349
▁převážně	-10.035
▁gól	-10.036
▁pořadí	-10.0366
▁Takže	-10.0368
star	-10.0368
▁částky	-10.0372
▁vyplývá	-10.0373
ký	-10.0373
▁vysokou	-10.0374
EN	-10.038
▁změna	-10.0381
▁soukromé	-10.0382
▁okamžiku	-10.0386
íme	-10.0386
▁jiná	-10.0389
šení	-10.0405
▁chybí	-10.0405
▁blok	-10.0415
pak	-10.0416
▁samo	-10.0418
▁člen	-10.0421
▁chtěli	-10.0451
kol	-10.0453
▁jednat	-10.0453
▁známé	-10.0461
▁potřebuje	-10.0463
▁podnikatel	-10.0465
šti	-10.0466
▁minulé	-10.0469
zní	-10.047
fe	-10.0473
▁Jin	-10.0478
šit	-10.0481
▁nesmí	-10.0481
isté	-10.0483
▁seznamu	-10.0484
▁nejrůznější	-10.0484
▁bohužel	-10.0484
▁spolupráce	-10.0484
▁družstva	-10.0484
dostatečně	-10.0484
▁Mezinárodní	-10.0485
▁%.	-10.0489
cího	-10.0489
▁názory	-10.0491
▁povolení	-10.0492
▁27	-10.0493
▁místech	-10.0496
ejte	-10.0496
▁moře	-10.0497
▁údajů	-10.0498
▁vztahu	-10.0498
▁směrem	-10.0503
▁vznik	-10.0506
▁cestou	-10.0507
▁nejde	-10.0517
EL	-10.0524
▁Hor	-10.0527
▁90	-10.0535
▁zdroj	-10.0545
▁mimořádn	-10.0545
ený	-10.0546
▁věd	-10.057
▁máte	-10.0571
řka	-10.0587
▁myslím	-10.0594
ide	-10.0598
vad	-10.061
▁národ	-10.0613
ast	-10.0614
▁jestli	-10.0626
▁pondělí	-10.0629
▁prezentaci	-10.0629
▁vyslovil	-10.0629
▁výzkumu	-10.0631
▁pořád	-10.0633
▁měsíční	-10.0634
▁předtím	-10.0641
▁pravidelně	-10.0642
ok	-10.0645
stoupil	-10.0646
▁armády	-10.0646
▁teplo	-10.0647
den	-10.0647
▁smluvní	-10.0649
áři	-10.0653
nci	-10.0658
▁systémy	-10.0668
▁oprav	-10.067
kat	-10.0677
▁uvedla	-10.0684
▁stane	-10.0693
▁materiál	-10.0694
▁případů	-10.0702
▁těles	-10.0703
▁vědy	-10.0705
▁hotel	-10.0715
▁odhad	-10.0715
▁zákaz	-10.0716
padá	-10.0725
▁prv	-10.0733
▁vztahy	-10.0735
▁dní	-10.0746
vnitř	-10.0746
kládá	-10.0753
▁žádn	-10.0755
▁měst	-10.0758
▁odbyt	-10.0762
▁dostane	-10.0763
měr	-10.0763
▁mechanika	-10.0763
▁vz	-10.0764
▁daňové	-10.0773
▁němu	-10.0775
▁HIV	-10.0776
▁Poslední	-10.0776
▁konferenci	-10.0776
▁podmínkách	-10.0776
▁příjmů	-10.0776
▁úrovně	-10.0776
řídil	-10.0776
▁června	-10.0777
▁spoust	-10.0777
▁radnice	-10.0777
▁změnu	-10.078
nec	-10.0783
▁výjimkou	-10.0784
▁neměl	-10.0785
IN	-10.0786
▁LN	-10.0786
▁taková	-10.0795
zu	-10.0798
▁politiku	-10.08
▁dvanáct	-10.08
▁částku	-10.0809
TA	-10.0815
▁rodiny	-10.0817
▁Ar	-10.0818
▁tiskové	-10.082
her	-10.0827
▁zásad	-10.0848
▁vysoký	-10.0853
▁velikost	-10.0854
▁kop	-10.0854
▁podnikatelů	-10.0861
▁sestav	-10.0867
▁směru	-10.0883
▁konkurence	-10.0887
hi	-10.0891
▁očekává	-10.0894
▁museli	-10.0899
▁kola	-10.0902
rab	-10.0903
▁porad	-10.0904
▁Jedna	-10.0906
▁Největší	-10.0925
▁Současn	-10.0925
▁většině	-10.0925
▁kapitol	-10.0925
▁války	-10.0925
▁účetnictví	-10.0925
▁aliance	-10.0925
▁tvrzení	-10.0926
dali	-10.0927
▁Naše	-10.0931
násob	-10.0934
▁jednoznačně	-10.0951
před	-10.0951
▁3.	-10.0967
▁zvířat	-10.0968
elný	-10.097
vz	-10.0971
▁Če	-10.0974
▁skupině	-10.0976
ané	-10.0976
ováno	-10.098
▁sedmi	-10.0983
▁aktivity	-10.0991
▁padesát	-10.0991
ismu	-10.0995
řídit	-10.1007
▁spor	-10.1009
▁žije	-10.1015
▁styl	-10.1017
▁jakým	-10.1018
▁volné	-10.102
▁Vše	-10.1025
▁hodnotu	-10.1027
ír	-10.1031
▁Rusko	-10.1033
▁bezpečnostní	-10.1036
▁kurz	-10.1037
▁Bu	-10.104
▁polovinu	-10.1043
ickou	-10.1043
▁ODA	-10.1047
▁poslanec	-10.1056
ang	-10.1056
▁400	-10.1058
ovský	-10.1058
▁daň	-10.1058
▁uvedené	-10.1062
▁tisk	-10.1066
▁nechce	-10.1071
hla	-10.1073
▁většiny	-10.1077
▁politice	-10.1077
▁začít	-10.1077
▁vždycky	-10.1077
▁Václava	-10.1079
▁pořádku	-10.1084
▁nemocnice	-10.1086
▁Jenže	-10.1088
▁individuální	-10.1092
▁centra	-10.1093
▁třemi	-10.1098
▁Německo	-10.1104
▁pracovníci	-10.1106
▁sklad	-10.1113
▁předsedy	-10.1117
▁diváků	-10.1117
dával	-10.1118
▁mění	-10.1118
▁univerzity	-10.1122
▁Bra	-10.1131
blíž	-10.1138
▁budoucnosti	-10.1141
▁hraje	-10.115
▁sportovní	-10.1152
▁čase	-10.116
bud	-10.1164
▁studentů	-10.1166
▁Kdyby	-10.1167
▁životě	-10.1176
dla	-10.1177
▁soudní	-10.1185
▁jím	-10.1191
▁slouží	-10.1196
▁přehled	-10.1198
▁staré	-10.12
▁hrál	-10.1203
▁paní	-10.1209
▁35	-10.1214
ivé	-10.1222
▁nutno	-10.1225
▁AIDS	-10.123
▁Británie	-10.123
▁vzdělání	-10.123
▁srpna	-10.123
▁obyvatelstva	-10.1231
▁objevil	-10.1232
▁Zákon	-10.1234
▁konec	-10.1234
▁Možná	-10.1235
▁lidské	-10.1237
▁Vždyť	-10.1238
▁německé	-10.1245
▁adres	-10.1252
zení	-10.1252
▁důsledku	-10.1263
▁hlasů	-10.1265
▁Škoda	-10.1271
▁miliony	-10.1278
▁automobil	-10.1279
▁mnohé	-10.1279
▁aktivní	-10.1284
stoupí	-10.1285
▁složení	-10.129
▁předchozí	-10.1294
▁díl	-10.1298
lík	-10.1299
▁demokratické	-10.1299
▁zásadní	-10.13
ral	-10.1307
▁trval	-10.1313
▁týká	-10.1319
▁takových	-10.1324
ároveň	-10.1335
▁používá	-10.134
▁dob	-10.135
rak	-10.1351
SE	-10.1352
▁státních	-10.1362
▁vaše	-10.1362
▁úřady	-10.1379
▁Me	-10.138
rok	-10.1381
šek	-10.1386
▁očekávat	-10.1387
▁připravuje	-10.1387
▁silniční	-10.1387
▁buněk	-10.1387
▁tajemství	-10.1387
▁název	-10.1387
▁verze	-10.1389
▁vrátil	-10.1392
▁Pavl	-10.1393
▁koupit	-10.1393
ření	-10.1394
▁zdalek	-10.1395
▁průměru	-10.1397
rit	-10.1399
▁kvalitu	-10.1399
nky	-10.1401
▁uspořádání	-10.1401
▁výkonu	-10.1403
▁souhlas	-10.1404
▁piva	-10.1408
▁jejího	-10.1412
▁poznání	-10.1418
stoupit	-10.1424
▁dochází	-10.1425
▁příštím	-10.1428
▁chceme	-10.1433
jak	-10.1433
▁John	-10.1436
ckých	-10.1436
▁příčin	-10.1437
▁počítačů	-10.1453
▁pobyt	-10.1455
▁jiným	-10.1473
▁povinnosti	-10.1474
▁banka	-10.1482
▁150	-10.1483
▁zajímavé	-10.1485
▁záznam	-10.1493
▁projektu	-10.1495
mer	-10.1497
koliv	-10.1497
budete	-10.1498
kám	-10.1499
▁způsobil	-10.1507
▁kap	-10.151
▁premiéra	-10.1514
▁technické	-10.1515
▁dokument	-10.1516
▁muži	-10.1521
myšlen	-10.1522
sad	-10.1525
▁stroje	-10.1538
▁devět	-10.1543
▁občas	-10.1545
▁zřejmé	-10.1545
▁přírody	-10.1545
▁zůstat	-10.1545
▁privatizaci	-10.1546
▁trend	-10.1546
▁marek	-10.1547
▁sdělil	-10.1547
▁článku	-10.1548
▁Karel	-10.1549
▁okresní	-10.1553
▁vyžaduje	-10.1556
▁pozitivní	-10.1557
▁jaderné	-10.1558
▁částí	-10.156
▁vánoce	-10.157
▁odpor	-10.1572
▁odborníků	-10.1574
▁Dva	-10.1576
▁agentury	-10.1576
▁úvahu	-10.1579
▁Ot	-10.1579
▁jazyk	-10.1581
▁sovětské	-10.1587
▁jaderný	-10.1594
▁Ru	-10.1599
ij	-10.1602
EM	-10.1603
▁Asi	-10.1607
▁Ni	-10.1608
▁hlavních	-10.1612
▁Oba	-10.1621
▁relativn	-10.1632
▁příštího	-10.1639
▁programy	-10.1642
▁Mám	-10.1648
▁vyjádřil	-10.1654
▁ústav	-10.1663
▁úkol	-10.1697
▁manažer	-10.1701
▁Miroslav	-10.1707
▁jména	-10.1707
▁organizací	-10.1707
▁zahájil	-10.1707
▁věnovat	-10.1707
▁válce	-10.1707
▁historii	-10.1707
půjč	-10.1707
▁Myslím	-10.1708
▁roste	-10.171
▁programové	-10.171
▁vaší	-10.1716
▁vývoji	-10.1721
▁změně	-10.1733
▁liší	-10.1735
KA	-10.1736
▁přeprav	-10.1737
▁politika	-10.1738
▁4.	-10.1742
IS	-10.1744
▁výraz	-10.1746
▁aut	-10.1754
ive	-10.1757
▁Nová	-10.1761
▁republika	-10.1764
▁cesta	-10.1764
▁soutěži	-10.1765
▁uveden	-10.1766
▁vys	-10.1766
leté	-10.177
icky	-10.1781
▁Bi	-10.1783
▁An	-10.1786
▁režimu	-10.1788
vel	-10.1793
▁vrchol	-10.1796
▁úspor	-10.1796
▁Be	-10.1799
▁pracovník	-10.18
▁družstev	-10.1804
▁hotelu	-10.1808
▁druhy	-10.1809
▁čtvrt	-10.181
eb	-10.1814
▁jediné	-10.1818
▁tlačítko	-10.183
▁programů	-10.1844
tit	-10.1846
ton	-10.1846
vádí	-10.1851
▁úřadů	-10.1855
▁23	-10.186
nce	-10.1861
ěkteří	-10.187
▁1995	-10.1871
▁Někd	-10.1871
▁jednoduché	-10.1871
▁nabízejí	-10.1871
▁považován	-10.1871
▁špatné	-10.1871
▁zůstane	-10.1871
▁tajemník	-10.1872
▁budu	-10.1876
▁zimní	-10.1878
▁Základní	-10.188
▁smlouva	-10.1882
▁rekord	-10.1883
▁Stál	-10.1886
▁abych	-10.189
▁příslušné	-10.189
▁Tři	-10.1897
▁stál	-10.1899
/2	-10.19
CI	-10.19
▁déle	-10.1902
▁NA	-10.1905
jezd	-10.1906
▁doktor	-10.1909
▁hranici	-10.1914
vé	-10.1915
▁stroj	-10.1916
▁příprav	-10.1922
▁typů	-10.1931
ováním	-10.1932
▁pacientů	-10.1945
▁muže	-10.1948
ani	-10.1949
▁signál	-10.1952
▁veškeré	-10.1954
▁skutečné	-10.1962
▁normální	-10.1963
cházejí	-10.1965
▁stranu	-10.1967
▁zákazníků	-10.1969
20	-10.1973
▁bytu	-10.1985
▁zvolen	-10.1989
▁povrch	-10.1991
▁typy	-10.1994
áci	-10.1995
KO	-10.2006
RE	-10.2008
▁Hlavní	-10.2013
▁dopis	-10.202
držet	-10.2022
▁NE	-10.2022
▁reprezentant	-10.2022
▁patnáct	-10.2036
▁globální	-10.2037
▁úterý	-10.2037
▁Lidé	-10.2037
▁kapalin	-10.2037
▁včas	-10.2038
▁někdejší	-10.2038
▁šance	-10.2038
▁Letos	-10.2039
▁lednu	-10.2041
▁končí	-10.2042
▁jestliže	-10.2044
▁ruce	-10.2051
čku	-10.2059
▁existují	-10.2062
▁malá	-10.2064
▁dům	-10.2071
▁stejný	-10.2073
▁96	-10.2075
▁hledání	-10.2076
▁podnikatelské	-10.2077
▁oblastí	-10.2081
▁dělá	-10.2084
▁značné	-10.2088
nické	-10.209
▁profesionální	-10.2091
▁získala	-10.2093
▁někter	-10.2096
tud	-10.2096
▁Sb	-10.2097
▁neví	-10.2105
▁OS	-10.2105
▁kapitálu	-10.2106
▁svému	-10.2119
▁Ca	-10.2124
lep	-10.2127
▁spokojen	-10.2128
▁molekul	-10.2129
ika	-10.2131
▁problémem	-10.2135
dané	-10.2139
▁nedá	-10.2142
chází	-10.215
▁barev	-10.2151
▁26	-10.2152
▁žena	-10.2154
řez	-10.2157
▁dokázal	-10.216
ke	-10.2175
▁lékařské	-10.218
▁vznikla	-10.22
▁vnější	-10.2202
▁používat	-10.2207
▁trénink	-10.2207
▁Federální	-10.2207
▁verzi	-10.2207
▁mzdy	-10.2207
▁potíže	-10.2207
▁najednou	-10.2208
▁členství	-10.2208
▁vystoupení	-10.2208
▁tabulky	-10.2208
▁včerejší	-10.221
▁Zdá	-10.221
▁studie	-10.2212
▁nejdříve	-10.2212
▁shromáždění	-10.2212
▁zvlášť	-10.2215
▁fotbal	-10.2218
▁Di	-10.222
▁Chce	-10.222
▁třetím	-10.2225
▁vrátit	-10.2226
▁novým	-10.2228
▁odpověď	-10.2229
váží	-10.2237
▁rozdělení	-10.2237
ěji	-10.2246
ární	-10.2248
est	-10.2255
▁liber	-10.2256
▁investor	-10.2257
▁Bar	-10.2259
▁akcí	-10.2262
▁Františ	-10.2273
▁časem	-10.2275
AD	-10.2279
▁označení	-10.2282
▁vztahů	-10.2283
▁zprávu	-10.2286
pt	-10.2287
▁akcie	-10.2287
▁potravin	-10.2292
▁Fr	-10.2294
▁Izrael	-10.2304
▁centru	-10.2306
▁My	-10.2311
▁nemohl	-10.2313
▁Sv	-10.232
▁MB	-10.233
loží	-10.233
▁počítači	-10.2331
▁dávno	-10.2336
▁Fa	-10.234
kovou	-10.2342
▁pra	-10.2343
cení	-10.2344
▁nezbytn	-10.2348
▁silné	-10.2356
▁zvyk	-10.2359
▁pohybu	-10.2362
▁ruský	-10.2365
též	-10.2369
▁opak	-10.2374
▁riziko	-10.2377
▁katalog	-10.2379
▁paragraf	-10.2379
▁prospěch	-10.2379
▁Československa	-10.2379
▁rozhodne	-10.2379
▁hospodaření	-10.2379
▁Nicméně	-10.2379
▁zaměstnanci	-10.238
▁výrobci	-10.238
▁novin	-10.2383
▁soukromých	-10.2386
▁spočívá	-10.2389
▁odpadů	-10.2393
▁Kub	-10.24
pel	-10.2401
▁občan	-10.2405
▁odpovídající	-10.2406
▁záznamník	-10.2406
▁pozici	-10.2408
▁soudí	-10.2412
▁vybaven	-10.2424
▁12.	-10.2426
▁svobod	-10.2436
kají	-10.2444
jem	-10.2447
▁schopnost	-10.2451
▁použit	-10.2459
▁počítat	-10.2459
▁posledním	-10.246
▁britské	-10.2462
ávat	-10.2462
▁objem	-10.2465
▁podepsal	-10.2478
MU	-10.2482
▁týdne	-10.2482
▁Česko	-10.2483
byl	-10.249
▁pracoval	-10.2495
níků	-10.2497
▁rozvoje	-10.2498
▁podzim	-10.25
dělal	-10.2503
vést	-10.2504
AR	-10.2505
▁poměru	-10.2507
nc	-10.2507
tion	-10.2508
LI	-10.2509
OR	-10.2509
věřil	-10.2512
▁díla	-10.2514
pustit	-10.2515
▁pojistné	-10.2518
čně	-10.252
▁získali	-10.2543
▁hrozí	-10.2555
▁firmu	-10.2555
▁odvětví	-10.2555
▁mozku	-10.2555
▁Tomáš	-10.2555
▁Pohár	-10.2555
▁hledat	-10.2556
res	-10.2557
▁horší	-10.2557
▁sport	-10.2557
▁Dále	-10.2558
▁DNA	-10.2558
▁prvků	-10.2558
ovské	-10.2559
▁standard	-10.2562
▁mnozí	-10.2565
▁půdě	-10.2574
▁pás	-10.2578
číst	-10.258
▁letošním	-10.2593
▁uzavření	-10.2597
▁Američan	-10.2603
▁teploty	-10.2604
▁vědomí	-10.2605
klo	-10.2611
▁PO	-10.2613
▁graf	-10.2619
▁metody	-10.2621
ned	-10.2623
par	-10.2623
▁sever	-10.2631
▁uložen	-10.2632
▁změnil	-10.2635
▁poháru	-10.2638
▁rod	-10.2657
▁budoucnost	-10.2658
▁zemědělské	-10.2662
▁dovoz	-10.2663
▁ochranu	-10.2673
▁připravil	-10.2677
▁vět	-10.2681
▁Velk	-10.2683
▁planet	-10.2691
▁snah	-10.2701
▁účasti	-10.2706
dostala	-10.2712
▁čtenář	-10.2718
nictví	-10.272
▁pořadatel	-10.272
▁občanské	-10.2722
▁založen	-10.2726
▁Existuj	-10.2733
▁aplikací	-10.2733
▁natolik	-10.2733
▁upozornil	-10.2733
▁zdůraznil	-10.2733
▁Československo	-10.2733
▁rodiče	-10.2733
▁podpory	-10.2733
▁tudíž	-10.2733
▁bankovní	-10.2733
▁reprezentace	-10.2734
jedině	-10.2734
lib	-10.2737
▁výrobě	-10.2738
▁limit	-10.2739
vali	-10.2741
▁částečně	-10.2743
▁vytváření	-10.2744
▁pu	-10.2745
▁pohyb	-10.2751
▁výroba	-10.2752
▁oprávněn	-10.2754
▁Čí	-10.2755
▁vlastností	-10.2757
▁Poté	-10.2757
▁centrální	-10.2765
▁zpráva	-10.2771
▁zavedení	-10.2774
rou	-10.2776
▁významné	-10.2781
▁dílo	-10.2787
▁karty	-10.2791
▁str	-10.2793
▁protest	-10.2795
▁účastníků	-10.2796
▁jaká	-10.2798
▁záležitost	-10.2809
▁účel	-10.2812
▁syn	-10.2819
▁pohledu	-10.2822
▁režim	-10.2824
▁ploch	-10.2826
▁měnit	-10.283
▁dalšími	-10.2835
▁leží	-10.2836
wa	-10.2841
▁voda	-10.2842
▁posun	-10.2845
ger	-10.285
▁pozor	-10.2853
▁akt	-10.2858
▁útok	-10.2861
▁odbor	-10.2862
bere	-10.2863
▁společný	-10.2864
▁zmíněné	-10.2867
▁důvodu	-10.2867
▁umístěn	-10.2869
▁slovenské	-10.2869
▁Musí	-10.287
▁prů	-10.2874
▁hladin	-10.2886
▁Star	-10.2903
rem	-10.2908
▁neexistuje	-10.2915
▁paměti	-10.2915
▁připojištění	-10.2915
▁rozhodčí	-10.2915
▁pomalu	-10.2915
▁kvalifikaci	-10.2915
▁česká	-10.2918
▁odpoledne	-10.2918
žijí	-10.292
▁připomíná	-10.2921
▁kultur	-10.2921
▁oblastech	-10.2925
▁budov	-10.2927
▁nynější	-10.2928
▁svědčí	-10.293
▁metr	-10.2931
▁obrazu	-10.2935
pad	-10.294
▁materiálů	-10.2955
▁Slovenska	-10.2969
▁ztráty	-10.2972
▁vzájemné	-10.2976
▁příjem	-10.2977
▁potřeba	-10.2984
stávají	-10.2984
▁brněnské	-10.2989
▁dohodu	-10.2994
bývají	-10.2997
▁odboru	-10.3003
▁politický	-10.3007
▁Ústav	-10.3011
pětí	-10.3013
ených	-10.3014
▁par	-10.3017
▁letní	-10.3025
▁zahájení	-10.3029
▁loňském	-10.3029
▁set	-10.3031
▁poloviny	-10.3032
▁Du	-10.3037
▁zraněn	-10.3042
▁hor	-10.3046
▁rádi	-10.3046
lení	-10.3051
▁nejvíc	-10.3059
▁musím	-10.3065
držel	-10.3073
lat	-10.3079
šil	-10.3081
▁autorů	-10.3084
NÁ	-10.3084
zem	-10.3088
osud	-10.309
har	-10.3094
▁19.	-10.3094
▁Gorbačov	-10.3097
▁Itálie	-10.31
▁Ovšem	-10.31
▁Program	-10.31
▁stránce	-10.31
▁minimální	-10.31
▁rychlé	-10.31
▁praxe	-10.31
▁záchran	-10.31
▁desetiletí	-10.3101
▁regionální	-10.3101
▁desítek	-10.3102
▁vyjádření	-10.3103
▁nicméně	-10.3103
▁Ministr	-10.3106
▁zdejší	-10.3107
▁vybrat	-10.3108
dů	-10.3108
▁Ostravě	-10.311
▁přístroje	-10.3111
▁dodnes	-10.3114
▁neustále	-10.3114
▁domov	-10.3116
ložil	-10.312
onu	-10.3121
▁jakou	-10.3122
▁ročník	-10.3124
ll	-10.3132
mark	-10.3133
▁určitou	-10.3136
▁výhradn	-10.3138
▁obecně	-10.3145
▁soustavy	-10.3146
por	-10.3146
▁rozhovoru	-10.3148
▁sponzor	-10.3163
▁pochyb	-10.3165
utí	-10.3172
kyně	-10.3173
▁standardní	-10.3182
řad	-10.3195
▁představují	-10.3203
▁důkaz	-10.3214
▁váš	-10.3215
▁Pe	-10.3216
bral	-10.3219
▁vývozu	-10.3224
▁takovém	-10.3224
▁problému	-10.3225
▁Evropa	-10.3225
▁dané	-10.323
▁omezen	-10.3232
▁kandidát	-10.3233
▁reálné	-10.3236
▁závodu	-10.3238
jedno	-10.3238
▁osud	-10.3239
▁demokratick	-10.324
▁mně	-10.3241
ickým	-10.3252
ňuje	-10.3253
▁ústavní	-10.3269
padlo	-10.3282
▁export	-10.3283
procesor	-10.3283
▁KSČM	-10.3284
▁zúčastnil	-10.3289
▁Všichni	-10.3289
▁jednoduchý	-10.3289
▁náměstek	-10.3289
▁poptávky	-10.3289
▁profesor	-10.3289
▁špatně	-10.3289
▁Naopak	-10.3289
▁poslance	-10.3289
▁Snad	-10.3289
▁jediná	-10.3289
▁odborníci	-10.329
▁zaměstnance	-10.329
▁italské	-10.3291
▁těsně	-10.3291
▁okna	-10.3291
▁potřebují	-10.3292
ckého	-10.3292
▁nabídl	-10.3292
jíž	-10.3293
▁koncentrace	-10.3294
▁host	-10.33
▁přestup	-10.3301
pře	-10.3301
▁měření	-10.3302
▁totem	-10.3304
▁II	-10.3311
▁řádu	-10.3311
▁vychází	-10.3312
▁výnos	-10.3314
▁zápase	-10.3317
▁produktů	-10.3317
▁zas	-10.3319
▁záležitostí	-10.3324
▁stovky	-10.3329
▁technický	-10.3333
▁pán	-10.3334
▁vzduchu	-10.3337
▁automaticky	-10.3339
▁zrušení	-10.3344
▁přesvědčen	-10.3352
trž	-10.3356
▁rozsahu	-10.3356
▁nástroj	-10.3364
▁filmu	-10.3366
▁soupeře	-10.3374
▁neměli	-10.3386
▁pohár	-10.3391
▁denní	-10.3393
DO	-10.3394
▁obr	-10.3397
neme	-10.3397
lze	-10.3405
▁jednotliv	-10.3406
▁činností	-10.341
▁záměr	-10.3411
out	-10.3428
▁daní	-10.3429
▁aktiv	-10.3437
▁Každ	-10.3438
▁úspěchu	-10.3449
▁zákonem	-10.3463
kan	-10.3464
mile	-10.3466
▁hodnota	-10.3466
OS	-10.3469
▁sv	-10.3469
dnu	-10.347
kar	-10.3472
▁struktur	-10.3473
hlav	-10.3475
rovná	-10.3478
▁oslav	-10.3478
▁katastrof	-10.348
▁investovat	-10.3481
▁Ředitel	-10.3481
▁mladé	-10.3481
▁historie	-10.3481
▁turistů	-10.3481
▁věnoval	-10.3481
▁bydlení	-10.3481
▁pojetí	-10.3482
▁lidmi	-10.3485
▁krátce	-10.3486
bavit	-10.3487
▁pohybuje	-10.349
▁určit	-10.3493
▁dodávky	-10.3494
▁17.	-10.3495
▁pozice	-10.35
▁rezerv	-10.3501
▁proud	-10.3502
měl	-10.3509
▁dostává	-10.3511
▁voličů	-10.3511
▁šampionátu	-10.3514
▁domě	-10.3515
▁čisté	-10.3517
▁Soud	-10.3521
▁hospodářsk	-10.3531
▁omezení	-10.3538
něk	-10.3539
bil	-10.3539
▁domácím	-10.3541
▁Ano	-10.3543
jel	-10.3544
▁návrhy	-10.3549
▁tlak	-10.3556
▁stejn	-10.3562
▁provedení	-10.3565
san	-10.357
DE	-10.3571
▁různým	-10.3575
počítá	-10.3577
▁pouhý	-10.3585
▁aktivit	-10.3587
nesou	-10.3593
▁podpis	-10.3596
▁současný	-10.36
▁Evropsk	-10.3601
▁materiálu	-10.3601
▁28	-10.3602
▁obecní	-10.3602
▁student	-10.3609
▁střed	-10.3613
▁PRO	-10.3614
dvacet	-10.3615
▁rychlosti	-10.3615
▁jinými	-10.3626
▁hotov	-10.3626
▁nájemné	-10.3632
▁pop	-10.3636
▁zpráv	-10.3639
▁vln	-10.3647
▁nejdůležitější	-10.3648
▁Kon	-10.3649
▁zákazník	-10.3664
vát	-10.3667
▁čtení	-10.3675
▁Především	-10.3677
▁Richard	-10.3677
▁elektrárny	-10.3677
▁minimálně	-10.3677
▁měsíčně	-10.3677
▁snížit	-10.3677
▁umožní	-10.3677
▁úspěšné	-10.3677
▁Spojené	-10.3677
▁zvýšit	-10.3677
▁úsilí	-10.3677
▁snímky	-10.3678
tvo	-10.3678
▁míře	-10.3678
▁tvorbu	-10.3678
▁setkal	-10.3678
▁doslova	-10.3678
▁Češi	-10.3679
▁pravdu	-10.368
▁vyz	-10.3683
▁celek	-10.3684
▁metod	-10.3688
ins	-10.3689
pád	-10.3689
▁Han	-10.3692
▁zvýšil	-10.3693
▁myší	-10.3693
▁okolností	-10.3693
▁zobrazení	-10.3696
▁poškození	-10.3696
▁tříd	-10.3697
▁policistů	-10.3699
▁lev	-10.37
taj	-10.3702
▁sobotní	-10.3703
▁cestě	-10.3704
▁zlom	-10.3708
▁mistrů	-10.3717
čel	-10.3724
LE	-10.3727
▁žádná	-10.373
▁prost	-10.3739
▁pravé	-10.3744
▁domácích	-10.3747
▁žádném	-10.375
▁Nad	-10.375
▁nemoci	-10.3751
▁festivalu	-10.3753
▁třídy	-10.3755
▁Ši	-10.3757
60	-10.3759
▁nechat	-10.376
padl	-10.376
▁konstatoval	-10.3761
▁600	-10.3761
▁vzniká	-10.3763
▁součást	-10.377
▁tvář	-10.3771
▁centrum	-10.3779
▁vést	-10.3784
▁povrchu	-10.3785
oč	-10.3788
▁Vol	-10.3789
slovensk	-10.3793
▁hmot	-10.3796
▁chud	-10.3799
▁správně	-10.3801
▁dějin	-10.3801
▁zjistil	-10.3802
ologie	-10.3803
▁objev	-10.3804
▁klid	-10.3804
▁nastoupil	-10.3809
▁námi	-10.3809
▁PowerPointu	-10.381
▁lov	-10.3812
MA	-10.3812
ovanou	-10.3812
▁známo	-10.3814
dávat	-10.3816
▁udělal	-10.382
▁poklesu	-10.3823
▁odpadní	-10.3825
▁společenské	-10.3842
▁znát	-10.3849
▁map	-10.385
▁nemoc	-10.3851
▁dítě	-10.3854
▁polovina	-10.386
DA	-10.3863
▁nástup	-10.3863
směs	-10.3865
padne	-10.3865
▁jižní	-10.3869
▁oni	-10.3872
▁divadla	-10.3877
▁editor	-10.3877
▁existence	-10.3877
▁pojišťovny	-10.3877
▁rozhodování	-10.3877
▁ČNR	-10.3877
▁Samozřejmě	-10.3877
▁půjde	-10.3877
▁úspěšný	-10.3877
▁širší	-10.3877
▁výskyt	-10.3877
▁sdělení	-10.3877
▁nabídka	-10.3877
▁městské	-10.3878
▁konkurenční	-10.3879
▁video	-10.3879
▁úraz	-10.388
▁strach	-10.3881
▁skupinu	-10.3883
▁myšlení	-10.3888
▁nezávislých	-10.3892
▁Francouz	-10.3893
▁princip	-10.3896
▁představení	-10.3902
▁výdaje	-10.3905
▁Proti	-10.3912
▁cm	-10.3912
▁úvodní	-10.3913
▁podnikatelé	-10.392
pit	-10.3924
▁armáda	-10.3927
▁FS	-10.3927
kový	-10.3929
▁nebyli	-10.3929
oři	-10.393
▁míč	-10.393
▁půdy	-10.3931
dní	-10.3932
▁Her	-10.3932
▁kal	-10.3935
▁proveden	-10.3948
▁úpravy	-10.395
▁Or	-10.395
sed	-10.3953
▁zákazníky	-10.3954
▁hodinu	-10.3956
bývá	-10.3956
cc	-10.3958
▁Gr	-10.3965
ab	-10.3973
▁vidí	-10.3974
▁vysokých	-10.3974
stran	-10.3976
klep	-10.3979
▁jedná	-10.398
▁29	-10.3986
▁smrt	-10.3995
izace	-10.3996
▁generál	-10.3997
▁hlasování	-10.3999
▁Bur	-10.4008
▁Tam	-10.4009
▁prodejní	-10.4015
inak	-10.4016
▁odst	-10.4019
lid	-10.4025
▁chemické	-10.4025
RU	-10.4025
hodný	-10.4035
▁celní	-10.4037
▁Slovensko	-10.405
nského	-10.4054
▁výš	-10.4054
▁maximáln	-10.4062
▁Nebo	-10.4068
▁pořad	-10.407
▁Němci	-10.4081
▁církve	-10.4081
▁týdny	-10.4081
▁odmítá	-10.4081
▁nízké	-10.4081
▁kolegy	-10.4081
▁usnesení	-10.4081
▁zapotřebí	-10.4082
▁přišla	-10.4082
▁1988	-10.4082
▁privatizační	-10.4082
čili	-10.4082
▁Teď	-10.4082
▁létě	-10.4083
kryt	-10.4087
▁StB	-10.4088
▁úprav	-10.4088
trh	-10.4089
▁mé	-10.4089
▁vůle	-10.4099
▁výstav	-10.4101
▁postaven	-10.4108
▁žijící	-10.4112
IT	-10.4113
ouze	-10.4115
▁daňový	-10.4116
▁důsledky	-10.4117
▁děje	-10.4117
▁příslušný	-10.4123
▁obec	-10.4124
▁porušení	-10.4124
▁mladých	-10.4125
▁Inter	-10.4126
▁zájmy	-10.4129
▁rozporu	-10.413
▁nucen	-10.4135
▁automobilů	-10.4136
pul	-10.4136
▁hře	-10.4137
▁představitelů	-10.414
▁uměl	-10.414
▁Kde	-10.4141
vir	-10.4141
▁mluví	-10.4142
▁posl	-10.4146
▁mistr	-10.4147
▁Rusk	-10.4147
▁Internetu	-10.4149
▁německých	-10.415
▁německého	-10.4155
▁svá	-10.4156
▁anti	-10.4158
▁původu	-10.4158
▁lidského	-10.4159
▁myslí	-10.4163
▁obce	-10.4164
▁správné	-10.4167
▁bezpečnost	-10.4169
níku	-10.4169
sídl	-10.4182
▁velikosti	-10.4186
stál	-10.4192
▁postih	-10.4193
ES	-10.4194
▁částka	-10.4204
▁představy	-10.421
nové	-10.421
dol	-10.4215
80	-10.4219
▁Sovětské	-10.4223
▁přímé	-10.4225
volat	-10.4226
▁barevné	-10.4228
čné	-10.4238
▁rozhodla	-10.4241
▁Man	-10.4243
kupní	-10.4248
▁dospěl	-10.4249
▁kol	-10.4255
▁uvedený	-10.4259
▁ochot	-10.4261
▁Ri	-10.4265
padají	-10.4265
art	-10.427
▁hran	-10.4274
▁Ber	-10.4275
áme	-10.4275
▁Sam	-10.4277
ovaným	-10.4282
▁Moskvě	-10.429
▁firmou	-10.429
▁populace	-10.429
▁technologií	-10.429
▁vynikající	-10.429
▁třináct	-10.429
▁Třetí	-10.429
▁štěstí	-10.429
▁Francii	-10.429
▁Předseda	-10.429
▁ihned	-10.429
▁mužstva	-10.429
▁Bush	-10.429
▁reprezentační	-10.429
▁funkční	-10.429
▁tábor	-10.429
vzdor	-10.4291
▁spisovatel	-10.4291
▁spotřební	-10.4291
ČSL	-10.4291
▁Pomuku	-10.4291
▁mluvit	-10.4292
▁šok	-10.4295
▁Místo	-10.4295
▁Milan	-10.4296
▁zvyšuje	-10.4296
▁obětí	-10.4296
▁vytvořen	-10.4298
▁podklad	-10.4299
▁dovolené	-10.4301
▁Více	-10.4304
▁úmrtnosti	-10.4305
eny	-10.4307
▁dohod	-10.4308
▁přichází	-10.4309
▁nemocnici	-10.4309
hodil	-10.4309
▁cit	-10.431
▁těla	-10.431
▁Avšak	-10.4311
▁rozvod	-10.4317
▁zastoupení	-10.4319
tvrdil	-10.4325
níky	-10.4325
ór	-10.4326
▁18.	-10.4339
aly	-10.4341
▁obavy	-10.4341
▁Druhý	-10.4344
▁partner	-10.4345
▁prodává	-10.4346
▁lesní	-10.4346
▁Jižní	-10.4355
▁všeho	-10.4356
▁neznám	-10.4357
hlásí	-10.4359
▁dětské	-10.4361
▁20.	-10.4361
ony	-10.4364
ance	-10.4367
▁účastní	-10.4371
▁vědecký	-10.4378
▁řeči	-10.4379
▁krátké	-10.4379
žení	-10.4382
▁molekuly	-10.4382
inter	-10.439
▁škola	-10.439
▁příležitost	-10.4393
áno	-10.4401
▁byty	-10.4403
▁ročníku	-10.4404
▁váh	-10.4406
▁Západ	-10.4407
▁studiu	-10.4415
ávání	-10.4415
sty	-10.4416
▁turnaj	-10.4427
▁kroky	-10.4431
▁detail	-10.4433
▁vlastním	-10.4435
▁určitý	-10.4436
▁běžný	-10.4446
▁polo	-10.445
vala	-10.4452
▁The	-10.4454
▁příštích	-10.4455
▁učitel	-10.4455
▁pražsk	-10.4456
▁snaha	-10.4467
lů	-10.4468
▁projev	-10.4468
mého	-10.4468
▁postupu	-10.4472
kin	-10.4474
ble	-10.4478
▁kód	-10.4481
▁pražském	-10.4484
▁realit	-10.4488
▁charakter	-10.45
▁konkurenci	-10.4502
▁nakladatelství	-10.4502
▁negativní	-10.4502
▁sledovat	-10.4502
▁tehdejší	-10.4502
▁transformace	-10.4502
▁zlepšení	-10.4502
▁úmrtí	-10.4502
▁budoucnu	-10.4502
▁příjmu	-10.4502
▁civilní	-10.4502
▁zabránit	-10.4502
▁Vláda	-10.4502
▁souvisí	-10.4503
▁Slavie	-10.4503
▁jedinou	-10.4503
▁Wales	-10.4503
▁střet	-10.4504
▁operace	-10.4504
▁Kanad	-10.4504
▁výsledkem	-10.4504
▁PCB	-10.4504
▁financování	-10.4506
▁rozhodnout	-10.4509
tají	-10.451
▁Vedle	-10.4511
metr	-10.4512
▁formou	-10.4516
▁vyzval	-10.4518
pek	-10.452
▁jezdí	-10.452
▁osmdesát	-10.4523
▁výhodné	-10.4527
▁americký	-10.4527
▁dar	-10.4527
▁zaplatit	-10.4528
▁UK	-10.4533
▁hod	-10.4534
▁školní	-10.4535
▁celkový	-10.4536
50	-10.4538
▁zbytečné	-10.4538
▁postižen	-10.4542
▁přijal	-10.4544
bili	-10.455
▁prodat	-10.4554
▁povinností	-10.4556
▁největším	-10.4556
▁starých	-10.4556
zoval	-10.4562
▁vyspělý	-10.4573
▁partnery	-10.4577
▁příležitosti	-10.4579
▁německý	-10.4581
▁dojde	-10.4583
15	-10.4591
▁produktu	-10.4593
fu	-10.4593
▁účely	-10.4594
▁noviny	-10.4594
▁pokut	-10.4601
▁řídí	-10.4603
▁Obě	-10.4605
píše	-10.4605
ško	-10.4607
▁knih	-10.4613
▁napětí	-10.4615
▁nákladní	-10.4636
▁zůstal	-10.4638
▁jednot	-10.4639
▁pracovníky	-10.4642
▁dostih	-10.4643
▁3000	-10.4644
dit	-10.4646
▁velkým	-10.4648
▁vydal	-10.4653
RO	-10.4654
▁neměla	-10.4659
set	-10.466
▁novém	-10.4661
▁zápasy	-10.4661
ejména	-10.4668
▁hormon	-10.4669
AL	-10.4675
čtí	-10.4678
▁pachatel	-10.4681
▁tamní	-10.4684
▁zápasu	-10.4698
ren	-10.4705
▁nese	-10.4706
▁formát	-10.4707
sloužil	-10.4709
bel	-10.4712
hrát	-10.4715
▁turnaje	-10.4718
▁někde	-10.4719
▁Ostatně	-10.472
▁Sdružení	-10.472
▁Plzeň	-10.472
▁rekreační	-10.472
▁krize	-10.472
▁červnu	-10.472
▁navrhl	-10.472
▁výrok	-10.4721
▁sítí	-10.4721
▁super	-10.4722
▁místnosti	-10.4723
▁přiznání	-10.4723
▁Ačkoli	-10.4724
▁čin	-10.4726
▁dostali	-10.4726
▁požár	-10.4726
▁Fo	-10.4727
▁obrázek	-10.4728
▁jednotky	-10.4729
▁porovnání	-10.4729
▁věří	-10.4729
▁33	-10.4733
▁historický	-10.4734
▁přináší	-10.4734
▁placení	-10.4735
kům	-10.4738
▁udržet	-10.4741
▁začátkem	-10.4743
šp	-10.4744
▁jízd	-10.4749
▁lesy	-10.4751
▁vlád	-10.4755
▁prodávat	-10.4755
▁účetní	-10.4756
▁uzavřel	-10.4756
▁znalosti	-10.4757
▁výhod	-10.4758
▁Washingtonu	-10.4761
▁32	-10.4761
▁strojů	-10.4766
▁hodnotě	-10.4769
▁Moravy	-10.4771
▁jasně	-10.4774
▁kapitál	-10.4778
40	-10.4779
▁pravidla	-10.4785
▁všemi	-10.4794
▁klíč	-10.4796
přes	-10.48
▁trenéra	-10.4802
▁nemáme	-10.4803
▁autobus	-10.4808
▁zahrad	-10.484
▁Ruska	-10.4845
▁čísle	-10.4852
▁partnerů	-10.4856
▁pražského	-10.4861
▁perspektiv	-10.4863
stavit	-10.4865
▁Firm	-10.4874
▁něž	-10.4876
▁témat	-10.4876
nému	-10.4878
▁porazil	-10.4884
▁vedením	-10.4885
▁vědom	-10.4885
▁záleží	-10.4888
▁klient	-10.489
▁modelů	-10.4892
▁schválen	-10.4892
▁metoda	-10.4903
▁koruny	-10.4912
praví	-10.4917
▁místy	-10.4918
▁PC	-10.492
▁roze	-10.4921
▁1,	-10.4925
▁kontrolu	-10.4926
▁případu	-10.493
tak	-10.4934
▁Kor	-10.4942
▁Bratislavě	-10.4942
▁Návrh	-10.4942
▁kompromis	-10.4942
▁otázce	-10.4942
▁týdnů	-10.4942
▁uskuteční	-10.4942
▁Nakonec	-10.4942
▁nabídnout	-10.4942
▁péči	-10.4942
▁podpora	-10.4942
▁žalob	-10.4942
▁dovolit	-10.4942
▁server	-10.4943
▁kategorie	-10.4943
▁případné	-10.4943
▁nepodařilo	-10.4944
▁okno	-10.4944
▁nedostatek	-10.4944
▁býval	-10.4944
▁cest	-10.4946
▁120	-10.4946
povídá	-10.4948
▁připravit	-10.4949
▁Brno	-10.495
▁prvky	-10.4953
▁tajné	-10.4955
▁slovy	-10.4956
▁stará	-10.4957
▁příbuzn	-10.4958
▁návštěvě	-10.4959
▁Podnik	-10.496
vají	-10.4962
▁zjistit	-10.4964
▁jaterní	-10.4965
▁buňky	-10.4973
▁přiznal	-10.4974
▁domácnosti	-10.4974
▁hledá	-10.4974
▁malou	-10.4975
boj	-10.4976
▁provést	-10.4982
▁hlad	-10.499
▁nezaměstnanosti	-10.4991
▁získání	-10.4992
▁stanici	-10.4993
▁osobně	-10.4994
pálen	-10.4995
psané	-10.4996
ičky	-10.4997
TO	-10.5
▁vojenský	-10.5006
bře	-10.5009
▁symbol	-10.5009
zemní	-10.5011
hav	-10.5015
íček	-10.5015
▁Evropský	-10.5017
ista	-10.502
▁spotřebitel	-10.5025
kázal	-10.5035
▁0	-10.5038
▁druhým	-10.5044
musela	-10.5045
denní	-10.5046
▁operační	-10.5048
▁partnera	-10.5055
ier	-10.5059
▁událost	-10.506
▁režisér	-10.506
▁postav	-10.5068
▁složen	-10.5071
▁Par	-10.5086
pustil	-10.5093
▁prohrál	-10.5093
▁hrají	-10.5093
▁hrad	-10.5099
kář	-10.5099
▁roh	-10.51
▁Rus	-10.5101
vítá	-10.5106
▁filmů	-10.5113
▁odpověděl	-10.5113
▁případy	-10.5116
▁dřív	-10.5118
▁devíti	-10.5119
▁spojené	-10.5126
▁16.	-10.5127
▁umožnil	-10.5128
▁umí	-10.5129
ány	-10.5132
▁začalo	-10.5133
muž	-10.5141
▁prodal	-10.5144
KU	-10.5145
ale	-10.5147
vádějí	-10.5153
▁západních	-10.5154
▁děj	-10.5161
▁oficiálně	-10.5163
rozměr	-10.5165
▁změní	-10.5166
▁úspěšně	-10.5168
▁existenci	-10.5169
▁funguje	-10.5169
▁otázek	-10.5169
▁pojišťovna	-10.5169
▁rozhodovat	-10.5169
▁Slunce	-10.5169
▁advokát	-10.5169
▁ostatně	-10.5169
▁lokalit	-10.5169
▁situací	-10.5169
▁Znamen	-10.5169
▁letadla	-10.5169
▁stáří	-10.517
▁dlouhodobé	-10.517
▁žádá	-10.517
▁molekulární	-10.517
▁operaci	-10.5171
▁pochod	-10.5171
▁aktuální	-10.5171
▁přání	-10.5172
▁zůstávají	-10.5172
▁vyšetřování	-10.5172
▁vytvoří	-10.5172
▁SRN	-10.5172
TE	-10.5173
▁km	-10.5174
▁protein	-10.5174
▁vystudoval	-10.5176
▁státním	-10.5177
▁fakultě	-10.518
▁formě	-10.5181
▁sezóně	-10.5185
▁vypadá	-10.5186
▁Brna	-10.5187
▁vyberte	-10.5196
▁fakulty	-10.5196
▁přicházejí	-10.5197
▁potřeboval	-10.5197
▁vstupu	-10.5197
éměř	-10.5197
und	-10.5197
▁stejném	-10.5198
▁0,	-10.5198
▁návštěvníků	-10.52
ju	-10.5201
▁americk	-10.5204
dělit	-10.5206
▁dobrou	-10.5207
dařilo	-10.5209
▁komory	-10.5214
▁východ	-10.5214
▁zjištění	-10.5215
▁členem	-10.522
▁otevření	-10.5226
▁nájemného	-10.5234
▁víkendu	-10.5237
▁cíle	-10.5237
▁požádal	-10.524
bin	-10.5241
▁významný	-10.5242
han	-10.5244
▁církev	-10.5246
▁užit	-10.5247
▁ekonom	-10.525
▁soupeř	-10.5251
▁ministrů	-10.5252
▁Per	-10.5255
▁struktury	-10.5256
12	-10.5256
▁čeho	-10.5258
ujte	-10.526
▁postižené	-10.5262
▁obyvatelé	-10.5264
šl	-10.5267
▁modelu	-10.5269
▁tvar	-10.5274
▁útvar	-10.5276
▁nástroje	-10.528
jen	-10.5287
▁docela	-10.5289
▁jedenáct	-10.529
▁produkt	-10.529
iletý	-10.5292
▁snížil	-10.5293
▁začaly	-10.5297
ine	-10.5298
pír	-10.53
cem	-10.5302
▁pobytu	-10.5302
▁195	-10.5303
▁Egypt	-10.5304
▁rozdíly	-10.5306
▁průměrn	-10.5308
▁označen	-10.5314
▁brankář	-10.5317
▁církevní	-10.5324
▁odpovědnost	-10.5327
yl	-10.5329
▁Německ	-10.5332
▁pivovar	-10.5332
▁Ci	-10.5339
▁prodeji	-10.5342
mot	-10.5343
,5	-10.5347
▁volně	-10.5349
▁klubů	-10.5352
▁křiv	-10.5362
▁dohoda	-10.5362
▁takovým	-10.5363
▁přístroj	-10.5364
▁nehod	-10.5365
▁klade	-10.5368
Ř	-10.5373
pana	-10.5375
▁zjištěn	-10.5378
▁obsahu	-10.5392
▁věděl	-10.5396
▁kart	-10.5399
▁vklad	-10.5399
▁Anglie	-10.5402
▁Nejvyšší	-10.5402
▁institucí	-10.5402
▁laboratoř	-10.5402
▁mladší	-10.5402
▁nejčastěji	-10.5402
▁příspěvek	-10.5402
▁software	-10.5402
▁přispěl	-10.5402
▁nestačí	-10.5402
▁rodičů	-10.5402
▁organizační	-10.5402
▁pochopitelně	-10.5402
▁přinejmenším	-10.5402
▁vlastnictví	-10.5402
▁Polici	-10.5402
▁souboj	-10.5402
▁Ital	-10.5402
▁přijít	-10.5402
▁dráhy	-10.5403
▁výplat	-10.5403
▁podobu	-10.5403
▁tvorby	-10.5403
▁zabezpečení	-10.5403
▁vědců	-10.5404
▁Stačí	-10.5404
▁poruch	-10.5404
▁vrátí	-10.5405
▁pla	-10.5406
▁poznatky	-10.5407
▁přijmout	-10.5413
ON	-10.5414
▁vozů	-10.5415
▁policisté	-10.5415
▁Bosně	-10.5416
▁Králové	-10.5416
▁nemusel	-10.5417
▁uznání	-10.5418
▁levnější	-10.5422
▁předpisů	-10.5423
klád	-10.5425
▁hodinách	-10.5431
náší	-10.5431
▁smut	-10.5433
▁předsedou	-10.5433
▁No	-10.5435
▁kapacit	-10.5436
▁kancelář	-10.5437
▁uvažuje	-10.5439
▁George	-10.5444
▁vojensk	-10.5445
▁vytváří	-10.5446
▁obrazovky	-10.5447
▁prostory	-10.5447
▁zato	-10.545
▁nejlepším	-10.5451
▁fyziky	-10.5452
▁komplexní	-10.5454
▁Olomouci	-10.5457
▁ideální	-10.5457
▁ekonomických	-10.5458
▁léky	-10.5468
▁starosti	-10.5468
▁servis	-10.5469
▁českou	-10.547
▁forma	-10.5486
▁dodat	-10.5495
▁plochy	-10.5497
▁ztrát	-10.5498
izovat	-10.5499
▁pacienta	-10.55
▁prac	-10.5507
▁podal	-10.5509
▁vydává	-10.551
▁oper	-10.5512
▁nápad	-10.552
▁zápasů	-10.5525
▁zkušenost	-10.5526
▁obran	-10.5526
▁45	-10.5526
▁zásob	-10.5526
▁rodinné	-10.5528
▁zaměstnavatel	-10.5532
▁(1	-10.5538
▁dvoj	-10.5541
ros	-10.5548
▁festival	-10.5549
▁sekund	-10.5549
ODS	-10.5553
áš	-10.5553
rot	-10.5558
▁jiném	-10.5558
▁zemské	-10.5561
▁bot	-10.5563
nedávn	-10.5564
věřit	-10.5566
dostanou	-10.5567
age	-10.5574
▁auta	-10.5575
dem	-10.5579
▁dluh	-10.558
▁čtvrté	-10.5581
▁ministrem	-10.5583
▁Mal	-10.5583
▁náhradní	-10.5586
šky	-10.559
ráže	-10.5599
LO	-10.56
nějších	-10.5601
áků	-10.5603
og	-10.5605
▁On	-10.5612
▁test	-10.562
▁cenný	-10.5621
razit	-10.5623
kových	-10.5629
▁chodí	-10.5635
kombin	-10.5639
▁Anglii	-10.564
▁Microsoft	-10.564
▁NHL	-10.564
▁jménem	-10.564
▁medaile	-10.564
▁mužstvo	-10.564
▁navzájem	-10.564
▁odpovědi	-10.564
▁uzavřít	-10.564
▁veřejně	-10.564
▁využívat	-10.564
▁článek	-10.564
▁Major	-10.564
▁asociace	-10.564
▁duchovní	-10.564
▁chvíle	-10.564
▁dětem	-10.564
▁Jaromír	-10.564
▁ČEZ	-10.564
▁požadavek	-10.564
▁zástupců	-10.564
▁Chtěl	-10.5641
▁okolní	-10.5641
▁hrob	-10.5643
dor	-10.5645
▁zabývat	-10.5646
▁oči	-10.5648
▁ano	-10.5649
▁třikrát	-10.5649
▁výpočetní	-10.5649
▁disket	-10.565
▁venkov	-10.5651
MO	-10.5653
af	-10.5653
▁Paul	-10.5657
izaci	-10.5658
▁CO	-10.5666
▁přední	-10.5667
▁ulice	-10.5671
ZE	-10.5674
▁českém	-10.5677
▁stanoví	-10.5678
staví	-10.5679
▁výstavby	-10.5682
▁pokusil	-10.5682
▁týkající	-10.5683
11	-10.5685
▁Dvě	-10.5686
▁milion	-10.5689
▁Lib	-10.569
ama	-10.569
▁250	-10.5698
▁osobnosti	-10.57
▁původ	-10.5702
▁umístění	-10.5702
▁praktické	-10.5705
▁sloup	-10.5707
kládat	-10.5707
dis	-10.5709
▁Takové	-10.571
▁používání	-10.5712
▁Nez	-10.5713
▁obviněn	-10.5716
▁francouzské	-10.5719
▁Ad	-10.5721
▁významu	-10.5723
▁Profitu	-10.5723
▁stává	-10.5724
▁kruh	-10.5727
▁stanovení	-10.5729
▁nezávisl	-10.5731
ona	-10.5732
běhu	-10.5735
▁fondů	-10.5738
▁Jedin	-10.5739
▁sousední	-10.5741
▁obsahující	-10.5744
při	-10.5749
hel	-10.5749
▁pravidel	-10.575
pir	-10.5756
▁čekají	-10.5756
▁náklad	-10.5757
▁samostatné	-10.5758
▁směr	-10.576
▁mistra	-10.5765
▁trhy	-10.5768
▁nerv	-10.5772
▁žádost	-10.5774
▁minulém	-10.5776
ruší	-10.5789
▁průzkum	-10.5792
▁obchodním	-10.5798
▁variant	-10.5798
pust	-10.5799
▁obratu	-10.5802
▁ztratil	-10.5802
▁obecné	-10.5806
▁řidič	-10.5807
▁proměn	-10.5808
▁ekologické	-10.5817
průměr	-10.582
▁Dom	-10.5823
▁prezidentem	-10.5823
▁skončila	-10.583
graf	-10.5837
▁uzavře	-10.584
▁rozdělen	-10.5841
▁dvanácti	-10.5844
vest	-10.5845
ickém	-10.5849
▁organismu	-10.5851
hlédnout	-10.5851
▁počítačové	-10.5854
áček	-10.5857
▁vyhrála	-10.5859
▁nechtěl	-10.5861
▁mnohd	-10.5861
▁Stát	-10.5861
▁ačkoli	-10.5862
86	-10.5874
▁značný	-10.5875
▁vědě	-10.5879
▁Mlad	-10.5884
▁dlouhý	-10.5884
▁ministři	-10.5884
▁považuji	-10.5884
▁souladu	-10.5884
▁vysoká	-10.5884
▁organizaci	-10.5884
▁obrátil	-10.5884
▁Michal	-10.5884
▁vlajk	-10.5884
▁chtít	-10.5884
▁generace	-10.5884
▁nejspíš	-10.5885
▁studia	-10.5885
▁územní	-10.5885
▁omyl	-10.5886
nová	-10.589
▁vyplatí	-10.589
▁neznamená	-10.5892
▁Ří	-10.5897
▁ukazují	-10.5897
▁Polska	-10.5898
▁lesů	-10.59
▁související	-10.5902
▁vystoupil	-10.5902
skočil	-10.5905
▁široké	-10.5905
▁platnost	-10.5912
▁styk	-10.5914
▁noční	-10.5914
▁prst	-10.5915
▁nástrojů	-10.5916
▁pohybují	-10.5917
▁odborných	-10.5917
ůj	-10.5917
▁silně	-10.5923
▁kdysi	-10.5924
▁Karlovy	-10.5925
▁zajištění	-10.5927
▁občané	-10.5928
▁možných	-10.5933
▁způsobu	-10.5936
▁ukázal	-10.5936
Sc	-10.5939
ug	-10.5943
▁časopisu	-10.5946
stické	-10.5948
▁nedávné	-10.5949
čan	-10.595
▁panelu	-10.5951
▁nemělo	-10.5951
▁rad	-10.5954
▁Ex	-10.5955
▁skončilo	-10.5957
▁Obchodní	-10.5958
▁poz	-10.5968
▁Zlín	-10.5977
▁sekundu	-10.5979
▁Americk	-10.598
▁Bor	-10.598
volání	-10.5983
▁společensk	-10.5986
▁Slovenské	-10.5986
▁průmyslový	-10.5989
rp	-10.5991
▁předložil	-10.5993
▁ústavy	-10.5996
▁Poslaneck	-10.5997
něte	-10.5998
▁schopnosti	-10.5998
▁plný	-10.5999
oje	-10.6003
čních	-10.6008
▁opravy	-10.6009
zb	-10.6012
▁zákazníka	-10.6018
stává	-10.6019
▁ochrany	-10.6019
▁mimořádné	-10.6019
▁Sta	-10.6019
▁dám	-10.6021
▁dostalo	-10.6021
▁třiceti	-10.6028
▁univerzit	-10.6029
▁vystaven	-10.6037
▁RN	-10.6038
▁přenosu	-10.6042
▁ostr	-10.6045
▁důsled	-10.6053
▁Čern	-10.6062
▁přechodu	-10.6065
▁politického	-10.6072
OH	-10.6076
▁titulu	-10.6077
▁kvalita	-10.6079
áním	-10.6082
▁10.	-10.6084
▁dobou	-10.6089
▁třídě	-10.6094
lék	-10.6096
▁pojištěn	-10.6101
▁projekty	-10.6103
▁míní	-10.6103
▁pracují	-10.6113
nova	-10.6119
▁nechá	-10.6122
hnal	-10.6125
▁Novák	-10.6125
volal	-10.6126
71	-10.6134
▁atmosféře	-10.6134
▁delegace	-10.6134
▁inflace	-10.6134
▁službu	-10.6134
▁francouzský	-10.6134
▁nejnovější	-10.6134
▁považují	-10.6134
▁přírodě	-10.6134
▁vysokoškol	-10.6134
▁všude	-10.6134
▁mandát	-10.6134
▁Viktor	-10.6134
▁penzijní	-10.6134
▁zábav	-10.6134
▁Popper	-10.6134
▁vyšetřovatel	-10.6134
▁poptávka	-10.6134
▁politická	-10.6134
▁čísel	-10.6134
▁citliv	-10.6134
▁devadesát	-10.6134
▁podaří	-10.6135
▁květnu	-10.6135
▁stanovisko	-10.6135
▁výstup	-10.6135
▁vysvětlit	-10.6136
▁brát	-10.6137
▁vrací	-10.6137
AM	-10.6138
▁mínění	-10.6138
▁vysvětlení	-10.6138
▁řeší	-10.6139
▁regionu	-10.6139
tav	-10.6139
▁dokonale	-10.6139
▁stupně	-10.614
▁čemu	-10.614
lis	-10.6141
▁zlato	-10.6141
▁Nejvíce	-10.6144
▁SE	-10.6145
koupit	-10.6145
▁park	-10.6145
▁dřívější	-10.6146
▁Kolik	-10.6149
ete	-10.6149
AV	-10.6149
▁prosadit	-10.615
▁vysvětlil	-10.6151
▁Chceme	-10.6152
▁představit	-10.6153
▁podílel	-10.6154
▁hodnotí	-10.6156
▁dosahuje	-10.6156
▁nedostal	-10.616
▁znaků	-10.6161
▁dopad	-10.6163
▁myši	-10.6165
▁léků	-10.6167
▁slovenských	-10.6169
▁zkušeností	-10.617
▁ukázalo	-10.6175
▁obvod	-10.6177
▁přípravě	-10.6179
ovněž	-10.618
jedou	-10.6181
▁zbytek	-10.6184
ička	-10.6187
▁dojem	-10.6196
▁trvale	-10.6196
▁Mi	-10.6202
ša	-10.6203
▁nesouhlasí	-10.6203
▁orgánů	-10.6207
72	-10.6214
▁odchodu	-10.6214
▁Čs	-10.6217
▁kanceláří	-10.6221
▁role	-10.6223
▁závodě	-10.6227
▁skladb	-10.6229
▁místem	-10.6231
entní	-10.6233
platit	-10.6237
▁dají	-10.624
▁formul	-10.6241
ňování	-10.6243
nést	-10.6245
▁mechanik	-10.6245
ejme	-10.6251
▁jimi	-10.6251
▁bytové	-10.6253
▁800	-10.6254
▁oceán	-10.6258
▁mimořádný	-10.626
počet	-10.626
▁Představ	-10.6261
▁vlastnost	-10.6261
▁materiály	-10.6262
▁domnívá	-10.6263
▁vodou	-10.6269
▁pacient	-10.6272
NA	-10.6277
ence	-10.6278
▁rizik	-10.6279
▁noc	-10.6285
▁Fran	-10.6286
pravděpodobností	-10.6289
▁výstava	-10.6297
NI	-10.6299
▁výklad	-10.6299
▁rozsah	-10.6299
▁úmysl	-10.6302
lka	-10.6302
▁nep	-10.6303
▁obor	-10.6308
▁pevné	-10.6309
▁větším	-10.631
lob	-10.6312
řek	-10.6315
▁cenou	-10.6315
▁herec	-10.6317
▁kniha	-10.632
▁Ostrava	-10.6322
▁podstat	-10.6322
ána	-10.6324
▁viděl	-10.6325
orku	-10.6326
▁představu	-10.6328
▁deník	-10.6343
▁pozná	-10.6344
▁nalezen	-10.6346
▁grafické	-10.6352
▁názorů	-10.6364
▁čtenáře	-10.6364
▁zbraně	-10.6369
▁uživatel	-10.6378
sáhl	-10.638
▁vážně	-10.6389
hlížet	-10.639
▁Výsledk	-10.639
▁Zajímav	-10.639
▁atraktivní	-10.639
▁blízké	-10.639
▁dlouhá	-10.639
▁milióny	-10.639
▁montáž	-10.639
▁rozhraní	-10.639
▁telekomunikační	-10.639
▁tiskárny	-10.639
▁chráněn	-10.639
▁externí	-10.639
▁koncepce	-10.639
▁vysoce	-10.639
▁nabídce	-10.639
▁používají	-10.639
▁závisí	-10.639
▁naděje	-10.639
▁učinil	-10.6391
▁muzea	-10.6391
▁osobních	-10.6391
▁rozšířit	-10.6392
▁žebříčku	-10.6392
▁unii	-10.6393
▁vysvětluje	-10.6393
▁předpokládat	-10.6394
▁Chyb	-10.6395
▁naději	-10.6396
▁sam	-10.6399
▁složky	-10.6401
▁55	-10.6403
▁vzal	-10.6404
▁Stran	-10.6407
▁můj	-10.6407
▁umožňující	-10.6407
▁uvést	-10.6413
▁San	-10.6414
▁barvy	-10.6415
▁čtyřech	-10.6417
▁Nikdo	-10.6418
ola	-10.6418
▁zaměstnavatele	-10.6423
▁dvojice	-10.6424
tovat	-10.6424
▁Autor	-10.6427
psat	-10.6428
▁Sparty	-10.6433
▁totéž	-10.6433
▁fotbalistů	-10.6433
projevuje	-10.6433
▁správ	-10.6448
▁nemůžeme	-10.6448
▁návštěvu	-10.645
▁šat	-10.6451
▁akciové	-10.6455
▁nebezpečné	-10.6456
▁přírodověd	-10.6459
▁agentura	-10.6463
▁stop	-10.6463
▁jakékoli	-10.6465
▁způsoby	-10.6466
▁neroz	-10.6468
▁fan	-10.6468
▁čtyřmi	-10.6473
▁podání	-10.6478
▁podstatné	-10.6484
▁budovy	-10.6496
▁studium	-10.6499
▁per	-10.6499
ovského	-10.6501
▁návrat	-10.6501
ill	-10.6507
▁Fin	-10.6507
▁vědci	-10.6508
▁SP	-10.6511
rd	-10.6517
odpovědn	-10.6518
išť	-10.6521
▁nebe	-10.6529
TI	-10.6532
▁nachází	-10.6538
prázdn	-10.6542
▁finančn	-10.6548
▁potřebný	-10.6551
běhl	-10.6552
▁světového	-10.6559
▁stranou	-10.656
▁nároky	-10.6564
▁Profit	-10.6565
áhy	-10.6569
▁Obecn	-10.6573
rob	-10.6573
▁podnikové	-10.6577
istů	-10.6577
▁mini	-10.6577
▁chorob	-10.6578
race	-10.6578
tát	-10.6579
kož	-10.658
▁mysli	-10.658
▁listu	-10.6586
▁památ	-10.659
NO	-10.6592
▁komplex	-10.6598
▁klientů	-10.6602
▁tisíci	-10.6606
▁Cena	-10.6607
ŘE	-10.6611
▁úst	-10.6624
šly	-10.6629
▁patřil	-10.6633
▁Mark	-10.6638
▁následn	-10.6639
▁spol	-10.6642
▁systémem	-10.6648
▁zkouš	-10.6652
▁předložen	-10.6652
favorit	-10.6653
▁Itálii	-10.6653
▁Miloslav	-10.6653
▁inženýr	-10.6653
▁obligace	-10.6653
▁peněžní	-10.6653
▁požaduje	-10.6653
▁snižování	-10.6653
▁výjimečn	-10.6653
▁úrovní	-10.6653
▁rychlý	-10.6653
▁odsouzen	-10.6653
▁povinen	-10.6653
▁menšin	-10.6653
▁průkaz	-10.6653
▁podívat	-10.6654
▁Jugoslávii	-10.6654
▁Euro	-10.6654
▁najevo	-10.6654
▁zavře	-10.6655
▁Peter	-10.6656
▁říct	-10.6656
procentní	-10.6656
▁celku	-10.6657
▁vybírat	-10.6659
▁skončení	-10.666
▁vojáků	-10.6661
▁nesmírn	-10.6661
▁agent	-10.6662
▁fax	-10.6664
▁přeměn	-10.6666
▁Irsk	-10.6666
KDU	-10.6667
bytek	-10.6668
▁experiment	-10.6668
▁pivo	-10.667
▁předmětem	-10.6671
▁hlavu	-10.6676
▁pokyn	-10.6676
▁teplota	-10.6676
▁Moh	-10.6677
▁věk	-10.6678
▁kusů	-10.6679
▁Moravě	-10.6679
▁orgán	-10.668
▁japonské	-10.668
▁Počet	-10.6681
▁cyklus	-10.6682
▁povolání	-10.6683
rst	-10.6684
▁odvolání	-10.6689
▁koupí	-10.6691
▁Lin	-10.6694
▁podřízen	-10.6698
ívají	-10.6699
▁divadelní	-10.67
ráží	-10.6703
▁některým	-10.6707
▁filmový	-10.6707
▁dílem	-10.6713
▁past	-10.6715
▁rodin	-10.6718
▁(2	-10.672
▁důvodem	-10.6723
▁úvěrů	-10.6729
▁bodu	-10.674
▁stisk	-10.6748
▁výstavy	-10.6749
▁Val	-10.675
▁vlny	-10.6756
▁kartu	-10.6758
▁starosta	-10.6759
brat	-10.6759
▁škole	-10.6762
děk	-10.6769
▁fotbalový	-10.677
▁přípravy	-10.6773
ěřitel	-10.6777
▁upraven	-10.6778
▁Dalším	-10.6785
▁neznámý	-10.6792
valy	-10.6793
▁Nebyl	-10.6794
IL	-10.6795
ivost	-10.6796
▁národů	-10.6797
▁českým	-10.6798
▁češt	-10.68
▁Den	-10.6807
▁Ruské	-10.6808
▁trestný	-10.6813
▁stanov	-10.6817
▁uvědom	-10.6819
árně	-10.6823
týdenní	-10.6827
▁pražský	-10.683
▁Mat	-10.6832
▁Hra	-10.6836
▁profesionál	-10.6837
▁jakých	-10.6839
▁otevřené	-10.6841
▁informoval	-10.6847
▁Lékař	-10.6847
pas	-10.6853
▁zaveden	-10.6872
▁jistý	-10.6875
MI	-10.6881
▁reklam	-10.6883
▁obsazen	-10.6884
▁nákupu	-10.6889
▁zajištěn	-10.6892
▁rovin	-10.6896
řízení	-10.6899
▁Tad	-10.69
▁volný	-10.6901
▁uspořáda	-10.6903
▁horní	-10.6905
▁tvrdé	-10.6905
▁schválil	-10.6907
▁Např	-10.6908
ávají	-10.691
▁průběh	-10.6911
▁žil	-10.6912
▁starost	-10.6912
▁Řad	-10.6922
▁rozhlas	-10.6923
▁Oznámil	-10.6924
▁Univerzit	-10.6924
▁bariér	-10.6924
▁existovat	-10.6924
▁informaci	-10.6924
▁obtížné	-10.6924
▁prezentací	-10.6924
▁svědomí	-10.6924
▁vyjádřit	-10.6924
▁vytvářet	-10.6924
▁ztrácí	-10.6924
▁Několik	-10.6924
▁Problém	-10.6924
▁ubytování	-10.6924
▁února	-10.6924
▁poskytovat	-10.6924
▁československé	-10.6924
záběr	-10.6924
▁zmizel	-10.6924
▁pěst	-10.6924
▁komunikace	-10.6924
nášejí	-10.6924
▁optimální	-10.6925
▁vybraný	-10.6925
▁náskok	-10.6926
▁nebezpečn	-10.6926
střelil	-10.6926
▁zítra	-10.6926
▁Bójové	-10.6926
▁továrn	-10.6927
▁zdánlivě	-10.6927
nozí	-10.6928
▁31.	-10.6928
▁zvolil	-10.6929
▁hrách	-10.693
▁boji	-10.693
▁rychleji	-10.6931
padal	-10.6932
▁koupil	-10.6932
▁teplot	-10.6932
▁hokej	-10.6933
▁schopna	-10.6933
bíd	-10.6933
sadil	-10.6934
▁jednotek	-10.6934
▁kupující	-10.6934
▁jasno	-10.6939
▁závodech	-10.6939
▁fyzické	-10.6941
▁podvod	-10.6942
▁hlavy	-10.6943
▁střediska	-10.6943
▁nadace	-10.6947
▁tradice	-10.6948
▁objevuje	-10.6949
▁ústřední	-10.6949
▁všeobecné	-10.6951
▁samotné	-10.6953
▁hrdin	-10.6955
▁narodil	-10.6957
▁vesnici	-10.6959
▁sval	-10.696
▁dohodě	-10.6962
▁předpisy	-10.6964
▁politiků	-10.6964
▁hledají	-10.6967
▁brání	-10.6967
eta	-10.6967
▁Změn	-10.6971
íka	-10.6972
ičtí	-10.6973
▁stěn	-10.6975
▁kalů	-10.6977
▁obvinění	-10.6979
gel	-10.6981
▁kontroly	-10.6982
▁dostávají	-10.6982
▁slavnostní	-10.6983
▁Svoboda	-10.6992
▁vzdálenosti	-10.6993
ovky	-10.6994
vykl	-10.6995
▁souborů	-10.6996
▁pomohl	-10.7
▁prach	-10.7004
▁vysloven	-10.7005
▁hus	-10.7008
▁půd	-10.7012
▁správu	-10.7014
▁Sun	-10.7017
▁chyt	-10.7018
▁udělá	-10.7019
▁návratu	-10.7019
▁průmysl	-10.7021
▁zaznamenal	-10.7023
▁Vlastní	-10.7031
▁předsed	-10.7034
▁vznikají	-10.7037
▁rizika	-10.7038
OU	-10.7042
čila	-10.7042
▁soutěží	-10.7043
▁kus	-10.7043
kládají	-10.7048
▁sále	-10.7056
▁správný	-10.7057
▁JE	-10.7058
▁bloku	-10.7061
▁signálu	-10.7074
▁ostatními	-10.7076
tickou	-10.7077
▁investic	-10.7079
▁částic	-10.708
▁boje	-10.7087
▁klasick	-10.7089
▁důvody	-10.709
▁red	-10.71
▁závodů	-10.71
▁cíl	-10.71
▁konečné	-10.71
počátku	-10.7102
41	-10.7103
▁Er	-10.7106
▁spis	-10.7108
▁chemický	-10.7111
▁Internet	-10.7111
▁ona	-10.7117
▁uchazeč	-10.7117
25	-10.712
▁Pre	-10.7121
najdete	-10.7124
případě	-10.7125
▁čtyřicet	-10.7126
▁ZA	-10.7128
▁určený	-10.7133
▁Kol	-10.7137
hloub	-10.7138
▁lidsk	-10.7142
▁argument	-10.7146
stru	-10.7146
▁zobraz	-10.7152
▁jakém	-10.7152
▁náhod	-10.7154
▁mírně	-10.7155
▁Cha	-10.7157
držení	-10.7159
▁černé	-10.7164
▁El	-10.7167
lín	-10.7167
▁určené	-10.7175
díl	-10.7183
▁bi	-10.7184
▁mírové	-10.7185
razí	-10.7186
▁ozbrojený	-10.7187
▁porážk	-10.7189
▁státě	-10.719
▁rodinný	-10.7195
▁právník	-10.7198
▁mohu	-10.7199
▁demokracii	-10.7201
▁fanoušků	-10.7201
▁jednoduše	-10.7201
▁lustrační	-10.7201
▁navštívil	-10.7201
▁nepochybn	-10.7201
▁nádraží	-10.7201
▁obligací	-10.7201
▁otázkou	-10.7201
▁ovzduší	-10.7201
▁pracoviště	-10.7201
▁vyrábí	-10.7201
▁železniční	-10.7201
▁pobřeží	-10.7202
▁prokurátor	-10.7202
▁častěji	-10.7202
▁Pracovní	-10.7202
▁příchod	-10.7202
▁odstranit	-10.7202
▁obnoven	-10.7202
▁knize	-10.7202
▁Tehd	-10.7202
▁modul	-10.7202
▁věnován	-10.7202
▁záření	-10.7202
▁vážné	-10.7202
▁blízkosti	-10.7202
▁raket	-10.7203
▁scénář	-10.7203
▁dohodnout	-10.7203
▁říkal	-10.7203
▁Motor	-10.7203
▁písmen	-10.7205
▁přínos	-10.7205
▁oblečení	-10.7205
▁chyběl	-10.7206
▁Rád	-10.7208
▁pramen	-10.7209
▁kvalitě	-10.7209
▁několikrát	-10.7209
▁opoziční	-10.7209
▁Pět	-10.7211
▁vyvolal	-10.7214
▁uprostřed	-10.7215
poloviční	-10.7216
▁dopravě	-10.7217
47	-10.7217
▁ovládání	-10.7219
▁pomůže	-10.7219
myslet	-10.722
▁nejlepších	-10.7221
▁cítí	-10.7223
▁komunistické	-10.7224
▁hovořil	-10.7227
▁novináři	-10.7228
▁klimatický	-10.7228
hodnotit	-10.723
▁připadá	-10.7231
▁kont	-10.7231
▁žít	-10.7232
▁Švédsk	-10.7233
▁sbír	-10.7238
▁Indi	-10.7239
▁velkého	-10.7239
▁dodavatel	-10.7241
ria	-10.7247
snad	-10.7248
▁Let	-10.7249
ložení	-10.725
▁znaky	-10.725
▁Pražské	-10.725
▁Taková	-10.7255
▁doprava	-10.7258
▁výpravy	-10.726
▁působit	-10.7261
jasn	-10.7262
▁mezinárodních	-10.7265
▁tajný	-10.7268
▁uplynul	-10.7275
▁Rakousku	-10.7279
land	-10.7281
▁sportu	-10.7282
▁viděli	-10.7284
▁obrazů	-10.7287
▁min	-10.7294
▁blíží	-10.7297
ovce	-10.7298
ČS	-10.7302
▁vstupné	-10.7304
▁mal	-10.7305
▁dění	-10.7306
gan	-10.7309
▁společn	-10.7312
▁využívá	-10.7316
▁určitých	-10.7318
▁zásah	-10.7318
ité	-10.7325
▁hru	-10.7325
▁souhlasí	-10.7335
ologické	-10.7337
▁Rusku	-10.7338
part	-10.734
bezpeč	-10.7343
▁automatick	-10.7351
▁měsíci	-10.7357
▁1000	-10.7364
▁testu	-10.7365
▁úvěry	-10.7371
okr	-10.7373
▁převzal	-10.7374
▁zvítězil	-10.7378
býval	-10.7379
▁Vznik	-10.7389
▁čist	-10.7391
▁okamžik	-10.7396
▁fondy	-10.7397
▁odchod	-10.7397
elné	-10.74
▁Št	-10.7401
▁samostatný	-10.7411
▁kritik	-10.7413
▁Hol	-10.7416
▁Muž	-10.7422
▁vytvořil	-10.7428
▁aminokyselin	-10.7435
▁začínají	-10.7441
▁termínu	-10.7442
rušení	-10.7444
řazen	-10.745
▁komerční	-10.7456
▁večerní	-10.7465
izovan	-10.7473
koupil	-10.7478
ohledem	-10.748
17	-10.7483
▁hospod	-10.7484
▁Americe	-10.7487
▁dopoledne	-10.7487
▁doporučuje	-10.7487
▁dveře	-10.7487
▁ministerstvu	-10.7487
▁nejrychleji	-10.7487
▁partneři	-10.7487
▁považovat	-10.7487
▁reakce	-10.7487
▁rekonstrukci	-10.7487
▁rozhoduje	-10.7487
▁strategie	-10.7487
▁vyrábět	-10.7487
▁Havla	-10.7487
▁Trenér	-10.7487
▁sledoval	-10.7487
▁taneční	-10.7487
▁sloužit	-10.7487
▁policii	-10.7487
▁srdce	-10.7487
nášet	-10.7487
▁jaře	-10.7487
▁humor	-10.7488
▁areálu	-10.7488
▁Klub	-10.7488
▁psát	-10.7488
skal	-10.7489
▁vězení	-10.7489
▁penze	-10.7489
▁rozlišení	-10.7489
▁politickou	-10.7489
▁vzít	-10.7489
▁dubna	-10.7489
▁krve	-10.749
▁výlet	-10.749
▁čekat	-10.7491
▁trvat	-10.7491
▁Konečn	-10.7491
▁dotací	-10.7491
▁zachovat	-10.7493
▁poskytnout	-10.7493
▁fyzick	-10.7497
▁5.	-10.7498
▁stavby	-10.75
▁Čas	-10.7502
čištění	-10.7504
▁obsahovat	-10.7504
▁ClipArt	-10.7505
▁dopravu	-10.7505
▁ukončení	-10.7507
▁provádět	-10.7508
▁píše	-10.7509
▁vydat	-10.751
▁narození	-10.7514
▁elektrické	-10.7515
telné	-10.7515
AC	-10.7516
▁přišli	-10.7521
▁cestující	-10.7521
▁dítěte	-10.7522
▁objektivní	-10.7523
▁drží	-10.7525
oji	-10.7525
▁sovětských	-10.7526
▁zjevn	-10.7526
▁Mnoho	-10.7527
▁zastavit	-10.7529
▁událostí	-10.7531
▁postavit	-10.7532
▁vším	-10.7534
▁připojení	-10.7534
▁kontakty	-10.7538
▁techniku	-10.7538
▁Celkov	-10.7541
31	-10.7544
rní	-10.7548
▁schválení	-10.7552
▁kabinetu	-10.7556
▁podrob	-10.7558
VA	-10.7558
▁Musím	-10.7559
▁vedou	-10.7562
▁obci	-10.7563
▁hluboko	-10.7563
TU	-10.7564
▁čistý	-10.7565
▁managementu	-10.7566
▁orgány	-10.7567
▁Bud	-10.7568
▁cosi	-10.7569
▁příkladem	-10.757
▁výhody	-10.7579
▁vodu	-10.7583
▁přesvědčení	-10.7584
▁události	-10.7584
▁produkty	-10.7587
▁vašeho	-10.7587
▁předpoklad	-10.7588
mála	-10.7592
tisk	-10.7592
plňuje	-10.7593
▁principy	-10.7594
▁maximální	-10.7596
▁zjistili	-10.7597
▁drobn	-10.7603
▁Kovo	-10.7604
▁rodina	-10.7605
▁hranic	-10.761
▁pas	-10.761
▁občany	-10.7613
íci	-10.7614
▁znamenat	-10.7617
▁samostatně	-10.7619
▁plánu	-10.7621
▁vyhlásil	-10.7625
▁útoku	-10.7632
▁všechn	-10.7634
rej	-10.7635
▁Malé	-10.7637
▁severu	-10.764
▁rozhodli	-10.7646
▁sociálního	-10.7646
▁sídle	-10.7647
▁15.	-10.7647
▁soubory	-10.7648
pot	-10.7648
▁los	-10.7649
▁průmyslové	-10.7654
▁stejným	-10.7655
▁souhlasu	-10.7656
ller	-10.7656
▁zad	-10.7661
▁kmen	-10.7661
▁povinn	-10.7662
▁bohat	-10.7666
▁Vlast	-10.767
▁Zájem	-10.7676
▁přestáv	-10.768
▁dělí	-10.7684
▁projevil	-10.7685
kazují	-10.7686
▁hlasy	-10.7687
▁zmíněný	-10.7688
▁monitor	-10.7689
▁odkaz	-10.769
kládání	-10.7698
CD	-10.7703
▁kluby	-10.7703
▁běžně	-10.7703
▁člena	-10.7705
,8	-10.7706
▁příslušn	-10.7707
▁oznámila	-10.7711
▁formu	-10.7721
▁otevřel	-10.7725
▁vstoupil	-10.7729
▁černo	-10.7733
▁účt	-10.7738
▁Mnoh	-10.7741
▁rozšířen	-10.7744
cová	-10.7744
▁pečlivě	-10.7746
▁placen	-10.7748
▁cyklu	-10.7749
▁rostou	-10.7751
▁založil	-10.7754
▁48	-10.7756
▁přinesl	-10.776
asi	-10.7762
ana	-10.7763
ecká	-10.7764
▁Lon	-10.7765
▁65	-10.7765
▁Bla	-10.7766
▁směn	-10.7766
legislativ	-10.7771
▁praktický	-10.7774
▁špičk	-10.7778
▁blízko	-10.778
▁činit	-10.7781
▁Stanislav	-10.7781
▁března	-10.7781
▁geometrie	-10.7781
▁miliónu	-10.7781
▁opozice	-10.7781
▁producent	-10.7781
▁snižuje	-10.7781
▁vstříc	-10.7781
▁zahrnuje	-10.7781
▁účinky	-10.7781
▁zahynul	-10.7781
▁rozmezí	-10.7781
▁páté	-10.7781
▁sotva	-10.7781
▁využil	-10.7781
▁kupónov	-10.7781
▁rakouské	-10.7782
▁čtvrtletí	-10.7782
▁knihovn	-10.7782
▁necelý	-10.7782
▁klesá	-10.7782
▁nositel	-10.7782
▁morální	-10.7782
▁pověst	-10.7782
▁Fond	-10.7783
ick	-10.7783
▁patnácti	-10.7783
▁téhož	-10.7785
▁Šest	-10.7785
▁návod	-10.7786
▁útočník	-10.7786
▁diskusi	-10.7787
▁únik	-10.7788
▁výsledku	-10.7788
▁otevře	-10.7791
▁formátu	-10.7793
▁zásluh	-10.7797
▁zajišťuje	-10.7798
▁fa	-10.7798
▁anglické	-10.7799
▁školách	-10.7799
▁zvýší	-10.7802
▁krajan	-10.7806
▁hal	-10.7806
▁odměn	-10.7807
▁průměrné	-10.7808
▁přestal	-10.7808
▁stráž	-10.7808
▁poradce	-10.7811
skutk	-10.7812
▁kovů	-10.7813
▁pravomoci	-10.7817
▁kamer	-10.7817
▁Pal	-10.7819
▁formy	-10.7819
▁příběh	-10.782
▁poskytl	-10.7821
▁odpad	-10.7823
▁prokázal	-10.7824
příliš	-10.7825
▁věnuje	-10.7826
bírá	-10.7826
▁vzpomíná	-10.7828
▁Rada	-10.7829
▁zachování	-10.7829
▁urychlen	-10.7832
▁6.	-10.7837
zdrav	-10.7838
▁volbu	-10.7838
▁provádí	-10.7839
▁představiteli	-10.7843
▁gen	-10.7844
▁duchu	-10.7844
▁resp	-10.7845
▁král	-10.7848
leč	-10.7849
▁vědeck	-10.7849
▁obrovské	-10.785
▁příčinou	-10.7852
▁rozum	-10.7856
▁postupy	-10.7864
zákon	-10.787
áni	-10.7873
▁Zemi	-10.7873
ust	-10.7874
▁zpravodaj	-10.7877
▁kandidátů	-10.7878
▁pražských	-10.7881
▁zásadně	-10.7891
rez	-10.7891
▁Kam	-10.7901
▁padesáti	-10.7904
cker	-10.7905
▁Boris	-10.7906
▁přev	-10.7906
ováni	-10.7909
▁výkonné	-10.7922
▁daném	-10.7923
▁slep	-10.7925
▁krajin	-10.7927
▁Karl	-10.7931
▁výchov	-10.7941
▁rozliš	-10.7947
▁odešl	-10.795
▁následujících	-10.7959
▁Občanské	-10.796
▁žlut	-10.7964
▁barevný	-10.7969
▁Michael	-10.7976
▁obchody	-10.7981
rna	-10.7988
▁osoba	-10.799
▁výbuch	-10.7992
▁úsek	-10.7993
▁plno	-10.7993
▁papíru	-10.7994
▁soustav	-10.8002
▁modely	-10.8007
▁personál	-10.8014
▁obsahují	-10.8018
▁46	-10.802
▁ceník	-10.8024
▁výuk	-10.8027
▁živé	-10.8034
▁vzdálenost	-10.8035
▁Klause	-10.8039
▁minulost	-10.8042
▁loňský	-10.8044
edení	-10.8044
▁klepn	-10.8048
front	-10.8052
▁Svět	-10.8058
▁reakci	-10.8062
▁služba	-10.8063
▁Slov	-10.8065
ng	-10.8067
▁jediným	-10.8068
Vesmír	-10.8068
ujícího	-10.8069
▁poznat	-10.8077
▁Španěl	-10.8082
▁Tur	-10.8083
▁chyby	-10.8083
▁Otázka	-10.8084
▁definitivně	-10.8084
▁digitální	-10.8084
▁divadlo	-10.8084
▁důvěru	-10.8084
▁gigant	-10.8084
▁hřišti	-10.8084
▁kyslíku	-10.8084
▁označit	-10.8084
▁pokračování	-10.8084
▁prognóz	-10.8084
▁předvolební	-10.8084
▁sekretář	-10.8084
▁softwarov	-10.8084
▁transformaci	-10.8084
▁výročí	-10.8084
▁vězňů	-10.8084
▁zemědělců	-10.8084
▁zvyšování	-10.8084
▁používal	-10.8084
▁vozidel	-10.8084
▁října	-10.8084
▁Československé	-10.8084
▁Býval	-10.8084
▁prosinci	-10.8084
▁vazby	-10.8084
▁statistik	-10.8084
▁počtem	-10.8084
▁rozsáhlé	-10.8084
▁Práce	-10.8084
▁rakovin	-10.8085
▁nikoho	-10.8085
▁svoje	-10.8085
▁sexuální	-10.8085
▁zastavil	-10.8086
▁myšlenky	-10.8087
▁hluboké	-10.8087
85	-10.8087
▁dělení	-10.8088
▁Člen	-10.8088
▁sedmdesát	-10.8089
▁1992.	-10.809
▁Cest	-10.8092
▁neplatí	-10.8094
příště	-10.8095
▁poradit	-10.8096
▁začátek	-10.8096
▁poplatky	-10.8097
▁výdajů	-10.8099
▁chat	-10.8102
▁oběti	-10.8102
▁36	-10.8103
▁prozatím	-10.8104
▁majitele	-10.8104
▁Třeba	-10.8104
ismem	-10.8104
▁rozšířil	-10.8105
▁zrušit	-10.8105
▁mechanismus	-10.8108
▁nájemník	-10.8109
▁navrhuje	-10.8111
nášel	-10.8114
▁rostoucí	-10.8116
▁chtěla	-10.8118
▁třetiny	-10.8121
EC	-10.8121
SA	-10.8122
▁bratr	-10.8124
▁východě	-10.8124
zemědělských	-10.8126
▁kapel	-10.8126
▁Uvedl	-10.8126
▁čtrnáct	-10.813
▁věda	-10.8131
▁příležitostí	-10.8133
▁tuzemsku	-10.8137
▁sezóny	-10.8138
▁Hlavním	-10.8141
▁zůstalo	-10.8141
▁představitele	-10.8142
▁7.	-10.8143
▁schopností	-10.8146
▁nastavení	-10.8153
▁Jaké	-10.8154
eprve	-10.8154
▁spolehliv	-10.8158
vrácení	-10.8159
▁přítomnosti	-10.8161
▁vědí	-10.8161
▁krajiny	-10.8161
▁Clinton	-10.8161
logický	-10.8162
▁výkonný	-10.8164
▁dílů	-10.8164
▁reklamy	-10.8167
▁majitelé	-10.8167
▁výborů	-10.8173
hem	-10.8177
▁víkend	-10.8177
▁Mil	-10.8181
▁Rakouska	-10.8184
era	-10.8187
▁pokuty	-10.819
ějším	-10.8193
▁starý	-10.8198
▁objevují	-10.82
▁technick	-10.8203
▁probíh	-10.8204
▁vlasti	-10.8209
▁svobody	-10.821
jedná	-10.8211
▁ekonomický	-10.8213
▁záležitosti	-10.8213
▁postavil	-10.8218
▁červen	-10.8223
▁činil	-10.8233
▁znění	-10.8233
▁Mont	-10.8233
▁filmové	-10.8234
logicky	-10.8241
VÍ	-10.8248
tická	-10.8251
▁nastal	-10.8254
▁Jaká	-10.8258
▁přesun	-10.8259
▁známý	-10.8261
▁běžn	-10.8271
prodej	-10.8272
▁stylu	-10.8273
jeli	-10.8274
▁Vlk	-10.8277
▁výrobních	-10.8279
▁primátor	-10.8289
▁odraz	-10.8293
▁účtu	-10.8295
▁Pomoc	-10.8299
▁potřebn	-10.8299
▁koncertu	-10.83
▁našel	-10.8305
▁diplomat	-10.8307
enou	-10.8308
70	-10.8309
▁klasický	-10.8315
▁koní	-10.8317
▁zdravotního	-10.8317
▁surovin	-10.8321
▁čtenářů	-10.8323
▁Morav	-10.8323
▁obsadil	-10.8323
pracovat	-10.833
▁přítomn	-10.8333
▁důraz	-10.8336
▁víme	-10.8337
▁startu	-10.8343
užit	-10.8345
▁exportu	-10.8348
▁existující	-10.835
▁14.	-10.8351
▁Světové	-10.8361
drží	-10.8362
▁Výbor	-10.8364
▁výkony	-10.8367
▁přítomnost	-10.8367
▁nezávislé	-10.837
▁prof	-10.837
▁ostatním	-10.838
povídají	-10.838
týká	-10.8381
jmout	-10.8382
▁atlet	-10.8384
▁vlně	-10.8385
▁menších	-10.8387
▁tuzemské	-10.8389
▁radi	-10.839
▁dosáhla	-10.8393
▁běh	-10.8393
▁trans	-10.8397
▁Staroměstské	-10.8397
▁Argentin	-10.8397
▁Evropu	-10.8397
▁Mechanik	-10.8397
▁Němců	-10.8397
▁Premiér	-10.8397
▁Systém	-10.8397
▁Vývoj	-10.8397
▁absolutní	-10.8397
▁definitivní	-10.8397
▁kilobajtů	-10.8397
▁podezření	-10.8397
▁potvrzuje	-10.8397
▁připomněl	-10.8397
▁sjednocení	-10.8397
▁smlouvě	-10.8397
▁teorií	-10.8397
▁tvořit	-10.8397
▁účinek	-10.8397
▁režii	-10.8397
▁tabulce	-10.8397
▁aspekt	-10.8397
▁lehce	-10.8397
▁schůze	-10.8397
▁zdarma	-10.8397
▁zrušil	-10.8397
▁ukončil	-10.8397
▁pokrok	-10.8397
▁špatný	-10.8397
▁membrán	-10.8397
▁tramvaj	-10.8397
▁zastupitelstva	-10.8397
▁vyřešen	-10.8398
▁hustot	-10.8398
▁pověřen	-10.8398
▁spotřeby	-10.8398
▁nedokázal	-10.8398
▁střetnutí	-10.8398
▁GSM	-10.8399
▁bránit	-10.8399
▁vězni	-10.8399
▁nádor	-10.84
▁("	-10.84
▁celků	-10.84
▁produkci	-10.84
▁nejenom	-10.8401
▁Cíle	-10.8402
▁ovoce	-10.8403
▁diskuse	-10.8403
▁státem	-10.8403
▁vyvíj	-10.8404
▁Řeck	-10.8405
▁Dodal	-10.8406
▁38	-10.8406
▁kódování	-10.8407
▁kamion	-10.8408
▁dětský	-10.8408
▁obav	-10.8409
▁vaši	-10.841
▁dostatek	-10.8411
▁Úřadu	-10.8411
▁fotograf	-10.8412
▁balík	-10.8413
▁překlad	-10.8413
▁anglický	-10.8413
▁vyvolává	-10.8414
▁Druhá	-10.8414
▁Jaký	-10.8415
vodí	-10.8416
sit	-10.8418
LU	-10.8421
▁Němec	-10.8422
▁Jednání	-10.8422
▁dolní	-10.8424
▁předložit	-10.8425
▁95	-10.8427
▁systematick	-10.8427
stupují	-10.8427
▁závislosti	-10.8432
ME	-10.8432
▁akademie	-10.8433
ukce	-10.8434
▁náhodou	-10.844
▁pravděpodobnost	-10.844
▁veřejných	-10.844
▁nahradil	-10.844
▁výstavě	-10.8443
▁fakultu	-10.8443
▁zájm	-10.8445
▁užívání	-10.8448
▁zahraničním	-10.845
▁Karadžič	-10.8452
▁soused	-10.8452
▁zvěře	-10.8452
▁strážník	-10.8457
jako	-10.8462
▁klidně	-10.8464
▁ukázk	-10.8465
▁Severní	-10.8465
▁důchod	-10.8466
táhne	-10.8468
▁poloh	-10.8469
▁obrovský	-10.8473
▁fyzikální	-10.8473
▁kontrolní	-10.8474
▁vyžádal	-10.8476
44	-10.8479
rel	-10.848
▁temp	-10.8483
oma	-10.8483
▁karta	-10.8484
▁Sparta	-10.8485
▁škodu	-10.8487
▁Kla	-10.8489
▁poznal	-10.8492
jímá	-10.8494
▁zdravé	-10.8497
pin	-10.8499
▁zdravotnické	-10.8502
▁základem	-10.8507
▁ST	-10.8514
kova	-10.8515
▁životním	-10.8518
▁troj	-10.8527
▁trenérem	-10.8528
▁silný	-10.8528
▁týdnech	-10.8528
elná	-10.853
▁kvantov	-10.853
▁firemní	-10.8531
▁plnění	-10.8535
▁pohyboval	-10.8539
▁principu	-10.8541
jedna	-10.8544
▁koně	-10.8546
▁šíř	-10.8546
vané	-10.8547
▁příčiny	-10.8547
▁podobného	-10.8547
izované	-10.8552
▁Ústavní	-10.8555
kovat	-10.8556
OLE	-10.8559
▁náročn	-10.8564
▁reálný	-10.8568
▁koho	-10.8569
▁časové	-10.8574
▁Mir	-10.8576
▁najde	-10.8578
▁smí	-10.8579
bírají	-10.8584
▁11.	-10.8589
▁předběžn	-10.8591
▁sporu	-10.8596
noví	-10.86
▁Olomouc	-10.8602
dání	-10.8608
▁klasické	-10.8609
▁pokračoval	-10.861
roj	-10.8619
stu	-10.862
▁česko	-10.862
▁Hus	-10.862
dění	-10.8622
▁škod	-10.8629
▁budova	-10.8637
počítat	-10.8638
▁vedl	-10.8639
▁jiní	-10.8639
▁matematik	-10.8644
▁bezprostředn	-10.8651
▁Nov	-10.8665
▁nezávislost	-10.8666
▁pokládá	-10.8668
HA	-10.8671
lčí	-10.8673
isty	-10.8682
▁důstojn	-10.8685
▁seminář	-10.8688
čené	-10.869
▁Kraj	-10.8691
▁třetího	-10.8692
▁nepod	-10.8696
▁poskytují	-10.8703
▁34	-10.8704
▁Úřad	-10.8706
ářské	-10.871
rgi	-10.8711
▁nech	-10.8716
▁pohádk	-10.8716
▁zhorš	-10.8718
ačtyřicet	-10.8719
▁dražší	-10.8719
▁dynamick	-10.8719
▁nejnižší	-10.8719
▁podporovat	-10.8719
▁přispět	-10.8719
▁snažit	-10.8719
▁sportovců	-10.8719
▁uskutečnit	-10.8719
▁Člověk	-10.8719
▁Poslanc	-10.8719
▁chystá	-10.8719
▁index	-10.8719
▁nemohu	-10.8719
▁vybudovat	-10.8719
▁vyřešit	-10.8719
▁bílkovin	-10.8719
▁krizi	-10.8719
▁každoročn	-10.8719
▁vypadat	-10.8719
▁skončí	-10.872
▁srážek	-10.872
▁Osobn	-10.872
▁turisty	-10.872
▁dohromady	-10.872
▁mlýn	-10.872
▁kolegů	-10.872
▁sněhu	-10.872
▁tvorbě	-10.872
▁zhodnocení	-10.872
▁mld	-10.872
▁dobrá	-10.8721
▁obilí	-10.8721
▁sběr	-10.8722
▁textový	-10.8722
▁dcer	-10.8722
vázal	-10.8722
▁pouští	-10.8722
▁síti	-10.8722
▁těší	-10.8723
▁vedlejší	-10.8724
▁bomb	-10.8725
▁atmosféry	-10.8725
▁přesvědčit	-10.8725
▁úkon	-10.8725
antní	-10.8726
▁pokračuje	-10.8726
▁porozumění	-10.8726
▁zabýval	-10.8727
▁Odbor	-10.8727
VI	-10.8727
▁spodní	-10.8728
▁hůře	-10.873
▁zbytečně	-10.8731
▁penzion	-10.8731
▁připojit	-10.8732
▁Bruselu	-10.8733
▁umělecké	-10.8734
89	-10.8736
▁tělo	-10.8736
▁Hradci	-10.8736
▁všeobecně	-10.8737
▁ruky	-10.8738
▁chlap	-10.8738
▁130	-10.8739
▁přinést	-10.874
▁rostlin	-10.8743
▁vesnice	-10.8743
▁Cup	-10.8743
▁poznamenal	-10.8747
▁Jelcina	-10.8749
▁nadšen	-10.875
▁rovině	-10.8756
▁silnice	-10.8757
▁Senátu	-10.8757
▁počítačový	-10.8759
▁spolupracovníků	-10.876
ens	-10.876
▁dala	-10.8763
hradí	-10.8768
▁obsazení	-10.8769
▁městský	-10.877
▁Američané	-10.8777
▁analýzy	-10.8777
nutně	-10.8778
▁mnou	-10.8781
end	-10.8783
▁obal	-10.8783
ačnou	-10.879
tický	-10.8791
▁tvrd	-10.8794
▁personální	-10.8795
▁historické	-10.8796
▁přízniv	-10.88
▁zájemce	-10.8801
▁Novotný	-10.8801
razil	-10.8802
▁opustit	-10.8804
▁grafický	-10.8807
▁čtyřiceti	-10.8809
▁kolektivní	-10.881
▁volných	-10.8813
▁důchodu	-10.8814
▁trestné	-10.8814
▁levé	-10.8814
▁dovozu	-10.8816
▁Chorvatska	-10.8818
dent	-10.882
▁autobusy	-10.8823
▁Kohl	-10.8825
▁požadované	-10.8827
▁zájmů	-10.883
▁moment	-10.8833
▁průměrný	-10.8844
▁postoje	-10.8845
▁Karla	-10.8851
▁nevím	-10.8852
▁Rakousk	-10.8853
▁vyrovnan	-10.8856
▁potenciál	-10.8857
vedli	-10.8857
elů	-10.8859
bod	-10.8865
▁dalo	-10.8869
▁získan	-10.887
▁přivedl	-10.8874
▁Mon	-10.888
▁Mag	-10.888
▁tlaku	-10.888
vedou	-10.8887
▁objemu	-10.8892
▁drobné	-10.8894
Ú	-10.8898
dom	-10.89
▁zvuk	-10.8905
ticky	-10.8907
▁otevřený	-10.891
▁grafu	-10.8911
▁1,5	-10.8914
▁Dá	-10.8917
▁nepříjemné	-10.8924
▁svobodné	-10.8928
▁odborník	-10.8928
▁šlo	-10.8932
▁kapitálové	-10.8932
lip	-10.8934
učili	-10.8936
▁vedla	-10.8948
počíta	-10.8949
▁dlužník	-10.8952
▁nutnost	-10.8952
▁osobnost	-10.8955
▁turistický	-10.8958
▁kolektiv	-10.896
řídí	-10.8961
▁management	-10.8961
▁projektů	-10.8961
kládal	-10.8964
znamenal	-10.8967
ezi	-10.8968
▁mladý	-10.8981
▁překvapení	-10.8982
▁bytost	-10.8984
▁Sever	-10.8986
ících	-10.8986
▁prosadil	-10.8991
▁přímý	-10.9005
▁vlak	-10.9012
▁zvíře	-10.9017
▁lékařsk	-10.9017
▁Zahraničn	-10.9018
▁85	-10.9019
▁Nic	-10.9021
prostřed	-10.9023
vající	-10.9026
▁vzpomínk	-10.9031
▁ideál	-10.9031
nvestiční	-10.9035
▁členský	-10.9042
▁čekal	-10.9043
▁dosah	-10.9044
▁Takový	-10.9044
▁Auto	-10.9046
▁konečný	-10.9047
těl	-10.9051
▁speciali	-10.9052
▁legend	-10.9052
▁Mluvčí	-10.9053
▁dosažení	-10.9053
▁hrozb	-10.9053
▁intenzit	-10.9053
▁jednoduchá	-10.9053
▁metropoli	-10.9053
▁nechtějí	-10.9053
▁obsažen	-10.9053
▁pochopení	-10.9053
▁teorii	-10.9053
▁tradičně	-10.9053
▁výpověď	-10.9053
plácet	-10.9053
▁Rudolf	-10.9053
▁neutrální	-10.9053
▁únoru	-10.9053
▁jmění	-10.9053
▁Moskva	-10.9053
▁Peníze	-10.9053
▁reakcí	-10.9053
▁složitější	-10.9053
▁očekával	-10.9053
▁Divadl	-10.9053
▁likvidace	-10.9053
táhnout	-10.9053
▁břehu	-10.9053
▁Zástupc	-10.9053
▁nejpozději	-10.9053
▁nevýhod	-10.9053
▁restauraci	-10.9053
▁Východ	-10.9053
▁Obdobn	-10.9054
▁Rozdíl	-10.9054
▁dotace	-10.9054
▁úlev	-10.9054
▁panel	-10.9054
▁dojít	-10.9055
▁div	-10.9055
▁operací	-10.9056
▁kategorii	-10.9056
▁dělají	-10.9056
▁kabel	-10.9056
▁elektráren	-10.9056
▁vtip	-10.9057
▁výhodnější	-10.9058
▁Slovan	-10.9059
▁sněmovně	-10.9061
▁výrazný	-10.9061
▁utrpěl	-10.9062
▁mezd	-10.9062
▁množ	-10.9065
▁reformy	-10.9065
▁poli	-10.9065
▁podporuje	-10.9066
▁městech	-10.9069
▁udržení	-10.9072
▁vlast	-10.9074
▁oblačnost	-10.9075
leb	-10.9082
▁stíhání	-10.9082
▁vína	-10.9083
▁bílé	-10.9083
▁zabezpeč	-10.9088
▁časopisů	-10.9089
▁přijdou	-10.9094
▁žádostí	-10.91
▁strom	-10.9102
▁Tour	-10.9104
▁Šp	-10.9105
▁pochází	-10.9109
▁projednáva	-10.9111
▁Paříži	-10.9111
eček	-10.9114
▁otevřena	-10.9115
▁struktura	-10.912
▁hledal	-10.9124
▁mluvil	-10.9124
▁sezónu	-10.9125
▁vešker	-10.9126
▁realitní	-10.9129
▁odborníky	-10.913
▁provedl	-10.9133
▁využívání	-10.9137
▁mechanick	-10.914
poví	-10.9142
▁kontrol	-10.9143
skok	-10.9146
▁dokumentu	-10.9154
▁značn	-10.9156
▁žádosti	-10.9158
▁mladí	-10.9167
daných	-10.9172
nete	-10.9174
▁neboli	-10.9177
▁hmoty	-10.9179
▁provozní	-10.918
▁Důležit	-10.9182
▁uložení	-10.9184
▁okraj	-10.9185
▁šedesát	-10.9187
▁založení	-10.919
▁novel	-10.9196
▁domy	-10.9196
▁ukázala	-10.9201
▁zvýšen	-10.9201
▁nemohli	-10.9202
▁škoda	-10.9203
▁přijel	-10.9205
▁tank	-10.9205
▁Olymp	-10.9208
▁nastavit	-10.9212
▁záměru	-10.9215
▁skla	-10.9221
▁svobodu	-10.9224
▁obvodní	-10.9225
bla	-10.9227
▁tich	-10.9234
▁zákazníkům	-10.9242
▁letecké	-10.9243
▁časopise	-10.9244
▁mluvčího	-10.9248
ňoval	-10.9256
▁Mohl	-10.9257
ectví	-10.9259
IC	-10.926
▁Lit	-10.9268
▁reprezentantů	-10.9271
▁region	-10.9272
▁západ	-10.9272
▁stanic	-10.9274
▁Chorvatsk	-10.9274
▁zvýšené	-10.9278
▁fyzik	-10.9287
třel	-10.9289
jal	-10.9291
▁jmen	-10.9291
▁zařazen	-10.9291
▁monopol	-10.9292
tkání	-10.9296
▁muse	-10.9299
▁vražd	-10.9304
▁výkonnost	-10.9305
▁ztráta	-10.9307
vnějších	-10.9314
▁jmenován	-10.9315
▁prázdnin	-10.9318
▁Kur	-10.9321
▁snažil	-10.9321
▁nezaměstnanost	-10.9322
▁koš	-10.9322
▁platy	-10.9324
▁Plat	-10.9325
▁ochotn	-10.9328
▁doping	-10.9331
▁řídící	-10.9335
88	-10.9335
▁mikro	-10.9335
▁Nejs	-10.9336
▁zajímav	-10.9339
oučástí	-10.9343
▁týmy	-10.9344
▁čtrnácti	-10.9346
▁činu	-10.935
▁posílen	-10.9351
dpověď	-10.9353
▁každému	-10.9357
▁ohrožen	-10.9357
▁vložen	-10.9361
▁získáva	-10.937
▁odstup	-10.9372
▁grafick	-10.9383
▁OD	-10.9387
▁připojen	-10.9388
▁zvětš	-10.9388
▁Graf	-10.9393
ičtější	-10.9396
▁recept	-10.9397
▁dvojic	-10.9397
▁Ameriky	-10.9398
▁Bohužel	-10.9398
▁Ladislav	-10.9398
▁Nedávn	-10.9398
▁Plzni	-10.9398
▁SCSI	-10.9398
▁Telecom	-10.9398
▁devatenáct	-10.9398
▁energii	-10.9398
▁gymnázi	-10.9398
▁instituce	-10.9398
▁investování	-10.9398
▁konkrétně	-10.9398
▁podpořil	-10.9398
▁přirozené	-10.9398
▁čtvrtfinále	-10.9398
▁kapitán	-10.9398
▁nejvýznamnější	-10.9398
▁Policisté	-10.9398
▁mládí	-10.9398
▁ohrožuj	-10.9398
▁požadují	-10.9398
▁chránit	-10.9398
▁názvu	-10.9398
▁rámeček	-10.9398
▁David	-10.9398
▁koncepci	-10.9398
▁Všeobecn	-10.9398
máhají	-10.9398
▁nejúspěšnější	-10.9398
▁Včera	-10.9398
▁dražb	-10.9398
▁okénk	-10.9398
▁zaujal	-10.9398
PI	-10.9398
▁použil	-10.9398
▁Chip	-10.9398
▁závad	-10.9398
▁ekonomicky	-10.9398
▁sjezd	-10.9398
▁stabilní	-10.9398
▁trzích	-10.9398
'	-10.9399
▁stačil	-10.94
▁výrobek	-10.94
▁zimě	-10.94
▁obrázky	-10.9401
▁nadcházející	-10.9401
▁lamp	-10.9402
▁Tentokrát	-10.9402
▁koncern	-10.9403
▁kategorií	-10.9405
▁faktorů	-10.9405
▁síla	-10.9405
▁pochopit	-10.9405
▁fin	-10.9406
▁Londýně	-10.9407
▁plod	-10.9407
▁odstavce	-10.9408
▁Mas	-10.9408
▁opravdov	-10.9409
▁Afriky	-10.9409
▁hlavou	-10.941
▁hudby	-10.941
▁konat	-10.941
▁bojovat	-10.9413
▁vydá	-10.9413
▁chodit	-10.9413
▁kritérií	-10.9414
▁tón	-10.9416
▁lokální	-10.9417
far	-10.9419
▁právnické	-10.9419
▁podnikatelský	-10.9423
pozn	-10.9426
,4	-10.9427
jednat	-10.9427
▁parametrů	-10.9428
▁originální	-10.9428
▁umělecký	-10.9428
▁neb	-10.943
▁vybrané	-10.943
▁tradici	-10.9431
▁Stav	-10.9432
▁spravedlnosti	-10.9434
▁nalézt	-10.9434
▁ekologick	-10.9434
berg	-10.9435
▁způsobuje	-10.9435
▁šéfa	-10.9436
▁Děti	-10.9437
▁světovou	-10.9445
▁zbývající	-10.9447
▁zájemci	-10.9449
▁třetinu	-10.9449
▁uznal	-10.945
vých	-10.945
▁slíbil	-10.945
▁vesmíru	-10.9451
▁schůzky	-10.9451
▁odklad	-10.9453
▁drahé	-10.9453
▁uživatele	-10.9454
▁scény	-10.9455
▁úvahy	-10.9458
▁nezbytné	-10.946
▁biologické	-10.946
▁relac	-10.9462
▁zaměření	-10.9463
▁nemocných	-10.9463
▁OH	-10.9466
▁zná	-10.9467
▁způsobené	-10.9467
▁úkolem	-10.9467
▁okruhu	-10.9468
▁úroky	-10.9468
▁tvrdý	-10.9473
5%	-10.9474
▁Lidové	-10.9476
CP	-10.9476
▁poklesl	-10.9479
▁povede	-10.9482
▁blíže	-10.9487
národních	-10.9487
▁čtvrtý	-10.9488
▁paliva	-10.9492
▁starosty	-10.9494
bojí	-10.9499
▁soukrom	-10.9501
▁Dobr	-10.9504
▁odložen	-10.9505
▁ostře	-10.9505
ston	-10.9509
▁dokumentů	-10.9514
▁bosenský	-10.9518
▁udržel	-10.9522
staral	-10.9522
▁rozhovor	-10.9523
▁posíl	-10.9525
hý	-10.9525
zích	-10.9526
▁představí	-10.953
▁realiz	-10.9532
cestoval	-10.9535
▁výkonem	-10.9535
▁Nevím	-10.9538
kolik	-10.9539
tiky	-10.9539
▁paláce	-10.954
▁pouhé	-10.9541
▁čtvrtin	-10.9541
▁úkolů	-10.9543
▁uvedení	-10.9543
▁hradu	-10.9546
čern	-10.9551
▁podat	-10.9556
▁vývojové	-10.9558
▁objevit	-10.956
▁klidu	-10.956
enc	-10.9562
▁9.	-10.9565
▁skutečný	-10.9565
,6	-10.9565
▁30.	-10.9571
▁Spo	-10.9571
myslí	-10.9572
oucí	-10.9572
▁zůstala	-10.9572
▁poukaz	-10.9573
▁Ben	-10.9574
▁zásady	-10.9574
▁vyrovná	-10.9587
▁řek	-10.9592
▁sklon	-10.9608
BA	-10.9608
▁odkud	-10.9611
▁založené	-10.9616
▁CS	-10.9617
▁hloubk	-10.9618
▁pevný	-10.9619
▁platné	-10.9628
▁širok	-10.9644
▁zahraničními	-10.9646
▁dalšímu	-10.9647
▁opustil	-10.9648
▁ono	-10.9649
▁Ste	-10.965
▁nesouhlas	-10.9656
▁vzduch	-10.9663
▁listopad	-10.9664
▁disciplín	-10.9679
▁výprav	-10.968
hladov	-10.9681
bíhá	-10.9682
žije	-10.9683
▁postupné	-10.9684
▁možný	-10.9686
▁filmy	-10.9687
▁Vít	-10.9689
íků	-10.9692
hání	-10.9692
▁adresu	-10.9694
▁veden	-10.9698
ozi	-10.9704
▁souvislost	-10.9707
krás	-10.9709
▁zastoupen	-10.9713
▁stovk	-10.9714
▁fyzický	-10.9719
▁akademi	-10.9719
▁případný	-10.9721
▁8.	-10.9722
dová	-10.9723
čátkem	-10.9723
▁působil	-10.9725
▁neznámé	-10.9729
▁jednoznačn	-10.973
▁180	-10.9732
▁údaj	-10.9734
▁parku	-10.9734
ložili	-10.9735
spal	-10.9735
▁exportní	-10.9738
istický	-10.9742
▁koupi	-10.9742
▁kilometr	-10.9743
▁šestnáct	-10.9751
▁vlákn	-10.9751
▁umělé	-10.9753
▁rytm	-10.9754
▁Alexandr	-10.9755
▁Barceloně	-10.9755
▁Británii	-10.9755
▁Nejlepší	-10.9755
▁Portugalsk	-10.9755
▁březnu	-10.9755
▁cigaret	-10.9755
▁fázi	-10.9755
▁instalaci	-10.9755
▁normy	-10.9755
▁následek	-10.9755
▁podmínkou	-10.9755
▁populární	-10.9755
▁požádat	-10.9755
▁pravidlo	-10.9755
▁publikován	-10.9755
▁tlačítka	-10.9755
▁tlačítkem	-10.9755
▁týdně	-10.9755
▁umožnit	-10.9755
nápověd	-10.9755
▁Bělehrad	-10.9755
▁pomáhá	-10.9755
▁Organiza	-10.9755
▁Srbsk	-10.9755
▁déšť	-10.9755
▁kratší	-10.9755
▁vrstvy	-10.9755
▁ploše	-10.9755
▁naléhav	-10.9755
▁divize	-10.9755
▁těžce	-10.9755
▁chalup	-10.9755
▁Robert	-10.9755
▁Věřím	-10.9755
▁zajímat	-10.9755
▁Část	-10.9755
▁likvidaci	-10.9755
▁Soubor	-10.9755
▁značky	-10.9755
▁někoho	-10.9755
▁ocitl	-10.9755
▁příslušníci	-10.9755
▁pololetí	-10.9755
▁1996	-10.9755
▁1987	-10.9755
▁doposud	-10.9755
▁kvalifikace	-10.9755
▁Případ	-10.9756
▁pozdější	-10.9756
▁debat	-10.9756
▁nutný	-10.9756
▁komisi	-10.9756
▁Hodnot	-10.9756
▁ekonomice	-10.9756
▁historik	-10.9757
▁IFOR	-10.9757
▁klimatu	-10.9757
▁uvažovat	-10.9757
▁drog	-10.976
▁kraj	-10.9761
▁Generální	-10.9762
▁červenci	-10.9762
▁desky	-10.9763
▁multimediální	-10.9763
▁horách	-10.9764
▁právnických	-10.9765
hodnou	-10.9766
dejme	-10.9766
▁ukázat	-10.9768
▁rozbor	-10.9768
▁letiště	-10.9777
▁Novotná	-10.9777
▁vánoc	-10.9779
▁výstavbě	-10.978
▁myšlenka	-10.978
▁vzorky	-10.9781
▁cenách	-10.9782
▁ukáže	-10.9783
▁potvrzení	-10.9783
▁časopis	-10.9785
▁Znám	-10.9785
▁Často	-10.9785
▁75	-10.9786
▁pozorování	-10.9787
▁tvořen	-10.9787
▁implant	-10.9789
▁prodávající	-10.979
▁absolvoval	-10.9795
▁barvu	-10.9797
▁ohrožení	-10.9797
▁parametry	-10.9797
▁provozovatel	-10.9798
▁vozy	-10.9799
▁Atlanty	-10.9803
▁obvyklé	-10.9804
▁školení	-10.9805
▁školu	-10.9805
lezl	-10.9806
▁vyšel	-10.9807
▁úvodu	-10.9808
▁muzeum	-10.9809
▁JU	-10.9809
▁příspěvky	-10.982
▁Svazu	-10.9821
▁účelem	-10.9821
▁pojem	-10.9823
▁sektoru	-10.9823
▁mezinárodním	-10.9824
▁přírodovědecké	-10.9824
▁nahradit	-10.9824
lap	-10.9826
skými	-10.9829
▁očekávání	-10.9829
▁Slovensk	-10.983
▁chorvatské	-10.9831
▁vzrostl	-10.9834
pustili	-10.9838
▁%)	-10.9839
▁třetina	-10.9841
▁plynů	-10.9842
▁ekonomika	-10.9845
▁představitel	-10.985
▁společném	-10.9851
▁dvojí	-10.9858
jo	-10.9858
▁stupni	-10.9864
▁občansk	-10.9865
▁varianty	-10.9865
▁potenciální	-10.9867
▁určitém	-10.9869
cházející	-10.9873
▁průmyslov	-10.9874
▁španělské	-10.9874
▁srážky	-10.9875
▁řeky	-10.9875
▁jediného	-10.9876
▁vymezen	-10.9878
▁plynu	-10.9879
tických	-10.9881
▁obchodů	-10.9881
▁přenosov	-10.9883
▁ochotni	-10.9884
▁hovor	-10.9887
ánek	-10.989
▁Celk	-10.989
▁napsat	-10.9891
▁průzkumu	-10.9892
▁styku	-10.9893
▁cíli	-10.9896
▁studenti	-10.9896
▁ztrátu	-10.9896
▁příjemné	-10.9903
▁čt	-10.9904
hodné	-10.9905
vice	-10.9907
studoval	-10.9908
▁Velm	-10.9914
▁spokojeni	-10.9918
▁podílu	-10.9919
▁důchodové	-10.9923
▁Char	-10.9924
najdeme	-10.9927
zaměstnan	-10.9934
vesel	-10.9938
▁pořádá	-10.9939
ODA	-10.994
▁kup	-10.9941
▁výrazné	-10.9942
▁pobočk	-10.9945
▁Eva	-10.9946
▁hospodářský	-10.9952
▁masov	-10.9956
▁úrok	-10.9956
ativní	-10.9968
▁důsledně	-10.9972
▁založena	-10.9974
reform	-10.9977
▁nález	-10.9978
▁změnila	-10.9981
bíhají	-10.9985
▁elektron	-10.9993
▁specializované	-10.9993
▁jistot	-10.9996
▁nějakým	-10.9997
▁obrovsk	-10.9997
mět	-11.0001
▁působící	-11.0006
▁jih	-11.0007
▁hrála	-11.0011
▁záruk	-11.0012
▁chemick	-11.0013
▁propad	-11.002
▁bíl	-11.0021
▁Správ	-11.0022
▁hlubo	-11.0022
▁menším	-11.0023
▁kontrola	-11.0028
▁Britsk	-11.0033
letí	-11.0035
▁Jac	-11.0037
▁zjednoduš	-11.004
▁Společn	-11.0043
▁zájemců	-11.0045
měrně	-11.0047
▁skryt	-11.0048
▁Podnikatel	-11.0051
úpln	-11.0051
čela	-11.0052
▁Martina	-11.0054
nder	-11.006
▁společenský	-11.0064
▁2,	-11.0069
▁vedoucího	-11.0069
▁Nikd	-11.0086
líbil	-11.0086
▁jeví	-11.0095
▁dobrovoln	-11.0096
▁samé	-11.0103
▁49	-11.0107
jíždějí	-11.0115
▁telefonu	-11.0122
▁Ukrajiny	-11.0125
▁Zvláštní	-11.0125
▁akcionářů	-11.0125
▁církví	-11.0125
▁deficit	-11.0125
▁galerie	-11.0125
▁hřiště	-11.0125
▁náboženství	-11.0125
▁ovlivňuje	-11.0125
▁potrestán	-11.0125
▁priorit	-11.0125
▁páteční	-11.0125
▁upozorňuje	-11.0125
▁Chomutov	-11.0125
▁Koaliční	-11.0125
▁naznačil	-11.0125
▁orchestr	-11.0125
▁ovladač	-11.0125
▁šetření	-11.0125
▁IBM	-11.0125
▁burze	-11.0125
▁držitel	-11.0125
▁dveří	-11.0125
▁určuje	-11.0125
▁vrstev	-11.0125
▁enzym	-11.0125
▁oxidu	-11.0125
▁patrné	-11.0125
▁usilovat	-11.0125
▁podporou	-11.0125
▁produktivit	-11.0125
▁podnicích	-11.0125
▁pronájem	-11.0125
▁potíží	-11.0125
▁fáze	-11.0125
▁sdělovací	-11.0125
▁kritické	-11.0125
▁příliv	-11.0125
▁nedaleko	-11.0125
▁královn	-11.0125
▁vzestup	-11.0125
▁Word	-11.0125
▁filozofie	-11.0125
▁Tureck	-11.0125
▁naposledy	-11.0126
vázat	-11.0126
▁zámku	-11.0126
▁Formát	-11.0126
▁1997	-11.0126
▁hutní	-11.0126
▁svátky	-11.0126
▁integraci	-11.0126
▁těžb	-11.0126
▁myšlenkou	-11.0126
▁násilí	-11.0127
▁srdeční	-11.0127
▁slabší	-11.0127
▁obrázků	-11.0127
▁odhadnout	-11.0127
▁duše	-11.0128
▁manželství	-11.0128
▁přežití	-11.0128
▁šíření	-11.0128
▁myšlenku	-11.0128
▁Původně	-11.0128
▁Týr	-11.0129
▁sílu	-11.0129
▁nehodlá	-11.0129
▁vážný	-11.0129
▁uhlí	-11.0129
▁tratí	-11.013
▁obnovu	-11.013
▁nízko	-11.013
▁podnět	-11.0131
.12.	-11.0131
▁prosazovat	-11.0132
▁All	-11.0132
▁testování	-11.0132
▁pouště	-11.0133
▁znamenalo	-11.0133
▁strav	-11.0133
▁stanovit	-11.0133
hodlají	-11.0135
▁dlouhodobě	-11.0135
▁zdanění	-11.0136
▁sledování	-11.0137
▁Komis	-11.0138
▁registr	-11.0138
▁51	-11.0139
▁olej	-11.014
▁zákazníci	-11.0142
▁doporučení	-11.0143
▁posoudit	-11.0143
▁Nizozem	-11.0144
▁profil	-11.0146
▁soustředění	-11.0148
▁americkém	-11.0148
▁Labem	-11.0148
▁silnější	-11.015
▁platný	-11.0151
▁soust	-11.0152
▁poslání	-11.0153
▁doklad	-11.0156
▁Nejde	-11.0158
▁most	-11.016
▁tvrdě	-11.016
▁příslušníků	-11.0164
▁přístrojů	-11.0165
▁jádro	-11.0166
▁jezer	-11.017
kryl	-11.0171
▁úředníků	-11.0171
▁přinese	-11.0174
▁následky	-11.0178
dělování	-11.0178
▁úlohu	-11.0179
▁začínající	-11.0186
▁přehlídky	-11.0187
▁vládou	-11.0189
pisuje	-11.0192
▁moravsk	-11.0193
▁soudce	-11.0198
▁subjekt	-11.0201
▁25.	-11.0203
▁Naši	-11.0207
▁experti	-11.0208
▁zápisu	-11.0211
tika	-11.0214
padla	-11.0216
▁Mel	-11.0216
▁Hr	-11.0216
▁válka	-11.0216
▁jistotu	-11.0219
▁předpoklady	-11.0222
▁nájemní	-11.0224
▁Platí	-11.0226
▁zachoval	-11.0231
▁výbuchu	-11.0239
bylo	-11.0241
▁lidové	-11.0245
▁Svat	-11.0249
▁sbor	-11.0253
daly	-11.0254
▁Mc	-11.0257
nin	-11.0258
▁nasazení	-11.0262
▁týmem	-11.0263
▁technika	-11.0263
▁technického	-11.0264
▁Rozhod	-11.0264
enství	-11.0265
▁hotelů	-11.0266
soudil	-11.0267
▁italský	-11.0267
▁rusk	-11.0271
▁Či	-11.0279
ung	-11.0283
▁snahy	-11.0283
▁papírů	-11.0284
▁komor	-11.0286
části	-11.0287
▁ikon	-11.029
▁výběrové	-11.0291
▁světlo	-11.0291
▁ziskem	-11.0292
nechává	-11.0293
▁výstavu	-11.0293
▁cel	-11.0299
▁rozumí	-11.0304
▁Byli	-11.0304
rum	-11.0308
▁olympiád	-11.031
kupuje	-11.0311
▁21.	-11.0314
▁měnové	-11.0317
▁spory	-11.0317
korun	-11.0318
▁slovník	-11.0322
▁díly	-11.0327
▁fotbalu	-11.0329
▁náročné	-11.033
▁agentur	-11.0331
▁vrcholu	-11.0336
rám	-11.0337
▁nájem	-11.0339
▁desetin	-11.0347
▁sociálně	-11.0349
▁předvedl	-11.0349
▁dohodnut	-11.0352
▁doplň	-11.0352
dáme	-11.0353
▁zajímavost	-11.0358
▁Výhod	-11.0358
▁Františk	-11.0359
▁osobě	-11.0359
▁zákazu	-11.0363
▁nedělní	-11.0366
▁zaplatil	-11.0368
▁Malý	-11.038
▁chová	-11.0384
▁vzdálené	-11.0386
▁programem	-11.039
▁kulturních	-11.0392
▁typické	-11.0393
▁úz	-11.0396
▁odborn	-11.0396
ingu	-11.0403
▁připraveni	-11.0407
▁tráv	-11.0409
▁trvalo	-11.0413
▁nedovol	-11.0414
▁zaměstnanec	-11.0418
▁vysoko	-11.0419
▁kabinet	-11.0419
▁rozpor	-11.0426
▁zabývají	-11.0428
▁sortiment	-11.0428
▁poskytnut	-11.0433
▁srážk	-11.0435
▁Možnost	-11.0436
▁určena	-11.0443
▁snížen	-11.0443
ďte	-11.0446
▁procento	-11.0447
▁reagoval	-11.0448
▁trati	-11.0449
▁činitel	-11.0452
▁obrazovk	-11.0453
▁rozv	-11.0453
▁Les	-11.0459
jan	-11.046
▁okrese	-11.0468
▁Vítěz	-11.047
▁malého	-11.047
bíral	-11.0471
▁svěřen	-11.0473
▁daný	-11.0473
▁většího	-11.0475
▁vzhled	-11.0481
příč	-11.0483
▁absolvent	-11.0484
nili	-11.0484
▁červené	-11.0487
▁vstupní	-11.049
▁centrál	-11.0491
ŘÍ	-11.0504
▁specifik	-11.0504
▁architekt	-11.0505
▁66	-11.0506
▁návštěv	-11.0509
▁krátký	-11.0509
▁Rakušan	-11.051
▁dodatečně	-11.051
▁důležitá	-11.051
▁fotoaparát	-11.051
▁franků	-11.051
▁inspekce	-11.051
▁instalace	-11.051
▁majetkem	-11.051
▁nezměnil	-11.051
▁pohledávek	-11.051
▁redakce	-11.051
▁upozornit	-11.051
▁vyšetření	-11.051
▁Bejbl	-11.051
▁Thajsk	-11.051
▁Vedoucí	-11.051
▁konstrukce	-11.051
▁stupňů	-11.051
▁zoufal	-11.051
▁Temelín	-11.051
▁vyvinul	-11.051
▁pojmů	-11.051
▁zkratk	-11.051
▁Průměrn	-11.051
▁stovek	-11.051
▁DPH	-11.051
▁dvojnásobn	-11.051
▁přežít	-11.051
▁vojsk	-11.051
▁certifikát	-11.051
▁Sokol	-11.051
▁sehrál	-11.051
▁audio	-11.051
▁jedince	-11.051
▁ozdob	-11.051
▁uváděn	-11.051
▁Asociac	-11.051
▁chápat	-11.051
▁Řešení	-11.051
▁1984	-11.051
▁Prostě	-11.051
▁restaurace	-11.051
▁platební	-11.051
▁republiku	-11.051
▁kvalifikační	-11.051
▁sněhov	-11.051
▁1968	-11.0511
▁formální	-11.0511
▁nejmenší	-11.0511
▁1986	-11.0511
▁něčem	-11.0512
▁modem	-11.0512
▁poznatků	-11.0512
▁spolupracovat	-11.0513
▁nohy	-11.0513
▁složité	-11.0513
▁německá	-11.0513
▁III	-11.0513
▁3,5	-11.0514
▁května	-11.0515
▁nápis	-11.0515
nutit	-11.0516
▁ČZ	-11.0516
▁zlaté	-11.0516
▁Tedy	-11.0516
▁rychlejší	-11.0517
▁žáků	-11.0517
▁marně	-11.0517
▁Bill	-11.0518
▁pružn	-11.0518
▁podzemní	-11.0519
▁Sovětský	-11.0519
▁DEM	-11.0521
▁sláv	-11.0521
měnit	-11.0522
▁upravit	-11.0522
▁legislativní	-11.0523
▁nájemce	-11.0524
▁Potom	-11.0524
▁odstranění	-11.0525
▁užitek	-11.0526
▁volbami	-11.0527
▁našim	-11.0528
▁vyvolat	-11.053
▁Belgie	-11.053
▁rozložení	-11.0531
▁bilance	-11.0532
▁oznámení	-11.0534
▁ruku	-11.0534
eme	-11.0534
cházelo	-11.0535
▁manželka	-11.0536
▁Bre	-11.0539
▁tvor	-11.054
▁měny	-11.0541
▁Nejen	-11.0541
▁Jedná	-11.0543
▁Nejdřív	-11.0549
▁jevů	-11.055
▁elektřiny	-11.055
bran	-11.0551
▁osobností	-11.0553
▁hrubého	-11.0554
▁Lux	-11.0557
▁potřebu	-11.0557
▁poslanecké	-11.0558
▁týdeník	-11.056
▁vložit	-11.0561
▁mírový	-11.0562
▁ostrovy	-11.0564
▁Německem	-11.0566
▁Japonsku	-11.0567
kování	-11.0573
▁demokratů	-11.0574
ess	-11.0575
bývající	-11.0576
14	-11.0577
tisícov	-11.0579
▁koalici	-11.0581
▁linky	-11.0581
▁návštěvy	-11.0584
▁náhrad	-11.0584
▁kvalifikovan	-11.0584
vyšších	-11.0587
▁aktivita	-11.0587
▁stejná	-11.0589
▁vedlo	-11.0589
▁samotný	-11.059
▁bio	-11.0592
▁výstavbu	-11.0592
lské	-11.0594
▁bezprostřední	-11.0595
▁Výstava	-11.0598
▁oborů	-11.0598
IP	-11.06
▁polohy	-11.0603
▁Ros	-11.0604
▁základním	-11.0612
▁výběrem	-11.0617
hraje	-11.0617
▁pozván	-11.0618
▁iniciativ	-11.0618
tání	-11.0625
PS	-11.0631
▁monitoru	-11.0632
▁kapacity	-11.0633
ějších	-11.0637
tisknout	-11.0638
▁fotbalových	-11.0638
▁půdu	-11.064
▁velitel	-11.064
▁orgánu	-11.0644
▁primátora	-11.0645
▁konflikt	-11.0647
▁specializovan	-11.0649
ňovat	-11.065
▁oceánu	-11.0651
▁vůdce	-11.0652
▁obvodu	-11.0652
iletá	-11.0659
▁skutečností	-11.0662
▁evropského	-11.0666
▁skupinou	-11.0677
▁obdobné	-11.0683
▁chlad	-11.0687
ctví	-11.0693
▁dokumenty	-11.0695
▁zakladatel	-11.0695
nej	-11.0696
▁sportovních	-11.0697
▁700	-11.0702
▁Zda	-11.0704
svědčil	-11.0706
▁lék	-11.0722
▁šedesáti	-11.0733
▁Sol	-11.0735
▁císař	-11.0737
▁metru	-11.0738
cal	-11.0741
▁učí	-11.0741
▁historick	-11.0743
▁trvalé	-11.0744
▁plány	-11.0746
▁zdravotnický	-11.0746
ÁT	-11.0749
▁připustil	-11.0755
▁zvukové	-11.076
▁staví	-11.0763
konala	-11.0765
▁Rady	-11.0767
▁Jediný	-11.0768
▁zní	-11.0769
▁mez	-11.0769
▁hvězdy	-11.077
▁Norsk	-11.077
▁současném	-11.0773
▁of	-11.0777
▁Bro	-11.0781
▁Škod	-11.0784
▁rozvoji	-11.079
poslední	-11.0791
▁silnic	-11.0792
▁mořský	-11.0793
▁vyloučen	-11.0796
▁slab	-11.0804
▁stole	-11.0804
▁dolar	-11.0805
▁zdi	-11.0807
▁paliv	-11.0812
▁listy	-11.0816
▁alkohol	-11.0817
jte	-11.0817
▁zápis	-11.0819
▁Met	-11.0824
mořsk	-11.0825
▁původním	-11.0828
▁základy	-11.0828
▁dozvěděl	-11.0833
▁vyhlášk	-11.0835
▁beze	-11.0835
místě	-11.0835
▁podstatný	-11.0836
▁vzrůst	-11.0845
rážky	-11.0848
▁uvedeno	-11.0849
dají	-11.0852
hruba	-11.0858
▁vybírá	-11.0867
▁délk	-11.0867
▁malým	-11.0868
▁britsk	-11.0871
36	-11.0875
▁filozof	-11.088
▁189	-11.088
▁23.	-11.0883
▁motocykl	-11.0888
▁vzniknou	-11.0892
▁interpret	-11.0895
▁privatiz	-11.0905
▁zřetel	-11.0906
▁EuroTel	-11.091
▁domnívají	-11.091
▁energetik	-11.091
▁firmám	-11.091
▁hovořit	-11.091
▁komponent	-11.091
▁naštěstí	-11.091
▁nežádoucí	-11.091
▁ovlivňují	-11.091
▁označuje	-11.091
▁posuzovat	-11.091
▁převzít	-11.091
▁radikální	-11.091
▁zázemí	-11.091
▁Okresní	-11.091
▁brambor	-11.091
▁odlišný	-11.091
▁spoluhráč	-11.091
▁uplatnit	-11.091
▁Poborský	-11.091
▁Sociální	-11.091
▁efektivní	-11.091
▁kamarád	-11.091
▁nevědí	-11.091
▁Domácí	-11.091
▁připomínk	-11.091
▁redaktor	-11.091
▁viditeln	-11.091
▁záloh	-11.091
▁zásilk	-11.091
▁Musel	-11.091
▁učinit	-11.091
▁pokoušel	-11.091
▁sněžení	-11.091
▁nestačil	-11.091
▁nejrychlejší	-11.091
▁Šéf	-11.091
▁forem	-11.091
▁slyšet	-11.091
▁prodlení	-11.091
▁ztracen	-11.091
▁škál	-11.091
▁vracet	-11.091
▁dlouhodobý	-11.091
▁rysy	-11.091
▁Slavii	-11.091
▁stránek	-11.091
▁dubnu	-11.0911
▁obrazovce	-11.0911
žádají	-11.0911
▁podílejí	-11.0911
▁Grand	-11.0911
▁Objekt	-11.0911
▁přál	-11.0912
▁studií	-11.0912
▁občanství	-11.0912
▁souhrn	-11.0913
▁Vesel	-11.0913
▁přizpůsobit	-11.0915
▁dohad	-11.0915
▁obrázku	-11.0915
▁Slav	-11.0916
▁Číny	-11.0916
▁64	-11.0916
▁známe	-11.0916
▁zjistí	-11.0918
▁pracovnice	-11.0921
cky	-11.0921
▁Všechno	-11.0922
▁rejstříku	-11.0923
▁stavbu	-11.0924
▁dobách	-11.0927
▁fronty	-11.0927
▁demokraté	-11.0929
▁regulace	-11.0929
▁včerejším	-11.0929
▁podnikat	-11.0929
▁prodloužení	-11.0929
▁vezme	-11.0929
▁zvěř	-11.0929
▁připravena	-11.0929
▁převoz	-11.093
▁Druhou	-11.0931
▁osvobození	-11.0931
▁písemně	-11.0933
nových	-11.0937
▁Roman	-11.0937
▁zpěvák	-11.0939
US	-11.0939
▁Dohod	-11.094
▁znalostí	-11.094
▁Wimbledonu	-11.0942
▁klima	-11.0942
▁Zelen	-11.0943
▁kritéria	-11.0943
▁předmětů	-11.0946
▁summitu	-11.0946
▁Nor	-11.0948
▁orientaci	-11.0949
▁každodenní	-11.0949
▁vím	-11.0951
▁zbrojní	-11.0952
▁nemovitosti	-11.0952
▁ukládání	-11.0954
ňují	-11.0955
▁předal	-11.0956
▁výjimky	-11.0958
▁teplotě	-11.0959
▁minuty	-11.0962
▁Kalvoda	-11.0965
▁přítel	-11.0967
▁plyne	-11.0969
▁Pen	-11.0973
▁obchodníci	-11.0974
▁předměty	-11.0974
▁ztrátou	-11.0974
zanedbateln	-11.0977
▁tvaru	-11.0978
▁živnost	-11.0978
ávali	-11.0979
skému	-11.0986
▁dávk	-11.0987
▁jednalo	-11.0988
▁módní	-11.099
▁úplné	-11.0993
cími	-11.0994
▁Pražského	-11.0995
▁resortu	-11.0997
▁snažili	-11.0999
▁vůz	-11.1001
▁náhradu	-11.1003
▁bolest	-11.1004
▁smích	-11.101
▁sboru	-11.1011
▁Dán	-11.1016
▁celkovém	-11.1019
▁sjezdu	-11.1019
▁poslal	-11.1019
▁KON	-11.1019
▁zvuku	-11.1022
▁překvapil	-11.1024
▁divu	-11.1024
▁Boj	-11.1025
ues	-11.1026
riti	-11.1035
▁světla	-11.1038
▁chci	-11.1041
▁zrušen	-11.1043
novými	-11.1044
pořád	-11.1047
iček	-11.1051
▁Michaela	-11.1055
▁známých	-11.1057
▁vyhlídk	-11.1058
▁sestavení	-11.1063
▁německém	-11.1064
▁mapy	-11.1064
▁návštěva	-11.1065
▁olympijsk	-11.1066
▁příspěvk	-11.1067
▁odbory	-11.1072
▁kandidáty	-11.1072
▁důkazy	-11.1072
splnění	-11.1074
▁domluv	-11.108
▁vyhlášen	-11.1081
▁planety	-11.1081
▁elektro	-11.1082
▁13.	-11.1084
▁konto	-11.1084
▁Fotbal	-11.1085
▁charakteru	-11.1086
sion	-11.1086
▁bojů	-11.1089
▁některý	-11.109
▁věty	-11.1093
CA	-11.1095
▁Bílé	-11.1096
▁úspory	-11.1097
▁úkoly	-11.1099
▁samot	-11.11
▁předchozích	-11.1102
▁analýz	-11.1103
▁Ostravar	-11.1105
tle	-11.1108
stávat	-11.1109
▁hráli	-11.1112
▁pru	-11.1115
▁Čechů	-11.1123
▁špičkové	-11.1129
▁představil	-11.1137
▁maďarský	-11.114
▁tip	-11.114
histor	-11.1141
▁provede	-11.1143
▁uměle	-11.1146
ptal	-11.1158
▁rud	-11.1163
▁prvé	-11.1165
▁přiměřen	-11.1167
▁evropském	-11.1174
▁Sovětském	-11.1176
▁účastník	-11.1179
IST	-11.1181
▁Die	-11.1181
ork	-11.1183
ámek	-11.1188
jdu	-11.1197
vládne	-11.12
▁textové	-11.1201
▁investorů	-11.1204
▁koalic	-11.1207
▁sedí	-11.1208
▁drah	-11.1208
▁metra	-11.1213
čovat	-11.1215
▁okolnost	-11.1215
▁Svobod	-11.122
▁uvede	-11.1223
▁obyvatele	-11.1225
končit	-11.1225
▁nekonečn	-11.1226
▁modern	-11.1226
▁vstoupit	-11.1228
▁uplynulý	-11.1233
▁typický	-11.1233
▁magistrát	-11.1234
▁plic	-11.1239
▁Dal	-11.124
▁naším	-11.1243
psaný	-11.1243
▁mód	-11.1244
▁řízen	-11.1248
▁výkonů	-11.126
▁Ter	-11.126
▁Pražský	-11.126
26	-11.1261
▁volejbal	-11.1263
▁osvět	-11.1268
▁podílí	-11.1273
▁uživatelů	-11.1277
▁skládá	-11.1278
▁kontakt	-11.128
▁nedal	-11.1289
▁pracovníka	-11.1293
▁mechanismu	-11.1294
▁objektiv	-11.1299
lární	-11.1299
▁autora	-11.1302
▁závodní	-11.1307
▁komunisti	-11.1309
šetřit	-11.131
ěsíční	-11.1311
▁oleje	-11.1312
▁distribu	-11.1312
▁staro	-11.1316
▁společník	-11.1316
OST	-11.1319
▁sklo	-11.1322
ečná	-11.1323
▁Bank	-11.1324
▁statut	-11.1326
ografie	-11.1326
mýšlí	-11.1326
▁CADKON	-11.1326
▁Finanční	-11.1326
▁Intergraph	-11.1326
▁Lebeď	-11.1326
▁Pithart	-11.1326
▁Srbů	-11.1326
▁Zjuganov	-11.1326
▁asistent	-11.1326
▁bližší	-11.1326
▁církvi	-11.1326
▁dědictví	-11.1326
▁fenomén	-11.1326
▁jazz	-11.1326
▁komunální	-11.1326
▁konferencí	-11.1326
▁nejstarší	-11.1326
▁nepřetržit	-11.1326
▁neschopnost	-11.1326
▁nábytku	-11.1326
▁nárůst	-11.1326
▁odmítají	-11.1326
▁odpovědí	-11.1326
▁otevírá	-11.1326
▁ovlivněn	-11.1326
▁reagovat	-11.1326
▁schůzi	-11.1326
▁softwaru	-11.1326
▁strategii	-11.1326
▁technologii	-11.1326
▁triumf	-11.1326
▁ukazatel	-11.1326
▁uzavírá	-11.1326
▁vytvářejí	-11.1326
▁vyznačuj	-11.1326
▁zpátky	-11.1326
▁zálivu	-11.1326
▁říjnu	-11.1326
▁žádoucí	-11.1326
▁atentát	-11.1326
▁dovednost	-11.1326
▁Mazda	-11.1326
▁nezaměstnaných	-11.1326
▁splatnosti	-11.1326
▁nízká	-11.1326
▁podpoře	-11.1326
▁zpomal	-11.1326
▁vyvinut	-11.1326
▁dokáží	-11.1326
▁Vídni	-11.1326
▁splnit	-11.1326
▁zůstanou	-11.1327
▁Mencl	-11.1327
▁navrhnout	-11.1327
▁zazněl	-11.1327
▁náprav	-11.1327
▁diagram	-11.1327
▁kombinaci	-11.1327
▁stůl	-11.1327
▁Praktick	-11.1327
▁zvolit	-11.1327
▁maximum	-11.1327
▁rozsáhlý	-11.1327
▁Andre	-11.1327
▁Mimo	-11.1327
▁přednášk	-11.1327
▁zařadil	-11.1327
▁komunikaci	-11.1327
▁Charles	-11.1327
▁kondom	-11.1327
▁trpí	-11.1327
▁vrchní	-11.1328
▁Nabídk	-11.1328
▁ligové	-11.1328
▁Sedm	-11.1328
▁délce	-11.1328
kryje	-11.1328
▁nastat	-11.1329
jíždí	-11.1329
▁okresů	-11.133
Ile	-11.133
▁zahrnut	-11.133
▁šestnácti	-11.1331
▁bance	-11.1331
▁podmíněn	-11.1331
charakterizuj	-11.1331
▁simul	-11.1331
▁otec	-11.1331
▁objeven	-11.1332
▁interval	-11.1332
▁kreslení	-11.1332
▁nejvýše	-11.1333
▁jmenuje	-11.1333
▁vyrovnal	-11.1333
biologie	-11.1334
▁Stručně	-11.1335
▁Polsko	-11.1336
▁živočichů	-11.1337
▁blesk	-11.1337
▁ponechat	-11.1338
▁pohybovat	-11.1339
▁kilogramů	-11.1341
▁obchodování	-11.1342
▁odejít	-11.1342
▁symbolick	-11.1343
▁mrav	-11.1344
▁respektovat	-11.1344
blok	-11.1346
,7	-11.1347
▁dočasně	-11.1349
▁plát	-11.1352
▁Brazílie	-11.1352
schválila	-11.1352
▁fotbalov	-11.1353
oprvé	-11.1354
▁postižených	-11.1355
▁energetické	-11.1357
▁květin	-11.1358
▁pádu	-11.1361
▁jistou	-11.1362
▁potřebujeme	-11.1364
▁zakázky	-11.1364
▁dokončení	-11.1364
▁poskytování	-11.1365
▁Postup	-11.1367
▁Chci	-11.1368
▁Vstup	-11.1369
▁jezdil	-11.137
▁padesátých	-11.137
▁Jedn	-11.1371
▁vkladů	-11.1373
▁zastavení	-11.1374
EK	-11.1375
▁kontrole	-11.1377
▁vyhlášení	-11.1378
▁zaplacení	-11.138
▁jevy	-11.138
být	-11.1381
▁Ján	-11.1382
▁předcházel	-11.1384
▁účinnosti	-11.1387
▁uložit	-11.1391
▁kongresu	-11.1392
▁vámi	-11.1392
▁Kniha	-11.1394
▁vozidla	-11.1394
▁projeví	-11.1394
▁Kan	-11.1397
mus	-11.1398
losování	-11.1398
kání	-11.1398
▁schématu	-11.1401
▁resort	-11.1401
ica	-11.1401
▁chodb	-11.1402
plnění	-11.1404
▁integr	-11.1405
▁velkém	-11.1405
▁katolické	-11.1409
▁valné	-11.141
▁KB	-11.141
▁vaku	-11.1412
:3	-11.1412
▁probíhal	-11.1414
▁představoval	-11.1414
▁titulů	-11.1417
▁míra	-11.1418
▁zaměřen	-11.142
▁Spor	-11.1426
▁specifické	-11.1434
▁sezón	-11.1434
▁listů	-11.1435
stupující	-11.1435
▁nepříjemn	-11.1441
▁lidu	-11.1441
▁posil	-11.1442
▁statistické	-11.1445
▁nemocný	-11.1447
▁niž	-11.1449
▁obtížně	-11.145
▁pes	-11.145
▁služební	-11.1451
▁hale	-11.1454
hodit	-11.1455
▁jasný	-11.1455
▁předpokladu	-11.1461
▁nápady	-11.1461
▁testy	-11.1463
▁řešením	-11.1465
ED	-11.147
▁rodinu	-11.1474
▁přijímá	-11.1481
▁brankáře	-11.1483
▁Jistě	-11.1484
▁hrd	-11.1488
svědčení	-11.149
▁určení	-11.149
▁vzá	-11.1495
ker	-11.1498
▁růstem	-11.1498
lic	-11.1499
▁tváří	-11.1501
▁sousedů	-11.1502
▁britský	-11.1506
▁čtenáři	-11.1507
▁dokázali	-11.1517
▁společných	-11.1519
▁reprezentanti	-11.1521
▁zabývající	-11.1523
lidov	-11.1527
▁odpovídal	-11.1529
▁jedenácti	-11.1532
▁objevily	-11.1536
▁Mír	-11.1537
▁šla	-11.154
▁přijala	-11.1542
▁neměly	-11.1544
▁stejných	-11.1544
▁hotely	-11.1545
▁Stal	-11.1551
pochyby	-11.1554
▁zvýšila	-11.1561
levo	-11.1561
▁konve	-11.1563
▁Prvním	-11.1565
▁divák	-11.1571
▁osudu	-11.1574
▁přidal	-11.1576
▁figur	-11.1577
▁dodavatele	-11.1577
▁odmítli	-11.1578
▁spotřebitele	-11.1579
▁En	-11.1584
▁astronomi	-11.1584
▁nazýva	-11.1586
▁vznikající	-11.1586
▁schéma	-11.1589
▁zajímavý	-11.1591
▁úvah	-11.1595
▁klíče	-11.1604
▁IV	-11.1604
▁snaz	-11.1605
▁zeměmi	-11.1606
▁190	-11.1609
▁vědu	-11.1609
čkách	-11.161
▁zahájen	-11.1616
▁expert	-11.162
▁jazyka	-11.1621
▁Johna	-11.1621
▁vázán	-11.1622
▁stán	-11.1625
stavení	-11.1628
Gar	-11.1632
▁sedmnáct	-11.1634
▁zvířata	-11.1635
▁Než	-11.1637
Severoatlantické	-11.1638
▁1994.	-11.164
▁stála	-11.1641
98	-11.1642
OP	-11.1643
▁Paříž	-11.1643
▁našli	-11.1646
▁Dan	-11.1648
lci	-11.1657
▁ÚV	-11.1659
▁Pozor	-11.1661
▁znak	-11.1667
▁dramatick	-11.1668
▁měřítk	-11.167
▁vládních	-11.167
▁katolick	-11.1675
následuj	-11.1677
▁dres	-11.1682
▁pravidelné	-11.1683
▁nevěděl	-11.1684
▁novinářů	-11.1685
▁dividend	-11.1686
iner	-11.1686
kupovat	-11.1687
JE	-11.1688
soci	-11.1689
▁požadovaný	-11.1698
▁konkrétním	-11.1699
▁zvukov	-11.1701
▁Har	-11.1703
▁získává	-11.1706
vádět	-11.1713
▁prováděn	-11.1713
21	-11.1716
▁Zemana	-11.1716
▁hráčem	-11.1716
▁Mac	-11.1719
▁pokusy	-11.1723
▁zkušen	-11.1727
▁obsluh	-11.1729
▁pracující	-11.1734
▁císaře	-11.1737
▁Invest	-11.1739
jov	-11.1739
▁podnikatelsk	-11.1741
ební	-11.1743
může	-11.1744
▁návrhů	-11.1745
▁SV	-11.1746
příkladu	-11.1747
zapomněl	-11.1747
▁dosti	-11.1748
▁nemám	-11.1748
▁duch	-11.175
▁nižších	-11.1755
▁větr	-11.1757
▁říkají	-11.1758
▁pozdě	-11.1758
▁nesmysl	-11.176
▁nejmodernější	-11.1761
dostatečnou	-11.1761
střílel	-11.1761
▁Bratislava	-11.1761
▁Demokratick	-11.1761
▁Majitel	-11.1761
▁Ostatní	-11.1761
▁Počítač	-11.1761
▁Tigrid	-11.1761
▁cizince	-11.1761
▁galerii	-11.1761
▁hlubší	-11.1761
▁kompetence	-11.1761
▁konstatuje	-11.1761
▁literární	-11.1761
▁metropole	-11.1761
▁nejznámější	-11.1761
▁nominální	-11.1761
▁podpořit	-11.1761
▁polojasno	-11.1761
▁požadovat	-11.1761
▁semifinále	-11.1761
▁složek	-11.1761
▁strategií	-11.1761
▁udržuje	-11.1761
▁vojáci	-11.1761
▁zveřejnil	-11.1761
▁šablon	-11.1761
▁žadatel	-11.1761
▁Nedvěd	-11.1761
▁charakteristik	-11.1761
▁hypotéz	-11.1761
▁kodex	-11.1761
▁požadoval	-11.1761
▁vyhovuje	-11.1761
▁Dříve	-11.1761
▁byznys	-11.1761
▁divadle	-11.1761
▁otevřít	-11.1761
▁stránky	-11.1761
▁vystřídal	-11.1761
▁údolí	-11.1761
▁nevidí	-11.1761
▁patřičn	-11.1761
▁nízký	-11.1761
▁počínaj	-11.1761
▁čtvrteční	-11.1761
▁rytíř	-11.1761
▁Městsk	-11.1761
▁poplatek	-11.1761
▁doporučil	-11.1761
▁představenstva	-11.1761
▁vyrovnat	-11.1761
▁Jugoslávie	-11.1761
chlazení	-11.1761
▁podobná	-11.1761
▁stoupá	-11.1761
▁Komerčn	-11.1761
▁NDR	-11.1761
▁Prodej	-11.1761
▁štáb	-11.1761
▁nejhorší	-11.1762
▁potravinářské	-11.1762
▁fotografie	-11.1762
▁počkat	-11.1762
▁nátlak	-11.1762
povídat	-11.1762
▁přijme	-11.1762
▁nápoj	-11.1762
▁Maďarsku	-11.1762
▁ničem	-11.1762
▁generací	-11.1762
▁zaručen	-11.1762
▁reaktor	-11.1762
▁malíř	-11.1762
▁ekonomická	-11.1762
▁bohatství	-11.1763
▁každým	-11.1763
▁radnici	-11.1763
▁Začal	-11.1763
▁Marie	-11.1763
▁divok	-11.1764
celku	-11.1764
▁vstupenk	-11.1764
▁logické	-11.1764
▁lodi	-11.1764
▁neděle	-11.1764
▁jezdit	-11.1764
▁dozor	-11.1764
▁vyhnout	-11.1764
▁Ruml	-11.1764
▁Uveden	-11.1765
šování	-11.1765
▁nedostatku	-11.1766
▁obřad	-11.1767
▁dešti	-11.1767
▁peset	-11.1767
znamená	-11.1767
▁Africe	-11.1769
▁cement	-11.177
▁odvet	-11.177
▁bojovn	-11.177
▁uvědomit	-11.1771
▁položky	-11.1771
díval	-11.1771
▁okresy	-11.1771
▁předcházející	-11.1773
▁závazky	-11.1773
▁oborech	-11.1773
▁novinách	-11.1773
▁prodejny	-11.1773
▁změnám	-11.1774
▁podílet	-11.1774
▁kvalitou	-11.1776
▁přelom	-11.1776
▁verzí	-11.1777
▁tabulka	-11.1777
▁zlatý	-11.1778
▁centimetrů	-11.1778
▁krut	-11.1781
▁spravedliv	-11.1781
▁nemovitostí	-11.1782
▁překvapivě	-11.1782
padesát	-11.1783
▁armádě	-11.1783
▁dodržování	-11.1784
▁Žid	-11.1784
▁zvaný	-11.1784
▁fotbalisté	-11.1784
▁složitý	-11.1786
▁odvod	-11.1786
▁psa	-11.1786
▁ukládá	-11.1786
▁správce	-11.1787
▁oddíl	-11.1792
▁mládeže	-11.1792
▁plánování	-11.1792
▁seriálu	-11.1792
▁uvádějí	-11.1792
▁prožil	-11.1794
visí	-11.1796
▁procesoru	-11.1798
▁tiskov	-11.1799
▁ocenění	-11.18
▁Dopravní	-11.18
▁průběžn	-11.1801
▁výměnu	-11.1802
▁referendum	-11.1803
▁skalní	-11.1804
▁úzk	-11.1807
▁vyjde	-11.1808
▁zkušební	-11.1808
▁Excelu	-11.1809
▁tvarů	-11.1809
▁šed	-11.1809
▁pedagog	-11.1811
▁trenérů	-11.1812
▁propojení	-11.1812
▁přidat	-11.1813
▁zdravotním	-11.1814
▁členům	-11.1814
▁52	-11.1816
▁návštěvnost	-11.1816
▁hmotnosti	-11.1816
▁předchozím	-11.1817
▁Volb	-11.1827
ručí	-11.1827
▁vedoucích	-11.1829
▁vozu	-11.1829
▁přijatelné	-11.1833
▁řekne	-11.1833
▁budově	-11.1835
▁psychiatr	-11.1836
▁zubní	-11.1843
▁stadiónu	-11.185
▁lesa	-11.1852
▁obecný	-11.1855
▁hrou	-11.1857
▁Brod	-11.1857
▁energetický	-11.1857
▁materiálem	-11.1858
kého	-11.1858
▁novely	-11.1858
▁dolů	-11.1859
▁magistrátu	-11.1859
▁hostitel	-11.1861
▁evropským	-11.1871
▁zřízení	-11.1875
hrává	-11.1875
▁Host	-11.1877
▁Potřebuje	-11.1878
loni	-11.188
▁Budou	-11.188
LOV	-11.188
▁menu	-11.1881
DI	-11.1884
▁vloni	-11.1885
▁celostátní	-11.1889
▁západním	-11.1889
▁krokem	-11.1891
▁narazil	-11.1896
▁loňsk	-11.1897
▁dav	-11.19
▁obchodníků	-11.1902
▁podzimní	-11.1903
▁čínský	-11.1903
▁5000	-11.1904
▁pout	-11.1905
usi	-11.1906
▁stávající	-11.1906
▁zdát	-11.1907
▁odpovědnosti	-11.1908
▁zvon	-11.1913
▁známá	-11.1914
▁jugoslávské	-11.1914
▁básník	-11.1914
▁projevy	-11.1918
▁starého	-11.1923
▁klíčový	-11.1924
▁ekologický	-11.1926
▁rozpočtové	-11.1927
▁strávil	-11.1927
▁premiéru	-11.1929
▁vytvořila	-11.1929
▁tvůrc	-11.193
▁zvýšily	-11.193
▁studenty	-11.1932
▁ranní	-11.1933
vlastn	-11.1934
▁záměry	-11.1935
▁výhodu	-11.1936
kraji	-11.194
ČNÍ	-11.1942
DOS	-11.1942
▁sál	-11.1948
▁Karlov	-11.1953
▁bit	-11.1954
míněn	-11.196
▁barva	-11.1961
▁úpravu	-11.1961
▁přírodního	-11.1961
▁muselo	-11.1964
wan	-11.1969
▁aktivitu	-11.1972
▁černý	-11.1974
▁ředitelem	-11.1977
plynul	-11.198
▁snadné	-11.1984
▁objevili	-11.1985
▁komu	-11.1987
▁sestavy	-11.1989
▁jakož	-11.1995
munist	-11.1995
přijeli	-11.1997
▁překvap	-11.2001
SP	-11.2005
▁dodá	-11.2006
▁doplňk	-11.2006
▁procesy	-11.2013
▁scén	-11.2015
▁volí	-11.2025
▁plocha	-11.2025
▁výstavb	-11.2026
▁28.	-11.2029
otisk	-11.203
▁přehledu	-11.203
▁závody	-11.2032
SM	-11.2032
▁Spart	-11.2035
platí	-11.2037
▁43	-11.2044
▁stimul	-11.2048
▁syna	-11.205
▁krále	-11.205
zývají	-11.2055
▁měří	-11.2058
ářství	-11.2067
▁přesvědčiv	-11.2067
▁přesvědč	-11.2072
▁zmíněn	-11.2075
▁významným	-11.2077
▁světeln	-11.2078
▁Nizozemsk	-11.2079
▁konkrétních	-11.208
▁výtvarné	-11.2085
ložený	-11.209
▁nebezpečný	-11.2098
▁vystupuj	-11.2107
▁znalost	-11.2109
90	-11.211
▁horské	-11.211
▁jednáních	-11.2117
▁260	-11.212
▁údržb	-11.2123
PT	-11.2123
▁stadión	-11.2123
▁okruh	-11.2124
▁vyskytují	-11.2124
▁Ir	-11.2126
▁setká	-11.213
▁zkresl	-11.2131
▁zub	-11.2135
▁jest	-11.2137
▁kroku	-11.2137
▁ZÁ	-11.2139
▁přehlídk	-11.2141
▁fyzika	-11.2142
▁rozhodnutím	-11.2145
▁světov	-11.2148
▁optim	-11.2152
pořádat	-11.2154
čnost	-11.2157
tp	-11.2158
hrají	-11.216
▁volebním	-11.2161
polí	-11.2161
▁Win	-11.2162
▁dřev	-11.2169
▁rozpad	-11.217
▁Rok	-11.2175
ván	-11.2175
▁stíhán	-11.2175
▁obrazy	-11.2175
▁doplněn	-11.2181
▁zpěv	-11.2182
▁pozic	-11.2184
▁člověku	-11.2184
dni	-11.2184
▁převážn	-11.2186
řev	-11.2186
▁úředník	-11.2187
jmenovaný	-11.2188
▁kupon	-11.2188
▁grafik	-11.2191
▁stín	-11.2192
▁přesahuj	-11.2193
▁99	-11.2194
slyš	-11.2194
▁datové	-11.2195
▁rozumn	-11.2197
▁Mečiar	-11.2198
važoval	-11.2204
▁prodejem	-11.2204
▁interak	-11.2205
▁dopise	-11.2206
▁velkoobchod	-11.2206
ěné	-11.2213
▁stě	-11.2214
▁neumí	-11.2215
▁uprchl	-11.2216
FIFA	-11.2216
▁1982	-11.2216
▁Dienstbier	-11.2216
▁Dosavadní	-11.2216
▁Fischer	-11.2216
▁Kongres	-11.2216
▁Siemens	-11.2216
▁Skupina	-11.2216
▁Těžko	-11.2216
▁biskup	-11.2216
▁byrokrat	-11.2216
▁design	-11.2216
▁družstvo	-11.2216
▁družstvu	-11.2216
▁geometrii	-11.2216
▁inflaci	-11.2216
▁naznačuje	-11.2216
▁neuspěl	-11.2216
▁normálně	-11.2216
▁označován	-11.2216
▁regenerace	-11.2216
▁rekonstrukce	-11.2216
▁rozšiřuje	-11.2216
▁rámečku	-11.2216
▁seznámit	-11.2216
▁skupenství	-11.2216
▁službě	-11.2216
▁strategické	-11.2216
▁transformační	-11.2216
▁zúčastnit	-11.2216
▁Červen	-11.2216
▁Štědrý	-11.2216
připravoval	-11.2216
▁Manažer	-11.2216
▁Poldi	-11.2216
▁dodávek	-11.2216
▁konstrukcí	-11.2216
▁neomezen	-11.2216
▁přiznává	-11.2216
▁shodují	-11.2216
▁stránku	-11.2216
▁čistíren	-11.2216
▁Náklady	-11.2216
▁informován	-11.2216
▁vstupenek	-11.2216
▁Armád	-11.2216
▁posléze	-11.2216
▁velvyslanectví	-11.2216
▁vládnoucí	-11.2216
▁zákrok	-11.2216
▁usiluje	-11.2216
▁uznat	-11.2216
▁vazeb	-11.2216
▁nabídkou	-11.2216
▁skromn	-11.2216
▁zastánc	-11.2216
▁žádat	-11.2216
▁Bavor	-11.2216
▁udržova	-11.2216
▁jindy	-11.2216
▁Manžel	-11.2216
▁vazba	-11.2216
▁Varech	-11.2216
▁leckd	-11.2216
▁hrůz	-11.2216
▁Dušan	-11.2216
▁multi	-11.2216
▁tribunál	-11.2216
▁Rychl	-11.2216
▁náhlé	-11.2216
▁spoléha	-11.2216
▁salát	-11.2216
▁Projekt	-11.2216
▁nepotřebuje	-11.2216
▁Slavia	-11.2217
▁nesporn	-11.2217
▁duševní	-11.2217
▁směřuje	-11.2217
látka	-11.2217
▁Oprav	-11.2217
▁regulační	-11.2217
▁rozmístěn	-11.2217
▁Mor	-11.2217
▁Rozhodnutí	-11.2217
▁chuť	-11.2217
▁integrace	-11.2217
krácen	-11.2217
▁chaos	-11.2217
▁kated	-11.2218
střelen	-11.2218
▁ohně	-11.2218
▁podrobnosti	-11.2218
▁nejsem	-11.2218
▁přejít	-11.2218
▁jist	-11.2219
▁Aleš	-11.2219
▁Závod	-11.222
▁Bělohradský	-11.222
blížení	-11.2221
ckner	-11.2221
▁tmav	-11.2221
▁turné	-11.2221
▁Mé	-11.2221
▁nedošlo	-11.2222
▁nezákonn	-11.2222
▁napaden	-11.2222
allye	-11.2223
▁kontrolovat	-11.2223
▁svatb	-11.2224
▁strop	-11.2225
▁Milán	-11.2226
▁památek	-11.2226
▁slunce	-11.2226
▁atmosféra	-11.2227
objednáv	-11.2228
▁Nadace	-11.2228
▁středisko	-11.2228
▁faktory	-11.2228
Přerov	-11.2229
ejít	-11.2229
▁zajistí	-11.223
▁texty	-11.2231
▁sedimentů	-11.2233
▁souhlasit	-11.2233
▁kůže	-11.2233
▁kdykoliv	-11.2235
▁šedesátých	-11.2235
▁pravděpodobné	-11.2238
▁sedmdesátých	-11.2238
▁zaslouží	-11.2239
▁upozornění	-11.2239
off	-11.224
▁Kolek	-11.224
▁Krát	-11.224
▁plná	-11.224
▁matematick	-11.2241
▁garant	-11.2243
▁trvající	-11.2243
▁středisku	-11.2244
▁pěkně	-11.2245
▁zbytky	-11.2246
▁matka	-11.2249
▁Své	-11.225
▁dokázat	-11.2251
▁olympiádě	-11.2252
▁zveřejnění	-11.2253
tažení	-11.2255
▁dostaneme	-11.2255
▁Los	-11.2257
▁kouř	-11.226
kurzor	-11.2261
tratil	-11.2264
▁zatčen	-11.2264
▁polské	-11.2265
▁Váš	-11.2269
těsn	-11.2269
▁značná	-11.227
▁moři	-11.2271
▁násiln	-11.2272
▁univerzitě	-11.2272
▁uživatelé	-11.2272
45	-11.2274
▁Děl	-11.2274
▁luxusní	-11.2274
▁druhému	-11.2276
▁interní	-11.2279
▁spotřebu	-11.228
▁závažný	-11.2281
▁sféry	-11.2284
▁armádu	-11.2285
▁literatury	-11.2287
stanou	-11.2287
▁švédské	-11.2287
▁závažné	-11.2288
▁postupovat	-11.2288
ER	-11.2289
▁dotazník	-11.229
▁mise	-11.229
▁magnet	-11.2295
▁dividendy	-11.2295
▁tlakem	-11.2295
▁37	-11.2296
▁fotbalista	-11.2297
▁rozhovorů	-11.2299
▁zničení	-11.2299
▁zuby	-11.2299
▁spojit	-11.23
▁nešlo	-11.23
▁spojů	-11.23
▁Las	-11.2302
stupovat	-11.2302
▁slibuje	-11.2304
▁metodou	-11.2305
▁jednal	-11.2305
▁olympiády	-11.2307
▁senátní	-11.2308
sin	-11.2308
▁psycholog	-11.2309
▁doklady	-11.2309
▁záruky	-11.231
▁zásadě	-11.231
▁způsobů	-11.2311
hodinové	-11.2317
▁příspěvku	-11.232
▁činů	-11.232
▁automat	-11.2321
nický	-11.2322
▁Car	-11.2322
▁alkoholu	-11.2322
▁nutnosti	-11.2325
▁prohlídk	-11.2325
▁mateřské	-11.2328
▁zodpovědnost	-11.2329
večer	-11.233
▁ducha	-11.2332
▁Bulharsk	-11.2335
▁Asie	-11.2338
▁Fotbalist	-11.234
potřebě	-11.234
DU	-11.2341
▁argumenty	-11.2341
ovaném	-11.2342
▁silným	-11.2342
▁skvěl	-11.2343
▁Dub	-11.2343
▁Změny	-11.2343
▁Výrob	-11.2344
▁popisuje	-11.2345
▁přirozený	-11.2346
například	-11.2346
▁Lékaři	-11.2347
▁výstavní	-11.2351
▁městského	-11.2351
▁samy	-11.2354
▁úspěchem	-11.2354
▁obory	-11.2354
▁pacienti	-11.2354
ňující	-11.236
▁zprávě	-11.2366
▁pojistného	-11.2367
▁Con	-11.2368
▁sluch	-11.2368
▁smluv	-11.2369
▁spojuje	-11.2371
▁stopy	-11.2371
▁prohráli	-11.2372
▁automobilový	-11.2372
▁klienty	-11.2374
▁kout	-11.2375
biologick	-11.2375
▁přím	-11.238
▁příslušného	-11.2383
▁nastala	-11.2384
▁závěrečném	-11.2384
▁fakta	-11.2385
▁Konce	-11.239
▁top	-11.2396
▁nějakém	-11.2397
93	-11.2397
▁daních	-11.2399
▁výnosy	-11.24
kreslen	-11.2401
▁poradensk	-11.2402
schopné	-11.2404
▁republikou	-11.2408
▁mak	-11.2408
▁Tisk	-11.2416
FS	-11.2418
▁podepsali	-11.2419
▁minutě	-11.243
▁slovem	-11.2432
▁hromad	-11.2434
▁propag	-11.2442
▁zahájením	-11.2444
▁pokryt	-11.2445
▁proudu	-11.2445
▁tělesné	-11.2448
▁Žádn	-11.2448
▁působ	-11.2459
▁množstvím	-11.2459
▁manažerské	-11.246
▁předmět	-11.2461
▁hračk	-11.2466
▁popř	-11.2467
▁pouč	-11.2468
zatím	-11.2468
▁přizpůsob	-11.247
▁Poslanec	-11.2472
▁získaný	-11.2473
kově	-11.2474
▁přípravu	-11.2476
▁ekonomického	-11.2481
▁způsoben	-11.2484
pravují	-11.2488
▁Vod	-11.2489
▁koordin	-11.2489
▁kg	-11.249
▁návrhem	-11.2492
teče	-11.2498
▁brněnsk	-11.2498
▁počátk	-11.2502
stop	-11.2503
▁had	-11.2508
▁Nemoh	-11.2509
víme	-11.2509
▁mozkov	-11.2517
▁závodník	-11.2524
▁klíčové	-11.2525
danou	-11.2529
▁krátk	-11.2534
▁závazn	-11.2539
▁úspěchy	-11.254
▁registrac	-11.2548
▁jinému	-11.2554
▁900	-11.2555
CO	-11.2556
▁připraveny	-11.2561
dělat	-11.2567
▁známým	-11.2569
▁takovému	-11.2574
▁prestiž	-11.258
▁pěkn	-11.2585
▁narozen	-11.2587
▁Karlový	-11.2587
▁podlehl	-11.2588
▁Výstav	-11.2591
▁uspořádal	-11.2593
▁nasazen	-11.2594
▁důvěry	-11.2599
▁Tomu	-11.26
▁zvláštním	-11.26
▁Washington	-11.26
▁nemohla	-11.2601
▁zničen	-11.2608
▁Karadžiče	-11.2608
ight	-11.2609
▁literatur	-11.2617
▁schůzk	-11.2618
▁vašem	-11.2621
▁kroků	-11.2621
▁Mí	-11.2621
▁užívá	-11.2627
▁propadl	-11.2632
ušil	-11.2635
▁dosavadních	-11.2643
▁oceněn	-11.265
▁Vaše	-11.2651
▁náročný	-11.2651
▁ulic	-11.2653
cvič	-11.2663
▁sektor	-11.2664
▁plném	-11.2667
šetří	-11.2676
▁uvidí	-11.2681
ENÍ	-11.2683
následoval	-11.2684
nejvýš	-11.2685
nutil	-11.2687
▁Zálež	-11.2691
▁organizáto	-11.2691
▁Blízké	-11.2692
▁Gabčíkov	-11.2692
▁Jindřich	-11.2692
▁Kreslení	-11.2692
▁aplikaci	-11.2692
▁důležitou	-11.2692
▁filharmoni	-11.2692
▁fosilní	-11.2692
▁kanalizace	-11.2692
▁kariéru	-11.2692
▁komunistů	-11.2692
▁konkurent	-11.2692
▁lehké	-11.2692
▁neexistují	-11.2692
▁ovlivnit	-11.2692
▁podmínkám	-11.2692
▁popularit	-11.2692
▁přirozeně	-11.2692
▁referenda	-11.2692
▁snižovat	-11.2692
▁svědky	-11.2692
▁ubytovací	-11.2692
▁výpovědi	-11.2692
▁zneužití	-11.2692
atlantick	-11.2692
zřídka	-11.2692
▁Michail	-11.2692
▁obrátit	-11.2692
▁paralel	-11.2692
▁přivezl	-11.2692
▁rubrik	-11.2692
▁stupeň	-11.2692
▁jedinců	-11.2692
▁zvyšují	-11.2692
▁nezmění	-11.2692
▁přírodu	-11.2692
▁klobouk	-11.2692
▁Atlantiku	-11.2692
▁pomůck	-11.2692
▁válku	-11.2692
▁kontrakt	-11.2692
▁Dynam	-11.2692
▁antropologie	-11.2692
▁budoucna	-11.2692
▁zbaven	-11.2692
hlíží	-11.2692
▁týče	-11.2692
imochodem	-11.2692
▁administrativní	-11.2692
▁Karpov	-11.2692
▁přídav	-11.2692
▁Trans	-11.2692
▁Boyle	-11.2692
▁obzor	-11.2692
▁zkrátka	-11.2692
▁politicky	-11.2692
68	-11.2692
▁češtině	-11.2692
▁mzda	-11.2692
▁smečky	-11.2692
▁Lendl	-11.2692
▁kombinace	-11.2692
▁chybět	-11.2692
▁vytížen	-11.2692
▁image	-11.2693
▁Středisk	-11.2693
▁hokejisté	-11.2693
▁Španělska	-11.2693
▁stavět	-11.2693
▁distributor	-11.2693
▁nálad	-11.2693
▁vyráběn	-11.2693
▁kritický	-11.2693
▁poražen	-11.2693
▁zázrak	-11.2693
▁dostupné	-11.2693
▁staletí	-11.2693
▁rozprav	-11.2693
▁dívat	-11.2694
▁prapor	-11.2694
▁příznivců	-11.2694
▁Zdeňk	-11.2694
▁1980	-11.2694
▁nohou	-11.2694
▁arabské	-11.2695
▁nezbývá	-11.2695
▁Intel	-11.2695
▁příjezd	-11.2695
▁Optima	-11.2695
▁ocenil	-11.2695
▁psů	-11.2695
▁Minul	-11.2695
▁převah	-11.2696
▁plnit	-11.2696
▁liberální	-11.2696
▁Spolu	-11.2697
▁solidní	-11.2697
niknout	-11.2697
▁ligový	-11.2697
▁jídla	-11.2697
▁Maďarsko	-11.2698
▁Příští	-11.2699
▁setkáváme	-11.2699
▁2,5	-11.2699
▁Říká	-11.2699
▁Škol	-11.27
▁Peck	-11.27
abilní	-11.27
▁Říman	-11.27
▁Pokus	-11.27
sadit	-11.2701
▁arabský	-11.2701
▁nápln	-11.2701
▁Konec	-11.2702
▁oken	-11.2702
▁tabu	-11.2702
▁ráj	-11.2703
▁znečištění	-11.2703
▁varování	-11.2703
kazil	-11.2704
bydlí	-11.2704
▁sáze	-11.2705
▁vítr	-11.2705
▁matky	-11.2705
▁vyměnit	-11.2705
▁uznávan	-11.2705
▁stád	-11.2706
▁převést	-11.2706
▁uzavřena	-11.2706
▁etapě	-11.2706
▁Krist	-11.2707
zřetelně	-11.2707
▁vysvětl	-11.2708
ujme	-11.2708
▁samostatn	-11.2708
▁EU	-11.2709
▁dokončen	-11.271
▁výraznější	-11.271
▁ohni	-11.2711
▁vojáky	-11.2712
krývají	-11.2714
▁osnov	-11.2715
▁nepřízniv	-11.2716
▁povahy	-11.2716
▁hlasovat	-11.2717
▁pohřeb	-11.2717
áty	-11.2717
▁Vesmíru	-11.2718
konců	-11.2718
▁kurt	-11.2718
▁stavba	-11.2718
▁Lá	-11.2719
▁Med	-11.2719
▁efektu	-11.2719
▁podoba	-11.2721
▁vybudování	-11.2722
▁nepřítel	-11.2722
faktor	-11.2724
▁uvolnění	-11.2725
▁polární	-11.2725
▁vystoupí	-11.2726
▁vyprš	-11.2726
▁komet	-11.2726
▁zvládnout	-11.2727
▁kanálů	-11.2728
▁jakými	-11.2728
▁volbou	-11.2731
dél	-11.2731
přesněji	-11.2732
▁Hel	-11.2733
izační	-11.2733
▁vzdal	-11.2734
▁Belgii	-11.2739
▁částkou	-11.274
▁vyvoláva	-11.2741
▁kořeny	-11.2742
▁expertů	-11.2742
▁tržby	-11.2742
▁kluk	-11.2746
▁knížky	-11.2746
▁velko	-11.2746
▁slyší	-11.2752
▁Předpokládá	-11.2753
▁kuponov	-11.2753
▁projevu	-11.2753
▁starostí	-11.2753
▁Slovák	-11.2754
drželi	-11.2757
▁kontinentu	-11.2758
▁vyšla	-11.2758
pomínají	-11.2759
▁průměrně	-11.276
▁současným	-11.2765
▁vítěze	-11.2765
▁extrémní	-11.2766
▁As	-11.2767
střih	-11.2768
▁kapacitou	-11.2769
▁tenisové	-11.2769
▁předpokládal	-11.277
▁úprava	-11.2771
▁zobrazen	-11.2774
▁nemocí	-11.2775
nických	-11.2775
▁krevní	-11.278
▁učení	-11.2781
▁významně	-11.2793
▁krav	-11.2794
▁svobodn	-11.2795
AG	-11.2798
▁subjektů	-11.2802
▁všemu	-11.2804
▁prestižní	-11.2805
▁Ekonomick	-11.2808
22	-11.2808
▁Voda	-11.2809
umět	-11.2811
RS	-11.2816
▁elektrický	-11.2816
▁odběratel	-11.2816
▁majitelů	-11.2821
▁krvi	-11.2824
▁obchodě	-11.2824
▁čistě	-11.2825
▁vytvořili	-11.2826
UJE	-11.2826
▁chladn	-11.2826
▁krajní	-11.2831
▁veškerý	-11.2832
▁hit	-11.2834
▁kapr	-11.2834
▁maz	-11.2835
▁náležit	-11.2838
▁uchazečů	-11.2839
▁obhájce	-11.284
▁úseku	-11.2841
▁německým	-11.2842
▁okraji	-11.2845
▁horský	-11.2846
▁komentář	-11.2849
nda	-11.285
▁tvary	-11.2851
▁zásahu	-11.2851
▁detailní	-11.2852
▁play	-11.2854
▁Voj	-11.2857
▁odběratelů	-11.286
▁Test	-11.2862
▁elektronické	-11.2865
▁přijali	-11.2866
▁turnaji	-11.2868
členné	-11.2869
▁mechaniku	-11.2869
▁nezná	-11.287
▁slev	-11.2871
▁vedly	-11.2874
▁dějiny	-11.2878
▁právem	-11.2881
▁manažerů	-11.2882
▁1500	-11.2884
▁krásné	-11.2885
▁astronom	-11.2887
ALI	-11.289
řejmě	-11.2897
mana	-11.2901
▁sub	-11.2903
▁vlastními	-11.2906
75	-11.2907
pravit	-11.2909
▁Kro	-11.2909
▁maďarské	-11.291
▁ztratila	-11.291
▁konečn	-11.2913
▁hosty	-11.2914
ÁNÍ	-11.2916
▁uvedli	-11.2917
▁relativní	-11.292
▁strukturu	-11.2922
▁svazové	-11.2924
místo	-11.2934
tvrdí	-11.2938
▁vydala	-11.2938
▁témata	-11.2939
▁zadní	-11.2944
▁archeolog	-11.295
▁vítězů	-11.295
▁350	-11.2952
hne	-11.298
▁obyčejný	-11.2985
bund	-11.2986
▁záznamové	-11.2989
▁poměry	-11.2989
éra	-11.2995
▁dohodl	-11.2995
▁125	-11.2999
▁zabit	-11.3
pomíná	-11.3003
▁občana	-11.3004
▁ráz	-11.3004
▁mís	-11.3006
▁italsk	-11.3006
▁náhle	-11.3007
▁elektronický	-11.3008
▁připoj	-11.3014
▁hotové	-11.3014
▁dramat	-11.3015
▁jugoslávsk	-11.3018
▁Fil	-11.302
▁vodě	-11.302
▁Podstatn	-11.3021
▁kostel	-11.3025
SKO	-11.3031
kazuje	-11.3034
▁předání	-11.3044
koro	-11.3045
tedy	-11.3046
▁kontaktu	-11.3047
ždyť	-11.3053
▁staveb	-11.3058
▁důsledk	-11.3068
▁napadl	-11.3073
▁Barn	-11.3074
▁vzpomín	-11.3075
▁atomové	-11.3076
▁Pražsk	-11.3078
▁následujícím	-11.3083
▁deviz	-11.3083
▁klesl	-11.3087
▁slabý	-11.3088
▁nejlepšího	-11.3095
▁Kazachstán	-11.3099
▁týkají	-11.31
▁Čtyři	-11.3102
▁Svaz	-11.3102
slovní	-11.3103
kázat	-11.3105
▁biolog	-11.3108
▁totemismu	-11.3109
▁sfér	-11.3117
▁hromadné	-11.3122
▁zachován	-11.3123
▁Ře	-11.3125
▁smrtí	-11.3128
▁úhrad	-11.3129
▁medaili	-11.3131
hradit	-11.3131
▁předpis	-11.3131
▁japon	-11.3133
▁Masarykov	-11.3138
▁odpovídají	-11.3142
▁Jelcinov	-11.3145
▁oddělen	-11.3146
▁volb	-11.3156
▁svobodný	-11.3156
▁jednotné	-11.3157
▁řešen	-11.3158
▁zřízen	-11.3158
▁komunismu	-11.3159
▁Chorvat	-11.3161
bude	-11.3166
▁zodpovědn	-11.317
▁brzd	-11.3175
▁norma	-11.3176
▁Bosn	-11.3176
jednán	-11.3178
▁Dokon	-11.3178
▁kolech	-11.3179
▁paradox	-11.318
▁Závěr	-11.3182
▁identifik	-11.3185
▁not	-11.3189
▁Klepn	-11.3189
▁Plán	-11.319
olicejní	-11.319
▁obdiv	-11.3192
▁konzerv	-11.3192
▁Bohemia	-11.3192
▁PŘED	-11.3192
▁anonymní	-11.3192
▁strategický	-11.3192
neštěstí	-11.3192
peptid	-11.3192
▁Boleslav	-11.3192
▁Doufám	-11.3192
▁HGF	-11.3192
▁Výjimk	-11.3192
▁Výsledek	-11.3192
▁Wembley	-11.3192
▁cizinců	-11.3192
▁definovat	-11.3192
▁dvojnásobek	-11.3192
▁dětmi	-11.3192
▁evidenci	-11.3192
▁humanitární	-11.3192
▁intenzivně	-11.3192
▁komfort	-11.3192
▁království	-11.3192
▁lhůty	-11.3192
▁nabídnut	-11.3192
▁neúspěch	-11.3192
▁ostravské	-11.3192
▁otázkách	-11.3192
▁ošetření	-11.3192
▁počáteční	-11.3192
▁připomenout	-11.3192
▁revoluce	-11.3192
▁uhličitého	-11.3192
▁upozorňují	-11.3192
▁uskutečň	-11.3192
▁užitečné	-11.3192
▁veřejnou	-11.3192
▁zajistil	-11.3192
▁zdravotně	-11.3192
▁zvyšovat	-11.3192
▁Havlov	-11.3192
▁LDS	-11.3192
▁Poborského	-11.3192
▁sankce	-11.3192
▁sportovci	-11.3192
▁zloděj	-11.3192
▁Mostaru	-11.3192
▁skener	-11.3192
▁sleduje	-11.3192
▁souprav	-11.3192
▁série	-11.3192
▁umístit	-11.3192
▁Nobelov	-11.3192
▁mobilní	-11.3192
▁pátý	-11.3192
▁srpnu	-11.3192
▁týdnu	-11.3192
▁řekněme	-11.3192
pomáhal	-11.3192
▁potravy	-11.3192
▁MHz	-11.3192
▁kompost	-11.3192
▁nepatří	-11.3192
▁Názor	-11.3192
▁komisí	-11.3192
▁projednávání	-11.3192
▁stačit	-11.3192
▁zážitek	-11.3192
skočit	-11.3192
▁nejedn	-11.3192
▁národnostní	-11.3192
▁pozemků	-11.3192
▁tvůrčí	-11.3192
▁Komora	-11.3192
▁chemie	-11.3192
▁Prahu	-11.3192
▁obnovit	-11.3192
▁Ústí	-11.3192
▁minimum	-11.3192
▁veličin	-11.3192
▁letišti	-11.3192
▁opačný	-11.3192
▁sehnat	-11.3192
▁shluk	-11.3192
▁vyhověl	-11.3192
▁obránce	-11.3192
▁rozvinut	-11.3192
▁modernizaci	-11.3192
▁promítá	-11.3192
▁turisté	-11.3192
▁nebrání	-11.3192
▁volit	-11.3192
▁kostým	-11.3192
▁remíz	-11.3193
▁proběhla	-11.3193
▁Filip	-11.3193
▁román	-11.3193
▁vykonávat	-11.3193
▁1948	-11.3193
▁karet	-11.3193
▁podobnost	-11.3193
▁zaslal	-11.3193
vážet	-11.3193
▁azyl	-11.3193
▁pilot	-11.3193
▁emise	-11.3194
▁realizaci	-11.3194
ford	-11.3194
▁diskusí	-11.3194
▁podoby	-11.3194
▁převzetí	-11.3194
▁experimentální	-11.3195
▁cítit	-11.3195
▁Mistr	-11.3195
SO	-11.3195
▁dovoluje	-11.3195
▁chrání	-11.3195
▁léčení	-11.3195
▁výrobku	-11.3195
▁Chang	-11.3196
▁půjčky	-11.3196
▁potřebovat	-11.3196
▁videa	-11.3197
▁dárk	-11.3197
▁budování	-11.3197
beton	-11.3197
▁přestane	-11.3198
▁očima	-11.3198
▁tabulku	-11.3198
▁rozdělit	-11.32
▁dovolí	-11.32
▁nádob	-11.3201
▁odmítnut	-11.3201
▁bát	-11.3201
▁obává	-11.3201
▁Ukázal	-11.3202
▁formulář	-11.3202
▁atmosféru	-11.3202
▁oblib	-11.3203
▁prosím	-11.3203
▁nahoru	-11.3204
▁ráda	-11.3205
▁podruhé	-11.3205
bývalo	-11.3206
▁Pojišťovna	-11.3206
▁venku	-11.3207
▁nechci	-11.3208
▁centrem	-11.3208
▁ušetří	-11.3209
▁užitku	-11.321
rychlostní	-11.3211
▁stěžují	-11.3212
▁uvolnil	-11.3212
▁přerušen	-11.3215
▁ostrovů	-11.3215
▁potvrdila	-11.3216
▁vkus	-11.3216
▁sportovním	-11.3218
▁toku	-11.3219
▁láh	-11.322
▁přišly	-11.3223
▁Důvodem	-11.3223
▁prvek	-11.3223
víz	-11.3223
▁vybere	-11.3224
▁vydělal	-11.3225
novu	-11.3229
▁technikou	-11.3229
▁prostorách	-11.3231
stva	-11.3232
▁stížnosti	-11.3234
▁týmů	-11.3235
▁vycházet	-11.3235
▁čelní	-11.3236
▁foto	-11.3238
▁mraz	-11.3238
▁Seznam	-11.3241
▁změnách	-11.3241
▁manipul	-11.3242
▁Hal	-11.3242
▁Smlouva	-11.3242
▁diplomatické	-11.3243
▁architektury	-11.3244
plyn	-11.3245
▁vzniklé	-11.3246
▁kontrolou	-11.3247
▁popsat	-11.3248
▁věnovan	-11.325
▁prodejně	-11.325
▁plní	-11.3253
álka	-11.3253
▁běže	-11.3256
▁semináře	-11.3258
▁moravské	-11.3258
▁Olomouce	-11.3258
▁způsobit	-11.3262
▁zadání	-11.3263
▁policisty	-11.3263
▁vlastníkem	-11.3264
▁vývojem	-11.3265
▁voliči	-11.3266
35	-11.3266
▁dělníků	-11.327
▁prodá	-11.3274
▁různ	-11.3275
▁požadavkům	-11.3278
▁vyhledá	-11.3279
▁jejími	-11.3279
▁problematiku	-11.3281
▁reáln	-11.3283
▁pracujících	-11.3285
▁prezidentský	-11.3286
▁Koup	-11.3287
▁Film	-11.3293
▁rozpadu	-11.3296
▁ucho	-11.3297
▁opravě	-11.3298
▁Husov	-11.3299
▁novinářům	-11.3299
▁rozhovory	-11.3301
▁Označ	-11.3303
▁stromy	-11.3306
▁chladu	-11.3307
▁zved	-11.3308
▁rostliny	-11.3308
▁nevíme	-11.331
▁izraelský	-11.3314
▁cenové	-11.3315
▁technik	-11.3319
▁odměny	-11.3319
▁doprav	-11.3319
▁Brit	-11.3323
▁reklamní	-11.3327
znamenat	-11.3328
▁závěrečný	-11.3329
jížděl	-11.3329
knout	-11.3333
▁vstupuje	-11.3334
▁potenciálu	-11.3335
▁Kdybych	-11.3336
▁Tým	-11.3336
▁hovořili	-11.3337
▁písemn	-11.3338
čkem	-11.3338
▁SD	-11.3339
▁stříbrné	-11.334
▁rozhodlo	-11.3344
▁kruhy	-11.3352
▁novela	-11.3355
ocel	-11.3356
▁klubem	-11.3357
▁Počítá	-11.3357
mann	-11.3359
▁naprosté	-11.3361
▁Švédsku	-11.3362
▁procesů	-11.3363
▁přesný	-11.337
▁bezpečně	-11.3371
NC	-11.3372
▁úmyslu	-11.3376
▁výkladu	-11.3378
▁činila	-11.3378
▁mistry	-11.3379
▁lize	-11.3381
▁deníku	-11.3384
▁věřím	-11.3385
▁udělali	-11.3387
▁proviz	-11.3393
MF	-11.3395
▁ústavů	-11.3395
ohra	-11.3403
▁vycházel	-11.3407
▁komora	-11.3409
hrával	-11.341
▁1:	-11.3413
▁Večer	-11.3419
▁geny	-11.3419
▁Pel	-11.3424
▁obranné	-11.3426
▁tempo	-11.343
▁Lig	-11.3432
▁soupeřů	-11.3432
▁Kup	-11.3439
▁živý	-11.3444
▁140	-11.3446
etické	-11.3448
▁chirurg	-11.3448
▁plochu	-11.3453
▁soli	-11.3456
rent	-11.3458
▁věčn	-11.3458
▁splnil	-11.3462
▁budoucího	-11.3465
▁kovy	-11.3465
▁geolog	-11.3465
▁očí	-11.3465
▁prováze	-11.3465
▁příslušnost	-11.3471
věří	-11.3475
▁zněl	-11.3476
▁Řekl	-11.3485
▁určeno	-11.3486
▁Japonsko	-11.3493
▁Bíl	-11.3493
▁papíry	-11.3494
▁pocity	-11.3494
ičku	-11.3507
řádně	-11.3512
▁Lab	-11.3513
▁léč	-11.3519
▁podnikatelům	-11.3519
▁těle	-11.352
▁Turist	-11.3521
▁vyhráli	-11.3526
▁skvělé	-11.3526
▁telefony	-11.3529
svit	-11.353
▁konzervativní	-11.3538
▁obdobný	-11.3541
izraelsk	-11.3543
IE	-11.3545
▁hostů	-11.3545
▁zveřejněn	-11.3546
▁tvůrce	-11.3547
▁Form	-11.3548
▁šíří	-11.3549
mohou	-11.355
▁popsán	-11.355
▁42	-11.3553
pouštějí	-11.3553
dnes	-11.3555
▁policist	-11.3555
▁pozornosti	-11.3558
pera	-11.356
▁problematik	-11.3565
hřeb	-11.3566
▁volič	-11.3567
ČE	-11.3572
morav	-11.3574
▁rodné	-11.3577
▁soupeři	-11.3578
lizace	-11.3579
▁integrovan	-11.358
▁nepr	-11.358
▁jakkoli	-11.3581
▁stanovené	-11.3584
▁děd	-11.3589
projevilo	-11.3594
ohledně	-11.3596
▁opravu	-11.3599
stane	-11.36
▁přesné	-11.36
▁Výzkum	-11.3605
▁domácnost	-11.3608
tito	-11.361
▁světu	-11.361
atřicet	-11.3619
trhl	-11.3619
▁využit	-11.362
▁Miloše	-11.3623
▁aparát	-11.3625
▁středověk	-11.3625
▁cukr	-11.3625
▁veletrh	-11.3625
▁tuzemsk	-11.3627
▁šampionát	-11.3628
▁požadavků	-11.3628
▁odmítla	-11.3629
▁vyžadují	-11.3637
jistit	-11.3638
▁Rozhodn	-11.3639
▁buňk	-11.364
▁kompres	-11.3642
▁účinnost	-11.3642
▁zákoně	-11.3643
▁efekty	-11.3643
▁následk	-11.3643
▁výhodn	-11.3645
▁veřejný	-11.3646
▁Prof	-11.3648
▁spolupracovník	-11.3652
▁věta	-11.366
▁jednorázov	-11.3666
▁jednoznačný	-11.3666
▁vybral	-11.3672
▁dospělé	-11.3673
▁chybu	-11.3677
▁neustál	-11.3681
▁Důvod	-11.3686
▁Angličan	-11.3687
alternativ	-11.3687
▁Jihlav	-11.3688
▁nejvyšších	-11.3689
▁výpočet	-11.3698
▁pták	-11.3706
▁demonstra	-11.3708
▁zemědělsk	-11.3708
▁navazuj	-11.3709
▁Maďar	-11.371
▁postupů	-11.3714
pomeňme	-11.3715
zrcadl	-11.3718
▁Antonín	-11.3718
▁Bayern	-11.3718
▁Dvořák	-11.3718
▁Jednotliv	-11.3718
▁Lubomír	-11.3718
▁Sarajev	-11.3718
▁Schneider	-11.3718
▁altruist	-11.3718
▁archív	-11.3718
▁cizinci	-11.3718
▁cizině	-11.3718
▁deklarace	-11.3718
▁informovat	-11.3718
▁institut	-11.3718
▁kancléř	-11.3718
▁kmitočt	-11.3718
▁komunisté	-11.3718
▁lékáren	-11.3718
▁medailí	-11.3718
▁ministerstev	-11.3718
▁nemožné	-11.3718
▁nečekaně	-11.3718
▁opozici	-11.3718
▁oslaben	-11.3718
▁oživení	-11.3718
▁portfoli	-11.3718
▁posouzení	-11.3718
▁princezn	-11.3718
▁přeháňky	-11.3718
▁přidružen	-11.3718
▁redakci	-11.3718
▁restituční	-11.3718
▁skript	-11.3718
▁spánku	-11.3718
▁struktuře	-11.3718
▁tabulátor	-11.3718
▁tiskárna	-11.3718
▁univerzáln	-11.3718
▁uspokojení	-11.3718
▁vyloučit	-11.3718
▁výkyvy	-11.3718
▁zúčastní	-11.3718
šetřil	-11.3718
▁Benešov	-11.3718
▁Libanon	-11.3718
▁Mazdy	-11.3718
▁Náměst	-11.3718
▁minerální	-11.3718
▁nevznik	-11.3718
▁stadia	-11.3718
▁stoupenc	-11.3718
▁svatební	-11.3718
▁zlepšil	-11.3718
▁zlepšit	-11.3718
▁lístky	-11.3718
▁nahrazen	-11.3718
▁řemesl	-11.3718
▁Weizs	-11.3718
▁válkou	-11.3718
▁letadlo	-11.3718
▁ohrom	-11.3718
▁preventivn	-11.3718
▁slalom	-11.3718
▁čáry	-11.3718
▁doplnit	-11.3718
▁ČSAV	-11.3718
hlédl	-11.3718
rozhodoval	-11.3718
▁ovládat	-11.3718
▁penalt	-11.3718
▁zahájí	-11.3718
▁pozemky	-11.3718
▁licence	-11.3718
▁jídlo	-11.3718
▁účinný	-11.3718
▁porušil	-11.3718
▁potrvá	-11.3718
▁jedinečn	-11.3718
▁Něco	-11.3718
▁jedinci	-11.3718
▁vyrábějí	-11.3718
▁risk	-11.3718
▁nejsilnější	-11.3718
▁dealer	-11.3719
▁užívat	-11.3719
▁Odhad	-11.3719
▁odškodnění	-11.3719
▁umístil	-11.3719
pálil	-11.3719
▁nestalo	-11.3719
▁tisíciletí	-11.3719
▁Holub	-11.3719
▁nebudu	-11.3719
▁USD	-11.3719
▁kůži	-11.3719
▁Maastrichtu	-11.3719
▁žánr	-11.3719
▁městečk	-11.3719
▁návštěvníci	-11.3719
▁hlášen	-11.3719
▁odvozen	-11.3719
▁hornin	-11.3719
▁nemění	-11.3719
▁dopředu	-11.372
▁vracejí	-11.372
▁dřevěný	-11.372
▁Hlas	-11.372
▁koncentrací	-11.372
▁východisk	-11.372
▁léčba	-11.372
▁Krkonoších	-11.372
▁Zásad	-11.3721
▁restaurací	-11.3721
▁odběr	-11.3721
▁řešil	-11.3721
▁otřes	-11.3721
▁setkat	-11.3721
▁stručn	-11.3721
▁zlata	-11.3721
▁zakončen	-11.3721
▁masa	-11.3721
▁cílov	-11.3721
přát	-11.3722
▁Juli	-11.3722
▁jádra	-11.3722
▁regul	-11.3723
▁mikroorganismů	-11.3723
▁úkor	-11.3724
▁chybějící	-11.3724
povídal	-11.3724
▁odstín	-11.3725
▁Nesmí	-11.3725
▁př	-11.3726
▁odmítnout	-11.3727
lákat	-11.3727
▁záložník	-11.3727
▁závazků	-11.3728
▁obrace	-11.3728
▁stres	-11.3728
▁spokojenosti	-11.3728
▁prud	-11.3728
▁vykazuje	-11.373
▁rozhodnuto	-11.373
▁vydělat	-11.3731
▁absurdní	-11.3731
▁základnu	-11.3731
▁SNS	-11.3732
▁zkoušky	-11.3732
▁náročnější	-11.3733
▁tuzemských	-11.3733
chůd	-11.3734
▁hlavě	-11.3735
▁Situace	-11.3735
▁opakovat	-11.3735
▁vidění	-11.3736
▁oceňuj	-11.3736
▁protokol	-11.3736
instalovat	-11.3739
▁vyšetřovací	-11.3741
▁Byt	-11.3742
▁víno	-11.3743
▁Polsku	-11.3746
▁bohatý	-11.3746
▁kytarist	-11.3746
▁právnick	-11.3746
▁mírou	-11.3746
▁městská	-11.3749
▁letoun	-11.3749
▁převeden	-11.3749
▁myslíte	-11.375
▁středně	-11.375
▁počítají	-11.3751
▁linek	-11.3753
▁SN	-11.3754
▁ukládat	-11.3754
▁Hodn	-11.3755
▁kdybychom	-11.3755
▁odvolal	-11.3757
▁drát	-11.3758
▁řádek	-11.3758
▁vztahuje	-11.3759
▁různá	-11.376
▁zájezdy	-11.3762
▁střelec	-11.3763
čková	-11.3763
▁řetěz	-11.3763
▁kádru	-11.3766
▁lacin	-11.3769
▁boku	-11.377
▁rozhodujícím	-11.3773
▁varoval	-11.3775
▁termo	-11.3777
▁otce	-11.378
▁islámské	-11.378
▁Chorvatsko	-11.3781
▁stačilo	-11.3781
▁Bójů	-11.3782
▁pocházejí	-11.3784
LED	-11.3786
▁hranicích	-11.3788
tice	-11.3789
▁kartě	-11.3789
▁terénu	-11.3792
▁družic	-11.3793
▁genů	-11.3796
▁vyplývající	-11.3797
▁kanálu	-11.38
▁partnerem	-11.38
▁Kamp	-11.3802
87	-11.3804
taž	-11.3806
▁ruchu	-11.3807
▁nalezení	-11.3811
▁Japonska	-11.3812
OT	-11.3813
▁pevně	-11.3813
▁teoretické	-11.3815
▁potka	-11.3816
▁soch	-11.3816
▁stálé	-11.3818
▁veliká	-11.3819
▁volba	-11.382
▁okresech	-11.3821
▁Slovinska	-11.3821
tažením	-11.3823
▁představa	-11.3824
▁subjekty	-11.3826
▁rána	-11.3826
▁nespokojenost	-11.3826
▁údržbu	-11.3827
▁měřítku	-11.3832
▁dresu	-11.3832
udit	-11.3835
▁kostela	-11.3835
▁účastníky	-11.3836
▁schémat	-11.3837
▁91	-11.3837
strašně	-11.3841
▁Světov	-11.3842
▁matematiky	-11.3844
▁délku	-11.3844
▁hlasu	-11.3846
způsobují	-11.385
▁Ger	-11.3852
▁hovoru	-11.3855
▁jeskyn	-11.3856
▁zaplav	-11.386
▁fyziku	-11.3861
letěl	-11.3867
▁Doba	-11.3871
▁informovali	-11.3871
▁testů	-11.3872
yplývá	-11.3882
▁politik	-11.3884
likvid	-11.3884
▁typick	-11.3888
▁řidiči	-11.3888
▁Věr	-11.3893
krytí	-11.3894
▁položil	-11.3896
▁kvalitativn	-11.3898
▁aneb	-11.3898
▁bodem	-11.3899
▁(5	-11.3901
▁Siln	-11.3901
48	-11.3901
▁zůstaly	-11.3906
▁hrubé	-11.3907
▁stromů	-11.3917
▁variantu	-11.3922
▁členské	-11.3924
ring	-11.3924
▁mém	-11.3927
▁přinesla	-11.3929
▁postižení	-11.3929
▁servisu	-11.3931
▁srovnatelné	-11.3931
JÍ	-11.3932
▁Staré	-11.3933
▁hlava	-11.3934
▁technologický	-11.3935
stával	-11.3936
▁přesvědčeni	-11.3936
▁číslem	-11.3938
▁Král	-11.3944
▁knihu	-11.395
▁Tip	-11.3954
▁dopisy	-11.396
can	-11.3973
▁metodu	-11.3975
▁režiséra	-11.398
▁výnosu	-11.3983
▁přenesen	-11.3987
▁domnívám	-11.3989
▁válečné	-11.3992
▁Syn	-11.3997
▁standardu	-11.4004
▁drahá	-11.4005
0.000	-11.4007
▁stálo	-11.4012
▁iniciativa	-11.4013
▁Olympi	-11.4018
▁Řek	-11.4026
▁výtvarn	-11.4027
▁cílů	-11.4032
76	-11.4034
ong	-11.4036
▁ostrov	-11.4037
bírat	-11.404
▁firmami	-11.4041
jištěn	-11.4042
▁vzp	-11.4046
▁kaly	-11.4053
▁trojic	-11.4056
▁linka	-11.4061
▁překr	-11.4068
▁ryby	-11.408
▁opor	-11.408
▁příbuzné	-11.4081
▁manažera	-11.4086
▁věrn	-11.4087
▁rozumné	-11.4092
▁srovnatelný	-11.4093
▁úzké	-11.4095
▁Zemanov	-11.4098
▁dosahují	-11.4104
▁způsobila	-11.4104
▁dán	-11.4111
▁křesťan	-11.4113
▁uskutečnil	-11.4114
▁speciálně	-11.4114
▁přítele	-11.4121
▁Stan	-11.4122
▁mistrovsk	-11.4123
▁odráž	-11.4129
▁poločase	-11.413
▁Hill	-11.413
▁celo	-11.4139
AF	-11.4141
▁ženský	-11.4143
▁manžela	-11.4143
▁Dag	-11.4147
▁jakého	-11.4154
pali	-11.4156
▁tečk	-11.4157
▁bon	-11.4158
▁nepřátel	-11.4163
65	-11.4164
třeba	-11.4165
▁Slovinsk	-11.4167
▁Atlant	-11.4169
▁sešli	-11.4173
▁účet	-11.4186
▁všeobecn	-11.4187
sát	-11.4192
▁vníma	-11.4193
▁věnuj	-11.4194
IG	-11.4197
▁zákoník	-11.4197
▁pouh	-11.4197
tivně	-11.4197
▁využije	-11.4198
▁počítačov	-11.4199
koupí	-11.42
sáhnout	-11.4204
▁tiskový	-11.4205
▁přispíva	-11.4205
▁Tenis	-11.421
vrátit	-11.421
▁pochopil	-11.4212
▁nabídne	-11.4212
ČSSD	-11.4214
▁kyselin	-11.4216
▁Jeli	-11.4221
posled	-11.4225
především	-11.4226
▁komplet	-11.4227
▁produk	-11.4228
▁pokračují	-11.4233
▁Rumunsk	-11.4233
tivnější	-11.4234
▁bohaté	-11.4235
▁lyžař	-11.4235
▁umožňují	-11.4237
▁oblačno	-11.4237
▁pravém	-11.4237
▁kapitálový	-11.4239
jišťuje	-11.4243
▁uši	-11.4244
▁dočasn	-11.4244
13	-11.4244
skop	-11.4249
demokratick	-11.425
▁radu	-11.425
▁Republik	-11.4255
▁platu	-11.4259
▁momentáln	-11.426
▁56	-11.4264
▁vydělá	-11.4267
▁krystal	-11.4269
▁bytě	-11.427
▁odjel	-11.4272
▁životnost	-11.4272
▁Nejčastěj	-11.4274
▁imunitní	-11.4274
▁Bezpečnost	-11.4274
▁Bierhoff	-11.4274
▁Evropou	-11.4274
▁Jackson	-11.4274
▁Jupiter	-11.4274
▁Karadžic	-11.4274
▁Letošní	-11.4274
▁Litvínov	-11.4274
▁Madrid	-11.4274
▁Naštěstí	-11.4274
▁Olszewsk	-11.4274
▁Podívej	-11.4274
▁Sněmovn	-11.4274
▁Softwar	-11.4274
▁Stehlík	-11.4274
▁Ukrajina	-11.4274
▁arcibiskup	-11.4274
▁burzy	-11.4274
▁celosvětov	-11.4274
▁energií	-11.4274
▁incident	-11.4274
▁kandidovat	-11.4274
▁kontext	-11.4274
▁krátkodobé	-11.4274
▁laboratorní	-11.4274
▁leccos	-11.4274
▁londýn	-11.4274
▁nahrávk	-11.4274
▁neexistoval	-11.4274
▁následovat	-11.4274
▁odlišné	-11.4274
▁opozicí	-11.4274
▁ozónu	-11.4274
▁podotkl	-11.4274
▁poskytne	-11.4274
▁premiéře	-11.4274
▁prokuratur	-11.4274
▁překážky	-11.4274
▁restitucí	-11.4274
▁seriózní	-11.4274
▁stability	-11.4274
▁televizor	-11.4274
▁tendenci	-11.4274
▁totalitní	-11.4274
▁učebnic	-11.4274
▁viceprezident	-11.4274
▁vzdělávání	-11.4274
▁výkres	-11.4274
▁výslovně	-11.4274
▁zdůvodnil	-11.4274
▁závislá	-11.4274
▁získají	-11.4274
▁Úspěšn	-11.4274
▁úspěšnost	-11.4274
▁Čtvrt	-11.4274
▁Moderní	-11.4274
▁Město	-11.4274
▁dostatečné	-11.4274
▁kapitul	-11.4274
▁náleží	-11.4274
▁preferenc	-11.4274
▁prezervativ	-11.4274
▁socialismu	-11.4274
▁těžší	-11.4274
▁Kopřiv	-11.4274
▁Pražan	-11.4274
▁laserov	-11.4274
▁mrtvé	-11.4274
▁zachránil	-11.4274
▁Dukly	-11.4274
▁herečka	-11.4274
▁vyměnil	-11.4274
▁vyžádá	-11.4274
▁zemědělci	-11.4274
▁znamení	-11.4274
burgu	-11.4274
▁Island	-11.4274
▁Mandler	-11.4274
▁Obvodní	-11.4274
▁abeced	-11.4274
▁hrozil	-11.4274
▁položku	-11.4274
▁chápán	-11.4274
▁MIDI	-11.4274
▁nutná	-11.4274
▁příroda	-11.4274
▁profese	-11.4274
▁živnostenský	-11.4274
▁naučit	-11.4274
▁charitativní	-11.4274
▁Vojenské	-11.4274
▁ČSAD	-11.4274
▁Atleti	-11.4274
▁výlučn	-11.4274
▁zajímal	-11.4274
▁Hapal	-11.4274
▁necelé	-11.4274
▁Dlouho	-11.4274
▁uplatňova	-11.4274
▁kubismu	-11.4274
▁Akci	-11.4274
▁převažuj	-11.4274
▁vystupoval	-11.4274
▁frakc	-11.4274
▁Maďarska	-11.4274
▁druzí	-11.4274
▁diváci	-11.4274
▁proměnliv	-11.4275
▁mýtu	-11.4275
▁zvrat	-11.4275
▁vyjít	-11.4275
▁přečetl	-11.4275
▁zpěvačk	-11.4275
▁platil	-11.4275
▁koncentraci	-11.4275
sudek	-11.4275
▁chápe	-11.4275
▁utajen	-11.4275
▁zasvěcen	-11.4275
▁provozovat	-11.4275
▁kresb	-11.4276
▁kopané	-11.4276
▁stěží	-11.4276
▁Příklad	-11.4276
▁obvinil	-11.4276
▁Soutěž	-11.4276
▁filtr	-11.4276
▁Obyvatel	-11.4276
▁česky	-11.4276
▁studené	-11.4277
▁zachová	-11.4277
▁tvorba	-11.4277
píší	-11.4277
▁cítil	-11.4277
▁nesměl	-11.4277
háněl	-11.4277
▁loď	-11.4278
▁obdrží	-11.4278
▁rozumět	-11.4278
▁Berger	-11.4278
▁balení	-11.4279
▁Švýcarska	-11.4279
▁úder	-11.4279
▁obsáhl	-11.4279
▁duši	-11.4279
▁kámen	-11.428
▁1950	-11.428
▁přidělen	-11.428
▁expozice	-11.4281
▁sovětský	-11.4281
▁Politick	-11.4281
▁prázdninách	-11.4282
▁síni	-11.4282
▁realizovat	-11.4282
▁publikace	-11.4282
▁zvyklí	-11.4282
týž	-11.4283
▁utekl	-11.4284
▁dostupný	-11.4284
▁potvrzují	-11.4285
▁ústup	-11.4285
▁přihlásil	-11.4285
▁výměník	-11.4285
▁trůn	-11.4285
▁písma	-11.4285
▁vzorků	-11.4286
▁plot	-11.4287
ůstek	-11.4287
▁vznikne	-11.4288
▁sbírky	-11.4288
▁Alma	-11.4289
okres	-11.4289
▁zanikl	-11.4289
▁porušování	-11.4289
▁vysílání	-11.4292
▁připravují	-11.4293
▁alternativní	-11.4293
▁výrobou	-11.4295
účtování	-11.4296
▁Data	-11.4296
nechávají	-11.4296
který	-11.4296
▁náhodně	-11.4297
▁Potvrdil	-11.4301
tržení	-11.4302
▁drobných	-11.4302
▁osobám	-11.4304
▁branku	-11.4305
▁čaj	-11.4305
▁link	-11.4306
▁zasáhnout	-11.4306
▁FC	-11.4306
dávky	-11.4306
▁vyrovnání	-11.4307
▁měnil	-11.4307
▁Ostrav	-11.4309
▁stati	-11.431
▁předsednictv	-11.431
▁překvapiv	-11.4311
▁kompletní	-11.4311
▁politikou	-11.4312
▁pohotovost	-11.4312
▁infekce	-11.4314
▁Rumunsko	-11.4315
▁prodejna	-11.4316
▁potřebujete	-11.4317
▁výměny	-11.4317
▁příslušníky	-11.4317
▁zbytku	-11.432
▁nešťastn	-11.432
▁MOV	-11.4321
▁nemocného	-11.4322
▁částečn	-11.4322
▁řádky	-11.4323
▁izraelské	-11.4326
▁prezidentovi	-11.4326
▁sídla	-11.4326
▁psaní	-11.4326
▁Nejsem	-11.4328
▁uplatňují	-11.4329
▁zajímá	-11.433
▁důstojník	-11.4333
▁odjezd	-11.4334
▁slavného	-11.4334
▁přerušení	-11.4334
▁Masaryk	-11.4335
▁kláštera	-11.4335
▁pravomocí	-11.4336
▁talent	-11.4336
krátko	-11.4337
nická	-11.4338
▁zajímavá	-11.4339
▁pětadvacet	-11.4339
▁rodině	-11.4339
▁kraje	-11.4339
▁lidový	-11.434
▁léto	-11.434
▁soukromým	-11.4341
▁ToolBooku	-11.4341
▁dorazil	-11.4342
▁udává	-11.4343
▁adresář	-11.4345
▁chovat	-11.4345
hořel	-11.4348
▁jmenoval	-11.4348
▁sudetský	-11.4349
▁hradě	-11.435
jmenován	-11.4352
▁levné	-11.4353
▁drav	-11.4353
▁zvukových	-11.4354
▁Žena	-11.4354
▁spojených	-11.4354
▁230	-11.4355
▁uzavřené	-11.4357
jednala	-11.4357
▁získávání	-11.4362
▁očích	-11.4363
▁touh	-11.4363
▁sídlí	-11.4365
▁výhodou	-11.4366
▁provozování	-11.4366
▁zpracovat	-11.4367
▁armádní	-11.4367
▁grafiky	-11.4367
▁Tvrdí	-11.4368
▁veletrhu	-11.4373
▁ověřen	-11.4375
▁Alp	-11.4375
▁stiskn	-11.4376
▁Baník	-11.4379
▁OK	-11.438
▁Víme	-11.4381
▁dohodli	-11.4383
▁poměrů	-11.4383
▁anglického	-11.4385
▁měnov	-11.4386
ph	-11.4386
▁poskytnutí	-11.4387
▁77	-11.4388
▁dokonalé	-11.4389
▁Optic	-11.439
▁scénu	-11.4391
▁čte	-11.4391
▁příznivé	-11.4391
▁nálož	-11.4395
▁mořské	-11.4395
▁dobro	-11.4398
▁vraždy	-11.4398
▁zařazeny	-11.4399
▁samospráv	-11.4399
▁uživatelům	-11.4405
▁Vložit	-11.4405
▁přesvědčil	-11.4405
▁příkazem	-11.4408
▁slovenský	-11.4409
▁Buď	-11.4411
pec	-11.4414
▁nakupovat	-11.4415
▁obsadili	-11.4416
▁sdělit	-11.4416
▁odborů	-11.4416
▁výchovy	-11.4418
▁zbývá	-11.4419
▁analýza	-11.4421
soudit	-11.4425
tlačit	-11.4425
▁zásahy	-11.4426
67	-11.4429
▁stromu	-11.4431
▁opačném	-11.4432
▁Severoatlantick	-11.4435
▁zadržen	-11.4438
▁Novém	-11.4439
▁středo	-11.4445
▁takzvané	-11.4446
▁pivovarů	-11.4446
padnout	-11.4448
bytová	-11.4451
▁vlk	-11.4451
▁nezískal	-11.4456
▁zásoby	-11.4456
▁platnosti	-11.4457
▁vyjadřují	-11.4459
▁Izraelem	-11.4461
▁hrub	-11.4461
▁požádali	-11.4462
▁listin	-11.4463
▁zavedl	-11.4463
▁rozhlasu	-11.4465
dvacetiletý	-11.4465
▁leasing	-11.4469
▁Husa	-11.4472
▁vzkaz	-11.4479
7%	-11.448
▁mozkové	-11.4484
▁narazí	-11.449
▁zvítězila	-11.4493
▁kruhu	-11.4494
zie	-11.4502
▁východu	-11.4505
▁Kap	-11.4507
žívání	-11.4508
▁hladiny	-11.4509
▁zdokonal	-11.451
▁dávn	-11.4511
▁obyčejné	-11.4514
▁desít	-11.452
▁předčasné	-11.4521
▁hlás	-11.4521
▁radní	-11.4523
▁ruch	-11.4523
▁genetick	-11.4527
▁proměnil	-11.4528
▁vzácn	-11.4528
nesli	-11.4533
▁plánované	-11.4533
▁vesnic	-11.4536
▁přístupem	-11.454
jednali	-11.4543
▁snížila	-11.4544
▁poradil	-11.4549
▁úměrn	-11.4549
vezm	-11.455
▁zdravý	-11.4558
▁bezpečnostních	-11.4558
▁částice	-11.456
▁etický	-11.4568
▁vycházejí	-11.4572
▁nábožensk	-11.4574
▁klimatické	-11.4575
▁vyvolá	-11.4577
▁Carl	-11.4582
▁míče	-11.4583
▁genu	-11.4583
▁čekání	-11.4587
▁skončily	-11.4593
▁majitelem	-11.4606
▁Čechy	-11.4609
▁očekávané	-11.4617
▁domova	-11.4618
▁dialog	-11.4619
▁Jean	-11.462
▁připravila	-11.4622
▁jednotka	-11.4623
▁takzvaný	-11.4631
▁vyrovnaný	-11.4631
čínsk	-11.4635
▁reklama	-11.4635
▁nabízen	-11.4642
▁závěry	-11.4643
▁gólu	-11.4647
▁bojoval	-11.4648
▁speciálních	-11.465
▁léčebn	-11.4652
▁osmnáct	-11.4654
▁autory	-11.4655
UN	-11.4661
▁mladík	-11.4663
▁chorvatský	-11.4665
▁důkladně	-11.4666
palestinsk	-11.4667
▁Ostravsk	-11.467
dána	-11.467
▁komentáře	-11.467
▁oblíbený	-11.4675
pozoruhodn	-11.468
▁Šv	-11.4685
▁závažn	-11.4685
placení	-11.4689
▁Švýcar	-11.469
káže	-11.4699
▁poledne	-11.4701
NSK	-11.4706
▁Vysok	-11.4717
▁bolesti	-11.4724
▁letecký	-11.4729
▁tradic	-11.4734
▁americkým	-11.4737
389	-11.4737
▁akciov	-11.4738
stroj	-11.4743
▁sluš	-11.4747
▁náměstk	-11.4752
dáte	-11.4754
▁Výš	-11.4757
▁zaměstnancům	-11.4764
▁ponech	-11.4768
▁kongres	-11.477
▁poškozen	-11.477
▁vesmír	-11.477
▁náboženské	-11.4772
▁muzeu	-11.4774
▁Min	-11.4776
▁přístav	-11.478
▁vlastníků	-11.4782
▁vteřin	-11.4786
▁spořiteln	-11.4786
▁omezené	-11.4787
▁pojistn	-11.4793
rozuměj	-11.4798
vláda	-11.4798
▁běžným	-11.4801
▁jater	-11.4801
▁Obsah	-11.4803
▁vykoná	-11.4805
▁dělník	-11.4805
▁mládež	-11.4807
▁uzná	-11.4807
▁podepsán	-11.4815
▁faktur	-11.4816
▁potvrzen	-11.4816
▁odbornost	-11.482
▁známa	-11.4822
print	-11.4823
▁štít	-11.4828
▁výživ	-11.4828
▁Mnichov	-11.4831
▁pokladn	-11.4832
ézt	-11.4836
▁květ	-11.4837
jednává	-11.4838
▁tunel	-11.4841
▁samozřejm	-11.4843
▁závěrečné	-11.4845
trpěl	-11.4846
hrnu	-11.4846
▁Horní	-11.4848
▁srozumiteln	-11.4849
vyjádřen	-11.4854
německou	-11.4855
hrání	-11.4859
▁Krkonoš	-11.486
▁překvapen	-11.486
▁společným	-11.4861
▁junio	-11.4861
▁konzul	-11.4862
doporučují	-11.4862
▁1981	-11.4862
▁Běloruska	-11.4862
▁Eduard	-11.4862
▁Kepler	-11.4862
▁Manchester	-11.4862
▁Městě	-11.4862
▁Niederl	-11.4862
▁Pentium	-11.4862
▁Pořadatel	-11.4862
▁Poštovní	-11.4862
▁Rozhovor	-11.4862
▁Svorada	-11.4862
▁Uvažuje	-11.4862
▁Vědci	-11.4862
▁asteroid	-11.4862
▁bázi	-11.4862
▁displej	-11.4862
▁doprovázen	-11.4862
▁ekvivalent	-11.4862
▁gramotnost	-11.4862
▁hřbitov	-11.4862
▁instance	-11.4862
▁konfiguraci	-11.4862
▁kooperac	-11.4862
▁mechanismy	-11.4862
▁ministerstvem	-11.4862
▁mužstvu	-11.4862
▁nejlevnější	-11.4862
▁nejvhodnější	-11.4862
▁odehrál	-11.4862
▁organismů	-11.4862
▁ovlivňova	-11.4862
▁označují	-11.4862
▁pohromadě	-11.4862
▁potvrdit	-11.4862
▁pracovišti	-11.4862
▁prohlašuje	-11.4862
▁protagonist	-11.4862
▁rozvržení	-11.4862
▁složku	-11.4862
▁sluchátka	-11.4862
▁stabilitu	-11.4862
▁strojírenství	-11.4862
▁svědků	-11.4862
▁uskutečněn	-11.4862
▁vyjadřova	-11.4862
▁vzdělávací	-11.4862
▁výsledcích	-11.4862
▁zachránit	-11.4862
▁zaměstnává	-11.4862
▁zbraň	-11.4862
▁zvýhodněn	-11.4862
▁závazek	-11.4862
▁závislé	-11.4862
▁Balkán	-11.4862
▁Thomas	-11.4862
▁Výběr	-11.4862
▁inzerát	-11.4862
▁kampaň	-11.4862
▁kliniky	-11.4862
▁očekávají	-11.4862
▁podmínkami	-11.4862
▁překonat	-11.4862
▁ubytovn	-11.4862
▁komentoval	-11.4862
▁pouštní	-11.4862
▁pátrá	-11.4862
▁sazby	-11.4862
▁vyřešil	-11.4862
▁Pravděpodobn	-11.4862
▁hmyz	-11.4862
▁kosmický	-11.4862
▁obtíže	-11.4862
▁vazbě	-11.4862
opakovaně	-11.4862
▁Právní	-11.4862
▁dráhu	-11.4862
▁sérii	-11.4862
▁vyjednávání	-11.4862
režie	-11.4862
▁jedinec	-11.4862
▁neviděl	-11.4862
▁odvahu	-11.4862
▁profesí	-11.4862
▁prvotní	-11.4862
▁lidstva	-11.4862
▁přijímat	-11.4862
▁ojediněle	-11.4862
▁otravy	-11.4862
▁Gross	-11.4862
▁uplatnil	-11.4862
▁čistírn	-11.4862
hlížel	-11.4862
▁sladk	-11.4862
▁Reuter	-11.4862
KDS	-11.4862
▁absenc	-11.4862
▁jarní	-11.4862
▁kolaps	-11.4862
▁Smith	-11.4862
▁partie	-11.4862
▁postačí	-11.4862
▁dimenz	-11.4862
▁zastupitelstvo	-11.4862
▁Radovan	-11.4862
▁2:1	-11.4862
▁vpravo	-11.4862
▁patent	-11.4862
hlédnutí	-11.4862
▁obezit	-11.4862
▁cvičení	-11.4862
▁počty	-11.4862
▁Kučer	-11.4863
▁velkolep	-11.4863
▁finance	-11.4863
▁kombinací	-11.4863
▁doplnil	-11.4863
▁smečka	-11.4863
▁liberalizac	-11.4863
▁zahrnují	-11.4863
▁ohlas	-11.4863
▁konverz	-11.4863
▁sportovce	-11.4863
▁filozofii	-11.4863
▁generaci	-11.4863
▁Kvalit	-11.4863
▁výhrady	-11.4863
▁oteplení	-11.4863
▁Vilém	-11.4863
▁léčbě	-11.4863
▁Ford	-11.4863
▁ekonomickou	-11.4863
▁převrat	-11.4863
▁lůžk	-11.4863
▁Baker	-11.4863
▁sníží	-11.4863
▁dvor	-11.4863
▁zaměřuje	-11.4863
▁1998	-11.4863
▁Španělsko	-11.4863
▁Krás	-11.4864
▁derby	-11.4864
▁spoření	-11.4864
▁nedostatkem	-11.4864
▁zmenšen	-11.4864
▁koncentr	-11.4864
▁hluboký	-11.4864
▁Hráč	-11.4864
pravdě	-11.4864
▁SNR	-11.4864
▁členění	-11.4864
▁studii	-11.4865
▁výměr	-11.4865
▁vhodných	-11.4865
▁nezvykl	-11.4865
▁afér	-11.4865
▁WAV	-11.4865
▁běží	-11.4865
▁vyzván	-11.4866
▁jednotlivců	-11.4866
▁děkan	-11.4866
ředstavitelé	-11.4866
▁článků	-11.4867
▁předloh	-11.4867
▁pravice	-11.4868
▁pravdy	-11.4868
▁Izraelsk	-11.4868
▁Winter	-11.4868
▁ISO	-11.4868
▁kontrast	-11.4868
▁pestr	-11.4869
▁švýcarské	-11.4869
▁odehráv	-11.4869
▁trase	-11.487
▁poplatků	-11.487
eportáž	-11.4871
▁čelit	-11.4871
▁udělen	-11.4871
▁tureck	-11.4871
▁zeleni	-11.4871
▁Polskem	-11.4873
▁správnou	-11.4873
▁zvláštnost	-11.4873
▁tvrdit	-11.4873
▁dálkové	-11.4873
▁usilují	-11.4873
▁vyplni	-11.4873
▁celky	-11.4873
▁mezer	-11.4874
▁salon	-11.4874
▁lodí	-11.4874
▁plus	-11.4874
▁sbírek	-11.4875
nešní	-11.4876
▁vyhleda	-11.4876
▁ledový	-11.4876
▁tenkrát	-11.4876
▁prosazuje	-11.4877
▁průvodce	-11.4877
▁alternativy	-11.4877
▁nepřijatelné	-11.4877
▁podávání	-11.4877
▁dozví	-11.4878
▁protivník	-11.4878
▁památky	-11.4878
▁nákladech	-11.4878
▁obuv	-11.4879
▁okresu	-11.4879
▁základny	-11.488
▁přísně	-11.4881
▁pití	-11.4881
▁Chart	-11.4882
▁vydrží	-11.4882
▁pozorovatelů	-11.4883
▁dýcha	-11.4883
▁Provoz	-11.4883
▁porost	-11.4884
▁námět	-11.4885
▁anketě	-11.4885
▁ušetřit	-11.4885
▁mrtvých	-11.4887
▁domku	-11.4887
▁pomáhat	-11.4887
▁SI	-11.4887
▁ideologick	-11.4887
árek	-11.4889
▁přibyl	-11.4889
▁silami	-11.489
▁nazval	-11.4891
▁skutečnou	-11.4892
▁vidíte	-11.4894
▁skupinách	-11.4895
▁branky	-11.4895
▁znamenala	-11.4896
▁myln	-11.4897
▁pětinu	-11.4897
▁Kolín	-11.4898
▁záměrně	-11.4899
▁pozdní	-11.4899
▁povahu	-11.4899
▁obchodech	-11.49
▁komunismus	-11.4901
▁domácností	-11.4901
▁skoku	-11.4901
▁scéně	-11.4902
▁tělesn	-11.4903
▁začínal	-11.4904
▁hranicí	-11.4905
▁přibývá	-11.4907
▁Lan	-11.4907
▁etapy	-11.4908
stihnout	-11.4908
▁odluk	-11.4908
atrně	-11.4909
▁vyznačen	-11.4909
▁NT	-11.4911
▁pomník	-11.4911
▁vybrán	-11.4912
▁reálná	-11.4912
▁stranách	-11.4913
▁nesprávn	-11.4914
kromě	-11.4914
▁Palác	-11.4914
štění	-11.4915
▁zažil	-11.4916
běhne	-11.4919
▁Air	-11.4922
▁využívající	-11.4922
▁zárukou	-11.4924
▁prodejce	-11.4924
▁pochybnosti	-11.4924
▁povolen	-11.4925
▁přibylo	-11.4928
▁vzniklo	-11.4928
▁vzdálen	-11.4931
▁slavné	-11.4931
hlédne	-11.4931
▁nizozemsk	-11.4932
▁těsné	-11.4933
sazení	-11.4939
▁polského	-11.4939
TER	-11.494
▁opravit	-11.4943
▁Žádný	-11.4945
▁osmnácti	-11.4946
▁rodinou	-11.4947
▁problematiky	-11.4948
▁obří	-11.4949
program	-11.4953
elektrick	-11.4953
▁slevy	-11.4955
▁vědec	-11.4956
▁jazyků	-11.4959
▁maličkost	-11.496
▁publikací	-11.4961
▁jmenování	-11.4963
▁sexu	-11.4965
leva	-11.4965
▁cukru	-11.4967
▁dialogové	-11.4967
▁pachatele	-11.4969
▁197	-11.4971
▁Kazachstánu	-11.4973
▁historického	-11.4976
▁desítká	-11.4976
▁předkládá	-11.4977
▁prochází	-11.4977
pouštět	-11.4978
Pro	-11.4979
▁zařazení	-11.4981
vodně	-11.4984
▁stínu	-11.4984
▁otevřenou	-11.4985
▁britských	-11.4987
▁zajímavých	-11.4991
▁prázdniny	-11.4995
▁Sport	-11.4995
▁hromada	-11.4997
▁ledové	-11.4998
▁Don	-11.4999
▁konfliktu	-11.5004
▁186	-11.5006
chrom	-11.5007
▁suroviny	-11.5008
▁zájemcům	-11.5009
▁Přibyl	-11.5013
▁zahájena	-11.5014
▁odpady	-11.5015
▁smyslem	-11.5017
▁slabé	-11.5018
ikonu	-11.5019
▁kanál	-11.502
▁mostu	-11.502
▁novináře	-11.5021
▁pokutu	-11.5022
▁západu	-11.5024
reál	-11.5024
▁Vaš	-11.5025
▁tepelné	-11.5027
▁překvapením	-11.5027
▁jednotný	-11.5027
▁hospodářských	-11.5029
▁armád	-11.5029
▁prodával	-11.5029
▁závodníků	-11.5038
▁sedmnácti	-11.5039
▁samostatnost	-11.504
▁jakéhokoli	-11.5048
▁odměnu	-11.5048
íčko	-11.5049
▁určitým	-11.505
▁hokejové	-11.5053
▁dlužníka	-11.5061
▁atomov	-11.5063
▁VE	-11.5067
▁případem	-11.5068
▁pokračovala	-11.5068
izování	-11.5072
▁přehrad	-11.5076
PAN	-11.5079
▁perspektivní	-11.5079
▁cenami	-11.5079
OSTI	-11.5081
▁vznikal	-11.5082
▁povrchové	-11.5085
▁daného	-11.5085
▁oprávnění	-11.5088
▁zhoubn	-11.509
▁vidím	-11.509
mad	-11.5093
▁pozval	-11.5096
▁součásti	-11.5097
▁spolehlivě	-11.5097
▁kapacitu	-11.5099
▁měřit	-11.5103
▁naplněn	-11.5103
čných	-11.5104
▁technologické	-11.5105
▁slavný	-11.5108
▁družstevní	-11.511
▁hub	-11.5111
▁skleníkový	-11.5115
▁Geo	-11.5115
▁koordinac	-11.5118
▁odcházejí	-11.5127
▁vybaveny	-11.5127
NS	-11.5128
▁polský	-11.5129
▁světl	-11.5129
▁potraviny	-11.5131
▁hlasováním	-11.5134
▁vynesl	-11.514
gg	-11.5143
▁manažery	-11.5147
átory	-11.5149
▁podpisu	-11.5153
▁palác	-11.5153
▁vrátili	-11.516
slat	-11.5161
▁Hub	-11.5163
▁fotbalist	-11.5166
▁Nemá	-11.5167
▁příjemný	-11.5169
▁třetin	-11.517
▁navržen	-11.517
▁Občansk	-11.5172
▁koná	-11.5176
obdržela	-11.5178
nesení	-11.518
▁účelu	-11.5186
▁spolupracují	-11.5186
▁podnikateli	-11.5189
sunut	-11.5191
▁Moc	-11.5202
▁nabízený	-11.5208
▁vlna	-11.5213
▁kandidáta	-11.5216
▁záznamu	-11.5217
▁skleník	-11.5225
▁automobilu	-11.5226
▁dopadl	-11.5232
▁textů	-11.5242
▁časový	-11.5247
▁čínské	-11.5251
▁1)	-11.5252
tvořily	-11.5253
▁světem	-11.5253
▁tituly	-11.5257
ruh	-11.5258
▁cenné	-11.5261
▁kvalifik	-11.5266
▁výzkumné	-11.5271
▁bosen	-11.5272
▁Novotn	-11.5289
▁fakult	-11.529
▁Sen	-11.5291
mentálně	-11.5292
▁úvod	-11.5292
▁geo	-11.5296
BU	-11.5303
▁maxim	-11.5307
ash	-11.5309
▁přirozeným	-11.5309
▁Brněnsk	-11.5313
▁vozov	-11.5313
▁Čtyř	-11.5316
▁nadměrn	-11.5319
▁450	-11.5319
▁hrozn	-11.5325
▁Bet	-11.5332
třída	-11.5334
▁výtečn	-11.5334
▁pravomoc	-11.5342
▁240	-11.5343
▁chyba	-11.5345
konalo	-11.5345
ÁN	-11.5345
▁zápasem	-11.5346
čov	-11.5347
▁dirigent	-11.5347
▁známou	-11.535
▁zastávk	-11.535
čnosti	-11.5354
▁šíři	-11.5354
▁Histori	-11.5355
▁parametr	-11.5357
▁hezk	-11.5363
▁Rozhodl	-11.5364
▁Japonsk	-11.5371
▁činy	-11.5373
▁zvolený	-11.5374
▁výjimk	-11.5375
▁nulov	-11.5375
▁Prav	-11.5376
▁krev	-11.5376
▁Tel	-11.5377
▁vývojový	-11.5379
line	-11.5381
▁TV	-11.5385
▁statistick	-11.5387
▁Hans	-11.5387
▁úloh	-11.5395
ručně	-11.54
▁hydro	-11.5401
vinil	-11.5402
▁pravý	-11.5402
▁poškoz	-11.541
▁dokonč	-11.5412
▁sedmé	-11.5412
▁Velký	-11.5412
▁naučil	-11.5415
▁neobvykl	-11.5421
pojit	-11.5421
uskutečnila	-11.5423
▁využívají	-11.5424
▁inspektor	-11.5425
▁ústřed	-11.5427
omín	-11.5428
hledné	-11.5429
TON	-11.5432
vlas	-11.5434
:6	-11.5436
▁ukončen	-11.5443
▁uvolněn	-11.5444
▁ovládá	-11.5447
▁jazykov	-11.5448
▁bronz	-11.545
sáhne	-11.5451
natý	-11.5452
▁pravideln	-11.5456
▁hork	-11.5456
rského	-11.5457
▁vizi	-11.5457
ografické	-11.5458
▁Kladn	-11.5459
▁konstru	-11.5461
▁centimetr	-11.5462
▁smrteln	-11.5463
▁vyřazen	-11.5464
▁nedostat	-11.5467
▁neobvyklé	-11.5469
▁hmotnost	-11.5469
funk	-11.5469
spěje	-11.5471
▁dívá	-11.5471
▁podporují	-11.5473
▁algoritm	-11.5474
▁položen	-11.5484
▁Vždy	-11.5486
▁účinně	-11.5486
▁Frankfurt	-11.5487
▁Tchaj	-11.5487
Cagiva	-11.5487
kontaminac	-11.5487
▁Apple	-11.5487
▁Barcelony	-11.5487
▁Liverpool	-11.5487
▁Lobkowicz	-11.5487
▁Luboš	-11.5487
▁Moskvy	-11.5487
▁Schumacher	-11.5487
▁Stráský	-11.5487
▁Větší	-11.5487
▁angličtiny	-11.5487
▁atribut	-11.5487
▁cizinec	-11.5487
▁databázový	-11.5487
▁dosaženo	-11.5487
▁dětství	-11.5487
▁efektivnosti	-11.5487
▁epidemie	-11.5487
▁eventuáln	-11.5487
▁evoluce	-11.5487
▁exhibic	-11.5487
▁expanz	-11.5487
▁extremist	-11.5487
▁hnízd	-11.5487
▁hollywoodsk	-11.5487
▁intenzivní	-11.5487
▁jménu	-11.5487
▁kinematografie	-11.5487
▁konkurs	-11.5487
▁kriminalist	-11.5487
▁kritizoval	-11.5487
▁lhůtě	-11.5487
▁metabolick	-11.5487
▁mláďat	-11.5487
▁nabízel	-11.5487
▁nabízet	-11.5487
▁nelíbí	-11.5487
▁nesmějí	-11.5487
▁notebook	-11.5487
▁omezování	-11.5487
▁pohledávky	-11.5487
▁poloostrov	-11.5487
▁polštář	-11.5487
▁pozůstatk	-11.5487
▁počínání	-11.5487
▁pronájmu	-11.5487
▁pódiu	-11.5487
▁redakční	-11.5487
▁rozšiřování	-11.5487
▁separatist	-11.5487
▁skrývá	-11.5487
▁spekulace	-11.5487
▁spekulací	-11.5487
▁stadion	-11.5487
▁svědectví	-11.5487
▁tlačítek	-11.5487
▁trápí	-11.5487
▁vyčleněn	-11.5487
▁vztazích	-11.5487
▁výdělečn	-11.5487
▁zdůrazňuje	-11.5487
▁znepokojen	-11.5487
▁ÚSES	-11.5487
▁Budinský	-11.5487
▁Dudajev	-11.5487
▁Honecker	-11.5487
▁Měsíc	-11.5487
▁Opět	-11.5487
▁TNF	-11.5487
▁bydliště	-11.5487
▁levněji	-11.5487
▁lůžek	-11.5487
▁profesní	-11.5487
▁ropovod	-11.5487
▁rozmnož	-11.5487
▁seznámil	-11.5487
Oscar	-11.5487
▁poskytovan	-11.5487
▁učební	-11.5487
▁Vánoční	-11.5487
▁kosmické	-11.5487
▁nekončí	-11.5487
▁výzvu	-11.5487
kompenz	-11.5487
▁mrtvol	-11.5487
▁prodavač	-11.5487
▁Haagu	-11.5487
▁nerozumí	-11.5487
▁přiznat	-11.5487
▁nazývá	-11.5487
▁terminologi	-11.5487
▁odlišuj	-11.5487
▁sdružuj	-11.5487
KDH	-11.5487
▁Vánoce	-11.5487
▁belgick	-11.5487
▁skandál	-11.5487
▁bezespor	-11.5487
▁nazvaný	-11.5487
▁pojmy	-11.5487
▁uváděl	-11.5487
▁pronajat	-11.5487
▁plakát	-11.5487
▁demisi	-11.5487
▁mezisklad	-11.5487
▁spektrum	-11.5487
▁Easy	-11.5487
▁pokouší	-11.5487
▁pryč	-11.5487
▁zapojen	-11.5487
▁koupě	-11.5487
▁praxí	-11.5487
▁úředníci	-11.5487
▁komplikace	-11.5487
▁mutace	-11.5487
▁nejmladší	-11.5487
▁napodob	-11.5487
▁nevadí	-11.5487
▁Myslíte	-11.5487
▁Kyjev	-11.5487
major	-11.5487
týkat	-11.5487
▁hygienické	-11.5487
▁zastupování	-11.5487
▁něčím	-11.5487
▁předpokládají	-11.5487
týkal	-11.5487
▁inteligentní	-11.5487
▁převodu	-11.5487
▁snižují	-11.5488
▁Neznám	-11.5488
▁levicov	-11.5488
▁reprezentuje	-11.5488
▁veterán	-11.5488
▁rovnost	-11.5488
▁pohlaví	-11.5488
▁Římě	-11.5488
▁zastupitelství	-11.5488
▁usiloval	-11.5488
▁bydlet	-11.5488
▁vyrobil	-11.5488
▁inkas	-11.5488
2:0	-11.5488
▁pilíř	-11.5488
▁Group	-11.5488
▁ocas	-11.5488
▁teplé	-11.5488
▁ledovce	-11.5488
▁strážníci	-11.5488
▁výtisk	-11.5488
▁slyšel	-11.5488
generační	-11.5488
▁ČSTK	-11.5488
▁komunikací	-11.5488
▁neodpovídá	-11.5489
▁spuštění	-11.5489
▁vápenc	-11.5489
▁pyšn	-11.5489
▁součin	-11.5489
▁sousedství	-11.5489
▁námitky	-11.5489
▁interpretace	-11.5489
▁nezajímá	-11.5489
▁léčby	-11.5489
▁někam	-11.5489
▁běžc	-11.5489
▁střechy	-11.5489
▁norem	-11.549
▁Olg	-11.549
▁Nájem	-11.549
▁stolní	-11.549
▁Dukla	-11.549
STAV	-11.549
▁Prohlásil	-11.549
▁HDP	-11.549
▁sumy	-11.549
▁zapsán	-11.549
▁stoprocentní	-11.5491
▁Thun	-11.5491
eckém	-11.5491
▁kabin	-11.5492
▁složitost	-11.5492
▁prudké	-11.5492
▁kníže	-11.5493
▁určí	-11.5493
▁pozitivně	-11.5493
kontinentální	-11.5494
bajt	-11.5494
▁Nemůže	-11.5494
▁NOV	-11.5494
▁lese	-11.5494
hraniční	-11.5495
▁přežil	-11.5495
▁datum	-11.5495
▁prodejců	-11.5495
▁teplý	-11.5495
Finsko	-11.5496
míří	-11.5496
▁pamatuje	-11.5496
▁švýcarský	-11.5496
▁Grafová	-11.5497
▁Solid	-11.5497
▁Lys	-11.5497
▁jmenovat	-11.5498
▁novinkou	-11.5498
▁dílčí	-11.5498
rozuměl	-11.5499
▁zmáčkn	-11.5499
▁hektarů	-11.5499
▁posuzování	-11.5499
▁Libor	-11.55
▁geografick	-11.55
97	-11.55
▁ohrozit	-11.5501
▁přenést	-11.5501
▁poškodil	-11.5501
▁hluk	-11.5501
▁mohutn	-11.5501
▁selekčn	-11.5502
▁účelům	-11.5502
▁Původní	-11.5502
▁dějinách	-11.5503
▁Neměl	-11.5503
tahuje	-11.5503
▁makro	-11.5504
▁zkoušku	-11.5504
▁Postupně	-11.5505
▁rizikový	-11.5506
▁předešl	-11.5506
▁Zpočátku	-11.5507
▁disponuje	-11.5507
▁Web	-11.5508
▁Polák	-11.5508
▁Tatra	-11.5509
▁sídlo	-11.5509
▁přestávce	-11.5509
▁10%	-11.551
▁průhledn	-11.551
▁špičkových	-11.551
▁zvolí	-11.551
▁úsměvem	-11.5511
▁odhaduje	-11.5512
▁uznává	-11.5512
▁rozměrů	-11.5513
▁euro	-11.5514
▁radio	-11.5515
▁Určitě	-11.5516
▁socialistické	-11.5517
▁badatelé	-11.5517
▁sestra	-11.5518
▁vykázal	-11.5518
▁Vodičk	-11.5518
ukční	-11.5519
▁minulou	-11.5519
▁mask	-11.5521
▁ohlásil	-11.5524
▁zvířete	-11.5524
▁plaz	-11.5524
▁dálnice	-11.5525
▁svazek	-11.5527
▁považoval	-11.5527
▁motocyklů	-11.5527
▁LID	-11.5528
▁ostrově	-11.5528
▁Pardubice	-11.553
▁vyplácení	-11.553
▁akcionáři	-11.553
▁zrodil	-11.5531
▁Zkus	-11.5531
▁procesory	-11.5531
▁trik	-11.5532
▁filozofické	-11.5533
ňovací	-11.5535
▁pořadatelů	-11.5536
▁posádky	-11.5539
▁invalidní	-11.5539
▁sněmovna	-11.5541
▁herci	-11.5543
ovitých	-11.5545
▁klientel	-11.5546
▁gest	-11.5547
▁klepnutím	-11.5547
▁Londýna	-11.5548
▁schránky	-11.5549
▁Paříže	-11.5549
▁Listin	-11.555
▁Kremlu	-11.5551
▁Izraele	-11.5552
▁Pravda	-11.5556
▁přistoupil	-11.5556
▁Těm	-11.5557
▁azbestu	-11.5557
▁bazénu	-11.5557
▁zakázku	-11.5557
▁zakázán	-11.5558
▁berou	-11.5559
▁ekonomickým	-11.556
▁starožitnost	-11.556
▁Kolumbi	-11.5561
▁nepříjemný	-11.5562
▁prázdné	-11.5563
▁levný	-11.5563
▁stranické	-11.5564
▁List	-11.5565
atřicetilet	-11.5565
▁vyhrazen	-11.5566
▁fotbalisty	-11.5566
▁hromadn	-11.5567
▁nevhodné	-11.5567
▁vteřiny	-11.5568
▁dáno	-11.5569
▁problémech	-11.5569
▁vidíme	-11.5571
▁omezeným	-11.5572
▁hád	-11.5575
▁doprovodu	-11.5577
▁pořádně	-11.5577
▁zakázal	-11.5578
▁zásobník	-11.5579
▁kompresi	-11.5579
▁Žen	-11.558
▁Benda	-11.5581
▁učitelé	-11.5582
▁tunelu	-11.5587
▁volném	-11.5588
▁59	-11.5588
▁dialogu	-11.5589
▁pěkný	-11.5589
▁pomocník	-11.5593
▁doplnění	-11.5593
▁čar	-11.5597
▁sporů	-11.5597
slouží	-11.5602
▁zlikvidov	-11.5602
▁zaujím	-11.5604
▁náměstka	-11.5605
▁poplatníků	-11.5606
▁vyhlášky	-11.5607
rah	-11.5607
▁iniciativy	-11.5608
▁slevu	-11.5609
▁Sex	-11.5609
▁zvané	-11.5611
▁sond	-11.5612
▁povrchem	-11.5612
▁vyvážen	-11.5614
▁předmětu	-11.5614
▁silnici	-11.5616
▁řecké	-11.5618
▁údaji	-11.5619
▁Nedo	-11.562
CK	-11.5621
▁otázkami	-11.5622
UD	-11.5626
▁používané	-11.5626
▁tváře	-11.5626
▁systémech	-11.5626
▁paktu	-11.5629
▁povinné	-11.5633
▁šťastn	-11.5634
▁vývojář	-11.5635
ogenní	-11.5637
▁dolaru	-11.5637
▁sortimentu	-11.5643
▁olympiádu	-11.5644
▁Nizozemska	-11.5646
▁prodávají	-11.5646
▁výuky	-11.5648
▁vrah	-11.5652
sovětsk	-11.5654
dále	-11.5657
▁kritiky	-11.5658
▁kanadsk	-11.5663
▁Japon	-11.5666
▁desáté	-11.5667
▁neobyčejn	-11.5669
▁nud	-11.5672
▁soutěžích	-11.5672
▁vlastník	-11.5672
▁Tito	-11.5672
▁choroby	-11.5673
▁Ivo	-11.5677
▁61	-11.5678
▁pacienty	-11.5679
obec	-11.5681
▁zemřelo	-11.5681
▁nahradí	-11.5682
▁neprav	-11.5683
▁monopolní	-11.5683
▁doprovod	-11.5685
▁hostin	-11.5686
▁ukázaly	-11.5686
▁slovenského	-11.5688
▁vzali	-11.5688
▁odpadu	-11.5689
▁ilustrac	-11.5689
počtu	-11.5696
▁okamžité	-11.5699
▁jakoukoli	-11.5704
57	-11.5705
▁elektrod	-11.5708
ŽE	-11.5709
škodí	-11.5709
vládní	-11.571
▁porazili	-11.5712
USA	-11.5714
▁využíván	-11.5715
1992	-11.5716
▁zůstali	-11.5717
▁hodí	-11.5717
▁doufám	-11.5718
▁trojnásobn	-11.5718
▁nebýval	-11.5718
▁etnick	-11.5727
▁proměnn	-11.573
▁Nova	-11.5734
jeden	-11.574
ině	-11.5746
▁zálož	-11.5749
▁jízdu	-11.5752
▁Vir	-11.5754
▁mzdové	-11.5755
jistá	-11.5756
▁zhodnoc	-11.5757
▁ptát	-11.576
▁odběratele	-11.5761
▁stanovil	-11.577
▁slavnost	-11.5774
▁demokrat	-11.5777
▁plynáren	-11.5781
platné	-11.5782
▁automobilové	-11.5784
▁užití	-11.5797
psání	-11.5801
▁poboč	-11.5804
ázev	-11.5807
▁ryz	-11.5809
▁vysílač	-11.5818
▁nákladné	-11.5819
VÁ	-11.582
▁plzeňské	-11.5822
▁oprávněné	-11.5827
▁vzrost	-11.5829
▁krásn	-11.5832
IA	-11.5832
▁peče	-11.5842
▁útvarů	-11.5842
▁Králov	-11.5844
▁postupuje	-11.5849
▁Američanů	-11.5853
▁Švéd	-11.5854
▁prokázán	-11.5854
▁otevřen	-11.5858
ther	-11.5863
sadili	-11.5863
▁konstatova	-11.5869
▁převyšuj	-11.5875
▁příznačn	-11.5876
▁mzdov	-11.5877
▁Map	-11.5881
▁Způsob	-11.5882
▁evoluční	-11.5884
▁skutečným	-11.5887
▁slušn	-11.5893
▁Dole	-11.5895
▁vyplněn	-11.5899
▁okamžit	-11.5902
▁vlastníka	-11.591
▁nejlepšími	-11.5911
▁doufá	-11.5913
▁94	-11.5919
▁varianta	-11.5931
▁badatel	-11.5934
▁vyjadřuj	-11.5935
▁39	-11.5935
▁Ph	-11.5949
▁rozdílné	-11.595
▁Obchod	-11.595
▁pořádají	-11.5958
▁dramatické	-11.596
▁hory	-11.5963
▁opačné	-11.5966
platila	-11.5968
▁Výrobc	-11.5969
▁William	-11.5978
▁světle	-11.5981
nikat	-11.5985
▁matematické	-11.5985
▁uvědomil	-11.5986
▁příjemně	-11.5994
▁Václavské	-11.5995
hodinový	-11.5997
hodná	-11.5998
▁pomohla	-11.6001
▁nepřinesl	-11.6003
dražil	-11.6003
vědčí	-11.6008
▁táhn	-11.6011
▁Lac	-11.6011
▁souhlasil	-11.6021
▁přírodovědeck	-11.6024
▁publika	-11.6025
▁útoků	-11.6026
▁Významn	-11.6027
▁Opti	-11.6027
obyčejně	-11.6029
ality	-11.6034
▁leteck	-11.6036
podivu	-11.6041
▁Tvrd	-11.6042
▁vozidl	-11.6045
hrnul	-11.6045
▁totožn	-11.6047
▁Knih	-11.6049
▁kontinent	-11.6054
▁vymez	-11.6057
▁terén	-11.6061
▁period	-11.6063
▁postoupil	-11.6068
▁Střed	-11.6069
evropský	-11.6069
lína	-11.607
čítat	-11.6071
▁zbytečný	-11.6075
▁minima	-11.6076
▁šlecht	-11.6076
▁pedagogick	-11.6077
▁projevují	-11.6079
▁knížk	-11.6079
▁čtvereční	-11.608
▁zkušebn	-11.6081
▁autorit	-11.6083
▁Dob	-11.6083
▁nadějn	-11.6087
▁závislost	-11.6087
▁uplatňuj	-11.6088
přestává	-11.609
▁milost	-11.6091
▁rekordní	-11.6094
▁Dět	-11.6103
▁zaplacen	-11.6104
▁infekc	-11.6106
členný	-11.6109
▁Obča	-11.611
alba	-11.6111
▁Míst	-11.6112
▁Brazíli	-11.6112
▁použije	-11.6113
▁pojme	-11.6116
▁rock	-11.6119
▁dvacát	-11.612
máhat	-11.6125
▁Určit	-11.6127
▁sediment	-11.6129
▁cítím	-11.6129
jevit	-11.6129
▁penzi	-11.613
▁hrazen	-11.6133
rovnání	-11.6134
spektr	-11.6135
▁uvolni	-11.6139
přineslo	-11.6142
▁komunik	-11.6144
▁porod	-11.6146
▁rovnová	-11.6147
chybějí	-11.6148
svědčuje	-11.6149
▁komplikov	-11.6149
reprezenta	-11.615
▁KSČ	-11.6151
▁Účast	-11.6153
▁plošný	-11.6154
▁východoevropský	-11.6154
JPEG	-11.6154
čátcích	-11.6154
▁1983	-11.6154
▁Austrálie	-11.6154
▁Domnívám	-11.6154
▁Ludvík	-11.6154
▁Mitterrand	-11.6154
▁Návrat	-11.6154
▁Oldřich	-11.6154
▁Saúdsk	-11.6154
▁Vešker	-11.6154
▁WWW	-11.6154
▁bankovnictví	-11.6154
▁definice	-11.6154
▁deklaraci	-11.6154
▁domorodc	-11.6154
▁důležitější	-11.6154
▁federaci	-11.6154
▁firmách	-11.6154
▁fungování	-11.6154
▁hardwarov	-11.6154
▁jednodušší	-11.6154
▁komentátor	-11.6154
▁konfigurace	-11.6154
▁konkurovat	-11.6154
▁kosmonaut	-11.6154
▁kvót	-11.6154
▁literatuře	-11.6154
▁marketingu	-11.6154
▁nenávist	-11.6154
▁novotvary	-11.6154
▁nukleární	-11.6154
▁odpovědět	-11.6154
▁pneumatik	-11.6154
▁pojišťovnou	-11.6154
▁poptávku	-11.6154
▁problematice	-11.6154
▁prozradil	-11.6154
▁předpovědi	-11.6154
▁předvánoční	-11.6154
▁přerozdělování	-11.6154
▁rekreaci	-11.6154
▁rozsáhlejší	-11.6154
▁rozvíjejí	-11.6154
▁rozčleněn	-11.6154
▁rubrice	-11.6154
▁seskupení	-11.6154
▁symplektick	-11.6154
▁tolerance	-11.6154
▁trénovat	-11.6154
▁vláken	-11.6154
▁vypráví	-11.6154
▁vyžadovat	-11.6154
▁zapomenout	-11.6154
▁zaručit	-11.6154
▁zavražděn	-11.6154
▁zodpovězen	-11.6154
▁zákulisí	-11.6154
▁Četrans	-11.6154
▁Hamburk	-11.6154
▁Harvard	-11.6154
▁Maďarskem	-11.6154
▁Pistol	-11.6154
▁infarkt	-11.6154
▁interiér	-11.6154
▁neškodn	-11.6154
▁populaci	-11.6154
▁pseudo	-11.6154
▁přihlášen	-11.6154
▁referát	-11.6154
▁rozsudk	-11.6154
▁rozvíjet	-11.6154
▁tiskáren	-11.6154
▁špatnou	-11.6154
▁Jenom	-11.6154
▁Právo	-11.6154
▁kampaně	-11.6154
▁odvezl	-11.6154
▁otazník	-11.6154
▁tendence	-11.6154
▁zjišťova	-11.6154
▁účinků	-11.6154
▁analytick	-11.6154
▁archiv	-11.6154
▁cementárn	-11.6154
▁mikrofon	-11.6154
▁milimetr	-11.6154
▁osaměl	-11.6154
▁povolební	-11.6154
▁pozměň	-11.6154
▁uvítal	-11.6154
▁vzbudil	-11.6154
▁makléř	-11.6154
▁reagují	-11.6154
▁stráví	-11.6154
▁účinné	-11.6154
▁Francií	-11.6154
▁finalist	-11.6154
▁vyslovit	-11.6154
přízeň	-11.6154
▁infikova	-11.6154
▁placentál	-11.6154
▁praktik	-11.6154
▁Ctrl	-11.6154
▁ujistil	-11.6154
▁Michel	-11.6154
▁taxonomie	-11.6154
▁zastupuje	-11.6154
▁nabídek	-11.6154
▁podobnou	-11.6154
▁amatér	-11.6154
▁značku	-11.6154
▁elementární	-11.6154
▁Kurzy	-11.6154
▁povstal	-11.6154
▁ustavující	-11.6154
▁aridní	-11.6154
▁biochemi	-11.6154
▁vybojoval	-11.6154
▁fází	-11.6154
▁pól	-11.6154
▁brazilsk	-11.6154
▁úložiště	-11.6154
▁přehnan	-11.6154
▁tragick	-11.6154
▁Pivovar	-11.6154
▁Marián	-11.6154
▁plastik	-11.6154
▁Prokop	-11.6154
▁nazvané	-11.6154
▁popředí	-11.6154
▁dřevěné	-11.6154
▁desek	-11.6154
▁přípustn	-11.6154
▁uplatňován	-11.6154
▁vrstva	-11.6154
▁vystavuje	-11.6154
▁fixac	-11.6154
▁rozdělí	-11.6154
šňů	-11.6154
▁ovládací	-11.6154
▁FBIS	-11.6155
▁trasy	-11.6155
▁robot	-11.6155
▁zánět	-11.6155
▁architektonick	-11.6155
▁ČSD	-11.6155
▁Informace	-11.6155
▁oboustrann	-11.6155
▁jednostrann	-11.6155
▁učiní	-11.6155
▁mediální	-11.6155
▁komunikační	-11.6155
▁poušti	-11.6155
▁Proces	-11.6155
▁střídají	-11.6155
▁funkčnost	-11.6155
▁konsensus	-11.6155
▁Soulu	-11.6155
▁komunit	-11.6155
▁Moravia	-11.6155
▁virus	-11.6155
▁Super	-11.6156
▁léčbu	-11.6156
▁češtiny	-11.6156
▁holub	-11.6156
▁lázní	-11.6156
▁Setkání	-11.6156
▁dotaci	-11.6156
▁profesi	-11.6156
▁bankrot	-11.6156
▁parazit	-11.6156
▁Nechci	-11.6156
▁nominaci	-11.6156
▁nepřesnost	-11.6156
▁realizace	-11.6156
▁zabránil	-11.6156
▁Značn	-11.6156
▁1976	-11.6157
▁Cítí	-11.6157
▁šipk	-11.6157
▁fakticky	-11.6157
▁kameny	-11.6157
▁sníh	-11.6157
▁zničil	-11.6157
▁obstará	-11.6158
▁Irák	-11.6158
▁spotřeba	-11.6158
ářských	-11.6158
▁toxické	-11.6158
yplynulo	-11.6159
▁mezistátní	-11.6159
▁faul	-11.6159
▁vyprávěl	-11.6159
▁touží	-11.616
▁všední	-11.616
▁publikaci	-11.616
▁nepamatuj	-11.6161
▁Hleda	-11.6161
▁faktorem	-11.6162
▁rekordman	-11.6162
▁dvoudenní	-11.6163
▁kardinál	-11.6163
symetri	-11.6163
▁hepatocytů	-11.6163
▁volající	-11.6163
▁distribuční	-11.6164
▁stěžovat	-11.6164
▁desetkrát	-11.6165
▁nestátní	-11.6165
▁líčí	-11.6165
▁produkcí	-11.6165
▁zajišťující	-11.6165
▁palubě	-11.6165
▁hospodaří	-11.6165
▁bál	-11.6166
▁PŘÍ	-11.6166
▁párů	-11.6167
▁obchodovat	-11.6167
▁Vzá	-11.6167
▁uheln	-11.6168
▁zimy	-11.6168
▁vlasy	-11.6168
▁cestách	-11.6168
▁vyhodnocení	-11.6169
▁vynutil	-11.6169
▁ředitelství	-11.6169
azeta	-11.6171
▁Prag	-11.6172
▁spektra	-11.6173
▁altruismus	-11.6173
▁významnější	-11.6173
1972	-11.6173
▁nahoře	-11.6173
▁červnov	-11.6174
▁přijatelná	-11.6175
▁umělci	-11.6176
▁pokrýt	-11.6178
znamenají	-11.6179
▁výšky	-11.6179
▁zatížení	-11.6179
▁konání	-11.6179
▁evropskou	-11.6179
▁hudbu	-11.6184
▁pořádek	-11.6184
▁pozorovatelé	-11.6184
▁Lidový	-11.6184
▁odsoudil	-11.6185
▁Kladně	-11.6186
▁zvířecí	-11.6187
▁ekonomikou	-11.6188
▁vysloužil	-11.6188
▁řetězce	-11.6189
▁jednotlivce	-11.619
▁pásmu	-11.619
▁vyhrát	-11.6191
▁zelený	-11.6192
▁předloží	-11.6192
▁vydávat	-11.6194
▁různě	-11.6195
▁Koš	-11.6196
▁dosáhne	-11.6196
▁vysílací	-11.6196
sloučenin	-11.6196
▁nouze	-11.6197
▁zeď	-11.6197
▁prokázat	-11.6198
▁Číně	-11.6198
▁Každé	-11.6198
▁cokoli	-11.6199
▁zmínil	-11.62
▁pevnin	-11.6201
žívají	-11.6201
▁přesností	-11.6201
▁modelování	-11.6202
▁připraví	-11.6203
▁pozoruhodné	-11.6204
▁mlhy	-11.6204
▁sumu	-11.6204
▁nád	-11.6204
▁vyřazení	-11.6205
256	-11.6206
▁nedokáže	-11.6206
▁uzavřený	-11.6206
ousek	-11.6207
▁podepsání	-11.6208
▁Mik	-11.6211
▁nástupce	-11.6212
▁vědce	-11.6213
▁řádku	-11.6213
▁návštěvníky	-11.6216
▁výtvarník	-11.6218
▁směřující	-11.6218
▁Alžběta	-11.6219
▁Bratinka	-11.6219
▁soukromí	-11.6221
▁vložené	-11.6221
▁Chebu	-11.6222
▁analýze	-11.6222
▁jistotou	-11.6224
▁vyloučeno	-11.6224
▁krajině	-11.6227
▁pomst	-11.6228
▁technickou	-11.6235
▁slavnosti	-11.6235
▁zoologick	-11.6236
▁odstoupil	-11.6236
▁předkol	-11.6237
▁přispívají	-11.6238
▁ekonomiku	-11.6238
▁kanály	-11.6239
▁pokladny	-11.6241
▁rozpočtový	-11.6241
▁proslul	-11.6242
stavovat	-11.6243
▁nuly	-11.6243
▁optimismu	-11.6244
kontroluje	-11.6245
▁Francouzský	-11.6246
▁Šlo	-11.6246
▁kalendářní	-11.6247
dražit	-11.6248
▁listiny	-11.6249
▁autobusem	-11.6249
▁stoupla	-11.6249
ovku	-11.625
▁předsedkyn	-11.6253
▁zastává	-11.6253
▁vybrali	-11.6253
▁dospělých	-11.6256
▁dopisů	-11.6257
▁zjednodušen	-11.6258
▁přístavu	-11.6261
▁síťové	-11.6263
▁oceánické	-11.6266
▁ránu	-11.6267
▁Anna	-11.6267
▁kurzů	-11.6268
▁hosté	-11.6271
▁aplikacemi	-11.6271
▁plen	-11.6274
▁diváky	-11.6274
▁aparátu	-11.6274
▁středověku	-11.6274
▁nevěděli	-11.6275
▁Stor	-11.6275
▁vyloučení	-11.6278
▁bytový	-11.6279
▁Fakt	-11.628
▁etapa	-11.628
▁úhradu	-11.6281
▁nastane	-11.6283
▁zvykem	-11.6284
▁válečný	-11.6285
96	-11.6285
▁krádež	-11.6285
▁délky	-11.6285
▁dozvěděli	-11.6285
▁bránil	-11.6286
ht	-11.6286
▁diplomatický	-11.6286
▁dodávat	-11.6292
▁opakuje	-11.6292
▁Možnosti	-11.6292
▁černého	-11.6293
▁filmař	-11.6295
▁ostrova	-11.6295
▁Začátk	-11.6296
▁Historick	-11.6297
▁zvolení	-11.6297
▁disciplíny	-11.6298
▁pořádání	-11.6301
▁klesla	-11.6304
▁samotného	-11.6304
▁přísné	-11.6304
▁telefonů	-11.6305
▁městem	-11.6306
▁široký	-11.6307
▁OB	-11.631
▁návratnost	-11.6311
▁zúčastněný	-11.6312
▁autobusové	-11.6312
▁větru	-11.6313
▁výhodný	-11.6313
▁nepřímo	-11.6316
▁hormonů	-11.6317
náze	-11.6317
▁obchodník	-11.6319
▁Trh	-11.6322
▁možnostech	-11.6323
▁stálý	-11.6323
▁nezávislosti	-11.6326
▁sestaven	-11.6327
▁nemáte	-11.6328
▁motorem	-11.633
▁citeln	-11.6331
živí	-11.6331
▁chaty	-11.6331
▁horké	-11.6336
▁vědecky	-11.6337
LET	-11.6338
▁dovnitř	-11.6338
▁Muži	-11.634
▁Hilla	-11.634
▁lekto	-11.634
▁objevilo	-11.6341
▁obchodníky	-11.6342
▁titulem	-11.6346
▁investici	-11.6346
▁představila	-11.6347
▁dodavatelů	-11.6348
rovnávání	-11.6354
▁středoevropské	-11.6355
hodnost	-11.6361
ovité	-11.6362
▁vzrostla	-11.6364
▁nechtěli	-11.6371
▁nedoved	-11.6372
▁dluhy	-11.6372
▁Alan	-11.6374
▁svěřil	-11.6376
▁magi	-11.6379
▁zaměstnavateli	-11.6379
▁kanceláři	-11.638
▁bra	-11.6384
děláme	-11.6391
▁sovět	-11.6395
▁založili	-11.6395
▁Ren	-11.6395
▁Kamen	-11.64
▁krásný	-11.6405
▁Vznikl	-11.6407
▁liga	-11.6408
ovská	-11.6411
▁postaví	-11.6412
▁nedělním	-11.6415
▁Žád	-11.6419
▁vyroben	-11.6442
▁odstupné	-11.6444
▁radí	-11.645
účel	-11.6451
▁pohybů	-11.6453
▁dokonalý	-11.6459
▁Radnic	-11.6461
▁vítězem	-11.6466
▁Dne	-11.6468
▁špičkov	-11.6477
konaly	-11.6479
▁předák	-11.6479
▁vlastníky	-11.6483
▁nacházel	-11.6489
▁lebk	-11.6494
▁českými	-11.6495
▁šťastný	-11.6497
panuje	-11.6505
méno	-11.6511
UM	-11.6512
▁Casimir	-11.6515
▁dostával	-11.6515
▁maso	-11.652
▁ověřit	-11.6524
volené	-11.6526
operační	-11.6529
▁nedělá	-11.6529
▁upravené	-11.653
▁Podpor	-11.653
produkt	-11.6532
pravicov	-11.6534
▁majetkové	-11.6537
1991	-11.6542
hradil	-11.6546
▁socialist	-11.6547
▁samém	-11.6551
NU	-11.6552
nesla	-11.6559
terak	-11.6561
▁královské	-11.6563
▁4000	-11.6568
▁otevřeno	-11.6568
▁vypracoval	-11.6571
▁Borise	-11.6573
▁Prac	-11.6575
které	-11.6578
▁definovan	-11.6578
▁poradenské	-11.658
ařské	-11.6582
avky	-11.6583
▁Americké	-11.6586
▁čestn	-11.659
▁Osl	-11.6596
▁modifik	-11.6596
▁náboženský	-11.6599
vydržel	-11.6604
▁vynález	-11.6604
▁nacionalism	-11.6607
uživatelské	-11.6616
▁způsobeno	-11.6617
pokládat	-11.6619
▁Mladiče	-11.6622
▁jakýkoli	-11.6623
erie	-11.6625
▁velitele	-11.6628
bitový	-11.6628
hraj	-11.6638
zkoumat	-11.664
značení	-11.6645
ALE	-11.6646
ND	-11.6649
▁Eli	-11.665
▁Perské	-11.6651
▁následné	-11.6664
▁muslimsk	-11.6668
▁vytvořený	-11.6673
ladit	-11.6673
poškozené	-11.6676
▁slun	-11.6684
▁Druh	-11.6685
▁vrácen	-11.669
stižen	-11.6693
▁podrobně	-11.6695
78	-11.6701
▁strašn	-11.6703
▁zpětn	-11.6705
▁ovlivnil	-11.6705
▁splněn	-11.6708
▁pravým	-11.6711
▁Jih	-11.6716
obrazit	-11.672
▁nabízené	-11.6725
pracovala	-11.6729
▁poplatník	-11.6734
▁předků	-11.6736
▁logik	-11.6743
▁případném	-11.6744
ůbec	-11.6749
▁trávi	-11.675
▁nemovitost	-11.6757
▁racionální	-11.6758
▁vítězk	-11.6777
▁bitv	-11.6778
▁charakterizova	-11.6783
▁Park	-11.6784
▁propojen	-11.6784
▁Skutečn	-11.6785
léhá	-11.6787
▁spravedlnost	-11.6792
▁elektřin	-11.6793
▁Výkon	-11.6794
NG	-11.6794
ohled	-11.6797
▁architektur	-11.68
▁myš	-11.6801
▁poskytován	-11.6802
▁ptá	-11.6803
▁navrhuj	-11.6805
▁Ročn	-11.6805
▁zklamán	-11.6806
▁překonal	-11.6808
▁pozorovatel	-11.6812
gramů	-11.6815
▁Daně	-11.6817
▁Pardubic	-11.6819
▁úředn	-11.6825
rovné	-11.6825
▁honorář	-11.6826
▁srovnateln	-11.6826
▁bilanc	-11.6827
▁53	-11.6829
▁Víc	-11.6831
▁doporučen	-11.6834
▁učit	-11.6836
▁fundamentalist	-11.6838
četné	-11.6838
ifikace	-11.6842
ontrol	-11.6843
▁kilogram	-11.6843
▁nemocné	-11.6849
▁62	-11.6851
▁průvod	-11.6853
▁tržb	-11.6854
▁kořen	-11.6855
▁stanovis	-11.6855
▁Spíš	-11.6856
▁teplá	-11.6859
pracování	-11.6861
▁účinku	-11.6867
▁Muslim	-11.6868
▁Reichel	-11.6868
▁ofsajd	-11.6868
▁paměť	-11.6868
▁poštovní	-11.6868
▁radikálně	-11.6868
▁raketoplán	-11.6868
▁severozápad	-11.6868
▁velvyslanec	-11.6868
▁vlhkost	-11.6868
▁zázračn	-11.6868
ýpovědní	-11.6868
▁Akademie	-11.6868
▁Albertville	-11.6868
▁Bratislavy	-11.6868
▁Delphi	-11.6868
▁Digital	-11.6868
▁General	-11.6868
▁Hospodářsk	-11.6868
▁Kuvajt	-11.6868
▁Netanjahu	-11.6868
▁Princip	-11.6868
▁Pálffy	-11.6868
▁SPIRIT	-11.6868
▁TWA	-11.6868
▁Teplice	-11.6868
▁Vynikající	-11.6868
▁akcionáře	-11.6868
▁brožur	-11.6868
▁bulharsk	-11.6868
▁ceremoniál	-11.6868
▁databáze	-11.6868
▁databázi	-11.6868
▁delegát	-11.6868
▁diktátor	-11.6868
▁dodržovat	-11.6868
▁drůbež	-11.6868
▁dveřmi	-11.6868
▁emitent	-11.6868
▁finálové	-11.6868
▁havárii	-11.6868
▁holding	-11.6868
▁injekc	-11.6868
▁inzulín	-11.6868
▁kanalizací	-11.6868
▁katalyzátor	-11.6868
▁kazašsk	-11.6868
▁komedie	-11.6868
▁komisař	-11.6868
▁kompetencí	-11.6868
▁lahví	-11.6868
▁lehký	-11.6868
▁lidstvo	-11.6868
▁milisekund	-11.6868
▁nechybí	-11.6868
▁nosorožců	-11.6868
▁novorozen	-11.6868
▁odpolední	-11.6868
▁olomoucké	-11.6868
▁omezit	-11.6868
▁organismy	-11.6868
▁paradigma	-11.6868
▁podezřelý	-11.6868
▁pojišťoven	-11.6868
▁pojišťovně	-11.6868
▁portfeje	-11.6868
▁pořizovací	-11.6868
▁prospěšn	-11.6868
▁pátku	-11.6868
▁přísluší	-11.6868
▁sféře	-11.6868
▁splátek	-11.6868
▁tekutin	-11.6868
▁thajské	-11.6868
▁těhotenství	-11.6868
▁vrtulník	-11.6868
▁vyčerpán	-11.6868
▁vídeňské	-11.6868
▁zahájit	-11.6868
▁zajišťoval	-11.6868
▁zakázek	-11.6868
▁zaručuje	-11.6868
▁zdůraznit	-11.6868
▁zneužívání	-11.6868
▁zopakoval	-11.6868
▁zpracovává	-11.6868
▁záruční	-11.6868
▁Černomyrdin	-11.6868
▁železnice	-11.6868
▁KGB	-11.6868
▁Němce	-11.6868
▁SGI	-11.6868
▁málokdo	-11.6868
▁nesrovnateln	-11.6868
▁obyvatelstvo	-11.6868
▁pohodlné	-11.6868
▁poválečn	-11.6868
▁prodluž	-11.6868
▁překonání	-11.6868
▁stadiu	-11.6868
▁trénuj	-11.6868
▁účinnou	-11.6868
▁Československý	-11.6868
▁Dokument	-11.6868
▁Student	-11.6868
▁informuje	-11.6868
▁komodit	-11.6868
▁smířit	-11.6868
▁stěžuje	-11.6868
▁vyústi	-11.6868
▁kolegové	-11.6868
▁kultuře	-11.6868
▁přeplněn	-11.6868
▁svrchované	-11.6868
▁půlnoci	-11.6868
▁rozsáhlou	-11.6868
▁srbské	-11.6868
▁James	-11.6868
▁Zajímal	-11.6868
▁chystají	-11.6868
▁odstavec	-11.6868
▁polymer	-11.6868
▁železné	-11.6868
▁nejblíže	-11.6868
▁umírněn	-11.6868
▁dávek	-11.6868
▁zařadit	-11.6868
▁Prahou	-11.6868
▁podepsat	-11.6868
▁tvořiv	-11.6868
▁vzdělan	-11.6868
▁Holandsk	-11.6868
▁netrpěliv	-11.6868
▁někomu	-11.6868
▁nepodaří	-11.6868
▁nikomu	-11.6868
▁Automatick	-11.6868
LSNS	-11.6868
▁loupež	-11.6868
▁odhalit	-11.6868
glaciál	-11.6868
▁Kadlec	-11.6868
▁podporoval	-11.6868
▁Mlýn	-11.6868
▁poznámky	-11.6868
▁mutací	-11.6868
▁oběhové	-11.6868
▁prováděl	-11.6868
▁přetížen	-11.6868
▁Fuchs	-11.6868
▁dědeček	-11.6868
▁úchyt	-11.6868
běhnout	-11.6868
▁Louis	-11.6868
▁FMV	-11.6868
▁něčeho	-11.6868
▁Zdravotn	-11.6868
▁Zpráv	-11.6868
▁nedaleké	-11.6868
▁PET	-11.6868
opouštěl	-11.6868
▁stromeček	-11.6868
▁modré	-11.6868
▁vybudoval	-11.6868
▁Front	-11.6868
▁chleba	-11.6868
▁mocenské	-11.6868
▁příloh	-11.6868
▁stereo	-11.6869
▁Bohuslav	-11.6869
▁fotografií	-11.6869
▁Účastníci	-11.6869
▁hokejistů	-11.6869
▁formálně	-11.6869
▁legendární	-11.6869
▁Suková	-11.6869
▁Život	-11.6869
▁Kouba	-11.6869
▁kamión	-11.6869
▁Týden	-11.6869
▁PŘI	-11.6869
▁lákav	-11.6869
▁Opava	-11.6869
▁kapsy	-11.6869
hánějí	-11.6869
▁Svobodn	-11.6869
▁lehko	-11.6869
▁dovážen	-11.6869
▁transport	-11.6869
▁adaptace	-11.6869
▁účinnější	-11.6869
▁usedl	-11.6869
▁nejsme	-11.6869
▁implantát	-11.6869
▁kopií	-11.6869
▁vyhořelé	-11.6869
▁font	-11.6869
▁Samotn	-11.6869
▁Bartoš	-11.687
▁nazvat	-11.687
▁pojmu	-11.687
▁zmizí	-11.687
▁1979	-11.687
▁Ježek	-11.687
▁metan	-11.687
▁Zápas	-11.687
hrádk	-11.687
▁Zvýšen	-11.687
▁jízdenk	-11.687
▁princ	-11.687
▁písmo	-11.687
▁neuron	-11.687
▁Následující	-11.687
▁stimulaci	-11.687
▁Španělsku	-11.687
▁únosn	-11.687
▁hlučn	-11.687
▁štědr	-11.687
▁Hledá	-11.687
▁registrační	-11.6871
▁jinam	-11.6871
▁výsad	-11.6871
▁neznají	-11.6871
▁nikam	-11.6871
▁vejce	-11.6871
▁ležel	-11.6871
▁Klasick	-11.6871
▁rovný	-11.6871
▁zády	-11.6871
▁oblouk	-11.6871
▁nereáln	-11.6871
▁ultra	-11.6872
▁hraček	-11.6872
▁protestant	-11.6872
▁psy	-11.6872
▁1970	-11.6872
▁nosič	-11.6872
▁nikde	-11.6872
▁třídenní	-11.6872
▁pískov	-11.6873
▁umělců	-11.6873
▁Obavy	-11.6873
▁Jaw	-11.6873
▁bohatší	-11.6873
▁vyzkoušet	-11.6873
▁nájezd	-11.6873
▁republikánsk	-11.6873
▁odezv	-11.6873
▁vyhledávání	-11.6873
[...]
