<unk>	0
<s>	0
</s>	0
<doc>	0
</doc>	0
<head>	0
</head>	0
<phr>	0
</phr>	0
▁	-1.72037
,	-3.27421
.	-3.42203
▁a	-4.34111
▁v	-4.42397
▁se	-4.51494
a	-4.59702
▁na	-4.64264
m	-4.85847
u	-4.87148
ch	-4.93704
i	-4.99341
y	-5.03833
▁je	-5.04174
ho	-5.18784
▁"	-5.22488
▁že	-5.29326
▁z	-5.3153
▁s	-5.34793
▁o	-5.57032
e	-5.57148
▁do	-5.57806
ou	-5.59913
á	-5.60411
o	-5.65672
▁pro	-5.77856
▁-	-5.80594
▁za	-5.83474
í	-5.8359
é	-5.83679
em	-5.88135
ě	-5.9004
s	-5.9173
▁k	-5.94769
▁po	-5.99805
▁to	-5.99932
▁(	-6.02982
▁ve	-6.03132
▁i	-6.03686
▁V	-6.06022
to	-6.08922
▁by	-6.1308
t	-6.19878
▁ale	-6.22552
>	-6.24049
ž	-6.24136
ů	-6.28073
mi	-6.28297
▁si	-6.31569
ý	-6.40048
▁jsou	-6.41592
▁jako	-6.44949
▁od	-6.45606
▁které	-6.46761
▁při	-6.52755
▁však	-6.54571
ých	-6.55538
)	-6.56194
▁:	-6.57412
▁tak	-6.60942
▁který	-6.66204
ní	-6.66921
▁ne	-6.72459
▁nebo	-6.74625
▁jeho	-6.75418
▁bude	-6.76477
?	-6.78603
▁jen	-6.82026
me	-6.84891
x	-6.87264
▁S	-6.89986
▁než	-6.90496
▁má	-6.92093
▁A	-6.93862
▁Po	-6.9503
▁už	-6.97365
▁aby	-6.986
▁Na	-6.98641
▁před	-6.98937
▁byl	-7.00308
▁jejich	-7.0241
te	-7.0277
▁jak	-7.03605
▁jsem	-7.03735
▁být	-7.03974
▁až	-7.0421
l	-7.04718
z	-7.07552
▁která	-7.08542
▁také	-7.09075
ce	-7.10433
▁jsme	-7.12412
ně	-7.13086
▁<	-7.13552
▁podle	-7.13757
v	-7.14475
▁ze	-7.14945
▁Je	-7.16631
▁Z	-7.1787
mu	-7.18048
p	-7.19394
▁co	-7.25129
▁není	-7.25583
▁vy	-7.26058
ého	-7.26142
k	-7.27714
ka	-7.28471
▁mezi	-7.28762
▁bylo	-7.29056
▁ani	-7.30573
▁či	-7.31409
▁ještě	-7.31766
▁své	-7.32024
▁již	-7.33496
▁O	-7.33732
▁když	-7.33843
▁může	-7.34726
▁byla	-7.36731
ové	-7.36744
d	-7.38195
▁let	-7.38804
▁P	-7.38826
▁toho	-7.39148
kud	-7.40705
/	-7.42603
▁korun	-7.42681
r	-7.43134
▁K	-7.4643
▁pak	-7.47046
▁další	-7.48817
ky	-7.49288
).	-7.49301
▁kteří	-7.49518
li	-7.49827
▁tím	-7.49926
ech	-7.50107
▁té	-7.518
na	-7.52321
▁kde	-7.5308
že	-7.5443
▁To	-7.55166
▁více	-7.55306
▁roku	-7.55905
▁první	-7.56058
▁tedy	-7.56262
ci	-7.57114
ek	-7.58719
ým	-7.59322
▁nich	-7.60632
ná	-7.61482
▁bez	-7.62395
la	-7.62607
ku	-7.63484
▁mají	-7.65101
),	-7.65478
č	-7.66182
né	-7.67435
▁pod	-7.68218
▁tu	-7.68692
▁roce	-7.70166
▁pouze	-7.70451
▁musí	-7.70871
▁tom	-7.71366
-	-7.71768
▁kdy	-7.72348
ová	-7.72878
▁tomu	-7.73533
cí	-7.74387
▁li	-7.74436
n	-7.75453
▁ke	-7.75654
▁proto	-7.75808
▁Za	-7.75981
▁budou	-7.77516
▁třeba	-7.78789
b	-7.79019
▁protože	-7.79582
▁totiž	-7.80321
▁proti	-7.8228
ovat	-7.82301
▁nás	-7.82778
▁lze	-7.8284
▁I	-7.8375
▁Ne	-7.84799
▁nad	-7.86524
it	-7.86684
▁měl	-7.87036
▁byly	-7.87047
▁M	-7.87232
▁asi	-7.87727
▁velmi	-7.87785
▁poslední	-7.87808
uje	-7.87999
▁její	-7.88085
ách	-7.88168
▁zatím	-7.8869
š	-7.89179
▁D	-7.90197
▁pře	-7.90939
nou	-7.91815
▁řekl	-7.9209
▁ty	-7.92596
▁včera	-7.93071
▁Podl	-7.93655
jí	-7.94038
j	-7.95686
▁U	-7.95973
▁dnes	-7.97738
▁firmy	-7.98473
▁Pro	-7.98902
lo	-7.99449
▁dva	-8.00001
c	-8.00441
ň	-8.00624
▁především	-8.00828
ovi	-8.013
▁vlastní	-8.02065
▁případě	-8.03314
▁tisíc	-8.03586
ný	-8.03636
▁'	-8.04208
▁J	-8.0442
ových	-8.04823
▁například	-8.04959
▁všech	-8.05079
▁přes	-8.06321
▁Při	-8.06412
▁rok	-8.0648
le	-8.0686
ost	-8.07079
▁době	-8.07888
en	-8.07914
▁nyní	-8.08125
co	-8.08458
▁mít	-8.08959
ování	-8.09034
ni	-8.09174
▁Do	-8.09361
▁nám	-8.0964
st	-8.09821
▁ji	-8.10123
ze	-8.10656
ům	-8.10905
▁tři	-8.12206
al	-8.12952
▁lidí	-8.13099
▁jim	-8.13114
▁společnosti	-8.13234
▁mohou	-8.13443
▁práce	-8.13522
▁stále	-8.14462
▁těchto	-8.1473
▁ovšem	-8.14866
▁Ve	-8.15104
▁všechny	-8.15175
▁zda	-8.15526
▁jeden	-8.15712
il	-8.16667
▁několik	-8.17504
▁kterou	-8.19245
▁což	-8.20104
▁něm	-8.215
▁tento	-8.21994
...	-8.21996
ne	-8.22334
▁procent	-8.2237
h	-8.2358
ské	-8.23791
▁možné	-8.24318
cích	-8.24752
▁jde	-8.25087
▁České	-8.25356
▁Ale	-8.25628
▁dvou	-8.25652
▁Jak	-8.2613
▁dalších	-8.26367
právě	-8.26995
▁nové	-8.27128
cela	-8.27445
▁roz	-8.27551
▁H	-8.28313
in	-8.28332
▁T	-8.28339
▁měla	-8.28636
no	-8.28817
▁ČR	-8.28884
▁Praze	-8.29663
f	-8.30127
téměř	-8.30496
▁naše	-8.30597
▁zejména	-8.30667
▁svou	-8.31122
ře	-8.31627
ných	-8.32599
g	-8.32987
▁strany	-8.33131
ra	-8.33449
▁Proto	-8.34009
▁G	-8.34128
▁jednání	-8.34279
ují	-8.34669
▁Od	-8.34856
▁prostředí	-8.35036
▁kdo	-8.35148
▁zařízení	-8.35395
▁sice	-8.35565
▁letech	-8.35743
▁Co	-8.36197
▁Kdy	-8.36754
▁základní	-8.37087
▁svého	-8.37189
ři	-8.3725
ými	-8.37992
▁dvě	-8.38104
▁svých	-8.38165
▁větší	-8.38237
▁nejen	-8.39296
ta	-8.3934
osti	-8.39601
▁jiné	-8.4022
▁B	-8.40808
ovou	-8.41061
▁naši	-8.41544
▁světa	-8.41831
či	-8.42161
▁tomto	-8.42368
▁možnost	-8.42438
po	-8.42519
▁místo	-8.42719
ém	-8.43729
▁R	-8.43754
spo	-8.44145
el	-8.44229
▁každý	-8.44368
ový	-8.44778
lu	-8.45074
at	-8.45112
▁000	-8.45231
▁Tak	-8.45387
▁nic	-8.45428
▁nej	-8.45592
▁milionů	-8.46134
▁druhé	-8.46175
▁část	-8.46233
je	-8.46643
▁mu	-8.46817
ny	-8.46835
▁něco	-8.47368
▁vlády	-8.47406
▁zde	-8.47408
ám	-8.47572
▁svým	-8.4758
ří	-8.47642
▁stát	-8.47784
▁uvedl	-8.48507
▁L	-8.4865
ami	-8.48932
▁stejně	-8.49344
M	-8.4969
pl	-8.50635
▁ceny	-8.50806
▁zákona	-8.51651
▁2	-8.51761
▁kolem	-8.51819
▁C	-8.52878
▁%	-8.53345
or	-8.53492
ly	-8.53566
▁N	-8.538
se	-8.53841
▁oblasti	-8.53964
kou	-8.54014
▁dobře	-8.54496
▁příliš	-8.54794
▁patří	-8.54796
▁systém	-8.54941
vá	-8.54965
▁země	-8.54967
on	-8.55159
▁tam	-8.5521
▁říká	-8.55278
▁dosud	-8.55471
▁svůj	-8.55485
▁byli	-8.55677
si	-8.55885
▁některých	-8.55895
▁práci	-8.56148
▁některé	-8.56327
▁zemí	-8.56499
S	-8.57083
▁zboží	-8.57418
▁vůbec	-8.57577
▁opět	-8.57862
ko	-8.58699
▁sociální	-8.59195
▁vždy	-8.59503
▁10	-8.5988
▁neboť	-8.60062
▁1	-8.61285
vě	-8.61527
▁jež	-8.62307
ř	-8.62826
A	-8.62987
▁firma	-8.63007
ští	-8.63174
▁pracovní	-8.63472
▁nejsou	-8.63573
▁mě	-8.6387
▁několika	-8.64001
▁často	-8.64133
▁období	-8.64245
T	-8.64248
▁systému	-8.64783
▁finanční	-8.6529
ro	-8.6547
▁dokonce	-8.65798
▁jste	-8.66178
▁den	-8.66308
▁USA	-8.66831
▁měli	-8.66984
ově	-8.6711
ru	-8.67252
▁sám	-8.67279
▁3	-8.67658
▁Js	-8.67668
▁Kč	-8.67967
tu	-8.68268
▁lidé	-8.68468
▁celé	-8.6858
er	-8.68853
▁střední	-8.69771
během	-8.69919
▁níž	-8.69931
D	-8.69973
▁rovněž	-8.70017
▁trhu	-8.7059
ného	-8.71115
▁vyšší	-8.71136
▁nimi	-8.71449
▁doby	-8.7154
▁přímo	-8.71606
▁společnost	-8.71758
▁počet	-8.71795
ov	-8.71974
ti	-8.72115
us	-8.72136
včetně	-8.72391
vůli	-8.7242
va	-8.72598
čí	-8.72691
▁části	-8.727
▁situace	-8.72791
▁takže	-8.72838
če	-8.73028
L	-8.73136
▁hodin	-8.73303
▁zahraničí	-8.73599
▁Jan	-8.73621
▁státní	-8.73691
zřejmě	-8.73826
▁5	-8.73888
▁zákon	-8.74239
ích	-8.74935
▁vše	-8.74958
▁informace	-8.75033
tato	-8.75311
▁mohl	-8.7553
▁méně	-8.76069
▁Ty	-8.76104
▁pět	-8.76395
▁Evropy	-8.7648
▁peníze	-8.76486
▁např	-8.76571
R	-8.76588
B	-8.76973
▁Zatím	-8.77332
▁víc	-8.7736
▁něj	-8.77741
▁chce	-8.77803
▁znamená	-8.77811
▁vám	-8.77819
an	-8.77873
▁nebude	-8.77967
▁způsobem	-8.78346
▁čas	-8.78444
▁F	-8.78482
▁takové	-8.78572
▁ředitel	-8.792
▁republiky	-8.79273
▁spíše	-8.79275
oval	-8.79842
▁nemá	-8.79909
▁velký	-8.80072
▁dále	-8.80408
▁dobu	-8.80423
▁ob	-8.80666
▁navíc	-8.80745
▁přitom	-8.80768
▁čtyři	-8.80921
ská	-8.81124
▁sebe	-8.81323
▁ten	-8.81331
▁půl	-8.81398
▁První	-8.81427
nost	-8.81478
▁obchodní	-8.81557
▁vlastně	-8.81629
da	-8.81672
▁problémy	-8.81699
▁jednoho	-8.82059
▁ministr	-8.82283
▁české	-8.8229
▁naopak	-8.82504
▁řízení	-8.82596
tě	-8.82678
▁prezident	-8.82792
ového	-8.82968
ry	-8.83039
K	-8.8309
ť	-8.83323
ující	-8.83417
ri	-8.84335
▁města	-8.8455
▁zájem	-8.84592
▁letošní	-8.84712
▁skutečně	-8.84793
ský	-8.85263
de	-8.85387
▁straně	-8.85401
▁největší	-8.85583
ným	-8.85607
by	-8.85671
děl	-8.85696
▁znovu	-8.85701
▁mnoho	-8.85711
ním	-8.8578
nu	-8.8582
▁vláda	-8.85889
▁zahraniční	-8.86001
▁jej	-8.86007
▁většinou	-8.86008
▁životní	-8.86081
▁zhruba	-8.86173
lá	-8.86341
▁platí	-8.86342
▁snad	-8.86441
▁jednotlivý	-8.86471
3	-8.86482
▁20	-8.86622
▁řešení	-8.87005
▁současné	-8.87029
hl	-8.87346
4	-8.87723
▁Vy	-8.8792
ba	-8.8795
ší	-8.87964
▁území	-8.87972
I	-8.88021
▁jiných	-8.88385
▁Jiří	-8.88442
ského	-8.88472
kem	-8.88533
V	-8.88753
▁mimo	-8.88842
▁nelze	-8.88945
▁celý	-8.89138
▁člověk	-8.89509
▁bych	-8.89554
ví	-8.89999
▁začal	-8.90092
▁1992	-8.90195
du	-8.90242
▁letos	-8.90393
P	-8.90674
▁smlouvy	-8.90822
▁dolarů	-8.90845
▁rozhodnutí	-8.91003
▁zase	-8.91648
ův	-8.91758
▁velké	-8.91806
▁tzv	-8.91828
▁jedné	-8.92006
▁tří	-8.92009
ji	-8.92372
▁program	-8.92434
lí	-8.92791
▁pomocí	-8.92841
▁množství	-8.93107
▁činnosti	-8.93397
od	-8.93484
▁život	-8.93523
▁šest	-8.93976
ec	-8.94322
▁naší	-8.94502
▁Přesto	-8.94834
▁roky	-8.94849
▁vás	-8.94917
ty	-8.95227
za	-8.9541
▁světě	-8.95508
▁jednou	-8.9572
▁různých	-8.95776
re	-8.95858
▁hlavní	-8.96171
N	-8.96356
▁státu	-8.96495
▁později	-8.96662
▁lepší	-8.97205
▁můžete	-8.97238
▁programu	-8.97593
C	-8.97647
▁ČSFR	-8.97808
▁dost	-8.97846
▁1.	-8.98235
▁Petr	-8.98339
▁člověka	-8.98384
ha	-8.98455
▁Evropě	-8.98847
▁podniku	-8.98887
▁vedení	-8.98931
▁skupiny	-8.99173
▁století	-8.99375
ma	-8.99434
▁věci	-8.99761
1	-8.99761
▁Před	-8.99891
▁služby	-8.99896
▁rozdíl	-9.00098
▁málo	-9.00168
▁Václav	-9.00179
▁dlouho	-9.00335
ova	-9.00341
2	-9.0054
▁domácí	-9.00616
▁jinak	-9.00959
▁prý	-9.01
▁mělo	-9.01037
▁činnost	-9.01055
▁deset	-9.0113
ků	-9.01543
▁obou	-9.01652
▁zároveň	-9.01667
dr	-9.01844
▁situaci	-9.0203
ím	-9.02056
et	-9.02178
Á	-9.02336
▁trh	-9.02539
▁dnešní	-9.02571
▁prohlásil	-9.02643
ste	-9.02859
▁snímku	-9.03118
▁náklady	-9.03154
▁spolu	-9.03238
▁možná	-9.03652
▁přesto	-9.03704
▁nových	-9.03723
▁svět	-9.03784
▁prvním	-9.04042
▁návrh	-9.04109
▁problém	-9.04211
▁cenu	-9.04226
▁nemůže	-9.04574
▁měly	-9.04697
U	-9.04757
▁máme	-9.04829
▁tvrdí	-9.04984
▁mohli	-9.05115
▁jaké	-9.05274
▁děti	-9.05318
▁1993	-9.05318
is	-9.05631
ních	-9.05674
▁firem	-9.05861
▁E	-9.05883
▁získat	-9.06438
▁Praha	-9.06438
ských	-9.06792
▁nepo	-9.06794
▁toto	-9.07021
▁států	-9.07033
▁těch	-9.07513
▁CD	-9.07549
▁majetku	-9.07571
▁nakonec	-9.0763
▁Byl	-9.07685
▁všechno	-9.07723
vol	-9.07769
ců	-9.07892
▁funkce	-9.07943
tá	-9.07982
▁pan	-9.08088
▁nikdy	-9.08144
▁r	-9.08298
▁stojí	-9.0857
▁výši	-9.08856
▁lety	-9.08918
▁svém	-9.09019
▁podniků	-9.09098
▁moc	-9.0928
▁bývalé	-9.09341
▁proč	-9.09604
▁konce	-9.09688
▁jedna	-9.09872
▁místě	-9.09924
▁vody	-9.1031
▁30	-9.10434
▁americké	-9.10553
▁možnosti	-9.10632
▁pěti	-9.10966
▁třetí	-9.11078
▁nového	-9.11212
▁stavu	-9.11294
▁4	-9.11396
▁100	-9.11399
▁dříve	-9.11411
▁Prahy	-9.11642
▁sobotu	-9.1169
ají	-9.11691
▁jedno	-9.11957
▁Má	-9.1211
Z	-9.12188
▁nutné	-9.12237
še	-9.12492
▁nebyl	-9.1256
lé	-9.12581
▁mezinárodní	-9.12637
▁parlamentu	-9.13229
ení	-9.13355
▁místní	-9.13605
ši	-9.13618
▁přece	-9.13724
▁předseda	-9.13867
▁osob	-9.13957
▁bychom	-9.13957
▁zemi	-9.14156
ve	-9.14217
▁Tento	-9.14258
▁ministerstva	-9.14654
▁pohled	-9.14664
▁sto	-9.1473
▁týden	-9.14821
▁Tato	-9.15477
▁Není	-9.15761
tra	-9.15768
9	-9.15859
▁informací	-9.15885
▁policie	-9.15885
▁všichni	-9.15885
▁organizace	-9.15885
▁poté	-9.16026
▁Další	-9.16257
▁samozřejmě	-9.16259
▁15	-9.16308
▁stav	-9.16476
▁rychle	-9.16483
▁nikdo	-9.16507
▁můžeme	-9.16561
tr	-9.16625
tí	-9.16648
▁malé	-9.16763
▁de	-9.16789
O	-9.16901
▁Ten	-9.17081
▁nový	-9.171
▁hlavně	-9.17135
▁českých	-9.17556
nebo	-9.17618
▁nevy	-9.177
▁Kromě	-9.1776
▁poměrně	-9.17879
▁něho	-9.17903
▁prezidenta	-9.17924
▁věcí	-9.17977
kr	-9.18032
▁sdružení	-9.18408
trochu	-9.18409
▁dvěma	-9.18437
ob	-9.18856
▁jí	-9.18936
▁vedoucí	-9.19022
ální	-9.19047
▁stran	-9.19345
▁Jana	-9.19346
ické	-9.19561
bu	-9.19651
▁50	-9.19667
▁SSSR	-9.19671
▁jedn	-9.19754
vi	-9.1984
bychom	-9.19865
jich	-9.19894
▁vliv	-9.20193
ar	-9.20286
▁Mezi	-9.20319
▁prohlášení	-9.20326
▁právní	-9.20432
▁postup	-9.20815
▁dobré	-9.20888
▁kdyby	-9.20934
▁Jako	-9.20965
▁Jestli	-9.20965
▁podmínky	-9.20965
▁komise	-9.20965
▁někdy	-9.20967
▁sobě	-9.20967
pe	-9.21477
ila	-9.21585
▁základě	-9.2173
os	-9.21893
▁já	-9.21933
▁Evropské	-9.22135
▁potom	-9.22263
▁zemích	-9.22353
▁způsob	-9.22387
▁Š	-9.22518
▁došlo	-9.22555
val	-9.2269
▁výroby	-9.22799
▁čím	-9.22841
▁kromě	-9.22914
▁většina	-9.22939
ká	-9.2304
dním	-9.23248
ili	-9.23291
ol	-9.23479
▁místa	-9.23685
▁Se	-9.2387
nější	-9.23881
▁ostatní	-9.23958
▁určité	-9.24109
▁hned	-9.2428
hr	-9.24517
▁nejlepší	-9.24522
▁dál	-9.2456
▁obě	-9.24562
ční	-9.24836
▁života	-9.25064
▁tehdy	-9.25633
▁rozpočtu	-9.25635
▁200	-9.25706
▁hry	-9.25757
▁W	-9.25777
▁podíl	-9.25844
lou	-9.25923
▁druhý	-9.26248
▁vysoké	-9.26318
▁cena	-9.26416
▁východní	-9.26456
▁jistě	-9.26534
▁Ta	-9.26542
▁jich	-9.26659
▁osm	-9.26732
mohlo	-9.26913
▁mnoha	-9.26932
▁teď	-9.27013
▁vývoj	-9.27156
man	-9.27167
▁milionu	-9.27186
▁prostor	-9.27217
▁nebylo	-9.27429
▁prosince	-9.27702
▁prostředky	-9.27703
▁poprvé	-9.27704
▁dne	-9.27929
dy	-9.28149
vr	-9.28156
▁času	-9.2826
ější	-9.28341
▁unie	-9.28403
ovali	-9.28462
▁stejné	-9.28561
▁Ko	-9.28636
▁názor	-9.28748
pa	-9.28945
E	-9.28957
vý	-9.28982
▁spolupráci	-9.29105
▁výsledky	-9.29117
▁teprve	-9.29128
▁opatření	-9.29135
let	-9.29139
w	-9.29327
▁jenž	-9.29334
▁čtyř	-9.29437
▁nějak	-9.29474
ovým	-9.29686
▁výrazně	-9.29865
▁dodal	-9.29891
▁žádné	-9.30076
jší	-9.30093
▁ti	-9.30156
▁prakticky	-9.3057
▁večer	-9.30625
▁vnitřní	-9.30656
▁40	-9.30784
▁politické	-9.30821
ing	-9.31043
▁tvoří	-9.31069
▁hlediska	-9.31248
▁prostřednictví	-9.31248
▁utkání	-9.31297
▁procenta	-9.31348
▁zdravotní	-9.31349
▁podnik	-9.31629
▁mnoh	-9.31885
▁premiér	-9.31937
5	-9.31958
▁republice	-9.31973
▁velice	-9.32078
▁celou	-9.32119
▁ministra	-9.32159
▁ODS	-9.32375
▁někdo	-9.32704
▁kterým	-9.32716
▁daně	-9.32728
dí	-9.32747
hle	-9.32748
ační	-9.33035
▁pár	-9.33164
▁dispozici	-9.3344
▁nižší	-9.33443
▁akce	-9.33457
0	-9.33502
▁souvislosti	-9.33523
díky	-9.33593
▁řadu	-9.33916
▁typu	-9.33919
▁minut	-9.34085
▁1990	-9.3418
▁peněz	-9.34223
pr	-9.34377
▁miliard	-9.34461
mohla	-9.34662
▁změny	-9.34719
▁obyvatel	-9.34805
dl	-9.34885
▁rámci	-9.34927
▁ledna	-9.34937
▁neu	-9.35321
▁mne	-9.35347
▁původní	-9.35492
▁dat	-9.35507
▁sebou	-9.35555
str	-9.3557
▁6	-9.35618
▁budeme	-9.35635
▁nejméně	-9.35689
▁podařilo	-9.35775
▁doma	-9.35817
▁menší	-9.3607
▁ním	-9.36148
▁roli	-9.36455
▁státy	-9.36493
▁stal	-9.36618
▁různé	-9.36625
▁vítězství	-9.36648
▁čs	-9.36691
▁Například	-9.37198
▁význam	-9.37204
▁podnikání	-9.37218
▁prostě	-9.37342
▁Re	-9.37514
ter	-9.37588
▁výše	-9.37751
▁opravdu	-9.37972
▁šesti	-9.37977
▁Jde	-9.38021
▁pomoc	-9.38175
▁právo	-9.38231
▁tolik	-9.38237
ží	-9.38299
▁soud	-9.38345
▁západní	-9.38638
▁smlouvu	-9.38742
▁miliónů	-9.38748
▁nejvyšší	-9.38782
▁náš	-9.38784
▁nedávno	-9.38806
▁minulý	-9.38828
▁vů	-9.38919
▁trenér	-9.39106
skou	-9.3931
▁funkci	-9.39524
▁Dnes	-9.39566
▁přístup	-9.39569
▁služeb	-9.3957
▁Jen	-9.39617
▁zvýšení	-9.39648
▁loni	-9.39676
F	-9.39684
ované	-9.40118
▁okolí	-9.40312
▁Kdo	-9.40361
▁měsíců	-9.40453
▁chování	-9.40503
▁středu	-9.40539
ému	-9.40632
▁žádný	-9.40666
▁St	-9.4078
▁kam	-9.40825
▁koaliční	-9.41105
▁ministerstvo	-9.41105
▁chtějí	-9.41105
▁dnech	-9.41132
▁úřadu	-9.41198
▁pojištění	-9.41207
es	-9.4191
▁jiného	-9.4192
▁metrů	-9.41984
▁postupně	-9.42003
▁Windows	-9.42181
▁rady	-9.42197
▁získal	-9.42228
▁zahraničních	-9.42366
proti	-9.42383
sti	-9.42433
▁text	-9.42473
▁zisk	-9.42617
6	-9.42681
▁společenství	-9.42747
▁dosavadní	-9.42784
▁svazu	-9.4288
▁12	-9.43404
▁členů	-9.43649
rt	-9.43949
▁deseti	-9.44077
▁ta	-9.44187
▁8	-9.4426
ven	-9.44325
▁nemusí	-9.44344
▁číslo	-9.44359
nosti	-9.4446
00	-9.44522
▁nez	-9.44556
▁Pak	-9.44568
▁Zde	-9.44617
▁pracovníků	-9.44644
fi	-9.44693
ání	-9.44936
▁klubu	-9.44968
▁podobně	-9.45064
▁podporu	-9.45106
ství	-9.45173
▁zástupce	-9.4518
▁tržní	-9.45218
stav	-9.45232
▁nadále	-9.45259
▁25	-9.45305
▁Bude	-9.45317
▁provoz	-9.45345
pra	-9.45621
▁počtu	-9.45785
ák	-9.45907
▁osobní	-9.46025
op	-9.46114
▁1991	-9.46323
▁týmu	-9.46683
▁ročně	-9.4669
▁podniky	-9.46772
▁snaží	-9.4678
▁Většin	-9.46844
▁hospodářství	-9.46844
▁nabídky	-9.46844
▁lépe	-9.46847
▁MS	-9.46974
▁zdá	-9.47037
▁výkon	-9.471
ací	-9.47271
▁každ	-9.47312
▁Ani	-9.47341
▁přibližn	-9.47385
▁dostal	-9.47491
lit	-9.47554
ur	-9.47651
▁podstatně	-9.47673
▁umožňuje	-9.47691
▁jenom	-9.47747
▁růst	-9.47758
▁přesně	-9.47961
▁hodně	-9.47969
▁18	-9.48025
▁malý	-9.48173
ace	-9.48242
▁fondu	-9.48295
▁slova	-9.48383
▁musíme	-9.48515
▁považuje	-9.48546
▁začíná	-9.48546
▁říci	-9.48572
▁případech	-9.48594
▁novou	-9.48613
▁1994	-9.48639
▁městě	-9.48675
▁přednost	-9.48741
▁objekt	-9.48978
▁banky	-9.49082
▁her	-9.49126
▁řada	-9.49277
▁pomoci	-9.49319
▁možností	-9.49402
▁obvykle	-9.49408
▁sítě	-9.49411
▁oddělení	-9.495
▁českého	-9.49657
▁vedle	-9.49717
Dr	-9.49748
▁nebyla	-9.50001
šlo	-9.50074
ovala	-9.50107
▁otázku	-9.50278
▁výrobků	-9.50281
▁politiky	-9.50328
ad	-9.50344
ostí	-9.50355
▁průběhu	-9.50524
▁cen	-9.5066
▁kterém	-9.50695
▁7	-9.50757
▁16	-9.50881
▁miliardy	-9.51042
CH	-9.51084
▁nabízí	-9.51155
br	-9.51162
▁nemají	-9.51193
▁celkové	-9.5121
▁ulici	-9.5122
krát	-9.51245
▁zdrojů	-9.51302
▁Klaus	-9.51325
▁11	-9.51366
▁Pře	-9.51777
aci	-9.51902
▁skutečnost	-9.51953
▁otázky	-9.5204
▁úrovni	-9.5204
▁chvíli	-9.5204
▁celkem	-9.52042
▁Česká	-9.52046
▁cestu	-9.52063
▁uvádí	-9.52114
▁Už	-9.52128
▁Nej	-9.52144
ať	-9.52324
▁vede	-9.52342
vy	-9.52402
▁takto	-9.5257
▁moci	-9.52626
▁pražské	-9.52641
▁výzkum	-9.52805
ck	-9.52808
▁změn	-9.52829
▁dá	-9.52864
▁mistrovství	-9.52936
▁chyb	-9.52997
▁názoru	-9.53012
▁dohody	-9.53093
▁postavení	-9.53122
▁textu	-9.53129
▁objektů	-9.53197
nutí	-9.5322
▁jednom	-9.53242
▁míst	-9.53513
▁kole	-9.53591
▁dětí	-9.53834
▁energie	-9.53834
▁NATO	-9.53835
▁působí	-9.54055
▁jejím	-9.54182
ali	-9.54385
▁společností	-9.54508
▁14	-9.54673
▁finále	-9.54743
▁takový	-9.54803
▁představuje	-9.5482
▁listopadu	-9.54836
▁platit	-9.54902
▁kterých	-9.54924
▁měsíce	-9.54958
▁neza	-9.55026
▁setkání	-9.55079
▁sedm	-9.55151
▁bývalý	-9.55165
▁sama	-9.55221
▁Ze	-9.55269
mž	-9.55404
▁každé	-9.55472
▁světové	-9.55533
ul	-9.55545
▁nikoli	-9.55585
H	-9.55593
▁obsah	-9.55602
▁prostředků	-9.55661
▁čtvrtek	-9.55676
▁Ještě	-9.55704
▁Tím	-9.55719
▁hrát	-9.55746
▁současně	-9.55829
▁řadě	-9.55874
▁obchodního	-9.55925
▁hráčů	-9.56003
▁skupina	-9.56038
▁příští	-9.5608
▁zdroje	-9.56126
▁provozu	-9.56234
▁národní	-9.56281
▁nes	-9.56347
▁volební	-9.56517
▁Navíc	-9.56586
▁Nyní	-9.56589
▁výrobky	-9.56591
▁OSN	-9.56594
▁produkce	-9.56595
▁atd	-9.56647
▁čeká	-9.56733
▁musel	-9.56744
▁sami	-9.56766
▁my	-9.56823
▁neděli	-9.56852
▁oba	-9.56933
ant	-9.56989
▁2.	-9.57006
▁sil	-9.57236
▁skutečnosti	-9.57303
▁Josef	-9.57521
▁federální	-9.57521
▁zasedání	-9.57524
▁kvalitní	-9.57568
▁muset	-9.57587
▁slov	-9.57597
▁všem	-9.57847
▁Ma	-9.57884
zí	-9.57937
▁výboru	-9.58079
▁hlavním	-9.58149
▁přiče	-9.58255
zn	-9.58269
▁úřad	-9.58356
▁začátku	-9.58505
len	-9.58517
▁srovnání	-9.58537
▁poně	-9.58562
▁tým	-9.58708
▁akcií	-9.58712
▁součástí	-9.58747
▁jiný	-9.58826
▁Ch	-9.58833
▁hodnoty	-9.58838
▁mluvčí	-9.58847
sk	-9.58976
▁prezentace	-9.58987
▁školy	-9.59084
hu	-9.59117
▁obchodu	-9.59382
▁teorie	-9.59416
▁privatizace	-9.59417
▁apod	-9.59421
▁jasné	-9.5947
▁zvláštní	-9.59637
▁společné	-9.59663
▁kterého	-9.59836
▁problémů	-9.59898
▁těm	-9.5997
ice	-9.6
do	-9.60032
Í	-9.60124
▁projekt	-9.60232
▁objektu	-9.60272
▁generální	-9.60321
řitom	-9.60365
▁Země	-9.60389
sta	-9.60411
▁plně	-9.60452
▁dopravy	-9.60465
▁domů	-9.60485
▁olympijské	-9.60521
▁poslanců	-9.60548
▁1989	-9.60578
▁jednotlivé	-9.6064
▁buď	-9.60686
▁chtěl	-9.60869
id	-9.60968
prve	-9.61065
▁telefonní	-9.61092
▁našem	-9.61119
▁ekonomické	-9.61318
▁veřejné	-9.61349
▁zdravotnictví	-9.61349
▁Někter	-9.61351
▁umění	-9.61372
▁kolik	-9.61373
as	-9.61401
▁Tr	-9.61508
ot	-9.61653
▁údaje	-9.61671
▁věc	-9.61839
▁Bylo	-9.61952
▁dává	-9.62204
▁dr	-9.62219
▁práva	-9.62313
▁podobě	-9.62366
▁ostatních	-9.62405
▁dalším	-9.62442
▁investice	-9.62453
▁kultury	-9.62537
8	-9.62538
ěte	-9.62539
▁noci	-9.62556
▁Le	-9.62589
▁spojení	-9.6267
ed	-9.6272
▁24	-9.62721
▁státního	-9.62743
▁Jelcin	-9.62755
án	-9.62772
▁celého	-9.62797
▁škol	-9.6298
▁ME	-9.63059
▁obraz	-9.63122
há	-9.63177
např	-9.63307
▁Ivan	-9.63349
gr	-9.63379
▁společně	-9.63416
▁zájmu	-9.63449
▁Proč	-9.63561
▁soutěže	-9.63565
čky	-9.63592
▁snadno	-9.63595
▁občanů	-9.63619
ovy	-9.63628
▁smrti	-9.6365
▁strana	-9.6373
mat	-9.63993
▁Toto	-9.64161
▁tisíce	-9.64219
▁jméno	-9.6432
▁vzájemn	-9.64324
▁předem	-9.64353
▁politických	-9.64403
ver	-9.64452
▁19	-9.64488
▁nedo	-9.64721
rad	-9.64814
ník	-9.64815
▁klub	-9.64963
▁Stejn	-9.65333
▁hnutí	-9.65335
▁snímek	-9.65337
▁zdraví	-9.65347
▁lidi	-9.65379
▁vytvoření	-9.6542
del	-9.65468
▁důvodů	-9.65484
▁nejvíce	-9.65538
▁pracovat	-9.65864
▁list	-9.65903
▁moderní	-9.6596
ském	-9.66158
▁práv	-9.66179
rn	-9.66231
▁vybavení	-9.66247
hal	-9.66275
ga	-9.66332
▁soudu	-9.66346
▁Jaroslav	-9.6635
▁vzhledem	-9.66445
sku	-9.66477
▁velkou	-9.66509
ik	-9.66551
▁Ti	-9.66611
▁Český	-9.66615
▁mužů	-9.66653
▁vztah	-9.66667
▁jisté	-9.66761
▁konkrétní	-9.66781
▁hráči	-9.66852
bal	-9.66864
▁počítače	-9.66905
však	-9.66929
▁13	-9.66944
▁re	-9.67053
ú	-9.67172
▁otázka	-9.67182
▁těžko	-9.67381
▁okolo	-9.67382
▁film	-9.67464
▁daleko	-9.67739
▁skupin	-9.67772
▁hodiny	-9.68017
▁spíš	-9.68045
▁případ	-9.68336
svoji	-9.68365
▁bank	-9.68396
▁náměstí	-9.68422
▁delší	-9.68425
▁někteří	-9.68427
▁zástupci	-9.68429
▁září	-9.68431
▁rukou	-9.68433
▁zaměstnání	-9.68457
▁obsahuje	-9.68475
▁kilometrů	-9.68476
ovací	-9.68492
ran	-9.68632
▁věku	-9.68661
▁oboru	-9.68739
▁koncem	-9.68781
▁60	-9.68893
▁mohly	-9.69024
▁nepři	-9.69079
▁vládní	-9.69254
000	-9.6944
▁cestovní	-9.69475
▁výsledek	-9.69475
▁přišel	-9.69611
▁vod	-9.69644
▁druhů	-9.69658
▁zkušenosti	-9.69781
ily	-9.69952
▁nějaké	-9.6998
ního	-9.70024
▁cizí	-9.70141
▁hospodářské	-9.70174
pat	-9.70181
▁Kčs	-9.70223
▁celkov	-9.70255
▁objekty	-9.70278
nými	-9.70309
▁mám	-9.70394
▁Pavel	-9.70467
▁zpět	-9.70523
▁nebudou	-9.70539
▁zůstává	-9.70539
▁Může	-9.7054
▁podmínek	-9.70542
▁dnů	-9.70545
▁koalice	-9.70607
▁olympijský	-9.70611
nit	-9.70734
▁stavební	-9.7074
▁zaměstnanců	-9.70813
▁existuje	-9.70897
viz	-9.70927
▁český	-9.70991
▁řád	-9.71143
▁smyslu	-9.71156
▁každého	-9.71287
pro	-9.71307
▁šéf	-9.71323
▁dobrý	-9.71331
▁běžné	-9.71374
▁tun	-9.71536
▁úroveň	-9.71614
▁tady	-9.71635
bor	-9.71648
▁efekt	-9.71663
▁Podobn	-9.71724
▁rozvoj	-9.7175
▁minulosti	-9.71777
▁termín	-9.71926
▁republik	-9.71933
pravidla	-9.7196
▁fond	-9.72
▁Ú	-9.72074
▁Ro	-9.72265
▁loňské	-9.72405
▁dvacet	-9.7243
▁případně	-9.72558
▁pátek	-9.72701
▁praxi	-9.72702
▁poslanci	-9.72704
▁rychlost	-9.72762
nik	-9.72766
▁Já	-9.72831
▁jediný	-9.72834
ován	-9.72845
▁určitě	-9.72856
▁Každý	-9.72873
▁účast	-9.73011
nice	-9.73032
7	-9.73037
▁pozornost	-9.73115
▁Brně	-9.73338
▁bývá	-9.7351
▁Ná	-9.7369
▁důležité	-9.738
▁vidět	-9.738
▁šanci	-9.73802
▁konci	-9.73826
▁kvality	-9.73864
íky	-9.73885
▁možno	-9.74074
▁muž	-9.74074
▁použití	-9.74279
ič	-9.74326
▁prvního	-9.74356
▁doba	-9.74466
▁ex	-9.74469
▁zápas	-9.74535
nout	-9.74541
▁krok	-9.74668
▁druhém	-9.74734
▁síly	-9.74916
▁volbách	-9.7492
▁výrobce	-9.74922
▁července	-9.74929
▁dny	-9.74952
▁nikoliv	-9.7501
▁odpovídá	-9.75085
▁změnit	-9.75087
▁knihy	-9.75223
šel	-9.75311
▁Německa	-9.75316
▁Mar	-9.75324
▁členy	-9.75395
▁nebezpečí	-9.75612
vo	-9.75631
▁nákladů	-9.7608
▁podstatě	-9.76083
ovaných	-9.76185
dob	-9.76203
▁zranění	-9.76229
Š	-9.76326
ROM	-9.76426
▁speciální	-9.76432
▁tisku	-9.76602
kové	-9.76652
▁ruské	-9.76736
▁stačí	-9.76859
▁činí	-9.76869
▁Ministerstv	-9.77171
▁technologie	-9.77171
▁tepla	-9.77172
▁úplně	-9.77178
▁výrobu	-9.77255
čin	-9.77263
▁představitelé	-9.77265
▁Roz	-9.77266
▁investiční	-9.77269
▁Bez	-9.77282
▁druhou	-9.77498
ilo	-9.77689
▁podobné	-9.7777
▁prodej	-9.7778
cen	-9.77807
▁techniky	-9.77947
▁dal	-9.78036
▁Již	-9.78049
▁domu	-9.78154
▁podnikatele	-9.78234
▁míry	-9.78399
▁celá	-9.78445
▁volby	-9.78481
RA	-9.78531
▁pracuje	-9.78547
▁fakt	-9.78633
▁léta	-9.78643
▁zprávy	-9.78701
ev	-9.78727
▁voleb	-9.78736
ící	-9.78786
up	-9.78892
kách	-9.7907
▁vznikl	-9.79111
▁připraven	-9.79317
▁polovin	-9.79389
▁dvakrát	-9.79528
▁vytvořit	-9.7955
▁televizní	-9.79558
▁Jedno	-9.79661
▁chcete	-9.79739
▁parlament	-9.7977
▁vlastnosti	-9.79836
▁bytů	-9.79875
▁návrhu	-9.79946
▁světový	-9.80151
skoro	-9.80206
▁údajn	-9.80298
kov	-9.80401
▁též	-9.80445
hy	-9.80541
▁fotbalové	-9.80622
vláště	-9.8063
mluv	-9.80656
▁financí	-9.8066
▁konečně	-9.80725
▁výběr	-9.80771
▁typ	-9.80856
▁každém	-9.80916
▁SR	-9.80943
▁plyn	-9.80968
▁jít	-9.81362
vin	-9.81465
fr	-9.8147
▁vyhrál	-9.81482
▁dělat	-9.81552
jící	-9.81572
▁schopn	-9.81576
▁model	-9.81602
▁bod	-9.81609
▁lidský	-9.8174
▁rád	-9.81797
ických	-9.81821
zhledem	-9.81826
▁federace	-9.8185
▁firmě	-9.8185
▁použít	-9.8185
▁Jeden	-9.81869
▁výsledků	-9.8187
▁evropských	-9.8189
▁Všechny	-9.81907
vod	-9.81931
▁současnosti	-9.81937
▁zpracování	-9.81944
J	-9.82012
▁hranice	-9.82054
▁průmyslu	-9.82127
▁bodů	-9.82137
▁Německu	-9.82179
pis	-9.8219
▁vojenské	-9.8227
▁obchod	-9.82434
ud	-9.82477
zen	-9.82534
vat	-9.82573
▁Bo	-9.8258
▁byt	-9.82797
čení	-9.82827
▁Kr	-9.82838
ic	-9.82867
▁Br	-9.82904
sp	-9.82931
▁Zeman	-9.82945
▁rozhodující	-9.8304
▁Společenství	-9.83055
▁Vladimír	-9.83055
▁Právě	-9.83055
▁zbraní	-9.83056
▁nejlépe	-9.83056
▁pravděpodobně	-9.83068
ík	-9.83069
▁původně	-9.83075
▁Běh	-9.83077
▁osoby	-9.83156
ina	-9.83167
▁objeví	-9.83226
ována	-9.83289
ický	-9.83334
▁ředitele	-9.83339
▁počítač	-9.83399
▁ženy	-9.83428
▁Firma	-9.83436
▁Ob	-9.8345
iny	-9.83493
▁amerických	-9.83538
▁cílem	-9.83586
▁80	-9.83598
▁následující	-9.83847
▁jaký	-9.83859
ář	-9.83869
▁ú	-9.84002
▁udělat	-9.8431
▁sněmovny	-9.84336
▁dokáže	-9.84339
značně	-9.84403
▁prostoru	-9.84406
G	-9.84489
▁vhodné	-9.84496
▁kulturní	-9.84604
ček	-9.84675
▁důvod	-9.84841
▁dlouhé	-9.84953
▁lékaře	-9.85052
▁Ba	-9.85059
▁nepro	-9.85207
▁těmi	-9.85288
▁dvaceti	-9.85362
▁růstu	-9.85388
▁zisku	-9.85452
▁patrně	-9.85502
▁informační	-9.85509
▁brzy	-9.85509
▁čísla	-9.85509
▁pravda	-9.85516
▁hovoří	-9.85522
▁využití	-9.8557
▁Miloš	-9.85571
ber	-9.85692
▁obrany	-9.85712
▁vodní	-9.85875
▁ústavu	-9.85967
▁rokem	-9.8599
▁počítá	-9.86052
▁veřejnosti	-9.86087
čka	-9.86095
▁roční	-9.86134
▁vědecké	-9.86285
▁závod	-9.8637
▁pokus	-9.86433
▁úspěch	-9.86582
and	-9.8669
raději	-9.86757
▁většinu	-9.86759
▁jinde	-9.86759
▁péče	-9.86759
▁začne	-9.86769
▁nemohou	-9.86774
▁dovolenou	-9.86813
▁vládě	-9.86859
▁denně	-9.87035
▁čem	-9.87106
▁17	-9.87158
▁prací	-9.87197
:	-9.87209
▁Pa	-9.87282
▁slovo	-9.87286
▁data	-9.87322
▁stala	-9.87347
▁takovou	-9.87351
▁národního	-9.8753
▁vědět	-9.87534
ovými	-9.87612
▁nejbližší	-9.87737
▁Pr	-9.87745
▁vzor	-9.87907
▁aplikace	-9.87932
▁pokračovat	-9.88025
▁pozadí	-9.88025
▁látky	-9.88027
▁sluneční	-9.88123
▁rada	-9.8818
ovány	-9.88198
▁nákup	-9.88251
ment	-9.8843
dávají	-9.88433
▁potřebné	-9.88457
▁ES	-9.88522
▁starší	-9.88561
NÍ	-9.8857
▁řad	-9.88671
▁stalo	-9.88697
▁procesu	-9.88751
stup	-9.88862
▁dosáhl	-9.88957
▁svaz	-9.88981
▁osmi	-9.89068
gen	-9.89162
▁UEFA	-9.89307
▁demokracie	-9.89307
▁důležitý	-9.89307
▁oficiální	-9.89307
▁označil	-9.89307
▁televizi	-9.89307
▁Spojený	-9.89307
▁Havel	-9.89309
▁nijak	-9.89311
▁okamžitě	-9.89332
▁hodnocení	-9.89341
▁ukazuje	-9.89342
▁míru	-9.8941
▁nebyly	-9.89422
▁zabývá	-9.89453
▁výbor	-9.89496
bl	-9.89511
▁žen	-9.89566
▁plné	-9.89627
▁cesty	-9.89651
▁určen	-9.89667
▁pří	-9.89691
▁La	-9.89715
▁bezpečnosti	-9.89729
▁naprosto	-9.89772
▁pocit	-9.89959
▁vzniku	-9.89992
třech	-9.90002
▁body	-9.9004
▁oblast	-9.90157
▁odmítl	-9.90187
▁dát	-9.90196
▁odborné	-9.90248
▁budoucí	-9.90325
▁Tu	-9.90354
ujeme	-9.90434
▁trvá	-9.90493
▁Nové	-9.90514
▁2000	-9.90574
čet	-9.90604
▁majetek	-9.90606
▁řečeno	-9.90606
▁počasí	-9.90607
▁členové	-9.90661
nka	-9.90705
▁stanice	-9.90787
▁kanceláře	-9.90837
▁ČSSD	-9.90846
▁potřeby	-9.90863
▁vládu	-9.90897
be	-9.90972
▁Mo	-9.91003
hn	-9.91032
▁téma	-9.91091
▁rozšíření	-9.91176
▁lékaři	-9.91269
▁500	-9.91309
▁řady	-9.91326
▁zákony	-9.91422
▁druh	-9.9145
té	-9.9151
▁Nový	-9.91516
ster	-9.91519
▁pole	-9.91573
▁systémů	-9.91687
▁vývoje	-9.91852
▁Měl	-9.91853
tře	-9.91855
nt	-9.9192
▁názvem	-9.91922
▁onemocnění	-9.91922
▁požadavky	-9.91922
▁příjmy	-9.91922
▁rozhodně	-9.91924
▁nějaký	-9.91945
▁lidem	-9.91975
▁ekonomiky	-9.9198
▁dosáhnout	-9.92011
mj	-9.92037
▁podobný	-9.92152
▁Slovensku	-9.922
▁Cen	-9.9222
▁Martin	-9.92259
▁nová	-9.92461
žen	-9.92523
▁smysl	-9.92554
▁třicet	-9.92616
he	-9.92657
rát	-9.92675
▁počátku	-9.92758
▁trest	-9.92791
ig	-9.92818
pokoj	-9.93013
▁Pod	-9.93097
▁Ke	-9.93167
▁přístupu	-9.93221
▁konference	-9.93255
▁televize	-9.93255
▁ligy	-9.93257
▁vánoční	-9.93257
▁policejní	-9.93258
▁dostat	-9.93265
▁lékař	-9.93307
▁Pan	-9.93339
▁hlavního	-9.93402
▁Státní	-9.93414
▁jednak	-9.93427
ač	-9.93469
▁mechaniky	-9.93515
▁celém	-9.93706
▁22	-9.93933
▁bo	-9.93951
▁Čech	-9.93982
per	-9.94063
▁proces	-9.94071
▁společného	-9.94081
▁řekla	-9.94108
kla	-9.94119
▁disk	-9.9413
▁trestní	-9.94183
▁prodeje	-9.94239
tím	-9.94241
▁soubor	-9.9425
ct	-9.9427
▁mil	-9.94385
▁300	-9.94394
▁vstup	-9.94479
dle	-9.94523
▁poskytuje	-9.94606
▁Československu	-9.94606
▁vnitra	-9.94607
▁Prezident	-9.94609
▁velká	-9.9461
▁koncert	-9.94618
mysl	-9.94702
nd	-9.94717
raz	-9.94726
▁Ho	-9.94815
▁parlamentní	-9.9482
▁nechal	-9.94838
▁škody	-9.94879
▁nepře	-9.94881
▁Aby	-9.94907
brž	-9.94913
▁70	-9.94941
▁rychlostí	-9.94975
▁druhá	-9.94991
bou	-9.95075
ném	-9.95109
▁21	-9.95131
▁radost	-9.95141
▁Velké	-9.95181
▁PowerPoint	-9.95202
▁Že	-9.95247
▁závěru	-9.95267
▁výrobní	-9.95295
▁skončil	-9.9531
▁majitel	-9.95324
bě	-9.95351
▁Li	-9.95377
▁souboru	-9.95381
▁druhu	-9.95403
rod	-9.95502
▁obrat	-9.95546
jet	-9.95616
klad	-9.95783
▁druhého	-9.95828
▁zemědělství	-9.95976
▁látek	-9.95979
▁desítky	-9.95983
▁najít	-9.95991
▁měsících	-9.95994
méně	-9.96013
▁Čechách	-9.96018
10	-9.96042
▁Atlantě	-9.96043
▁správy	-9.96052
▁měsíc	-9.9608
▁dopravní	-9.96121
▁vydání	-9.96138
▁zákoníku	-9.96164
▁zákonů	-9.96206
▁jinou	-9.9623
▁město	-9.96243
dnu	-9.96274
▁povinnost	-9.96397
nov	-9.9641
nem	-9.96414
les	-9.96443
▁Lu	-9.96462
▁čele	-9.96484
▁plán	-9.96562
▁vývoz	-9.96581
▁napsal	-9.96625
▁rozhodl	-9.96696
▁Ha	-9.96748
sko	-9.96774
kon	-9.96806
▁takového	-9.96851
▁výběru	-9.96875
▁hráč	-9.9692
▁jednat	-9.97219
tur	-9.97328
▁schopen	-9.97365
▁Francie	-9.97365
▁nabídku	-9.97365
▁ustanovení	-9.97366
▁snímků	-9.97367
▁nim	-9.97369
▁hudební	-9.97414
▁uplatnění	-9.97427
▁evropské	-9.97441
kami	-9.97467
▁přijde	-9.97476
▁Vý	-9.97509
▁ráno	-9.97514
▁Cel	-9.97592
▁státech	-9.97625
▁síť	-9.97626
▁oznámil	-9.9775
▁začali	-9.97958
▁ceně	-9.98202
▁soukromé	-9.98429
▁Ka	-9.98496
ovaný	-9.98526
▁dalšího	-9.98553
▁přechod	-9.98579
▁získá	-9.98591
hled	-9.98736
▁změna	-9.98772
▁těžké	-9.98773
▁využít	-9.98773
▁přijetí	-9.98775
▁působení	-9.98776
▁hodlá	-9.98784
▁školství	-9.98785
▁rozpočet	-9.98785
▁zajistit	-9.98815
▁tentokrát	-9.98817
▁převážně	-9.98858
▁pořadí	-9.98993
ené	-9.99002
▁Takže	-9.99024
ovém	-9.99027
▁částky	-9.99033
▁vysokou	-9.99041
▁vyplývá	-9.99099
▁jiná	-9.99127
▁okamžiku	-9.99154
▁chybí	-9.99239
▁dní	-9.99475
▁vztahu	-9.99559
▁seznamu	-9.99629
▁živ	-9.99683
▁minulé	-9.99685
alo	-9.99722
▁Přes	-9.99765
▁chtěli	-9.99773
▁seznam	-9.99802
▁nesmí	-9.99984
▁potřebuje	-10.0002
SK	-10.0008
nese	-10.0009
▁názory	-10.001
▁předpokládá	-10.0012
ická	-10.0012
▁Její	-10.0016
ge	-10.0016
▁družstva	-10.002
▁spolupráce	-10.002
▁nejrůznější	-10.002
▁Mezinárodní	-10.0021
▁povolení	-10.0028
▁New	-10.0028
▁místech	-10.0029
▁údajů	-10.0031
W	-10.0031
▁nejde	-10.0037
▁směrem	-10.0037
▁cestou	-10.0042
▁řešit	-10.0048
▁bohužel	-10.0068
▁%.	-10.007
▁máte	-10.0075
▁dodává	-10.0091
▁mo	-10.0099
▁respekt	-10.0104
ovalo	-10.0104
▁myslím	-10.0115
▁pokles	-10.0123
▁vznik	-10.0132
▁výzkumu	-10.0144
sky	-10.0149
▁podnikatel	-10.015
▁systémy	-10.0157
nil	-10.0161
▁jestli	-10.0162
dal	-10.0162
▁pondělí	-10.0165
▁prezentaci	-10.0165
▁ohledu	-10.0168
▁armády	-10.0171
▁vyslovil	-10.0171
▁pravidelně	-10.0172
kl	-10.0172
▁měsíční	-10.0172
▁němu	-10.0174
▁předtím	-10.0175
van	-10.0176
▁smluvní	-10.018
▁uvedla	-10.0194
▁veřejnost	-10.0213
tní	-10.0214
▁případů	-10.0221
▁vědy	-10.0222
▁stane	-10.0226
▁daňové	-10.0254
▁vztahy	-10.0258
▁mechanika	-10.0261
▁tiskové	-10.0284
▁kolo	-10.029
▁změnu	-10.0291
form	-10.0292
▁taková	-10.0302
▁dostane	-10.0302
▁HIV	-10.0312
▁konferenci	-10.0312
▁podmínkách	-10.0312
▁příjmů	-10.0312
▁úrovně	-10.0312
▁spoust	-10.0313
▁radnice	-10.0313
▁června	-10.0313
vedl	-10.0313
▁Poslední	-10.0313
▁výjimkou	-10.0321
▁politiku	-10.0322
▁částku	-10.0336
▁rodiny	-10.0341
▁neměl	-10.0342
▁titul	-10.0343
▁dvanáct	-10.0344
var	-10.0346
▁pořád	-10.0346
tem	-10.0349
▁severní	-10.0358
pil	-10.0363
▁De	-10.0374
uji	-10.038
▁podnikatelů	-10.0401
▁směru	-10.0401
tek	-10.0404
▁hráče	-10.0416
▁papír	-10.042
▁konkurence	-10.042
▁museli	-10.0423
▁akci	-10.0435
ele	-10.0436
▁Naše	-10.0446
▁Jedna	-10.0447
▁současn	-10.0449
rů	-10.0454
▁člen	-10.0458
▁Současn	-10.0461
▁většině	-10.0461
▁války	-10.0461
▁účetnictví	-10.0461
▁aliance	-10.0462
▁Největší	-10.0462
▁tvrzení	-10.0462
▁moře	-10.0467
▁jednoznačně	-10.0472
rovna	-10.0473
▁žádn	-10.0484
▁jakým	-10.0487
ovaly	-10.0487
ským	-10.0487
▁volné	-10.0495
▁skupině	-10.0501
▁zvířat	-10.051
▁aktivity	-10.0511
▁uvedené	-10.0515
th	-10.0528
OV	-10.0529
▁poměr	-10.053
▁hodnotu	-10.0532
▁autor	-10.0536
▁plat	-10.0543
▁přírodní	-10.0552
▁Rusko	-10.0557
uto	-10.0557
níci	-10.056
▁polovinu	-10.0561
▁kola	-10.0562
▁hraje	-10.0563
▁bezpečnostní	-10.0563
ková	-10.0579
▁poslanec	-10.0589
▁soudní	-10.0595
ejte	-10.0595
▁Václava	-10.0599
vou	-10.0601
ovo	-10.0604
▁auto	-10.0606
▁nově	-10.061
▁ODA	-10.061
▁kláves	-10.0613
▁většiny	-10.0613
▁politice	-10.0613
▁začít	-10.0613
▁vždycky	-10.0614
▁pořádku	-10.0618
▁nemocnice	-10.0621
▁Jenže	-10.0624
▁individuální	-10.0626
▁centra	-10.0628
▁třemi	-10.063
▁Německo	-10.0632
▁pracovníci	-10.0635
▁LN	-10.0645
▁předsedy	-10.0649
▁čase	-10.0649
řídit	-10.0651
▁univerzity	-10.0653
▁90	-10.0669
▁400	-10.0671
▁budoucnosti	-10.0671
▁neo	-10.068
▁německé	-10.0684
ner	-10.0688
▁Hor	-10.0689
▁sportovní	-10.0697
▁snížení	-10.0698
▁životě	-10.0698
▁Kdyby	-10.0701
▁paní	-10.0708
cházet	-10.0729
▁padesát	-10.0743
nk	-10.0747
▁jím	-10.0764
▁AIDS	-10.0767
▁Británie	-10.0767
▁vzdělání	-10.0767
▁srpna	-10.0767
▁obyvatelstva	-10.0767
▁Možná	-10.0771
inu	-10.0772
slov	-10.0773
▁Vždyť	-10.0775
▁objevil	-10.0776
▁Č	-10.0781
▁hlasů	-10.0782
▁důsledku	-10.0793
vnitř	-10.0798
port	-10.0799
▁miliony	-10.0801
▁demokratické	-10.0806
▁složení	-10.0806
Č	-10.0807
▁předchozí	-10.0808
ej	-10.0809
▁takových	-10.0839
ároveň	-10.0872
▁úřady	-10.0874
▁týká	-10.0875
dali	-10.0878
▁používá	-10.0885
▁vaše	-10.0885
▁místopředsed	-10.089
CE	-10.0891
▁státních	-10.0898
▁trval	-10.0903
▁zemřel	-10.0904
▁výkonu	-10.0909
iz	-10.0918
olog	-10.092
▁očekávat	-10.0923
▁silniční	-10.0923
▁buněk	-10.0923
▁tajemství	-10.0923
▁název	-10.0924
▁verze	-10.0924
▁zaplatí	-10.0924
▁připravuje	-10.0925
▁Mám	-10.0926
▁zdalek	-10.0928
▁hra	-10.0932
▁kvalitu	-10.0934
▁uspořádání	-10.0935
▁poznání	-10.0941
▁piva	-10.0943
▁příštím	-10.0949
▁koupit	-10.095
▁dochází	-10.0954
▁průměru	-10.0956
▁chceme	-10.0964
▁počítačů	-10.097
▁jejího	-10.097
▁35	-10.0972
▁projektu	-10.0972
▁John	-10.0978
▁banka	-10.0981
▁aktivní	-10.0981
řka	-10.0983
ala	-10.0987
▁zajímavé	-10.0988
▁závěr	-10.0991
▁jiným	-10.0996
▁povinnosti	-10.1002
sil	-10.1003
▁funkcí	-10.1006
▁premiéra	-10.1014
▁disku	-10.1016
▁stroje	-10.1019
▁ba	-10.1024
▁150	-10.1029
šli	-10.1033
▁obcí	-10.1035
tky	-10.1038
▁muži	-10.1038
▁technické	-10.1038
ten	-10.1049
▁teplo	-10.1051
▁Oba	-10.1058
ška	-10.1066
▁konec	-10.1066
▁částí	-10.1075
▁občas	-10.1082
▁přírody	-10.1082
▁zřejmé	-10.1082
▁privatizaci	-10.1082
▁marek	-10.1083
▁Zákon	-10.1083
▁Karel	-10.1084
▁článku	-10.1084
▁úvahu	-10.1086
▁okresní	-10.1087
▁pozitivní	-10.1089
▁příklad	-10.1092
▁vyžaduje	-10.1093
ovaného	-10.1096
▁jaderné	-10.1099
rád	-10.1104
nici	-10.1105
▁odborníků	-10.1105
itel	-10.1107
▁agentury	-10.1109
▁mění	-10.1114
▁sovětské	-10.1117
▁Dr	-10.1131
▁programy	-10.1138
lek	-10.1143
▁Zá	-10.1149
▁jaderný	-10.115
▁hlavních	-10.115
▁kop	-10.1159
%	-10.117
koli	-10.1179
▁ryb	-10.118
▁příštího	-10.118
▁relativn	-10.1181
ard	-10.1194
▁Sa	-10.1221
▁republika	-10.1221
▁vyjádřil	-10.1222
▁těžký	-10.1223
▁zákaz	-10.1224
▁4.	-10.1233
plav	-10.1235
▁vývoji	-10.124
▁jména	-10.1243
▁věnovat	-10.1243
▁válce	-10.1243
▁historii	-10.1243
▁vítěz	-10.1244
▁Myslím	-10.1244
▁roste	-10.1245
▁vaší	-10.1248
▁základ	-10.1251
mar	-10.1254
▁úkol	-10.1255
▁politika	-10.1258
▁soutěž	-10.1261
tel	-10.1262
▁liší	-10.1262
▁Škoda	-10.1264
budete	-10.1265
▁změně	-10.1274
▁In	-10.1278
▁hodnot	-10.1288
▁budu	-10.1292
▁režimu	-10.1301
▁hotelu	-10.1307
ben	-10.1316
▁sta	-10.1317
▁neod	-10.1322
▁druhy	-10.1324
ště	-10.1325
▁výrobců	-10.1325
▁Miroslav	-10.1333
nos	-10.1339
▁Společnost	-10.1343
▁úřadů	-10.1347
▁programů	-10.1351
▁výraz	-10.1355
Ž	-10.1355
▁tlačítko	-10.1369
vádí	-10.1378
jak	-10.1384
▁družstev	-10.1386
▁OS	-10.1388
ovaná	-10.1394
▁3.	-10.1405
ěkteří	-10.1406
▁jednoduché	-10.1407
▁považován	-10.1407
▁zůstane	-10.1407
▁1995	-10.1407
▁Někd	-10.1407
▁tajemník	-10.1409
nic	-10.1412
▁smlouva	-10.1414
▁Stál	-10.1414
▁Základní	-10.1415
▁déle	-10.1428
▁řeč	-10.1432
▁úvěr	-10.1445
▁stranu	-10.1445
▁hranici	-10.1446
▁bytu	-10.1448
▁abych	-10.1448
▁typů	-10.145
pen	-10.1462
▁rekord	-10.1463
▁potvrdil	-10.1465
▁dob	-10.1474
▁veškeré	-10.148
▁skutečné	-10.1488
▁normální	-10.149
št	-10.1498
▁styl	-10.1502
▁typy	-10.1502
▁zákazníků	-10.151
voz	-10.1513
▁lékařů	-10.1516
vede	-10.1517
cké	-10.1528
lin	-10.1548
▁Hlavní	-10.1555
▁spojen	-10.1562
▁devět	-10.1571
▁úterý	-10.1574
▁Lidé	-10.1574
▁včas	-10.1574
▁Letos	-10.1574
▁šance	-10.1574
▁někdejší	-10.1574
▁lednu	-10.1575
▁končí	-10.1576
▁globální	-10.1576
▁telefon	-10.1577
▁jestliže	-10.158
▁ruce	-10.1581
▁podnikatelské	-10.1584
▁23	-10.159
▁dům	-10.1591
▁malá	-10.1593
ovu	-10.1594
▁dělá	-10.1595
▁96	-10.1603
▁svému	-10.1604
▁hledání	-10.1604
▁profesionální	-10.1612
▁oblastí	-10.1612
▁stejný	-10.1614
▁získala	-10.1616
▁značné	-10.1619
▁kapitálu	-10.163
▁zvolen	-10.1633
▁set	-10.1635
gu	-10.1644
▁problémem	-10.1661
▁blok	-10.1672
▁molekul	-10.1675
▁My	-10.1687
blíž	-10.1696
letý	-10.1699
▁soutěži	-10.1715
koliv	-10.1725
▁počítat	-10.1725
▁vznikla	-10.1727
▁ruský	-10.1736
▁novým	-10.1738
▁třetím	-10.1741
▁Federální	-10.1743
▁používat	-10.1743
▁verzi	-10.1743
▁mzdy	-10.1743
▁potíže	-10.1743
▁najednou	-10.1744
▁členství	-10.1744
▁vystoupení	-10.1744
▁tabulky	-10.1745
▁včerejší	-10.1746
ér	-10.1746
▁studie	-10.1747
▁Chce	-10.1747
▁nejdříve	-10.1748
▁někter	-10.1748
/2	-10.1748
▁shromáždění	-10.1748
▁zvlášť	-10.1752
▁nedá	-10.1752
▁odpověď	-10.1758
▁známé	-10.1769
▁rozdělení	-10.177
▁časem	-10.1774
▁vrátit	-10.1774
▁akcí	-10.1775
cím	-10.1781
▁liber	-10.1788
▁označení	-10.1791
▁sedmi	-10.18
▁akcie	-10.1802
▁MB	-10.1804
▁vztahů	-10.1805
▁zprávu	-10.181
kovi	-10.1821
▁existují	-10.1824
ak	-10.183
▁samo	-10.1832
též	-10.1839
▁počítači	-10.184
▁silné	-10.1845
▁věd	-10.1848
▁centru	-10.185
▁post	-10.1853
kor	-10.1864
▁riziko	-10.1871
tah	-10.1889
▁soudí	-10.1894
EN	-10.1897
▁nechce	-10.19
dostatečně	-10.1902
ici	-10.1912
▁tisk	-10.1913
▁prospěch	-10.1916
▁rozhodne	-10.1916
▁Československa	-10.1916
▁hospodaření	-10.1916
▁paragraf	-10.1916
▁Nicméně	-10.1916
▁zaměstnanci	-10.1916
▁výrobci	-10.1916
▁odpadů	-10.1924
▁posledním	-10.1924
▁spočívá	-10.1925
mír	-10.1925
dostala	-10.1927
▁soukromých	-10.1931
▁pozici	-10.1932
▁Tři	-10.1933
▁odpovídající	-10.1939
▁12.	-10.1954
▁Františ	-10.1954
▁nárok	-10.1959
▁pohybu	-10.1964
son	-10.1969
▁díla	-10.1975
▁britské	-10.1976
▁Česko	-10.1977
▁dokument	-10.1981
▁příkaz	-10.1983
▁Nová	-10.1988
▁Národní	-10.1992
▁velikost	-10.1992
▁schopnost	-10.1998
▁poměru	-10.2004
▁znám	-10.2012
▁nena	-10.2012
▁objem	-10.2014
▁týdne	-10.2018
stoupil	-10.202
▁podepsal	-10.2022
▁Sb	-10.2025
▁patnáct	-10.2028
▁rozvoje	-10.203
SE	-10.204
▁pojistné	-10.2051
▁očekává	-10.2054
HO	-10.2058
▁získali	-10.2064
▁občanské	-10.2066
▁vnější	-10.2074
vu	-10.2076
▁firmu	-10.2091
▁hrozí	-10.2091
▁odvětví	-10.2091
▁Tomáš	-10.2091
▁hledat	-10.2092
▁horší	-10.2092
▁prvků	-10.2092
▁Dále	-10.2093
▁Pohár	-10.2093
▁DNA	-10.2094
▁mozku	-10.2097
inak	-10.2097
▁půdě	-10.2099
▁mnozí	-10.21
▁letošním	-10.211
▁teploty	-10.2119
▁vědomí	-10.2124
▁poháru	-10.2125
▁zemědělské	-10.2128
▁Asi	-10.2132
▁doktor	-10.2134
▁neví	-10.2134
▁metody	-10.2148
▁stanoven	-10.2155
▁pa	-10.2159
▁ochranu	-10.2162
fer	-10.2162
iště	-10.2166
men	-10.2169
▁představ	-10.2181
▁materiál	-10.2182
▁tradiční	-10.2195
▁manažer	-10.22
▁pás	-10.2201
▁budoucnost	-10.2201
▁účasti	-10.2202
LA	-10.2208
▁Čí	-10.2213
▁Al	-10.2216
▁dovoz	-10.2217
▁občan	-10.2218
rán	-10.2243
▁snah	-10.225
▁daň	-10.2253
▁slouží	-10.2256
ion	-10.2257
nky	-10.2264
▁zůstat	-10.2264
▁zásad	-10.2266
ive	-10.2268
▁měnit	-10.2269
▁Existuj	-10.227
▁aplikací	-10.227
▁natolik	-10.227
▁upozornil	-10.227
▁zdůraznil	-10.227
▁Československo	-10.227
▁rodiče	-10.227
▁bankovní	-10.227
▁podpory	-10.227
▁tudíž	-10.227
▁reprezentace	-10.227
▁výrobě	-10.2274
▁částečně	-10.2278
▁vytváření	-10.2278
▁pořadatel	-10.228
▁Vše	-10.2281
▁jakou	-10.2282
▁Zdá	-10.2282
▁Poté	-10.2284
▁centrální	-10.2284
▁výroba	-10.2287
▁start	-10.2288
▁PO	-10.2288
▁žije	-10.2288
▁Dva	-10.2289
▁vlastností	-10.229
▁zpráva	-10.2291
▁dílo	-10.2292
▁karty	-10.2297
▁dávno	-10.2303
▁zavedení	-10.231
der	-10.2314
▁pohledu	-10.2316
íte	-10.2324
▁dalšími	-10.2335
▁významné	-10.2343
▁záležitost	-10.2356
▁Bi	-10.2369
▁Fr	-10.2378
▁lidské	-10.2381
▁důvodu	-10.2383
▁zmíněné	-10.2387
▁leží	-10.239
▁kon	-10.2395
▁slovenské	-10.2401
▁odhad	-10.2401
▁dané	-10.2405
▁společný	-10.2408
tal	-10.2408
▁Ku	-10.2409
▁obrazu	-10.241
▁přehled	-10.2415
▁pre	-10.2425
▁měst	-10.2425
ler	-10.2426
▁založen	-10.2442
padá	-10.2444
▁stud	-10.2445
jde	-10.2448
ska	-10.2449
▁vzájemné	-10.2451
▁paměti	-10.2451
▁připojištění	-10.2451
▁pomalu	-10.2451
▁kvalifikaci	-10.2452
▁neexistuje	-10.2452
▁česká	-10.2453
bar	-10.2454
▁odpoledne	-10.2454
šit	-10.2457
▁připomíná	-10.2457
▁nynější	-10.2457
▁oblastech	-10.246
▁svědčí	-10.2466
▁Musí	-10.2469
tud	-10.2473
▁materiálů	-10.2478
▁musím	-10.248
▁mnohé	-10.2488
▁odboru	-10.249
▁dohodu	-10.249
▁ztráty	-10.2495
▁brněnské	-10.2497
▁Slovenska	-10.2502
▁0	-10.2512
▁Me	-10.2529
ané	-10.2533
▁nabízejí	-10.2541
pětí	-10.2544
▁hvězd	-10.2549
▁nutno	-10.2552
▁poloviny	-10.2555
▁loňském	-10.2564
▁potřeba	-10.2567
fo	-10.2569
▁rádi	-10.2572
▁Ústav	-10.2573
▁zahájení	-10.2574
▁přístroje	-10.2577
▁technický	-10.258
▁mně	-10.2582
▁zásadní	-10.2583
▁autorů	-10.259
▁nejvíc	-10.2598
▁mimořádn	-10.2617
ita	-10.2619
▁hlas	-10.263
▁osud	-10.263
▁vánoce	-10.2631
rak	-10.2634
▁NA	-10.2635
▁Itálie	-10.2637
▁Ovšem	-10.2637
▁Program	-10.2637
▁stránce	-10.2637
▁minimální	-10.2637
▁praxe	-10.2637
▁regionální	-10.2637
▁desítek	-10.2637
▁vyjádření	-10.2639
▁Ostravě	-10.264
▁nicméně	-10.264
▁ročník	-10.264
▁Ministr	-10.2641
▁vybrat	-10.2642
▁zdejší	-10.2642
▁neustále	-10.2643
ající	-10.2646
▁dodnes	-10.2651
▁soustavy	-10.2664
▁určitou	-10.2673
držel	-10.2676
▁rozhovoru	-10.2677
▁str	-10.2678
▁Ar	-10.268
▁standardní	-10.2681
▁výhradn	-10.2688
EL	-10.2692
▁staré	-10.2701
▁příprav	-10.2706
▁problému	-10.2711
▁italské	-10.2719
▁takovém	-10.2724
lze	-10.2725
▁váš	-10.2727
▁ústavní	-10.2727
ST	-10.2734
▁souhlas	-10.2741
▁vývozu	-10.2741
▁Ž	-10.2743
▁závodu	-10.2752
dat	-10.2756
▁host	-10.2758
tor	-10.2766
▁řádu	-10.2774
▁Velk	-10.2789
tion	-10.279
▁programové	-10.2792
ismus	-10.2797
nění	-10.2797
▁úspor	-10.2806
▁nemohl	-10.2807
▁KSČM	-10.2824
▁jednoduchý	-10.2825
▁Všichni	-10.2825
▁náměstek	-10.2825
▁špatně	-10.2825
▁Naopak	-10.2825
▁Snad	-10.2825
▁jediná	-10.2825
▁poptávky	-10.2826
▁odborníci	-10.2826
▁zaměstnance	-10.2826
▁poslance	-10.2826
▁okna	-10.2827
TA	-10.2827
▁těsně	-10.2827
▁dotaz	-10.2827
▁potřebují	-10.2828
▁koncentrace	-10.283
▁automaticky	-10.2835
▁měření	-10.2836
▁vychází	-10.2837
▁spokojen	-10.2839
▁produktů	-10.2842
▁stovky	-10.2847
▁filmu	-10.285
plat	-10.285
▁záležitostí	-10.2856
▁Evropa	-10.2865
▁vzduchu	-10.2866
▁zrušení	-10.2867
zo	-10.2877
▁rozsahu	-10.2882
▁ochran	-10.2896
ký	-10.2896
▁přesvědčen	-10.2901
est	-10.2903
▁neměli	-10.2913
▁hodnota	-10.2916
▁soupeře	-10.2922
▁19.	-10.2922
▁čisté	-10.2925
▁činností	-10.2932
ok	-10.2941
▁diváků	-10.2942
▁úspěchu	-10.2943
▁studentů	-10.2947
▁daní	-10.2954
▁zákonem	-10.2961
ang	-10.2963
▁Han	-10.2969
IN	-10.2978
pol	-10.2989
nul	-10.2989
▁Každ	-10.299
un	-10.2995
bere	-10.2996
▁příslušné	-10.3007
▁ode	-10.3011
py	-10.3014
▁Ředitel	-10.3018
▁historie	-10.3018
▁věnoval	-10.3018
▁bydlení	-10.3018
▁pojetí	-10.3018
▁investovat	-10.3019
▁lidmi	-10.302
▁krátce	-10.3021
bavit	-10.3021
▁pohybuje	-10.3023
▁žena	-10.3024
▁jedná	-10.3025
lem	-10.3029
▁dodávky	-10.3031
▁současný	-10.3031
▁dostává	-10.3036
ca	-10.3038
▁voličů	-10.3043
▁domě	-10.3044
▁šampionátu	-10.3046
ó	-10.3046
▁sklad	-10.3053
▁návrhy	-10.3054
▁pracovník	-10.3055
▁pravé	-10.3057
▁určit	-10.3058
▁omezení	-10.3065
▁provedení	-10.3066
▁muže	-10.3067
▁pobyt	-10.3068
ke	-10.307
▁domácím	-10.3071
▁cesta	-10.3079
▁mladé	-10.3081
▁vést	-10.3082
▁obecní	-10.3091
her	-10.3099
▁materiálu	-10.3102
dla	-10.3106
▁akt	-10.311
aj	-10.3111
▁různým	-10.3115
▁NE	-10.3131
▁rychlosti	-10.314
▁jinými	-10.3148
▁oni	-10.3159
▁opak	-10.3162
▁nájemné	-10.3162
▁přenos	-10.3165
▁aut	-10.3167
▁boj	-10.317
vé	-10.3181
▁Da	-10.3187
▁nejdůležitější	-10.3189
▁Evropsk	-10.3197
▁chod	-10.3199
▁hotel	-10.3199
▁čtení	-10.32
▁Především	-10.3214
▁Richard	-10.3214
▁Spojené	-10.3214
▁elektrárny	-10.3214
▁minimálně	-10.3214
▁snížit	-10.3214
▁umožní	-10.3214
▁úsilí	-10.3214
▁úspěšné	-10.3214
▁zvýšit	-10.3214
▁míře	-10.3214
▁měsíčně	-10.3214
▁setkal	-10.3214
▁doslova	-10.3214
▁Češi	-10.3215
▁pravdu	-10.3215
▁snímky	-10.3215
ón	-10.3217
▁zpráv	-10.3218
▁celek	-10.3219
▁policistů	-10.3219
▁pozice	-10.3221
▁zákazník	-10.3222
▁zobrazení	-10.3224
▁myší	-10.3226
▁obecně	-10.3227
▁tvorbu	-10.3227
▁okolností	-10.3228
▁poškození	-10.3229
▁cestě	-10.3236
▁mistrů	-10.3238
▁žádném	-10.3238
stal	-10.3239
▁zvýšil	-10.3244
▁vybaven	-10.3251
leté	-10.3251
▁sestav	-10.3253
▁žádná	-10.3263
▁třídy	-10.3267
▁festivalu	-10.3268
ivé	-10.3269
stoupí	-10.3271
▁povrchu	-10.3272
mor	-10.3273
▁nemoci	-10.3275
▁konstatoval	-10.3281
▁domácích	-10.3287
▁odpadní	-10.3287
ováno	-10.3291
něk	-10.3292
▁vzniká	-10.3296
▁nechat	-10.3303
▁centrum	-10.3304
▁sdělil	-10.331
▁ko	-10.3312
nické	-10.3314
▁součást	-10.3317
▁poklesu	-10.332
▁PowerPointu	-10.3326
▁čtenář	-10.3328
▁správně	-10.3334
▁známo	-10.3338
▁hospodářsk	-10.3341
▁dějin	-10.3345
star	-10.3345
▁vrátil	-10.3353
▁cm	-10.3355
▁17.	-10.3356
san	-10.3357
▁tvář	-10.3357
▁barev	-10.3359
▁jediné	-10.3361
▁skupinu	-10.3361
▁způsobil	-10.3364
▁znát	-10.3367
▁mé	-10.3367
▁map	-10.3371
▁FS	-10.3375
▁zahájil	-10.3376
▁polovina	-10.3387
▁dítě	-10.3393
▁hodinu	-10.3395
▁městské	-10.3402
směs	-10.3402
▁uvedený	-10.3402
cký	-10.3403
▁Samozřejmě	-10.3414
▁divadla	-10.3414
▁pojišťovny	-10.3414
▁rozhodování	-10.3414
▁ČNR	-10.3414
▁výskyt	-10.3414
▁půjde	-10.3414
▁širší	-10.3414
▁nabídka	-10.3414
▁konkurenční	-10.3415
▁myšlení	-10.3421
▁nezávislých	-10.3425
▁kal	-10.3425
▁jaká	-10.3426
KA	-10.3427
▁armáda	-10.343
▁sdělení	-10.3431
▁Proti	-10.3432
▁představení	-10.3433
▁půdy	-10.3435
▁úvodní	-10.344
▁nebyli	-10.3442
▁Tam	-10.3447
▁postoj	-10.3447
▁výdaje	-10.3449
▁podnikatelé	-10.3455
▁export	-10.3456
▁Američan	-10.3461
▁vysokých	-10.3471
▁úpravy	-10.3477
▁Te	-10.348
▁zákazníky	-10.3481
▁chemické	-10.3483
▁princip	-10.3484
30	-10.3486
▁špatné	-10.3491
▁pís	-10.3497
▁existence	-10.35
mile	-10.3502
▁prodejní	-10.3502
ger	-10.3512
▁vidí	-10.3521
▁metod	-10.3522
oč	-10.3523
vad	-10.3534
▁daňový	-10.3536
▁hlasování	-10.3541
▁organizací	-10.3543
▁motiv	-10.3555
▁hře	-10.3559
▁Nebo	-10.356
▁generál	-10.3569
▁stejn	-10.357
▁námi	-10.3572
▁myslí	-10.3573
▁maximáln	-10.358
▁smrt	-10.3585
▁reprezentant	-10.3593
ď	-10.3595
mého	-10.3596
▁pořad	-10.3599
▁vědecký	-10.3603
▁Slovensko	-10.3608
půjč	-10.3613
▁Němci	-10.3618
▁církve	-10.3618
▁nízké	-10.3618
▁týdny	-10.3618
▁odmítá	-10.3618
▁zapotřebí	-10.3618
▁usnesení	-10.3618
▁přišla	-10.3618
▁privatizační	-10.3618
▁Teď	-10.3618
▁1988	-10.3618
▁létě	-10.3619
▁postaven	-10.362
▁StB	-10.3622
▁II	-10.3626
▁on	-10.3627
▁vůle	-10.3628
▁voda	-10.3629
▁PRO	-10.3631
▁správné	-10.3633
▁stál	-10.3634
▁děje	-10.3639
▁zájmy	-10.3641
▁Kde	-10.3644
▁automobilů	-10.3644
▁porušení	-10.3649
▁důsledky	-10.3649
▁původu	-10.3651
▁příslušný	-10.3655
20	-10.3656
▁mluví	-10.3659
ké	-10.366
▁obce	-10.3662
▁mladých	-10.3666
▁úprav	-10.3668
▁představitelů	-10.3668
▁Internetu	-10.3675
▁žijící	-10.3683
▁nucen	-10.3684
▁lidského	-10.3686
▁německých	-10.3687
▁Du	-10.369
▁představy	-10.3694
▁německého	-10.3695
▁velikosti	-10.3699
▁signál	-10.3706
▁ústav	-10.3709
psal	-10.371
▁Ano	-10.3713
tit	-10.372
▁částka	-10.3723
▁bezpečnost	-10.3723
ený	-10.3728
▁běžný	-10.3728
▁hran	-10.3729
▁Sovětské	-10.373
▁nástroj	-10.374
čtí	-10.374
vil	-10.3743
▁km	-10.375
▁odbyt	-10.3755
▁pacientů	-10.3758
dané	-10.3765
go	-10.3768
▁rozhodla	-10.3769
▁metr	-10.3779
kul	-10.3782
▁vyspělý	-10.3784
▁barevné	-10.3785
hla	-10.3788
AN	-10.3792
chází	-10.3797
nů	-10.3802
▁škola	-10.3805
šť	-10.3813
▁účastní	-10.3815
▁střel	-10.3817
zu	-10.3821
▁18.	-10.3824
▁Moskvě	-10.3826
▁Třetí	-10.3826
▁firmou	-10.3826
▁populace	-10.3826
▁vynikající	-10.3826
▁štěstí	-10.3826
▁Francii	-10.3826
▁ihned	-10.3826
▁technologií	-10.3826
▁mužstva	-10.3826
▁spotřební	-10.3826
vzdor	-10.3827
▁reprezentační	-10.3827
▁Pomuku	-10.3827
▁mluvit	-10.3827
ČSL	-10.3828
▁obětí	-10.3829
▁Milan	-10.383
▁byty	-10.383
▁řeči	-10.3831
▁zvyšuje	-10.3832
▁oprav	-10.3836
▁dovolené	-10.3836
▁Více	-10.3839
▁úmrtnosti	-10.384
▁těla	-10.384
▁přichází	-10.3841
▁uveden	-10.3842
EM	-10.3842
▁nemocnici	-10.3843
▁Avšak	-10.3847
▁zastoupení	-10.3853
▁lesní	-10.3856
kládá	-10.3857
▁obavy	-10.3858
▁Předseda	-10.3865
▁Jižní	-10.3877
▁kol	-10.3879
▁Druhý	-10.3882
▁míč	-10.3891
▁vlastním	-10.3894
▁zdroj	-10.3896
▁všeho	-10.3908
▁Bar	-10.3916
▁tenis	-10.3922
▁ročníku	-10.3922
▁Ra	-10.3937
▁příležitost	-10.394
▁totem	-10.394
▁kroky	-10.3951
▁potravin	-10.3956
isté	-10.3958
▁studiu	-10.396
nesou	-10.3964
net	-10.3967
▁školní	-10.3971
MU	-10.3973
▁představují	-10.3974
▁určitý	-10.3977
▁molekuly	-10.3979
ned	-10.3985
fe	-10.3989
▁snaha	-10.3993
▁příštích	-10.3993
▁Pavl	-10.4008
▁řídí	-10.4009
▁pražském	-10.4013
▁di	-10.4013
myšlen	-10.4016
▁největším	-10.4017
osud	-10.4018
dávat	-10.4024
▁postupu	-10.4033
ujících	-10.4033
▁třináct	-10.4038
▁tamní	-10.4038
▁civilní	-10.4039
▁konkurenci	-10.4039
▁nakladatelství	-10.4039
▁negativní	-10.4039
▁příjmu	-10.4039
▁sledovat	-10.4039
▁transformace	-10.4039
▁zlepšení	-10.4039
▁úmrtí	-10.4039
▁budoucnu	-10.4039
▁zabránit	-10.4039
▁Slavie	-10.4039
▁souvisí	-10.4039
▁tehdejší	-10.4039
▁jedinou	-10.4039
▁Wales	-10.4039
▁operace	-10.404
▁letní	-10.404
▁PCB	-10.404
▁výsledkem	-10.404
▁Inter	-10.4041
▁financování	-10.4042
▁funkční	-10.4042
▁Vedle	-10.4044
▁rozhodnout	-10.4044
▁lékařské	-10.4046
▁formou	-10.4049
▁Vláda	-10.4049
ouze	-10.4054
▁ochot	-10.4055
▁zaplatit	-10.4058
▁výhodné	-10.4059
▁celkový	-10.406
ovský	-10.4063
CI	-10.4065
▁americký	-10.4068
▁zbytečné	-10.4069
▁prodat	-10.4075
▁osmdesát	-10.4076
kli	-10.4078
▁Ru	-10.4081
▁povinností	-10.4086
▁nákladní	-10.4087
▁přijal	-10.4091
▁partnery	-10.4092
▁starých	-10.4092
▁600	-10.4093
▁účely	-10.4094
▁noviny	-10.4094
▁produktu	-10.4096
▁vydal	-10.4101
▁obr	-10.4101
▁Obě	-10.4102
▁příležitosti	-10.4108
15	-10.4114
před	-10.4116
▁sv	-10.4116
ickou	-10.412
▁prodává	-10.4121
▁německý	-10.4121
▁postižen	-10.4121
šti	-10.4126
▁pražsk	-10.4134
jdou	-10.4142
fu	-10.4144
▁pracovníky	-10.4145
lík	-10.4145
▁režim	-10.4149
▁napětí	-10.4154
▁velkým	-10.4163
▁placení	-10.4164
▁zápasy	-10.4166
▁kom	-10.4173
▁Kar	-10.418
vést	-10.4185
▁neměla	-10.4187
▁záznamník	-10.4188
▁uzavření	-10.4188
▁kapalin	-10.4189
▁zápasu	-10.4189
▁domov	-10.4199
▁zůstal	-10.4201
▁přední	-10.4201
▁kód	-10.421
▁dostali	-10.4217
▁pachatel	-10.4223
▁turnaje	-10.423
ju	-10.4231
hrát	-10.4232
▁jasně	-10.424
19	-10.425
▁koruny	-10.425
vz	-10.4251
▁někde	-10.4256
▁Ostatně	-10.4256
▁Sdružení	-10.4256
▁rekreační	-10.4256
▁krize	-10.4256
▁navrhl	-10.4256
▁červnu	-10.4256
▁sítí	-10.4257
▁hod	-10.4258
▁místnosti	-10.4258
▁přiznání	-10.4259
▁Ačkoli	-10.426
▁jednotky	-10.4262
▁udržet	-10.4263
▁porovnání	-10.4264
▁obrázek	-10.4265
▁rychlé	-10.4265
▁přináší	-10.4269
▁lesy	-10.4274
jev	-10.4275
▁odpor	-10.4277
▁Moravy	-10.4277
▁začátkem	-10.428
▁znalosti	-10.428
▁strojů	-10.4284
▁prodávat	-10.4288
▁Washingtonu	-10.4291
▁hodnotě	-10.4293
ast	-10.4296
▁rozporu	-10.4299
▁zimní	-10.4301
▁všemi	-10.4301
píše	-10.4302
▁kontrolu	-10.4304
▁graf	-10.4306
▁pán	-10.4308
▁výrok	-10.4309
▁dopis	-10.4312
▁odst	-10.432
▁trenéra	-10.4321
IS	-10.4323
▁spor	-10.4326
▁nemáme	-10.4332
ěji	-10.4334
▁dar	-10.4337
▁použit	-10.4339
pana	-10.4342
▁přijat	-10.4343
▁něž	-10.4351
▁Ruska	-10.4352
▁operační	-10.4353
▁33	-10.4361
▁partnerů	-10.4361
▁sport	-10.4364
ění	-10.437
▁vedením	-10.4376
▁modelů	-10.438
ismu	-10.4381
▁zvyk	-10.4383
dra	-10.4383
▁dojde	-10.4388
▁umístěn	-10.4392
▁čísle	-10.4398
▁pražského	-10.4404
ena	-10.4407
▁pravidla	-10.4407
▁28	-10.4408
▁projev	-10.4416
▁místy	-10.4417
▁perspektiv	-10.4418
▁případu	-10.4419
óz	-10.442
den	-10.442
▁porazil	-10.4421
▁záleží	-10.4428
▁slovy	-10.4429
▁Man	-10.4432
▁Če	-10.4439
kat	-10.4444
▁stroj	-10.445
Sc	-10.445
▁případné	-10.4457
jedno	-10.4463
musela	-10.4467
kupní	-10.4473
▁Bratislavě	-10.4478
▁Návrh	-10.4478
▁nabídnout	-10.4478
▁otázce	-10.4478
▁týdnů	-10.4478
▁uskuteční	-10.4478
▁péči	-10.4478
▁dovolit	-10.4479
▁podpora	-10.4479
ckých	-10.4479
▁server	-10.4479
▁okno	-10.4479
▁kategorie	-10.448
▁nedostatek	-10.448
▁nepodařilo	-10.448
▁Nakonec	-10.4481
▁Brno	-10.4483
▁prvky	-10.4484
▁připravit	-10.4485
▁tajné	-10.4486
▁stará	-10.4489
▁zjistit	-10.449
▁návštěvě	-10.449
ností	-10.4491
▁Podnik	-10.4494
▁jaterní	-10.4495
▁hledá	-10.4497
▁UK	-10.4498
brán	-10.4499
TO	-10.4501
▁buňky	-10.4502
▁malou	-10.4504
▁domácnosti	-10.4507
▁spojené	-10.4508
▁osobně	-10.4509
▁gól	-10.451
▁provést	-10.4511
▁charakter	-10.4513
▁získání	-10.4518
▁druhým	-10.4519
▁nezaměstnanosti	-10.4523
▁stanici	-10.4524
▁ano	-10.4525
▁investor	-10.4528
▁vrchol	-10.4532
▁3000	-10.4533
▁vojenský	-10.454
▁Evropský	-10.4545
eprve	-10.4549
klep	-10.4555
▁kapitál	-10.4558
▁nemoc	-10.4558
▁partnera	-10.4564
tak	-10.4576
bud	-10.4577
ává	-10.4586
▁pra	-10.4593
▁pracoval	-10.4605
▁jedenáct	-10.4606
▁filmů	-10.4609
▁standard	-10.4612
ika	-10.4615
▁případy	-10.462
▁cenný	-10.4623
▁vstupu	-10.4626
▁tlak	-10.4638
zv	-10.4639
▁přicházejí	-10.4644
▁začalo	-10.4645
▁Pří	-10.4648
pustit	-10.4653
▁odpověděl	-10.4654
LI	-10.4655
▁planet	-10.4657
▁dřív	-10.4659
▁9	-10.4661
▁státním	-10.4662
▁umožnil	-10.467
▁prohrál	-10.4673
dit	-10.4674
▁profesor	-10.4676
▁prodal	-10.4677
▁změní	-10.4684
RU	-10.4687
átor	-10.469
▁západních	-10.4692
▁jezdí	-10.4696
ide	-10.4698
MA	-10.4698
rou	-10.4699
▁video	-10.47
▁objev	-10.4702
éměř	-10.4704
▁oficiálně	-10.4705
▁úspěšně	-10.4705
▁Slunce	-10.4706
▁existenci	-10.4706
▁funguje	-10.4706
▁ostatně	-10.4706
▁otázek	-10.4706
▁pojišťovna	-10.4706
▁rozhodovat	-10.4706
▁stáří	-10.4706
▁letadla	-10.4706
▁dlouhodobé	-10.4706
▁žádá	-10.4706
▁molekulární	-10.4706
▁operaci	-10.4706
▁vystudoval	-10.4707
▁aktuální	-10.4707
▁Místo	-10.4708
▁přání	-10.4708
▁SRN	-10.4708
▁vyšetřování	-10.4708
▁modelu	-10.4712
▁formě	-10.4713
▁vytvoří	-10.4715
RO	-10.4715
▁vypadá	-10.4716
▁fakultě	-10.4716
▁Brna	-10.4718
▁sezóně	-10.472
▁ministrů	-10.4726
▁fakulty	-10.473
▁hrál	-10.473
▁návštěvníků	-10.4732
▁vyberte	-10.4733
▁zjištění	-10.4734
dařilo	-10.4737
▁dobrou	-10.4737
▁struktury	-10.4739
▁The	-10.4744
▁otevření	-10.4745
▁komory	-10.4745
▁svá	-10.4745
▁Rus	-10.4749
▁členem	-10.4749
▁stává	-10.475
cího	-10.475
▁příjem	-10.4761
slav	-10.4761
▁víkendu	-10.4763
▁rozdíly	-10.4763
▁postižené	-10.4765
▁cíle	-10.4766
elný	-10.4772
▁nájemného	-10.4773
nové	-10.4775
▁dokázal	-10.4784
▁východ	-10.4786
OS	-10.4791
▁začaly	-10.4791
▁soupeř	-10.4793
▁fotbal	-10.4794
▁obyvatelé	-10.4797
▁pobytu	-10.4797
▁budov	-10.4798
▁stejném	-10.4802
jat	-10.4804
onu	-10.4807
▁20.	-10.4809
▁dohoda	-10.4813
nec	-10.4819
▁americk	-10.4821
▁docela	-10.4822
▁snížil	-10.4835
nské	-10.4838
▁Ot	-10.4842
▁prodeji	-10.4851
▁církev	-10.4851
▁brankář	-10.4854
▁tvar	-10.4859
▁klubů	-10.4862
atel	-10.4864
▁takovým	-10.4865
▁podal	-10.4866
▁účastníků	-10.487
▁odpovědnost	-10.4875
▁knih	-10.4879
šl	-10.4885
▁zůstávají	-10.4887
▁obsahu	-10.4893
▁přátel	-10.4905
▁On	-10.4908
▁prv	-10.4912
▁záměr	-10.4917
▁kandidát	-10.4923
▁výstav	-10.4923
▁prostory	-10.4925
▁čtvrté	-10.4926
▁nehod	-10.4932
▁Anglie	-10.4938
▁institucí	-10.4938
▁přispěl	-10.4938
▁software	-10.4938
▁nestačí	-10.4938
▁příspěvek	-10.4938
▁Nejvyšší	-10.4938
▁Polici	-10.4938
▁vlastnictví	-10.4938
▁přinejmenším	-10.4938
▁přijít	-10.4939
▁mladší	-10.4939
▁dráhy	-10.4939
▁Stačí	-10.4939
▁vědců	-10.494
▁vrátí	-10.494
▁organizační	-10.4941
▁poznatky	-10.4942
▁32	-10.4942
▁policisté	-10.4942
▁významný	-10.4942
▁zabezpečení	-10.4944
▁vozů	-10.4945
▁Bosně	-10.4946
▁levnější	-10.4947
▁přijmout	-10.4948
▁Králové	-10.4948
▁uznání	-10.4951
▁tvorby	-10.4952
,5	-10.4954
vali	-10.4955
▁předpisů	-10.4956
▁ideální	-10.4959
▁fyziky	-10.4961
▁pu	-10.4961
▁hodinách	-10.4962
▁podobu	-10.4963
▁nejlepším	-10.4965
▁komplexní	-10.4969
▁předsedou	-10.497
šek	-10.4974
▁Olomouci	-10.4976
▁obrazovky	-10.4978
▁George	-10.4978
▁Di	-10.4979
11	-10.4985
▁vytváří	-10.4989
▁českou	-10.499
▁léky	-10.4992
ir	-10.4995
▁ekonomických	-10.4995
▁starosti	-10.4998
▁oči	-10.4999
▁plochy	-10.5003
▁omezen	-10.5006
▁popis	-10.5006
▁denní	-10.5008
▁syn	-10.501
▁celní	-10.5013
▁nemusel	-10.5014
▁pacienta	-10.5016
▁nejčastěji	-10.5018
▁pochopitelně	-10.5024
▁jiném	-10.5027
▁postih	-10.5027
▁vojensk	-10.5027
▁zápasů	-10.5032
▁zemské	-10.5039
ovské	-10.5041
▁připravil	-10.5044
▁servis	-10.5044
ODS	-10.5045
pře	-10.5053
▁podzim	-10.5056
rem	-10.5069
▁auta	-10.5069
▁kancelář	-10.5071
▁zkušenost	-10.5073
din	-10.5075
▁nápad	-10.5078
vání	-10.5081
▁zásob	-10.5081
▁zaměstnavatel	-10.5082
▁jižní	-10.5086
▁chodí	-10.5088
počítá	-10.5089
▁ministrem	-10.5091
▁rodinné	-10.5093
▁ploch	-10.5098
▁sekund	-10.5099
stavit	-10.5101
nedávn	-10.5103
ij	-10.5105
ete	-10.5114
▁16.	-10.5117
▁rozhodčí	-10.5118
▁Nad	-10.5143
▁pochyb	-10.5149
▁slib	-10.5154
AR	-10.5159
ováním	-10.5166
▁náhradní	-10.5166
▁významu	-10.5176
▁Anglii	-10.5176
▁Major	-10.5176
▁Microsoft	-10.5176
▁NHL	-10.5176
▁asociace	-10.5176
▁jménem	-10.5176
▁medaile	-10.5176
▁mužstvo	-10.5176
▁navzájem	-10.5176
▁odpovědi	-10.5176
▁uzavřít	-10.5176
▁veřejně	-10.5176
▁využívat	-10.5176
▁článek	-10.5176
▁duchovní	-10.5176
▁chvíle	-10.5176
▁dětem	-10.5176
▁Jaromír	-10.5176
▁ČEZ	-10.5176
▁(1	-10.5176
▁požadavek	-10.5177
▁zástupců	-10.5177
▁okolní	-10.5177
▁Chtěl	-10.5177
▁býval	-10.5178
▁zabývat	-10.5183
▁výpočetní	-10.5184
▁třikrát	-10.5185
▁ulice	-10.5191
hlav	-10.5196
▁výstavby	-10.5197
▁Dvě	-10.5204
▁pohyb	-10.5207
rat	-10.5207
▁týkající	-10.5211
▁zato	-10.5216
lib	-10.5216
▁hmot	-10.522
▁umístění	-10.5221
▁27	-10.5228
▁osobnosti	-10.5229
▁Takové	-10.523
▁praktické	-10.5233
▁samostatné	-10.5234
▁stanovení	-10.5235
▁používání	-10.5235
60	-10.5236
▁trhy	-10.5239
AD	-10.5246
▁Profitu	-10.5247
▁Jedin	-10.5253
▁fondů	-10.5257
▁obsahující	-10.5257
▁francouzské	-10.5258
▁mnohd	-10.526
▁PC	-10.5263
▁mistra	-10.5266
ale	-10.5267
▁45	-10.5279
▁směr	-10.5283
nce	-10.5289
72	-10.5293
▁250	-10.5295
eny	-10.5302
jíž	-10.5306
▁obratu	-10.5313
▁obchodním	-10.5314
▁čekají	-10.5315
▁minulém	-10.5318
▁žádost	-10.5321
▁120	-10.5326
slovensk	-10.5329
▁ekologické	-10.533
▁široké	-10.533
▁prezidentem	-10.5332
▁ztratil	-10.5344
▁počítačové	-10.5345
▁skončila	-10.5357
padl	-10.5367
ros	-10.5367
▁plný	-10.5368
LE	-10.537
kům	-10.537
ine	-10.5373
age	-10.5377
por	-10.5378
▁turnaj	-10.5378
▁ačkoli	-10.5381
▁rozdělen	-10.5383
▁vyhrála	-10.5384
ier	-10.5388
▁útok	-10.5389
ární	-10.5395
▁Bu	-10.5397
▁organismu	-10.5397
▁Stát	-10.5401
yl	-10.5406
▁čin	-10.5407
▁nechtěl	-10.5409
▁kolegy	-10.5412
kryt	-10.5416
volal	-10.5418
▁dlouhý	-10.542
▁ministři	-10.542
▁považuji	-10.542
▁souladu	-10.542
▁vysoká	-10.542
▁organizaci	-10.542
▁obrátil	-10.542
▁Michal	-10.542
▁chtít	-10.542
▁generace	-10.542
▁nejspíš	-10.5421
▁územní	-10.5421
▁studia	-10.5421
▁vyplatí	-10.5425
▁ukazují	-10.5425
▁průměrn	-10.5426
▁neznamená	-10.5426
▁volně	-10.5426
▁lesů	-10.5429
▁jednotliv	-10.5431
▁vystoupil	-10.5431
▁průmyslový	-10.5432
▁Polska	-10.5434
▁související	-10.5434
kyně	-10.5438
řídil	-10.5439
▁aktivit	-10.5439
▁nástrojů	-10.5443
▁silně	-10.5444
▁způsobu	-10.5444
▁odborných	-10.5449
▁časopisu	-10.5451
klo	-10.5452
▁Karlovy	-10.5453
▁panelu	-10.5456
▁kdysi	-10.5456
▁zajištění	-10.5457
▁občané	-10.5461
íme	-10.5464
▁režisér	-10.5467
ených	-10.5469
▁možných	-10.547
čili	-10.5477
▁ukázal	-10.5478
▁nedávné	-10.5479
▁nemělo	-10.5479
▁vyh	-10.5483
▁příčin	-10.5483
▁skončilo	-10.5484
▁nastoupil	-10.5487
▁protest	-10.5489
▁bran	-10.5491
▁Obchodní	-10.5492
sad	-10.5493
▁opravy	-10.5496
tivní	-10.5496
▁ústavy	-10.5498
icky	-10.5498
▁Poslaneck	-10.55
▁sekundu	-10.55
▁SE	-10.5503
▁kurs	-10.5503
▁ochrany	-10.5505
▁cest	-10.5509
▁Slovenské	-10.5512
▁předložil	-10.5513
▁přenosu	-10.5515
▁Plzeň	-10.5515
▁schopnosti	-10.5522
▁dostalo	-10.5526
▁10.	-10.5526
▁vyp	-10.5528
▁třiceti	-10.5538
KO	-10.5541
▁zákazníka	-10.5547
▁titulu	-10.5549
▁stanoví	-10.5551
▁přechodu	-10.5556
▁Americk	-10.5557
▁Novák	-10.5558
▁politický	-10.5563
▁dobou	-10.5565
▁nese	-10.5571
▁univerzit	-10.5577
▁RN	-10.558
▁Be	-10.5582
▁turistů	-10.5589
▁projekty	-10.559
▁třídě	-10.5591
▁desetiletí	-10.5599
▁zápase	-10.5601
▁všechn	-10.5604
mot	-10.5605
▁hodnotí	-10.5609
▁podpis	-10.561
▁reálné	-10.5614
áři	-10.5616
mark	-10.5618
▁Ad	-10.5619
▁politického	-10.5619
▁novém	-10.5622
▁čemu	-10.5623
álně	-10.5627
▁výnos	-10.5629
▁dají	-10.5637
▁forma	-10.5637
volání	-10.5639
▁Rad	-10.5639
▁míní	-10.5642
koupit	-10.5643
▁regionu	-10.5648
▁pracují	-10.5653
nek	-10.5657
▁porad	-10.5662
zní	-10.5663
▁kvalita	-10.5669
▁atmosféře	-10.567
▁delegace	-10.567
▁francouzský	-10.567
▁inflace	-10.567
▁přírodě	-10.567
▁službu	-10.567
▁všude	-10.567
▁nejnovější	-10.567
▁penzijní	-10.567
▁považují	-10.567
▁politická	-10.567
▁květnu	-10.5671
▁poptávka	-10.5671
▁vysvětlení	-10.5671
▁brát	-10.5672
▁mínění	-10.5672
▁stanovisko	-10.5673
▁řeší	-10.5673
▁stupně	-10.5673
▁vysvětlit	-10.5675
▁dokonale	-10.5676
▁podaří	-10.5677
▁vysvětlil	-10.5678
▁Nejvíce	-10.568
▁dřívější	-10.568
▁představit	-10.5683
ton	-10.5684
▁dosahuje	-10.5684
▁prosadit	-10.5687
▁Chceme	-10.5687
▁jimi	-10.5687
▁Rusk	-10.5691
▁Bra	-10.5692
▁znaků	-10.5693
▁léků	-10.5695
▁myši	-10.5697
▁Gorbačov	-10.5701
▁umí	-10.5701
ren	-10.5702
▁zkušeností	-10.5702
▁bytové	-10.5703
▁vrací	-10.5703
▁čeho	-10.5704
▁slovenských	-10.5705
▁ukázalo	-10.5706
nést	-10.5707
▁přípravě	-10.5707
ovněž	-10.5708
▁zbytek	-10.5711
▁orgánů	-10.5714
▁role	-10.5715
▁nesouhlasí	-10.5716
▁vydává	-10.5718
▁odchodu	-10.5718
▁Čs	-10.5723
▁trvale	-10.5728
▁společenské	-10.573
▁proud	-10.5734
kol	-10.5734
▁kanceláří	-10.5739
▁závodě	-10.575
▁místem	-10.5751
▁zjistil	-10.5751
▁vysoký	-10.5753
▁uživatel	-10.5757
▁novin	-10.5759
▁materiály	-10.5764
▁vodou	-10.5779
▁San	-10.5784
▁věří	-10.5789
▁800	-10.5791
muž	-10.5794
NA	-10.5796
▁nebezpečné	-10.5797
▁grafické	-10.5801
pravděpodobností	-10.5803
▁koupil	-10.5804
▁výstava	-10.5806
▁deník	-10.5809
▁vlastnost	-10.5809
▁adres	-10.5814
▁domnívá	-10.5817
▁cenou	-10.5817
▁pevné	-10.5823
tů	-10.5827
▁kniha	-10.5834
náší	-10.5836
▁obor	-10.5848
▁výklad	-10.5849
▁rozsah	-10.585
ír	-10.5851
▁představu	-10.5855
▁zúčastnil	-10.5856
▁dojem	-10.5857
▁dvanácti	-10.5861
orku	-10.5864
▁názorů	-10.5865
▁vz	-10.5869
▁oper	-10.587
lat	-10.5873
▁pozor	-10.5875
▁čtenáře	-10.5881
▁přestup	-10.5897
▁osobních	-10.5899
▁povrch	-10.5899
▁vzal	-10.5905
▁zbraně	-10.5907
NÁ	-10.5915
▁způsoby	-10.5925
▁vážně	-10.5926
váží	-10.5926
▁Výsledk	-10.5927
▁atraktivní	-10.5927
▁dlouhá	-10.5927
▁rozhraní	-10.5927
▁telekomunikační	-10.5927
▁tiskárny	-10.5927
▁chráněn	-10.5927
▁koncepce	-10.5927
▁nabídce	-10.5927
▁používají	-10.5927
▁naděje	-10.5927
▁závisí	-10.5927
▁učinil	-10.5927
▁blízké	-10.5927
▁muzea	-10.5927
▁noční	-10.5927
▁rozšířit	-10.5928
▁žebříčku	-10.5928
▁vysvětluje	-10.5928
▁unii	-10.5928
▁předpokládat	-10.593
▁vysoce	-10.5931
▁naději	-10.5931
▁milióny	-10.5933
▁externí	-10.5935
pt	-10.5936
▁můj	-10.5937
▁složky	-10.5937
▁Ostrava	-10.5937
▁umožňující	-10.594
ór	-10.5942
ani	-10.5943
▁uvést	-10.5943
▁barvy	-10.5945
▁podnikové	-10.5946
▁dvojice	-10.5947
▁čtyřech	-10.5948
▁Sparty	-10.5948
bili	-10.5949
▁Nikdo	-10.5951
▁Autor	-10.5953
▁zaměstnavatele	-10.5954
projevuje	-10.5955
▁Fa	-10.5962
▁návštěvu	-10.5963
▁fotbalistů	-10.5963
taj	-10.5964
▁totéž	-10.5971
čku	-10.5975
▁akciové	-10.5978
▁nemůžeme	-10.5979
▁agentura	-10.5995
▁podání	-10.5996
pel	-10.5998
▁čtyřmi	-10.5998
▁úst	-10.5999
▁budovy	-10.6001
zb	-10.6013
nský	-10.6016
vítá	-10.6019
▁test	-10.602
hi	-10.6022
▁studium	-10.6023
šil	-10.6024
▁nároky	-10.6025
▁kurz	-10.6028
▁nebe	-10.6029
▁mini	-10.6029
▁mysli	-10.6036
kám	-10.6041
▁trend	-10.6042
▁vědci	-10.6049
▁devíti	-10.6049
▁Kolik	-10.6052
hnal	-10.6052
▁anti	-10.6054
▁podstatné	-10.6055
▁Soud	-10.6058
▁Tad	-10.6065
▁návrat	-10.6067
▁automobil	-10.6074
▁listu	-10.6085
▁stranou	-10.6086
▁nabídl	-10.6089
▁formát	-10.6099
▁teplota	-10.6099
▁světového	-10.61
▁tříd	-10.6102
▁vln	-10.6103
50	-10.6106
▁finančn	-10.6107
▁filmový	-10.6107
ral	-10.6108
han	-10.611
▁Sv	-10.6112
▁Profit	-10.6114
▁Pe	-10.6115
▁past	-10.6117
▁ona	-10.6122
DE	-10.6127
▁Cena	-10.6131
ejména	-10.6132
ckého	-10.6134
▁neznámý	-10.6142
▁systémem	-10.615
puštěn	-10.6151
pak	-10.6154
▁větším	-10.6155
▁bodu	-10.6156
bývá	-10.616
▁střed	-10.6162
▁trestný	-10.6163
▁podřízen	-10.6165
▁Vol	-10.617
▁spisovatel	-10.6171
▁partner	-10.6174
▁jakékoli	-10.618
▁Itálii	-10.619
▁Miloslav	-10.619
▁obligace	-10.619
▁menšin	-10.619
▁odsouzen	-10.619
▁povinen	-10.619
▁podívat	-10.619
▁úrovní	-10.619
▁Jugoslávii	-10.619
▁najevo	-10.619
▁říct	-10.6191
▁Peter	-10.6191
▁vybírat	-10.6194
▁snižování	-10.6195
▁vojáků	-10.6196
▁skončení	-10.6196
▁fax	-10.6196
▁chemický	-10.6197
klád	-10.6198
▁peněžní	-10.6198
▁účel	-10.62
▁Moravě	-10.6201
▁pivo	-10.6204
▁kusů	-10.6204
▁proměn	-10.6205
▁hlavu	-10.6205
▁předmětem	-10.6206
▁Počet	-10.621
lep	-10.6213
▁cyklus	-10.6214
▁Nebyl	-10.6216
▁oprávněn	-10.6218
▁celku	-10.6218
pul	-10.6219
▁povolání	-10.6221
▁odvolání	-10.6221
▁japonské	-10.6225
▁Or	-10.6228
▁nesmírn	-10.6232
▁hrají	-10.6235
▁pouhý	-10.6235
▁patřil	-10.6236
▁úvěrů	-10.6236
zení	-10.6237
▁kartu	-10.6239
▁složen	-10.624
▁limit	-10.6241
▁dílem	-10.6244
▁vys	-10.6245
▁Francouz	-10.6248
▁důvodem	-10.6252
jem	-10.6252
▁některým	-10.6253
▁národů	-10.6254
▁následn	-10.6254
ZE	-10.6256
▁vlny	-10.6257
▁těles	-10.6259
▁důkaz	-10.6261
▁výstavy	-10.6265
nci	-10.6265
▁škole	-10.6269
mer	-10.6274
▁posun	-10.6279
▁přípravy	-10.6283
▁Den	-10.6289
▁starosta	-10.629
▁zločin	-10.6293
▁hor	-10.6295
▁fotbalový	-10.6295
▁Dalším	-10.6298
▁jakých	-10.6298
ona	-10.6301
▁klid	-10.6302
▁Ruské	-10.6303
▁par	-10.6305
gel	-10.6305
bral	-10.6307
nes	-10.6308
▁dostih	-10.6315
▁českým	-10.6316
▁Znamen	-10.6316
▁otevřené	-10.632
▁dospěl	-10.6322
▁upraven	-10.6326
par	-10.6335
něte	-10.634
▁horní	-10.6341
▁nákupu	-10.6353
▁fyzické	-10.6366
▁tvrdé	-10.6368
lid	-10.6373
DA	-10.6374
▁ztrát	-10.638
IT	-10.6385
▁Bush	-10.6387
▁hotov	-10.639
▁informoval	-10.639
▁Lékař	-10.6391
▁jasno	-10.6397
▁profesionál	-10.6398
▁volný	-10.6411
▁jistý	-10.6415
▁schopna	-10.6419
kovou	-10.642
▁průběh	-10.642
ány	-10.6421
▁tr	-10.6422
▁Izrael	-10.6423
▁manžel	-10.6424
▁požaduje	-10.6426
▁kompromis	-10.6433
▁55	-10.6434
▁zajištěn	-10.6435
▁přímé	-10.6437
▁26	-10.6438
kin	-10.644
▁Např	-10.6442
razí	-10.6452
nozí	-10.6454
▁Řad	-10.6459
▁Univerzit	-10.646
▁existovat	-10.646
▁informaci	-10.646
▁obtížné	-10.646
▁prezentací	-10.646
▁svědomí	-10.646
▁vyjádřit	-10.646
▁vytvářet	-10.646
▁února	-10.646
▁ubytování	-10.646
▁optimální	-10.6461
▁vybraný	-10.6461
▁zítra	-10.6461
▁Bójové	-10.6462
▁hrách	-10.6463
▁zdánlivě	-10.6464
▁ztrácí	-10.6465
▁rychleji	-10.6466
▁jednotek	-10.6467
▁tradice	-10.6468
▁československé	-10.6468
▁podvod	-10.6471
▁starost	-10.6472
▁závodech	-10.6473
▁hlavy	-10.6474
▁nadace	-10.6475
ickým	-10.6475
▁boje	-10.6475
▁politiků	-10.6477
▁správu	-10.6478
▁střediska	-10.6479
▁objevuje	-10.6479
▁symbol	-10.6479
▁ústřední	-10.648
▁dohodě	-10.6481
▁obvinění	-10.6482
▁brání	-10.6483
▁správný	-10.6484
▁schválil	-10.6485
▁dostávají	-10.6487
▁kontroly	-10.6492
▁vesnici	-10.6493
▁předpisy	-10.6496
padlo	-10.6496
▁narodil	-10.6496
▁kalů	-10.6502
ření	-10.6504
▁slavnostní	-10.6507
▁vysloven	-10.6508
▁Sun	-10.6509
▁klíč	-10.651
▁mistr	-10.6514
▁zaveden	-10.6514
▁rizika	-10.6518
▁souborů	-10.6518
▁soutěží	-10.652
▁vzdálenosti	-10.6523
▁Svoboda	-10.6523
▁Vlastní	-10.6524
běhl	-10.6524
▁sále	-10.6526
TI	-10.6527
▁hrad	-10.6532
ňuje	-10.6533
▁rad	-10.6538
▁návratu	-10.6541
▁vedou	-10.6547
▁Fin	-10.6549
▁udělá	-10.6552
▁sobotní	-10.6556
▁Změn	-10.6561
▁dopad	-10.6562
▁signálu	-10.6563
dává	-10.6565
hodil	-10.6574
▁spis	-10.6582
▁spotřebitel	-10.6587
počátku	-10.6595
▁ostatními	-10.66
aly	-10.6603
▁stop	-10.6605
▁vznikají	-10.6607
▁důvody	-10.6607
▁předsed	-10.6607
▁závodů	-10.661
▁Mi	-10.6613
kládají	-10.6614
případě	-10.6617
▁drží	-10.6619
▁dění	-10.6626
▁jednot	-10.6634
▁bloku	-10.6639
najdete	-10.6643
▁rezerv	-10.6655
věřil	-10.6658
▁pas	-10.6659
▁Internet	-10.6661
▁chud	-10.6662
▁určený	-10.6668
▁čtyřicet	-10.6669
▁komunikace	-10.6674
rd	-10.6687
▁určené	-10.669
▁černé	-10.6694
▁dětské	-10.6695
držení	-10.6702
▁státě	-10.6706
▁historický	-10.6708
ES	-10.6715
▁ozbrojený	-10.6715
▁jazyk	-10.6716
pád	-10.6717
og	-10.6719
▁prav	-10.672
▁večerní	-10.6721
pust	-10.6729
▁Ital	-10.6729
▁samostatný	-10.673
40	-10.673
▁mohu	-10.6735
▁demokracii	-10.6738
▁jednoduše	-10.6738
▁navštívil	-10.6738
▁nepochybn	-10.6738
▁nádraží	-10.6738
▁obligací	-10.6738
▁otázkou	-10.6738
▁ovzduší	-10.6738
▁pracoviště	-10.6738
▁vyrábí	-10.6738
▁častěji	-10.6738
▁železniční	-10.6738
▁Pracovní	-10.6738
▁obnoven	-10.6738
▁knize	-10.6738
▁modul	-10.6738
▁čísel	-10.6738
▁věnován	-10.6738
▁záření	-10.6738
▁lustrační	-10.6738
▁vážné	-10.6738
▁dohodnout	-10.6738
▁říkal	-10.6739
▁blízkosti	-10.6739
▁přínos	-10.6739
▁písmen	-10.6739
▁chyběl	-10.6741
▁oblečení	-10.6741
▁odstranit	-10.6741
▁pobřeží	-10.6742
▁lov	-10.6743
▁několikrát	-10.6744
▁komunistické	-10.6744
▁vyz	-10.6745
▁kvalitě	-10.6745
▁uprostřed	-10.6745
▁opoziční	-10.6746
▁vyvolal	-10.6747
poloviční	-10.6748
▁dopravě	-10.6749
▁ovládání	-10.6751
▁žít	-10.6752
▁příchod	-10.6754
▁pomůže	-10.6754
▁sportu	-10.6754
▁klimatický	-10.6758
bel	-10.6759
násob	-10.676
▁nejlepších	-10.6761
▁připadá	-10.6761
▁novináři	-10.6761
dem	-10.6767
AM	-10.6769
▁argument	-10.6773
▁výpravy	-10.6774
▁tajný	-10.6776
▁cítí	-10.6776
▁Pražské	-10.6779
▁znaky	-10.6781
▁Taková	-10.6781
▁velkého	-10.6785
▁Nez	-10.6787
dní	-10.6791
▁obrazů	-10.6791
lů	-10.6793
▁klade	-10.6795
rovná	-10.68
▁Rakousku	-10.6804
▁působit	-10.6804
▁viděli	-10.6805
▁mezinárodních	-10.6805
▁uzavřel	-10.681
▁rodinný	-10.6815
▁dopravu	-10.6815
▁festival	-10.6818
trh	-10.6821
íka	-10.6825
▁Kon	-10.683
▁souhlasí	-10.6831
▁Rusku	-10.6832
▁testu	-10.6844
▁úvěry	-10.685
▁společn	-10.6852
boj	-10.6855
▁určitých	-10.6856
▁udělal	-10.6858
▁metoda	-10.6859
▁znal	-10.6863
▁hru	-10.6876
▁zásah	-10.6878
▁měsíci	-10.6879
▁strach	-10.6882
OU	-10.6883
86	-10.6884
jedou	-10.6895
▁událost	-10.6905
▁fondy	-10.691
nová	-10.6932
▁Malé	-10.6936
▁doprava	-10.6936
▁využívá	-10.6937
▁zlato	-10.694
▁termínu	-10.6941
▁částic	-10.6943
▁schválen	-10.6943
▁editor	-10.6944
▁pohybují	-10.6946
▁okamžik	-10.6946
▁formu	-10.6947
▁vědom	-10.6948
▁převzal	-10.6955
dělit	-10.6956
▁vytvořil	-10.6956
▁zvítězil	-10.6962
▁účetní	-10.6962
▁1,	-10.6965
▁vedl	-10.6971
skal	-10.6983
▁začínají	-10.6987
ohledem	-10.699
▁pravidel	-10.699
▁vodu	-10.699
▁sídle	-10.6991
▁Fo	-10.6992
▁advokát	-10.6992
TE	-10.6996
▁Musím	-10.6997
▁komerční	-10.6998
▁píše	-10.7002
▁národ	-10.7002
Ř	-10.7007
▁aminokyselin	-10.7016
▁5.	-10.7018
▁Viktor	-10.7023
▁Americe	-10.7024
▁dopoledne	-10.7024
▁dveře	-10.7024
▁ministerstvu	-10.7024
▁nejrychleji	-10.7024
▁považovat	-10.7024
▁reakce	-10.7024
▁rekonstrukci	-10.7024
▁rozhoduje	-10.7024
▁strategie	-10.7024
▁Trenér	-10.7024
▁sloužit	-10.7024
▁vyrábět	-10.7024
▁policii	-10.7024
▁srdce	-10.7024
▁partneři	-10.7024
▁Klub	-10.7024
▁psát	-10.7024
▁areálu	-10.7024
▁vězení	-10.7024
▁vzít	-10.7024
▁rozlišení	-10.7025
▁krve	-10.7025
▁penze	-10.7025
▁trvat	-10.7025
▁politickou	-10.7025
▁výlet	-10.7025
▁dubna	-10.7025
▁jaře	-10.7025
▁čekat	-10.7025
▁dotací	-10.7026
▁Konečn	-10.7026
▁zachovat	-10.7027
▁poskytnout	-10.7028
▁zraněn	-10.703
▁stavby	-10.7031
▁Čas	-10.7032
▁provádět	-10.7035
▁obsahovat	-10.7036
▁viděl	-10.7038
▁Dom	-10.7039
▁zjevn	-10.704
▁ukončení	-10.7041
▁objektivní	-10.7042
plňuje	-10.7043
▁plánu	-10.7043
▁elektrické	-10.7046
▁narození	-10.7047
▁vším	-10.7048
pálen	-10.7048
▁přišli	-10.7051
▁demokratick	-10.7052
▁Havla	-10.7052
▁událostí	-10.7054
▁dítěte	-10.7055
denní	-10.7056
▁Mnoho	-10.7057
▁postavit	-10.7058
▁zastavit	-10.7061
▁sovětských	-10.7062
▁připojení	-10.7063
▁obci	-10.7063
▁taneční	-10.7064
▁oslav	-10.7064
▁schválení	-10.7067
▁čtvrt	-10.7068
▁kontakty	-10.7068
▁orgány	-10.7073
▁učitel	-10.7075
▁příkladem	-10.7077
▁výhody	-10.708
jel	-10.7081
▁kabinetu	-10.7081
▁obec	-10.7084
▁severu	-10.7088
▁produkty	-10.7089
▁managementu	-10.7091
ble	-10.7093
▁dodat	-10.7093
▁události	-10.7094
počet	-10.7095
▁cosi	-10.7096
▁zjistili	-10.7102
▁otevřel	-10.7103
▁přesvědčení	-10.7104
▁samostatně	-10.7105
▁maximální	-10.7112
▁rodina	-10.7113
▁útoku	-10.7115
▁65	-10.7117
▁principy	-10.7118
psané	-10.7121
▁dělí	-10.7123
▁hlasy	-10.7126
▁nástup	-10.7128
▁občany	-10.7129
▁vašeho	-10.7129
▁vyhlásil	-10.7131
▁souhlasu	-10.7143
▁předpoklad	-10.7153
LO	-10.7154
▁1000	-10.7165
▁soubory	-10.7165
▁hranic	-10.7167
▁rozhodli	-10.7168
▁Per	-10.7173
▁stejným	-10.7177
oři	-10.7183
AL	-10.7183
▁Rada	-10.7188
▁běžně	-10.7194
pustil	-10.7197
▁znamenat	-10.7197
▁obrovské	-10.72
▁změnil	-10.7203
▁sociálního	-10.7206
MO	-10.7208
▁průmyslové	-10.7208
▁kluby	-10.7213
ologie	-10.7217
▁zmíněný	-10.7219
▁vyzval	-10.7219
▁projevil	-10.722
▁přiznal	-10.722
▁člena	-10.7221
▁JE	-10.7225
▁motor	-10.7227
▁vstoupil	-10.7228
▁techniku	-10.723
ista	-10.7234
▁oznámila	-10.7236
rna	-10.7238
▁milion	-10.7239
▁monitor	-10.724
▁povinn	-10.7242
▁odkaz	-10.7244
šly	-10.7251
▁Německ	-10.7254
▁jakém	-10.7255
▁průkaz	-10.726
▁Her	-10.7261
▁formátu	-10.7263
▁výkonné	-10.7272
▁založil	-10.7275
▁bohat	-10.7277
lis	-10.7278
ického	-10.7281
▁pečlivě	-10.7282
▁Kor	-10.7285
wa	-10.7286
▁cyklu	-10.7291
▁nástroje	-10.7292
▁průměrné	-10.7293
▁rostou	-10.7293
▁klepn	-10.7294
▁zásadně	-10.7299
▁Tehd	-10.7301
měr	-10.7311
brat	-10.7314
▁Euro	-10.7315
příliš	-10.7317
▁Stanislav	-10.7318
▁března	-10.7318
▁geometrie	-10.7318
▁snižuje	-10.7318
▁zahrnuje	-10.7318
▁zahynul	-10.7318
▁rozmezí	-10.7318
▁sotva	-10.7318
▁kupónov	-10.7318
▁rakouské	-10.7318
▁čtvrtletí	-10.7318
▁klesá	-10.7318
▁využil	-10.7318
▁morální	-10.7318
▁blízko	-10.7319
▁Šest	-10.732
▁návod	-10.732
ložit	-10.732
AC	-10.732
▁postupy	-10.732
▁téhož	-10.7321
▁diskusi	-10.7322
▁sam	-10.7323
bíd	-10.7323
▁výsledku	-10.7324
▁zajišťuje	-10.7324
▁opozice	-10.7325
▁miliónu	-10.7326
▁účinky	-10.7327
▁školách	-10.733
ony	-10.7331
▁Hrad	-10.7331
▁poradce	-10.7331
▁zásluh	-10.7331
▁pravomoci	-10.7331
▁vzpomíná	-10.7337
▁kovů	-10.7338
▁zvýší	-10.7338
▁formy	-10.7341
▁činit	-10.7341
▁Zájem	-10.7342
▁příslušn	-10.7347
▁zachování	-10.7353
▁příběh	-10.7356
▁resp	-10.7357
▁přestal	-10.7358
▁Hol	-10.7362
▁duchu	-10.7362
▁příčinou	-10.7363
▁cíl	-10.7366
▁volbu	-10.7367
níků	-10.7367
kar	-10.7368
▁představiteli	-10.7374
▁provádí	-10.7375
▁přinesl	-10.7377
padají	-10.7378
▁věnuje	-10.7381
▁kandidátů	-10.7384
pad	-10.7389
▁Lon	-10.739
kož	-10.7391
▁Zemi	-10.7399
▁pražských	-10.7401
▁slep	-10.7403
▁sponzor	-10.7409
▁padesáti	-10.741
▁poskytl	-10.741
▁producent	-10.7419
vají	-10.7424
▁7.	-10.7424
▁kruh	-10.7426
ick	-10.7433
▁šlo	-10.7434
▁Boris	-10.7442
▁plnění	-10.7444
dostanou	-10.7444
▁startu	-10.7446
▁nezbytn	-10.7455
▁daném	-10.7461
rab	-10.747
▁papíru	-10.7473
▁Občanské	-10.7478
▁žil	-10.7479
▁Popper	-10.748
▁živé	-10.748
▁obchody	-10.7481
▁modely	-10.7483
▁klasický	-10.7484
▁pochod	-10.7489
▁následujících	-10.7498
▁15.	-10.7506
stál	-10.7508
▁pokut	-10.7516
ug	-10.7517
▁Michael	-10.7518
▁průzkum	-10.7523
▁chyby	-10.7538
▁pivovar	-10.7538
▁chat	-10.754
ola	-10.7541
▁výbuch	-10.7543
OH	-10.7543
lka	-10.7546
▁krátké	-10.755
▁poruch	-10.7554
ovaným	-10.7562
▁31.	-10.7565
nictví	-10.7569
▁loňský	-10.7572
dis	-10.7576
▁vzdálenost	-10.7581
▁jediným	-10.7584
▁Mnoh	-10.7585
▁pojištěn	-10.7587
zem	-10.759
ičky	-10.7591
▁vstříc	-10.7591
▁věda	-10.7593
ON	-10.7596
▁barevný	-10.7597
▁neznám	-10.7599
▁služba	-10.7601
áme	-10.7602
▁filmové	-10.7606
▁reakci	-10.7606
▁uvažuje	-10.7611
jeli	-10.7615
▁CO	-10.7617
▁Španěl	-10.7619
▁Otázka	-10.7621
▁definitivně	-10.7621
▁digitální	-10.7621
▁divadlo	-10.7621
▁důvěru	-10.7621
▁gigant	-10.7621
▁kyslíku	-10.7621
▁označit	-10.7621
▁pokračování	-10.7621
▁prognóz	-10.7621
▁předvolební	-10.7621
▁sekretář	-10.7621
▁transformaci	-10.7621
▁vězňů	-10.7621
▁zvyšování	-10.7621
▁října	-10.7621
▁vozidel	-10.7621
▁Československé	-10.7621
▁Býval	-10.7621
▁počtem	-10.7621
▁prosinci	-10.7621
▁vazby	-10.7621
▁Práce	-10.7621
▁nikoho	-10.7621
▁výročí	-10.7621
▁svoje	-10.7621
▁zastavil	-10.7622
▁myšlenky	-10.7622
▁super	-10.7622
▁hluboké	-10.7623
▁Člen	-10.7623
▁důsled	-10.7625
▁1992.	-10.7626
▁poradit	-10.7626
▁hřišti	-10.7626
▁majitele	-10.7627
▁navrhuje	-10.7628
▁sexuální	-10.7628
▁neplatí	-10.763
▁mírně	-10.763
▁oběti	-10.763
▁poplatky	-10.7632
▁začátek	-10.7633
▁výdajů	-10.7633
▁chtěla	-10.7636
zemědělských	-10.7636
▁rozšířil	-10.7636
▁Třeba	-10.7639
▁mechanismus	-10.7641
▁zrušit	-10.7641
eb	-10.7643
▁tuzemsku	-10.7643
▁rostoucí	-10.7646
nského	-10.7647
▁boji	-10.7648
▁Uvedl	-10.765
▁dílů	-10.7651
▁bratr	-10.7651
▁třetiny	-10.7653
dů	-10.7654
▁rozsáhlé	-10.7654
▁46	-10.7655
▁východě	-10.7658
▁krajiny	-10.766
▁příležitostí	-10.7664
▁Hlavním	-10.7666
▁pacient	-10.7667
▁sezóny	-10.7667
íci	-10.7667
▁reklamy	-10.7667
▁svobody	-10.767
▁zůstalo	-10.7671
▁obsahují	-10.7672
▁nastavení	-10.7673
áním	-10.7673
čních	-10.7674
▁Jaké	-10.7675
▁schopností	-10.7675
ičtí	-10.7676
▁vědí	-10.7677
ňování	-10.7679
▁našel	-10.7679
▁představitele	-10.7679
▁nezávislé	-10.7679
▁kultur	-10.7685
▁pokuty	-10.7687
▁produkt	-10.7687
▁Několik	-10.7688
▁majitelé	-10.7688
▁víme	-10.7688
▁přítomnosti	-10.7689
▁zpravodaj	-10.769
▁výborů	-10.7692
▁postavil	-10.7695
▁čtrnáct	-10.7696
▁36	-10.7697
rit	-10.7704
cení	-10.7705
▁činil	-10.7709
▁herec	-10.771
▁koní	-10.7712
▁Rakouska	-10.7715
áš	-10.7718
▁objevují	-10.772
▁klient	-10.772
▁starý	-10.7725
▁záležitosti	-10.7738
šky	-10.7745
▁Ši	-10.775
▁Vlk	-10.7752
▁koncertu	-10.7753
▁ekonomický	-10.7757
entní	-10.7757
▁tuzemské	-10.7757
▁obvod	-10.7761
▁víkend	-10.7764
▁stylu	-10.7766
▁tisíci	-10.7767
▁necelý	-10.777
▁účtu	-10.7772
▁Jaká	-10.7773
▁známý	-10.7773
▁kap	-10.7773
▁věděl	-10.7785
vrácení	-10.7785
▁českém	-10.7785
utí	-10.7786
▁výrobních	-10.7787
žení	-10.7787
izace	-10.7793
vala	-10.7793
▁Světové	-10.7798
▁Svět	-10.7803
pek	-10.7804
▁čtenářů	-10.781
tav	-10.781
nému	-10.7811
jezd	-10.7811
▁mimořádný	-10.7813
ruší	-10.7814
▁exportu	-10.7824
ujte	-10.7826
▁Ni	-10.7826
ovky	-10.7827
▁karta	-10.7828
▁primátor	-10.7831
▁běh	-10.7832
▁klidně	-10.7833
▁Clinton	-10.7834
▁oceán	-10.7836
ama	-10.7837
▁sousední	-10.7838
▁obrovský	-10.7839
▁časové	-10.7852
▁rodičů	-10.7852
▁Bla	-10.7853
▁výkony	-10.7862
▁Pomoc	-10.7864
▁obsadil	-10.7865
▁zdravotního	-10.7866
▁surovin	-10.7866
▁dosáhla	-10.7868
▁Muž	-10.7873
▁diplomat	-10.7874
ller	-10.7874
týká	-10.788
RE	-10.7881
▁pěst	-10.7881
▁ukázk	-10.7886
▁důraz	-10.7891
▁potřeboval	-10.7891
▁Ri	-10.7892
NI	-10.7894
▁silný	-10.7894
end	-10.7898
▁ostatním	-10.7898
▁přítomnost	-10.7901
▁vlně	-10.7904
▁Výbor	-10.7905
▁státem	-10.7905
▁trénink	-10.7911
skočil	-10.7913
ll	-10.7914
▁Úřadu	-10.7918
kan	-10.7927
▁klasické	-10.7927
▁menších	-10.7928
▁stisk	-10.7928
stické	-10.7929
▁dětský	-10.7931
▁trans	-10.7933
▁Evropu	-10.7933
▁Mechanik	-10.7933
▁Němců	-10.7933
▁Premiér	-10.7933
▁Systém	-10.7933
▁Vývoj	-10.7933
▁definitivní	-10.7933
▁kilobajtů	-10.7933
▁potvrzuje	-10.7933
▁připomněl	-10.7933
▁režii	-10.7933
▁sjednocení	-10.7933
▁smlouvě	-10.7933
▁tabulce	-10.7933
▁teorií	-10.7933
▁tvořit	-10.7933
▁účinek	-10.7933
▁lehce	-10.7933
▁zdarma	-10.7933
▁zrušil	-10.7933
▁podezření	-10.7933
▁schůze	-10.7933
▁spotřeby	-10.7934
▁zastupitelstva	-10.7934
▁nedokázal	-10.7934
▁11.	-10.7934
▁pověřen	-10.7934
▁střetnutí	-10.7934
▁bránit	-10.7934
▁GSM	-10.7934
▁produkci	-10.7935
▁celků	-10.7935
▁Pět	-10.7936
▁nejenom	-10.7936
▁absolutní	-10.7936
▁("	-10.7937
▁ovoce	-10.7937
▁diskuse	-10.7937
bytek	-10.7938
nc	-10.7939
▁Dodal	-10.794
▁kamion	-10.7941
▁systematick	-10.7941
▁vaši	-10.7941
▁firemní	-10.7942
▁variant	-10.7943
▁ukončil	-10.7943
▁předložit	-10.7943
▁kódování	-10.7943
▁akademie	-10.7945
▁dolní	-10.7945
▁Ber	-10.7946
▁vyvolává	-10.7947
▁Druhá	-10.795
▁Staroměstské	-10.7952
▁dostatek	-10.7952
,8	-10.7953
staví	-10.7954
▁označen	-10.7954
▁Jednání	-10.7955
▁zahraničním	-10.7958
▁Jaký	-10.7964
▁závislosti	-10.7965
rop	-10.7967
▁kontrolní	-10.7967
▁náhodou	-10.7968
▁výstavě	-10.7971
▁fakultu	-10.7972
▁užívání	-10.7975
▁církevní	-10.7975
▁veřejných	-10.7977
▁Severní	-10.7977
▁nahradil	-10.7978
▁Obecn	-10.798
▁min	-10.7981
▁Sparta	-10.7982
áci	-10.7986
▁přeprav	-10.7988
▁základem	-10.7989
▁Karadžič	-10.799
▁zvěře	-10.7991
bil	-10.7999
▁zdravé	-10.8
▁najde	-10.8
▁kont	-10.8003
▁předložen	-10.8005
táhne	-10.8008
▁škodu	-10.8009
▁Němec	-10.8012
▁pohyboval	-10.8016
jako	-10.8016
▁příčiny	-10.8018
▁zdravotnické	-10.8025
▁stráž	-10.8026
pot	-10.8037
▁textový	-10.8038
und	-10.8042
▁Mir	-10.8043
▁Ústavní	-10.8044
▁gen	-10.8045
▁vyžádal	-10.8046
▁sporu	-10.8049
▁pravděpodobnost	-10.805
▁trenérem	-10.805
▁principu	-10.8055
▁levé	-10.8056
tají	-10.8058
▁týdnech	-10.8066
▁6.	-10.8069
číst	-10.8077
▁podobného	-10.8092
12	-10.8093
leč	-10.8095
▁přenosov	-10.8098
▁životním	-10.8099
▁postav	-10.81
vní	-10.81
zemní	-10.8108
▁SP	-10.8108
▁reálný	-10.8114
rot	-10.8118
skok	-10.8125
edení	-10.8133
land	-10.8137
▁koho	-10.814
▁jiní	-10.8141
přes	-10.8144
▁komplex	-10.8146
▁znění	-10.815
razit	-10.8151
▁pokračoval	-10.8152
▁Firm	-10.8152
▁styk	-10.8156
▁per	-10.8156
▁počítačový	-10.8167
ab	-10.8175
OR	-10.8178
▁trestné	-10.818
▁situací	-10.8181
KU	-10.8183
▁mnou	-10.8185
▁zábav	-10.8188
▁Paul	-10.8191
▁městský	-10.8192
80	-10.8194
▁bezprostředn	-10.8196
▁nezávislost	-10.8203
▁zjištěn	-10.821
▁škod	-10.821
85	-10.8214
▁plno	-10.8216
řazen	-10.8219
▁probíh	-10.8225
děk	-10.8233
res	-10.8242
▁poskytují	-10.8242
▁třetího	-10.8244
▁továrn	-10.8254
MI	-10.8255
jedině	-10.8256
▁Poslanc	-10.8256
▁chystá	-10.8256
▁dražší	-10.8256
▁krizi	-10.8256
▁nemohu	-10.8256
▁podporovat	-10.8256
▁přispět	-10.8256
▁sportovců	-10.8256
▁uskutečnit	-10.8256
▁vybudovat	-10.8256
▁vyřešit	-10.8256
▁Člověk	-10.8256
▁skončí	-10.8256
▁Osobn	-10.8256
▁nejnižší	-10.8256
▁turisty	-10.8256
▁mlýn	-10.8256
▁dohromady	-10.8256
▁sněhu	-10.8256
▁zhodnocení	-10.8256
▁mld	-10.8256
▁obilí	-10.8256
▁dobrá	-10.8256
▁snažit	-10.8257
▁atmosféry	-10.8257
▁síti	-10.8257
▁vypadat	-10.8257
▁bomb	-10.8258
▁těší	-10.8258
▁vedlejší	-10.8259
▁přesvědčit	-10.826
řad	-10.826
▁Hradci	-10.8262
▁pokračuje	-10.8262
▁porozumění	-10.8262
▁tvorbě	-10.8264
▁všeobecně	-10.8264
▁umělecké	-10.8264
▁připojit	-10.8265
▁ruky	-10.8265
▁hůře	-10.8265
▁tělo	-10.8266
▁Jelcina	-10.8266
▁zbytečně	-10.8266
▁Bruselu	-10.8267
▁srážek	-10.8268
▁pohádk	-10.8271
▁dala	-10.8272
▁Úřad	-10.8273
áno	-10.8273
▁ZA	-10.8274
▁přinést	-10.8275
▁vesnice	-10.8279
▁analýzy	-10.8279
▁rovině	-10.828
▁poznamenal	-10.8281
▁Chorvatska	-10.8282
AV	-10.8282
▁právník	-10.8287
▁obsazení	-10.8288
▁Senátu	-10.8288
cky	-10.829
▁spolupracovníků	-10.829
▁personální	-10.8291
áhy	-10.8292
▁bi	-10.8293
▁prost	-10.8294
ložil	-10.8295
▁autobusy	-10.8296
set	-10.8296
▁záznam	-10.8298
▁silnice	-10.8301
▁kolektivní	-10.8302
▁34	-10.8302
▁Američané	-10.8304
▁grafický	-10.8306
▁Kohl	-10.8308
▁zájmů	-10.8308
▁zlom	-10.8311
▁důchodu	-10.8317
šení	-10.8318
▁opustit	-10.8321
▁dovozu	-10.8321
▁zájemce	-10.8321
ana	-10.8325
běhu	-10.8325
bývají	-10.8329
▁citliv	-10.8331
▁vědě	-10.8337
▁výkonný	-10.8338
▁Novotný	-10.834
ička	-10.8344
▁Jin	-10.8344
▁sval	-10.8344
▁rodin	-10.8345
oje	-10.8346
▁volných	-10.8347
▁požadované	-10.835
▁130	-10.8351
▁Karla	-10.8353
▁lékařsk	-10.8355
▁experiment	-10.8357
31	-10.836
▁nevím	-10.8363
▁patnácti	-10.8373
▁tlaku	-10.8375
▁přivedl	-10.8375
▁nepříjemné	-10.8378
▁Ca	-10.8378
▁grafu	-10.8378
▁dalo	-10.838
▁drobné	-10.8387
▁nachází	-10.8399
▁průměrný	-10.8401
▁objemu	-10.8402
▁Mohl	-10.8403
▁Rakousk	-10.8408
▁získan	-10.8409
tisk	-10.8416
▁průmysl	-10.8422
▁hledají	-10.8423
▁struktura	-10.8425
▁ekonom	-10.8426
metr	-10.8431
▁potenciál	-10.8436
▁projektů	-10.8437
▁členský	-10.8437
▁budova	-10.8439
▁Bur	-10.8442
▁moment	-10.8444
izovat	-10.8445
▁Ros	-10.8451
▁prof	-10.8453
▁střet	-10.8455
▁1,5	-10.8457
ujícího	-10.8459
▁vedla	-10.8465
elné	-10.847
▁investic	-10.8475
▁odborník	-10.848
out	-10.8482
▁Par	-10.8482
▁montáž	-10.8484
▁turistický	-10.8484
▁nutnost	-10.8495
▁osobnost	-10.8499
▁Takový	-10.8503
▁zná	-10.8508
znamenal	-10.8508
▁král	-10.8508
▁výrazný	-10.851
▁management	-10.8511
▁poli	-10.8516
▁mechanik	-10.8523
▁překvapení	-10.8526
▁bílé	-10.8527
▁prosadil	-10.8528
▁čtyřiceti	-10.8528
▁vyšetřovatel	-10.8533
mála	-10.8535
▁projednáva	-10.8537
▁výhod	-10.8538
▁zad	-10.8545
sadil	-10.8548
▁ochotn	-10.8548
rní	-10.8555
ja	-10.8557
eček	-10.8558
▁dělení	-10.8558
▁zvíře	-10.8561
▁značný	-10.8561
▁důstojn	-10.8565
▁dokumentu	-10.8567
▁Mon	-10.8567
▁proveden	-10.857
hlížet	-10.8574
▁konečný	-10.8582
čil	-10.8583
▁Mluvčí	-10.8589
▁dosažení	-10.8589
▁jednoduchá	-10.8589
▁metropoli	-10.8589
▁nechtějí	-10.8589
▁neutrální	-10.8589
▁pochopení	-10.8589
▁teorii	-10.8589
▁tradičně	-10.8589
▁výpověď	-10.8589
▁únoru	-10.8589
▁Peníze	-10.8589
▁reakcí	-10.8589
▁Divadl	-10.8589
▁likvidace	-10.8589
▁břehu	-10.8589
▁jmenován	-10.8589
▁Zástupc	-10.8589
▁nevýhod	-10.8589
▁restauraci	-10.8589
▁nejpozději	-10.8589
▁Rudolf	-10.8589
▁Obdobn	-10.859
▁jmění	-10.859
▁Rozdíl	-10.859
▁dotace	-10.859
▁dojít	-10.8591
▁dělají	-10.8591
▁vtip	-10.8591
▁operací	-10.8591
▁kabel	-10.8591
▁kategorii	-10.8592
▁výhodnější	-10.8592
▁elektráren	-10.8594
▁mezd	-10.8594
▁obsažen	-10.8596
▁sněmovně	-10.8596
▁reformy	-10.8597
▁podporuje	-10.8599
▁fyzický	-10.86
▁městech	-10.86
▁neboli	-10.86
▁OH	-10.8604
▁udržení	-10.8606
▁vína	-10.8606
▁časopisů	-10.8607
▁oblačnost	-10.8608
▁hlad	-10.8612
▁přijdou	-10.8612
padne	-10.8617
▁Tour	-10.8618
▁stíhání	-10.8618
▁realitní	-10.862
▁roze	-10.8621
▁uložení	-10.8626
▁uspořáda	-10.8626
táhnout	-10.8627
▁pochází	-10.8631
▁žádostí	-10.8631
▁náhod	-10.8633
▁otevřena	-10.8635
čátkem	-10.8639
▁hledal	-10.8642
▁Paříži	-10.8642
▁koupí	-10.8644
▁sezónu	-10.8649
pin	-10.8651
▁strom	-10.8652
▁svobodu	-10.8654
▁odborníky	-10.8657
▁využívání	-10.8659
▁spoj	-10.8661
▁Zahraničn	-10.8662
▁rostlin	-10.8663
▁skla	-10.8668
▁zvuk	-10.8679
▁posílen	-10.8679
▁hmoty	-10.868
dor	-10.8681
▁žádosti	-10.8685
při	-10.8686
▁vešker	-10.8686
▁Cha	-10.8687
nova	-10.8687
▁obvodní	-10.8689
▁mladý	-10.8689
▁otevře	-10.8693
▁založení	-10.8696
▁domy	-10.8697
níky	-10.87
▁záměru	-10.8702
áček	-10.8706
▁vystaven	-10.8707
▁neb	-10.8709
▁Lib	-10.871
▁Důležit	-10.8712
▁nemohli	-10.8712
▁vydat	-10.8717
88	-10.8726
▁9.	-10.873
▁ukázala	-10.873
▁škoda	-10.873
5%	-10.8732
▁tich	-10.8733
bin	-10.8736
▁mimořádné	-10.8742
▁reprezentantů	-10.8745
▁mal	-10.8749
▁zákazníkům	-10.8756
▁požádal	-10.8759
25	-10.876
▁platy	-10.8761
▁letecké	-10.8765
▁zvýšen	-10.8766
▁katastrof	-10.8768
▁led	-10.8771
▁šedesát	-10.8771
▁vlád	-10.8775
▁95	-10.8778
jen	-10.8779
▁složitější	-10.8782
▁poklesl	-10.8787
▁zvýšené	-10.8791
eta	-10.8794
▁mluvčího	-10.8794
▁činu	-10.8794
▁ztráta	-10.8795
lap	-10.8797
▁provozní	-10.8807
iletý	-10.8815
▁řídící	-10.8816
▁stanic	-10.8819
národních	-10.882
tkání	-10.8821
▁Fran	-10.8826
▁týmy	-10.8828
pit	-10.8832
▁platnost	-10.8837
▁zařazen	-10.8841
▁chorob	-10.8841
▁mladí	-10.8842
▁pražský	-10.8843
ačnou	-10.8844
▁úmysl	-10.8849
▁čtrnácti	-10.8849
▁každému	-10.8849
▁85	-10.8852
platit	-10.8852
▁muse	-10.8852
▁monopol	-10.8854
▁výstup	-10.8855
▁čtvrtý	-10.8855
▁značn	-10.8856
▁protein	-10.8857
▁ono	-10.8861
▁Odbor	-10.8864
▁nezaměstnanost	-10.8866
▁Plat	-10.8872
▁Vznik	-10.8872
▁snažil	-10.8875
▁tvrdý	-10.8878
potřeb	-10.888
▁podílel	-10.888
oučástí	-10.8881
býval	-10.8886
▁podnikatelský	-10.8886
▁kvantov	-10.8887
volat	-10.8888
▁noc	-10.8888
'	-10.8891
▁společensk	-10.8896
▁grafick	-10.8898
▁Představ	-10.8907
pustí	-10.8909
▁poskytovat	-10.8909
▁šéfa	-10.8915
▁čist	-10.8915
bíhá	-10.8919
▁stačil	-10.8919
▁obecné	-10.892
níku	-10.8922
▁Ameriky	-10.8934
▁Bohužel	-10.8934
▁Ladislav	-10.8934
▁Nedávn	-10.8934
▁Plzni	-10.8934
▁SCSI	-10.8934
▁energii	-10.8934
▁instituce	-10.8934
▁kapitán	-10.8934
▁nejvýznamnější	-10.8934
▁podpořil	-10.8934
▁přirozené	-10.8934
▁čtvrtfinále	-10.8934
▁chránit	-10.8934
▁mládí	-10.8934
▁názvu	-10.8934
▁koncepci	-10.8934
▁rámeček	-10.8934
▁Včera	-10.8934
▁nejúspěšnější	-10.8934
▁použil	-10.8934
▁Policisté	-10.8934
▁investování	-10.8934
▁zaujal	-10.8934
▁ekonomicky	-10.8934
▁stabilní	-10.8934
▁závad	-10.8934
▁trzích	-10.8934
▁Chip	-10.8935
▁množ	-10.8935
▁No	-10.8936
▁výrobek	-10.8936
▁nadcházející	-10.8936
▁zimě	-10.8936
▁obrázky	-10.8937
▁síla	-10.8938
▁Tentokrát	-10.8938
▁tradici	-10.894
▁konat	-10.894
▁faktorů	-10.894
▁tón	-10.8941
▁chodit	-10.8942
▁Pre	-10.8942
▁bojovat	-10.8942
▁Londýně	-10.8942
▁úvahy	-10.8943
▁uznal	-10.8943
▁hlavou	-10.8944
▁David	-10.8944
▁odstavce	-10.8944
▁Afriky	-10.8945
▁hudby	-10.8945
▁Stav	-10.8947
▁lokální	-10.8948
▁kritérií	-10.8948
▁právnické	-10.8948
▁vývojové	-10.8949
▁originální	-10.8951
▁schůzky	-10.8952
▁požadují	-10.8953
▁umělecký	-10.8953
▁scény	-10.8955
▁nep	-10.8957
▁způsobuje	-10.8957
▁parametrů	-10.8959
▁pokusil	-10.8962
▁adresu	-10.8962
▁park	-10.8963
▁spravedlnosti	-10.8967
▁vybrané	-10.8967
▁nezbytné	-10.8969
▁Děti	-10.8969
▁vlasti	-10.897
▁nalézt	-10.8971
▁zájemci	-10.8975
▁slíbil	-10.8975
▁třetinu	-10.8978
▁ekologick	-10.8978
▁vesmíru	-10.8979
▁zbývající	-10.8981
▁drobn	-10.8981
▁světovou	-10.8982
▁drahé	-10.8987
▁povede	-10.8987
vykl	-10.8988
▁Zajímav	-10.8989
▁zaměření	-10.899
▁uživatele	-10.8993
▁okruhu	-10.8993
▁úroky	-10.8993
▁ostře	-10.8994
▁úkolem	-10.8996
▁způsobené	-10.8997
pas	-10.8997
▁nemocných	-10.8998
▁zavře	-10.9003
▁Ex	-10.9004
▁Lidové	-10.9004
▁Klause	-10.9006
IC	-10.9007
kládat	-10.9008
▁Dobr	-10.901
▁bosenský	-10.9013
▁představí	-10.9014
▁blíže	-10.9017
▁starosty	-10.9019
▁přijel	-10.9022
▁paliva	-10.9023
▁dokumentů	-10.9023
▁Mark	-10.9034
▁klidu	-10.9036
▁hradu	-10.9037
▁postupné	-10.9041
▁uvedení	-10.9042
▁podat	-10.9043
▁los	-10.9044
▁udržel	-10.905
▁hovořil	-10.905
44	-10.9052
▁Nevím	-10.9052
▁výkonem	-10.9053
▁konkrétně	-10.9054
▁úkolů	-10.9057
▁objevit	-10.9058
▁pouhé	-10.9059
era	-10.9062
▁zásady	-10.9062
▁Pal	-10.9062
▁poukaz	-10.9064
▁platné	-10.9075
▁paláce	-10.9076
inter	-10.9084
▁výš	-10.9088
▁založené	-10.9089
▁rozhovor	-10.9092
lín	-10.9099
▁zůstala	-10.9099
měř	-10.9103
čně	-10.9105
▁skutečný	-10.9106
▁38	-10.9109
▁dalšímu	-10.9114
▁odkud	-10.9116
▁sklon	-10.9119
▁umělé	-10.9123
stru	-10.9126
▁společenský	-10.9127
▁29	-10.9129
▁30.	-10.9134
▁připojen	-10.914
▁pokyn	-10.9149
▁hladin	-10.915
▁bot	-10.9152
▁pevný	-10.9152
▁parku	-10.9156
▁biologické	-10.9157
▁pobočk	-10.9158
41	-10.9159
▁filmy	-10.9162
▁zahraničními	-10.9162
▁8.	-10.9168
▁dluh	-10.9171
▁lék	-10.9172
sloužil	-10.9173
▁díl	-10.9174
▁nalezen	-10.9184
ša	-10.9188
leb	-10.919
▁potřebný	-10.919
kládal	-10.9199
spal	-10.92
▁student	-10.9202
▁dvoj	-10.9203
▁průmyslov	-10.9203
▁česko	-10.9204
ejme	-10.9207
▁školu	-10.921
ráže	-10.921
vnějších	-10.9213
▁Cíle	-10.9213
SA	-10.9213
▁hrob	-10.9214
▁vzduch	-10.9214
▁možný	-10.9218
áni	-10.9222
ŘE	-10.9229
▁fin	-10.923
▁disket	-10.9232
▁divadelní	-10.9235
▁děj	-10.9237
hodnou	-10.9241
▁nechá	-10.9245
rám	-10.9248
▁Tur	-10.9253
antní	-10.9254
▁zastoupen	-10.9255
▁působil	-10.9256
▁koně	-10.9257
oucí	-10.9258
▁Ci	-10.9258
pracovat	-10.9262
▁exportní	-10.9262
TU	-10.9263
▁Hus	-10.9274
▁agent	-10.9278
zoval	-10.9282
▁případný	-10.9285
Ú	-10.9285
▁Auto	-10.9286
kombin	-10.9288
▁rytm	-10.9291
▁Alexandr	-10.9291
▁Barceloně	-10.9291
▁Británii	-10.9291
▁Nejlepší	-10.9291
▁Organiza	-10.9291
▁březnu	-10.9291
▁fázi	-10.9291
▁instalaci	-10.9291
▁normy	-10.9291
▁následek	-10.9291
▁podmínkou	-10.9291
▁pomáhá	-10.9291
▁populární	-10.9291
▁požádat	-10.9291
▁pravidlo	-10.9291
▁tlačítka	-10.9291
▁tlačítkem	-10.9291
▁týdně	-10.9291
▁umožnit	-10.9291
▁Srbsk	-10.9291
▁déšť	-10.9291
▁kratší	-10.9291
▁ploše	-10.9291
▁vrstvy	-10.9291
ačtyřicet	-10.9291
▁Robert	-10.9291
▁divize	-10.9291
▁těžce	-10.9291
▁Část	-10.9291
▁likvidaci	-10.9291
▁značky	-10.9291
▁ocitl	-10.9291
▁Soubor	-10.9291
▁někoho	-10.9291
▁pololetí	-10.9291
▁kvalifikace	-10.9291
▁debat	-10.9291
▁příslušníci	-10.9291
▁1996	-10.9292
▁1987	-10.9292
▁doposud	-10.9292
▁nutný	-10.9292
▁pozdější	-10.9292
▁ekonomice	-10.9292
▁komisi	-10.9292
▁klimatu	-10.9293
▁IFOR	-10.9293
▁uvažovat	-10.9293
▁desky	-10.9295
▁červenci	-10.9295
▁drog	-10.9296
▁Hodnot	-10.9296
▁horách	-10.9297
▁Generální	-10.9297
▁multimediální	-10.9298
▁ukázat	-10.9298
▁právnických	-10.9298
▁rozbor	-10.93
▁zajímat	-10.93
ODA	-10.9302
▁letiště	-10.9304
▁výstavbě	-10.9304
▁staví	-10.9305
▁vzorky	-10.9307
▁kapacit	-10.9308
vel	-10.9308
▁myšlenka	-10.9309
▁cenách	-10.9311
▁Novotná	-10.9313
▁pozorování	-10.9314
▁All	-10.9315
▁ukáže	-10.9316
▁potvrzení	-10.9316
▁vyšel	-10.9317
▁vozy	-10.9317
▁ochotni	-10.9318
▁ohrožení	-10.9319
▁Často	-10.9321
▁barvu	-10.9322
▁JU	-10.9327
▁parametry	-10.9329
▁pop	-10.9329
▁obvyklé	-10.933
▁pojem	-10.9331
▁účelem	-10.9332
▁Lit	-10.9333
▁Atlanty	-10.9334
▁plynu	-10.9334
▁ekonomika	-10.9335
▁lidsk	-10.9335
▁sever	-10.9335
▁úvodu	-10.9336
▁obsazen	-10.9337
▁kilometr	-10.9338
▁platný	-10.9338
▁muzeum	-10.9339
▁mezinárodním	-10.9339
▁%)	-10.9343
▁odbor	-10.9344
▁očekávání	-10.9344
▁Svazu	-10.9347
▁podílu	-10.9349
▁příspěvky	-10.9349
▁srážky	-10.9349
▁sektoru	-10.9349
▁dvojí	-10.935
▁plynů	-10.9351
▁přírodovědecké	-10.9353
ologické	-10.9353
▁jeví	-10.9354
▁koupi	-10.9357
▁stupni	-10.9358
▁chorvatské	-10.9358
IL	-10.9358
▁Slovensk	-10.9361
▁studenti	-10.9361
▁nahradit	-10.9362
▁řeky	-10.9364
rob	-10.9365
▁varianty	-10.9367
▁napsat	-10.9367
▁nastal	-10.9368
▁kmen	-10.937
▁potenciální	-10.9371
▁třetina	-10.9372
▁Hra	-10.9374
▁Kub	-10.9375
ško	-10.9378
jte	-10.9379
▁styku	-10.938
▁důchodové	-10.9381
▁příjemné	-10.9383
▁průzkumu	-10.9384
▁obchodů	-10.9386
▁telefonu	-10.9387
oji	-10.9388
▁ztrátu	-10.9394
▁Dá	-10.9395
▁jediného	-10.9395
▁španělské	-10.9396
▁Sta	-10.9396
▁nedostal	-10.9399
▁uměl	-10.9399
▁cíli	-10.94
▁Britsk	-10.9401
vesel	-10.9401
skutk	-10.9401
▁vět	-10.9404
▁Jac	-10.9404
▁určitém	-10.9404
▁představitel	-10.9406
rum	-10.941
▁kup	-10.9413
▁společném	-10.942
▁změnila	-10.9422
▁spokojeni	-10.9423
▁hloub	-10.9426
▁tvořen	-10.9427
▁působící	-10.9427
▁Věřím	-10.9428
▁výrazné	-10.9435
daných	-10.9444
▁spol	-10.9445
▁most	-10.945
▁kontrola	-10.9453
▁hrála	-10.9454
▁Velm	-10.9454
▁pořádá	-10.9456
ovanou	-10.9458
myslet	-10.9461
▁dohod	-10.9465
▁rychlý	-10.9479
máhají	-10.948
▁specializované	-10.9502
▁založena	-10.9504
▁sloup	-10.9505
▁důsledně	-10.9507
▁nezávisl	-10.951
▁nějakým	-10.9513
▁úraz	-10.9515
▁Eva	-10.9519
ickém	-10.952
▁kus	-10.9521
▁Val	-10.9526
▁osoba	-10.9526
▁realit	-10.9531
ria	-10.954
▁menším	-10.9546
▁italský	-10.9547
ence	-10.955
▁tábor	-10.9551
▁nález	-10.9554
nášet	-10.9559
▁dám	-10.9559
cker	-10.9566
▁Ří	-10.9566
▁rovin	-10.9567
asi	-10.9573
▁fan	-10.9573
▁desetin	-10.9574
▁pověst	-10.9575
▁Martina	-10.9575
sty	-10.9578
▁Františk	-10.9578
▁zájemců	-10.9591
▁devadesát	-10.9591
▁bariér	-10.9593
▁šestnáct	-10.9593
▁poz	-10.9593
▁Karl	-10.9594
▁Podnikatel	-10.9602
▁kupující	-10.9605
poví	-10.9607
ens	-10.961
▁přesun	-10.9613
padla	-10.9623
▁vedoucího	-10.9625
▁náskok	-10.9633
▁Společn	-10.9644
istů	-10.9647
▁hlubo	-10.9647
lob	-10.9651
jmout	-10.9653
jíždějí	-10.9655
▁humor	-10.9661
áků	-10.9661
▁Koaliční	-10.9662
▁Ukrajiny	-10.9662
▁Zvláštní	-10.9662
▁burze	-10.9662
▁církví	-10.9662
▁deficit	-10.9662
▁držitel	-10.9662
▁galerie	-10.9662
▁náboženství	-10.9662
▁priorit	-10.9662
▁upozorňuje	-10.9662
▁určuje	-10.9662
▁šetření	-10.9662
▁IBM	-10.9662
▁naznačil	-10.9662
▁ovlivňuje	-10.9662
▁páteční	-10.9662
▁oxidu	-10.9662
▁patrné	-10.9662
▁pronájem	-10.9662
▁usilovat	-10.9662
▁fáze	-10.9662
▁podporou	-10.9662
▁produktivit	-10.9662
▁příliv	-10.9662
▁sdělovací	-10.9662
▁královn	-10.9662
▁vzestup	-10.9662
nutně	-10.9662
▁nedaleko	-10.9662
vázat	-10.9662
▁filozofie	-10.9662
▁integraci	-10.9662
▁potrestán	-10.9662
▁zámku	-10.9662
▁naposledy	-10.9662
▁1997	-10.9662
▁hutní	-10.9662
▁Formát	-10.9662
▁myšlenkou	-10.9662
▁slabší	-10.9662
▁svátky	-10.9662
najdeme	-10.9662
▁šíření	-10.9663
▁manželství	-10.9663
▁duše	-10.9663
▁srdeční	-10.9663
▁sběr	-10.9663
▁myšlenku	-10.9663
▁obrázků	-10.9663
▁plod	-10.9663
▁podnicích	-10.9663
▁přežití	-10.9663
▁vážný	-10.9663
▁sílu	-10.9664
▁Týr	-10.9664
▁nízko	-10.9664
▁obnovu	-10.9664
▁Původně	-10.9664
▁nehodlá	-10.9664
▁hřiště	-10.9664
▁odhadnout	-10.9665
hav	-10.9665
ůj	-10.9665
▁stanovit	-10.9665
▁Správ	-10.9665
▁zkouš	-10.9666
▁Východ	-10.9667
▁testování	-10.9667
▁Komis	-10.9667
▁výběrové	-10.9667
▁zdanění	-10.9668
▁znamenalo	-10.9669
▁div	-10.9669
▁potíží	-10.9669
▁prosazovat	-10.9669
▁sledování	-10.9671
hodlají	-10.9672
▁Irsk	-10.9672
▁silnější	-10.9674
hání	-10.9676
▁olej	-10.9676
▁doporučení	-10.9677
▁profil	-10.9677
▁zákazníci	-10.9678
▁posoudit	-10.9678
▁přístrojů	-10.968
▁Nejde	-10.9681
▁soustředění	-10.9681
▁akcionářů	-10.9681
▁Labem	-10.9683
▁úředníků	-10.9685
▁následky	-10.9686
▁přehlídky	-10.9686
▁tvrdě	-10.9688
▁pomohl	-10.9689
▁jádro	-10.9689
▁americkém	-10.969
▁75	-10.9694
▁příslušníků	-10.9695
usi	-10.9696
▁pouště	-10.9698
▁Nikd	-10.9699
▁hal	-10.97
▁přinese	-10.97
▁soudce	-10.9702
▁vládou	-10.9703
har	-10.9704
daly	-10.9705
▁úlohu	-10.9707
bírá	-10.9707
▁jistotu	-10.9707
▁začínající	-10.9709
▁mírové	-10.9715
▁Naši	-10.9721
pos	-10.9722
sídl	-10.9727
sed	-10.9728
▁25.	-10.9728
▁Les	-10.9729
▁moravsk	-10.973
▁Svat	-10.9731
▁zápisu	-10.9734
▁registr	-10.9735
▁lidové	-10.9736
▁experti	-10.9738
▁zachoval	-10.9738
▁náročné	-10.974
▁Celk	-10.9741
▁membrán	-10.9742
▁Platí	-10.9743
▁díly	-10.9744
▁předpoklady	-10.9747
▁hotelů	-10.975
▁Cest	-10.9753
▁válka	-10.9753
▁Kovo	-10.9756
kovat	-10.9756
▁Byli	-10.9757
▁výbuchu	-10.9758
▁témat	-10.9762
▁nasazení	-10.9765
▁samotné	-10.9765
hlásí	-10.9766
▁sbor	-10.977
tát	-10.9771
ávat	-10.9774
▁týmem	-10.9776
▁papírů	-10.9777
▁spory	-10.9779
▁2,	-10.9779
kolik	-10.9784
▁ikon	-10.9784
▁výstavu	-10.9787
▁fotbalu	-10.9789
▁technika	-10.979
▁vrcholu	-10.9792
▁ziskem	-10.9796
▁Malý	-10.9798
▁snahy	-10.9801
▁technického	-10.9803
▁slovník	-10.9803
▁orgán	-10.9803
▁polo	-10.9805
▁subjekt	-10.9805
elná	-10.9806
vyšších	-10.9807
nechává	-10.9813
vir	-10.9815
▁světlo	-10.9816
▁vložit	-10.9817
▁měnové	-10.9831
▁komor	-10.9833
▁procento	-10.9836
lení	-10.9837
,6	-10.9838
▁osobě	-10.9838
▁předvedl	-10.9839
▁skladb	-10.9842
▁sbír	-10.9842
valy	-10.9843
▁zákazu	-10.9844
▁úz	-10.9845
▁soused	-10.9845
▁vstupní	-10.9849
▁úrok	-10.9849
▁chová	-10.9854
bran	-10.9854
▁červené	-10.9858
▁školení	-10.9863
▁21.	-10.9864
▁Výhod	-10.9867
▁typické	-10.987
▁Gr	-10.987
EC	-10.9872
▁obran	-10.9875
▁agentur	-10.988
▁připraveni	-10.9885
▁180	-10.9887
▁programem	-10.9888
▁kulturních	-10.989
▁vzdálené	-10.9892
tický	-10.9894
art	-10.9898
dění	-10.9903
▁nedělní	-10.9906
▁odpad	-10.9908
▁úspěšný	-10.9924
▁republiku	-10.9935
logický	-10.9936
▁Oznámil	-10.994
▁Chyb	-10.9944
LU	-10.9952
bíral	-10.9954
▁našim	-10.9959
▁fanoušků	-10.9964
▁určena	-10.9964
▁zabývají	-10.9965
▁aktivita	-10.9967
▁14.	-10.9967
▁zaměstnanec	-10.9967
▁rozpor	-10.9973
▁kabinet	-10.9974
▁Problém	-10.9978
▁sortiment	-10.9979
▁Možnost	-10.998
▁poskytnut	-10.998
▁podstatný	-10.9984
▁praktický	-10.9986
▁Nejs	-10.9986
▁trati	-10.9988
▁trvalo	-10.9991
▁Sever	-10.9996
▁přístroj	-11
▁průměr	-11.0002
▁prozatím	-11.0004
▁okrese	-11.0006
▁odpovědn	-11.0008
▁obrazovk	-11.0008
▁vím	-11.0011
pir	-11.0012
cházejí	-11.0013
▁snížen	-11.0016
▁vzhled	-11.0019
▁Hr	-11.0019
▁malého	-11.0019
▁zvolil	-11.002
ork	-11.0021
▁neroz	-11.0028
▁poznat	-11.0034
bývající	-11.0035
▁mírový	-11.0039
▁utrpěl	-11.004
▁inženýr	-11.0044
byl	-11.0044
▁kvalifikovan	-11.0046
▁Rakušan	-11.0046
▁Vedoucí	-11.0046
▁dodatečně	-11.0046
▁důležitá	-11.0046
▁fotoaparát	-11.0046
▁franků	-11.0046
▁instalace	-11.0046
▁konstrukce	-11.0046
▁majetkem	-11.0046
▁pohledávek	-11.0046
▁redakce	-11.0046
▁stupňů	-11.0046
▁upozornit	-11.0046
▁vyšetření	-11.0046
▁Bejbl	-11.0046
▁Průměrn	-11.0046
▁pojmů	-11.0046
▁DPH	-11.0046
▁přežít	-11.0046
▁stovek	-11.0046
▁vojsk	-11.0046
▁jedince	-11.0046
▁Asociac	-11.0046
▁certifikát	-11.0046
▁uváděn	-11.0046
▁Řešení	-11.0046
▁Prostě	-11.0046
▁kvalifikační	-11.0046
▁1984	-11.0046
▁sněhov	-11.0046
▁restaurace	-11.0047
▁formální	-11.0047
▁1968	-11.0047
▁Rád	-11.0047
ng	-11.0047
▁1986	-11.0047
▁nejmenší	-11.0047
▁inspekce	-11.0047
▁poznatků	-11.0047
▁nohy	-11.0048
▁Tedy	-11.0048
▁většího	-11.0048
▁spolupracovat	-11.0048
▁nápis	-11.0049
▁května	-11.0049
nutit	-11.0049
▁legislativní	-11.005
▁marně	-11.005
▁chápat	-11.005
▁žáků	-11.005
▁Bill	-11.005
▁3,5	-11.005
▁III	-11.0051
▁podzemní	-11.0052
▁rychlejší	-11.0052
▁Sovětský	-11.0054
▁DEM	-11.0054
▁vyvolat	-11.0055
tp	-11.0056
▁užitek	-11.0056
▁upravit	-11.0056
▁manželka	-11.0056
▁Belgie	-11.0056
▁ruku	-11.0057
▁platební	-11.0057
▁Potom	-11.0057
ívají	-11.0058
▁krátký	-11.0058
letí	-11.0059
▁rozložení	-11.0062
▁volbami	-11.0062
▁odstranění	-11.0064
▁základním	-11.0064
▁Nejen	-11.0066
▁bilance	-11.0067
▁jevů	-11.0067
▁oznámení	-11.0069
▁měny	-11.007
▁trvalé	-11.0076
▁Lux	-11.0077
▁Jedná	-11.008
▁sociálně	-11.008
▁zaplatil	-11.008
▁elektřiny	-11.0081
▁polohy	-11.0082
▁osobností	-11.0083
▁tráv	-11.0083
▁předal	-11.0084
▁poslanecké	-11.0085
▁samotný	-11.0085
▁výstavbu	-11.0085
▁Německem	-11.0086
▁Nejdřív	-11.0087
▁koalici	-11.0089
▁Vítěz	-11.0089
▁nájemní	-11.009
▁hrubého	-11.0092
▁návštěvy	-11.0092
ářské	-11.0093
▁ostrovy	-11.0093
▁týdeník	-11.0095
▁podklad	-11.0096
▁Japonsku	-11.0096
▁půdu	-11.0096
▁reagoval	-11.0097
▁Ste	-11.0101
▁demokratů	-11.0101
▁Výstava	-11.0102
▁složité	-11.0104
▁linky	-11.0106
trž	-11.0112
▁vedlo	-11.0115
▁šok	-11.0116
tisícov	-11.0117
▁kapacity	-11.0117
▁stejná	-11.0118
▁bezprostřední	-11.0119
▁oborů	-11.012
▁uplynulý	-11.0124
cová	-11.0125
▁orgánu	-11.0126
▁Ben	-11.0128
▁nájemce	-11.0128
▁potřebu	-11.0131
tisknout	-11.0133
▁přev	-11.0137
▁výběrem	-11.0142
▁oceánu	-11.0143
▁obvodu	-11.0144
▁monitoru	-11.015
▁Rady	-11.0151
dáme	-11.0156
▁jmen	-11.0159
▁nastavit	-11.0164
▁držet	-11.0165
▁51	-11.0166
▁fotbalových	-11.0173
▁primátora	-11.0175
▁svěřen	-11.0176
▁velitel	-11.0176
▁pohár	-11.0179
▁skutečností	-11.018
▁Met	-11.018
3,	-11.0185
▁hvězdy	-11.0186
▁učí	-11.0187
▁vůdce	-11.0188
zdrav	-11.0191
▁skupinou	-11.0191
▁zvukové	-11.0192
▁dokumenty	-11.0195
▁obdobné	-11.0198
cházelo	-11.0203
▁základy	-11.0206
▁metru	-11.0208
▁Št	-11.0208
▁evropského	-11.021
▁šedesáti	-11.0215
▁specializovan	-11.0215
▁skryt	-11.0219
ité	-11.0221
řídí	-11.0221
▁pozná	-11.0225
CA	-11.0227
▁vzniknou	-11.0228
▁plány	-11.0232
▁příbuzn	-11.0233
▁venkov	-11.0233
▁sportovních	-11.0235
zákon	-11.0237
▁známe	-11.0239
prodej	-11.0251
▁připustil	-11.0256
snad	-11.0257
▁stole	-11.0263
▁současném	-11.0263
▁Dan	-11.0266
▁Celkov	-11.0266
▁49	-11.027
▁troj	-11.027
▁češt	-11.0271
▁Mat	-11.0271
▁mořský	-11.0275
▁zdravotnický	-11.0278
▁Bílé	-11.0282
▁zlaté	-11.0283
▁uvedeno	-11.0286
▁číst	-11.0291
▁světov	-11.0292
▁zahrad	-11.0292
▁700	-11.0296
ust	-11.0297
▁rozvoji	-11.0299
čela	-11.0304
▁listy	-11.0312
▁stanov	-11.0314
70	-11.032
▁Jediný	-11.0331
▁silnic	-11.0337
▁údaj	-11.034
race	-11.0347
▁vyloučen	-11.0347
▁dvojnásobn	-11.035
▁paliv	-11.0351
▁fotbalov	-11.0352
▁dodavatele	-11.0353
ráží	-11.0353
▁délk	-11.0354
▁dolar	-11.0355
▁původním	-11.0358
▁německá	-11.036
kových	-11.036
▁alkohol	-11.0367
jedna	-11.0368
▁zápis	-11.0369
bře	-11.0369
splnění	-11.0369
▁hluboko	-11.037
▁Er	-11.0371
▁odraz	-11.0374
poslední	-11.0374
stávají	-11.0376
▁Nor	-11.0376
žijí	-11.0376
▁dozvěděl	-11.0376
▁raket	-11.0379
čan	-11.0379
▁plyne	-11.038
▁svobod	-11.0383
▁sedí	-11.0383
▁rozvod	-11.0387
▁klientů	-11.039
▁konečné	-11.0391
▁připravena	-11.0393
hruba	-11.0395
▁minuty	-11.0401
▁vybírá	-11.0405
ston	-11.0409
▁zbyl	-11.041
▁sjezd	-11.041
89	-11.0415
▁ozdob	-11.0417
povídá	-11.0417
▁Motor	-11.0418
▁zas	-11.0421
▁rozliš	-11.0422
▁Kam	-11.0426
▁Mas	-11.0429
▁motocykl	-11.043
▁filozof	-11.0431
▁doporučuje	-11.0435
▁potřeb	-11.0437
▁23.	-11.0439
▁vstupné	-11.0439
▁čekal	-11.0442
▁postoje	-11.0443
▁brambor	-11.0446
▁domnívají	-11.0446
▁firmám	-11.0446
▁hovořit	-11.0446
▁komponent	-11.0446
▁naštěstí	-11.0446
▁nežádoucí	-11.0446
▁označuje	-11.0446
▁převzít	-11.0446
▁uplatnit	-11.0446
▁zázemí	-11.0446
▁nevědí	-11.0446
▁odlišný	-11.0446
▁spoluhráč	-11.0446
▁Poborský	-11.0446
▁Sociální	-11.0446
▁viditeln	-11.0446
▁Domácí	-11.0446
▁kamarád	-11.0446
▁redaktor	-11.0446
▁učinit	-11.0446
▁Musel	-11.0446
▁pokoušel	-11.0446
▁zásilk	-11.0446
▁nestačil	-11.0446
▁sněžení	-11.0446
▁nejrychlejší	-11.0446
▁Šéf	-11.0446
▁forem	-11.0446
▁slyšet	-11.0446
▁škál	-11.0446
▁prodlení	-11.0446
▁ztracen	-11.0446
▁Slavii	-11.0446
▁vracet	-11.0446
▁rysy	-11.0446
▁efektivní	-11.0446
▁stránek	-11.0447
▁dlouhodobý	-11.0447
▁dubnu	-11.0447
▁obrazovce	-11.0447
▁radikální	-11.0447
▁Grand	-11.0447
▁studií	-11.0447
▁podílejí	-11.0447
▁přál	-11.0448
▁občanství	-11.0448
▁přizpůsobit	-11.0448
▁Vesel	-11.0448
▁posuzovat	-11.0449
▁obrázku	-11.045
▁Číny	-11.0451
▁Švédsk	-11.0454
▁stavbu	-11.0454
▁Okresní	-11.0455
▁fronty	-11.0455
▁převoz	-11.0456
▁pracovnice	-11.0457
▁rejstříku	-11.0457
▁Všechno	-11.0457
▁prvé	-11.0459
▁chci	-11.0459
▁Moskva	-11.0459
▁dobách	-11.0459
▁písemně	-11.046
▁podnikat	-11.046
▁každodenní	-11.0461
▁včerejším	-11.0461
ED	-11.0462
▁prodloužení	-11.0463
▁regulace	-11.0464
▁demokraté	-11.0464
▁osvobození	-11.0465
▁znalostí	-11.0465
▁zaznamenal	-11.0465
▁souhrn	-11.0466
▁Zelen	-11.0467
▁Roman	-11.0468
▁Druhou	-11.0468
▁Kalvoda	-11.0471
▁Wimbledonu	-11.0473
▁ukládání	-11.0475
▁poslal	-11.0475
▁předmětů	-11.0476
▁teplotě	-11.0476
▁zbrojní	-11.0476
ovce	-11.0476
▁summitu	-11.0477
▁čistý	-11.0477
▁překvapil	-11.0477
▁kritéria	-11.0478
▁orientaci	-11.0482
▁úplné	-11.0482
▁nemovitosti	-11.0485
▁náhradu	-11.0488
▁výjimky	-11.0488
nete	-11.0491
▁textové	-11.0493
▁resortu	-11.0494
▁zrušen	-11.0494
▁obchodníci	-11.0496
▁tvaru	-11.0497
▁zvěř	-11.0498
žádají	-11.0502
▁předměty	-11.0503
▁vůz	-11.0503
▁ztrátou	-11.0503
▁jednalo	-11.0505
▁módní	-11.0506
▁doklad	-11.0514
▁smích	-11.0514
▁odbory	-11.052
jímá	-11.0521
▁představil	-11.0523
▁sjezdu	-11.0525
▁věty	-11.0526
▁snažili	-11.0527
▁tvrd	-11.053
▁divu	-11.053
▁vstoupit	-11.0531
▁sboru	-11.0532
enství	-11.0532
▁Pražského	-11.0535
▁Mc	-11.0535
▁přírodověd	-11.0537
▁zvuku	-11.0539
▁celkovém	-11.0547
▁důkazy	-11.0547
▁CS	-11.0547
▁všeobecné	-11.0548
▁návštěva	-11.055
▁britsk	-11.0554
▁světla	-11.0554
▁bolest	-11.0556
▁konto	-11.0558
▁nech	-11.0559
▁kandidáty	-11.0561
▁planety	-11.0565
dom	-11.0565
neme	-11.0567
▁sestavení	-11.0568
▁Čechů	-11.0569
▁Let	-11.0571
▁13.	-11.0572
▁rud	-11.0575
jal	-11.0575
▁požár	-11.0577
▁známých	-11.0577
▁ClipArt	-11.0579
▁zdi	-11.058
▁domluv	-11.0581
▁mapy	-11.0582
ptal	-11.0582
▁48	-11.0582
▁Michaela	-11.0584
▁ovlivňují	-11.0586
▁charakteru	-11.0588
▁úspory	-11.0589
VA	-11.0591
noví	-11.0595
konala	-11.0597
▁bojů	-11.0598
▁německém	-11.0602
eme	-11.0605
myslí	-11.0609
▁of	-11.061
▁koš	-11.0613
▁úkoly	-11.0613
▁některý	-11.0614
▁špičkové	-11.0616
part	-11.0616
▁")	-11.062
těl	-11.0628
iner	-11.0628
▁64	-11.0629
rušení	-11.0632
▁El	-11.0635
▁samot	-11.0637
▁příspěvk	-11.0639
▁Moh	-11.0639
▁vysoko	-11.0639
▁předchozích	-11.0641
▁investorů	-11.0645
▁daný	-11.0651
ME	-11.0651
ance	-11.0656
stává	-11.0662
▁skládá	-11.0664
▁důchod	-11.0666
▁Bor	-11.0674
▁Ján	-11.0674
▁maďarský	-11.0676
rok	-11.0679
▁evropském	-11.0681
▁rozumn	-11.0681
Ile	-11.0682
▁metra	-11.0682
držet	-11.0682
▁drah	-11.0686
▁účastník	-11.0687
▁olympijsk	-11.0688
▁chodb	-11.0691
▁páté	-11.0694
▁naším	-11.0694
ker	-11.0698
▁47	-11.0704
far	-11.071
▁fyzikální	-11.0712
ávají	-11.0713
▁úsek	-11.0724
▁procesor	-11.0726
▁typický	-11.0728
▁autora	-11.0732
▁vyhlášen	-11.0733
stupující	-11.0734
▁výkonů	-11.0737
prázdn	-11.0737
▁podílí	-11.0739
▁pracovníka	-11.0742
▁Sovětském	-11.0743
▁kart	-11.0745
▁křiv	-11.0746
▁prach	-11.0749
části	-11.0753
NO	-11.0758
▁podrob	-11.0758
▁okolnost	-11.0763
▁nedal	-11.0773
▁žalob	-11.0774
▁obyvatele	-11.0775
14	-11.0776
▁Olomouc	-11.0777
▁objeven	-11.078
▁magistrát	-11.0785
▁66	-11.0787
▁ČS	-11.0793
▁Pražský	-11.0795
▁sklo	-11.0797
▁jevy	-11.0797
▁zhorš	-11.08
▁krajan	-11.0801
▁mód	-11.0801
▁zní	-11.081
▁volejbal	-11.0816
▁uživatelů	-11.0817
▁hrd	-11.0818
▁vámi	-11.0818
▁mikro	-11.082
bla	-11.082
▁scénář	-11.0823
schválila	-11.0824
dání	-11.0826
▁Jedn	-11.0829
ána	-11.0832
▁mechanismu	-11.0836
▁vyvíj	-11.0837
▁služební	-11.0837
▁kuponov	-11.0845
hodnotit	-11.0846
čern	-11.0847
▁oleje	-11.0847
šetřit	-11.0849
být	-11.0849
ŘÍ	-11.0857
▁řidič	-11.0859
▁recept	-11.0861
▁nádor	-11.0862
stu	-11.0862
▁statut	-11.0863
▁Intergraph	-11.0863
▁Lebeď	-11.0863
▁Pithart	-11.0863
▁Srbů	-11.0863
▁Zjuganov	-11.0863
▁asistent	-11.0863
▁bližší	-11.0863
▁církvi	-11.0863
▁konferencí	-11.0863
▁nejstarší	-11.0863
▁nábytku	-11.0863
▁nárůst	-11.0863
▁odpovědí	-11.0863
▁ovlivněn	-11.0863
▁reagovat	-11.0863
▁schůzi	-11.0863
▁softwaru	-11.0863
▁strategii	-11.0863
▁vyznačuj	-11.0863
▁zpomal	-11.0863
▁zpátky	-11.0863
▁zálivu	-11.0863
▁říjnu	-11.0863
▁CADKON	-11.0863
▁Mazda	-11.0863
▁nízká	-11.0863
▁dokáží	-11.0863
▁nezaměstnaných	-11.0863
▁žádoucí	-11.0863
▁splnit	-11.0863
▁dědictví	-11.0863
▁technologii	-11.0863
▁Mencl	-11.0863
▁Vídni	-11.0863
▁uzavírá	-11.0863
▁zazněl	-11.0863
▁zůstanou	-11.0863
▁audio	-11.0863
▁stůl	-11.0863
▁kombinaci	-11.0863
▁navrhnout	-11.0863
▁Praktick	-11.0863
▁diagram	-11.0863
▁zařadil	-11.0863
▁maximum	-11.0863
▁Charles	-11.0863
▁komunikaci	-11.0863
▁kondom	-11.0863
▁vrchní	-11.0863
▁ligové	-11.0863
▁délce	-11.0863
stupují	-11.0863
▁společník	-11.0864
▁vytvářejí	-11.0864
▁otevírá	-11.0864
▁nastat	-11.0864
▁chlap	-11.0864
▁bance	-11.0865
▁okresů	-11.0865
▁Finanční	-11.0865
▁otec	-11.0865
▁zvolit	-11.0866
▁podmíněn	-11.0866
▁komunální	-11.0866
▁vyrovnal	-11.0867
▁kreslení	-11.0867
▁odmítají	-11.0869
▁nejvýše	-11.0869
▁pochopit	-11.0869
▁blesk	-11.087
▁Vít	-11.087
rst	-11.087
▁pohybovat	-11.087
▁Brazílie	-11.087
▁živočichů	-11.0871
▁Polsko	-11.0871
▁Stručně	-11.0871
▁ponechat	-11.0873
příkladu	-11.0873
▁splatnosti	-11.0873
▁obchodování	-11.0874
▁kilogramů	-11.0874
▁dočasně	-11.0875
▁respektovat	-11.0875
▁statistické	-11.0877
kryje	-11.0877
▁odejít	-11.0878
▁vkladů	-11.0878
▁uložit	-11.0882
▁kontakt	-11.0883
▁pádu	-11.0884
▁soust	-11.0886
▁Chci	-11.0886
▁Nic	-11.0887
▁Postup	-11.0887
▁energetické	-11.089
oprvé	-11.089
▁postižených	-11.0892
▁kontrole	-11.0892
▁poskytování	-11.0896
▁dokončení	-11.0896
▁zakázky	-11.0896
▁potřebujeme	-11.0897
▁Kol	-11.0899
▁jistou	-11.0899
▁Spor	-11.09
▁zastavení	-11.09
▁kongresu	-11.0901
tání	-11.0903
▁padesátých	-11.0905
lci	-11.0905
▁zaplacení	-11.0908
▁představoval	-11.0909
▁vyhlášení	-11.091
▁řešením	-11.0913
▁Kniha	-11.0914
▁závodní	-11.0916
▁titulů	-11.0917
▁účinnosti	-11.0918
▁projeví	-11.092
▁anglické	-11.0923
▁KB	-11.0925
▁trpí	-11.0925
▁schématu	-11.0926
▁vozidla	-11.0926
▁míra	-11.0927
▁pla	-11.0928
▁niž	-11.093
▁nemocný	-11.093
▁Rok	-11.0932
▁fyzick	-11.0935
▁lidu	-11.0936
▁katolické	-11.0938
▁valné	-11.0941
▁listů	-11.0945
▁hale	-11.0951
▁tip	-11.0957
▁specifické	-11.0957
▁předcházel	-11.0959
▁Než	-11.0959
▁vzá	-11.096
nvestiční	-11.0962
▁rodinu	-11.0963
Severoatlantické	-11.0966
▁dynamick	-11.0968
▁rod	-11.0969
▁užit	-11.097
▁věk	-11.0972
věřit	-11.0974
▁předpokladu	-11.0976
71	-11.0977
▁nebezpečný	-11.098
▁vyv	-11.0981
▁aktiv	-11.0981
▁zaměřen	-11.0981
▁nápady	-11.0982
hodit	-11.0983
počítat	-11.0983
▁dokázali	-11.099
▁sousedů	-11.099
▁uvede	-11.0991
▁klíče	-11.1001
losování	-11.1003
▁hotely	-11.1006
▁reprezentanti	-11.1007
▁růstem	-11.1007
▁určení	-11.1009
▁čtenáři	-11.101
ďte	-11.1011
▁snaz	-11.1011
▁brankáře	-11.1017
▁Jistě	-11.1018
▁tváří	-11.1018
pochyby	-11.1019
▁jazyka	-11.102
vice	-11.1021
▁zabývající	-11.1025
▁obtížně	-11.1037
▁sezón	-11.1038
▁uplynul	-11.1044
stran	-11.1047
▁objevily	-11.1047
▁zajímavý	-11.1049
▁podnikatelsk	-11.105
▁pravidelné	-11.105
2.	-11.1051
▁britský	-11.1053
▁Prvním	-11.1053
▁neměly	-11.1054
▁společných	-11.1058
árně	-11.106
▁vědu	-11.1062
▁šla	-11.1063
▁přijala	-11.1067
▁přijímá	-11.1067
▁vznikající	-11.1068
▁osudu	-11.107
▁spotřebitele	-11.1074
ňoval	-11.1077
▁von	-11.1077
▁bývají	-11.1078
▁stejných	-11.1081
▁zvýšila	-11.1083
▁přítomn	-11.1085
▁Rozhod	-11.1086
▁pokusy	-11.1089
▁odmítli	-11.1091
▁odpovídal	-11.11
▁ÚV	-11.1102
▁stála	-11.1103
▁hus	-11.1104
loni	-11.1107
stávat	-11.1108
▁sehrál	-11.111
▁zvukov	-11.1111
▁dosti	-11.1115
▁zeměmi	-11.1115
lék	-11.1118
▁soustav	-11.1121
▁rozsáhlý	-11.1122
▁reklam	-11.1123
▁doplň	-11.1124
▁modern	-11.1128
▁našli	-11.1129
▁katalog	-11.113
▁Fotbal	-11.1133
▁přidal	-11.1133
▁bíl	-11.1133
▁výchov	-11.1136
ějším	-11.1136
▁únik	-11.1141
▁Johna	-11.1142
díl	-11.1144
▁zahrnut	-11.1144
ini	-11.1146
▁Host	-11.1146
▁každým	-11.1154
▁zvířata	-11.1156
▁schéma	-11.1161
▁zahájen	-11.1162
istický	-11.1169
▁vládních	-11.1169
▁vázán	-11.117
▁expert	-11.1171
▁Volb	-11.1178
▁hráčem	-11.1181
▁Svobod	-11.1182
cem	-11.1183
▁nemám	-11.1185
▁císaře	-11.1189
▁Paříž	-11.1189
▁odchod	-11.1191
▁znak	-11.1197
:3	-11.1197
elů	-11.1201
ins	-11.1201
▁vytvořen	-11.1203
▁uvědom	-11.1204
▁fa	-11.1206
▁beze	-11.1209
bojí	-11.1211
▁jmenuje	-11.1211
kupovat	-11.1214
▁návrhů	-11.1215
▁OD	-11.1215
▁hrdin	-11.1219
▁katolick	-11.122
sion	-11.1222
▁jakož	-11.1224
▁dres	-11.1226
▁nevěděl	-11.1227
▁novinářů	-11.1228
▁ostr	-11.1229
▁Zemana	-11.123
▁cestující	-11.123
▁dividend	-11.1231
▁požadovaný	-11.1233
▁pokládá	-11.1233
▁konkrétním	-11.1238
může	-11.1243
▁1994.	-11.125
▁urychlen	-11.125
▁existující	-11.125
▁získává	-11.1251
▁sedmnáct	-11.1253
celku	-11.1255
▁prováděn	-11.1256
▁pracující	-11.1256
98	-11.1259
wan	-11.1259
▁teplot	-11.126
▁klíčový	-11.1277
▁kraj	-11.1289
lip	-11.129
▁říkají	-11.1293
nášejí	-11.1294
▁členům	-11.1294
▁nazýva	-11.1294
▁pozdě	-11.1295
▁nižších	-11.1296
▁nejmodernější	-11.1298
dostatečnou	-11.1298
▁Demokratick	-11.1298
▁Majitel	-11.1298
▁Nedvěd	-11.1298
▁Ostatní	-11.1298
▁Tigrid	-11.1298
▁byznys	-11.1298
▁charakteristik	-11.1298
▁cizince	-11.1298
▁galerii	-11.1298
▁hlubší	-11.1298
▁hypotéz	-11.1298
▁kompetence	-11.1298
▁konstatuje	-11.1298
▁metropole	-11.1298
▁nejznámější	-11.1298
▁nominální	-11.1298
▁polojasno	-11.1298
▁požadoval	-11.1298
▁požadovat	-11.1298
▁semifinále	-11.1298
▁složek	-11.1298
▁strategií	-11.1298
▁udržuje	-11.1298
▁vyhovuje	-11.1298
▁údolí	-11.1298
▁šablon	-11.1298
▁Bratislava	-11.1298
▁Dříve	-11.1298
▁Počítač	-11.1298
▁divadle	-11.1298
▁literární	-11.1298
▁otevřít	-11.1298
▁počínaj	-11.1298
▁stránky	-11.1298
▁kodex	-11.1298
▁nevidí	-11.1298
▁poplatek	-11.1298
▁doporučil	-11.1298
▁Jugoslávie	-11.1298
▁představenstva	-11.1298
▁vyrovnat	-11.1298
▁Komerčn	-11.1298
▁stoupá	-11.1298
▁Prodej	-11.1298
▁čtvrteční	-11.1298
▁štáb	-11.1298
▁NDR	-11.1298
▁fotografie	-11.1298
▁nejhorší	-11.1298
▁Maďarsku	-11.1298
▁Mimo	-11.1298
▁přijme	-11.1298
▁nátlak	-11.1298
▁generací	-11.1298
▁malíř	-11.1298
▁ekonomická	-11.1298
▁radnici	-11.1299
▁Marie	-11.1299
▁lodi	-11.1299
▁Začal	-11.1299
▁vyhnout	-11.1299
▁jezdit	-11.1299
▁logické	-11.1299
▁bohatství	-11.1299
▁Ruml	-11.1299
▁neděle	-11.1299
▁nedostatku	-11.1299
▁dešti	-11.13
▁obřad	-11.13
▁Aleš	-11.13
▁podobná	-11.1301
▁uvědomit	-11.1302
vající	-11.1302
▁cement	-11.1303
▁peset	-11.1303
nášel	-11.1303
▁předcházející	-11.1304
▁novinách	-11.1305
▁armádě	-11.1305
▁přelom	-11.1305
▁Africe	-11.1305
▁okresy	-11.1306
▁podílet	-11.1306
▁položky	-11.1306
▁překvapivě	-11.1306
▁prodejny	-11.1306
▁obav	-11.1307
▁ukládá	-11.1307
▁počkat	-11.1308
▁oborech	-11.1308
▁závazky	-11.1308
▁jízd	-11.1309
▁zvaný	-11.1309
▁změnám	-11.131
▁uvádějí	-11.131
▁centimetrů	-11.1311
▁kvalitou	-11.1313
▁tabulka	-11.1313
▁průběžn	-11.1314
▁nemovitostí	-11.1316
▁provedl	-11.1316
▁vojáci	-11.1316
▁vyjde	-11.1317
▁dodržování	-11.1319
▁fotbalisté	-11.1319
▁plánování	-11.1322
▁šed	-11.1323
telné	-11.1323
▁seriálu	-11.1324
▁Dopravní	-11.1324
▁zkušební	-11.1326
▁mládeže	-11.1326
▁Uveden	-11.1327
▁návštěvnost	-11.1327
▁skalní	-11.1328
▁obsluh	-11.1329
▁premiéru	-11.133
▁řekne	-11.133
▁zdravotním	-11.133
ručí	-11.1331
▁ocenění	-11.1331
▁výměnu	-11.1332
▁přidat	-11.1334
▁zubní	-11.1334
▁tvarů	-11.1334
▁referendum	-11.1335
▁vozu	-11.1336
▁Mlad	-11.1336
▁Excelu	-11.1338
▁trenérů	-11.134
▁propojení	-11.1341
▁potravinářské	-11.1345
▁novely	-11.1347
▁hmotnosti	-11.1347
▁hrou	-11.135
▁zřízení	-11.135
▁budově	-11.1352
▁přijatelné	-11.1354
▁Budou	-11.1355
▁menu	-11.1355
▁lesa	-11.1355
68	-11.1358
▁elektron	-11.1359
▁dolů	-11.1363
▁dav	-11.1366
berg	-11.1368
▁vystřídal	-11.1369
▁materiálem	-11.1369
▁tvrdil	-11.137
▁vedoucích	-11.137
▁stadiónu	-11.1373
PT	-11.1374
▁komu	-11.1377
▁studenty	-11.1379
▁magistrátu	-11.138
platí	-11.1381
koupil	-11.1383
▁procesoru	-11.1385
visí	-11.1386
▁odešl	-11.1388
▁podzimní	-11.139
▁Potřebuje	-11.139
rej	-11.1393
▁známá	-11.1394
▁energetický	-11.1396
▁narazil	-11.1396
▁hráli	-11.1399
▁západním	-11.14
▁výhodu	-11.14
CP	-11.1403
▁prázdnin	-11.1404
▁zdát	-11.1408
▁čínský	-11.141
▁evropským	-11.1411
▁krokem	-11.1413
▁oddíl	-11.1416
▁předchozím	-11.1416
kový	-11.1417
roj	-11.1419
ill	-11.142
7,	-11.1423
▁básník	-11.1424
▁záměry	-11.1424
▁doplňk	-11.1425
▁obchodníků	-11.1425
▁vloni	-11.1427
▁celostátní	-11.1428
▁strávil	-11.1428
▁projevy	-11.143
▁volí	-11.1433
▁odpovědnosti	-11.1433
čné	-11.1433
▁jugoslávské	-11.1435
▁dopise	-11.1436
▁starého	-11.1437
▁aktivitu	-11.1439
▁dlužník	-11.144
▁ředitelem	-11.1441
▁rozpočtové	-11.1442
▁stávající	-11.1443
▁zvýšily	-11.1446
▁ekologický	-11.1449
OP	-11.1449
▁podpořit	-11.145
▁sestavy	-11.1451
▁ranní	-11.1454
▁barva	-11.1455
přijeli	-11.1458
▁vytvořila	-11.1458
▁snadné	-11.1461
▁prožil	-11.1462
dent	-11.1463
▁úpravu	-11.1465
▁přírodního	-11.1467
▁struktur	-11.1468
ingu	-11.147
▁muselo	-11.1473
ložení	-11.1478
75	-11.148
▁černý	-11.1482
▁fyzika	-11.1487
rp	-11.1488
▁přehledu	-11.1489
▁plocha	-11.149
▁jedenácti	-11.1493
▁objevili	-11.15
otisk	-11.15
ložili	-11.1502
▁5000	-11.1502
▁syna	-11.1505
▁správce	-11.151
DOS	-11.1514
▁procesy	-11.1517
▁klasick	-11.152
ěné	-11.152
zaměstnan	-11.152
hlédnout	-11.1521
zích	-11.1527
▁kout	-11.1529
▁závody	-11.1535
▁28.	-11.1536
vané	-11.1538
▁specifik	-11.1543
▁pedagog	-11.1544
▁DO	-11.1544
měnit	-11.1557
▁omyl	-11.1563
▁týdenní	-11.1564
pustili	-11.1572
▁Případ	-11.1574
▁člověku	-11.1582
▁výtvarné	-11.1582
nějších	-11.1584
▁rozhodnutím	-11.1587
▁významným	-11.1596
▁obrazy	-11.1597
▁Mé	-11.1597
▁datové	-11.1597
▁horské	-11.1601
▁jist	-11.1601
▁výhodn	-11.1608
▁přesvědčiv	-11.1611
▁nesouhlas	-11.1614
▁kroku	-11.1614
IST	-11.1615
▁jednáních	-11.1617
čené	-11.162
▁konkrétních	-11.162
▁rozpad	-11.1623
▁SV	-11.1625
skými	-11.1627
▁Své	-11.1627
▁Zlín	-11.1627
▁Karlový	-11.1628
▁vzpomínk	-11.1633
▁zmíněn	-11.164
ejít	-11.1649
HA	-11.165
▁Win	-11.1653
▁99	-11.1654
▁minulost	-11.1655
▁prac	-11.1664
off	-11.1667
počíta	-11.1667
▁probíhal	-11.1668
▁texty	-11.1668
af	-11.1671
▁Fond	-11.1673
▁stadión	-11.1674
▁údržb	-11.1674
▁okruh	-11.1674
▁vyskytují	-11.1677
▁volebním	-11.1679
▁sledoval	-11.1682
▁prodejem	-11.1682
▁přesvědč	-11.1683
▁náročný	-11.1683
▁Karlov	-11.1685
▁kapel	-11.1686
dají	-11.1687
líbil	-11.1689
▁setká	-11.1689
▁260	-11.1691
▁směn	-11.1697
▁fakta	-11.1698
▁vědeck	-11.17
▁laboratoř	-11.1702
čila	-11.1706
▁seminář	-11.1707
▁dřev	-11.1709
▁testy	-11.171
▁grafik	-11.1714
▁způsobů	-11.1715
▁svobodné	-11.1716
▁každoročn	-11.1721
▁doplněn	-11.1722
▁vrstev	-11.1724
▁převážn	-11.1724
ino	-11.1726
řez	-11.1732
▁kamer	-11.1732
▁klima	-11.1734
novými	-11.1736
▁Stal	-11.1737
íků	-11.1737
▁přesahuj	-11.1738
tle	-11.174
▁odborn	-11.1742
▁dával	-11.1743
▁druhému	-11.1744
▁Graf	-11.1744
▁loňsk	-11.1744
▁závažný	-11.1746
▁neumí	-11.1746
▁strážník	-11.1749
▁zpěv	-11.1749
látka	-11.1752
připravoval	-11.1752
▁1982	-11.1752
▁Dienstbier	-11.1752
▁Dosavadní	-11.1752
▁Fischer	-11.1752
▁Poldi	-11.1752
▁Siemens	-11.1752
▁Skupina	-11.1752
▁biskup	-11.1752
▁design	-11.1752
▁dodávek	-11.1752
▁družstvo	-11.1752
▁družstvu	-11.1752
▁geometrii	-11.1752
▁inflaci	-11.1752
▁naznačuje	-11.1752
▁neuspěl	-11.1752
▁normálně	-11.1752
▁označován	-11.1752
▁přiznává	-11.1752
▁regenerace	-11.1752
▁rekonstrukce	-11.1752
▁rozšiřuje	-11.1752
▁rámečku	-11.1752
▁seznámit	-11.1752
▁shodují	-11.1752
▁skupenství	-11.1752
▁službě	-11.1752
▁stránku	-11.1752
▁zákrok	-11.1752
▁zúčastnit	-11.1752
▁čistíren	-11.1752
▁Štědrý	-11.1752
▁Armád	-11.1752
▁Kongres	-11.1752
▁Náklady	-11.1752
▁konstrukcí	-11.1752
▁posléze	-11.1752
▁vládnoucí	-11.1752
▁vstupenek	-11.1752
▁uznat	-11.1752
▁Bavor	-11.1752
▁nabídkou	-11.1752
▁žádat	-11.1752
▁usiluje	-11.1752
▁velvyslanectví	-11.1752
▁jindy	-11.1752
▁leckd	-11.1752
▁vazba	-11.1752
▁Manžel	-11.1752
▁Varech	-11.1752
▁nepotřebuje	-11.1752
▁Dušan	-11.1752
▁náhlé	-11.1752
krácen	-11.1752
▁duševní	-11.1752
▁směřuje	-11.1752
▁integrace	-11.1752
▁Slavia	-11.1752
▁salát	-11.1752
▁spoléha	-11.1753
▁transformační	-11.1753
▁rozmístěn	-11.1753
▁nesporn	-11.1753
▁regulační	-11.1753
▁Rozhodnutí	-11.1753
střelen	-11.1753
▁chaos	-11.1753
▁chuť	-11.1753
▁ohně	-11.1753
▁podrobnosti	-11.1753
▁nejsem	-11.1754
▁atmosféra	-11.1754
▁přejít	-11.1754
allye	-11.1754
ckner	-11.1754
▁informován	-11.1755
▁památek	-11.1755
▁turné	-11.1755
▁napaden	-11.1755
razil	-11.1755
▁svatb	-11.1755
▁kontrolovat	-11.1756
▁nedošlo	-11.1756
▁Bělohradský	-11.1756
▁Milán	-11.1757
▁praví	-11.1757
▁Těžko	-11.1758
▁slunce	-11.1758
▁strav	-11.1759
▁spotřebu	-11.1761
ukce	-11.1762
▁zajistí	-11.1762
▁souhlasit	-11.1762
▁kůže	-11.1763
▁Nadace	-11.1763
▁středisko	-11.1763
▁faktory	-11.1764
▁sedimentů	-11.1765
▁plná	-11.1765
▁stíhán	-11.1765
▁kg	-11.1765
▁jest	-11.1765
▁sedmdesátých	-11.1766
▁pěkně	-11.1767
▁přeměn	-11.1767
▁matka	-11.1767
▁Krát	-11.1768
▁kdykoliv	-11.1769
vedli	-11.177
▁šedesátých	-11.1772
▁upozornění	-11.1772
▁vzrůst	-11.1773
▁olympiádě	-11.1773
▁armádu	-11.1773
▁pravděpodobné	-11.1773
▁dokázat	-11.1773
▁trvající	-11.1773
▁zaslouží	-11.1774
▁Los	-11.1775
▁Mečiar	-11.1775
▁velkoobchod	-11.1776
▁středisku	-11.1776
▁ohrožen	-11.1777
▁švédské	-11.1778
▁spojů	-11.1778
▁literatury	-11.1779
▁zbytky	-11.1779
▁polské	-11.1779
pisuje	-11.1781
▁moři	-11.1782
▁násiln	-11.1784
tratil	-11.1784
▁zveřejnění	-11.1785
▁sféry	-11.1785
▁dotazník	-11.1785
DI	-11.1786
schopné	-11.1786
▁dostaneme	-11.1787
▁krátk	-11.1788
▁interní	-11.1789
ezi	-11.1789
PS	-11.1789
▁prů	-11.179
▁luxusní	-11.1794
tvo	-11.1795
▁chladn	-11.1795
▁slibuje	-11.1797
▁zničení	-11.1798
stanou	-11.1798
▁zuby	-11.1801
▁olympiády	-11.1801
▁značná	-11.1803
▁univerzitě	-11.1804
▁mise	-11.1804
▁anglický	-11.1804
ičtější	-11.1805
▁postupovat	-11.1805
▁záruky	-11.1807
▁složitý	-11.181
řek	-11.1811
▁uživatelé	-11.1812
▁senátní	-11.1813
▁tlakem	-11.1814
▁závažné	-11.1815
▁zodpovědnost	-11.1817
▁činů	-11.1818
▁nešlo	-11.1818
▁rozhovorů	-11.1822
▁dividendy	-11.1822
▁zásadě	-11.1824
▁spojuje	-11.1825
▁popisuje	-11.1825
▁doklady	-11.1828
▁fotbalista	-11.1829
▁způsoben	-11.183
▁uspořádal	-11.1832
▁žijí	-11.1833
▁jednal	-11.1834
▁výstavní	-11.1835
▁figur	-11.1837
▁zprávě	-11.1838
například	-11.1838
▁Fotbalist	-11.1838
▁chlad	-11.1839
▁metodou	-11.184
▁příspěvku	-11.184
▁Konce	-11.1841
rez	-11.1841
▁alkoholu	-11.1842
▁ducha	-11.1843
kají	-11.1847
▁nutnosti	-11.1851
▁klienty	-11.1852
▁silným	-11.1853
▁Asie	-11.1856
▁mateřské	-11.1856
▁pacienti	-11.1857
▁samy	-11.1858
▁strategické	-11.1858
▁úspěchem	-11.1859
▁elektro	-11.186
▁argumenty	-11.1862
▁Změny	-11.1864
▁automobilový	-11.1865
▁nájem	-11.1865
▁překlad	-11.1868
▁Mil	-11.187
▁měří	-11.187
▁Lékaři	-11.1871
▁smluv	-11.1874
▁stopy	-11.1874
▁obory	-11.1874
▁výnosy	-11.1875
▁garant	-11.1878
mana	-11.1882
mět	-11.1883
▁nastala	-11.1885
▁přirozený	-11.1889
▁městského	-11.1893
▁Rozhodn	-11.1894
Přerov	-11.1899
▁tělesné	-11.1901
▁proudu	-11.1901
▁příslušného	-11.1902
▁množstvím	-11.1902
teče	-11.1906
▁trvání	-11.1909
▁prohráli	-11.1909
▁svazové	-11.191
▁pojistného	-11.191
▁Mí	-11.1911
▁slovem	-11.1913
▁špatný	-11.1917
▁republikou	-11.1917
VI	-11.1918
danou	-11.192
▁psycholog	-11.1921
enou	-11.1922
▁závěrečném	-11.1923
▁temp	-11.1923
▁propad	-11.1924
místě	-11.1927
▁minutě	-11.1929
▁klíčové	-11.1931
▁manažerské	-11.1933
▁daních	-11.1934
tažení	-11.1937
▁podepsali	-11.1937
▁ST	-11.1942
▁souboj	-11.1944
večer	-11.1945
▁přípravu	-11.1946
▁zahájením	-11.1955
dělat	-11.1957
▁vlak	-11.1962
▁poradensk	-11.1971
▁nějakém	-11.1973
kázal	-11.1981
psat	-11.1982
▁smí	-11.1992
▁návrhem	-11.1998
▁šel	-11.2001
▁úspěchy	-11.2001
▁obal	-11.2001
▁tenisové	-11.2003
▁získaný	-11.2004
26	-11.2006
třel	-11.2007
▁závodník	-11.2015
▁propadl	-11.2017
▁přím	-11.2018
▁připraveny	-11.2018
ováni	-11.2023
dol	-11.2026
▁vražd	-11.2028
▁předmět	-11.2029
▁ekonomického	-11.2031
rážky	-11.2034
▁52	-11.2036
ečná	-11.2038
▁původ	-11.2041
▁jinému	-11.205
▁známým	-11.2055
▁podlehl	-11.2057
ávání	-11.2057
milión	-11.2058
▁taky	-11.2059
▁Výrob	-11.206
jasn	-11.2064
▁takovému	-11.2065
▁43	-11.2065
▁Nemoh	-11.207
▁Poslanec	-11.2073
kova	-11.2078
hel	-11.208
▁red	-11.2083
▁staro	-11.2083
▁nemohla	-11.2089
jíždí	-11.2089
▁mez	-11.209
▁zajímav	-11.2091
▁efektu	-11.2094
▁prezidentský	-11.2094
▁personál	-11.2096
▁Tomu	-11.2098
▁pr	-11.2099
▁získáva	-11.21
▁Char	-11.2102
▁kroků	-11.2102
▁dělal	-11.2102
vát	-11.2104
▁0,	-11.2105
lské	-11.2114
▁astronomi	-11.2117
▁dosah	-11.2117
tovat	-11.212
▁zvláštním	-11.212
▁900	-11.2121
▁rizik	-11.2127
CD	-11.2127
▁útočník	-11.213
▁Kanad	-11.2134
▁malým	-11.2137
▁hlásí	-11.2137
▁Karadžiče	-11.2141
▁prestiž	-11.2148
▁hrozb	-11.2148
▁plát	-11.2148
▁pokrok	-11.2148
▁Washington	-11.2151
▁narozen	-11.2152
▁prokázal	-11.2156
▁důvěry	-11.2156
ica	-11.2161
▁strop	-11.2163
▁sedmdesát	-11.2172
zřetelně	-11.2173
▁plném	-11.2174
▁balík	-11.2175
▁užívá	-11.2176
▁zaručen	-11.2182
▁vašem	-11.2182
▁22.	-11.2183
▁svobodný	-11.2184
▁dosavadních	-11.2184
▁váh	-11.2185
jdu	-11.2187
▁Mel	-11.2188
▁vánoc	-11.2191
▁oceněn	-11.2192
isty	-11.2195
následoval	-11.2201
▁Vaše	-11.2202
cvič	-11.2204
rozměr	-11.2207
▁Podstatn	-11.2209
▁Objekt	-11.2211
▁An	-11.2211
▁stě	-11.2212
šetří	-11.2214
▁stavbě	-11.2215
▁vyvoláva	-11.2217
▁volb	-11.2217
▁Hal	-11.2218
nejvýš	-11.2221
▁jakými	-11.2222
▁projevu	-11.2222
sadit	-11.2222
▁Vlast	-11.2222
faktor	-11.2226
▁nejedn	-11.2226
▁Zálež	-11.2227
▁organizáto	-11.2228
zřídka	-11.2228
▁Blízké	-11.2228
▁Jindřich	-11.2228
▁Kreslení	-11.2228
▁aplikaci	-11.2228
▁důležitou	-11.2228
▁fosilní	-11.2228
▁kanalizace	-11.2228
▁kariéru	-11.2228
▁komunistů	-11.2228
▁konkurent	-11.2228
▁lehké	-11.2228
▁obrátit	-11.2228
▁ovlivnit	-11.2228
▁podmínkám	-11.2228
▁popularit	-11.2228
▁přirozeně	-11.2228
▁referenda	-11.2228
▁rubrik	-11.2228
▁snižovat	-11.2228
▁svědky	-11.2228
▁ubytovací	-11.2228
▁výpovědi	-11.2228
▁zneužití	-11.2228
▁Michail	-11.2228
▁přírodu	-11.2228
▁stupeň	-11.2228
▁jedinců	-11.2228
▁klobouk	-11.2228
▁Atlantiku	-11.2228
▁válku	-11.2228
▁Dynam	-11.2228
▁Karpov	-11.2228
▁budoucna	-11.2228
▁zbaven	-11.2228
▁Boyle	-11.2228
▁týče	-11.2228
▁antropologie	-11.2228
▁administrativní	-11.2228
▁politicky	-11.2228
▁mzda	-11.2228
▁kombinace	-11.2229
▁zkrátka	-11.2229
▁Lendl	-11.2229
▁přivezl	-11.2229
▁češtině	-11.2229
▁smečky	-11.2229
▁hokejisté	-11.2229
▁chybět	-11.2229
▁distributor	-11.2229
▁nálad	-11.2229
▁stavět	-11.2229
▁image	-11.2229
▁Španělska	-11.2229
▁dostupné	-11.2229
▁dívat	-11.2229
▁nezmění	-11.2229
▁příjezd	-11.2229
▁staletí	-11.2229
▁prapor	-11.2229
▁příznivců	-11.2229
▁Zdeňk	-11.223
▁zázrak	-11.223
▁1980	-11.223
▁Intel	-11.223
▁nohou	-11.223
▁ocenil	-11.223
▁nezbývá	-11.223
▁psů	-11.223
▁plnit	-11.223
▁převah	-11.223
▁Minul	-11.223
▁Optima	-11.2231
▁Škol	-11.2231
▁ligový	-11.2231
▁liberální	-11.2231
▁Maďarsko	-11.2232
▁Říká	-11.2232
▁sektor	-11.2232
▁kontrakt	-11.2232
▁solidní	-11.2232
▁Příští	-11.2232
▁Peck	-11.2232
▁Konec	-11.2233
▁jídla	-11.2233
▁nápln	-11.2233
▁dokončen	-11.2233
▁vítr	-11.2233
▁varování	-11.2234
▁Pokus	-11.2234
▁matky	-11.2235
▁setkáváme	-11.2235
▁brněnsk	-11.2235
▁2,5	-11.2235
▁převést	-11.2237
▁vyměnit	-11.2237
▁znečištění	-11.2238
▁ráj	-11.2239
▁hlasovat	-11.2239
▁kurt	-11.224
▁EU	-11.224
▁výraznější	-11.2241
▁vyřešen	-11.2241
nder	-11.2241
▁stavba	-11.2242
▁etapě	-11.2242
konců	-11.2242
▁př	-11.2242
▁stiskn	-11.2244
▁potřebn	-11.2245
▁všemu	-11.2246
▁vojáky	-11.2246
▁knížky	-11.2246
▁uznávan	-11.2247
▁Říman	-11.2247
▁KDU	-11.2247
▁reáln	-11.2248
▁vystoupí	-11.2248
▁povahy	-11.225
▁polární	-11.225
▁Belgii	-11.2251
▁vybudování	-11.2254
▁osnov	-11.2256
▁uvolnění	-11.2257
▁kanálů	-11.2258
ismem	-11.2258
▁kluk	-11.226
přesněji	-11.226
▁částkou	-11.2261
▁komet	-11.2261
▁detailní	-11.2261
▁slyší	-11.2261
▁zvládnout	-11.2261
▁oken	-11.2262
▁úprava	-11.2263
▁vítěze	-11.2264
▁prodávající	-11.2264
▁významn	-11.2265
▁vyrovná	-11.2267
▁volbou	-11.2268
▁kořeny	-11.2269
▁expertů	-11.227
▁tržby	-11.2273
▁pes	-11.2275
startovat	-11.2277
▁krav	-11.2278
▁vyšla	-11.2279
▁současným	-11.2279
drželi	-11.228
▁kapacitou	-11.228
▁extrémní	-11.228
▁podobným	-11.2281
▁uchazečů	-11.2281
▁starostí	-11.2282
anti	-11.2283
▁kontinentu	-11.2284
▁arabské	-11.2284
▁učení	-11.2285
▁Předpokládá	-11.2287
▁cel	-11.2287
▁krevní	-11.2288
čel	-11.2288
▁hit	-11.2292
▁nemocí	-11.2293
▁průměrně	-11.2295
▁Mal	-11.2295
▁krvi	-11.2297
ván	-11.2298
bývalo	-11.2299
▁Vesmíru	-11.2303
▁play	-11.2306
umět	-11.2306
▁uzavřena	-11.2307
kování	-11.2309
▁prestižní	-11.231
iček	-11.2311
▁čistě	-11.2312
▁Voda	-11.2313
▁strukturu	-11.2313
▁krajní	-11.2317
▁úseku	-11.2319
ňovat	-11.2321
OST	-11.2321
▁subjektů	-11.2321
▁Bank	-11.2322
▁stimul	-11.2322
▁toku	-11.2324
měrně	-11.2327
▁okraji	-11.2329
▁mozkov	-11.2334
▁propag	-11.2335
▁uvedli	-11.2337
UJE	-11.2338
hem	-11.2341
▁obchodě	-11.2342
▁mechaniku	-11.2342
▁důsledk	-11.2348
▁vytvořili	-11.2349
▁Sol	-11.235
išť	-11.2352
▁elektrický	-11.2353
hraje	-11.2354
ždyť	-11.2358
▁kapitálové	-11.2359
▁zásahu	-11.2362
▁veškerý	-11.2363
▁37	-11.2365
▁právem	-11.2367
▁turnaji	-11.2367
slovní	-11.2368
▁německým	-11.2368
▁tvary	-11.2368
reform	-11.2369
▁témata	-11.237
▁zabezpeč	-11.2371
▁odběratelů	-11.2372
▁elektronické	-11.2373
▁logicky	-11.2373
▁manažerů	-11.2375
▁obhájce	-11.2377
koro	-11.2378
▁odběratel	-11.2381
▁majitelů	-11.2381
▁přijali	-11.2386
▁komentář	-11.2386
▁vlastními	-11.2386
▁Car	-11.2389
▁vedly	-11.2389
▁Kla	-11.2389
▁dějiny	-11.2392
▁napadl	-11.2395
▁HZDS	-11.2396
▁zadní	-11.2398
▁krásné	-11.2398
ovského	-11.24
▁záznamové	-11.2402
ivost	-11.2402
▁slev	-11.2405
▁Jelcinov	-11.2407
cc	-11.2407
dová	-11.241
▁statistik	-11.2414
▁hosty	-11.2414
▁maďarské	-11.2417
▁relativní	-11.2418
▁350	-11.2421
drží	-11.2423
▁stán	-11.2425
dvacet	-11.2425
místo	-11.2426
Gar	-11.2429
▁řek	-11.243
▁ztratila	-11.2436
jednat	-11.2438
ÁT	-11.2442
řejmě	-11.2442
▁poměry	-11.2444
▁uměle	-11.2444
▁zachován	-11.2447
ues	-11.2451
▁hotové	-11.2453
dnes	-11.2453
▁slabý	-11.2454
▁vítězů	-11.2456
▁vodě	-11.2461
▁smut	-11.2461
▁Bre	-11.2461
▁vydala	-11.2461
ině	-11.2469
▁náhle	-11.2472
▁náležit	-11.2472
▁automatické	-11.2473
▁formul	-11.2473
▁Mag	-11.2479
▁horský	-11.249
▁1500	-11.2492
tedy	-11.2496
▁významně	-11.2502
▁zabit	-11.2505
▁Pel	-11.2507
ozi	-11.2508
▁občana	-11.2508
.12.	-11.2514
▁hokej	-11.2514
▁elektronický	-11.2515
▁konečn	-11.2516
▁čištění	-11.2518
VÍ	-11.252
▁obyčejný	-11.2523
▁historické	-11.253
▁kontaktu	-11.2533
šování	-11.2533
▁potvrdila	-11.2535
▁dcer	-11.2538
45	-11.2538
▁mís	-11.2544
▁rozv	-11.2554
▁předání	-11.2557
kazuje	-11.2558
21	-11.256
▁archeolog	-11.256
▁provozovatel	-11.2562
bude	-11.2563
▁ráz	-11.2564
▁atomové	-11.2564
▁studoval	-11.2564
▁kostel	-11.2567
▁přesný	-11.2568
▁bio	-11.2569
▁jugoslávsk	-11.2572
▁kolektiv	-11.2579
stupovat	-11.2584
ografie	-11.2585
znamenat	-11.2585
▁Masarykov	-11.2588
pomíná	-11.2589
trhl	-11.259
▁počátk	-11.259
příč	-11.2597
▁následujícím	-11.2602
▁smrtí	-11.2612
▁cit	-11.2613
CO	-11.2615
ávali	-11.2615
▁jednotné	-11.2616
▁jih	-11.2617
tvrdí	-11.2619
NC	-11.2621
▁Pražsk	-11.2626
▁klesl	-11.2627
▁mandát	-11.2628
▁výprav	-11.2633
▁arabský	-11.2633
▁staveb	-11.2636
▁hromadné	-11.2636
▁uvolnil	-11.2644
▁Ir	-11.2644
▁deviz	-11.2647
▁zemědělců	-11.2647
▁index	-11.2648
dejme	-11.2648
▁Kazachstán	-11.2649
hradit	-11.265
▁Svaz	-11.2652
▁nejlepšího	-11.2652
▁kolech	-11.2652
▁jednotlivým	-11.2654
▁týkají	-11.2655
▁pouští	-11.2655
▁používal	-11.2658
▁intenzit	-11.266
▁rakovin	-11.2661
▁počítačov	-11.2661
▁úlev	-11.2661
▁Čtyři	-11.2662
▁předpis	-11.2665
▁týmů	-11.2668
▁úhrad	-11.2669
▁tank	-11.267
▁Staré	-11.2671
krývají	-11.2673
▁spodní	-11.2673
▁odpovídají	-11.2675
▁dramat	-11.2676
hne	-11.2676
▁cenové	-11.2678
lčí	-11.2679
dpověď	-11.2679
▁Chorvat	-11.268
▁blíží	-11.268
▁top	-11.2681
▁medaili	-11.2682
▁jejími	-11.2685
▁stanovené	-11.2687
▁prst	-11.2689
▁oddělen	-11.2689
▁(2	-11.2693
▁Husov	-11.2694
víme	-11.2695
▁publikován	-11.2697
▁mluvil	-11.2698
▁hrálo	-11.2699
▁komunismu	-11.2701
▁Dokon	-11.2703
▁fotograf	-11.2706
▁věřím	-11.2707
▁otevřený	-11.2713
▁norma	-11.2715
▁ceník	-11.2716
▁brzd	-11.2717
řádně	-11.2718
▁volit	-11.2718
▁Závěr	-11.2718
▁ráda	-11.272
▁moravské	-11.2723
▁výkonnost	-11.2723
▁sportovním	-11.2724
▁Klepn	-11.2726
olicejní	-11.2727
▁dlouhodobě	-11.2727
▁zoufal	-11.2727
▁konzerv	-11.2728
▁Výjimk	-11.2728
▁komfort	-11.2728
neštěstí	-11.2728
peptid	-11.2728
▁Doufám	-11.2728
▁HGF	-11.2728
▁Výsledek	-11.2728
▁Wembley	-11.2728
▁anonymní	-11.2728
▁cizinců	-11.2728
▁definovat	-11.2728
▁dětmi	-11.2728
▁evidenci	-11.2728
▁humanitární	-11.2728
▁intenzivně	-11.2728
▁království	-11.2728
▁lhůty	-11.2728
▁mobilní	-11.2728
▁nabídnut	-11.2728
▁neúspěch	-11.2728
▁otázkách	-11.2728
▁připomenout	-11.2728
▁revoluce	-11.2728
▁sankce	-11.2728
▁sportovci	-11.2728
▁uhličitého	-11.2728
▁umístit	-11.2728
▁upozorňují	-11.2728
▁veřejnou	-11.2728
▁zajistil	-11.2728
▁zdravotně	-11.2728
▁zloděj	-11.2728
▁zvyšovat	-11.2728
▁LDS	-11.2728
▁Mostaru	-11.2728
▁Poborského	-11.2728
▁komisí	-11.2728
▁nepatří	-11.2728
▁sleduje	-11.2728
▁srpnu	-11.2728
▁série	-11.2728
▁řekněme	-11.2728
pomáhal	-11.2728
▁MHz	-11.2728
▁kompost	-11.2728
▁potravy	-11.2728
▁pátý	-11.2728
▁skener	-11.2728
▁užitečné	-11.2728
▁Názor	-11.2728
▁stačit	-11.2728
▁týdnu	-11.2728
skočit	-11.2728
▁Komora	-11.2728
▁pozemků	-11.2728
▁projednávání	-11.2728
▁Ústí	-11.2728
▁tvůrčí	-11.2728
▁vyhověl	-11.2728
▁Prahu	-11.2728
▁zážitek	-11.2728
▁chemie	-11.2728
▁letišti	-11.2728
▁obránce	-11.2728
▁minimum	-11.2728
▁shluk	-11.2728
▁modernizaci	-11.2728
▁počáteční	-11.2728
▁nebrání	-11.2729
▁opačný	-11.2729
▁turisté	-11.2729
▁román	-11.2729
▁vykonávat	-11.2729
▁remíz	-11.2729
▁kostým	-11.2729
▁zaslal	-11.2729
▁realizaci	-11.2729
▁Bohemia	-11.2729
▁Filip	-11.2729
▁karet	-11.2729
▁proběhla	-11.2729
▁azyl	-11.2729
▁1948	-11.2729
vážet	-11.2729
▁převzetí	-11.2729
▁diskusí	-11.2729
▁emise	-11.2729
▁dvojnásobek	-11.273
▁experimentální	-11.273
▁dovoluje	-11.273
▁léčení	-11.273
▁atmosféru	-11.273
▁cítit	-11.273
▁Chang	-11.2731
▁tmav	-11.2731
▁výrobku	-11.2731
▁Spolu	-11.2731
▁půjčky	-11.2731
▁videa	-11.2731
beton	-11.2731
▁ošetření	-11.2731
▁budování	-11.2732
▁formulář	-11.2732
▁přestane	-11.2732
▁Ukázal	-11.2732
▁ČZ	-11.2733
▁očima	-11.2733
▁rozdělit	-11.2733
▁nádob	-11.2733
▁oblib	-11.2733
▁tabulku	-11.2734
▁prosím	-11.2734
▁potřebovat	-11.2735
▁nahoru	-11.2736
▁venku	-11.2736
▁vývojem	-11.2737
▁nechci	-11.2738
izaci	-11.274
▁podruhé	-11.274
▁čelní	-11.2741
▁Pojišťovna	-11.2742
▁centrem	-11.2743
▁ušetří	-11.2743
▁vzniklé	-11.2744
▁stěžují	-11.2744
▁opravu	-11.2746
▁ostrovů	-11.2746
▁vzdal	-11.2746
▁prvek	-11.2747
▁policisty	-11.2748
▁Egypt	-11.2748
▁stolu	-11.2749
▁běže	-11.2749
▁očí	-11.275
▁vybere	-11.275
▁diplomatické	-11.2751
▁podobnost	-11.2754
▁přišly	-11.2755
▁vycházet	-11.2756
▁Důvodem	-11.2756
▁popsat	-11.2756
▁foto	-11.2757
▁prostorách	-11.2759
dělování	-11.2761
▁velko	-11.2761
▁odmítnut	-11.2762
▁národnostní	-11.2763
▁kontrolou	-11.2764
ějších	-11.2764
▁užitku	-11.2764
▁biologick	-11.2765
▁125	-11.2765
▁plní	-11.2765
▁odměny	-11.2765
▁technikou	-11.2766
▁stížnosti	-11.2766
▁zved	-11.2766
▁prodejně	-11.2767
vádějí	-11.2767
▁problematiku	-11.2768
▁semináře	-11.2772
▁Smlouva	-11.2773
▁výjimečn	-11.2774
álka	-11.2774
▁změnách	-11.2775
▁architektury	-11.2775
▁podoby	-11.2775
▁Olomouce	-11.2776
▁způsobit	-11.2778
▁sehnat	-11.2778
▁zadání	-11.2781
▁reklamní	-11.2788
▁vlastníkem	-11.2789
▁vydělal	-11.2789
IP	-11.279
▁černo	-11.2791
▁dělníků	-11.2795
▁různ	-11.2795
▁voliči	-11.2795
▁opravě	-11.2796
▁Seznam	-11.2799
▁nepr	-11.2801
▁odstup	-11.2801
▁Film	-11.2804
▁požadavkům	-11.2805
dni	-11.2808
▁chladu	-11.2812
▁kritický	-11.2812
EK	-11.2815
▁Lab	-11.2816
▁novela	-11.2816
▁rozpadu	-11.2817
ong	-11.2818
▁pracujících	-11.282
hý	-11.282
▁šestnácti	-11.2821
▁přesné	-11.2822
▁novinářům	-11.2823
▁Mac	-11.2823
▁vstupuje	-11.2824
▁rozhovory	-11.2824
▁okraj	-11.2827
▁Švédsku	-11.2828
▁stromy	-11.2829
▁rostliny	-11.283
▁hovořili	-11.2832
▁vysokoškol	-11.2833
▁posil	-11.2834
▁nevíme	-11.2835
ánek	-11.2836
48	-11.2838
▁Lig	-11.2841
▁kruhy	-11.2842
▁SD	-11.2843
▁úmyslu	-11.2844
▁představa	-11.2847
▁Tým	-11.2848
▁IV	-11.2849
▁potenciálu	-11.2849
▁Nobelov	-11.2851
▁mistry	-11.2853
▁izraelský	-11.2854
▁stříbrné	-11.2857
▁udělali	-11.2859
▁lize	-11.286
▁rozhodlo	-11.2861
▁závěrečný	-11.2865
▁ústavů	-11.2865
▁ledový	-11.2867
▁procesů	-11.2868
▁ostravské	-11.2869
mořsk	-11.2869
jížděl	-11.2869
ER	-11.2872
▁26.	-11.2874
dělal	-11.2874
▁klubem	-11.2875
▁zněl	-11.2875
▁Kup	-11.2876
nda	-11.2876
▁naprosté	-11.288
▁As	-11.2883
▁výkladu	-11.2885
▁prodá	-11.2886
▁geny	-11.2887
izované	-11.2887
▁deníku	-11.2888
▁rodné	-11.2889
▁Počítá	-11.2889
▁proviz	-11.289
▁hromad	-11.289
▁technik	-11.2891
▁podoba	-11.2894
▁plochu	-11.2898
▁skvělé	-11.2898
▁šíří	-11.29
▁Kdybych	-11.2902
▁odráž	-11.2902
▁27.	-11.2902
▁činila	-11.2904
▁vycházel	-11.2905
▁předběžn	-11.2914
▁jednoznačný	-11.2917
▁tempo	-11.2917
▁obdiv	-11.292
▁140	-11.2924
▁vydá	-11.2929
▁24.	-11.2931
▁komora	-11.2931
▁Spo	-11.2932
7%	-11.2933
▁telefony	-11.2933
▁krajin	-11.2934
▁kovy	-11.2935
▁soupeřů	-11.2937
kreslen	-11.2945
▁světu	-11.2945
ČNÍ	-11.2949
▁chybu	-11.295
▁obranné	-11.2953
▁věta	-11.2954
oma	-11.2957
▁papíry	-11.2958
jela	-11.2959
▁Řekl	-11.2964
▁příslušnost	-11.2966
▁přízniv	-11.2967
▁Večer	-11.2968
▁budoucího	-11.2968
▁Med	-11.2972
35	-11.2977
▁Die	-11.2977
íček	-11.2979
▁legend	-11.298
▁akciov	-11.2983
▁tvůrce	-11.299
▁těle	-11.2992
▁pocity	-11.2993
▁Mír	-11.2998
▁běžn	-11.2999
procentní	-11.3
svědčil	-11.3003
▁obává	-11.3007
US	-11.3008
▁naléhav	-11.3009
▁Izraelsk	-11.3009
věří	-11.3012
▁podnikatelům	-11.3017
▁placen	-11.302
▁Text	-11.3022
▁ja	-11.3026
▁hostů	-11.303
ota	-11.3034
třeba	-11.3034
▁vyhráli	-11.3037
▁Západ	-11.3045
▁Turist	-11.3046
▁splnil	-11.3047
lic	-11.3047
▁efekty	-11.3048
AG	-11.3052
▁pozornosti	-11.3059
▁Japonsko	-11.3067
▁položil	-11.307
▁popsán	-11.3072
tito	-11.3075
izraelsk	-11.3081
▁hlasu	-11.3081
▁Dal	-11.3084
▁Brit	-11.309
▁zákoně	-11.3094
▁konzervativní	-11.3094
▁soupeři	-11.3101
▁zveřejněn	-11.3101
▁procenty	-11.3108
▁výplat	-11.3108
▁zřízen	-11.3112
▁Všeobecn	-11.3116
ohledně	-11.3117
cími	-11.3117
▁volič	-11.3117
▁následuj	-11.3123
▁děd	-11.3123
▁červen	-11.3124
SP	-11.3124
▁postupů	-11.313
pouštějí	-11.3131
▁duch	-11.3131
▁chirurg	-11.3132
,4	-11.3139
▁Zda	-11.3139
▁odmítla	-11.3142
projevilo	-11.3144
▁dobrovoln	-11.3147
▁dvojic	-11.3148
▁obviněn	-11.3148
▁Argentin	-11.315
▁prováze	-11.3151
▁domácnost	-11.3156
▁císař	-11.3159
▁nezná	-11.3174
▁strategický	-11.3174
▁požadavků	-11.3175
▁aparát	-11.3175
▁veletrh	-11.3176
atřicet	-11.3176
šp	-11.3177
ruh	-11.3178
▁šampionát	-11.3178
▁Světov	-11.3179
▁veřejný	-11.3181
▁účinnost	-11.3185
▁cigaret	-11.3186
▁bílkovin	-11.3187
DU	-11.3187
▁vyžadují	-11.3189
LED	-11.319
▁historik	-11.3194
pozn	-11.3197
▁spolupracovník	-11.3198
plácet	-11.32
prostřed	-11.3204
▁jednorázov	-11.3204
▁stálé	-11.3212
▁poznal	-11.3213
bylo	-11.3214
▁mechanick	-11.3215
těsn	-11.3217
front	-11.3219
▁Projekt	-11.3221
▁zákonu	-11.3222
nili	-11.3223
▁Angličan	-11.3224
stane	-11.3224
▁Bělehrad	-11.3226
▁Důvod	-11.3226
▁Jihlav	-11.3226
▁Miloše	-11.3228
vedou	-11.323
▁nejvyšších	-11.323
alternativ	-11.3231
76	-11.3234
▁orchestr	-11.3235
▁výpočet	-11.3238
▁bohatý	-11.3246
▁jakkoli	-11.3246
▁soukrom	-11.3246
▁prud	-11.325
charakterizuj	-11.3251
pomínají	-11.3254
▁minerální	-11.3255
zrcadl	-11.3255
šetřil	-11.3255
▁Benešov	-11.3255
▁Dvořák	-11.3255
▁Jednotliv	-11.3255
▁Lubomír	-11.3255
▁Mazdy	-11.3255
▁archív	-11.3255
▁cizinci	-11.3255
▁cizině	-11.3255
▁deklarace	-11.3255
▁informovat	-11.3255
▁kmitočt	-11.3255
▁komunisté	-11.3255
▁lékáren	-11.3255
▁lístky	-11.3255
▁medailí	-11.3255
▁ministerstev	-11.3255
▁nemožné	-11.3255
▁nevznik	-11.3255
▁nečekaně	-11.3255
▁opozici	-11.3255
▁oživení	-11.3255
▁přidružen	-11.3255
▁redakci	-11.3255
▁restituční	-11.3255
▁skript	-11.3255
▁spánku	-11.3255
▁stadia	-11.3255
▁struktuře	-11.3255
▁svatební	-11.3255
▁tabulátor	-11.3255
▁tiskárna	-11.3255
▁uspokojení	-11.3255
▁vyloučit	-11.3255
▁výkyvy	-11.3255
▁zlepšil	-11.3255
▁zlepšit	-11.3255
▁zúčastní	-11.3255
▁Náměst	-11.3255
▁letadlo	-11.3255
▁nahrazen	-11.3255
▁preventivn	-11.3255
▁stoupenc	-11.3255
▁válkou	-11.3255
▁řemesl	-11.3255
▁Weizs	-11.3255
▁ovládat	-11.3255
▁doplnit	-11.3255
▁potrvá	-11.3255
▁slalom	-11.3255
▁účinný	-11.3255
▁čáry	-11.3255
hlédl	-11.3255
▁penalt	-11.3255
▁porušil	-11.3255
▁pozemky	-11.3255
▁zahájí	-11.3255
rozhodoval	-11.3255
▁jídlo	-11.3255
▁licence	-11.3255
▁jedinci	-11.3255
▁Antonín	-11.3255
▁Trans	-11.3255
▁jedinečn	-11.3255
▁užívat	-11.3255
▁Něco	-11.3255
▁umístil	-11.3255
▁nestalo	-11.3255
▁vyrábějí	-11.3255
▁nejsilnější	-11.3255
pálil	-11.3255
▁nebudu	-11.3255
▁ČSAV	-11.3255
▁kůži	-11.3255
▁USD	-11.3255
▁tisíciletí	-11.3255
▁žánr	-11.3255
▁městečk	-11.3255
▁odvozen	-11.3255
▁návštěvníci	-11.3255
▁Maastrichtu	-11.3255
▁hornin	-11.3255
▁Schneider	-11.3255
▁koncentrací	-11.3255
▁dopředu	-11.3255
▁dřevěný	-11.3256
▁léčba	-11.3256
▁vracejí	-11.3256
▁otřes	-11.3256
▁Krkonoších	-11.3256
▁setkat	-11.3256
▁úkor	-11.3257
▁Juli	-11.3257
▁jádra	-11.3257
▁mikroorganismů	-11.3258
▁autobus	-11.3258
lákat	-11.3258
▁kancléř	-11.3258
▁Nesmí	-11.3259
▁odstín	-11.3259
▁chybějící	-11.3259
▁náročnější	-11.3259
▁obrace	-11.326
▁základnu	-11.326
▁stres	-11.326
▁odškodnění	-11.326
povídal	-11.3261
▁závazků	-11.3262
▁zkoušky	-11.3263
▁vykazuje	-11.3263
▁odmítnout	-11.3263
▁posouzení	-11.3264
▁přeháňky	-11.3264
▁vydělat	-11.3264
bydlí	-11.3265
▁určeno	-11.3265
▁SNS	-11.3265
▁absurdní	-11.3265
▁rozhodnuto	-11.3265
▁protokol	-11.3265
▁opakovat	-11.3266
▁nemění	-11.3267
▁hlavě	-11.3267
▁víno	-11.3267
▁Zásad	-11.3268
▁záložník	-11.3269
▁stručn	-11.3269
▁ženský	-11.327
▁vidění	-11.327
▁Chorvatsko	-11.327
▁Situace	-11.3271
▁linek	-11.3271
instalovat	-11.3271
▁středně	-11.3271
▁vyšetřovací	-11.3273
▁měřítku	-11.3274
ectví	-11.3275
enc	-11.3275
▁mírou	-11.3276
▁ukládat	-11.3276
▁Polsku	-11.3278
▁střelec	-11.328
▁letoun	-11.3281
▁varoval	-11.3281
▁myslíte	-11.3281
▁městská	-11.3282
▁řádek	-11.3282
▁rozhodujícím	-11.3282
▁vztahuje	-11.3283
▁spokojenosti	-11.3284
▁bit	-11.3285
▁Star	-11.3287
▁panel	-11.329
▁kartě	-11.3291
▁odvolal	-11.3291
▁Slovinska	-11.3291
▁zájezdy	-11.3293
▁kdybychom	-11.3293
kryl	-11.3293
▁řetěz	-11.3294
▁různá	-11.3294
▁tuzemských	-11.3295
▁kádru	-11.3295
▁boku	-11.3297
▁matematiky	-11.3298
▁hormon	-11.3299
hrají	-11.33
krytí	-11.3302
▁genů	-11.3302
▁Váš	-11.3304
jedná	-11.3304
▁vybral	-11.3305
▁počítají	-11.3305
▁islámské	-11.3306
▁Kolek	-11.3308
▁Bójů	-11.331
▁stačilo	-11.331
▁nalezení	-11.3313
▁partnerem	-11.3313
▁mém	-11.3313
▁rána	-11.3314
nz	-11.3315
▁fyziku	-11.3316
▁terénu	-11.3317
▁vyplývající	-11.3318
padal	-11.3321
▁kanálu	-11.3323
tických	-11.3323
▁hranicích	-11.3324
▁hovoru	-11.3327
▁zobraz	-11.3327
▁soch	-11.3328
▁ruchu	-11.333
▁přítele	-11.3331
▁zlata	-11.3333
zanedbateln	-11.3333
pír	-11.3338
kládání	-11.3339
▁teoretické	-11.3339
staral	-11.3342
▁schémat	-11.3343
▁řidiči	-11.3343
▁Japonska	-11.3345
▁typick	-11.3345
▁jeskyn	-11.3345
tažením	-11.3346
▁údržbu	-11.3346
užit	-11.3347
▁pevně	-11.3348
▁subjekty	-11.3348
▁dresu	-11.3351
letěl	-11.3352
▁Věr	-11.3352
▁volba	-11.3353
▁pracovním	-11.3353
tickou	-11.3353
▁Výš	-11.3355
tika	-11.3356
▁účastníky	-11.3357
▁okresech	-11.3358
▁délku	-11.3361
ČE	-11.3362
▁špičk	-11.3363
▁kostela	-11.3366
strašně	-11.3366
22	-11.3369
▁veliká	-11.3369
▁Doba	-11.3369
▁testů	-11.3375
▁hospodářský	-11.3376
▁regul	-11.3377
▁znají	-11.3378
yplývá	-11.3384
▁variantu	-11.3389
▁bodem	-11.3391
▁informovali	-11.3394
▁Zemanov	-11.3394
▁Dán	-11.3395
pravit	-11.3397
novu	-11.34
▁iniciativa	-11.3403
vých	-11.3403
▁stěn	-11.3403
polí	-11.3408
▁pouh	-11.3408
▁hlava	-11.3416
▁bytí	-11.3417
▁Tip	-11.3418
▁vězni	-11.3419
▁zůstaly	-11.3421
▁dopisy	-11.3421
jištěn	-11.3423
▁výnosu	-11.3423
▁Kan	-11.3424
▁hrubé	-11.3427
▁6,	-11.3427
▁členské	-11.3428
▁91	-11.3429
stával	-11.343
▁postižení	-11.3434
▁servisu	-11.3434
▁Zd	-11.3436
▁knihu	-11.3437
▁standardu	-11.3441
▁přenesen	-11.3443
▁Řek	-11.3444
▁srovnatelné	-11.3445
slat	-11.3448
▁číslem	-11.345
▁Syn	-11.3452
▁přesvědčeni	-11.3452
▁přinesla	-11.3453
▁trojic	-11.3455
▁návštěv	-11.3456
▁manžela	-11.3461
▁rusk	-11.3462
likvid	-11.3463
▁metodu	-11.3464
▁technick	-11.3466
▁kontrol	-11.3467
▁časopise	-11.3467
▁stromů	-11.3469
▁link	-11.3471
▁převeden	-11.3474
▁Dag	-11.3479
▁režiséra	-11.3481
▁úzké	-11.3482
▁ryby	-11.3483
▁domnívám	-11.3487
▁válečné	-11.3493
▁tiskový	-11.3493
éra	-11.3495
▁jezdil	-11.3495
▁magnet	-11.3497
▁radu	-11.3498
tická	-11.3503
▁širok	-11.3504
▁stálo	-11.3506
▁cílů	-11.3509
▁tečk	-11.3511
▁velkém	-11.3517
▁vníma	-11.3517
▁ovladač	-11.3518
▁stávají	-11.3521
▁drahá	-11.3521
▁kaly	-11.3522
▁Test	-11.3525
▁opor	-11.3531
kého	-11.3536
dával	-11.3538
▁42	-11.3539
▁konflikt	-11.3539
▁vel	-11.354
▁způsobila	-11.3542
▁útvar	-11.3544
způsobují	-11.3545
▁rozumné	-11.3547
▁linka	-11.3548
▁překr	-11.3549
▁firmami	-11.3552
▁FIFA	-11.3565
▁Kap	-11.3568
▁kurzor	-11.357
▁manažera	-11.357
žije	-11.3574
▁technologický	-11.3574
▁speciálně	-11.3576
▁příště	-11.3581
bírat	-11.3582
▁platu	-11.3583
▁ostrov	-11.359
▁vklad	-11.3591
▁jakého	-11.3596
▁záruk	-11.36
▁momentáln	-11.3601
dávky	-11.3607
▁zabýval	-11.3608
hoře	-11.3609
▁uši	-11.361
graf	-11.361
▁platil	-11.3615
▁Výzkum	-11.3616
BA	-11.3617
▁automat	-11.3623
▁srovnatelný	-11.3625
▁Jeli	-11.3627
▁Král	-11.3632
▁region	-11.3637
▁sešli	-11.364
▁výtvarn	-11.3647
gan	-11.3648
▁životnost	-11.3654
▁některého	-11.3658
▁stati	-11.366
▁110	-11.3661
▁poločase	-11.3661
▁příznivé	-11.3662
▁využije	-11.3663
▁řez	-11.3663
▁rozhlas	-11.3663
▁bývalém	-11.3667
▁bytě	-11.3669
▁odp	-11.368
▁zpětn	-11.3687
▁architekt	-11.3691
▁masov	-11.3691
▁Boj	-11.3693
mus	-11.3694
▁lidový	-11.3694
▁aneb	-11.3698
znamená	-11.3698
koupí	-11.3703
▁bohaté	-11.3704
ČSSD	-11.3706
▁Označ	-11.3707
vrátit	-11.3707
lidov	-11.3707
▁kapitálový	-11.3708
▁chovat	-11.3711
▁Atlant	-11.3716
▁uskutečnil	-11.3717
především	-11.3718
▁Telecom	-11.373
▁věnuj	-11.3732
ěřitel	-11.3734
loží	-11.3736
▁řekli	-11.3738
▁očekával	-11.3739
▁Slovan	-11.3741
sáhnout	-11.3741
▁poměrů	-11.3741
▁těžb	-11.3743
sté	-11.3743
▁zákoník	-11.3743
▁podnět	-11.3744
▁úkon	-11.3745
▁pravém	-11.3748
▁jazz	-11.3749
▁lamp	-11.375
▁pochopil	-11.3754
měl	-11.3754
▁nabídne	-11.3756
▁kyselin	-11.3757
▁SI	-11.3758
▁Sokol	-11.376
▁vezme	-11.3764
▁chodu	-11.3765
▁Cup	-11.3765
posled	-11.3771
ight	-11.3773
▁29.	-11.3773
▁zavedl	-11.3774
▁absolvoval	-11.3776
ht	-11.3776
▁pokračují	-11.3777
▁Znám	-11.3778
▁oblačno	-11.3779
▁reklama	-11.378
▁umožňují	-11.378
▁Chomutov	-11.3781
▁chalup	-11.3781
▁účet	-11.3783
▁vesnic	-11.3788
▁enzym	-11.379
▁veličin	-11.3793
▁Republik	-11.3793
▁92	-11.3794
pomeňme	-11.3795
0.000	-11.3796
jednala	-11.3797
▁stali	-11.38
▁provozovat	-11.38
DO	-11.3803
▁vkus	-11.3804
▁speciali	-11.3808
▁zasvěcen	-11.381
▁zjistí	-11.381
▁Nejčastěj	-11.381
atlantick	-11.381
▁Bezpečnost	-11.381
▁Evropou	-11.381
▁Jupiter	-11.381
▁Letošní	-11.381
▁Litvínov	-11.381
▁Madrid	-11.381
▁Moderní	-11.381
▁Naštěstí	-11.381
▁Olszewsk	-11.381
▁Podívej	-11.381
▁Sněmovn	-11.381
▁Stehlík	-11.381
▁Ukrajina	-11.381
▁burzy	-11.381
▁celosvětov	-11.381
▁energií	-11.381
▁incident	-11.381
▁kandidovat	-11.381
▁laboratorní	-11.381
▁leccos	-11.381
▁neexistoval	-11.381
▁náleží	-11.381
▁následovat	-11.381
▁odlišné	-11.381
▁opozicí	-11.381
▁ozónu	-11.381
▁podotkl	-11.381
▁poskytne	-11.381
▁premiéře	-11.381
▁prezervativ	-11.381
▁překážky	-11.381
▁restitucí	-11.381
▁seriózní	-11.381
▁stability	-11.381
▁televizor	-11.381
▁viceprezident	-11.381
▁vzdělávání	-11.381
▁výkres	-11.381
▁výslovně	-11.381
▁závislá	-11.381
▁získají	-11.381
▁Úspěšn	-11.381
▁úspěšnost	-11.381
▁Dukly	-11.381
▁Město	-11.381
▁Obvodní	-11.381
▁dostatečné	-11.381
▁herečka	-11.381
▁imunitní	-11.381
▁krátkodobé	-11.381
▁mrtvé	-11.381
▁totalitní	-11.381
▁těžší	-11.381
▁zachránil	-11.381
▁zemědělci	-11.381
▁znamení	-11.381
▁Island	-11.381
▁Mandler	-11.381
▁nutná	-11.381
▁položku	-11.381
▁příroda	-11.381
▁vyžádá	-11.381
▁živnostenský	-11.381
▁abeced	-11.381
▁chápán	-11.381
▁naučit	-11.381
▁profese	-11.381
▁MIDI	-11.381
▁charitativní	-11.381
▁Vojenské	-11.381
▁výlučn	-11.381
▁Hapal	-11.381
▁zajímal	-11.381
▁kubismu	-11.381
▁uplatňova	-11.381
▁vystupoval	-11.381
▁Dlouho	-11.381
▁Maďarska	-11.381
▁převažuj	-11.381
▁diváci	-11.3811
▁koncentraci	-11.3811
▁druzí	-11.3811
▁ČSAD	-11.3811
▁přečetl	-11.3811
▁vyjít	-11.3811
▁Sedm	-11.3811
▁Softwar	-11.3811
▁nesměl	-11.3811
▁chápe	-11.3811
▁česky	-11.3811
háněl	-11.3811
▁filtr	-11.3812
▁cítil	-11.3812
▁kopané	-11.3812
▁En	-11.3812
▁loď	-11.3812
▁studené	-11.3812
▁obdrží	-11.3812
▁realizovat	-11.3812
▁úder	-11.3812
▁Berger	-11.3812
▁balení	-11.3812
▁kámen	-11.3813
▁Obyvatel	-11.3813
▁Soutěž	-11.3813
▁duši	-11.3813
▁rozumět	-11.3813
▁publikace	-11.3814
▁zvyklí	-11.3814
▁Potvrdil	-11.3814
▁trůn	-11.3814
▁síni	-11.3814
▁simul	-11.3815
▁utekl	-11.3815
▁dostupný	-11.3815
▁56	-11.3815
▁Švýcarska	-11.3815
▁biologie	-11.3815
▁prázdninách	-11.3815
▁písma	-11.3816
▁vzorků	-11.3816
účtování	-11.3816
▁expozice	-11.3816
▁jemu	-11.3816
▁proměnliv	-11.3817
▁sovětský	-11.3817
▁zanikl	-11.3817
▁plot	-11.3818
▁zdůvodnil	-11.3818
ících	-11.3818
▁sbírky	-11.3819
▁přihlásil	-11.382
▁vznikne	-11.3821
▁výměník	-11.3822
▁učebnic	-11.3822
iletá	-11.3823
▁Krist	-11.3823
▁branku	-11.3823
▁porušování	-11.3824
▁připravují	-11.3824
▁náhodně	-11.3824
▁vysílání	-11.3824
▁tendenci	-11.3824
▁1950	-11.3824
▁pru	-11.3825
▁čaj	-11.3825
▁Alma	-11.3826
FS	-11.3827
▁Rumunsko	-11.3828
▁FC	-11.3829
▁politikou	-11.383
▁kompletní	-11.383
▁levné	-11.383
▁nároků	-11.383
▁roh	-11.383
▁pravomocí	-11.3831
▁výrobou	-11.3831
nechávají	-11.3832
▁armádní	-11.3833
▁osobám	-11.3833
▁drobných	-11.3834
▁socialismu	-11.3836
▁alternativní	-11.3837
ess	-11.3837
▁přerušení	-11.3837
▁stěží	-11.3838
▁sídla	-11.3838
▁udává	-11.3838
▁prodejna	-11.3839
▁odjezd	-11.384
▁zasáhnout	-11.3841
▁řádky	-11.3841
▁Politick	-11.3842
▁vyrovnání	-11.3844
▁MOV	-11.3844
▁necelé	-11.3846
▁potřebujete	-11.3847
▁infekce	-11.3847
▁drav	-11.3848
ph	-11.3848
▁výměny	-11.3848
▁příslušníky	-11.3848
▁zbytku	-11.3849
soudil	-11.385
▁psaní	-11.385
▁Příklad	-11.385
▁scénu	-11.385
▁pokryt	-11.3851
▁léto	-11.3851
▁zajímá	-11.3853
▁vlk	-11.3854
▁zajímavá	-11.3855
▁sídlí	-11.3856
▁Vložit	-11.3856
▁uplatňují	-11.3856
▁Tvrdí	-11.3856
▁izraelské	-11.3856
▁dohodli	-11.3857
▁Alp	-11.3858
▁astronom	-11.3859
▁částečn	-11.3859
▁rodině	-11.3859
▁jmenoval	-11.3859
▁nemocného	-11.3859
▁dorazil	-11.386
▁kraje	-11.3861
▁zřetel	-11.3861
▁sudetský	-11.3862
▁OK	-11.3862
▁tvorba	-11.3862
▁Baník	-11.3862
▁rozšířen	-11.3865
▁ToolBooku	-11.3867
▁kláštera	-11.3868
▁ověřen	-11.3869
▁hradě	-11.3869
soudit	-11.3871
▁slavného	-11.3871
▁provozování	-11.3872
▁odborů	-11.3873
▁analýza	-11.3874
▁elit	-11.3875
▁výhodou	-11.3875
▁radi	-11.3875
▁obvinil	-11.3877
▁hrub	-11.3878
▁živnost	-11.388
▁získávání	-11.388
▁odjel	-11.3882
etické	-11.3883
▁zpracovat	-11.3886
▁měnov	-11.3886
▁Žena	-11.3886
▁touh	-11.3889
▁Koup	-11.3889
▁zvukových	-11.389
JE	-11.389
▁rozhlasu	-11.389
▁vraždy	-11.389
▁anglického	-11.3893
▁spojených	-11.3893
▁grafiky	-11.3893
▁veletrhu	-11.3894
▁mořské	-11.3896
▁nešťastn	-11.3897
▁prezidentovi	-11.3897
▁Víme	-11.3898
▁ucho	-11.3899
▁výchovy	-11.3899
▁očích	-11.3899
▁pohotovost	-11.39
▁Buď	-11.3902
▁70.	-11.3903
▁příkazem	-11.3905
ňující	-11.3906
▁poskytnutí	-11.3907
▁Bro	-11.3908
skop	-11.391
jednali	-11.3912
▁77	-11.3913
▁dokonalé	-11.3915
▁slovenský	-11.3916
tlačit	-11.3917
▁hladiny	-11.3918
▁Optic	-11.3918
▁neznámé	-11.3919
▁sdělit	-11.3919
▁opustil	-11.3921
▁zařazeny	-11.3921
6.	-11.3922
▁přímý	-11.3922
padnout	-11.3922
▁Ostravsk	-11.3923
▁zbývá	-11.3923
,7	-11.3924
▁pivovarů	-11.3924
▁požádali	-11.3926
▁uživatelům	-11.3927
▁hrůz	-11.3928
▁platnosti	-11.3929
▁Fil	-11.3932
▁poradil	-11.3938
▁obsadili	-11.3938
▁ruch	-11.3939
▁uzavřené	-11.394
▁Izraelem	-11.3942
▁stromu	-11.3943
SKO	-11.3943
▁zásahy	-11.3944
▁hloubk	-11.3944
▁pilot	-11.3947
lech	-11.3949
hrání	-11.3949
▁naproti	-11.3949
▁Novém	-11.3949
▁nakupovat	-11.3951
▁Slov	-11.3953
▁kruhu	-11.396
▁takzvané	-11.3961
▁radní	-11.3963
sáhl	-11.3964
▁vyrovnaný	-11.3966
▁Masaryk	-11.3968
▁opačném	-11.3969
▁vyjadřují	-11.397
▁zásoby	-11.3971
▁Form	-11.3972
žívání	-11.3974
▁Husa	-11.3979
▁osobu	-11.3984
vodí	-11.3987
▁listin	-11.3988
▁vzkaz	-11.3995
vezm	-11.3996
▁mozkové	-11.4
tiky	-11.4
▁dobro	-11.4001
▁východu	-11.4006
▁nezískal	-11.4009
▁gólu	-11.4011
rel	-11.4017
▁zvítězila	-11.4017
▁genu	-11.4017
▁Kro	-11.4021
▁obyčejné	-11.4021
▁přístupem	-11.4022
▁předčasné	-11.4027
▁bojoval	-11.4028
▁zdravý	-11.4029
▁narazí	-11.403
▁plánované	-11.403
krás	-11.4032
▁soukromým	-11.4033
▁Carl	-11.4037
víz	-11.4037
krátko	-11.4038
▁zadržen	-11.4039
▁Lá	-11.4042
NSK	-11.4043
oba	-11.4043
▁OLE	-11.4045
▁proměnil	-11.4045
stavení	-11.4046
▁talent	-11.4047
▁Har	-11.4048
▁částice	-11.405
▁závěry	-11.4053
lární	-11.4054
▁vazeb	-11.4054
▁plic	-11.4056
stoupit	-11.4062
▁kapitoly	-11.4062
▁připravila	-11.4065
▁hromadn	-11.4065
▁snížila	-11.4067
▁čekání	-11.407
▁autory	-11.4071
▁dodala	-11.4072
▁předpokládal	-11.4075
▁klimatické	-11.4078
▁softwarový	-11.4078
▁majitelem	-11.4083
▁podpoře	-11.4085
▁domova	-11.4088
▁skončily	-11.4092
řev	-11.4093
▁komunistický	-11.4095
▁bezpečnostních	-11.4096
▁semen	-11.4097
▁Čechy	-11.4097
▁Jean	-11.4099
▁genetick	-11.4105
▁kdež	-11.4108
▁kritické	-11.4111
▁očekávané	-11.4112
učili	-11.4118
67	-11.4126
▁Či	-11.4126
dána	-11.4128
▁hradí	-11.4129
▁odbornost	-11.413
▁zájm	-11.4131
čkách	-11.4133
znal	-11.4133
▁etický	-11.4133
▁190	-11.4134
▁Neu	-11.4134
▁hovor	-11.4137
nický	-11.4138
▁vyvolá	-11.414
▁věřit	-11.4141
▁zdokonal	-11.4141
▁sloužil	-11.4141
▁Ře	-11.415
▁novel	-11.4152
nin	-11.4153
▁známa	-11.4156
17	-11.4159
▁mladík	-11.4161
▁takzvaný	-11.4167
▁světl	-11.4169
▁sluch	-11.4172
▁důkladně	-11.418
▁dohodnut	-11.4181
▁Chart	-11.4182
íš	-11.4183
▁speciálních	-11.419
▁omezené	-11.4193
▁samé	-11.4194
palestinsk	-11.4197
▁chorvatský	-11.4201
▁Vesmír	-11.4201
389	-11.4202
▁komentáře	-11.4206
▁nábožensk	-11.4207
▁hlás	-11.421
sin	-11.421
▁Horní	-11.421
▁daří	-11.4211
▁oblíbený	-11.4213
▁osmnáct	-11.4219
▁adresář	-11.4219
▁mak	-11.4221
tice	-11.4224
bírají	-11.4224
▁štít	-11.4225
IE	-11.4238
▁veden	-11.4239
▁bolesti	-11.424
▁náboženské	-11.424
▁poledne	-11.4241
demokratick	-11.4245
▁zaměstnancům	-11.4245
▁leasing	-11.4249
▁Severoatlantick	-11.4253
▁nabízen	-11.4253
▁americkým	-11.4254
▁ryz	-11.4257
▁dle	-11.426
taž	-11.4262
tivnější	-11.4265
skému	-11.4267
▁Min	-11.4273
▁uzavřen	-11.4275
ézt	-11.4281
▁říkám	-11.4282
▁tvor	-11.4285
▁stovk	-11.4286
▁letecký	-11.4287
▁dávn	-11.429
▁vlastníků	-11.429
▁poslancům	-11.4293
▁náměstk	-11.4294
▁souvislost	-11.4295
▁hork	-11.4297
vázal	-11.4299
▁dialog	-11.4301
▁středním	-11.4302
▁disciplín	-11.4302
▁běžným	-11.4304
▁Pozor	-11.4305
▁nepřátel	-11.4307
▁Stran	-11.4316
▁kolegů	-11.4318
▁jezer	-11.4318
▁povolen	-11.4319
▁muzeu	-11.432
▁vesmír	-11.4321
▁zvětš	-11.4322
▁přístav	-11.4323
▁Švýcar	-11.4323
▁koncern	-11.4326
▁prokurátor	-11.4326
▁odehráv	-11.4326
▁KON	-11.433
▁dražb	-11.4331
▁vteřin	-11.4331
▁spořiteln	-11.4331
▁pojistn	-11.4332
▁zpěvák	-11.4333
▁dělník	-11.4337
▁prohlásila	-11.4339
▁uzná	-11.4343
▁příjemný	-11.4345
▁mládež	-11.4348
ební	-11.435
▁závěrečné	-11.4355
▁popř	-11.4356
▁jater	-11.4356
▁podepsán	-11.4358
▁potvrzen	-11.4358
▁slovu	-11.4359
cal	-11.4361
▁Portugalsk	-11.4362
▁předkládá	-11.4362
▁pokladn	-11.4363
▁rizikový	-11.4363
▁nadšen	-11.4366
▁společným	-11.4366
▁Mnichov	-11.437
87	-11.4372
záběr	-11.4372
áty	-11.4372
▁překvapen	-11.4376
ash	-11.4378
▁osmé	-11.4379
▁modem	-11.438
KDU	-11.4382
▁interpret	-11.4384
▁srozumiteln	-11.4387
kých	-11.4389
vyjádřen	-11.4391
▁tunel	-11.4391
▁obsáhl	-11.4392
německou	-11.4392
mýšlí	-11.4394
▁krystal	-11.4395
▁přibyl	-11.4395
▁Kamp	-11.4396
kromě	-11.4396
▁Krkonoš	-11.4397
▁skromn	-11.4397
▁junio	-11.4398
▁objektiv	-11.4398
▁pátrá	-11.4398
doporučují	-11.4398
▁1981	-11.4398
▁Běloruska	-11.4398
▁Eduard	-11.4398
▁Městě	-11.4398
▁Pořadatel	-11.4398
▁Poštovní	-11.4398
▁Rozhovor	-11.4398
▁Svorada	-11.4398
▁Uvažuje	-11.4398
▁Vědci	-11.4398
▁bázi	-11.4398
▁doprovázen	-11.4398
▁ekvivalent	-11.4398
▁hřbitov	-11.4398
▁instance	-11.4398
▁inzerát	-11.4398
▁konfiguraci	-11.4398
▁mechanismy	-11.4398
▁ministerstvem	-11.4398
▁mužstvu	-11.4398
▁nejlevnější	-11.4398
▁nejvhodnější	-11.4398
▁ovlivňova	-11.4398
▁označují	-11.4398
▁očekávají	-11.4398
▁pohromadě	-11.4398
▁potvrdit	-11.4398
▁pracovišti	-11.4398
▁protagonist	-11.4398
▁překonat	-11.4398
▁složku	-11.4398
▁sluchátka	-11.4398
▁stabilitu	-11.4398
▁svědků	-11.4398
▁ubytovn	-11.4398
▁vyjadřova	-11.4398
▁výsledcích	-11.4398
▁zachránit	-11.4398
▁zaměstnává	-11.4398
▁zbraň	-11.4398
▁závazek	-11.4398
▁závislé	-11.4398
▁Výběr	-11.4398
▁displej	-11.4398
▁komentoval	-11.4398
▁kosmický	-11.4398
▁podmínkami	-11.4398
▁pouštní	-11.4398
▁prvotní	-11.4398
opakovaně	-11.4398
režie	-11.4398
▁dráhu	-11.4398
▁jedinec	-11.4398
▁odvahu	-11.4398
▁sazby	-11.4398
▁sérii	-11.4398
▁vazbě	-11.4398
▁vyjednávání	-11.4398
▁Pravděpodobn	-11.4398
▁otravy	-11.4398
▁profesí	-11.4398
▁lidstva	-11.4398
▁sladk	-11.4398
▁Gross	-11.4398
▁prohlašuje	-11.4398
▁uhlí	-11.4398
▁uplatnil	-11.4398
▁Reuter	-11.4398
▁Radovan	-11.4398
▁partie	-11.4398
▁kolaps	-11.4399
▁postačí	-11.4399
▁počty	-11.4399
▁vpravo	-11.4399
▁Pentium	-11.4399
▁rozvržení	-11.4399
▁kombinací	-11.4399
▁finance	-11.4399
▁obezit	-11.4399
▁smečka	-11.4399
▁cvičení	-11.4399
▁velkolep	-11.4399
▁doplnil	-11.4399
▁léčbě	-11.4399
▁jarní	-11.4399
▁ohlas	-11.4399
▁zaměřuje	-11.4399
▁sportovce	-11.4399
▁zmenšen	-11.4399
▁generaci	-11.4399
▁ekonomickou	-11.4399
▁sníží	-11.4399
▁Ford	-11.4399
▁Vilém	-11.4399
▁dvor	-11.4399
▁výhrady	-11.4399
▁filozofii	-11.4399
▁nedostatkem	-11.4399
▁Baker	-11.4399
▁derby	-11.4399
▁spoření	-11.4399
▁konverz	-11.4399
▁Španělsko	-11.4399
▁1998	-11.4399
▁výměr	-11.4399
▁SNR	-11.44
pravdě	-11.44
▁běží	-11.44
▁nezvykl	-11.44
▁studii	-11.44
▁afér	-11.44
ředstavitelé	-11.44
▁Hráč	-11.44
▁správnou	-11.44
▁Mistr	-11.4401
▁pravdy	-11.4401
▁pravice	-11.4401
▁členění	-11.4401
▁Tri	-11.4401
▁děkan	-11.4401
▁jednotlivců	-11.4401
▁Winter	-11.4401
▁čelit	-11.4402
▁památky	-11.4402
▁trase	-11.4402
▁kontrast	-11.4402
▁článků	-11.4402
▁nákladech	-11.4402
▁ISO	-11.4403
▁kampaň	-11.4403
KDS	-11.4403
politickým	-11.4403
▁zvýhodněn	-11.4403
▁strojírenství	-11.4403
▁zastupitelstvo	-11.4403
▁švýcarské	-11.4404
▁lodí	-11.4404
▁dálkové	-11.4404
▁tvrdit	-11.4405
▁plus	-11.4405
▁poplatků	-11.4405
▁salon	-11.4405
▁protivník	-11.4406
▁celky	-11.4406
▁vyhleda	-11.4406
▁přijímat	-11.4406
▁zeleni	-11.4406
týdenní	-11.4406
▁počítačem	-11.4406
▁sbírek	-11.4407
▁základny	-11.4407
▁2:1	-11.4407
nešní	-11.4407
▁hluboký	-11.4407
▁vzdělávací	-11.4407
▁Polskem	-11.4408
▁pití	-11.4408
▁vydrží	-11.4408
▁organismů	-11.4409
▁oteplení	-11.4409
▁průvodce	-11.4409
▁tenkrát	-11.441
▁ojediněle	-11.441
elektrick	-11.441
RS	-11.4411
▁samozřejm	-11.4411
▁Provoz	-11.4411
▁nepřijatelné	-11.4411
▁porost	-11.4412
▁okresu	-11.4412
▁alternativy	-11.4412
▁ideologick	-11.4412
▁prosazuje	-11.4413
stihnout	-11.4413
▁domku	-11.4413
▁nazval	-11.4414
▁scéně	-11.4414
▁odehrál	-11.4414
▁pozorovatelů	-11.4414
▁námět	-11.4414
▁branky	-11.4415
▁Kolín	-11.4416
▁přísně	-11.4416
▁odcházejí	-11.4416
▁kliniky	-11.4417
▁myln	-11.4418
▁silami	-11.4418
▁ušetřit	-11.4418
▁pokutu	-11.4419
▁záměrně	-11.442
▁anketě	-11.442
▁vybrán	-11.442
▁pětinu	-11.4421
ikonu	-11.4421
▁pomáhat	-11.4421
▁skupinách	-11.4423
▁mrtvých	-11.4423
▁hranicí	-11.4425
▁odluk	-11.4425
▁Palác	-11.4425
▁pomník	-11.4426
▁pozdní	-11.4426
▁vidíte	-11.4426
▁vyznačen	-11.4427
pouštět	-11.4428
▁obchodech	-11.4428
▁skutečnou	-11.4429
▁Air	-11.4429
▁skoku	-11.4429
▁koordinac	-11.443
▁povahu	-11.443
hlédne	-11.4431
▁zažil	-11.4431
▁znamenala	-11.4432
▁obří	-11.4432
▁domácností	-11.4433
▁přibývá	-11.4433
▁minutu	-11.4433
ŽE	-11.4434
▁komunismus	-11.4436
▁NT	-11.4436
▁ledové	-11.4436
▁problematiky	-11.4438
90	-11.4438
▁etapy	-11.4438
▁stranách	-11.4439
▁1991.	-11.4439
▁zárukou	-11.444
▁jazyků	-11.444
▁desítká	-11.444
▁publikací	-11.4441
▁vyřešil	-11.4441
píší	-11.4443
▁slavné	-11.4444
▁Nejsem	-11.4444
▁prodejce	-11.4446
▁využívající	-11.4446
▁neviděl	-11.4446
▁Don	-11.4447
▁reálná	-11.4447
▁dole	-11.4447
program	-11.4448
čkem	-11.4449
▁termo	-11.445
▁odměnu	-11.445
▁přibylo	-11.4452
▁Žádný	-11.4452
▁pochybnosti	-11.4454
▁těsné	-11.4455
sazení	-11.4456
▁zlé	-11.4457
▁sedmnácti	-11.4459
▁západu	-11.4459
zon	-11.4459
▁Ger	-11.4459
▁Thomas	-11.446
▁zkratk	-11.446
▁opravit	-11.4461
▁časový	-11.4463
▁chyba	-11.4464
▁vhodných	-11.4466
▁podávání	-11.4467
▁cukru	-11.4468
▁rodinou	-11.4469
▁vaku	-11.4472
▁nebezpečn	-11.4473
▁dialogové	-11.4473
▁stínu	-11.4474
▁družstevní	-11.4474
▁Žen	-11.4475
▁historického	-11.4475
▁slabé	-11.4478
▁polského	-11.4478
▁osmnácti	-11.4479
▁slevy	-11.448
▁jednotný	-11.4482
▁samostatnost	-11.4482
▁začínal	-11.4482
▁jmenování	-11.4482
▁(5	-11.4482
▁konfliktu	-11.4484
▁maličkost	-11.4487
▁správě	-11.4488
▁prázdniny	-11.4489
▁pachatele	-11.4491
▁prochází	-11.4491
▁dnem	-11.4491
▁Kazachstánu	-11.4493
▁otevřenou	-11.4493
▁skleníkový	-11.4493
▁předloh	-11.4495
▁Stan	-11.4496
hladov	-11.4496
▁půd	-11.4499
93	-11.45
▁Voj	-11.45
▁zařazení	-11.4501
▁odpady	-11.4502
pali	-11.4505
▁pružn	-11.4505
▁časopis	-11.4505
▁hromada	-11.4509
▁Sport	-11.451
▁spolehlivě	-11.4513
▁Moc	-11.4516
▁mezer	-11.4517
▁vzdálen	-11.4519
▁samospráv	-11.4521
mění	-11.4521
▁zajímavých	-11.4521
▁Přibyl	-11.4521
▁britských	-11.4525
▁hospodářských	-11.4526
▁sedmé	-11.4526
▁vzniklo	-11.4527
▁Šp	-11.4527
▁suroviny	-11.4528
▁vítězk	-11.4528
▁zájemcům	-11.4529
▁kapacitu	-11.453
▁oprávnění	-11.4531
▁nizozemsk	-11.4531
▁smyslem	-11.4532
▁mostu	-11.4534
munist	-11.4536
▁dlužníka	-11.4538
▁stavy	-11.4542
▁zahájena	-11.4542
▁záznamu	-11.4544
▁tepelné	-11.4545
▁překvapením	-11.4545
▁slavný	-11.4546
▁hub	-11.4549
▁závodníků	-11.4552
▁novináře	-11.4554
▁vyrovnané	-11.456
▁levný	-11.456
▁perspektivní	-11.4562
▁VE	-11.4562
▁proměnn	-11.4567
▁poškozen	-11.4567
▁případem	-11.4568
▁hokejové	-11.4568
▁určitým	-11.4571
▁výzkumné	-11.4574
běhne	-11.4576
▁automobilu	-11.458
okr	-11.4583
▁pozval	-11.4583
▁vyšším	-11.4586
▁vynesl	-11.4586
▁účelu	-11.4587
▁vznikal	-11.4587
▁podpisu	-11.459
▁potraviny	-11.459
jo	-11.4593
▁pokračovala	-11.4593
▁cenami	-11.4594
▁Rozhodl	-11.4594
▁vidím	-11.4598
▁centrál	-11.4599
▁vybaveny	-11.4599
▁vědec	-11.4604
▁vrátili	-11.4611
▁technologické	-11.4612
▁součásti	-11.4612
▁výživ	-11.4613
ers	-11.4615
IA	-11.4616
▁Kole	-11.4618
reál	-11.4621
▁převrat	-11.4624
▁manažery	-11.4627
nej	-11.4627
▁daného	-11.4627
line	-11.4633
omín	-11.4637
▁hlasováním	-11.4639
▁ženské	-11.464
▁atomov	-11.4642
▁Pen	-11.4642
▁vlna	-11.4644
▁Japonsk	-11.4646
▁pravý	-11.4647
ung	-11.4648
▁jakéhokoli	-11.4649
▁místním	-11.4652
▁polský	-11.4654
▁Vod	-11.4659
▁Obsah	-11.4666
▁kandidáta	-11.4667
▁cenné	-11.467
▁tituly	-11.4674
▁najdou	-11.4678
▁1)	-11.468
▁buňk	-11.4681
▁Geo	-11.4682
▁textů	-11.4684
▁naučil	-11.4687
▁240	-11.4691
▁Kur	-11.4691
obdržela	-11.4691
ovaném	-11.4692
▁Plán	-11.4692
▁podnikateli	-11.4692
▁základu	-11.4695
▁palác	-11.4698
▁Brněnsk	-11.4699
kraji	-11.4702
▁vizi	-11.4702
▁vývojový	-11.4703
wi	-11.4706
plynul	-11.471
▁kanál	-11.471
▁devatenáct	-11.4714
▁zvrat	-11.4716
dělení	-11.4718
sovětsk	-11.4719
▁mask	-11.4719
nově	-11.4723
▁světem	-11.4723
▁navržen	-11.4723
▁povrchové	-11.4728
▁nabízený	-11.473
▁žlut	-11.473
▁únos	-11.4734
nových	-11.4736
▁čtvrtin	-11.4736
▁třetin	-11.4738
LOV	-11.4739
▁olympiád	-11.4741
▁Norsk	-11.4742
▁fotbalist	-11.4745
▁zápasem	-11.4755
leva	-11.4761
▁cc	-11.4763
praví	-11.4763
▁pat	-11.4764
▁stín	-11.477
▁zakladatel	-11.4773
▁čínské	-11.4774
▁známou	-11.4777
▁nadměrn	-11.4779
▁činy	-11.4781
13	-11.4781
▁přip	-11.4782
lová	-11.4784
▁Nemá	-11.4786
▁špičkov	-11.4793
jan	-11.48
NS	-11.4802
nických	-11.4807
pera	-11.4808
97	-11.4812
▁jejímu	-11.4813
▁energetik	-11.4815
cz	-11.4815
▁pěkný	-11.4817
▁neobvyklé	-11.4818
▁přidělen	-11.4818
▁Novotn	-11.4822
▁koalic	-11.4824
▁procentní	-11.4827
hraniční	-11.4831
▁rozum	-11.4833
▁historick	-11.4833
stroj	-11.4837
▁přirozeným	-11.4837
▁působ	-11.4843
▁míče	-11.4844
▁Závod	-11.4846
▁zařízením	-11.4847
▁lese	-11.4847
▁aktivac	-11.4848
▁jistot	-11.4851
▁fakult	-11.4851
▁přesvědčil	-11.4852
▁Čtyř	-11.4864
▁úvod	-11.4866
ručně	-11.4869
▁stranické	-11.4872
▁hrozn	-11.4876
▁bosen	-11.488
▁nepříjemný	-11.4883
▁zvolený	-11.4889
▁Občansk	-11.489
střelil	-11.4891
▁výtečn	-11.4894
▁žádným	-11.4898
mentálně	-11.49
▁hvězda	-11.4902
▁Velký	-11.4905
▁Ročn	-11.4907
▁občanům	-11.4908
▁vyplněn	-11.491
▁parametr	-11.4911
uf	-11.4911
▁hezk	-11.4912
kání	-11.4912
▁čte	-11.4917
▁Ter	-11.4919
▁spojit	-11.4919
▁výjimk	-11.492
▁krut	-11.492
okres	-11.492
▁symbolick	-11.4922
▁dostaly	-11.4922
▁národním	-11.4923
▁nesmysl	-11.4923
▁nud	-11.4926
▁Histori	-11.493
▁bojovn	-11.4938
▁EuroTel	-11.4942
▁závažn	-11.4942
▁Thajsk	-11.4943
▁inspektor	-11.4943
▁krev	-11.4946
▁dveří	-11.4948
▁tělesn	-11.4948
▁spojeno	-11.4949
▁kategorií	-11.4951
▁hráčům	-11.4952
▁dobrého	-11.4952
▁ZÁ	-11.4954
▁Sen	-11.4955
▁záloh	-11.4957
▁Ostravar	-11.4957
▁úloh	-11.4961
▁ran	-11.4964
▁sláv	-11.4964
▁triumf	-11.4965
▁Žid	-11.4969
ičku	-11.4969
favorit	-11.4971
57	-11.4971
▁vystupuj	-11.4973
▁využívají	-11.4973
ring	-11.4978
▁uvolněn	-11.4986
▁pořadatelů	-11.4987
▁krásn	-11.4989
▁hmotnost	-11.499
bíhají	-11.4991
▁bronz	-11.4994
uskutečnila	-11.4997
▁vyřazen	-11.4998
▁450	-11.4999
jov	-11.4999
▁smrteln	-11.4999
▁obnovit	-11.5003
▁ukončen	-11.5003
▁centimetr	-11.5004
vodně	-11.5005
▁dívá	-11.5005
spěje	-11.5008
▁podstat	-11.501
▁algoritm	-11.5014
▁demonstra	-11.5015
▁podporují	-11.5016
▁krále	-11.5016
konalo	-11.5017
▁Hlas	-11.5018
▁uložen	-11.5022
▁Vždy	-11.5022
▁účinně	-11.5022
▁risk	-11.5023
▁Tchaj	-11.5023
Cagiva	-11.5023
▁Apple	-11.5023
▁Barcelony	-11.5023
▁Budinský	-11.5023
▁Dudajev	-11.5023
▁Frankfurt	-11.5023
▁Honecker	-11.5023
▁Liverpool	-11.5023
▁Lobkowicz	-11.5023
▁Moskvy	-11.5023
▁Opět	-11.5023
▁Schumacher	-11.5023
▁Stráský	-11.5023
▁TNF	-11.5023
▁Větší	-11.5023
▁angličtiny	-11.5023
▁atribut	-11.5023
▁databázový	-11.5023
▁dosaženo	-11.5023
▁dětství	-11.5023
▁efektivnosti	-11.5023
▁epidemie	-11.5023
▁evoluce	-11.5023
▁extremist	-11.5023
▁intenzivní	-11.5023
▁jménu	-11.5023
▁konkurs	-11.5023
▁kritizoval	-11.5023
▁lhůtě	-11.5023
▁lůžek	-11.5023
▁nabízel	-11.5023
▁nabízet	-11.5023
▁nelíbí	-11.5023
▁nesmějí	-11.5023
▁notebook	-11.5023
▁pohledávky	-11.5023
▁polštář	-11.5023
▁pozůstatk	-11.5023
▁počínání	-11.5023
▁pronájmu	-11.5023
▁pódiu	-11.5023
▁redakční	-11.5023
▁ropovod	-11.5023
▁rozšiřování	-11.5023
▁seznámil	-11.5023
▁skrývá	-11.5023
▁spekulace	-11.5023
▁spekulací	-11.5023
▁svědectví	-11.5023
▁tlačítek	-11.5023
▁trápí	-11.5023
▁vztazích	-11.5023
▁výdělečn	-11.5023
▁zdůrazňuje	-11.5023
▁ÚSES	-11.5023
▁Luboš	-11.5023
▁PŘED	-11.5023
▁Vánoční	-11.5023
▁bydliště	-11.5023
▁mrtvol	-11.5023
▁nekončí	-11.5023
▁poloostrov	-11.5023
▁poskytovan	-11.5023
▁prodavač	-11.5023
▁profesní	-11.5023
▁výzvu	-11.5023
▁Haagu	-11.5023
▁kosmické	-11.5023
▁přiznat	-11.5023
▁nazývá	-11.5023
▁plakát	-11.5023
▁Vánoce	-11.5023
▁uváděl	-11.5023
▁pojmy	-11.5023
▁spektrum	-11.5023
▁demisi	-11.5023
▁pokouší	-11.5023
▁Easy	-11.5023
▁bezespor	-11.5023
▁koupě	-11.5024
▁pryč	-11.5024
▁levicov	-11.5024
▁komplikace	-11.5024
▁mutace	-11.5024
▁Kyjev	-11.5024
▁nevadí	-11.5024
▁praxí	-11.5024
týkat	-11.5024
týkal	-11.5024
▁nejmladší	-11.5024
▁zastupování	-11.5024
▁něčím	-11.5024
▁Myslíte	-11.5024
▁snižují	-11.5024
▁eventuáln	-11.5024
▁inteligentní	-11.5024
▁rovnost	-11.5024
▁ledovce	-11.5024
▁Neznám	-11.5024
▁vyrobil	-11.5024
▁veterán	-11.5024
2:0	-11.5024
▁bydlet	-11.5024
▁reprezentuje	-11.5024
▁usiloval	-11.5024
▁pohlaví	-11.5024
▁mezisklad	-11.5024
▁Group	-11.5024
▁zastupitelství	-11.5024
▁bát	-11.5024
▁ocas	-11.5024
▁teplé	-11.5024
▁neodpovídá	-11.5024
▁slyšel	-11.5024
▁levněji	-11.5024
▁dozor	-11.5024
▁interpretace	-11.5024
▁strážníci	-11.5024
▁komunikací	-11.5024
▁ČSTK	-11.5024
▁nezajímá	-11.5025
▁součin	-11.5025
▁léčby	-11.5025
▁někam	-11.5025
▁stolní	-11.5025
▁Olg	-11.5025
▁vyčleněn	-11.5025
▁sousedství	-11.5025
▁norem	-11.5025
▁HDP	-11.5025
▁stoprocentní	-11.5025
MF	-11.5025
▁námitky	-11.5025
▁Dukla	-11.5025
▁střechy	-11.5025
▁Thun	-11.5025
▁sumy	-11.5025
KDH	-11.5026
▁kabin	-11.5026
míří	-11.5026
▁určí	-11.5026
▁Prohlásil	-11.5026
▁úředníci	-11.5027
tahuje	-11.5027
▁Lac	-11.5027
▁dílčí	-11.5027
▁kinematografie	-11.5027
▁pozitivně	-11.5027
▁prudké	-11.5027
rozuměl	-11.5028
ňují	-11.5028
kontinentální	-11.5028
▁Neměl	-11.5028
▁teplý	-11.5028
▁NOV	-11.5029
▁novinkou	-11.5029
Finsko	-11.5029
▁datum	-11.5029
▁Nemůže	-11.5029
▁švýcarský	-11.503
▁Grafová	-11.503
▁omezování	-11.503
▁Lys	-11.503
▁přestávce	-11.503
▁prodejců	-11.503
▁selekčn	-11.5031
▁Libor	-11.5031
▁10%	-11.5031
▁hluk	-11.5031
▁účelům	-11.5032
▁zkoušku	-11.5032
▁mohutn	-11.5033
▁hektarů	-11.5033
▁přenést	-11.5033
platné	-11.5033
▁rozměrů	-11.5034
▁sídlo	-11.5034
▁posuzování	-11.5034
▁vykázal	-11.5034
▁Tatra	-11.5035
▁Původní	-11.5035
▁zmáčkn	-11.5035
▁Izraele	-11.5035
▁Postupně	-11.5036
▁poškodil	-11.5036
▁dějinách	-11.5037
▁socialistické	-11.5037
▁ohrozit	-11.5037
▁finančním	-11.5037
▁přírodním	-11.5038
▁odhaduje	-11.5039
▁trik	-11.504
▁uznává	-11.504
▁předešl	-11.504
CK	-11.5042
▁učební	-11.5042
▁Zpočátku	-11.5042
▁Pardubice	-11.5043
▁disponuje	-11.5043
▁špičkových	-11.5043
▁hygienické	-11.5043
▁sestra	-11.5043
▁považoval	-11.5045
▁úsměvem	-11.5045
▁filozofické	-11.5046
▁předpokládají	-11.5048
▁Římě	-11.5048
▁svazek	-11.505
▁Určitě	-11.505
▁badatelé	-11.5052
▁List	-11.5052
▁motocyklů	-11.5054
▁Zkus	-11.5054
▁dálnice	-11.5055
▁minulou	-11.5055
▁jdou	-11.5056
▁drát	-11.5056
▁LID	-11.5056
▁zvířete	-11.5057
▁gest	-11.5058
▁ostrově	-11.5059
▁nápoj	-11.5059
▁vyplácení	-11.506
▁klientel	-11.5061
▁invalidní	-11.5061
▁zvon	-11.5062
▁zakázal	-11.5065
▁herci	-11.5066
▁kompresi	-11.5067
atřicetilet	-11.5067
▁spuštění	-11.5068
▁prázdné	-11.5068
▁zrodil	-11.5069
▁posádky	-11.5069
▁zapsán	-11.507
can	-11.5072
▁berou	-11.5073
▁vyhlášky	-11.5074
▁sněmovna	-11.5075
▁Listin	-11.5077
izování	-11.5077
▁Kremlu	-11.5077
▁převodu	-11.5077
▁schránky	-11.5078
▁dáno	-11.5078
▁klepnutím	-11.5078
▁přistoupil	-11.5079
▁iniciativy	-11.5079
▁Londýna	-11.5081
jmenovaný	-11.5081
▁Paříže	-11.5081
▁sporů	-11.5082
▁Těm	-11.5082
▁azbestu	-11.5082
▁bazénu	-11.5083
▁zakázku	-11.5083
▁využíván	-11.5084
▁akcionáři	-11.5085
▁tiskov	-11.5085
▁kritiky	-11.5087
▁výuky	-11.5088
▁sond	-11.5088
▁Pravda	-11.5088
▁povinné	-11.509
▁ekonomickým	-11.509
▁učitelé	-11.509
▁zásobník	-11.5092
▁fotbalisty	-11.5093
▁pořádně	-11.5093
▁omezeným	-11.5093
▁problémech	-11.5094
▁doplnění	-11.5095
▁nevhodné	-11.5095
▁vteřiny	-11.5095
▁povrchem	-11.5096
▁Benda	-11.5097
▁provede	-11.5097
▁doprovodu	-11.5097
▁vidíme	-11.51
čnost	-11.5103
▁manipul	-11.5104
▁občansk	-11.5104
▁olympiádu	-11.5105
▁Nizozemska	-11.5106
▁volném	-11.5107
▁zvané	-11.5108
▁pomocník	-11.5108
▁tunelu	-11.5108
▁dialogu	-11.5108
▁nahradí	-11.5108
▁šíř	-11.511
▁geografick	-11.511
▁povrchov	-11.5116
▁okamžité	-11.5119
▁mzdové	-11.512
▁složitost	-11.512
▁přežil	-11.5125
▁slevu	-11.5126
▁poplatníků	-11.5127
▁prodávají	-11.5127
▁vytvořený	-11.5129
▁paktu	-11.513
▁Sex	-11.513
▁předmětu	-11.513
▁procesory	-11.5132
▁čar	-11.5133
▁údaji	-11.5134
▁Nova	-11.5134
▁náměstka	-11.5135
▁nazvaný	-11.5136
Vesmír	-11.5138
▁jízdu	-11.5138
hodinové	-11.5139
▁systémech	-11.5139
▁silnici	-11.5139
▁plzeňské	-11.514
▁Trh	-11.514
▁vlastník	-11.5142
▁používané	-11.5143
prv	-11.5144
jevit	-11.5146
slouží	-11.5146
vládne	-11.5146
▁choroby	-11.5148
▁otázkami	-11.5148
▁dolaru	-11.515
▁tváře	-11.5153
▁odpadu	-11.5154
▁nadšení	-11.5154
▁zaujím	-11.5155
▁sortimentu	-11.5155
udit	-11.5155
rová	-11.5156
▁ilustrac	-11.5157
UD	-11.5157
▁186	-11.5157
▁útvarů	-11.5158
▁vlivu	-11.516
▁vrah	-11.5163
▁pacienty	-11.5164
▁leteck	-11.5165
▁230	-11.5165
▁vyhrazen	-11.5166
▁etnick	-11.5167
▁stanovil	-11.5171
▁monopolní	-11.5173
▁užití	-11.5173
▁zemřelo	-11.5175
▁Ivo	-11.5178
▁zastávk	-11.5181
nar	-11.5182
▁Tito	-11.5183
▁hostin	-11.5189
počtu	-11.519
ázev	-11.5193
hřeb	-11.5196
▁největšího	-11.5196
▁ukázaly	-11.5199
▁vzali	-11.5203
▁Vir	-11.5204
▁zvolí	-11.5204
▁zakázán	-11.5204
▁koná	-11.5204
▁Tisk	-11.5204
USA	-11.5204
▁Web	-11.5205
▁soutěžích	-11.5206
▁hodí	-11.5206
▁rozmnož	-11.5207
škodí	-11.5213
▁dech	-11.5213
▁Ph	-11.5217
korun	-11.5217
jeden	-11.5218
ALI	-11.5218
Pro	-11.522
▁porazili	-11.5227
▁postupuje	-11.5229
▁zbožím	-11.523
▁zůstali	-11.5231
▁Radnic	-11.5232
▁posl	-11.5232
▁čt	-11.5233
▁slovenského	-11.5233
▁Map	-11.5238
▁neobyčejn	-11.5239
▁doufám	-11.524
▁nákladné	-11.5241
▁geolog	-11.5242
▁94	-11.5246
▁oprávněné	-11.5249
▁Výrobc	-11.5252
přestává	-11.5256
▁národa	-11.5257
▁tvůrc	-11.5258
▁dodá	-11.526
kář	-11.5261
▁právním	-11.5266
▁ptát	-11.5268
▁zvol	-11.527
jistá	-11.5273
kově	-11.5273
tvořily	-11.5274
nická	-11.5277
▁činitel	-11.5282
▁Dole	-11.5284
▁odběratele	-11.529
▁tradičních	-11.5295
▁matematické	-11.5295
▁vysílač	-11.5299
▁stálý	-11.53
▁místopředsedy	-11.5302
▁příklady	-11.5304
▁Američanů	-11.5304
▁dramatické	-11.5311
▁automobilové	-11.5311
▁dávk	-11.5312
SM	-11.5313
▁převyšuj	-11.5313
▁dokázala	-11.5314
▁vyvážen	-11.5315
▁příkazu	-11.5316
▁vložené	-11.5317
pojit	-11.5318
▁nebýval	-11.5323
▁způsobí	-11.5334
▁hory	-11.5338
▁kouř	-11.534
▁Tan	-11.5344
▁Přím	-11.5345
36	-11.5347
▁řízen	-11.5349
▁rozdílné	-11.5352
▁varianta	-11.5353
▁lev	-11.5354
▁vlastníka	-11.5364
rah	-11.5365
▁souhlasil	-11.537
▁Švéd	-11.5372
dražil	-11.5372
hrnul	-11.5374
▁příjemně	-11.5376
▁útoků	-11.5381
▁demokrat	-11.5387
▁Václavské	-11.5389
▁resort	-11.5392
▁rozumí	-11.5395
▁sáze	-11.54
▁skutečným	-11.5407
sit	-11.5411
▁evoluční	-11.5412
▁nejlepšími	-11.5412
▁zálož	-11.5415
▁milost	-11.5416
▁žluté	-11.5428
▁pomohla	-11.5434
dáte	-11.5436
BU	-11.5438
▁kritik	-11.5439
psání	-11.5443
▁rekordní	-11.5447
▁aspekt	-11.5452
▁vhodný	-11.5457
▁konstatova	-11.546
▁prokázán	-11.5461
▁odklad	-11.5464
▁doufá	-11.5464
▁nepříjemn	-11.5465
▁Způsob	-11.547
▁Lan	-11.547
▁světle	-11.5479
stavovat	-11.548
natý	-11.5483
▁hodině	-11.5486
▁jakoukoli	-11.549
▁postoupil	-11.549
▁Obchod	-11.5492
▁uvědomil	-11.5497
▁výuk	-11.5497
▁uzavře	-11.5498
▁vyjadřuj	-11.55
rent	-11.55
▁opačné	-11.5502
▁použitím	-11.5505
ologové	-11.5506
ÁNÍ	-11.5508
přineslo	-11.5514
kazují	-11.5514
▁Morav	-11.5521
obyčejně	-11.5523
zek	-11.5525
nikat	-11.5527
vědčí	-11.5536
▁párů	-11.5539
▁nedoved	-11.5543
hledné	-11.5547
▁odporu	-11.5555
▁Vysok	-11.5557
▁Kraj	-11.5561
▁zbytečný	-11.5562
podivu	-11.5565
▁síťové	-11.5565
▁Žádn	-11.5566
▁dokonč	-11.5568
eckém	-11.557
▁Opti	-11.5573
hodné	-11.5573
▁přírodovědeck	-11.5575
▁kritick	-11.5575
▁William	-11.5578
izovan	-11.558
▁široký	-11.5581
▁vyvinul	-11.5584
▁Temelín	-11.5586
▁vozidl	-11.5588
morav	-11.5589
▁totožn	-11.5591
▁slavn	-11.5592
čítat	-11.5593
▁znalost	-11.5593
▁projevují	-11.5594
▁hnízd	-11.5595
▁vzrostl	-11.5595
▁pocházejí	-11.5599
alba	-11.5599
▁absolvent	-11.56
▁Čtvrt	-11.5601
evropský	-11.5602
▁zjednoduš	-11.5603
▁ideál	-11.5603
▁Vznikl	-11.5605
▁kontinent	-11.5607
▁Alb	-11.5608
▁násilí	-11.561
▁Word	-11.561
▁cítím	-11.5611
▁cukr	-11.5611
▁terén	-11.5611
▁čtvereční	-11.5615
▁bytový	-11.5617
▁tratí	-11.5617
▁psa	-11.5617
▁period	-11.562
▁vyhlídk	-11.5622
▁rytíř	-11.5622
▁připomínk	-11.5622
▁dohad	-11.5624
▁lekto	-11.5626
svědčuje	-11.5628
▁vlast	-11.5628
hlížel	-11.5628
▁61	-11.5631
▁59	-11.5631
▁závislost	-11.5631
▁autorit	-11.5635
▁uplatňuj	-11.5635
▁nadějn	-11.5636
▁badatel	-11.564
92	-11.5641
▁použije	-11.5642
▁minima	-11.5643
▁Dět	-11.5644
▁infekc	-11.5645
členný	-11.5646
▁zaplacen	-11.5647
bezpeč	-11.5649
rovnání	-11.5656
▁hospod	-11.5656
▁pozván	-11.566
▁fenomén	-11.566
▁Son	-11.5661
mann	-11.5663
▁Určit	-11.5664
máhat	-11.5664
cházející	-11.5666
▁konstru	-11.5668
▁nalezl	-11.5669
▁reaktor	-11.567
▁sediment	-11.5671
▁měřit	-11.5671
▁penzi	-11.5673
živí	-11.5674
povídat	-11.568
▁Každé	-11.568
▁byrokrat	-11.5683
▁komunik	-11.5683
chybějí	-11.5686
▁úzk	-11.5686
▁zkušen	-11.5687
▁KSČ	-11.5688
▁Jenom	-11.5689
▁plošný	-11.569
▁východoevropský	-11.569
JPEG	-11.569
▁1983	-11.569
▁Austrálie	-11.569
▁Ludvík	-11.569
▁Maďarskem	-11.569
▁Mitterrand	-11.569
▁Návrat	-11.569
▁Pistol	-11.569
▁Saúdsk	-11.569
▁Vešker	-11.569
▁WWW	-11.569
▁archiv	-11.569
▁bankovnictví	-11.569
▁definice	-11.569
▁deklaraci	-11.569
▁domorodc	-11.569
▁důležitější	-11.569
▁federaci	-11.569
▁firmách	-11.569
▁fungování	-11.569
▁hardwarov	-11.569
▁infarkt	-11.569
▁interiér	-11.569
▁konfigurace	-11.569
▁konkurovat	-11.569
▁kvót	-11.569
▁literatuře	-11.569
▁marketingu	-11.569
▁nenávist	-11.569
▁novotvary	-11.569
▁nukleární	-11.569
▁odpovědět	-11.569
▁pojišťovnou	-11.569
▁problematice	-11.569
▁prozradil	-11.569
▁předpovědi	-11.569
▁přerozdělování	-11.569
▁přihlášen	-11.569
▁referát	-11.569
▁rekreaci	-11.569
▁rozsudk	-11.569
▁rubrice	-11.569
▁seskupení	-11.569
▁symplektick	-11.569
▁tiskáren	-11.569
▁tolerance	-11.569
▁trénovat	-11.569
▁vypráví	-11.569
▁vyžadovat	-11.569
▁zapomenout	-11.569
▁zaručit	-11.569
▁zodpovězen	-11.569
▁zákulisí	-11.569
▁Četrans	-11.569
▁špatnou	-11.569
▁Právo	-11.569
▁jednodušší	-11.569
▁kampaně	-11.569
▁mikrofon	-11.569
▁neškodn	-11.569
▁otazník	-11.569
▁populaci	-11.569
▁povolební	-11.569
▁předvánoční	-11.569
▁uvítal	-11.569
▁vláken	-11.569
▁vyslovit	-11.569
▁vzbudil	-11.569
▁účinné	-11.569
přízeň	-11.569
▁Ctrl	-11.569
▁Oldřich	-11.569
▁makléř	-11.569
▁praktik	-11.569
▁reagují	-11.569
▁Francií	-11.569
▁stráví	-11.569
▁ujistil	-11.569
▁Kurzy	-11.569
▁zastupuje	-11.569
▁Michel	-11.569
▁značku	-11.569
▁taxonomie	-11.569
▁vybojoval	-11.569
▁přehnan	-11.569
▁ustavující	-11.569
▁fází	-11.569
▁nabídek	-11.569
▁elementární	-11.569
▁plastik	-11.569
▁Prokop	-11.569
▁přípustn	-11.569
▁úložiště	-11.569
▁biochemi	-11.569
▁multi	-11.569
▁desek	-11.569
▁rozdělí	-11.569
▁Pivovar	-11.569
▁ovládací	-11.569
▁vrstva	-11.569
▁popředí	-11.569
▁rozvíjet	-11.569
▁uplatňován	-11.569
▁trasy	-11.569
▁dřevěné	-11.569
▁jednostrann	-11.569
▁oboustrann	-11.5691
▁rozsáhlejší	-11.5691
▁bezpečně	-11.5691
▁FBIS	-11.5691
▁realizace	-11.5691
▁poušti	-11.5691
▁učiní	-11.5691
▁Informace	-11.5691
▁střídají	-11.5691
▁zánět	-11.5691
▁Moravia	-11.5691
▁lázní	-11.5691
▁mediální	-11.5691
▁poptávku	-11.5691
▁komunikační	-11.5691
▁Soulu	-11.5691
▁léčbu	-11.5691
▁Super	-11.5691
▁češtiny	-11.5691
▁komunit	-11.5691
▁konsensus	-11.5691
▁dotaci	-11.5691
ford	-11.5691
▁zabránil	-11.5691
▁nepřesnost	-11.5691
▁robot	-11.5691
▁holub	-11.5691
▁Značn	-11.5691
▁šipk	-11.5692
▁bankrot	-11.5692
▁spotřeba	-11.5692
▁1976	-11.5692
▁fakticky	-11.5692
▁Nechci	-11.5692
▁sníh	-11.5692
▁doprovod	-11.5692
▁nominaci	-11.5692
▁toxické	-11.5692
▁Setkání	-11.5692
▁Cítí	-11.5692
▁kameny	-11.5693
▁faul	-11.5693
▁publikaci	-11.5693
▁Irák	-11.5693
▁ČSD	-11.5693
▁touží	-11.5693
▁vyprávěl	-11.5693
▁pestr	-11.5693
▁podobnou	-11.5694
symetri	-11.5694
▁líčí	-11.5695
▁všední	-11.5695
▁Vzá	-11.5695
▁distribuční	-11.5695
▁obchodovat	-11.5695
▁plaz	-11.5695
▁rolí	-11.5695
▁uheln	-11.5696
▁mezistátní	-11.5696
▁nepamatuj	-11.5696
▁produkcí	-11.5696
▁vystavuje	-11.5696
▁bál	-11.5696
▁dvoudenní	-11.5696
▁volající	-11.5697
▁faktorem	-11.5697
▁vynutil	-11.5698
▁Data	-11.5698
▁hepatocytů	-11.5698
▁stěžovat	-11.5698
▁kardinál	-11.5699
▁zajišťující	-11.5699
▁desetkrát	-11.57
▁umělci	-11.57
▁hospodaří	-11.57
▁nestátní	-11.57
▁stád	-11.5701
▁zimy	-11.5701
▁palubě	-11.5701
▁Kladně	-11.5701
▁spektra	-11.5701
▁tendence	-11.5701
▁vlasy	-11.5701
▁cestách	-11.5702
▁předloží	-11.5702
▁významnější	-11.5702
▁výšky	-11.5702
▁položen	-11.5703
▁ředitelství	-11.5703
▁vyhodnocení	-11.5703
▁dýcha	-11.5704
▁vysloužil	-11.5705
▁altruismus	-11.5706
▁připraví	-11.5707
▁ekonomikou	-11.5708
▁konání	-11.5708
▁odsoudil	-11.5709
▁přijatelná	-11.571
▁virus	-11.5711
znamenají	-11.5712
▁zelený	-11.5712
▁Svobodn	-11.5712
▁zatížení	-11.5712
▁pokrýt	-11.5713
▁zvířecí	-11.5713
▁komentátor	-11.5714
▁jednotlivce	-11.5714
▁nouze	-11.5714
▁pořádek	-11.5715
▁Vaš	-11.5715
▁hudbu	-11.5715
▁dosáhne	-11.5716
▁cokoli	-11.5716
▁prokázat	-11.5716
▁evropskou	-11.5716
▁vydávat	-11.5716
▁porod	-11.5717
▁uchazeč	-11.5718
ousek	-11.5718
▁pozorovatelé	-11.5719
▁analýze	-11.5719
▁nástupce	-11.572
▁pozoruhodné	-11.572
▁zeď	-11.572
▁vysílací	-11.572
▁zajímavost	-11.5721
▁řetězce	-11.5722
▁Číně	-11.5722
▁modelování	-11.5722
▁Kolumbi	-11.5723
▁pásmu	-11.5723
▁řádku	-11.5723
▁Lidový	-11.5724
▁vyhrát	-11.5725
▁obchodník	-11.5726
sloučenin	-11.5726
▁zjednodušen	-11.5726
▁sumu	-11.5726
▁ekonomiku	-11.5727
▁autobusem	-11.5727
▁přesností	-11.5727
▁různě	-11.5728
▁elektrod	-11.5728
▁soukromí	-11.5729
štění	-11.5729
▁vědce	-11.5729
▁krajině	-11.5729
▁dodavatelů	-11.573
▁Hel	-11.573
▁bon	-11.573
▁pomst	-11.573
▁Šlo	-11.5731
▁předkol	-11.5731
▁Olympi	-11.5731
▁oceánické	-11.5731
▁jistotou	-11.5732
▁pevnin	-11.5734
▁vyřazení	-11.5734
▁mlhy	-11.5734
▁Vstup	-11.5735
▁zmínil	-11.5735
▁podepsání	-11.5737
▁Domnívám	-11.5737
▁korunu	-11.5738
▁nuly	-11.5739
▁Nedo	-11.574
▁optimismu	-11.574
▁technickou	-11.5741
▁kurzů	-11.5741
kontroluje	-11.5742
▁směřující	-11.5742
▁středoevropské	-11.5742
▁nepřinesl	-11.5742
▁nedokáže	-11.5743
▁návštěvníky	-11.5745
▁neprav	-11.5745
▁ránu	-11.5745
▁hormonů	-11.5747
▁Chebu	-11.5748
▁statistick	-11.575
ovitých	-11.575
▁středověku	-11.5751
▁dopisů	-11.5751
▁vyloučeno	-11.5752
▁Alžběta	-11.5752
▁Bratinka	-11.5752
▁bránil	-11.5753
▁nepod	-11.5753
ert	-11.5754
▁diváky	-11.5754
▁výhodný	-11.5755
▁odstoupil	-11.5755
▁plen	-11.5755
dražit	-11.5756
▁zastává	-11.5756
náze	-11.5757
▁motorem	-11.5757
▁slavnosti	-11.5757
▁kalendářní	-11.5758
▁přispívají	-11.576
▁účinků	-11.5762
▁větru	-11.5762
▁Stor	-11.5763
▁kanály	-11.5764
▁pokladny	-11.5767
▁nositel	-11.5767
▁disciplíny	-11.5767
▁dán	-11.5768
▁rozpočtový	-11.5768
▁telefonů	-11.5769
▁řešil	-11.577
hodinový	-11.5771
▁listiny	-11.5774
▁sestaven	-11.5775
rovnávání	-11.5776
▁Francouzský	-11.5778
▁vybrali	-11.5779
▁zvykem	-11.578
▁stoupla	-11.5781
▁přístavu	-11.5781
▁citeln	-11.5782
▁dospělých	-11.5784
▁odvezl	-11.5787
▁autobusové	-11.5787
▁Anna	-11.5788
▁útvaru	-11.5788
▁Historick	-11.5791
▁aparátu	-11.5792
▁diplomatický	-11.5793
▁úhradu	-11.5797
▁vyloučení	-11.5797
▁vědecky	-11.5797
▁vzrostla	-11.5798
▁aplikacemi	-11.5799
▁Eli	-11.5799
▁opakuje	-11.5799
▁nevěděli	-11.58
▁městem	-11.5801
▁samotného	-11.5805
▁délky	-11.5806
▁vyhledá	-11.5806
▁etapa	-11.5808
▁návratnost	-11.5808
▁táhn	-11.5808
ativní	-11.5809
▁uvolni	-11.581
▁dozvěděli	-11.581
▁filmař	-11.581
▁pořádání	-11.5812
▁Alan	-11.5812
▁hosté	-11.5814
▁dodávat	-11.5814
▁šťastný	-11.5815
96	-11.5815
▁katalogu	-11.5815
▁Možnosti	-11.5816
▁zvolení	-11.5816
pec	-11.5816
sadili	-11.5817
▁válečný	-11.5818
▁dluhy	-11.5819
▁nastane	-11.582
▁ostrova	-11.5821
▁úspěšných	-11.5823
▁katastrofy	-11.5824
▁svěřil	-11.5825
▁titulem	-11.5826
▁druhých	-11.5826
▁Hilla	-11.5827
▁dramatick	-11.5827
▁přísné	-11.5827
▁Fakt	-11.5828
▁možnostech	-11.583
▁nahoře	-11.583
▁klesla	-11.5832
bytová	-11.5834
čková	-11.5834
▁černého	-11.5835
▁investici	-11.5835
díval	-11.5836
▁vysokým	-11.5837
▁nemáte	-11.584
▁odstupné	-11.584
lizace	-11.5841
▁liga	-11.5843
▁zúčastněný	-11.5843
▁nezávislosti	-11.5844
átory	-11.5844
▁tématu	-11.5844
▁Muži	-11.5844
▁hladinu	-11.5844
▁postaví	-11.5845
▁chaty	-11.5847
▁nejbližším	-11.5847
▁nazvané	-11.5848
▁proteinu	-11.5848
▁obchodníky	-11.585
ohled	-11.5851
▁dobrém	-11.5852
▁objevilo	-11.5854
trpěl	-11.5855
hodná	-11.5856
▁zoologick	-11.5858
▁ledu	-11.5858
psaný	-11.5858
▁rezervy	-11.5861
LET	-11.5862
▁horké	-11.5862
▁zločiny	-11.5862
▁tréninku	-11.5864
▁dovnitř	-11.5865
▁Avi	-11.5866
▁kulturu	-11.5867
▁kurzy	-11.5868
▁ověřit	-11.587
▁středo	-11.587
▁představila	-11.587
▁předák	-11.587
▁nepřímo	-11.5872
▁Šv	-11.5881
▁editoru	-11.5881
▁přítel	-11.5883
▁pohybů	-11.5884
▁nechtěli	-11.5888
▁radí	-11.5889
▁sub	-11.5891
▁zaměstnavateli	-11.5892
▁kanceláři	-11.5894
▁góly	-11.5897
▁generálním	-11.5899
▁založili	-11.5901
placení	-11.5902
▁jede	-11.5902
ALE	-11.5905
dávání	-11.5907
děláme	-11.5908
panuje	-11.5908
▁kursu	-11.5911
▁požádala	-11.5912
pracovala	-11.5918
▁Dne	-11.5918
UM	-11.592
▁podzimu	-11.5921
vydržel	-11.5924
atrně	-11.5926
▁vítězem	-11.5929
▁krásný	-11.5932
poškozené	-11.5933
hořel	-11.5933
▁zápasech	-11.5934
▁dotazy	-11.5936
▁nedělním	-11.5942
▁udělala	-11.5942
▁zastánc	-11.5944
▁bra	-11.5949
SO	-11.5953
▁zub	-11.5953
▁jasný	-11.5958
▁známy	-11.5958
▁krádež	-11.5958
▁Park	-11.5964
▁nabídla	-11.5965
▁vlastníky	-11.5966
čnosti	-11.5967
▁samém	-11.5968
pokládat	-11.5969
EP	-11.597
▁fyzik	-11.5972
příště	-11.5978
vanou	-11.598
▁dotazu	-11.598
▁lebk	-11.5982
slyš	-11.5985
▁rock	-11.5987
▁osobním	-11.5988
▁nacházejí	-11.599
▁Černé	-11.5991
▁dokonalý	-11.5995
▁přiměřen	-11.5996
▁logik	-11.5998
míněn	-11.6002
▁českými	-11.6002
▁cizím	-11.6004
▁českému	-11.6004
▁Mont	-11.6005
čištění	-11.6005
▁knihovn	-11.6006
▁kapacita	-11.6007
▁Americké	-11.6007
▁Jejím	-11.6011
obec	-11.6011
méno	-11.6014
▁Perské	-11.6016
▁krátkém	-11.6017
▁díle	-11.6018
tržení	-11.6021
▁majetkové	-11.6023
hradil	-11.6024
ovská	-11.6025
▁vyroben	-11.6026
▁královské	-11.6034
který	-11.6035
▁nacházel	-11.6036
▁upravené	-11.6036
▁měnil	-11.6039
▁disky	-11.6041
táče	-11.6045
▁Janov	-11.6046
▁následné	-11.6049
▁Prof	-11.6049
bez	-11.6057
▁umělý	-11.6059
▁Spíš	-11.606
pravicov	-11.6061
▁nařídil	-11.6062
▁Casimir	-11.6063
▁poradenské	-11.6066
▁nedovol	-11.6067
kupuje	-11.6068
▁obcích	-11.6069
rý	-11.6069
▁nedělá	-11.607
▁bitv	-11.6071
▁dosáhli	-11.6073
▁trávi	-11.6074
▁obecný	-11.6076
▁vypracoval	-11.6082
▁maso	-11.6083
▁řešen	-11.6084
loha	-11.609
▁moderního	-11.609
▁dopadl	-11.6091
▁časy	-11.6091
▁vložil	-11.6092
▁distribu	-11.6094
zkoumat	-11.6098
▁starších	-11.61
▁náboženský	-11.61
▁Borise	-11.6105
▁vrcholové	-11.6107
▁pravým	-11.6107
▁kapitol	-11.6109
▁jednotn	-11.6109
▁vytvořené	-11.611
▁budoucím	-11.6114
▁jakosti	-11.6114
▁ohni	-11.612
▁doprav	-11.612
▁prodával	-11.6121
▁4000	-11.6136
soci	-11.6143
▁osobou	-11.6144
▁dostával	-11.6145
▁spolehliv	-11.6152
▁Výstav	-11.6154
▁Mladiče	-11.6159
četné	-11.616
▁Bud	-11.6163
▁velitele	-11.6165
▁socialist	-11.6173
▁předků	-11.6182
▁překonal	-11.6183
▁mužem	-11.6184
▁poloh	-11.6186
▁nabízené	-11.6187
▁faktur	-11.6188
▁sobotním	-11.6191
šan	-11.6192
▁květ	-11.6192
▁slušný	-11.6195
▁Druh	-11.6199
čov	-11.62
▁divák	-11.6209
▁prostý	-11.6213
ocel	-11.6213
ckým	-11.6215
▁obrovsk	-11.6217
▁podrobně	-11.6217
▁poražen	-11.6219
káže	-11.622
▁Bab	-11.6227
▁vymez	-11.6228
muslimské	-11.6229
▁zmizel	-11.623
▁Podpor	-11.6236
▁Daně	-11.6239
▁uzavřený	-11.6244
▁chyt	-11.6244
▁189	-11.625
▁vrácen	-11.6252
▁strašn	-11.6254
jednává	-11.626
▁prah	-11.626
▁ovlivnil	-11.6263
▁jednáním	-11.6264
▁udělen	-11.6264
▁splněn	-11.6267
▁Hans	-11.6273
▁Hill	-11.6273
hrával	-11.6273
NU	-11.6273
▁Děl	-11.6274
drobnější	-11.6279
malý	-11.6279
▁peče	-11.6282
▁způsobeno	-11.6282
ůbec	-11.6282
▁poplatník	-11.6287
rně	-11.629
▁racionální	-11.6291
konaly	-11.6296
▁zveřejnil	-11.6298
▁Tureck	-11.63
▁pozic	-11.6301
▁poly	-11.6304
▁žádného	-11.6304
▁nemovitost	-11.6305
vlastn	-11.6314
▁pouč	-11.6318
1972	-11.632
▁Začátk	-11.632
luje	-11.6322
▁spustí	-11.6322
▁Sam	-11.6323
▁poslání	-11.6324
▁radio	-11.6325
▁něčem	-11.6325
▁Skutečn	-11.6327
▁problémům	-11.6327
▁chrání	-11.633
▁interval	-11.6331
▁ovládá	-11.6331
uad	-11.6332
střílel	-11.6333
▁myš	-11.6334
▁spravedlnost	-11.6335
▁slavnost	-11.6337
▁elektřin	-11.6338
▁Jir	-11.6341
▁architektur	-11.6341
▁případném	-11.6342
▁ukazatel	-11.6346
hé	-11.6346
▁poskytován	-11.6348
▁verzí	-11.6348
▁optim	-11.6349
▁zlat	-11.6349
▁zklamán	-11.6351
▁Las	-11.6352
gramů	-11.6353
▁propojen	-11.6356
platila	-11.6357
▁53	-11.6357
vlas	-11.6357
▁televizním	-11.6357
▁zatčen	-11.6359
knout	-11.6359
▁naplněn	-11.6359
▁Hodn	-11.6359
▁Sarajev	-11.6361
▁tržb	-11.6362
▁odebíra	-11.6362
▁honorář	-11.6365
▁Bob	-11.6366
▁principů	-11.6366
▁bilanc	-11.6366
▁Červen	-11.6367
▁Dohod	-11.6367
▁charakterizova	-11.6367
▁nemocné	-11.6368
▁Víc	-11.6368
▁Míst	-11.6369
bitový	-11.6369
▁Ken	-11.6372
▁dovednost	-11.6373
▁doporučen	-11.6374
▁vynález	-11.6374
▁zvyšují	-11.6374
podnik	-11.6377
ografické	-11.638
▁odvet	-11.638
▁bývalým	-11.6381
▁fundamentalist	-11.6381
▁mm	-11.6383
nutil	-11.6384
▁kilogram	-11.6385
▁TV	-11.6385
vaná	-11.6392
▁průvod	-11.6392
▁sexu	-11.6393
▁teplá	-11.6395
▁pohřeb	-11.6395
▁srovnateln	-11.6397
▁identifik	-11.6399
▁učit	-11.6402
▁vycházejí	-11.6403
▁Digital	-11.6404
▁SPIRIT	-11.6404
▁databáze	-11.6404
▁inzulín	-11.6404
▁komisař	-11.6404
▁komodit	-11.6404
▁milisekund	-11.6404
▁podezřelý	-11.6404
▁poštovní	-11.6404
▁velvyslanec	-11.6404
▁Černomyrdin	-11.6404
▁Akademie	-11.6404
▁Albertville	-11.6404
▁Bratislavy	-11.6404
▁Delphi	-11.6404
▁General	-11.6404
▁Hospodářsk	-11.6404
▁Kuvajt	-11.6404
▁Netanjahu	-11.6404
▁Němce	-11.6404
▁Princip	-11.6404
▁Pálffy	-11.6404
▁Reichel	-11.6404
▁TWA	-11.6404
▁Teplice	-11.6404
▁Vynikající	-11.6404
▁brožur	-11.6404
▁bulharsk	-11.6404
▁databázi	-11.6404
▁dveřmi	-11.6404
▁emitent	-11.6404
▁finálové	-11.6404
▁havárii	-11.6404
▁holding	-11.6404
▁informuje	-11.6404
▁injekc	-11.6404
▁kanalizací	-11.6404
▁katalyzátor	-11.6404
▁komedie	-11.6404
▁kompetencí	-11.6404
▁lahví	-11.6404
▁lehký	-11.6404
▁lidstvo	-11.6404
▁nechybí	-11.6404
▁nesrovnateln	-11.6404
▁nosorožců	-11.6404
▁novorozen	-11.6404
▁obyvatelstvo	-11.6404
▁odpolední	-11.6404
▁olomoucké	-11.6404
▁omezit	-11.6404
▁pohodlné	-11.6404
▁pojišťoven	-11.6404
▁pojišťovně	-11.6404
▁portfeje	-11.6404
▁poválečn	-11.6404
▁pořizovací	-11.6404
▁pátku	-11.6404
▁přísluší	-11.6404
▁raketoplán	-11.6404
▁sféře	-11.6404
▁splátek	-11.6404
▁stadiu	-11.6404
▁tekutin	-11.6404
▁trénuj	-11.6404
▁těhotenství	-11.6404
▁vrtulník	-11.6404
▁vyčerpán	-11.6404
▁zahájit	-11.6404
▁zakázek	-11.6404
▁zaručuje	-11.6404
▁zdůraznit	-11.6404
▁zneužívání	-11.6404
▁zopakoval	-11.6404
▁zpracovává	-11.6404
▁záruční	-11.6404
▁účinnou	-11.6404
▁železnice	-11.6404
▁Dokument	-11.6404
▁SGI	-11.6404
▁Student	-11.6404
▁přeplněn	-11.6404
▁severozápad	-11.6404
▁smířit	-11.6404
▁srbské	-11.6404
▁stěžuje	-11.6404
▁Československý	-11.6404
▁chystají	-11.6404
▁kultuře	-11.6404
▁odstavec	-11.6404
▁tvořiv	-11.6404
▁železné	-11.6404
▁Zajímal	-11.6404
▁podepsat	-11.6404
▁Automatick	-11.6404
▁Holandsk	-11.6404
▁James	-11.6404
▁dávek	-11.6404
▁nejblíže	-11.6404
▁netrpěliv	-11.6404
▁nikomu	-11.6404
▁někomu	-11.6404
▁Kadlec	-11.6404
▁loupež	-11.6404
▁svrchované	-11.6404
▁Prahou	-11.6404
▁odhalit	-11.6404
▁přetížen	-11.6404
▁Mlýn	-11.6404
▁poznámky	-11.6404
▁úchyt	-11.6404
▁prováděl	-11.6404
▁umírněn	-11.6404
▁mutací	-11.6404
▁PŘI	-11.6404
▁Fuchs	-11.6405
LSNS	-11.6405
▁modré	-11.6405
▁něčeho	-11.6405
▁Louis	-11.6405
▁Zpráv	-11.6405
▁ceremoniál	-11.6405
▁vybudoval	-11.6405
▁Bohuslav	-11.6405
▁FMV	-11.6405
▁Zdravotn	-11.6405
▁Front	-11.6405
▁formálně	-11.6405
▁mocenské	-11.6405
▁hokejistů	-11.6405
▁dědeček	-11.6405
▁nedaleké	-11.6405
▁fotografií	-11.6405
▁Účastníci	-11.6405
▁implantát	-11.6405
▁chleba	-11.6405
▁paměť	-11.6405
▁legendární	-11.6405
▁lákav	-11.6405
▁kapsy	-11.6405
▁podporoval	-11.6405
▁stromeček	-11.6405
▁Samotn	-11.6405
▁lehko	-11.6405
▁diktátor	-11.6405
▁Kouba	-11.6405
▁usedl	-11.6405
▁Opava	-11.6405
hánějí	-11.6405
▁nazvat	-11.6405
▁jízdenk	-11.6405
hrádk	-11.6405
▁neuron	-11.6405
▁vyhořelé	-11.6405
▁Týden	-11.6405
▁nejsme	-11.6405
▁Život	-11.6405
▁adaptace	-11.6405
▁zmizí	-11.6405
▁nepodaří	-11.6405
▁pojmu	-11.6405
▁1979	-11.6405
▁kopií	-11.6405
▁Zápas	-11.6405
▁Hledá	-11.6405
▁písmo	-11.6405
▁transport	-11.6405
▁princ	-11.6405
▁málokdo	-11.6405
▁štědr	-11.6405
▁účinnější	-11.6405
▁Muze	-11.6406
▁stimulaci	-11.6406
▁Ježek	-11.6406
▁oblouk	-11.6406
▁Bartoš	-11.6406
▁Následující	-11.6406
▁ležel	-11.6406
▁rovný	-11.6406
▁nikam	-11.6406
▁psy	-11.6406
▁vejce	-11.6406
▁Španělsku	-11.6406
▁jinam	-11.6406
▁ultra	-11.6406
▁lacin	-11.6406
▁registrační	-11.6406
▁odezv	-11.6406
▁1970	-11.6406
▁nájezd	-11.6407
▁protestant	-11.6407
▁zády	-11.6407
▁nikde	-11.6407
▁umělců	-11.6407
▁pískov	-11.6407
▁Suková	-11.6407
▁hraček	-11.6407
▁zranil	-11.6407
▁Jaw	-11.6407
vážil	-11.6407
▁KGB	-11.6407
▁republikánsk	-11.6407
▁kouření	-11.6407
▁posílit	-11.6408
▁stanovisku	-11.6408
▁starat	-11.6408
▁Januš	-11.6408
▁třídenní	-11.6408
▁Přenos	-11.6408
▁bohatší	-11.6408
▁Obavy	-11.6408
ovku	-11.6408
▁vyzkoušet	-11.6408
▁sněmu	-11.6408
▁vyhledávání	-11.6409
▁topení	-11.6409
▁Kováč	-11.6409
▁lékařství	-11.6409
▁koncept	-11.6409
▁Jágr	-11.6409
▁inteligence	-11.6409
▁odnětí	-11.6409
vracení	-11.6409
▁Stef	-11.6409
▁manželkou	-11.641
▁deště	-11.6411
▁potká	-11.6411
▁koncepčn	-11.6411
▁palet	-11.6411
▁pozorovatel	-11.6411
▁výsad	-11.6412
▁Dostál	-11.6412
▁články	-11.6412
přát	-11.6412
▁neznají	-11.6412
▁příloh	-11.6412
▁kolegové	-11.6412
▁překonání	-11.6412
▁Snah	-11.6412
▁vracel	-11.6413
▁řadič	-11.6413
▁Boha	-11.6413
▁deska	-11.6413
▁sloves	-11.6413
▁okně	-11.6413
▁zelené	-11.6413
stižen	-11.6414
▁způsobilosti	-11.6414
▁Indián	-11.6414
▁ordinace	-11.6415
▁odstoupení	-11.6415
▁jasná	-11.6415
▁přenáší	-11.6415
▁zkoumání	-11.6416
▁oběhové	-11.6416
árek	-11.6417
▁organismy	-11.6417
▁dostání	-11.6417
▁vyprš	-11.6417
▁vyrazil	-11.6418
▁konstantní	-11.6418
▁602	-11.6419
▁terč	-11.642
▁protín	-11.642
▁radikálně	-11.642
▁oběť	-11.6421
▁novinky	-11.6421
▁rozsáhlou	-11.6422
▁Ul	-11.6422
▁rozměry	-11.6423
▁sešla	-11.6423
▁France	-11.6423
▁ČESK	-11.6424
▁spolupracuje	-11.6424
▁koncov	-11.6424
▁nehraje	-11.6424
▁zařadit	-11.6424
▁křesťanské	-11.6424
▁sloučení	-11.6425
▁šancí	-11.6425
▁výměně	-11.6425
▁občanský	-11.6425
▁závazku	-11.6425
▁Dvou	-11.6426
▁nedají	-11.6426
formulovat	-11.6427
▁říční	-11.6427
▁odletěl	-11.6427
Edit	-11.6427
▁příznaky	-11.6427
▁Čína	-11.6427
▁půlnoci	-11.6428
▁stížností	-11.6428
▁známky	-11.6429
▁dodržovat	-11.643
▁regionů	-11.643
▁odhalení	-11.6431
▁plánuje	-11.6431
▁představovat	-11.6432
▁výměnou	-11.6433
▁Místopředsed	-11.6433
▁pitné	-11.6434
▁ropy	-11.6434
▁Open	-11.6436
▁nechut	-11.6436
extrémně	-11.6438
▁skoky	-11.6438
▁teroristický	-11.6438
▁činitelé	-11.6438
▁teoreticky	-11.6439
▁cla	-11.6439
▁stáj	-11.6439
▁Mnichově	-11.6439
▁ponechal	-11.644
▁Ren	-11.644
▁hudba	-11.644
▁neuvažuje	-11.6441
▁funkcionářů	-11.6441
▁svatého	-11.6441
▁bodech	-11.6443
▁basketbalist	-11.6443
▁Clintonová	-11.6443
▁dobrovolně	-11.6443
▁vlhkost	-11.6443
▁kosti	-11.6443
▁honoráře	-11.6444
▁dopravou	-11.6444
▁stručně	-11.6444
▁skrz	-11.6445
▁kříže	-11.6445
▁Dovol	-11.6447
▁zakládání	-11.6447
point	-11.6447
▁věcech	-11.645
▁směsi	-11.6451
▁Chorvatsku	-11.6451
▁prodejen	-11.6451
▁dostanete	-11.6451
▁kolena	-11.6452
▁rakouských	-11.6452
▁pětatřicet	-11.6452
▁mřížky	-11.6452
▁předpokladů	-11.6453
▁trhů	-11.6454
▁vídeňské	-11.6454
▁znakem	-11.6454
▁soukromá	-11.6457
▁Kos	-11.6457
▁lokality	-11.6457
▁Střední	-11.6458
▁sochař	-11.6458
▁zklamání	-11.6458
▁zdálo	-11.6459
▁vnímá	-11.646
▁neshody	-11.646
▁Bonnu	-11.6461
▁psací	-11.6461
▁pojmem	-11.6461
▁zpožděním	-11.6462
▁vlastnostmi	-11.6462
▁etapu	-11.6462
▁kůry	-11.6463
▁zájezdů	-11.6464
▁tématem	-11.6465
▁publikum	-11.6468
▁Krajin	-11.6468
▁pleti	-11.647
▁drsn	-11.647
▁teplotou	-11.6471
▁porážky	-11.6471
▁vzdálený	-11.6472
▁nervové	-11.6472
▁záchranu	-11.6473
▁podob	-11.6473
smluvně	-11.6474
▁větě	-11.6474
▁jednorázové	-11.6474
▁Výborný	-11.6474
▁provádění	-11.6474
▁celo	-11.6474
▁buněčné	-11.6475
SOU	-11.6476
MW	-11.6478
▁Con	-11.6478
▁hrací	-11.6478
▁thajské	-11.6479
▁uloženy	-11.6482
zemědělská	-11.6482
▁symbolem	-11.6483
▁lidskou	-11.6484
▁připravenost	-11.6485
▁čtverečních	-11.6485
▁spořitelny	-11.6487
▁Strany	-11.6488
▁paláci	-11.6488
▁činitelů	-11.6489
▁organismus	-11.6489
▁kostele	-11.649
▁většinový	-11.649
▁POD	-11.6492
▁popel	-11.6493
▁kyseliny	-11.6493
▁sovět	-11.6493
▁kostr	-11.6493
▁hormony	-11.6496
▁pochopili	-11.6496
▁programech	-11.6497
▁popsal	-11.6498
▁Adam	-11.6499
▁gólem	-11.6501
▁Západní	-11.6501
▁působnost	-11.6502
▁ptá	-11.6502
▁kolegům	-11.6504
▁Výkon	-11.6504
schová	-11.6504
▁náhrada	-11.6505
▁nepříznivý	-11.6506
▁spuštěn	-11.6506
▁Kanady	-11.6508
▁rohu	-11.651
▁zmizela	-11.6511
▁přestupu	-11.6511
▁Brod	-11.6513
▁autobusu	-11.6513
▁kdybych	-11.6513
▁zajišťoval	-11.6516
▁umožnilo	-11.6521
▁ceníku	-11.6526
▁startem	-11.6526
▁použito	-11.6526
▁okolnosti	-11.6528
▁navázal	-11.653
▁nemůžete	-11.653
▁obdobím	-11.6532
▁kontaktů	-11.6533
▁hezké	-11.6535
▁výměna	-11.6535
▁Jelcinovi	-11.6536
▁jakýkoli	-11.6538
obr	-11.6541
▁skladby	-11.6541
▁diskety	-11.6543
▁dovedl	-11.6545
běhnout	-11.6546
čínsk	-11.6546
▁teplotu	-11.6546
plyn	-11.6548
▁částech	-11.6549
▁Vysoké	-11.655
▁had	-11.655
▁boty	-11.6553
▁animac	-11.6555
poskytla	-11.6555
▁záznamy	-11.6556
výší	-11.6556
▁náhradník	-11.6558
▁Firmy	-11.6559
▁pokusili	-11.656
▁mimořádného	-11.656
žívají	-11.656
▁klientům	-11.656
▁svazk	-11.6561
▁schopný	-11.6564
1%	-11.6566
▁Řím	-11.6567
▁oslavil	-11.6567
▁dluhu	-11.6568
▁hrobu	-11.6568
▁přestáv	-11.657
▁Západoevropsk	-11.6571
▁listopad	-11.6572
▁Bulharsk	-11.6573
▁čerstvé	-11.6573
▁novinka	-11.6574
▁měnící	-11.6575
▁kancelářské	-11.6576
▁zničen	-11.6577
▁kamenné	-11.6579
▁vkládání	-11.6581
▁nastává	-11.6581
▁hrdina	-11.6582
▁odhadů	-11.6585
▁ostré	-11.6586
kolej	-11.6591
▁Mars	-11.6591
OT	-11.6593
▁dohodnuté	-11.6595
▁trendy	-11.6596
▁slab	-11.6596
▁počítal	-11.6596
▁poločas	-11.6601
▁návrhář	-11.6603
▁kult	-11.6603
▁kulturním	-11.6604
▁olympijském	-11.6605
uživatelské	-11.6606
▁útoky	-11.6607
bov	-11.6608
▁zúčastnili	-11.6608
▁odvod	-11.6608
konkurenceschopn	-11.6611
▁účastí	-11.6613
▁dobrým	-11.6621
socialistický	-11.6626
▁investory	-11.6627
▁desetiletích	-11.6627
▁lékařského	-11.6632
▁připravili	-11.6632
▁kapaliny	-11.6635
▁ČT	-11.6639
▁projevů	-11.6642
▁pout	-11.6646
▁nekonečn	-11.6649
terak	-11.6651
▁1:	-11.6652
▁třídu	-11.6654
▁pevn	-11.6656
▁Národního	-11.6656
▁objektem	-11.6658
▁nároku	-11.666
daná	-11.6666
▁způsobilo	-11.6667
▁zobrazen	-11.667
▁vhodným	-11.6674
▁manželů	-11.6675
▁dopisu	-11.6676
▁zasáhl	-11.6685
▁PR	-11.6686
▁Koš	-11.669
hradí	-11.6691
▁známého	-11.6692
▁předností	-11.6701
▁atletické	-11.6706
▁potvrdily	-11.6708
ČS	-11.6709
▁bezmocn	-11.6711
růstá	-11.6712
▁Gorbačova	-11.6713
▁nástrojem	-11.6713
▁podnikem	-11.6713
ložený	-11.6716
děluje	-11.6717
▁Nemám	-11.6719
▁tyči	-11.6721
▁divákům	-11.6722
▁akciový	-11.6724
▁studentům	-11.6725
▁chybou	-11.6727
▁čtyřlet	-11.6731
imochodem	-11.6732
▁zodpovědn	-11.6741
což	-11.6742
delov	-11.6746
ničím	-11.675
▁uvaž	-11.6757
▁poctiv	-11.6759
OLE	-11.6762
▁úvěru	-11.6764
▁dáma	-11.6766
▁úrokové	-11.6768
vojí	-11.677
ND	-11.677
metrové	-11.6773
▁šesté	-11.6776
▁specifický	-11.678
tex	-11.6784
▁lékařům	-11.6786
střih	-11.6787
▁majiteli	-11.6791
▁náhrad	-11.6791
▁ministry	-11.6794
lína	-11.6795
kladem	-11.6795
▁Dob	-11.68
běžně	-11.6802
ding	-11.6802
▁snížením	-11.6802
▁váhy	-11.6804
▁nasazen	-11.6805
členné	-11.6806
dvacetiletý	-11.6808
▁stavem	-11.6811
daň	-11.6812
▁iniciativ	-11.6812
▁přechodné	-11.6823
▁trestu	-11.6824
▁starým	-11.6826
▁provedené	-11.6831
▁Obsahuj	-11.6831
▁svalov	-11.6833
lít	-11.6834
▁samotn	-11.684
▁chladné	-11.6842
ladit	-11.6844
▁vypadl	-11.6846
▁životem	-11.6849
vým	-11.6849
▁meziroční	-11.685
▁hmotné	-11.6853
▁výtvarný	-11.6858
▁tenisový	-11.6862
▁čestné	-11.6863
▁tepeln	-11.6863
ality	-11.6871
▁vstoupí	-11.6879
▁chemick	-11.6879
nesla	-11.6881
▁měkký	-11.6881
vládnout	-11.6883
▁pětadvacet	-11.6888
svit	-11.6891
▁očekávaný	-11.6891
▁červený	-11.6892
▁sluš	-11.6893
▁minul	-11.6893
▁vůdc	-11.6894
▁spí	-11.6895
▁přesnost	-11.6895
▁technic	-11.6896
IG	-11.6898
▁Bub	-11.6902
rodil	-11.6905
▁1300	-11.6907
léhá	-11.6908
▁zvukový	-11.6908
▁kolečk	-11.6919
▁pouhým	-11.6919
▁bezplatn	-11.6921
▁prezidentské	-11.6926
kdy	-11.6929
▁závazný	-11.6932
soudí	-11.6933
▁známost	-11.6935
1992	-11.6939
žití	-11.694
které	-11.6947
▁kated	-11.6947
nucen	-11.6949
▁Nebude	-11.6954
▁chodil	-11.6956
▁léč	-11.6957
hlídce	-11.696
sát	-11.6968
[...]
