<unk>	0
<s>	0
</s>	0
<doc>	0
</doc>	0
<head>	0
</head>	0
<phr>	0
</phr>	0
▁	-1.7661
,	-3.37158
.	-3.51252
▁a	-4.45029
a	-4.48656
▁v	-4.49303
u	-4.55694
▁se	-4.60461
m	-4.65414
▁na	-4.69986
i	-4.79489
y	-4.79599
ch	-4.94511
▁je	-5.13328
▁z	-5.28502
▁s	-5.28614
ho	-5.29116
▁"	-5.32323
▁že	-5.38965
o	-5.39215
e	-5.44656
á	-5.46893
s	-5.57197
▁do	-5.58282
▁o	-5.60263
í	-5.62055
ou	-5.63356
em	-5.72575
é	-5.72781
ě	-5.73992
▁za	-5.74996
▁pro	-5.75794
t	-5.78884
▁po	-5.83298
ů	-5.85194
▁-	-5.90654
ž	-5.96471
▁k	-5.96675
to	-6.01985
▁V	-6.05748
▁to	-6.09047
▁ve	-6.1191
▁(	-6.12556
mi	-6.17056
▁by	-6.22554
ý	-6.22915
▁i	-6.24577
z	-6.28593
▁ale	-6.32777
▁od	-6.33409
>	-6.34182
ní	-6.36568
▁si	-6.41945
▁při	-6.45335
l	-6.46965
d	-6.47558
p	-6.48415
v	-6.49773
▁jsou	-6.51724
ých	-6.52583
▁jako	-6.53405
ně	-6.53823
▁ne	-6.55416
▁které	-6.56906
k	-6.6077
▁S	-6.61352
r	-6.61612
)	-6.62955
▁však	-6.64662
te	-6.66755
ce	-6.66812
▁:	-6.68344
▁tak	-6.69172
▁vy	-6.69486
me	-6.71947
▁který	-6.76244
x	-6.8027
na	-6.81533
▁Po	-6.82204
ka	-6.82814
▁nebo	-6.84446
▁jeho	-6.85298
▁bude	-6.86194
?	-6.88736
li	-6.8939
b	-6.89447
▁A	-6.90365
la	-6.92463
▁jen	-6.92605
ku	-6.9375
▁před	-6.94396
né	-6.9455
ná	-6.95883
ové	-6.992
č	-6.99211
▁než	-7.00499
▁má	-7.01085
ci	-7.01408
▁Na	-7.02185
▁Z	-7.05509
▁už	-7.05649
ého	-7.0569
▁aby	-7.08907
mu	-7.09992
▁jak	-7.10249
▁byl	-7.10981
n	-7.11185
ky	-7.11917
▁jejich	-7.12536
le	-7.13451
▁jsem	-7.13868
▁být	-7.14089
▁až	-7.15455
ech	-7.16408
š	-7.16652
lo	-7.16989
▁která	-7.18578
▁také	-7.19274
it	-7.1944
▁Je	-7.21035
▁jsme	-7.22545
▁O	-7.23575
▁podle	-7.23614
▁<	-7.23685
▁P	-7.24816
j	-7.24846
▁ze	-7.25558
st	-7.25684
h	-7.25806
uje	-7.27227
▁K	-7.30519
c	-7.30644
ovat	-7.30708
▁co	-7.3293
ek	-7.35114
▁pře	-7.35397
▁není	-7.35898
▁mezi	-7.37995
že	-7.38962
▁bylo	-7.39146
ni	-7.39488
nou	-7.39966
▁ani	-7.40501
▁své	-7.40719
ým	-7.4096
▁či	-7.4109
cí	-7.41243
▁ještě	-7.41959
▁již	-7.43006
▁když	-7.44021
en	-7.44071
▁může	-7.4478
ová	-7.45006
▁let	-7.45878
f	-7.46998
▁byla	-7.47224
ře	-7.4799
no	-7.4865
al	-7.48842
▁toho	-7.49106
ří	-7.50735
▁korun	-7.51081
kud	-7.51152
/	-7.52497
in	-7.52846
g	-7.53717
ný	-7.54841
).	-7.55552
ze	-7.55975
▁pak	-7.56024
▁pod	-7.57882
▁To	-7.5862
▁další	-7.58798
il	-7.59398
po	-7.5955
▁kteří	-7.59651
▁kde	-7.60052
▁bez	-7.60458
▁tím	-7.60801
▁Ne	-7.61024
ách	-7.62141
▁více	-7.6339
ování	-7.64091
ň	-7.6433
▁té	-7.64714
jí	-7.64761
ské	-7.65418
▁tedy	-7.65953
▁první	-7.6618
▁roku	-7.66222
ra	-7.67364
▁M	-7.68425
vá	-7.68887
on	-7.69672
ost	-7.69808
▁nich	-7.70874
ových	-7.72072
),	-7.72126
▁roz	-7.72314
ují	-7.72776
ne	-7.73264
ta	-7.74236
▁U	-7.75029
ř	-7.75293
▁mají	-7.75447
ko	-7.76538
▁Za	-7.76617
▁tu	-7.76873
ných	-7.77863
▁I	-7.7842
ovi	-7.78742
ům	-7.78919
pl	-7.79233
▁Do	-7.79331
ro	-7.79619
lu	-7.79671
▁kdy	-7.80245
▁roce	-7.80314
-	-7.80357
▁proti	-7.80565
▁pouze	-7.80588
vě	-7.807
▁musí	-7.80813
▁D	-7.80965
ov	-7.81301
ru	-7.8183
ti	-7.82418
▁tom	-7.82507
ři	-7.83923
▁tomu	-7.84038
▁H	-7.84176
▁J	-7.84403
▁ke	-7.85939
▁proto	-7.863
▁budou	-7.87367
▁li	-7.88041
▁nad	-7.88201
▁třeba	-7.88401
▁Pro	-7.88449
▁protože	-7.89724
cích	-7.8992
va	-7.9019
▁totiž	-7.90454
▁nás	-7.91261
el	-7.92549
▁lze	-7.92876
▁přes	-7.931
da	-7.93816
če	-7.93951
vý	-7.94758
je	-7.95521
or	-7.95578
kou	-7.95638
▁její	-7.95997
▁asi	-7.96356
▁měl	-7.97611
▁vlastní	-7.97639
▁byly	-7.97697
▁poslední	-7.97839
▁velmi	-7.97917
ny	-7.98203
▁zatím	-7.9849
▁řekl	-7.98885
at	-7.99097
nu	-8.00554
ví	-8.00638
děl	-8.01712
▁Při	-8.02812
▁včera	-8.03204
čí	-8.03268
ba	-8.04925
▁ob	-8.05029
ty	-8.05429
ový	-8.06298
D	-8.06302
ly	-8.06375
co	-8.06491
osti	-8.07139
▁T	-8.0734
▁všech	-8.07345
▁G	-8.08071
▁dnes	-8.08133
ma	-8.08513
▁firmy	-8.08606
▁ty	-8.09161
▁dva	-8.0952
lí	-8.10102
se	-8.10528
▁nej	-8.1086
▁především	-8.10928
▁Podl	-8.11005
ného	-8.11247
tr	-8.11496
▁tisíc	-8.11615
ri	-8.12251
či	-8.12589
lá	-8.12808
tě	-8.1282
er	-8.13388
▁případě	-8.13406
oval	-8.13521
M	-8.13821
ém	-8.13947
tu	-8.14144
▁'	-8.14286
de	-8.14384
vol	-8.14612
S	-8.14773
▁Ve	-8.14821
▁například	-8.15051
▁procent	-8.1584
vi	-8.1631
▁nám	-8.16673
▁rok	-8.17642
▁B	-8.17707
▁době	-8.18115
▁nyní	-8.18278
▁dvou	-8.1852
▁tři	-8.18932
▁mít	-8.19096
ově	-8.1956
re	-8.19809
ší	-8.19819
ích	-8.19843
ovou	-8.20031
▁ji	-8.20205
ha	-8.2119
▁jim	-8.23234
▁lidí	-8.23258
▁společnosti	-8.2347
ním	-8.23615
▁práce	-8.23655
▁jeden	-8.23794
▁mohou	-8.23925
▁zda	-8.23946
▁stále	-8.24247
an	-8.24262
▁těchto	-8.2487
ami	-8.24887
▁Co	-8.24925
▁ovšem	-8.24998
▁všechny	-8.25265
ků	-8.25618
kr	-8.25802
5	-8.26227
právě	-8.26436
ská	-8.26797
hr	-8.27502
▁několik	-8.27515
▁L	-8.27649
▁F	-8.28704
T	-8.2906
▁kterou	-8.29378
▁což	-8.29871
K	-8.29992
du	-8.30064
...	-8.30147
ými	-8.30385
si	-8.30697
2	-8.30859
▁něm	-8.30894
ového	-8.31486
3	-8.31669
▁tento	-8.32164
ry	-8.32405
by	-8.32525
ský	-8.33104
od	-8.33482
ká	-8.34015
tá	-8.3407
za	-8.34095
▁Ale	-8.34437
▁možné	-8.34451
P	-8.34507
▁jednání	-8.3454
R	-8.34723
nost	-8.35101
ám	-8.35138
▁České	-8.35582
I	-8.36096
▁C	-8.36244
▁Jak	-8.36277
▁dalších	-8.36494
us	-8.3685
cela	-8.36892
▁nové	-8.36908
hl	-8.37027
B	-8.3747
ních	-8.37961
ží	-8.38026
▁Od	-8.38247
spo	-8.38865
▁jde	-8.38934
▁měla	-8.39008
▁ČR	-8.39024
▁kdo	-8.39171
ť	-8.39476
▁R	-8.39623
4	-8.39699
▁Praze	-8.39796
▁zejména	-8.40384
▁základní	-8.40577
téměř	-8.40697
ských	-8.4073
L	-8.40766
▁větší	-8.40841
▁zařízení	-8.41157
▁naše	-8.41188
▁svou	-8.41397
še	-8.41529
▁de	-8.4165
ující	-8.41887
ského	-8.4272
pr	-8.42805
▁Proto	-8.43163
ným	-8.43231
▁Ko	-8.43247
dr	-8.43295
ve	-8.43331
▁strany	-8.43428
ova	-8.43731
▁naši	-8.44656
lé	-8.44784
▁možnost	-8.44824
▁prostředí	-8.45179
kem	-8.45334
▁letech	-8.45949
▁sice	-8.46278
nější	-8.46493
▁dvě	-8.46845
▁Kdy	-8.46878
▁svého	-8.47204
V	-8.47329
▁každý	-8.47815
7	-8.47962
N	-8.48163
ec	-8.48187
▁jiné	-8.48279
▁svých	-8.48289
ení	-8.48873
et	-8.48916
▁nejen	-8.49498
ar	-8.49531
tra	-8.49831
▁část	-8.49865
bu	-8.50026
ji	-8.50187
▁místo	-8.51121
ální	-8.51319
tí	-8.51556
is	-8.5165
▁mě	-8.51776
▁uvedl	-8.5232
▁světa	-8.52392
▁tomto	-8.52538
pa	-8.52578
w	-8.53054
ští	-8.53197
▁země	-8.53556
ši	-8.53557
ím	-8.53699
▁Tak	-8.5374
A	-8.53792
▁Š	-8.53922
▁10	-8.54085
▁druhé	-8.54391
os	-8.55651
▁000	-8.55772
▁ú	-8.55786
▁zde	-8.55842
▁čas	-8.56157
ace	-8.56249
▁milionů	-8.56286
▁stát	-8.56547
▁systém	-8.56653
C	-8.57009
▁nic	-8.57301
▁něco	-8.57522
▁vlády	-8.57598
▁svým	-8.57847
ců	-8.58297
aci	-8.58595
ické	-8.58778
ili	-8.59011
▁Vy	-8.59084
▁stejně	-8.59123
▁říká	-8.59396
▁1	-8.59431
ter	-8.59706
1	-8.59966
▁některé	-8.60605
▁kolem	-8.60667
dy	-8.60981
▁ceny	-8.61239
E	-8.61446
val	-8.61695
▁mu	-8.61963
dí	-8.61971
▁zákona	-8.62089
▁zboží	-8.62273
ob	-8.62422
▁tam	-8.62927
pra	-8.63022
nosti	-8.63269
lit	-8.63469
▁pracovní	-8.63762
br	-8.63815
▁zákon	-8.63878
▁oblasti	-8.64168
6	-8.64479
▁dobře	-8.6471
ované	-8.64804
▁příliš	-8.64821
▁patří	-8.64935
hu	-8.64968
ing	-8.65286
▁finanční	-8.65407
ila	-8.65427
ur	-8.65521
▁svůj	-8.65602
▁dosud	-8.65609
▁svět	-8.65837
▁2	-8.65904
▁některých	-8.66028
▁práci	-8.66281
▁3	-8.66432
▁neu	-8.6649
▁pří	-8.66522
▁firma	-8.66622
8	-8.66674
▁zemí	-8.66679
str	-8.66805
vr	-8.67366
▁byli	-8.67382
Z	-8.67453
9	-8.67467
▁vůbec	-8.67707
▁opět	-8.67984
▁E	-8.68086
pe	-8.68187
▁několika	-8.68329
stav	-8.68575
ají	-8.68731
▁sociální	-8.68878
▁vždy	-8.68996
lou	-8.69017
▁období	-8.69395
▁nepo	-8.69748
▁Jan	-8.69927
ční	-8.70091
▁neboť	-8.70245
0	-8.7082
▁nez	-8.70958
es	-8.71166
fi	-8.71603
Á	-8.71881
vy	-8.7233
zí	-8.72841
▁ten	-8.73487
▁střední	-8.73588
▁nejsou	-8.73707
▁často	-8.73999
ační	-8.74131
▁prezident	-8.74157
▁%	-8.74233
▁vyšší	-8.74258
ol	-8.74356
let	-8.74508
▁nemá	-8.74871
▁jež	-8.74998
▁19	-8.75125
▁N	-8.75191
▁systému	-8.75329
▁nevy	-8.75732
▁program	-8.75857
▁dokonce	-8.75931
00	-8.76095
▁jste	-8.76318
▁přímo	-8.76532
▁hodin	-8.7669
▁USA	-8.76912
▁společnost	-8.77408
▁měli	-8.7752
▁sám	-8.7771
ější	-8.77776
▁Kč	-8.78256
▁Js	-8.78443
pat	-8.78507
ot	-8.78508
▁lidé	-8.78607
▁ředitel	-8.78687
▁celé	-8.7877
▁re	-8.78879
▁pět	-8.79116
▁části	-8.79118
▁W	-8.79222
▁doby	-8.79228
ací	-8.79415
▁nebude	-8.79529
ovali	-8.79655
během	-8.79726
▁obchodní	-8.79756
▁den	-8.79821
▁rovněž	-8.80149
▁níž	-8.80453
kon	-8.8056
▁vám	-8.80602
sp	-8.80633
▁čtyři	-8.80773
ovací	-8.80855
vod	-8.80904
▁informace	-8.80932
▁Ty	-8.81025
▁trhu	-8.81034
▁1992	-8.8119
▁sebe	-8.81347
rt	-8.81501
vat	-8.81606
▁nimi	-8.81711
▁První	-8.81729
▁počet	-8.81766
▁vše	-8.8185
F	-8.82113
vůli	-8.82185
včetně	-8.82527
zřejmě	-8.82768
▁půl	-8.82824
▁situace	-8.82924
▁takže	-8.83053
vo	-8.83377
skou	-8.83426
▁zahraničí	-8.83732
bě	-8.83863
▁mohl	-8.84296
▁6	-8.84537
mat	-8.84675
▁státní	-8.84838
sk	-8.84981
▁jedn	-8.85213
sti	-8.85688
▁méně	-8.85946
op	-8.8595
tato	-8.85989
%	-8.86271
▁např	-8.86279
▁ministr	-8.86371
▁současné	-8.86378
O	-8.8643
ání	-8.86475
▁Evropy	-8.86613
▁peníze	-8.86613
▁řešení	-8.86664
ú	-8.86734
sta	-8.86864
▁takové	-8.86936
▁nedo	-8.87008
čka	-8.8729
▁víc	-8.87464
▁Zatím	-8.87473
ad	-8.87583
▁mnoho	-8.87602
▁něj	-8.87932
U	-8.87933
▁5	-8.883
▁chce	-8.88306
▁největší	-8.88565
▁způsobem	-8.88577
nit	-8.88642
ud	-8.89044
▁velké	-8.89066
ovým	-8.89128
▁znamená	-8.89164
▁člověk	-8.89312
▁sto	-8.89333
▁snad	-8.89344
▁nes	-8.89453
▁spíše	-8.89561
▁české	-8.89667
▁jednotlivý	-8.89699
▁republiky	-8.89748
man	-8.89936
▁velký	-8.90226
▁rozdíl	-8.90495
ant	-8.90513
▁tří	-8.90702
ste	-8.90788
ga	-8.90818
▁navíc	-8.90879
▁rozhodnutí	-8.90892
▁přitom	-8.90916
▁dále	-8.90959
▁dobu	-8.91063
▁život	-8.91274
▁stav	-8.91431
▁vlastně	-8.91781
▁Před	-8.91832
▁Re	-8.91931
▁šest	-8.91939
▁mimo	-8.91985
▁problémy	-8.92038
▁jednoho	-8.92187
▁Te	-8.92204
▁dost	-8.92285
▁naopak	-8.92638
▁množství	-8.93082
ik	-8.93207
gr	-8.93472
▁naší	-8.94172
án	-8.94211
▁Ta	-8.94294
klad	-8.94334
há	-8.94591
▁zájem	-8.94626
té	-8.94634
▁Tr	-8.94653
▁letošní	-8.94754
zn	-8.94857
▁města	-8.94926
ali	-8.94944
▁skutečně	-8.94987
nout	-8.95014
▁Petr	-8.95032
ice	-8.95036
▁20	-8.95366
▁straně	-8.95629
▁návrh	-8.95658
▁Ro	-8.95685
▁řízení	-8.95777
▁většinou	-8.95789
▁znovu	-8.95797
▁zahraniční	-8.96061
▁zhruba	-8.96309
ovala	-8.96622
nov	-8.96689
▁pan	-8.96783
▁neza	-8.96897
ič	-8.96934
hled	-8.96985
pis	-8.97059
▁dlouho	-8.97159
ven	-8.97205
ního	-8.97274
▁životní	-8.97277
jší	-8.97314
▁jej	-8.97606
▁vláda	-8.97761
▁území	-8.98105
H	-8.98185
ck	-8.98262
▁platí	-8.983
▁jiných	-8.98563
▁Jiří	-8.98575
ul	-8.98684
▁soud	-8.98711
▁minut	-8.99054
▁nelze	-8.99083
▁zase	-8.99271
▁celý	-8.9935
ství	-8.99358
▁1.	-8.99385
▁Bo	-8.99479
rad	-8.99778
▁začal	-8.99797
▁bych	-8.99832
ev	-9.00451
▁letos	-9.00578
▁postup	-9.00609
▁spolu	-9.00733
ník	-9.00927
▁smlouvy	-9.00955
▁tzv	-9.0098
▁dolarů	-9.01011
▁Se	-9.01334
nik	-9.01451
▁pěti	-9.01675
▁osob	-9.02013
do	-9.02072
cen	-9.02224
▁Václav	-9.02262
▁jedné	-9.02317
▁Ma	-9.02549
ák	-9.02626
▁pomocí	-9.02643
▁lepší	-9.02903
▁obě	-9.03119
▁roky	-9.03459
▁činnosti	-9.03669
▁trh	-9.03733
▁prohlásil	-9.03947
sku	-9.03957
kl	-9.04169
stup	-9.04527
▁problém	-9.04584
▁Mo	-9.04612
▁Ch	-9.0483
▁způsob	-9.04853
men	-9.04922
▁Přesto	-9.04997
▁vás	-9.05291
▁jednou	-9.05343
▁4	-9.05475
▁moc	-9.05772
▁světě	-9.05866
▁různých	-9.05934
▁hlavní	-9.064
▁později	-9.06404
▁pa	-9.0682
▁St	-9.07078
▁státu	-9.07108
▁mezinárodní	-9.07244
▁nemůže	-9.07314
▁30	-9.0737
▁můžete	-9.07563
ův	-9.07856
▁vedení	-9.07857
▁ČSFR	-9.0794
ován	-9.08074
▁programu	-9.08355
▁bývalé	-9.08391
▁člověka	-9.08781
ském	-9.08837
▁Evropě	-9.08979
▁znám	-9.09283
▁podniku	-9.09421
▁chyb	-9.09422
▁skupiny	-9.0947
▁Pa	-9.09506
▁století	-9.0951
▁bo	-9.09728
kové	-9.09885
▁služby	-9.10029
nt	-9.10032
▁autor	-9.10101
▁věci	-9.10136
vedl	-9.10543
▁podíl	-9.10565
▁deset	-9.106
▁málo	-9.10649
▁Má	-9.10684
▁domácí	-9.10792
▁text	-9.10969
▁činnost	-9.10977
▁jaké	-9.11047
▁funkce	-9.11092
▁jinak	-9.11094
▁prý	-9.11158
▁mělo	-9.11594
▁zároveň	-9.1181
▁jedna	-9.11871
id	-9.11888
▁kole	-9.11901
žen	-9.12087
▁situaci	-9.12163
▁obou	-9.12701
▁dnešní	-9.12706
▁dobré	-9.12719
ber	-9.12743
:	-9.12915
hal	-9.13004
▁stran	-9.13122
▁možná	-9.13247
▁snímku	-9.13248
bou	-9.13434
▁škol	-9.13451
▁náklady	-9.13535
ném	-9.13621
▁stojí	-9.13796
be	-9.13968
▁100	-9.13971
▁přesto	-9.14065
▁jedno	-9.14182
▁prvním	-9.14648
▁místní	-9.14649
▁CD	-9.14699
▁cenu	-9.1504
▁máme	-9.15171
▁nových	-9.15261
▁tvrdí	-9.15271
▁měly	-9.1545
▁děti	-9.15451
▁1993	-9.15452
▁mohli	-9.15456
ář	-9.15483
▁vedoucí	-9.15546
▁firem	-9.15564
ovaných	-9.1571
▁Le	-9.15972
rod	-9.16011
ému	-9.16553
per	-9.16556
▁získat	-9.16571
▁Praha	-9.16571
olog	-9.16712
krát	-9.16823
▁La	-9.17025
ct	-9.17052
▁nejlepší	-9.17326
▁států	-9.17387
pro	-9.17552
▁Byl	-9.17608
čin	-9.17655
▁toto	-9.17668
▁majetku	-9.17704
▁nakonec	-9.17704
Í	-9.17717
▁Mar	-9.17737
▁těch	-9.17818
▁všechno	-9.17871
▁15	-9.17953
▁podnik	-9.18157
▁cen	-9.18207
▁kon	-9.18254
▁nikdy	-9.18279
up	-9.18456
▁Ob	-9.18501
▁11	-9.18902
gen	-9.18907
▁já	-9.18988
sko	-9.19059
▁právní	-9.19118
▁výši	-9.19282
▁premiér	-9.19324
▁podniků	-9.19462
vin	-9.19497
▁konce	-9.19738
▁svém	-9.1998
▁pár	-9.2005
▁di	-9.20242
ilo	-9.20248
▁lety	-9.20322
▁místě	-9.20363
ig	-9.20504
▁republik	-9.20609
▁vliv	-9.2064
kov	-9.20698
▁dříve	-9.20706
▁proč	-9.20806
▁obyvatel	-9.20852
ed	-9.20884
▁dne	-9.20889
dl	-9.20891
▁vody	-9.20912
▁nepři	-9.21015
as	-9.21075
▁třetí	-9.21156
▁možnosti	-9.21184
▁americké	-9.21207
hy	-9.21257
▁nového	-9.2128
▁Ka	-9.21323
▁dál	-9.21336
nutí	-9.21468
šlo	-9.21512
▁Prahy	-9.21775
ště	-9.21839
▁sobotu	-9.21841
G	-9.21927
nice	-9.2193
dob	-9.22033
ón	-9.2204
▁nebyl	-9.22211
▁7	-9.22287
▁stavu	-9.22342
▁nutné	-9.2237
tře	-9.22449
▁kdyby	-9.22473
nými	-9.22617
plat	-9.23135
▁bychom	-9.23242
▁osm	-9.23308
▁význam	-9.23434
▁týden	-9.23437
ner	-9.23504
▁parlamentu	-9.23649
▁předseda	-9.23661
jezd	-9.23896
▁Tento	-9.2441
▁přece	-9.24422
▁zemi	-9.24739
▁ministerstva	-9.24787
▁pohled	-9.2483
ač	-9.24907
▁provoz	-9.24956
▁Ten	-9.2506
ver	-9.25482
▁slov	-9.25504
dle	-9.25633
▁Tato	-9.2574
▁menší	-9.2592
▁obraz	-9.25946
▁prostor	-9.25959
▁informací	-9.26017
▁policie	-9.26017
▁všichni	-9.26017
▁organizace	-9.26018
▁samozřejmě	-9.26086
▁potom	-9.26091
▁zdravotní	-9.26123
koli	-9.26235
▁telefon	-9.26313
▁Není	-9.26338
▁Další	-9.26353
▁poté	-9.26448
▁rychle	-9.26605
tek	-9.26611
▁nikdo	-9.26641
▁můžeme	-9.26798
▁přístup	-9.26859
viz	-9.26895
▁nový	-9.27099
▁malé	-9.27151
RA	-9.27192
form	-9.27204
▁hlavně	-9.27273
▁poměrně	-9.27422
▁druhý	-9.27453
jde	-9.27611
CH	-9.27618
▁českých	-9.27723
▁cena	-9.27835
▁Kromě	-9.27892
▁nižší	-9.27897
íme	-9.28062
ran	-9.28087
▁dodal	-9.28183
▁věcí	-9.28254
les	-9.28338
▁připraven	-9.28342
▁původní	-9.28475
trochu	-9.28526
▁sdružení	-9.28545
▁prezidenta	-9.28549
▁něho	-9.28603
▁dvěma	-9.28615
rán	-9.2866
bl	-9.29205
mluv	-9.29243
▁8	-9.29412
nebo	-9.29512
sky	-9.29522
rn	-9.29546
ček	-9.29604
▁50	-9.2971
▁SSSR	-9.29803
▁sobě	-9.29811
▁efekt	-9.29827
▁Ú	-9.29903
▁Jana	-9.29929
▁25	-9.29981
ir	-9.30097
▁prohlášení	-9.30449
▁Mezi	-9.30458
▁čtyř	-9.30505
▁200	-9.30635
nes	-9.30758
ována	-9.30781
▁Jako	-9.30813
bychom	-9.3086
▁vývoj	-9.30976
▁podmínky	-9.31098
▁komise	-9.31098
▁Jestli	-9.31099
▁někdy	-9.31099
▁vítěz	-9.3114
▁žádné	-9.31148
šel	-9.31206
del	-9.31322
rů	-9.31353
ovém	-9.31377
čky	-9.31566
jich	-9.31669
ovaný	-9.31723
▁řád	-9.31767
▁14	-9.31843
▁večer	-9.31875
▁ex	-9.32001
▁základě	-9.32062
ící	-9.32122
ovy	-9.32143
▁výroby	-9.32409
▁zemích	-9.32487
▁kam	-9.32519
▁západní	-9.32563
▁Evropské	-9.32649
▁došlo	-9.32836
▁kromě	-9.32939
▁většina	-9.33072
NÍ	-9.3314
var	-9.33157
▁mnoh	-9.33194
▁13	-9.3324
▁čím	-9.33442
▁podporu	-9.33732
ic	-9.33934
▁místa	-9.33984
▁ostatní	-9.3399
▁plat	-9.34138
▁Ti	-9.34398
▁hned	-9.34419
▁určité	-9.34492
▁malý	-9.3456
dním	-9.34568
▁fakt	-9.34857
▁šesti	-9.34898
▁mnoha	-9.34916
▁peněz	-9.35085
prve	-9.35089
▁tvoří	-9.35091
▁výrazně	-9.35136
▁nejvyšší	-9.35182
van	-9.35287
▁40	-9.35302
fr	-9.35407
▁života	-9.35552
▁obchod	-9.35605
▁miliard	-9.35619
iny	-9.35727
▁základ	-9.3574
▁tehdy	-9.35765
▁rozpočtu	-9.35773
▁jich	-9.3582
▁názor	-9.35953
kla	-9.35974
▁Al	-9.3599
▁pokus	-9.36034
▁jistě	-9.36036
▁zdá	-9.3612
mohlo	-9.36165
ej	-9.3617
▁objekt	-9.36218
▁hry	-9.36223
▁sedm	-9.36249
▁Kr	-9.3635
▁Ba	-9.36438
▁vysoké	-9.3645
nem	-9.36466
iště	-9.36586
ložit	-9.36632
and	-9.36648
▁1991	-9.36714
mohla	-9.36717
▁Ná	-9.36785
▁východní	-9.36796
nění	-9.36939
▁členů	-9.37005
pol	-9.37027
▁dosavadní	-9.3714
▁teď	-9.37158
▁vítězství	-9.37188
proti	-9.37352
▁milionu	-9.37441
▁stal	-9.37505
▁nebylo	-9.37669
▁neo	-9.37706
ily	-9.37771
▁práv	-9.3781
▁prosince	-9.37834
▁poprvé	-9.37839
▁prostředky	-9.37841
▁akce	-9.37887
▁Pře	-9.37887
potřeb	-9.3802
▁Č	-9.38064
▁úřad	-9.38148
ických	-9.38244
▁12	-9.38346
▁nějak	-9.38379
▁konkrétní	-9.38534
▁unie	-9.3854
čení	-9.38791
▁Pr	-9.3896
ovány	-9.38995
▁žádný	-9.39026
▁opatření	-9.39238
▁spolupráci	-9.39238
▁výsledky	-9.39238
▁teprve	-9.39261
čet	-9.39273
▁led	-9.393
kách	-9.39448
▁času	-9.39505
raz	-9.39619
▁16	-9.39791
itel	-9.3986
▁Nej	-9.39977
▁stejné	-9.40079
▁politické	-9.40146
▁jenž	-9.40315
▁De	-9.40431
▁1994	-9.40661
▁her	-9.40691
▁prakticky	-9.40714
▁vnitřní	-9.40763
▁ODS	-9.40812
šť	-9.40877
▁dat	-9.40984
gu	-9.41048
slov	-9.41146
▁trenér	-9.41248
▁Lu	-9.41273
▁hlediska	-9.41381
▁prostřednictví	-9.41381
▁utkání	-9.41418
J	-9.41525
▁stál	-9.41575
▁deseti	-9.41782
▁nena	-9.41826
▁republice	-9.42105
▁velice	-9.42112
▁projekt	-9.42241
▁zisk	-9.42289
▁ministra	-9.42343
▁celou	-9.424
▁procenta	-9.4243
▁celkové	-9.42487
▁vod	-9.42526
▁kom	-9.42791
▁někdo	-9.42837
▁dostal	-9.4294
▁daně	-9.42949
▁ode	-9.432
▁úspěch	-9.43265
▁dispozici	-9.43571
▁Vý	-9.43672
▁Jen	-9.43759
▁souvislosti	-9.43815
vou	-9.43845
díky	-9.43888
ická	-9.43987
hn	-9.4414
hle	-9.44147
▁svaz	-9.44212
▁1990	-9.44311
▁typu	-9.44324
lek	-9.44392
▁řadu	-9.44429
he	-9.44665
▁tým	-9.44748
zo	-9.44895
ající	-9.44954
▁kterým	-9.44965
▁změny	-9.45012
▁jejím	-9.4506
▁rámci	-9.45062
▁sil	-9.45095
▁ledna	-9.45169
▁osobní	-9.45173
plav	-9.45269
nul	-9.45282
▁jí	-9.45297
▁nepro	-9.45343
▁prostě	-9.45399
▁mo	-9.45815
▁nejméně	-9.45826
▁podařilo	-9.45914
kol	-9.45935
▁mne	-9.45976
▁budeme	-9.45997
▁bod	-9.46008
aj	-9.46496
▁sebou	-9.46507
▁představ	-9.46528
▁prodej	-9.46591
▁roli	-9.46658
▁loni	-9.46671
▁všem	-9.46789
ké	-9.46876
ina	-9.46895
Ž	-9.47048
▁doma	-9.47078
▁státy	-9.47083
▁dá	-9.47085
bal	-9.47123
▁různé	-9.47221
Š	-9.47304
▁čs	-9.4733
▁Například	-9.4733
▁podnikání	-9.47368
kul	-9.47572
▁proces	-9.47589
št	-9.47697
▁9	-9.47769
▁pomoc	-9.47974
vní	-9.47995
ický	-9.48023
ment	-9.48063
▁Pod	-9.48097
▁minulý	-9.48104
▁opravdu	-9.48126
▁výkon	-9.48185
▁tolik	-9.48221
▁Jde	-9.48257
▁výše	-9.48364
ér	-9.48404
▁volební	-9.4845
▁my	-9.48484
▁právo	-9.486
▁výzkum	-9.48604
ge	-9.48654
▁sta	-9.48815
▁miliónů	-9.48875
▁smlouvu	-9.48875
▁snaží	-9.48877
▁nedávno	-9.4893
ková	-9.48995
ska	-9.49035
▁náš	-9.49044
▁18	-9.491
▁vládní	-9.49129
▁služeb	-9.49153
▁oprav	-9.49348
átor	-9.49352
▁nemoc	-9.49437
▁In	-9.49507
▁funkci	-9.49658
vil	-9.49708
▁Dnes	-9.49712
len	-9.49733
fe	-9.4977
zen	-9.49812
▁zvýšení	-9.49834
lin	-9.4985
ským	-9.50018
pokoj	-9.50025
mysl	-9.50048
▁Roz	-9.50094
▁věc	-9.504
▁okolí	-9.50447
▁Zá	-9.50452
▁model	-9.50463
bar	-9.50495
▁účast	-9.50527
▁Kdo	-9.50566
vu	-9.50566
▁Klaus	-9.50633
▁měsíců	-9.50647
▁neod	-9.50655
▁hor	-9.50764
▁přednost	-9.50825
▁získal	-9.50903
▁slova	-9.50915
▁středu	-9.50915
cím	-9.51007
▁ministerstvo	-9.51237
▁koaliční	-9.51237
▁chtějí	-9.51237
▁chování	-9.51241
▁zvláštní	-9.5125
▁dr	-9.51282
fo	-9.51394
▁pojištění	-9.51394
▁dnech	-9.51416
▁růst	-9.51463
dávají	-9.51522
▁bývalý	-9.51543
▁objevil	-9.51748
ického	-9.51765
ang	-9.51936
▁jiného	-9.52004
▁Windows	-9.52037
▁ekonomické	-9.52146
▁národní	-9.52183
stoupil	-9.52218
▁metrů	-9.52235
▁postupně	-9.52278
iz	-9.52279
▁plán	-9.52288
▁úřadu	-9.52297
▁Ho	-9.52357
ať	-9.52475
▁zahraničních	-9.52494
▁případ	-9.52587
▁hráčů	-9.52707
▁rady	-9.52826
AN	-9.52837
▁zpět	-9.52844
▁24	-9.52889
▁společenství	-9.52892
▁hlas	-9.53077
ostí	-9.53179
šli	-9.53191
▁Pří	-9.5337
▁projev	-9.53396
▁list	-9.53479
▁čeká	-9.53493
▁disk	-9.53639
mer	-9.53733
▁Li	-9.5378
▁svazu	-9.53782
atel	-9.53793
ovaly	-9.53987
nos	-9.54028
byl	-9.54178
ak	-9.54205
▁Pak	-9.54365
▁nemusí	-9.54477
▁číslo	-9.54512
▁2.	-9.54521
▁pořád	-9.54526
álně	-9.54605
▁plyn	-9.54847
▁Da	-9.54858
▁Zde	-9.54903
níci	-9.54991
▁pracovníků	-9.55025
▁vznikl	-9.55033
▁podobně	-9.55106
kor	-9.55142
▁míst	-9.5518
▁poslanců	-9.55303
▁přibližn	-9.55303
▁ročně	-9.55307
▁zástupce	-9.55318
▁nadále	-9.55431
▁tržní	-9.55473
▁klubu	-9.55507
▁Bude	-9.55615
ovalo	-9.55617
cký	-9.55698
ujeme	-9.55817
▁klub	-9.55951
ené	-9.55991
nil	-9.56129
▁odmítl	-9.56136
▁MS	-9.56323
▁vyh	-9.56574
lem	-9.56745
tor	-9.5679
▁poměr	-9.56846
▁každ	-9.56964
▁Většin	-9.56977
▁nabídky	-9.56977
▁hospodářství	-9.56977
▁lépe	-9.56986
▁počtu	-9.5705
▁hodně	-9.57071
stal	-9.57135
▁týmu	-9.57317
▁podniky	-9.57366
kami	-9.57373
stává	-9.57373
▁generální	-9.57447
▁spojen	-9.57457
znal	-9.57548
▁muž	-9.57583
▁manažer	-9.57632
▁manžel	-9.577
▁sami	-9.57772
▁přesně	-9.57779
▁umožňuje	-9.57824
▁podstatně	-9.57878
▁jenom	-9.57931
nk	-9.58034
bor	-9.58129
nc	-9.58148
▁titul	-9.58189
▁problémů	-9.58336
slav	-9.58464
▁olympijské	-9.58487
ď	-9.58492
▁Ani	-9.58594
▁závod	-9.58615
▁fondu	-9.58653
▁považuje	-9.58679
▁začíná	-9.5868
▁případech	-9.58764
▁musíme	-9.58769
▁potvrdil	-9.58801
▁říci	-9.58803
▁novou	-9.58864
▁městě	-9.58941
uji	-9.59
▁vede	-9.59213
tů	-9.59239
▁občanů	-9.59306
▁rozvoj	-9.59414
▁banky	-9.59438
pen	-9.5952
ele	-9.59521
▁obvykle	-9.59541
▁sítě	-9.5955
dra	-9.59585
▁pomoci	-9.59599
▁oddělení	-9.59634
▁českého	-9.59721
▁pu	-9.59725
▁řada	-9.59753
▁majitel	-9.59753
un	-9.59766
rát	-9.59805
▁možností	-9.59827
Č	-9.59903
íky	-9.59911
▁vedle	-9.59973
ností	-9.60015
▁dopis	-9.60256
rak	-9.60262
▁nebyla	-9.60315
jící	-9.60336
▁otázku	-9.6041
▁výrobků	-9.6041
▁Ze	-9.60435
▁politiky	-9.60672
▁Br	-9.60692
▁průběhu	-9.60747
▁ta	-9.60829
▁nějaké	-9.60962
ok	-9.6098
▁vů	-9.60997
▁ryb	-9.61003
▁60	-9.61016
▁změn	-9.61091
ó	-9.61096
▁22	-9.61165
▁skupin	-9.61167
▁nabízí	-9.61287
▁nemají	-9.61392
Dr	-9.61403
▁miliardy	-9.61477
▁ulici	-9.61516
▁17	-9.61524
py	-9.61561
▁mil	-9.61569
▁zdrojů	-9.61576
▁výbor	-9.61608
▁skutečnost	-9.61876
EN	-9.61883
▁kterém	-9.61906
ovaná	-9.6194
▁moci	-9.61958
▁krok	-9.62037
tur	-9.62058
▁takto	-9.62145
▁otázka	-9.62172
▁otázky	-9.62172
▁úrovni	-9.62172
▁chvíli	-9.62173
▁celkem	-9.62178
▁Česká	-9.62192
▁uvádí	-9.62288
▁Ha	-9.62495
▁moderní	-9.62509
dává	-9.62514
go	-9.62535
▁pražské	-9.62817
SE	-9.6282
ster	-9.62878
▁Už	-9.63013
tím	-9.63047
▁věd	-9.63056
▁mistrovství	-9.63065
nské	-9.63087
▁film	-9.63133
čku	-9.63223
▁postavení	-9.63355
▁jednom	-9.63359
▁schopn	-9.63479
pt	-9.63501
▁objektů	-9.63539
▁názoru	-9.63542
▁dohody	-9.63546
000	-9.63614
▁nepře	-9.63906
▁byt	-9.63909
▁energie	-9.63966
▁dětí	-9.63966
▁zaměstnanců	-9.63968
▁NATO	-9.63969
▁cestu	-9.63976
▁rodin	-9.64047
▁automobil	-9.64172
pil	-9.64238
▁pozornost	-9.64263
▁textu	-9.64266
▁vyp	-9.64478
▁počítače	-9.64536
oč	-9.6462
ané	-9.64656
▁chtěl	-9.64793
▁společností	-9.64842
▁odhad	-9.6487
▁finále	-9.64876
ben	-9.6499
▁kterých	-9.65016
▁představuje	-9.65082
▁měsíce	-9.65095
▁listopadu	-9.65142
▁takový	-9.6517
▁strana	-9.6518
býval	-9.65228
▁setkání	-9.65253
▁vybavení	-9.65273
▁obsah	-9.65306
▁působí	-9.65321
▁Be	-9.65505
▁každé	-9.6551
▁budoucí	-9.65516
inu	-9.65624
▁nikoli	-9.65659
▁musel	-9.65691
▁vět	-9.65742
▁provozu	-9.65763
▁prostředků	-9.65796
▁Země	-9.65811
▁cizí	-9.65838
▁čtvrtek	-9.65841
▁sama	-9.65852
▁Ještě	-9.6591
▁Tím	-9.65922
▁světové	-9.65932
▁skupina	-9.65934
▁současně	-9.6603
▁obchodního	-9.66098
▁řadě	-9.66123
▁příští	-9.66144
▁parlament	-9.6623
mír	-9.66263
ca	-9.66282
ST	-9.66477
▁platit	-9.66605
▁Sa	-9.66628
▁výrobky	-9.66719
▁Navíc	-9.66719
▁Nyní	-9.66723
▁OSN	-9.66732
▁test	-9.66732
▁produkce	-9.66746
vání	-9.66878
nský	-9.66947
▁Zeman	-9.6695
▁atd	-9.66956
▁vztah	-9.66964
brán	-9.6703
▁neděli	-9.67062
dit	-9.67153
ovými	-9.67175
ško	-9.67224
▁ba	-9.67246
▁druhém	-9.67497
voz	-9.67517
ard	-9.67568
▁oba	-9.67585
▁hrát	-9.67588
▁skutečnosti	-9.67595
▁Josef	-9.67653
▁federální	-9.67653
▁zasedání	-9.67661
▁motor	-9.67673
▁dobrý	-9.67724
▁host	-9.67726
▁zdroje	-9.67754
▁muset	-9.67761
▁akci	-9.67856
ký	-9.67922
▁kvalitní	-9.67934
den	-9.68022
sil	-9.68093
rop	-9.68145
nic	-9.68204
▁hlavním	-9.68218
tem	-9.68283
cké	-9.68519
▁prezentace	-9.68597
▁srovnání	-9.68598
▁speciální	-9.68606
▁začátku	-9.68652
▁kterého	-9.68765
▁výboru	-9.68773
▁obchodu	-9.68847
▁jiný	-9.68867
▁jazyk	-9.68877
▁součástí	-9.68985
▁bank	-9.6903
▁mluvčí	-9.69039
▁Ž	-9.69081
▁zápas	-9.69093
nd	-9.69115
▁akcií	-9.69132
▁použití	-9.69176
▁přiče	-9.69189
▁hodnoty	-9.69191
▁sestav	-9.69391
▁start	-9.69465
▁Já	-9.69507
▁záměr	-9.69533
▁teorie	-9.69549
▁přírodní	-9.6955
▁buď	-9.69553
▁1989	-9.69554
▁privatizace	-9.69556
▁apod	-9.69574
▁jasné	-9.69745
▁konci	-9.69746
▁vzor	-9.69806
bývá	-9.69895
▁školy	-9.70031
▁plně	-9.70079
▁společné	-9.70137
šti	-9.70196
kli	-9.70199
▁21	-9.70282
cházejí	-9.7029
▁post	-9.70333
▁vyhrál	-9.7034
▁Dr	-9.70351
▁ME	-9.70394
▁těm	-9.70409
▁ti	-9.7042
▁vyz	-9.70464
▁šéf	-9.70613
▁domů	-9.70737
ned	-9.7085
▁poně	-9.7088
▁dopravy	-9.70885
▁gen	-9.70904
▁objektu	-9.71021
▁jednotlivé	-9.71021
▁kolik	-9.71032
▁našem	-9.71155
▁metod	-9.71175
měř	-9.71281
▁závěr	-9.71286
▁možno	-9.71393
por	-9.71407
▁Ku	-9.71421
▁Jelcin	-9.71478
▁veřejné	-9.71481
▁zdravotnictví	-9.71481
▁umění	-9.71483
▁Někter	-9.71484
▁zvolen	-9.71528
▁Ivan	-9.71561
rob	-9.71648
th	-9.71677
▁následující	-9.71733
mar	-9.71782
nek	-9.71787
▁papír	-9.71812
ovo	-9.71943
▁údaje	-9.72152
▁Bylo	-9.72269
▁hra	-9.72279
▁Čí	-9.72337
▁telefonní	-9.72397
eta	-9.72429
▁gól	-9.72462
▁nebezpečí	-9.72462
▁podobě	-9.72465
▁Pavel	-9.72471
▁An	-9.72499
▁rozhodující	-9.72516
▁ostatních	-9.72534
▁Podobn	-9.72536
ík	-9.72689
▁investice	-9.72703
▁státního	-9.72781
▁celého	-9.72803
SK	-9.72814
pad	-9.72886
▁noci	-9.72918
▁kultury	-9.72948
▁práva	-9.73054
tah	-9.73198
psal	-9.73217
nici	-9.73223
ární	-9.7325
▁spojení	-9.73262
▁vstup	-9.7332
▁tr	-9.73352
áři	-9.73382
▁společně	-9.73606
▁dalším	-9.73621
▁aktivit	-9.73768
▁zájmu	-9.7378
▁vzájemn	-9.73786
▁soutěže	-9.73787
▁snadno	-9.73812
▁smrti	-9.73854
▁politických	-9.73933
elný	-9.73989
▁Proč	-9.74046
řitom	-9.74069
ici	-9.74116
nka	-9.74193
tel	-9.74211
jem	-9.74251
např	-9.74371
▁ním	-9.74444
▁televizní	-9.74452
▁jméno	-9.74454
▁Miloš	-9.74456
věří	-9.74546
▁Toto	-9.74565
▁tisíce	-9.74652
▁střel	-9.74693
IN	-9.74716
čil	-9.74838
▁výhod	-9.74896
ena	-9.74945
▁70	-9.74983
vláště	-9.75157
▁Čech	-9.7517
nese	-9.75173
▁určen	-9.75264
▁Rad	-9.75368
▁John	-9.75462
▁snímek	-9.75464
▁hnutí	-9.75483
rád	-9.75485
▁Stejn	-9.75485
▁zdraví	-9.75496
▁počítač	-9.75524
▁lidi	-9.75561
▁vidí	-9.75571
chází	-9.75587
kovi	-9.75602
▁český	-9.75612
port	-9.75684
▁rád	-9.75692
▁nejvíce	-9.75699
▁důvodů	-9.75701
jev	-9.75713
▁trest	-9.75812
▁vytvoření	-9.7582
▁Star	-9.75911
bud	-9.75946
ismu	-9.75949
▁předem	-9.75967
▁trvá	-9.76076
son	-9.76086
▁Ar	-9.76206
▁plné	-9.76269
hla	-9.76421
rovna	-9.76421
▁Jaroslav	-9.76482
▁motiv	-9.76483
▁pás	-9.76526
▁vzhledem	-9.76535
▁ploch	-9.76692
▁velkou	-9.76755
óz	-9.76791
W	-9.76803
▁Tu	-9.76803
▁syn	-9.76855
▁mužů	-9.77017
▁jisté	-9.77024
fer	-9.77042
▁hotel	-9.77064
icky	-9.77195
▁hráči	-9.77245
tvo	-9.77386
píše	-9.77406
▁Český	-9.77424
her	-9.77425
▁zvýšil	-9.77514
▁těžko	-9.77514
▁okolo	-9.77519
▁podobný	-9.77536
tky	-9.77554
▁pocit	-9.7759
▁daleko	-9.77664
▁žen	-9.77702
▁nákup	-9.77702
▁soudu	-9.77754
▁typ	-9.77837
však	-9.78003
▁spíš	-9.78122
▁vys	-9.78169
ovaného	-9.78171
est	-9.78199
▁odbor	-9.78317
▁evropské	-9.7833
svoji	-9.78413
▁náměstí	-9.78555
▁přátel	-9.78562
▁delší	-9.78563
▁někteří	-9.78564
▁zástupci	-9.78566
▁září	-9.78583
▁zaměstnání	-9.78598
▁rukou	-9.786
▁kilometrů	-9.78641
▁obsahuje	-9.7865
vají	-9.78755
▁hodiny	-9.78758
▁prodeje	-9.78802
ika	-9.78915
▁Ru	-9.78944
▁celkov	-9.78956
▁Bez	-9.78973
▁Izrael	-9.7898
▁přijat	-9.78987
▁světový	-9.79066
rat	-9.79157
▁oboru	-9.79225
▁věku	-9.7924
▁koncem	-9.79245
alo	-9.79292
▁smysl	-9.79326
▁kulturní	-9.7953
ler	-9.7959
▁výsledek	-9.79608
▁cestovní	-9.79608
půjč	-9.79624
▁mohly	-9.79635
▁způsobil	-9.79701
▁dává	-9.79804
▁přišel	-9.79869
▁druhů	-9.79926
koliv	-9.8005
▁měst	-9.80084
▁zkušenosti	-9.80088
▁řad	-9.80101
vede	-9.80184
▁Bu	-9.80186
▁tenis	-9.80339
isté	-9.8037
▁ředitele	-9.8041
dění	-9.80574
▁živ	-9.80611
▁Kčs	-9.80664
▁aplikace	-9.80672
▁existuje	-9.80672
▁nejbližší	-9.80672
▁podmínek	-9.80672
▁nebudou	-9.80672
▁Může	-9.80673
▁zůstává	-9.80673
▁dnů	-9.80698
▁přechod	-9.807
▁auto	-9.80735
▁pracovat	-9.80776
▁koalice	-9.80789
▁olympijský	-9.80871
tal	-9.80893
▁objekty	-9.80894
der	-9.80954
▁hospodářské	-9.81012
▁Jedno	-9.8124
▁stavební	-9.81277
▁každého	-9.81379
ěte	-9.81531
▁fond	-9.81544
▁Ber	-9.81587
▁výměn	-9.81638
30	-9.81643
▁příprav	-9.81673
▁společný	-9.81707
▁povrch	-9.81732
ejte	-9.81733
▁smyslu	-9.81735
▁úroveň	-9.81747
▁starší	-9.81751
▁výnos	-9.81758
▁termín	-9.81771
▁tady	-9.81802
CE	-9.81802
▁případně	-9.8194
▁rozhodl	-9.81967
▁dosáhl	-9.81975
▁úprav	-9.82008
▁minulosti	-9.82039
stál	-9.82066
ala	-9.82128
19	-9.82187
lék	-9.82256
EL	-9.82354
ickou	-9.8245
LA	-9.8247
▁běžné	-9.82554
▁rychlost	-9.82682
▁neměl	-9.8271
▁stud	-9.82802
▁poslanci	-9.82834
▁pátek	-9.82834
▁praxi	-9.82835
▁lékař	-9.82881
▁jediný	-9.82891
▁Nové	-9.82936
▁příklad	-9.82951
cího	-9.82961
pravidla	-9.82991
▁určitě	-9.8302
▁pla	-9.83037
▁Každý	-9.83076
▁Brně	-9.83097
▁nová	-9.831
nictví	-9.83153
ren	-9.83274
▁skončil	-9.83439
▁Di	-9.83452
dají	-9.83494
▁Hor	-9.83584
ismus	-9.83698
▁dotaz	-9.83765
▁mám	-9.83789
▁Kar	-9.83838
řad	-9.83889
▁lékaře	-9.83905
jat	-9.8391
▁důležité	-9.83933
▁vidět	-9.83933
▁šanci	-9.83933
puštěn	-9.83934
▁příkaz	-9.83935
▁strom	-9.83961
▁druh	-9.83991
▁prvního	-9.84033
nci	-9.84034
▁přijal	-9.84038
ění	-9.84109
▁tun	-9.84146
▁Pan	-9.84196
▁kvality	-9.84203
jet	-9.84214
pit	-9.8425
dů	-9.84338
▁loňské	-9.84513
ton	-9.84702
▁oblast	-9.84891
▁výrobce	-9.85044
▁zvířat	-9.85044
▁síly	-9.85057
▁volbách	-9.85071
▁stačí	-9.85109
▁července	-9.85117
▁odpovídá	-9.85135
▁Přes	-9.85139
mž	-9.85148
nky	-9.85176
▁podnikatel	-9.85176
▁léta	-9.85211
▁dny	-9.85214
ává	-9.85232
▁nikoliv	-9.85237
▁změnit	-9.85318
▁nárok	-9.85345
▁bran	-9.85355
ten	-9.85422
▁pís	-9.85538
ujících	-9.85552
▁kal	-9.85554
▁hráč	-9.8556
▁Německa	-9.85624
▁knihy	-9.85695
▁členy	-9.858
▁porad	-9.85819
šek	-9.85862
ováním	-9.8587
zní	-9.85871
▁zemřel	-9.86169
din	-9.86184
raději	-9.86193
nů	-9.86204
▁hráče	-9.86226
▁Jeden	-9.86228
▁doba	-9.86257
▁podstatě	-9.86314
▁samo	-9.8636
ložil	-9.86406
OV	-9.86441
▁hvězd	-9.8646
třech	-9.86472
▁nákladů	-9.86513
▁pre	-9.86542
▁zranění	-9.86558
▁nep	-9.86596
vé	-9.86597
▁prav	-9.86623
zv	-9.86633
▁vývoje	-9.86717
ROM	-9.86755
▁osmi	-9.86859
▁tisku	-9.87078
ováno	-9.87155
▁potřebuje	-9.87209
lík	-9.87301
▁Ministerstv	-9.87304
▁oprávněn	-9.87304
▁technologie	-9.87304
▁výrobu	-9.87304
▁tepla	-9.87306
stoupit	-9.87307
▁vrátil	-9.87318
▁úplně	-9.87327
▁dělat	-9.87345
▁vrchol	-9.87399
▁představitelé	-9.87411
▁investiční	-9.87419
▁přehled	-9.87463
▁techniky	-9.87487
▁koncert	-9.87541
▁rozšíření	-9.87554
▁druhou	-9.87683
▁činí	-9.87869
▁23	-9.87913
▁podobné	-9.87938
▁voleb	-9.8794
▁Již	-9.88027
▁Že	-9.88102
▁staré	-9.88202
▁dokument	-9.88275
▁síť	-9.88462
▁míry	-9.88633
▁podnikatele	-9.88649
▁celá	-9.8871
▁Nový	-9.88726
▁div	-9.88783
▁výrobní	-9.88886
▁volby	-9.88921
▁polovin	-9.88953
▁zprávy	-9.88956
razil	-9.88988
kládá	-9.89317
šení	-9.89341
▁jakým	-9.89361
▁Ra	-9.89381
▁novin	-9.89539
▁vytvořit	-9.89616
▁jízd	-9.89643
▁výběr	-9.89661
▁dvakrát	-9.8968
▁domu	-9.89698
▁pochyb	-9.89719
▁ruské	-9.89719
skoro	-9.89733
▁spoj	-9.89753
▁podnikatelů	-9.89755
▁80	-9.89788
nec	-9.89881
zení	-9.89884
▁chcete	-9.89978
▁dvacet	-9.90045
▁sportovní	-9.90065
▁popis	-9.90116
▁spor	-9.90123
▁dal	-9.90134
▁vlastnosti	-9.90138
▁pracuje	-9.90161
šit	-9.90172
▁boj	-9.90178
žení	-9.90203
▁slavn	-9.90248
▁chod	-9.9027
▁Če	-9.90272
▁kap	-9.90291
▁těles	-9.90348
▁vaše	-9.90384
íte	-9.90392
▁bytů	-9.90434
▁národ	-9.90568
▁též	-9.90725
jdou	-9.90742
vané	-9.90757
▁financí	-9.90792
▁prv	-9.90848
značně	-9.90866
▁konečně	-9.90878
▁Kdyby	-9.90887
padl	-9.90916
▁vývoz	-9.90939
▁každém	-9.91001
▁Hrad	-9.911
▁návrhu	-9.91118
10	-9.9115
▁partner	-9.91177
▁NE	-9.91195
▁jaký	-9.91358
▁počítá	-9.91366
▁SR	-9.91435
nce	-9.91485
▁Její	-9.9151
▁seznam	-9.91611
▁přízniv	-9.91963
▁jít	-9.91971
▁federace	-9.91983
▁firmě	-9.91983
▁použít	-9.91983
▁výsledků	-9.91983
▁Všechny	-9.91983
▁současnosti	-9.92013
zhledem	-9.92026
▁fotbalové	-9.92027
▁dvaceti	-9.9204
▁evropských	-9.92048
▁zpracování	-9.92079
šil	-9.92279
ita	-9.92303
▁obrany	-9.92405
ovu	-9.9241
stran	-9.92425
▁průmyslu	-9.92441
▁hranice	-9.92462
▁vz	-9.92497
ška	-9.92499
▁Německu	-9.9256
▁bodů	-9.92636
▁bezpečnostní	-9.92662
▁vojenské	-9.92877
▁data	-9.92916
myšlen	-9.92923
vnitř	-9.93017
AR	-9.93042
▁ústav	-9.93171
▁Společenství	-9.93188
▁Vladimír	-9.93188
▁Právě	-9.93188
▁nejlépe	-9.9319
▁zbraní	-9.9319
▁relativn	-9.93191
▁pravděpodobně	-9.93197
▁dostat	-9.93228
▁Běh	-9.93231
▁původně	-9.93261
▁Měl	-9.93381
▁Cen	-9.93383
▁objeví	-9.93462
tní	-9.93546
▁opak	-9.93574
▁autobus	-9.93577
▁pokles	-9.93599
měr	-9.93634
▁bývá	-9.93637
zem	-9.93694
▁ochran	-9.93751
▁polo	-9.93755
tivní	-9.93758
▁použit	-9.9378
▁Firma	-9.93805
▁amerických	-9.9382
▁cílem	-9.93855
▁export	-9.93887
star	-9.93898
▁občan	-9.93924
▁pole	-9.94029
▁osoby	-9.94039
▁Ca	-9.94052
▁disku	-9.94185
▁kancelář	-9.94241
▁člen	-9.94294
▁důvod	-9.94354
▁dlouhé	-9.94407
▁předpokládá	-9.94407
▁udělat	-9.94408
▁patrně	-9.94419
▁proud	-9.94483
▁dokáže	-9.94524
▁dostane	-9.94536
▁slovo	-9.9456
jak	-9.94567
▁sněmovny	-9.9465
uto	-9.9465
▁roční	-9.94656
▁čtvrt	-9.94785
▁vhodné	-9.94816
ij	-9.94946
ávat	-9.94972
▁uměl	-9.95081
ření	-9.95227
▁prostoru	-9.95263
▁volné	-9.95273
▁zůstal	-9.95281
50	-9.95323
ňuje	-9.95341
▁ženy	-9.95449
▁kurz	-9.95454
▁informační	-9.95642
▁hovoří	-9.95642
▁čísla	-9.95642
▁brzy	-9.95643
▁úvěr	-9.95654
▁rad	-9.95662
▁pravda	-9.95682
nické	-9.95702
▁využití	-9.95793
▁těmi	-9.95801
▁růstu	-9.96033
▁kapacit	-9.96056
lení	-9.96116
ide	-9.96119
▁zisku	-9.96204
▁lidský	-9.96311
▁veřejnosti	-9.96445
▁rokem	-9.96453
▁severní	-9.96511
vz	-9.96577
▁Kub	-9.96669
ňování	-9.96708
▁ústavu	-9.9671
▁záznam	-9.96737
▁stejný	-9.96863
▁dovolenou	-9.96892
▁většinu	-9.96892
▁jinde	-9.96892
▁péče	-9.96892
▁začne	-9.96925
▁nemohou	-9.96928
ír	-9.96947
▁místopředsed	-9.96978
▁vědět	-9.9705
▁(1	-9.97065
▁vládě	-9.97079
dávat	-9.97215
▁příslušné	-9.97248
ený	-9.9725
mor	-9.97263
OR	-9.97276
▁molekul	-9.97317
▁NA	-9.97355
▁denně	-9.974
▁čele	-9.9747
▁90	-9.97514
▁témat	-9.97533
stické	-9.97572
TA	-9.97588
▁takovou	-9.97651
▁národního	-9.97709
▁pracovník	-9.9772
pel	-9.97738
ion	-9.9777
dal	-9.97789
▁vědecké	-9.97856
▁mění	-9.97857
bře	-9.97859
▁stanoven	-9.98074
zu	-9.98095
net	-9.98095
▁prací	-9.98113
▁pokračovat	-9.98158
▁podepsal	-9.98158
▁pozadí	-9.98158
▁látky	-9.98164
▁kruh	-9.98188
▁Ke	-9.98195
▁kop	-9.98209
▁zas	-9.98245
▁stala	-9.98261
▁nechce	-9.98263
▁sluneční	-9.98281
▁500	-9.98283
▁vodní	-9.98342
▁New	-9.9837
▁snížení	-9.98398
▁2000	-9.98402
▁čem	-9.98404
▁veřejnost	-9.98612
ených	-9.98666
kar	-9.98667
vel	-9.98668
▁potřebné	-9.98935
▁vytvořil	-9.98972
vali	-9.98975
▁podrob	-9.98997
▁současn	-9.99307
▁pojistné	-9.99321
▁prost	-9.99323
▁stalo	-9.99326
▁Ni	-9.9939
pak	-9.99421
▁UEFA	-9.9944
▁demokracie	-9.9944
▁důležitý	-9.9944
▁hodnocení	-9.9944
▁oficiální	-9.9944
▁označil	-9.9944
▁televizi	-9.9944
▁naprosto	-9.9944
▁Spojený	-9.99441
▁kurs	-9.99446
▁Havel	-9.99447
▁nijak	-9.9945
ll	-9.99459
▁300	-9.99499
▁ukazuje	-9.99543
▁kolo	-9.99545
▁okamžitě	-9.99568
dával	-9.99625
▁míru	-9.99695
▁pacient	-9.99737
rit	-9.99795
▁rada	-9.99819
▁zabývá	-9.99854
▁procesu	-9.99897
▁jednot	-9.99924
▁nebyly	-9.99947
▁bezpečnosti	-9.99958
▁hru	-9.99996
▁pozor	-10.0019
▁cesty	-10.0022
▁vzniku	-10.0042
pře	-10.0043
KA	-10.0049
▁dát	-10.0059
hi	-10.0059
rovná	-10.006
▁roze	-10.0067
▁téma	-10.0069
▁majetek	-10.0074
▁řečeno	-10.0074
▁počasí	-10.0074
▁ČSSD	-10.0076
▁členové	-10.0084
procesor	-10.009
taj	-10.0097
▁body	-10.0098
áci	-10.0098
▁potřeby	-10.01
▁stanice	-10.0103
kázal	-10.0112
dní	-10.0118
▁sklad	-10.0118
▁kanceláře	-10.0125
HO	-10.0128
dat	-10.013
▁vládu	-10.0137
ivé	-10.0138
▁respekt	-10.014
res	-10.0155
▁35	-10.0159
▁28	-10.017
▁lékaři	-10.0173
kový	-10.0176
▁hodnot	-10.0184
▁výš	-10.0189
▁metr	-10.0193
▁řady	-10.0194
▁nemohl	-10.0198
▁rekord	-10.0204
▁onemocnění	-10.0205
▁požadavky	-10.0205
▁příjmy	-10.0205
▁rozhodně	-10.0205
▁názvem	-10.0205
▁odborné	-10.0206
▁učitel	-10.0213
▁lidem	-10.0216
▁nějaký	-10.0219
▁dosáhnout	-10.0223
▁Martin	-10.0225
▁vytvořen	-10.023
▁systémů	-10.0238
▁dospěl	-10.0238
▁Slovensku	-10.0244
▁standard	-10.0245
▁ekonomiky	-10.0254
▁počátku	-10.0255
▁variant	-10.0255
▁zahájení	-10.0256
▁My	-10.0261
▁dodává	-10.0262
nského	-10.0264
▁zákony	-10.0277
▁postoj	-10.0296
RO	-10.0305
▁potravin	-10.0323
cházet	-10.0325
loží	-10.0335
▁získá	-10.0336
▁konference	-10.0339
▁televize	-10.0339
▁vánoční	-10.0339
▁ligy	-10.0339
▁policejní	-10.0339
▁hlavního	-10.034
▁funkcí	-10.0342
▁účel	-10.0354
▁Státní	-10.0366
▁1,	-10.0369
▁slib	-10.0369
▁jednak	-10.0375
▁soubor	-10.038
▁třicet	-10.0388
▁celém	-10.0395
níků	-10.0395
▁prů	-10.04
▁mechaniky	-10.0405
▁student	-10.041
▁vybaven	-10.0415
▁společného	-10.0416
▁přístupu	-10.0431
tovat	-10.0455
nému	-10.0461
▁Prezident	-10.0474
▁poskytuje	-10.0474
▁připravil	-10.0474
▁zásah	-10.0474
▁Československu	-10.0474
▁zločin	-10.0474
▁vnitra	-10.0474
▁velká	-10.0475
▁soutěž	-10.0479
▁Vše	-10.0487
věřil	-10.0492
▁cit	-10.0502
ke	-10.0503
▁Společnost	-10.0503
lep	-10.0504
▁PowerPoint	-10.0505
▁zvyk	-10.0511
▁škody	-10.0513
lat	-10.0518
▁rychlostí	-10.052
▁druhá	-10.0526
vad	-10.0527
▁parlamentní	-10.0528
▁nechal	-10.0529
▁osud	-10.053
▁Aby	-10.0533
▁Velk	-10.0535
▁aktiv	-10.0538
▁řekla	-10.0544
počítá	-10.0545
leté	-10.0551
▁pra	-10.0554
▁přenos	-10.0558
▁Bar	-10.0565
▁Velké	-10.0569
▁struktur	-10.057
▁obrat	-10.0571
set	-10.0579
▁trestní	-10.0579
▁druhého	-10.058
▁souboru	-10.058
brž	-10.0582
▁radost	-10.0589
inter	-10.059
▁ES	-10.0593
▁měsíc	-10.0594
▁Cel	-10.0595
▁teplo	-10.0603
▁druhu	-10.0604
▁obcí	-10.0607
▁lékařů	-10.0609
vádí	-10.061
▁kláves	-10.0611
▁zemědělství	-10.0611
▁servis	-10.0611
▁teplot	-10.0612
▁látek	-10.0612
▁ohledu	-10.0612
▁měsících	-10.0614
▁desítky	-10.0614
▁najít	-10.0614
▁Čechách	-10.0618
plnění	-10.0618
▁Atlantě	-10.0619
držel	-10.062
▁závěru	-10.0622
▁zaplatí	-10.0631
▁cest	-10.0632
▁daní	-10.0633
▁povinnost	-10.0633
▁vznik	-10.0634
▁zákoníku	-10.0637
▁soukrom	-10.0638
kovou	-10.0638
▁vydání	-10.0645
▁hladin	-10.0654
▁jinou	-10.0656
dla	-10.066
ani	-10.066
▁odpad	-10.0666
▁předpoklad	-10.0666
▁planet	-10.0666
▁město	-10.0671
OH	-10.0675
staví	-10.0678
▁správy	-10.0682
kám	-10.0692
▁dopravní	-10.0696
pír	-10.0702
pustí	-10.0712
méně	-10.0712
▁takového	-10.0715
▁Američan	-10.0717
▁Gr	-10.0723
▁zákonů	-10.0723
▁Jin	-10.073
▁výběru	-10.0735
▁napsal	-10.0744
odpovědn	-10.0747
▁hudební	-10.075
▁schopen	-10.075
▁tradiční	-10.075
▁ustanovení	-10.075
▁výrobců	-10.075
▁těžký	-10.075
▁Francie	-10.075
▁Národní	-10.075
▁nabídku	-10.075
▁snímků	-10.075
▁pořadatel	-10.075
SP	-10.0752
▁obr	-10.0754
▁uplatnění	-10.0758
▁oznámil	-10.0776
ovský	-10.0779
▁pohyb	-10.0783
▁přijde	-10.0785
▁ráno	-10.0786
▁státech	-10.0786
sed	-10.079
před	-10.0793
kových	-10.0796
ast	-10.0797
▁současný	-10.0804
▁dalšího	-10.0806
▁díl	-10.0808
ger	-10.0814
▁minulé	-10.0818
▁přesvědčen	-10.0832
ER	-10.0833
▁hranic	-10.0833
KO	-10.0836
rem	-10.0838
LI	-10.0842
▁nově	-10.0843
60	-10.0844
,5	-10.0847
▁důsled	-10.0852
▁začali	-10.0852
▁zásob	-10.0857
▁řeč	-10.0865
▁27	-10.0879
něk	-10.0887
▁Mi	-10.089
▁těžké	-10.0891
▁využít	-10.0891
▁přijetí	-10.0891
▁působení	-10.0891
▁odměn	-10.0892
▁řešit	-10.0892
▁rozpočet	-10.0893
▁hodlá	-10.0893
▁školství	-10.0894
▁stroj	-10.0896
▁tentokrát	-10.0897
▁domov	-10.0897
▁převážně	-10.0901
▁zajistit	-10.0902
▁příjem	-10.0903
▁str	-10.0904
ckých	-10.0904
▁družstev	-10.0912
▁dějin	-10.0914
▁jednotliv	-10.0917
▁ceně	-10.0918
▁Takže	-10.092
▁nim	-10.0921
▁vztahu	-10.0922
▁pořadí	-10.0924
▁vysokou	-10.0929
▁částky	-10.0931
blíž	-10.0933
▁útok	-10.0934
▁vyplývá	-10.0935
▁rozum	-10.0935
áni	-10.0938
▁změna	-10.0939
▁rezerv	-10.0942
▁okamžiku	-10.0943
vedou	-10.0944
▁kraj	-10.0948
▁omezen	-10.0949
▁městské	-10.095
▁slovenské	-10.0954
▁knih	-10.0955
▁%.	-10.096
▁jiná	-10.0962
dali	-10.0974
▁údajn	-10.0981
▁chybí	-10.099
▁Bra	-10.0992
fu	-10.0997
zoval	-10.1005
sáhl	-10.1019
▁chtěli	-10.102
▁kandidát	-10.1028
▁nesmí	-10.1031
▁jednat	-10.1031
▁bohužel	-10.1033
▁družstva	-10.1033
▁nejrůznější	-10.1033
▁spolupráce	-10.1033
dostatečně	-10.1034
▁Mezinárodní	-10.1034
řídil	-10.1036
▁seznamu	-10.1041
▁povolení	-10.1044
▁místech	-10.1048
▁mimořádn	-10.1049
▁udělal	-10.1052
▁moře	-10.1054
▁takovém	-10.1055
▁směrem	-10.106
▁názory	-10.1064
▁údajů	-10.1065
▁cestou	-10.1071
▁nejde	-10.109
▁blok	-10.1101
rab	-10.1103
hodný	-10.1112
▁400	-10.1112
▁zdroj	-10.1115
ickým	-10.1116
▁demokratické	-10.1119
▁stejn	-10.1121
nové	-10.1126
dané	-10.1143
ckého	-10.1146
▁myslím	-10.1152
mj	-10.1156
▁posl	-10.1162
díl	-10.1163
letý	-10.1166
▁hromad	-10.1169
▁jestli	-10.1173
▁máte	-10.1175
▁pondělí	-10.1178
▁prezentaci	-10.1178
▁vyslovil	-10.1179
▁smluvní	-10.1179
izovat	-10.118
▁mistr	-10.1184
▁zkouš	-10.1187
▁měsíční	-10.1187
▁Lib	-10.1189
▁pravidelně	-10.1191
▁předtím	-10.1195
NA	-10.1199
▁kola	-10.1204
ive	-10.1212
▁materiál	-10.1212
kat	-10.1217
▁zákaz	-10.1221
▁armády	-10.1225
klep	-10.1226
▁výzkumu	-10.1229
číst	-10.1236
▁soukromé	-10.1242
klo	-10.1258
koupil	-10.1259
▁případů	-10.1273
▁žádn	-10.1273
řídit	-10.1274
▁systémy	-10.128
▁turnaj	-10.1281
▁tisk	-10.1298
▁uvedla	-10.1298
řka	-10.1303
▁odbyt	-10.1309
▁vztahy	-10.1309
▁vědy	-10.1316
dem	-10.1318
rou	-10.1325
▁HIV	-10.1325
▁Poslední	-10.1325
▁konferenci	-10.1325
▁podmínkách	-10.1325
▁příjmů	-10.1325
▁úrovně	-10.1325
▁června	-10.1325
▁spoust	-10.1326
▁radnice	-10.1327
▁Mlad	-10.1328
▁Pavl	-10.133
▁Zákon	-10.1331
▁výjimkou	-10.1334
▁dvanáct	-10.134
▁LN	-10.1341
▁podpis	-10.1342
▁PO	-10.1343
rd	-10.1347
▁příslušn	-10.1352
▁změnu	-10.1354
▁dané	-10.1355
▁Pe	-10.1358
▁daňové	-10.1361
IS	-10.1361
▁taková	-10.1365
▁zásad	-10.1366
▁pravé	-10.1375
▁částku	-10.1376
▁Han	-10.138
▁politiku	-10.1382
▁mechanika	-10.1388
▁velikost	-10.1392
▁vysoký	-10.1402
▁německý	-10.1402
▁politický	-10.1403
ozi	-10.1414
▁sv	-10.1415
▁klient	-10.1422
NO	-10.143
▁par	-10.143
▁váš	-10.1432
ovaným	-10.1434
NÁ	-10.1436
▁konkurence	-10.1439
▁očekává	-10.1439
▁němu	-10.1439
▁součást	-10.1441
▁Každ	-10.1442
▁tiskové	-10.1442
▁známé	-10.1445
ES	-10.1451
eny	-10.1452
▁rodiny	-10.1457
▁sedmi	-10.146
▁museli	-10.1463
AL	-10.1469
▁Jedna	-10.147
▁vydal	-10.1472
▁směru	-10.1474
▁Největší	-10.1475
▁Současn	-10.1475
▁většině	-10.1475
▁kapitol	-10.1475
▁války	-10.1475
▁účetnictví	-10.1475
▁aliance	-10.1475
▁vln	-10.1476
▁tvrzení	-10.1476
▁Du	-10.1477
▁centra	-10.1481
▁Naše	-10.1484
ovské	-10.1485
drží	-10.1485
násob	-10.1486
dělal	-10.1487
eb	-10.1487
rozměr	-10.1487
padá	-10.1499
▁jednoznačně	-10.15
▁tvář	-10.151
▁slab	-10.1516
▁padesát	-10.152
▁míč	-10.1521
▁německé	-10.1523
▁daň	-10.1524
řek	-10.1528
▁skupině	-10.153
▁sever	-10.1532
osud	-10.1534
▁styl	-10.1569
▁Rusko	-10.1578
▁ODA	-10.1591
▁ostr	-10.1592
ama	-10.1592
ávají	-10.1593
▁hodnotu	-10.1595
▁aktivity	-10.16
▁výraz	-10.1606
▁postižen	-10.1609
20	-10.1609
▁polovinu	-10.1612
stoupí	-10.1615
▁poslanec	-10.1621
ovanou	-10.1625
▁Evropa	-10.1626
▁většiny	-10.1626
▁Gorbačov	-10.1626
▁politice	-10.1626
▁prohrál	-10.1626
▁vždycky	-10.1626
▁záruk	-10.1626
▁začít	-10.1627
dání	-10.163
▁leží	-10.1635
▁třemi	-10.1636
▁Jenže	-10.1639
▁3.	-10.1642
▁nemocnice	-10.1643
▁PRO	-10.1644
▁individuální	-10.1644
DO	-10.1645
▁pořádku	-10.1645
▁uvedené	-10.1652
boj	-10.1654
▁Německo	-10.1658
▁hlasování	-10.1662
▁pracovníci	-10.1668
▁liber	-10.1671
kryt	-10.1671
▁Václava	-10.1673
▁Dva	-10.1676
▁univerzity	-10.1677
▁změně	-10.1683
▁sport	-10.1685
▁předsedy	-10.1686
▁Me	-10.1693
vát	-10.1693
▁diváků	-10.1696
▁budoucnosti	-10.1697
DE	-10.1712
▁oslav	-10.1712
▁nutno	-10.1715
▁Kon	-10.1715
lín	-10.1718
▁Ot	-10.172
▁slouží	-10.1721
▁chlad	-10.1721
▁poz	-10.1736
▁Par	-10.1737
▁hrál	-10.174
▁životě	-10.174
▁jím	-10.174
ju	-10.1741
kům	-10.1741
bral	-10.1747
▁adres	-10.1747
prostřed	-10.175
AD	-10.1752
▁studentů	-10.1759
CI	-10.1761
og	-10.1764
ickém	-10.1767
▁hrad	-10.1771
aly	-10.1777
▁AIDS	-10.178
▁Británie	-10.178
▁vzdělání	-10.178
▁srpna	-10.178
▁Možná	-10.178
▁obyvatelstva	-10.178
▁nástup	-10.1785
RE	-10.1787
▁Vždyť	-10.1788
▁konec	-10.1788
▁demokratick	-10.1789
art	-10.1796
▁stop	-10.1802
▁čase	-10.1804
▁náklad	-10.1805
▁trval	-10.1809
▁paní	-10.1815
antní	-10.182
MU	-10.182
▁lidské	-10.182
▁Škoda	-10.1824
kan	-10.1827
▁miliony	-10.1834
▁hlasů	-10.1835
áno	-10.1838
▁důsledku	-10.1839
▁tvar	-10.184
▁soudní	-10.1842
▁posun	-10.1844
ívají	-10.1845
▁týká	-10.1845
▁žije	-10.1845
▁nutnost	-10.1847
▁složení	-10.1849
▁pán	-10.1851
▁mnohé	-10.1859
▁zásadní	-10.1866
▁aktivní	-10.1876
▁předchozí	-10.1879
▁používá	-10.1882
ároveň	-10.1882
snad	-10.189
▁Nov	-10.1896
▁takových	-10.1896
▁běžný	-10.1898
lů	-10.1899
▁založen	-10.1901
▁princip	-10.1901
▁souhlas	-10.1903
▁olympiád	-10.1903
jasn	-10.1906
▁koupit	-10.1917
▁státních	-10.1919
▁soupeř	-10.1923
par	-10.1935
▁katastrof	-10.1936
▁tajemství	-10.1936
▁očekávat	-10.1936
▁připravuje	-10.1936
▁silniční	-10.1936
▁čísle	-10.1936
▁název	-10.1937
▁buněk	-10.1937
▁Západ	-10.1938
▁verze	-10.194
směs	-10.194
ance	-10.194
▁jejího	-10.1947
LE	-10.1948
▁zdalek	-10.1948
▁uspořádání	-10.1948
▁průměru	-10.1948
▁odpor	-10.1949
▁akt	-10.195
▁zařazen	-10.1954
▁piva	-10.1959
▁úřady	-10.1966
▁svá	-10.1971
▁poznání	-10.1971
▁příčin	-10.1981
▁Vol	-10.1984
▁chceme	-10.1984
▁kvalitu	-10.1985
▁hmot	-10.1986
ble	-10.199
▁příštím	-10.199
▁výkonu	-10.1991
▁pobyt	-10.1992
▁dochází	-10.1995
metr	-10.1999
běžně	-10.2011
▁počítačů	-10.2011
▁Fr	-10.2012
75	-10.2019
▁americký	-10.2023
▁Hol	-10.2029
▁jiným	-10.2031
▁pokut	-10.2032
▁povinnosti	-10.2034
▁150	-10.2035
▁Bi	-10.2041
▁banka	-10.2045
OS	-10.2046
lib	-10.2052
▁určitý	-10.2055
EM	-10.2059
rok	-10.206
tit	-10.2062
▁stane	-10.2064
pul	-10.2068
▁dní	-10.2068
rot	-10.2077
▁zápase	-10.208
▁technické	-10.2085
▁devět	-10.2092
▁jaká	-10.2092
▁argument	-10.2095
▁zřejmé	-10.2095
▁občas	-10.2095
▁režisér	-10.2095
▁zůstat	-10.2095
▁pachatel	-10.2095
▁přírody	-10.2095
▁trend	-10.2096
▁privatizaci	-10.2096
▁Fa	-10.2097
▁marek	-10.2097
▁sdělil	-10.2099
▁Karel	-10.2101
▁článku	-10.2102
▁okresní	-10.2107
▁Ri	-10.2107
▁projektu	-10.2112
▁Per	-10.2115
▁muži	-10.2116
▁vyžaduje	-10.2117
▁formul	-10.2119
▁zajímavé	-10.212
▁sovětské	-10.2121
▁vánoce	-10.2122
▁dohod	-10.2123
▁pozitivní	-10.2123
▁jaderné	-10.2123
▁premiéra	-10.2124
▁odborníků	-10.2126
▁správ	-10.2128
▁stroje	-10.2129
NI	-10.2129
▁agentury	-10.213
▁Asi	-10.2133
▁úvahu	-10.2134
▁Tři	-10.2135
▁částí	-10.2138
▁sam	-10.2145
kyně	-10.2162
▁hlavních	-10.2163
▁vyjádřil	-10.2166
36	-10.2168
dom	-10.2173
▁Ši	-10.2177
▁přísn	-10.2179
85	-10.2182
▁příštího	-10.2184
▁zákazník	-10.219
▁kart	-10.2192
▁jaderný	-10.2195
▁známo	-10.2195
išť	-10.2225
▁úkol	-10.2234
▁96	-10.2236
▁uvědom	-10.2241
front	-10.2242
hlav	-10.2252
▁Miroslav	-10.2256
▁Myslím	-10.2256
▁jména	-10.2256
▁organizací	-10.2256
▁perspektiv	-10.2256
▁tlačítko	-10.2256
▁zahájil	-10.2256
▁požádal	-10.2256
▁věnovat	-10.2256
▁historii	-10.2256
▁válce	-10.2256
▁následn	-10.2256
▁rozhlas	-10.2256
▁roste	-10.2261
▁vaší	-10.2271
▁přeprav	-10.2283
gan	-10.2284
▁ztratil	-10.2284
bil	-10.2285
▁Ci	-10.2291
▁programy	-10.2292
▁Nová	-10.2299
▁vývoji	-10.23
▁liší	-10.2301
▁východ	-10.2305
▁svobod	-10.2305
tají	-10.2314
utí	-10.2317
čel	-10.2319
▁politika	-10.2323
▁úspor	-10.2336
▁kontakt	-10.2337
▁soutěži	-10.2339
hrát	-10.234
▁proveden	-10.2341
▁Oba	-10.2341
tud	-10.2344
trh	-10.2345
dvacet	-10.235
▁režimu	-10.2351
RU	-10.2361
čně	-10.2362
▁jediné	-10.237
▁uveden	-10.2376
▁obor	-10.2377
▁hraje	-10.2379
▁druhy	-10.2379
▁rostlin	-10.238
▁26	-10.2386
dělit	-10.2391
padal	-10.2395
▁doklad	-10.2396
ony	-10.2409
▁nedá	-10.2411
▁neví	-10.2411
vala	-10.2417
ěkteří	-10.2419
▁1995	-10.242
▁jednoduché	-10.242
▁nabízejí	-10.242
▁považován	-10.242
▁Někd	-10.242
▁Základní	-10.242
sloužil	-10.242
▁snížil	-10.242
▁špatné	-10.242
▁zůstane	-10.242
▁zvíře	-10.2421
▁hormon	-10.2421
▁pivovar	-10.2421
▁tajemník	-10.2421
▁hotelu	-10.2422
▁zimní	-10.2423
▁úřadů	-10.243
▁Mám	-10.2431
▁mechanik	-10.2434
wa	-10.2436
celku	-10.2438
▁pravidel	-10.2442
slovensk	-10.2442
▁programů	-10.2443
MA	-10.2445
▁abych	-10.2445
▁déle	-10.2447
▁smlouva	-10.2447
▁4.	-10.2448
▁cesta	-10.2449
▁Stál	-10.2452
▁doktor	-10.2456
/2	-10.2457
▁porazil	-10.2463
▁tráv	-10.2471
▁užit	-10.2477
TI	-10.248
▁signál	-10.2481
budete	-10.2483
sad	-10.2488
▁typů	-10.2488
padají	-10.2512
▁republika	-10.2514
▁veškeré	-10.2514
▁hranici	-10.2517
▁normální	-10.2518
▁zákazníků	-10.252
▁kanál	-10.2541
▁hod	-10.2548
▁chud	-10.255
pustit	-10.2551
ěji	-10.2554
JE	-10.2554
▁reprezentant	-10.256
▁typy	-10.2561
dis	-10.2562
▁budu	-10.2565
▁Hlavní	-10.2566
▁kultur	-10.2566
držet	-10.2569
▁pacientů	-10.2571
▁postih	-10.2578
▁globální	-10.2587
▁sponzor	-10.2587
▁řidič	-10.2587
▁úterý	-10.2587
▁iniciativ	-10.2587
▁kapalin	-10.2587
▁Lidé	-10.2587
▁včas	-10.2587
▁někdejší	-10.2588
▁šance	-10.2588
▁Letos	-10.2588
▁programové	-10.2588
▁existují	-10.259
▁barev	-10.259
▁pořad	-10.2592
▁jestliže	-10.2594
▁lednu	-10.2595
▁končí	-10.2599
▁stranu	-10.2602
▁soudí	-10.2604
pir	-10.2606
▁aut	-10.2606
▁muže	-10.2608
▁ruce	-10.2613
▁nerv	-10.2617
níky	-10.2628
▁malá	-10.2629
▁fin	-10.2631
▁bytu	-10.2631
▁někter	-10.2633
▁hledání	-10.2634
▁fotbal	-10.2641
▁oblastí	-10.2642
▁značné	-10.2643
věřit	-10.2644
▁dům	-10.2644
▁skutečné	-10.2648
lid	-10.2651
▁profesionální	-10.2653
▁získala	-10.2658
praví	-10.266
rez	-10.2669
▁spokojen	-10.267
▁příspěvk	-10.2673
▁symbol	-10.2674
▁kapitálu	-10.2682
▁dělá	-10.2685
▁Františ	-10.2686
▁podnikatelské	-10.2691
▁problémem	-10.2699
▁bit	-10.271
▁Změn	-10.2712
▁svému	-10.2718
jedno	-10.272
▁dokázal	-10.2722
▁patnáct	-10.2727
▁Sb	-10.2727
▁Česko	-10.2728
stávají	-10.2729
bytek	-10.2746
pracovat	-10.2754
▁novým	-10.2755
▁Federální	-10.2756
▁používat	-10.2756
▁Lékař	-10.2756
▁trénink	-10.2756
▁útvar	-10.2756
▁verzi	-10.2757
▁potíže	-10.2757
▁mzdy	-10.2757
▁najednou	-10.2757
▁členství	-10.2758
▁výklad	-10.2759
▁tabulky	-10.276
▁shromáždění	-10.276
ivost	-10.276
▁vrátit	-10.2761
▁úmysl	-10.2761
▁nejdříve	-10.2761
▁Zdá	-10.2761
▁vystoupení	-10.2762
▁studie	-10.2763
▁zvlášť	-10.2765
▁sluš	-10.2766
▁krajin	-10.277
onu	-10.2774
▁včerejší	-10.2776
▁odpověď	-10.2779
▁lékařské	-10.2784
▁třetím	-10.2787
▁Chce	-10.2788
▁rozdělení	-10.2789
▁děje	-10.2797
▁investor	-10.2801
▁délk	-10.2816
váží	-10.2817
▁důchod	-10.282
čních	-10.2825
▁rod	-10.2828
zb	-10.2829
▁Nebo	-10.2829
▁vznikla	-10.283
árně	-10.2832
▁centru	-10.2832
▁deník	-10.2836
▁označení	-10.2837
cení	-10.2843
▁akcí	-10.2844
▁vztahů	-10.2848
▁zprávu	-10.2851
▁těsně	-10.2856
▁akcie	-10.2867
▁dávno	-10.2871
▁časem	-10.2876
ins	-10.2881
▁lev	-10.2882
▁dob	-10.2883
▁vnější	-10.2883
▁případné	-10.2888
▁nezbytn	-10.2896
▁počítači	-10.2896
▁riziko	-10.2906
▁Francouz	-10.2916
▁OS	-10.2919
▁škole	-10.292
▁mikro	-10.2923
▁MB	-10.2926
mět	-10.2927
▁prospěch	-10.2929
▁rozhodne	-10.2929
▁umožnil	-10.2929
▁výrobci	-10.2929
▁Československa	-10.2929
▁katalog	-10.2929
▁paragraf	-10.2929
▁domnívá	-10.2929
▁hospodaření	-10.2929
▁Nicméně	-10.2929
▁zaměstnanci	-10.293
ČSL	-10.293
san	-10.2932
EC	-10.2937
▁nalezen	-10.2939
▁spočívá	-10.2939
▁soukromých	-10.2947
▁pohybu	-10.2957
▁odpovídající	-10.2959
▁pozici	-10.2961
▁záznamník	-10.2964
▁odpadů	-10.2965
▁ostrov	-10.297
izace	-10.2978
přes	-10.2986
ór	-10.2987
ence	-10.2988
▁střed	-10.299
▁počítat	-10.2991
▁schopnost	-10.2993
▁zaměstnavatel	-10.2994
nesou	-10.2999
har	-10.3003
▁silné	-10.3004
▁objem	-10.3004
rej	-10.3005
▁12.	-10.3007
▁scén	-10.3018
▁park	-10.3019
též	-10.302
▁analýz	-10.3021
DA	-10.3022
▁umí	-10.3027
▁týdne	-10.3031
▁podzim	-10.3032
klád	-10.304
neme	-10.3043
▁pracoval	-10.3046
vést	-10.305
▁posledním	-10.305
▁ruský	-10.3051
▁drah	-10.3062
▁pop	-10.3066
▁britské	-10.307
denní	-10.3076
▁dar	-10.3081
▁platnost	-10.3081
něte	-10.3088
kraji	-10.3088
sty	-10.3089
▁díla	-10.3103
▁odvětví	-10.3104
▁firmu	-10.3104
▁hrozí	-10.3104
▁mozku	-10.3104
▁Tomáš	-10.3104
▁propag	-10.3105
tav	-10.3105
▁Dále	-10.3105
▁hovor	-10.3105
▁Pohár	-10.3106
▁hledat	-10.3107
▁prvků	-10.3109
▁DNA	-10.311
▁uzavře	-10.311
▁horší	-10.311
▁Čern	-10.3111
▁získali	-10.3111
▁mnozí	-10.3115
▁dluh	-10.3115
razit	-10.3115
řez	-10.3121
▁půdě	-10.3128
▁rozvoje	-10.3137
▁klid	-10.3143
▁poměru	-10.3146
ička	-10.315
razí	-10.3151
▁letošním	-10.3153
graf	-10.3156
▁ukázal	-10.3157
▁Sv	-10.3158
▁vědomí	-10.3159
▁Sta	-10.3161
▁neroz	-10.3166
▁příbuzn	-10.3167
náší	-10.3169
▁uzavření	-10.317
cem	-10.3173
izaci	-10.3174
▁region	-10.3175
▁dovoz	-10.3189
▁údaj	-10.3189
pustil	-10.3192
▁změnil	-10.3195
▁kol	-10.3197
▁budoucnost	-10.32
▁poháru	-10.3202
tion	-10.3205
ičtí	-10.3207
▁protest	-10.3214
kají	-10.3215
▁teploty	-10.3216
▁per	-10.3217
▁uložen	-10.3224
ral	-10.3228
▁zemědělské	-10.3231
jen	-10.3242
prázdn	-10.3242
▁snah	-10.3247
řízení	-10.3249
▁Rus	-10.3252
▁čtenář	-10.3254
▁metody	-10.3255
▁ochranu	-10.3258
▁žena	-10.3259
ick	-10.3268
nova	-10.3275
tát	-10.3279
znamenat	-10.3283
▁aplikací	-10.3283
▁problematik	-10.3283
▁upozornil	-10.3283
▁zdůraznil	-10.3283
▁Československo	-10.3283
▁Existuj	-10.3283
▁natolik	-10.3283
▁výrobě	-10.3283
▁informoval	-10.3283
▁výroba	-10.3283
▁rodiče	-10.3283
▁tudíž	-10.3283
▁podpory	-10.3283
▁bankovní	-10.3283
▁nechtěl	-10.3283
▁reprezentace	-10.3283
jedině	-10.3284
▁zmíněné	-10.3284
koupí	-10.3287
▁účasti	-10.329
▁křiv	-10.3291
▁limit	-10.3291
roj	-10.3292
▁vytváření	-10.3293
▁částečně	-10.3293
stru	-10.3294
brat	-10.3295
40	-10.3315
▁jiném	-10.3316
▁vlastností	-10.3319
▁centrální	-10.3322
▁zavedení	-10.3327
▁Poté	-10.3328
rp	-10.3332
▁zpráva	-10.3336
▁záležitost	-10.3344
▁Her	-10.3345
▁19.	-10.3346
▁Bre	-10.3351
land	-10.3351
▁odst	-10.3352
▁Ex	-10.3352
▁Švédsk	-10.3358
▁režim	-10.3359
▁dílo	-10.3359
padlo	-10.3364
▁anti	-10.3365
iletý	-10.3367
▁karty	-10.3375
▁účastníků	-10.3385
bel	-10.3396
▁hospodářsk	-10.341
čné	-10.3413
▁dalšími	-10.3414
▁umístěn	-10.3415
▁pohledu	-10.3415
třel	-10.3418
▁Fo	-10.3423
stane	-10.3429
dostala	-10.3432
▁Musí	-10.3438
▁důvodu	-10.3439
mark	-10.3441
ologie	-10.3443
▁různ	-10.3445
▁mé	-10.3455
hraje	-10.3459
▁významné	-10.346
▁forma	-10.3462
▁měnit	-10.3462
nějších	-10.3463
▁neexistuje	-10.3465
▁odpoledne	-10.3465
▁připojištění	-10.3465
▁rozhodčí	-10.3465
▁paměti	-10.3465
ros	-10.3465
▁pomalu	-10.3465
▁vyloučen	-10.3465
▁kvalifikaci	-10.3466
▁Americk	-10.3466
▁super	-10.3467
▁Hus	-10.347
▁česká	-10.347
▁připomíná	-10.3471
žijí	-10.3475
▁organismu	-10.3475
▁povinn	-10.3477
▁reklam	-10.3477
▁oblastech	-10.3478
▁svědčí	-10.348
▁nynější	-10.3486
▁náhradní	-10.349
bere	-10.3492
▁materiálů	-10.351
▁směr	-10.3521
▁Slovenska	-10.3522
▁Ústav	-10.3523
▁budov	-10.3526
šp	-10.3527
▁ztráty	-10.3529
▁zkušenost	-10.3532
▁fotbalist	-10.3535
▁Nad	-10.3535
ičky	-10.3536
bývají	-10.3538
▁graf	-10.3542
▁přinesl	-10.3543
dor	-10.3553
▁potřeba	-10.356
▁kapitál	-10.3564
pětí	-10.3569
▁loňském	-10.3576
▁brněnské	-10.3577
▁voda	-10.3578
▁novel	-10.3579
▁Nejs	-10.358
▁Kor	-10.3584
▁zraněn	-10.3586
▁vzájemné	-10.3588
▁dohodu	-10.359
▁úst	-10.3591
▁obrazu	-10.3591
▁poloviny	-10.3597
trž	-10.3601
▁děj	-10.3605
▁nejvíc	-10.3606
▁chat	-10.3607
▁The	-10.3623
▁památ	-10.3635
▁odboru	-10.3637
▁rádi	-10.3643
▁Itálie	-10.365
▁Ovšem	-10.365
▁Program	-10.365
▁konflikt	-10.365
▁výhradn	-10.365
▁úspěšně	-10.365
▁minimální	-10.365
▁neustále	-10.365
▁stránce	-10.365
▁rychlé	-10.365
▁rozliš	-10.365
▁praxe	-10.365
▁záchran	-10.365
▁chorob	-10.365
hlédnout	-10.365
▁desetiletí	-10.365
▁úsek	-10.3651
▁regionální	-10.3652
▁nicméně	-10.3653
▁vyjádření	-10.3653
▁desítek	-10.3653
▁Inter	-10.3655
▁Ministr	-10.3657
▁zdejší	-10.3658
▁přístroje	-10.3658
▁Ital	-10.366
▁roh	-10.366
▁Ostravě	-10.3661
▁vybrat	-10.3664
ale	-10.3665
áků	-10.3665
▁dodnes	-10.3669
▁slev	-10.3674
▁silnic	-10.3681
▁činitel	-10.3681
▁vzal	-10.3686
▁určitou	-10.3686
▁Or	-10.369
áním	-10.3695
▁občanské	-10.3696
jedná	-10.3699
▁ročník	-10.37
▁tlak	-10.3703
▁nastal	-10.3706
ier	-10.3707
▁musím	-10.3716
▁Tam	-10.372
▁vlastnost	-10.3721
▁soustavy	-10.3721
▁obecně	-10.3725
ávání	-10.3726
▁bohat	-10.3738
▁rozhovoru	-10.3744
▁důkaz	-10.3754
čili	-10.3764
▁Fin	-10.3777
▁standardní	-10.3783
▁autorů	-10.3794
▁hotov	-10.3796
oma	-10.3799
bili	-10.3807
rst	-10.3811
▁vývozu	-10.3817
▁přesun	-10.382
▁KSČM	-10.3828
▁určit	-10.3833
▁profesor	-10.3839
▁Všichni	-10.3839
▁jednoduchý	-10.3839
▁náměstek	-10.3839
▁poptávky	-10.3839
▁zvítězil	-10.3839
▁zúčastnil	-10.3839
▁špatně	-10.3839
▁Naopak	-10.3839
▁jediná	-10.3839
▁poslance	-10.3839
▁Snad	-10.3839
▁odborníci	-10.384
▁zaměstnance	-10.3841
▁čtení	-10.3841
▁kostel	-10.3841
▁video	-10.3841
▁měření	-10.3843
▁potřebují	-10.3844
▁nabídl	-10.3844
▁koncentrace	-10.3844
▁okna	-10.3844
▁ano	-10.3847
▁problému	-10.3856
▁Fran	-10.3856
▁atlet	-10.3859
▁zpráv	-10.3862
▁přestup	-10.3864
▁italské	-10.387
▁II	-10.3871
▁totem	-10.3871
▁produktů	-10.3871
▁záležitostí	-10.3877
▁vychází	-10.3879
▁závodu	-10.3879
ekonomický	-10.3883
▁stovky	-10.3884
hav	-10.3885
níku	-10.3893
IT	-10.3894
▁automaticky	-10.3894
▁vzduchu	-10.3901
▁reálné	-10.3901
▁zrušení	-10.3903
▁rozsahu	-10.3917
▁čekají	-10.3921
▁pohár	-10.3926
▁lidsk	-10.3935
▁představují	-10.3938
▁zlom	-10.3941
▁ústavní	-10.3943
▁nástroj	-10.3944
▁filmu	-10.3949
▁řádu	-10.3959
bin	-10.3961
▁činností	-10.3972
▁optim	-10.3972
▁29	-10.3975
▁No	-10.3976
kář	-10.3981
▁neměli	-10.3983
ller	-10.3994
▁nese	-10.3996
▁mně	-10.4025
▁investovat	-10.4031
▁Ředitel	-10.4031
▁upraven	-10.4031
▁mladé	-10.4031
▁historie	-10.4031
▁turistů	-10.4031
▁zbraně	-10.4031
▁bydlení	-10.4031
bavit	-10.4031
▁věnoval	-10.4031
▁pojetí	-10.4032
▁zákonem	-10.4035
▁hodnota	-10.4035
▁nechat	-10.4035
▁lidmi	-10.4036
▁vlastním	-10.4037
▁krátce	-10.4038
▁dodávky	-10.4044
▁pohybuje	-10.4044
▁pozice	-10.4052
jal	-10.4052
▁letní	-10.4055
▁soutěží	-10.4055
▁silný	-10.406
▁Evropsk	-10.406
▁šampionátu	-10.4069
▁domácím	-10.407
▁dopad	-10.407
▁domě	-10.4076
▁činil	-10.4079
▁rozpad	-10.408
▁Soud	-10.408
ůj	-10.409
▁voličů	-10.4096
bla	-10.4104
und	-10.4106
▁pouhý	-10.411
▁soupeře	-10.4111
▁úspěchu	-10.4112
▁omezení	-10.4113
▁postav	-10.4114
▁zajímav	-10.4118
▁námi	-10.4119
▁dostává	-10.4121
hel	-10.4125
▁17.	-10.4135
áme	-10.414
▁Ste	-10.4143
▁provedení	-10.4146
▁Kla	-10.4146
sadil	-10.4147
skok	-10.4149
mile	-10.415
▁spolehliv	-10.4153
▁čin	-10.4155
▁výchov	-10.4156
ovského	-10.4162
▁obviněn	-10.417
▁materiálu	-10.4171
lze	-10.4172
▁investic	-10.4179
▁rychlosti	-10.4179
▁nejdůležitější	-10.4184
▁návrhy	-10.4188
▁dodavatel	-10.4188
▁nájemné	-10.4189
▁jinými	-10.4189
oři	-10.419
▁obecní	-10.4192
hání	-10.4193
▁vědeck	-10.4198
pek	-10.421
▁mysli	-10.421
měl	-10.4213
▁objev	-10.4216
ista	-10.4219
▁čisté	-10.4224
▁Především	-10.4227
▁Richard	-10.4227
▁elektrárny	-10.4227
▁měsíčně	-10.4227
▁umožní	-10.4227
▁úspěšné	-10.4227
▁minimálně	-10.4227
▁snížit	-10.4227
▁Spojené	-10.4227
▁zvýšit	-10.4227
▁úsilí	-10.4227
▁snímky	-10.4227
▁tvorbu	-10.4228
▁míře	-10.4228
▁doslova	-10.4228
▁poškození	-10.4228
▁setkal	-10.4228
▁kritik	-10.4229
▁Češi	-10.423
▁pravdu	-10.4232
▁nucen	-10.4232
▁myší	-10.4235
▁celek	-10.4236
▁správně	-10.4245
▁zobrazení	-10.4248
▁samotné	-10.4249
▁přestáv	-10.4252
▁anglické	-10.4253
▁okolností	-10.4254
▁jakou	-10.4257
▁sobotní	-10.4259
▁Ano	-10.426
pád	-10.4266
▁cestě	-10.4273
▁různým	-10.4274
▁rozvod	-10.4274
▁policistů	-10.4275
▁znát	-10.4282
▁žádná	-10.4284
▁černé	-10.4285
▁žádném	-10.4285
▁mistrů	-10.4288
ána	-10.429
telné	-10.4296
▁cítí	-10.4298
▁domácích	-10.4299
▁nejlepším	-10.4303
▁červen	-10.4305
hem	-10.4305
▁potenciál	-10.4306
▁kód	-10.4313
▁festivalu	-10.4315
▁radi	-10.4318
▁třídy	-10.4318
kož	-10.4326
▁technick	-10.4328
▁vzniká	-10.433
48	-10.433
▁konstatoval	-10.4334
valy	-10.4337
▁centrum	-10.4338
▁subjekt	-10.434
▁zjistil	-10.4343
ŘE	-10.4344
▁600	-10.4345
čan	-10.4346
šování	-10.4351
out	-10.4357
áš	-10.4369
▁zad	-10.437
▁PowerPointu	-10.4381
▁oper	-10.4389
ica	-10.4391
▁vést	-10.4399
▁poklesu	-10.4399
OU	-10.44
ša	-10.4401
▁dítě	-10.4402
▁tříd	-10.4409
▁neznám	-10.4411
jíž	-10.4419
▁povrchu	-10.442
▁denní	-10.4421
▁polovina	-10.4422
▁zpravodaj	-10.4426
▁existence	-10.4427
▁konkurenční	-10.4427
▁matematik	-10.4427
▁pojišťovny	-10.4427
▁rozhodování	-10.4427
▁úspěšný	-10.4427
▁ČNR	-10.4427
▁Samozřejmě	-10.4427
▁divadla	-10.4427
▁editor	-10.4427
▁půjde	-10.4427
▁širší	-10.4427
▁výskyt	-10.4427
▁sdělení	-10.4427
▁nabídka	-10.4427
▁prac	-10.443
▁Vznik	-10.443
▁obsadil	-10.4431
▁strach	-10.4432
▁úraz	-10.4433
▁nemoci	-10.4434
▁Muž	-10.4437
▁společenské	-10.4437
▁dobrovoln	-10.4439
▁představení	-10.444
▁myšlení	-10.4442
▁nezávislých	-10.4443
▁map	-10.4443
entní	-10.4447
jímá	-10.4452
▁výdaje	-10.4454
▁nastoupil	-10.4459
▁skupinu	-10.4466
▁úvodní	-10.447
▁technický	-10.4471
▁Proti	-10.4481
▁podnikatelé	-10.4486
▁ochot	-10.4494
▁půdy	-10.4497
mot	-10.4499
rní	-10.4499
▁nebyli	-10.4506
VA	-10.4508
▁výstav	-10.4516
▁generál	-10.4517
▁okraj	-10.4524
▁vysokých	-10.4525
LO	-10.4528
ňovat	-10.4532
▁mal	-10.4532
▁zákazníky	-10.4532
▁klade	-10.4538
▁zaměřen	-10.4546
▁smrt	-10.4548
▁armáda	-10.4548
yl	-10.4555
dol	-10.4562
padne	-10.4575
▁účastní	-10.4576
▁úpravy	-10.4582
▁Slovensko	-10.4584
▁hodinu	-10.4586
▁celní	-10.4592
▁cm	-10.4593
kládání	-10.4599
KU	-10.4606
▁známý	-10.4607
▁nech	-10.4612
volat	-10.4613
▁chemické	-10.4614
▁maximáln	-10.4617
▁Char	-10.4622
ovky	-10.4625
▁odpadní	-10.4626
▁alkohol	-10.4631
▁Němci	-10.4631
▁církve	-10.4631
▁týdny	-10.4631
▁usnesení	-10.4631
▁nízké	-10.4631
▁surovin	-10.4631
▁fotograf	-10.4631
▁odmítá	-10.4631
▁kolegy	-10.4631
▁zapotřebí	-10.4631
▁vražd	-10.4631
▁přišla	-10.4631
▁1988	-10.4632
▁privatizační	-10.4632
▁Teď	-10.4634
kombin	-10.4634
▁létě	-10.4635
▁bezpečnost	-10.464
▁StB	-10.4641
▁FS	-10.4643
ňují	-10.4656
▁vůle	-10.4659
▁výuk	-10.4659
▁prodejní	-10.4662
kupní	-10.4662
▁žijící	-10.4665
▁rozhovor	-10.4668
▁konstru	-10.4673
race	-10.4675
▁mladých	-10.4675
▁fyzik	-10.4677
▁postaven	-10.4677
▁přímé	-10.4679
▁uspořáda	-10.4682
▁zájmy	-10.4685
zemní	-10.4686
▁lov	-10.4687
▁porušení	-10.4687
▁rozporu	-10.4687
letěl	-10.4687
▁spol	-10.4689
▁založil	-10.4692
▁představitelů	-10.4692
MO	-10.4693
▁důsledky	-10.4694
▁pas	-10.4696
▁Bur	-10.4699
▁německého	-10.4701
▁Chorvatsk	-10.4706
han	-10.4708
▁lidského	-10.4709
▁Internetu	-10.4709
▁Kol	-10.4716
▁původu	-10.4722
▁Kde	-10.4722
▁mluví	-10.4726
▁společn	-10.4728
▁německých	-10.4731
▁daňový	-10.4732
▁automobilů	-10.4734
▁úrok	-10.474
skal	-10.4742
▁velikosti	-10.4746
sídl	-10.4757
▁nápad	-10.4759
80	-10.4761
▁nehod	-10.4767
vající	-10.4769
▁oni	-10.4781
▁jižní	-10.4785
▁částka	-10.4788
▁obce	-10.479
spal	-10.4791
▁předsed	-10.4797
nová	-10.4804
▁formát	-10.4809
MI	-10.481
běhl	-10.4814
▁Sovětské	-10.4819
▁18.	-10.4823
▁hře	-10.4824
bírá	-10.4829
▁20.	-10.4835
▁postupu	-10.4837
▁Egypt	-10.4839
▁Moskvě	-10.4839
▁firmou	-10.4839
▁pokračoval	-10.4839
▁technologií	-10.4839
▁vynikající	-10.4839
▁zvyšuje	-10.4839
▁populace	-10.4839
▁třináct	-10.4839
▁devíti	-10.4839
▁spisovatel	-10.4839
▁Třetí	-10.4839
▁dovolené	-10.4839
▁štěstí	-10.4839
▁ihned	-10.4839
▁Francii	-10.4839
▁Předseda	-10.4839
▁Pomuku	-10.484
▁mužstva	-10.484
▁reprezentační	-10.484
▁Bush	-10.484
▁funkční	-10.484
▁tábor	-10.484
vzdor	-10.4841
▁spotřební	-10.4842
▁mluvit	-10.4844
▁Boris	-10.4844
▁Milan	-10.4845
▁správné	-10.4846
▁rozhodla	-10.4847
▁obětí	-10.4849
▁šok	-10.485
▁Místo	-10.485
▁barevné	-10.485
KDU	-10.4852
▁představy	-10.4853
▁Více	-10.4856
▁úmrtnosti	-10.4856
ějším	-10.486
▁Avšak	-10.4861
▁stačil	-10.4863
▁podklad	-10.4864
ria	-10.4869
▁přichází	-10.4872
▁těla	-10.4873
▁uvedený	-10.4875
▁nemocnici	-10.4877
▁zastoupení	-10.4882
TO	-10.4888
▁Druhý	-10.4895
hodil	-10.4897
▁hrají	-10.4898
psané	-10.4898
cc	-10.4899
▁obavy	-10.4899
▁myslí	-10.4903
▁řeči	-10.4904
TE	-10.4905
istů	-10.4906
▁všeho	-10.4906
▁Jižní	-10.492
▁dětské	-10.4921
▁prodává	-10.4923
hlásí	-10.4924
inak	-10.4928
▁příležitost	-10.4932
▁lesní	-10.4934
▁studiu	-10.4957
▁volb	-10.4963
▁detail	-10.4966
▁Val	-10.4975
▁ročníku	-10.4976
tickou	-10.4976
▁molekuly	-10.4979
oje	-10.4987
▁vážně	-10.4992
▁realit	-10.4994
▁krátké	-10.4997
▁pražsk	-10.5
▁příštích	-10.5006
kládají	-10.5011
▁nebezpečn	-10.5017
▁Nez	-10.5018
▁doprav	-10.5022
▁snaha	-10.5026
▁pražském	-10.5033
tvrdil	-10.5037
▁dostih	-10.5037
▁kroky	-10.5038
▁financování	-10.5052
▁konkurenci	-10.5052
▁nakladatelství	-10.5052
▁sledovat	-10.5052
▁tehdejší	-10.5052
▁transformace	-10.5052
▁výsledkem	-10.5052
▁zlepšení	-10.5052
▁úmrtí	-10.5052
▁negativní	-10.5052
▁rozhodnout	-10.5052
▁budoucnu	-10.5052
▁příjmu	-10.5052
▁civilní	-10.5052
▁zabránit	-10.5052
▁Vláda	-10.5052
▁cukr	-10.5052
▁souvisí	-10.5052
▁Slavie	-10.5052
▁jedinou	-10.5053
▁Kanad	-10.5054
▁operace	-10.5054
▁Euro	-10.5054
▁PCB	-10.5054
▁střet	-10.5055
▁dlužník	-10.5056
bezpeč	-10.5059
▁Wales	-10.506
▁šíř	-10.5061
▁Vedle	-10.5063
ologické	-10.5066
▁byty	-10.5072
ujte	-10.5073
▁formou	-10.5074
▁osmdesát	-10.5074
▁charakter	-10.5075
ona	-10.5077
▁zaplatit	-10.508
Ř	-10.5088
▁vyzval	-10.5089
▁překvapení	-10.5093
jmenován	-10.5094
▁UK	-10.5095
▁náhod	-10.5096
▁výhodné	-10.5098
▁řídí	-10.5098
▁jezdí	-10.5103
▁českým	-10.5105
▁Sam	-10.5108
▁prodat	-10.5108
▁povinností	-10.511
▁33	-10.511
▁probíh	-10.5112
▁Spo	-10.5121
▁obec	-10.5123
hradí	-10.5124
▁0	-10.5124
▁starých	-10.5128
▁Man	-10.513
▁45	-10.5131
▁největším	-10.5132
▁příležitosti	-10.5136
▁celkový	-10.5138
působil	-10.514
▁zbytečné	-10.5142
▁dialog	-10.5148
▁On	-10.5152
▁produktu	-10.5157
▁velkým	-10.5161
▁napětí	-10.5162
▁hlad	-10.5162
▁3000	-10.5166
▁škola	-10.5178
ouze	-10.5182
▁příslušný	-10.5182
▁dojde	-10.5182
▁váh	-10.5183
▁účely	-10.5186
elné	-10.5187
▁soustav	-10.5189
▁vlád	-10.5195
▁západ	-10.5196
▁komor	-10.5202
▁partnery	-10.5202
▁novém	-10.5205
▁noviny	-10.5206
▁směn	-10.5212
▁jakých	-10.5213
▁jedná	-10.5214
ejména	-10.5215
▁Obě	-10.522
▁pravidla	-10.5238
▁historické	-10.5238
▁zápasy	-10.5242
▁32	-10.5242
dařilo	-10.5245
▁pracovníky	-10.5245
Sc	-10.5249
▁ekonom	-10.5251
▁troj	-10.526
▁zobraz	-10.5265
▁nákladní	-10.5268
▁někde	-10.5269
▁Ostatně	-10.5269
▁Plzeň	-10.5269
▁Sdružení	-10.5269
▁služba	-10.5269
▁záleží	-10.5269
▁červnu	-10.5269
▁rekreační	-10.5269
▁přiznání	-10.527
▁porovnání	-10.527
▁krize	-10.527
▁navrhl	-10.527
▁sítí	-10.5271
▁výrok	-10.5271
▁klíč	-10.5272
▁Výbor	-10.5272
▁prázdnin	-10.5274
▁místnosti	-10.5274
▁Ačkoli	-10.5275
▁neměla	-10.5275
▁jasně	-10.5276
▁obrázek	-10.5278
fyzikální	-10.5278
▁požár	-10.5281
▁zahrad	-10.5282
▁195	-10.5283
▁jednotky	-10.5286
ité	-10.5287
▁přináší	-10.5289
▁dán	-10.5291
▁školní	-10.5291
▁zápasu	-10.5293
▁udržet	-10.5293
▁začátkem	-10.5293
▁Bor	-10.5294
▁pozorovatel	-10.5304
▁starý	-10.5306
▁dostali	-10.5306
▁způsoben	-10.5308
▁oči	-10.5309
▁znalosti	-10.5311
▁pomohl	-10.5314
▁účetní	-10.5316
▁Washingtonu	-10.5318
▁lesy	-10.532
▁hodnotě	-10.5324
▁prodávat	-10.5327
▁Moravy	-10.5329
▁staro	-10.5331
▁strojů	-10.5334
▁turnaje	-10.5336
▁historický	-10.5344
▁Mal	-10.5344
skými	-10.5345
▁nemáme	-10.5346
▁placení	-10.5346
▁Vod	-10.5348
▁tamní	-10.5372
vodí	-10.5377
▁bot	-10.5378
▁Firm	-10.5378
kin	-10.5379
▁dvoj	-10.5384
▁hokej	-10.5386
▁trenéra	-10.5396
▁nezávislost	-10.5397
sion	-10.5397
▁Ruska	-10.5398
šky	-10.5403
▁vyspělý	-10.5404
▁pražského	-10.5406
▁všemi	-10.5414
pust	-10.5414
▁regul	-10.5423
▁vědecký	-10.5425
▁vědom	-10.5437
▁schválen	-10.5437
mého	-10.5446
▁hran	-10.5446
▁Rusk	-10.5448
▁El	-10.5464
jel	-10.5471
▁vedením	-10.5471
▁tvrd	-10.5471
ticky	-10.5473
▁PC	-10.5475
▁americk	-10.5482
▁Mat	-10.5489
stu	-10.549
part	-10.549
▁Bratislavě	-10.5492
▁kompromis	-10.5492
▁monopol	-10.5492
▁odpověděl	-10.5492
▁oficiálně	-10.5492
▁otázce	-10.5492
▁týdnů	-10.5492
▁uskuteční	-10.5492
▁Návrh	-10.5492
▁nabídnout	-10.5492
▁Nakonec	-10.5492
▁stížnost	-10.5492
▁péči	-10.5492
▁podpora	-10.5492
▁žalob	-10.5492
▁dovolit	-10.5492
▁server	-10.5493
▁nepodařilo	-10.5493
▁kategorie	-10.5494
▁místy	-10.5494
▁modelů	-10.5495
▁žlut	-10.5495
▁okno	-10.5495
▁Podnik	-10.5495
▁nedostatek	-10.5496
▁partnerů	-10.5501
kazuje	-10.5502
▁připravit	-10.5502
sát	-10.5506
▁Brno	-10.5506
▁120	-10.5507
▁prvky	-10.5507
ismem	-10.5508
▁něž	-10.5509
▁návštěvě	-10.5511
▁stará	-10.5511
povídá	-10.5514
▁duch	-10.5514
▁vyvíj	-10.5515
▁tajné	-10.5521
▁jaterní	-10.5522
▁zjistit	-10.5522
kládat	-10.5522
▁provést	-10.5533
▁přiznal	-10.5535
far	-10.5537
lis	-10.5537
▁malou	-10.5539
▁okrese	-10.554
▁kontrolu	-10.5542
▁nezaměstnanosti	-10.5545
▁buňky	-10.5548
▁získání	-10.555
▁vložen	-10.555
▁domácnosti	-10.5558
▁případu	-10.5559
▁osobně	-10.5559
▁stanici	-10.5567
▁spotřebitel	-10.557
čila	-10.5571
▁0,	-10.5577
pálen	-10.5579
▁hledá	-10.5579
▁stisk	-10.558
▁vojenský	-10.5582
▁operační	-10.5586
▁past	-10.5595
▁elektro	-10.5595
▁poloh	-10.5596
ON	-10.5598
▁událost	-10.5598
ební	-10.5601
kovat	-10.5601
▁posíl	-10.5601
▁Evropský	-10.5602
▁slovy	-10.5605
▁víkend	-10.5613
▁věk	-10.5613
▁druhým	-10.5625
▁uzavřel	-10.5628
íček	-10.5637
okr	-10.565
▁koruny	-10.5652
▁Ad	-10.5658
při	-10.5658
▁stejném	-10.5663
▁dřív	-10.5672
▁přítomn	-10.5674
▁filmů	-10.5676
tický	-10.5679
stavit	-10.5683
▁ekonomik	-10.5687
▁přeměn	-10.5691
▁Slov	-10.5701
vádějí	-10.5701
▁Mark	-10.5702
▁prodal	-10.5702
hovořil	-10.5705
▁partnera	-10.5706
▁začalo	-10.571
▁advokát	-10.5719
▁existenci	-10.5719
▁funguje	-10.5719
▁otevření	-10.5719
▁otázek	-10.5719
▁pojišťovna	-10.5719
▁poskytnut	-10.5719
▁rozhodovat	-10.5719
▁Slunce	-10.5719
▁lokalit	-10.5719
▁ostatně	-10.5719
▁vytvoří	-10.5719
▁vyberte	-10.5719
▁situací	-10.5719
▁Znamen	-10.5719
▁letadla	-10.5719
▁zůstávají	-10.5719
▁dlouhodobé	-10.5719
▁stáří	-10.5719
▁žádá	-10.5719
▁molekulární	-10.572
▁aktuální	-10.5721
▁operaci	-10.5721
▁přání	-10.5722
▁pochod	-10.5722
▁vyšetřování	-10.5722
▁SRN	-10.5723
▁proměn	-10.5724
▁případy	-10.5725
▁Obecn	-10.5725
▁protein	-10.5725
▁vystudoval	-10.5727
▁zájemců	-10.5729
tle	-10.5729
▁změní	-10.573
▁set	-10.5731
▁fakultě	-10.5731
musela	-10.5732
bíd	-10.5734
▁formě	-10.5739
▁vypadá	-10.574
▁fan	-10.5743
▁západních	-10.5744
▁sezóně	-10.5745
▁pozná	-10.5747
▁fakulty	-10.5749
▁Brna	-10.5751
tak	-10.5753
▁církev	-10.5754
▁státním	-10.5761
▁potřeboval	-10.5765
▁16.	-10.5766
éměř	-10.5767
▁širok	-10.5768
▁zjištění	-10.5769
ete	-10.577
▁složen	-10.5772
▁vstupu	-10.5774
lka	-10.5776
▁dobrou	-10.5778
▁nájemného	-10.5781
▁členem	-10.5782
▁cíle	-10.5783
▁trvale	-10.5785
▁nástroje	-10.5789
▁návštěvníků	-10.5791
▁odstup	-10.5803
▁komory	-10.5807
▁produkt	-10.5808
▁přicházejí	-10.5808
vítá	-10.5811
▁spojené	-10.5813
▁ministrů	-10.5826
▁víkendu	-10.5826
▁metoda	-10.5829
▁fa	-10.5833
▁jedenáct	-10.5837
▁docela	-10.5839
▁čeho	-10.5841
▁most	-10.5844
▁obyvatelé	-10.5848
vir	-10.5853
▁průměrn	-10.5855
▁označen	-10.5855
▁struktury	-10.5858
▁čist	-10.5858
15	-10.5863
▁Er	-10.5864
▁odpovědnost	-10.587
▁brankář	-10.5871
muž	-10.5871
▁pobytu	-10.5873
▁začaly	-10.5892
Ú	-10.5894
▁Německ	-10.5907
▁přístroj	-10.5913
▁církevní	-10.5915
▁vojensk	-10.5919
působit	-10.5919
▁takovým	-10.5926
▁rozdíly	-10.5931
▁zjištěn	-10.5934
▁modelu	-10.5934
platí	-10.594
▁Št	-10.5941
▁Dom	-10.5942
▁kont	-10.5943
áček	-10.5947
▁klubů	-10.5948
▁trans	-10.5951
▁Anglie	-10.5952
▁Nejvyšší	-10.5952
▁disciplín	-10.5952
▁institucí	-10.5952
▁laboratoř	-10.5952
▁mladší	-10.5952
▁nejčastěji	-10.5952
▁příspěvek	-10.5952
▁software	-10.5952
▁přispěl	-10.5952
▁nestačí	-10.5952
▁rodičů	-10.5952
▁organizační	-10.5952
▁pochopitelně	-10.5952
▁přinejmenším	-10.5952
▁souboj	-10.5952
▁Polici	-10.5952
▁vlastnictví	-10.5952
▁přijít	-10.5952
▁dráhy	-10.5953
▁tvorby	-10.5953
▁zabezpečení	-10.5953
▁podobu	-10.5953
▁výplat	-10.5955
▁Střed	-10.5955
▁vrátí	-10.5955
▁poruch	-10.5955
▁Stačí	-10.5956
▁vědců	-10.5957
▁poznatky	-10.5958
▁postižené	-10.5966
▁přijmout	-10.5966
▁Bosně	-10.5967
▁ekonomických	-10.5968
▁vozů	-10.5969
▁uznání	-10.597
▁Králové	-10.597
stával	-10.5972
▁nemusel	-10.5973
▁předpisů	-10.5974
▁obsahu	-10.5977
▁levnější	-10.598
▁prodeji	-10.5981
▁policisté	-10.5982
▁hodinách	-10.5984
▁vytváří	-10.5988
▁smut	-10.5992
▁předsedou	-10.5993
▁red	-10.5993
▁dohoda	-10.5995
▁George	-10.5995
▁léky	-10.5995
▁obrazovky	-10.6003
▁čekal	-10.6009
▁skutečný	-10.6011
▁Olomouci	-10.6012
▁ztrát	-10.6016
▁komplexní	-10.6018
▁ideální	-10.6019
SA	-10.6021
▁nezávisl	-10.6022
▁starosti	-10.6026
▁prostory	-10.6033
staral	-10.6036
▁čt	-10.6041
▁fyziky	-10.6045
▁obran	-10.605
cker	-10.6051
kova	-10.6053
▁uvažuje	-10.6055
ováni	-10.6055
izované	-10.6057
▁významný	-10.6057
▁českou	-10.6057
bod	-10.6067
▁volně	-10.6068
▁dodat	-10.607
▁částic	-10.6074
tická	-10.6078
▁festival	-10.6084
▁sekund	-10.6084
▁jistot	-10.6084
▁věděl	-10.6092
▁zápasů	-10.6093
▁Har	-10.6102
nedávn	-10.6112
vykl	-10.6114
▁nepod	-10.6121
▁českém	-10.6122
▁Pal	-10.6123
▁vydává	-10.6124
ejme	-10.6127
rah	-10.6129
▁55	-10.6135
▁zvýšen	-10.6136
ráže	-10.6138
ola	-10.614
ložení	-10.6141
▁auta	-10.6141
▁plochy	-10.6142
▁ministrem	-10.6142
▁novinářů	-10.6147
ODS	-10.6153
▁vzrostl	-10.6156
▁pacienta	-10.6157
dostanou	-10.616
ruší	-10.6162
▁Stát	-10.6164
AV	-10.6167
▁hus	-10.6168
▁milion	-10.6182
▁původ	-10.6184
▁Anglii	-10.619
▁Jaromír	-10.619
▁Microsoft	-10.619
▁NHL	-10.619
▁francouzské	-10.619
▁jménem	-10.619
▁medaile	-10.619
▁navzájem	-10.619
▁odpovědi	-10.619
▁sortiment	-10.619
▁uzavřít	-10.619
▁veřejně	-10.619
▁využívat	-10.619
▁zabývat	-10.619
▁článek	-10.619
▁mužstvo	-10.619
▁Major	-10.619
▁asociace	-10.619
▁poskytují	-10.619
▁řetěz	-10.619
▁konzul	-10.619
▁duchovní	-10.619
▁dětem	-10.619
▁chvíle	-10.619
▁ČEZ	-10.619
▁požadavek	-10.619
▁bolest	-10.619
▁zástupců	-10.619
▁zhorš	-10.6191
▁měřítk	-10.6191
▁Chtěl	-10.6192
▁okolní	-10.6193
▁Odbor	-10.6196
▁hrob	-10.6197
▁Slav	-10.6198
▁výpočetní	-10.6201
▁třikrát	-10.6202
hodnou	-10.6202
▁dres	-10.6203
▁venkov	-10.6205
▁Prav	-10.6205
▁disket	-10.6207
zaměstnan	-10.6209
▁majitele	-10.6213
▁zemské	-10.6214
▁půd	-10.6221
▁Paul	-10.6224
▁pojme	-10.6226
soudil	-10.6235
▁výstavby	-10.6236
▁stanoví	-10.6238
86	-10.6238
▁podal	-10.6238
▁týkající	-10.6239
▁ulice	-10.624
▁vzdálen	-10.6241
volání	-10.6245
▁chodí	-10.6246
▁sloup	-10.6246
▁pracující	-10.6249
,6	-10.6253
▁umístění	-10.6258
▁osobnosti	-10.6258
▁praktické	-10.6263
12	-10.6265
šly	-10.6265
spraš	-10.6265
▁Dobr	-10.6267
▁Dvě	-10.6268
▁Takové	-10.6273
▁používání	-10.6274
▁San	-10.6274
▁stanovení	-10.628
▁Jedin	-10.6283
▁250	-10.6285
▁Profitu	-10.6287
průměr	-10.6288
ine	-10.6293
▁fondů	-10.6298
▁vklad	-10.6298
ěřitel	-10.6299
▁(2	-10.6307
▁obsahující	-10.6307
▁občansk	-10.6308
nických	-10.631
▁žádost	-10.6312
▁čtvrté	-10.6313
▁minulém	-10.6315
▁sousední	-10.6316
▁samostatné	-10.6322
▁účastník	-10.6325
▁česko	-10.6327
▁průzkum	-10.6327
likvid	-10.6337
rna	-10.634
▁pokusil	-10.6342
▁třiceti	-10.6343
míněn	-10.6364
pas	-10.6365
▁významu	-10.6365
age	-10.6368
▁CO	-10.6375
▁mistra	-10.6376
▁obratu	-10.6377
▁trhy	-10.6382
▁podstat	-10.6383
▁ekologické	-10.6386
▁rozdělen	-10.6387
▁uživatelů	-10.6397
tání	-10.6402
▁dvanácti	-10.6409
▁prezidentem	-10.641
OVÁ	-10.6419
▁hospod	-10.642
▁pracují	-10.6425
▁značný	-10.6428
▁stimul	-10.6432
▁Důležit	-10.6434
▁dlouhý	-10.6434
▁generace	-10.6434
▁ministři	-10.6434
▁považuji	-10.6434
▁souladu	-10.6434
▁údržb	-10.6434
▁vyhlášk	-10.6434
▁vysoká	-10.6434
▁Polska	-10.6434
▁organizaci	-10.6434
▁obrátil	-10.6434
▁Michal	-10.6434
▁chtít	-10.6434
▁vlajk	-10.6434
▁doping	-10.6434
▁motocykl	-10.6434
ovce	-10.6434
▁Možnost	-10.6435
ŘÍ	-10.6435
▁hospodářský	-10.6435
▁studia	-10.6436
▁tepeln	-10.6436
▁nejspíš	-10.6436
▁počítačové	-10.6436
▁územní	-10.6437
▁stanovis	-10.6437
▁omyl	-10.6437
▁nedělní	-10.6438
▁dolar	-10.6438
▁sluch	-10.6441
▁skončila	-10.6441
▁bomb	-10.6442
▁vydá	-10.6443
zdrav	-10.6444
▁neznamená	-10.6447
▁společensk	-10.6448
▁vyplatí	-10.6448
▁Ří	-10.6449
▁ukazují	-10.6451
▁obecné	-10.6452
71	-10.6453
▁uživatel	-10.6454
▁související	-10.6454
▁předložil	-10.6455
▁odborných	-10.6455
▁rodinné	-10.6457
▁lesů	-10.646
▁Zlín	-10.6462
ány	-10.6465
▁manipul	-10.6468
skočil	-10.6468
▁zato	-10.6469
▁nástrojů	-10.6471
▁vystoupil	-10.6475
▁vyhrála	-10.6477
▁zajištění	-10.6481
▁kdysi	-10.6481
ukce	-10.6486
▁prst	-10.6486
tažení	-10.6488
▁Karlovy	-10.6491
▁silně	-10.6492
▁hluboko	-10.6493
▁noční	-10.6496
▁ačkoli	-10.6497
▁občané	-10.6499
▁styk	-10.65
▁obchodním	-10.6504
▁možných	-10.6505
▁časopisu	-10.6506
▁nedávné	-10.6506
▁ZA	-10.6507
▁Obchodní	-10.6507
▁panelu	-10.6511
▁Konce	-10.6516
▁vědě	-10.6517
ZE	-10.6518
vest	-10.6525
▁min	-10.6531
▁nemělo	-10.6537
▁skončilo	-10.6537
▁náhrad	-10.6541
▁sekundu	-10.6544
▁Slovenské	-10.6548
▁schopnosti	-10.656
▁samé	-10.6562
▁univerzit	-10.6567
reform	-10.6572
▁Met	-10.6577
▁pohybují	-10.6578
pana	-10.658
▁regionu	-10.658
běhu	-10.6584
▁dosah	-10.6584
▁zahájen	-10.6587
▁Poslaneck	-10.6593
▁dostalo	-10.6593
▁Ben	-10.6596
▁ústavy	-10.6603
▁ochrany	-10.6604
▁zákazníka	-10.6609
▁způsobu	-10.6611
▁průmyslový	-10.6611
▁možný	-10.6612
▁politického	-10.6613
▁získáva	-10.662
▁souvislost	-10.662
▁přenosu	-10.6624
▁široké	-10.663
▁Fil	-10.6646
▁mini	-10.6648
kazují	-10.6648
▁zpěv	-10.6648
▁mimořádné	-10.6651
▁pojištěn	-10.6654
▁míní	-10.6654
děk	-10.6655
▁nepříjemn	-10.6655
ativní	-10.666
jmout	-10.6668
▁Kam	-10.6671
▁Lin	-10.6678
▁dokonale	-10.6678
▁přechodu	-10.6679
ovněž	-10.6683
▁atmosféře	-10.6684
▁delegace	-10.6684
▁francouzský	-10.6684
▁inflace	-10.6684
▁poptávka	-10.6684
▁sedmnáct	-10.6684
▁službu	-10.6684
▁dozvěděl	-10.6684
▁nejnovější	-10.6684
▁vysokoškol	-10.6684
▁všude	-10.6684
▁Skutečn	-10.6684
▁badatel	-10.6684
▁mandát	-10.6684
▁považují	-10.6684
▁Viktor	-10.6684
▁přírodě	-10.6684
▁penzijní	-10.6684
▁politická	-10.6684
▁doprovod	-10.6684
▁zábav	-10.6684
▁Popper	-10.6684
▁vyšetřovatel	-10.6684
▁čísel	-10.6684
▁dohodnut	-10.6684
▁devadesát	-10.6684
▁vystaven	-10.6684
▁Podnikatel	-10.6684
▁citliv	-10.6685
▁vysloven	-10.6685
▁květnu	-10.6685
▁podaří	-10.6685
▁velitel	-10.6685
▁obvod	-10.6686
▁rytm	-10.6687
▁mnohd	-10.6687
▁výstup	-10.6688
ujícího	-10.6688
▁stanovisko	-10.6688
ČS	-10.6688
▁dřívější	-10.6689
▁brát	-10.6689
▁vysvětlit	-10.6689
▁vrací	-10.6689
▁vysvětlení	-10.669
▁mínění	-10.6691
▁myši	-10.6691
▁kvalita	-10.6692
▁Nejvíce	-10.6694
▁zlato	-10.6694
▁řeší	-10.6696
▁stupně	-10.6696
▁dobou	-10.6698
▁opravy	-10.6698
▁prosadit	-10.67
▁Čas	-10.6701
▁10.	-10.6702
▁Chceme	-10.6703
▁léků	-10.6705
▁vědci	-10.6709
▁kamer	-10.671
▁grafik	-10.6712
▁hodnotí	-10.6713
▁Kolik	-10.6714
▁nedostal	-10.6715
▁představit	-10.6715
▁podílel	-10.6716
▁vysvětlil	-10.6716
▁dosahuje	-10.6718
▁slovenských	-10.6719
bran	-10.6719
ug	-10.672
▁projekty	-10.672
▁nechá	-10.6722
jedou	-10.6723
▁znaků	-10.6731
▁dám	-10.6732
▁zkušeností	-10.6735
▁čemu	-10.6737
▁nebe	-10.6738
▁Postup	-10.6739
▁Novák	-10.674
▁titulu	-10.6743
slyš	-10.6743
platit	-10.6748
koupit	-10.6749
▁ukázalo	-10.6749
▁přípravě	-10.676
▁nesouhlasí	-10.6761
▁orgánů	-10.6762
▁zbytek	-10.6765
72	-10.6769
▁oceán	-10.677
▁odchodu	-10.6777
orku	-10.6785
▁místem	-10.6787
▁dojem	-10.6788
▁chladn	-10.6789
EK	-10.6793
▁třídě	-10.6794
ess	-10.6795
▁plný	-10.6798
▁smí	-10.6799
hnal	-10.68
▁ST	-10.6801
▁armád	-10.6806
▁Dán	-10.6809
čtí	-10.681
▁800	-10.681
▁špičk	-10.681
▁rizik	-10.6811
▁role	-10.6812
▁stanic	-10.6817
▁závodě	-10.6823
kupovat	-10.6824
▁mimořádný	-10.6828
11	-10.6829
▁materiály	-10.6829
počet	-10.6835
▁rozsah	-10.6835
▁Čs	-10.6837
▁policist	-10.6845
▁Představ	-10.6847
▁RN	-10.6849
▁Ostrava	-10.6849
▁vodou	-10.6856
▁výstava	-10.6858
pravděpodobností	-10.6858
▁Paříž	-10.6859
▁volič	-10.6864
elů	-10.6868
▁kanceláří	-10.6874
▁koho	-10.6874
▁viděl	-10.6877
rám	-10.6877
▁cenný	-10.6899
izovan	-10.6902
▁sval	-10.6912
▁jimi	-10.6912
▁čtenáře	-10.6915
▁herec	-10.6933
▁cenou	-10.6935
▁názorů	-10.6936
▁přírodověd	-10.694
hlížet	-10.694
▁Výsledk	-10.694
▁Zajímav	-10.694
▁atraktivní	-10.694
▁blízké	-10.694
▁milióny	-10.694
▁montáž	-10.694
▁požadavků	-10.694
▁rozhraní	-10.694
▁složky	-10.694
▁telekomunikační	-10.694
▁tiskárny	-10.694
▁dlouhá	-10.694
▁používají	-10.694
▁chráněn	-10.694
▁externí	-10.694
▁koncepce	-10.694
ičtější	-10.694
▁nabídce	-10.694
▁vysoce	-10.694
▁závisí	-10.694
▁naděje	-10.694
▁muzea	-10.6941
▁barvy	-10.6941
▁učinil	-10.6941
▁mozkov	-10.6942
▁rozšířit	-10.6942
▁žebříčku	-10.6942
▁předpokládat	-10.6943
▁unii	-10.6944
▁osobních	-10.6944
▁vysvětluje	-10.6946
▁naději	-10.6946
▁Chyb	-10.6949
▁Irsk	-10.6953
prodej	-10.6953
IL	-10.6953
▁větším	-10.6953
▁umožňující	-10.6959
nést	-10.6959
▁Nebyl	-10.696
▁můj	-10.6963
▁bytové	-10.6964
▁uvést	-10.6967
▁Stran	-10.697
▁skladb	-10.697
▁Nikdo	-10.6972
▁čtyřech	-10.6973
▁dvojice	-10.6976
▁kniha	-10.6978
psat	-10.6979
▁totéž	-10.6981
▁stín	-10.6982
ocel	-10.6983
▁Sparty	-10.6988
tematick	-10.6989
▁grafické	-10.6989
▁Autor	-10.6995
soci	-10.6997
▁nemůžeme	-10.7005
▁návštěvu	-10.7011
▁Tur	-10.7012
▁návrat	-10.7014
▁pořádá	-10.7015
▁agentura	-10.7017
▁pevné	-10.7026
▁čtyřmi	-10.7029
▁akciové	-10.7032
▁šat	-10.7035
▁jakékoli	-10.7044
▁reáln	-10.7049
▁stěn	-10.7053
▁km	-10.7055
▁podstatné	-10.7055
rušení	-10.7058
▁studium	-10.7058
▁budovy	-10.7059
projevuje	-10.7059
elná	-10.7061
kládal	-10.7062
▁krátk	-10.7063
▁představu	-10.7066
▁podání	-10.7083
▁fotbalistů	-10.7086
▁britský	-10.7087
volal	-10.7088
▁finančn	-10.709
▁bi	-10.7091
▁divák	-10.7093
enství	-10.7096
▁psa	-10.7096
áhy	-10.71
▁geolog	-10.7101
▁Profit	-10.7102
▁zaměstnavatele	-10.7104
▁světového	-10.7105
▁způsoby	-10.711
▁představil	-10.7117
▁polské	-10.7119
▁Hra	-10.7124
▁noc	-10.7127
▁komplex	-10.7128
▁registr	-10.713
▁stranou	-10.7133
▁nároky	-10.7135
▁Nizozemsk	-10.7137
▁nebezpečné	-10.714
▁potřebný	-10.7143
▁přední	-10.7145
ctví	-10.7159
▁Den	-10.7163
vlas	-10.7167
▁okolnost	-10.7168
stavení	-10.7171
▁experiment	-10.7176
▁patřil	-10.7177
▁nachází	-10.7182
▁kup	-10.7191
▁orgán	-10.7198
▁Cena	-10.7198
čovat	-10.7199
▁stanov	-10.7203
favorit	-10.7203
▁Itálii	-10.7203
▁divadelní	-10.7203
▁inženýr	-10.7203
▁obligace	-10.7203
▁otevřené	-10.7203
▁peněžní	-10.7203
▁požaduje	-10.7203
▁snižování	-10.7203
▁vojáků	-10.7203
▁výjimečn	-10.7203
▁úrovní	-10.7203
▁Miloslav	-10.7203
▁komentář	-10.7203
▁přirozený	-10.7203
▁zjistí	-10.7203
▁rychlý	-10.7203
▁odsouzen	-10.7203
▁povinen	-10.7203
▁nevěděl	-10.7203
▁průkaz	-10.7203
▁absolvent	-10.7203
▁menšin	-10.7203
▁podívat	-10.7203
▁důkladn	-10.7203
▁Jugoslávii	-10.7203
▁dálnic	-10.7204
▁najevo	-10.7204
▁zavře	-10.7206
▁Peter	-10.7207
▁říct	-10.7208
▁vybírat	-10.721
▁skončení	-10.7211
▁Bud	-10.7215
▁nesmírn	-10.7216
▁fax	-10.7217
▁strav	-10.7218
▁agent	-10.722
▁pivo	-10.7222
▁některým	-10.7223
▁odvolání	-10.7224
▁tisíci	-10.7225
▁přev	-10.7225
▁systémem	-10.7226
▁Cha	-10.7231
▁Moravě	-10.7231
rum	-10.7232
▁kusů	-10.7233
žije	-10.7233
▁hlavu	-10.7233
ráží	-10.7235
▁předmětem	-10.7236
▁povolání	-10.7237
▁cyklus	-10.7237
▁japonské	-10.7239
▁pokyn	-10.7239
izační	-10.7244
▁Počet	-10.7245
vice	-10.7247
pořád	-10.7248
▁listu	-10.725
▁klientů	-10.7251
ecká	-10.7254
▁podnikové	-10.7271
obec	-10.7272
▁důvodem	-10.7276
▁resp	-10.7277
▁dílem	-10.7279
▁úvěrů	-10.7289
▁dohodl	-10.7294
▁dramatick	-10.7306
▁výstavy	-10.7312
▁CS	-10.7315
▁starosta	-10.7316
▁předmět	-10.7324
učili	-10.7325
▁fotbalový	-10.7327
▁Dalším	-10.7328
těl	-10.7329
▁podřízen	-10.733
važoval	-10.7337
▁předložen	-10.7346
▁filmový	-10.7347
cházející	-10.7352
PS	-10.7355
▁vlny	-10.7356
▁politik	-10.7365
▁profesionál	-10.7366
▁Kovo	-10.7369
isty	-10.7375
▁Pre	-10.7376
▁kartu	-10.7377
▁nájemní	-10.7379
▁Moh	-10.7382
držení	-10.7383
▁pražský	-10.7384
▁Ruské	-10.7388
▁národů	-10.739
IC	-10.7399
▁neznámý	-10.74
▁schválil	-10.7406
▁přípravy	-10.741
▁zaveden	-10.742
▁klasick	-10.7421
▁objektiv	-10.7428
▁obsazen	-10.743
hlásil	-10.7433
logický	-10.7433
▁pěkn	-10.7441
úpln	-10.7441
▁starost	-10.7442
▁průmysl	-10.7442
▁jistý	-10.7443
znamená	-10.7445
▁trestný	-10.7445
▁zajištěn	-10.7445
▁rovin	-10.7446
▁Mil	-10.7447
▁znak	-10.7449
▁Auto	-10.7454
▁Např	-10.7454
ěsíční	-10.7457
AC	-10.7461
▁průběh	-10.7461
▁Řad	-10.7472
▁Kazachstán	-10.7473
▁Oznámil	-10.7473
▁Univerzit	-10.7473
▁existovat	-10.7473
▁informaci	-10.7473
▁komerční	-10.7473
▁obtížné	-10.7473
▁prezentací	-10.7473
▁svědomí	-10.7473
▁vyjádřit	-10.7473
▁vytvářet	-10.7473
▁zdánlivě	-10.7473
▁ztrácí	-10.7473
▁Problém	-10.7473
▁bariér	-10.7473
▁poskytovat	-10.7473
▁střediska	-10.7473
▁Několik	-10.7473
▁komunismu	-10.7473
▁československé	-10.7473
▁ubytování	-10.7473
▁února	-10.7473
▁veletrh	-10.7473
▁zmizel	-10.7474
záběr	-10.7474
▁Slovinsk	-10.7474
▁pěst	-10.7474
▁vlákn	-10.7474
nášejí	-10.7475
▁komunikace	-10.7475
▁vybraný	-10.7476
▁optimální	-10.7476
▁Bójové	-10.7477
▁prováděn	-10.7477
▁náskok	-10.7477
▁zítra	-10.7478
▁nákupu	-10.7478
střelil	-10.7479
▁továrn	-10.748
▁bezplatn	-10.7481
▁zmíněný	-10.7481
▁bodu	-10.7481
▁volný	-10.7482
▁rychleji	-10.7483
▁zvolil	-10.7484
▁hrách	-10.7484
▁sále	-10.7485
▁31.	-10.7489
▁kupující	-10.7491
▁jednotek	-10.7492
procentní	-10.7497
▁hlavy	-10.7498
▁závodech	-10.7499
▁tradice	-10.75
▁zaznamenal	-10.7501
nozí	-10.7501
▁objevuje	-10.7503
▁ústřední	-10.7505
▁hrdin	-10.7508
▁slavnostní	-10.7508
týdenní	-10.751
▁podvod	-10.751
▁vesnici	-10.7512
▁nadace	-10.7513
▁předpisy	-10.7519
▁teplota	-10.7521
▁všeobecné	-10.7522
▁fyzické	-10.753
▁novinář	-10.7531
▁dohodě	-10.7531
▁elektron	-10.7531
▁boji	-10.7533
najdete	-10.7535
▁dostávají	-10.7538
▁cíl	-10.7541
▁brání	-10.7541
▁schopna	-10.7546
▁kontroly	-10.7551
▁Svoboda	-10.7551
▁vzdálenosti	-10.7552
▁narodil	-10.7552
▁obvinění	-10.7553
▁souborů	-10.7555
TU	-10.7557
myslí	-10.7559
▁politiků	-10.7559
▁vznikají	-10.7562
▁mírové	-10.7567
▁hledají	-10.7575
▁udělá	-10.7575
▁kalů	-10.7576
▁účt	-10.7577
▁Vlastní	-10.7582
▁odběratel	-10.7583
▁návratu	-10.7585
▁zajímavý	-10.7589
▁jasno	-10.7592
▁tvrdé	-10.7592
▁uplynul	-10.7594
▁rizika	-10.7595
▁nábožensk	-10.7597
ňující	-10.7605
▁češt	-10.7609
▁chyt	-10.7616
▁Sun	-10.7621
▁34	-10.7627
▁příběh	-10.7631
▁zvuk	-10.7632
▁ostatními	-10.7637
▁připoj	-10.7638
gel	-10.7645
ME	-10.7646
▁Internet	-10.7646
dent	-10.7649
▁signálu	-10.7649
▁psycholog	-10.7652
▁správu	-10.7654
▁důvody	-10.7662
▁uchazeč	-10.7662
▁čtyřicet	-10.7668
▁domácnost	-10.7668
▁vyrovná	-10.7671
▁bloku	-10.7672
AM	-10.7674
▁Žádn	-10.7674
▁prach	-10.7675
31	-10.7676
▁závodník	-10.7682
▁konečné	-10.7686
▁porážk	-10.7698
počátku	-10.7701
sáhnout	-10.7713
případě	-10.7725
▁využívá	-10.7734
▁správný	-10.7734
▁závodů	-10.7735
▁boje	-10.7738
▁kontinent	-10.7741
▁distribu	-10.7742
▁privatiz	-10.7745
▁mohu	-10.7746
▁horní	-10.7748
tisk	-10.775
▁ClipArt	-10.7751
▁demokracii	-10.7751
▁fanoušků	-10.7751
▁jednoduše	-10.7751
▁lustrační	-10.7751
▁navštívil	-10.7751
▁nepochybn	-10.7751
▁nádraží	-10.7751
▁obligací	-10.7751
▁opoziční	-10.7751
▁osmnáct	-10.7751
▁otevřel	-10.7751
▁otázkou	-10.7751
▁ovzduší	-10.7751
▁pracoviště	-10.7751
▁prokurátor	-10.7751
▁vyrábí	-10.7751
▁železniční	-10.7751
poloviční	-10.7751
▁pobřeží	-10.7751
▁častěji	-10.7751
▁Rumunsk	-10.7751
▁Pracovní	-10.7751
▁příchod	-10.7751
stěhoval	-10.7751
▁odstranit	-10.7751
▁modul	-10.7752
▁knize	-10.7752
▁knížk	-10.7752
▁záření	-10.7752
▁věnován	-10.7752
▁obnoven	-10.7752
▁Tehd	-10.7752
▁blízkosti	-10.7753
▁vážné	-10.7753
▁dohodnout	-10.7754
▁raket	-10.7754
▁pečlivě	-10.7754
▁poradensk	-10.7754
▁oblečení	-10.7755
▁říkal	-10.7756
▁Motor	-10.7756
▁scénář	-10.7756
▁písmen	-10.7757
▁přínos	-10.7757
nutil	-10.7758
▁několikrát	-10.776
▁sedmdesát	-10.776
▁Rád	-10.776
▁chyběl	-10.776
▁jakém	-10.7761
▁větr	-10.7765
▁pramen	-10.7765
41	-10.7765
▁Pět	-10.7767
44	-10.7767
▁státě	-10.7768
▁vyvolal	-10.7768
▁pomůže	-10.7771
▁ovládání	-10.7772
▁komunistické	-10.7774
myslet	-10.7774
líbil	-10.7777
▁kvalitě	-10.7778
▁společník	-10.7782
▁připadá	-10.7782
▁uprostřed	-10.7784
▁klimatický	-10.7789
hodnotit	-10.7791
▁dopravě	-10.7794
▁Lá	-10.7799
ečná	-10.7803
▁Kraj	-10.7804
LU	-10.7806
VI	-10.7806
▁klepn	-10.7807
▁velkého	-10.7807
▁určené	-10.7808
▁Pražské	-10.7808
ston	-10.781
▁žít	-10.7811
▁Taková	-10.7812
▁výpravy	-10.7817
končit	-10.7819
▁spis	-10.7824
▁sbír	-10.7826
▁nejlepších	-10.783
▁kus	-10.7836
▁novináři	-10.7837
▁chemický	-10.7838
▁znaky	-10.784
▁Rakousku	-10.7841
rent	-10.7842
▁Mik	-10.7842
▁viděli	-10.7842
▁plánu	-10.7844
▁Lon	-10.785
▁tvořen	-10.7852
▁tajný	-10.7866
▁blíží	-10.7872
▁mezinárodních	-10.7872
▁převzal	-10.7873
▁vlast	-10.7873
▁1000	-10.7875
▁zvukov	-10.7875
▁obrazů	-10.7884
vedli	-10.7888
hladov	-10.7888
skému	-10.789
▁sportu	-10.7895
▁Alb	-10.7896
▁Japonsk	-10.7901
▁doprava	-10.7902
▁určitých	-10.7903
▁jmen	-10.7905
▁Rusku	-10.7906
počíta	-10.7909
▁souhlasí	-10.7909
▁Indi	-10.7916
▁měsíci	-10.7923
▁Let	-10.7923
▁okamžik	-10.7931
▁odchod	-10.7932
▁aminokyselin	-10.7934
▁fyzick	-10.7942
▁úvěry	-10.7942
ohledem	-10.7943
lob	-10.7947
▁automatick	-10.795
stroj	-10.7956
▁přijel	-10.7959
▁Lab	-10.7963
▁fondy	-10.7972
tických	-10.7972
▁samostatný	-10.7976
kázat	-10.798
▁právník	-10.798
▁císař	-10.7981
▁začínají	-10.7983
histor	-10.7992
řazen	-10.7999
▁magnet	-10.8
▁Zájem	-10.8017
▁Tad	-10.8017
▁přerušen	-10.8023
▁termínu	-10.803
▁dopoledne	-10.8037
▁doporučuje	-10.8037
▁kompres	-10.8037
▁ministerstvu	-10.8037
▁nejrychleji	-10.8037
▁partneři	-10.8037
▁považovat	-10.8037
▁rekonstrukci	-10.8037
▁rozhoduje	-10.8037
▁spravedliv	-10.8037
▁strategie	-10.8037
▁Americe	-10.8037
▁reakce	-10.8037
▁úhrad	-10.8037
▁dubna	-10.8037
▁dveře	-10.8037
▁policii	-10.8037
▁vyrábět	-10.8037
▁Trenér	-10.8037
▁majetkov	-10.8037
▁Havla	-10.8037
▁sledoval	-10.8037
▁sloužit	-10.8037
▁taneční	-10.8037
▁politickou	-10.8037
▁srdce	-10.8037
▁jaře	-10.8037
nášet	-10.8037
▁areálu	-10.8038
▁humor	-10.8038
▁Klub	-10.8038
čištění	-10.8039
▁vězení	-10.804
▁penze	-10.804
▁vstupné	-10.804
▁vzít	-10.804
▁psát	-10.804
▁rozlišení	-10.8041
▁krve	-10.8042
▁mírně	-10.8043
▁čekat	-10.8043
▁Konečn	-10.8044
▁poskytnout	-10.8044
▁výlet	-10.8044
▁dotací	-10.8044
▁zachovat	-10.8045
▁klesl	-10.8045
▁trvat	-10.8045
▁žil	-10.8048
▁kořen	-10.8053
▁dřev	-10.8053
▁stavby	-10.8057
▁obsahovat	-10.8058
▁ukončení	-10.8059
oji	-10.8061
IP	-10.8062
▁provádět	-10.8068
▁vydat	-10.8069
▁pokládá	-10.8069
▁elektrické	-10.8069
▁sovětských	-10.8075
▁narození	-10.8077
▁dítěte	-10.8078
▁zastavit	-10.8081
▁Musím	-10.8081
▁Mnoho	-10.8082
▁událostí	-10.8084
▁teoretick	-10.8085
▁patnácti	-10.8088
▁stati	-10.8088
▁postavit	-10.8089
▁připojení	-10.8089
objednáv	-10.8092
▁přišli	-10.8095
▁techniku	-10.8096
▁zjevn	-10.8099
▁cestující	-10.8099
čené	-10.81
▁tržb	-10.8103
▁vším	-10.8105
▁sezón	-10.8107
▁objektivní	-10.8107
▁schválení	-10.8108
▁vlak	-10.8115
▁kabinetu	-10.8116
▁Ros	-10.8126
▁příkladem	-10.8126
▁orgány	-10.8128
▁managementu	-10.8129
▁cosi	-10.8135
▁určený	-10.8138
asi	-10.8139
▁události	-10.8144
▁drobn	-10.8146
ezi	-10.8147
▁Celkov	-10.8149
▁posil	-10.8149
▁produkty	-10.815
▁zjistili	-10.8158
▁maximální	-10.816
▁vašeho	-10.8164
ánek	-10.8169
íka	-10.8169
▁sociálního	-10.8175
▁přesvědčení	-10.8178
▁večerní	-10.8179
▁samostatně	-10.8179
▁sídle	-10.8179
užit	-10.818
:3	-10.8184
▁kontakty	-10.8185
ill	-10.8191
▁principy	-10.8192
▁15.	-10.8193
▁obci	-10.8196
▁5.	-10.8196
▁čistý	-10.8198
▁plynu	-10.8207
▁Eva	-10.821
▁En	-10.8216
▁soubory	-10.8218
▁modern	-10.8219
▁škod	-10.8222
▁Vlast	-10.8222
▁monitor	-10.8224
▁vyhlásil	-10.8226
▁občany	-10.8233
▁souhlasu	-10.8234
▁černo	-10.824
▁testu	-10.8242
▁severu	-10.8247
▁pravomoc	-10.8248
▁útoku	-10.8253
25	-10.8258
pozn	-10.8259
▁rozhodli	-10.826
CD	-10.8262
▁dopravu	-10.8262
▁prodá	-10.8264
▁výhody	-10.8264
plňuje	-10.8266
▁oznámila	-10.8275
▁průmyslové	-10.8275
▁Malé	-10.8283
▁dělí	-10.8284
▁Mnoh	-10.8286
▁rozšířen	-10.8289
▁kontrol	-10.8292
▁odkaz	-10.8292
▁cyklu	-10.8293
▁rostou	-10.8294
vádět	-10.8299
▁kmen	-10.8301
▁placen	-10.8302
▁skvěl	-10.8303
▁Clinton	-10.8303
▁člena	-10.8308
▁setká	-10.8315
▁poskytl	-10.8315
legislativ	-10.8318
▁vodu	-10.8319
lidov	-10.832
▁stejným	-10.8321
▁král	-10.8326
▁kluby	-10.8328
▁blízko	-10.8329
▁praktický	-10.8331
▁nepřízniv	-10.8331
▁Stanislav	-10.8331
▁geometrie	-10.8331
▁miliónu	-10.8331
▁opozice	-10.8331
▁producent	-10.8331
▁snižuje	-10.8331
▁vstříc	-10.8331
▁výsledku	-10.8331
▁zahrnuje	-10.8331
▁zásluh	-10.8331
▁závazn	-10.8331
zapomněl	-10.8331
▁účinky	-10.8331
▁března	-10.8331
▁zahynul	-10.8331
▁rozmezí	-10.8331
▁funkcionář	-10.8331
▁aparát	-10.8331
▁šťastn	-10.8331
▁páté	-10.8331
▁sotva	-10.8331
▁využil	-10.8331
▁kupónov	-10.8331
▁zvýší	-10.8331
▁čtvrtletí	-10.8331
▁středověk	-10.8331
▁nositel	-10.8332
▁klesá	-10.8332
▁necelý	-10.8332
▁rakouské	-10.8332
▁los	-10.8332
▁morální	-10.8332
▁knihovn	-10.8332
▁terén	-10.8332
▁pověst	-10.8333
▁Hr	-10.8333
▁Fond	-10.8333
▁téhož	-10.8335
ejít	-10.8336
▁architektur	-10.8336
▁rodinný	-10.8337
▁nesmysl	-10.8337
▁Šest	-10.8338
▁diskusi	-10.8339
▁útočník	-10.8339
▁hlasy	-10.834
▁návod	-10.8344
cal	-10.8345
▁zajišťuje	-10.8348
▁činit	-10.8349
▁únik	-10.8349
▁nedovol	-10.8353
▁vybral	-10.8359
▁školách	-10.8359
▁potřebu	-10.8361
▁věnuje	-10.8365
▁zachování	-10.8371
▁formátu	-10.8374
▁stráž	-10.8375
▁přestal	-10.8377
▁plno	-10.8378
▁poradce	-10.838
▁vzpomíná	-10.838
▁kovů	-10.8381
skutk	-10.8383
▁46	-10.8383
drželi	-10.8385
▁rodina	-10.8389
istický	-10.8396
▁formy	-10.8399
▁představiteli	-10.8399
▁příčinou	-10.8401
▁provádí	-10.8401
▁prokázal	-10.8404
▁krajan	-10.8405
▁pravomoci	-10.8415
zákon	-10.8419
příliš	-10.8425
▁pražských	-10.8432
▁Zemi	-10.8433
▁Bla	-10.8435
▁projevil	-10.8441
▁průměrné	-10.8441
▁zásadně	-10.8449
▁Rada	-10.8451
▁soust	-10.8452
▁urychlen	-10.8452
▁neobvykl	-10.8453
▁běžn	-10.8461
mála	-10.8461
▁vstoupil	-10.8461
▁kandidátů	-10.8467
▁padesáti	-10.8468
▁vlně	-10.8468
▁duchu	-10.8471
▁účtu	-10.8473
▁volbu	-10.8483
▁Svět	-10.8484
▁obrovské	-10.8485
▁vysvětl	-10.8487
▁ozbrojený	-10.8491
▁sjezd	-10.8503
▁slep	-10.8514
▁130	-10.8516
▁Michael	-10.8519
OLE	-10.8521
▁výbuch	-10.8527
lap	-10.8528
ker	-10.8529
edení	-10.853
▁ostře	-10.8534
▁personál	-10.8541
17	-10.8546
▁postupy	-10.8546
▁formu	-10.855
▁minulost	-10.8551
▁Hel	-10.8552
▁následujících	-10.8555
▁Občanské	-10.8555
▁obsahují	-10.8563
▁Klause	-10.8565
▁nabízen	-10.8566
▁daném	-10.8572
▁osoba	-10.8582
▁Jelcinov	-10.8584
▁Stal	-10.8584
▁link	-10.8589
▁Karl	-10.859
▁stán	-10.859
▁snaz	-10.8596
▁vzdálenost	-10.8608
▁Morav	-10.8608
▁barevný	-10.8612
▁plát	-10.8613
Vesmír	-10.8616
▁jediným	-10.8619
▁poznat	-10.8625
▁38	-10.8627
▁reakci	-10.8628
▁architekt	-10.8628
▁Španěl	-10.8631
▁implant	-10.8633
ářské	-10.8633
▁interak	-10.8634
▁softwarov	-10.8634
▁Otázka	-10.8634
▁definitivně	-10.8634
▁digitální	-10.8634
▁důvěru	-10.8634
▁gigant	-10.8634
▁hřišti	-10.8634
▁infekc	-10.8634
▁jednorázov	-10.8634
▁kyslíku	-10.8634
▁navrhuje	-10.8634
▁otevřený	-10.8634
▁označit	-10.8634
▁pokračování	-10.8634
▁prognóz	-10.8634
▁předvolební	-10.8634
▁sekretář	-10.8634
▁transformaci	-10.8634
▁vyjadřuj	-10.8634
▁vězňů	-10.8634
▁divadlo	-10.8634
▁používal	-10.8634
▁sexuální	-10.8634
▁výročí	-10.8634
▁zemědělců	-10.8634
▁zvyšování	-10.8634
▁Třeba	-10.8634
▁náměstk	-10.8634
▁prosinci	-10.8634
▁prozatím	-10.8634
▁vozidel	-10.8634
▁vyskytují	-10.8634
▁Československé	-10.8634
▁října	-10.8634
▁Býval	-10.8634
▁opačné	-10.8634
▁vazby	-10.8634
▁vteřin	-10.8634
▁poplatky	-10.8634
▁počtem	-10.8634
▁statistik	-10.8634
▁obvyklé	-10.8634
▁rozsáhlé	-10.8634
▁Práce	-10.8634
▁nikoho	-10.8634
▁rakovin	-10.8634
▁Prostě	-10.8635
▁Východ	-10.8635
▁Tvrd	-10.8635
▁hluboké	-10.8635
▁svoje	-10.8635
▁uplatňuj	-10.8635
▁zastavil	-10.8637
▁myšlenky	-10.8638
▁Člen	-10.8641
▁Hill	-10.8642
látka	-10.8644
▁odešl	-10.8644
▁čtrnáct	-10.8645
▁Cest	-10.8647
▁začátek	-10.8647
▁modely	-10.8649
▁výdajů	-10.865
▁neplatí	-10.8654
▁poradit	-10.8655
lip	-10.8656
▁rozšířil	-10.8657
▁papíru	-10.8659
▁ceník	-10.8659
▁mechanismus	-10.8662
▁oběti	-10.8664
▁tunel	-10.8665
stupovat	-10.8666
příště	-10.8669
▁koordin	-10.8671
▁skutečn	-10.8672
▁loňský	-10.8672
▁rostoucí	-10.8672
padla	-10.8673
▁zrušit	-10.8674
▁představitele	-10.8675
▁třetiny	-10.8675
zemědělských	-10.868
▁bratr	-10.8683
nášel	-10.8686
▁Hlavním	-10.8686
▁příležitostí	-10.8688
▁obchody	-10.8691
▁tuzemsku	-10.8695
▁Uvedl	-10.8696
▁východě	-10.8696
▁schopností	-10.8702
▁Ře	-10.8707
▁kapel	-10.8708
▁chtěla	-10.8709
BA	-10.871
vrácení	-10.8717
▁přítomnosti	-10.872
▁sezóny	-10.8723
mořsk	-10.8723
čnost	-10.8727
cová	-10.8729
▁Jaké	-10.8731
▁nastavení	-10.8738
5%	-10.874
▁Rakouska	-10.874
▁dílů	-10.8741
▁zabýval	-10.8742
▁stručn	-10.8746
▁zůstalo	-10.8749
▁majitelé	-10.8751
▁objevují	-10.8754
▁kvantov	-10.8755
bírají	-10.8759
▁uvaž	-10.8765
▁vědí	-10.8769
▁živé	-10.877
▁písemn	-10.8771
▁reklamy	-10.8774
▁staveb	-10.8775
▁záležitosti	-10.8776
▁vlasti	-10.8776
▁výborů	-10.8777
▁výkonný	-10.8779
daných	-10.8786
▁svobody	-10.8789
▁krajiny	-10.879
▁Mag	-10.8796
▁pokuty	-10.8798
▁postavil	-10.8816
▁chyby	-10.8818
▁jih	-10.8822
▁dramat	-10.8826
▁výrobních	-10.8829
▁diplomat	-10.8829
▁primátor	-10.8832
▁výtvarn	-10.8835
poví	-10.8836
▁Pomoc	-10.8836
DI	-10.8847
▁Jaká	-10.8851
▁stylu	-10.8854
▁ona	-10.8856
▁výkonné	-10.886
příč	-10.8866
▁důraz	-10.8867
89	-10.8871
▁Vlk	-10.8874
▁prof	-10.888
▁čtenářů	-10.8882
▁znění	-10.8888
▁koncertu	-10.889
▁zdravotního	-10.8892
leč	-10.8893
▁Němec	-10.8893
▁věda	-10.8897
▁filmové	-10.89
▁zveřejněn	-10.89
logicky	-10.8906
blok	-10.891
▁Dan	-10.8911
▁pravděpodobnost	-10.8911
▁listin	-10.8914
▁přítomnost	-10.8921
povídají	-10.8929
▁ostatním	-10.8934
▁Mont	-10.8939
▁existující	-10.894
počtů	-10.8945
ografie	-10.8946
▁Angličan	-10.8947
▁Argentin	-10.8947
▁Evropu	-10.8947
▁Mechanik	-10.8947
▁Mečiar	-10.8947
▁Němců	-10.8947
▁Premiér	-10.8947
▁Staroměstské	-10.8947
▁Systém	-10.8947
▁Vývoj	-10.8947
▁absolutní	-10.8947
▁definitivní	-10.8947
▁kilobajtů	-10.8947
▁paradox	-10.8947
▁podezření	-10.8947
▁potvrzuje	-10.8947
▁připomněl	-10.8947
▁sjednocení	-10.8947
▁smlouvě	-10.8947
▁teorií	-10.8947
▁vyžádal	-10.8947
▁komplikov	-10.8947
▁tabulce	-10.8947
▁tvořit	-10.8947
▁účinek	-10.8947
máhat	-10.8947
▁pochopil	-10.8947
▁režii	-10.8947
▁pohádk	-10.8947
▁schůze	-10.8947
▁aspekt	-10.8947
▁lehce	-10.8947
▁zdarma	-10.8947
▁zrušil	-10.8947
▁ukončil	-10.8947
▁čerstv	-10.8947
▁nález	-10.8947
▁membrán	-10.8947
▁pokrok	-10.8947
▁špatný	-10.8947
▁Jihlav	-10.8947
▁zastupitelstva	-10.8947
▁tramvaj	-10.8947
▁střetnutí	-10.8948
▁hustot	-10.8948
▁vyřešen	-10.8948
▁podepsán	-10.8949
▁pověřen	-10.8949
▁spotřeby	-10.8949
▁projednáva	-10.8949
▁GSM	-10.8949
▁("	-10.895
▁nádor	-10.895
ohra	-10.895
▁nedokázal	-10.895
▁vězni	-10.895
▁celků	-10.8951
▁bránit	-10.8951
▁nejenom	-10.8951
▁Šv	-10.8952
▁produkci	-10.8953
▁Cíle	-10.8954
tratil	-10.8954
▁diskuse	-10.8955
▁ovoce	-10.8955
▁Dodal	-10.8959
▁kódování	-10.896
▁Řeck	-10.896
▁balík	-10.8961
VÍ	-10.8962
▁kamion	-10.8962
▁přístav	-10.8962
▁našel	-10.8963
▁Brit	-10.8963
▁soused	-10.8963
▁dosáhla	-10.8964
▁dostatek	-10.8964
▁Druhá	-10.8965
▁zájm	-10.8966
▁vaši	-10.8967
▁kyselin	-10.8968
▁dětský	-10.8969
▁výkony	-10.8969
▁vyvolává	-10.8972
týká	-10.8972
▁Úřadu	-10.8973
▁státem	-10.8974
LOV	-10.8975
▁životním	-10.8975
▁systematick	-10.8976
▁Jednání	-10.8977
▁tuzemské	-10.8978
▁akademie	-10.8985
▁závislosti	-10.8985
▁dolní	-10.8987
▁pokladn	-10.8987
nete	-10.8988
▁nahradil	-10.8989
▁veřejných	-10.899
▁předložit	-10.8992
▁překlad	-10.8993
▁Jaký	-10.8997
▁výstavě	-10.8997
▁menších	-10.9
▁fakultu	-10.9
▁náhodou	-10.9001
▁ulic	-10.9003
▁klasický	-10.9003
▁temp	-10.9003
▁Karadžič	-10.9004
▁zvěře	-10.9007
▁zahraničním	-10.9008
▁Světové	-10.901
▁strážník	-10.901
▁užívání	-10.901
▁běh	-10.9012
táhne	-10.9017
faktor	-10.9017
▁přímý	-10.9018
▁živnost	-10.902
▁nájemník	-10.9023
▁Severní	-10.9037
▁nezávislé	-10.9038
▁Sparta	-10.9039
▁KB	-10.9039
jedna	-10.904
▁klidně	-10.9045
▁anglický	-10.9056
▁obrovský	-10.9057
▁škodu	-10.9062
▁zdravotnické	-10.9066
▁startu	-10.9068
▁kontrolní	-10.907
▁Či	-10.9071
▁obav	-10.9072
▁koupi	-10.9076
▁náročn	-10.9077
▁týdnech	-10.9079
▁zdravé	-10.908
▁poznal	-10.9083
▁léč	-10.9085
RS	-10.9085
▁exportu	-10.9085
▁podobného	-10.909
▁trenérem	-10.9095
ňoval	-10.9099
▁základem	-10.9103
▁ukázk	-10.9105
stupují	-10.9111
▁příčiny	-10.9116
▁závodní	-10.9118
jako	-10.912
ptal	-10.912
nových	-10.9133
▁Spor	-10.9138
▁Olomouc	-10.9141
▁pohyboval	-10.9147
▁principu	-10.9163
▁vzduch	-10.9163
▁městský	-10.9165
▁Ústavní	-10.9175
ávali	-10.9178
rgi	-10.9179
▁koní	-10.9195
▁bezprostředn	-10.9197
▁firemní	-10.9203
▁karta	-10.9205
ED	-10.9217
nili	-10.9217
▁budova	-10.9221
88	-10.9224
▁seminář	-10.9225
▁ponech	-10.9227
HA	-10.9227
▁třetího	-10.9228
end	-10.9233
počítat	-10.9235
▁okamžit	-10.9237
▁moravsk	-10.9237
▁bio	-10.9238
▁koně	-10.9242
▁jiní	-10.9243
▁Úřad	-10.9244
▁sporu	-10.9248
▁olej	-10.9255
▁důstojn	-10.9256
třída	-10.9262
▁recept	-10.9269
ačtyřicet	-10.9269
pomeňme	-10.9269
▁Bruselu	-10.9269
▁ToolBook	-10.9269
▁Určit	-10.9269
▁dohromady	-10.9269
▁dynamick	-10.9269
▁nejnižší	-10.9269
▁přispět	-10.9269
▁sportovců	-10.9269
▁spořiteln	-10.9269
▁uskutečnit	-10.9269
▁volejbal	-10.9269
▁Člověk	-10.9269
▁demonstra	-10.9269
▁dražší	-10.9269
▁nemohu	-10.9269
▁podporovat	-10.9269
▁pokračují	-10.9269
▁snažit	-10.9269
▁Poslanc	-10.9269
▁index	-10.9269
▁vyřešit	-10.9269
▁chystá	-10.9269
▁každoročn	-10.9269
▁krizi	-10.9269
▁medaili	-10.9269
▁vybudovat	-10.9269
▁bílkovin	-10.9269
▁vypadat	-10.9269
▁Mnichov	-10.9269
sáhne	-10.9269
▁uvidí	-10.9269
▁Vysok	-10.9269
▁hůře	-10.9269
▁srážek	-10.9269
▁Osobn	-10.9269
▁turisty	-10.9269
▁skončí	-10.9269
▁doufá	-10.9269
▁mlýn	-10.9269
▁mzdov	-10.927
▁kolegů	-10.927
▁sněhu	-10.927
▁zhodnocení	-10.927
▁tvorbě	-10.927
▁dobrá	-10.9271
▁obilí	-10.9271
▁mld	-10.9271
▁pouští	-10.9273
▁síti	-10.9274
▁vedlejší	-10.9274
▁sběr	-10.9274
▁dcer	-10.9274
▁klasické	-10.9275
vázal	-10.9276
▁risk	-10.9276
▁porozumění	-10.9277
▁pokračuje	-10.9277
▁přesvědčit	-10.9277
▁těší	-10.9277
▁Form	-10.9278
▁spodní	-10.9278
▁čestn	-10.9279
▁atmosféry	-10.9279
▁dešti	-10.928
▁penzion	-10.9282
▁Mir	-10.9282
▁OD	-10.9282
▁deviz	-10.9284
▁vyřazen	-10.9285
▁chlap	-10.9286
chůd	-10.9287
▁umělecké	-10.9288
▁všeobecně	-10.9288
▁úkon	-10.9288
▁najde	-10.9289
▁stranick	-10.929
▁přinést	-10.9291
▁připojit	-10.9291
▁vesnice	-10.9294
▁Hradci	-10.9295
ÁT	-10.9295
▁Krát	-10.9298
▁zbytečně	-10.9298
▁poznamenal	-10.9299
▁tělo	-10.9301
▁ruky	-10.9302
▁Cup	-10.9304
▁členský	-10.9308
▁rovině	-10.9309
▁spolupracovníků	-10.9312
▁Senátu	-10.9313
▁moment	-10.9316
70	-10.9316
▁obsazení	-10.9324
▁prosadil	-10.9324
▁Jelcina	-10.9324
▁stávající	-10.9326
pin	-10.9334
▁189	-10.9334
▁Rozhod	-10.9346
▁Američané	-10.9347
▁silnice	-10.9351
▁nepr	-10.9351
▁Novotný	-10.9353
▁dala	-10.9355
noví	-10.9356
nický	-10.9357
▁opustit	-10.9359
▁Voj	-10.9361
▁odraz	-10.9361
▁čtyřiceti	-10.9368
▁personální	-10.9369
▁volných	-10.9369
čela	-10.9369
▁zájemce	-10.9371
▁palác	-10.9379
▁Rakousk	-10.9381
▁kolektivní	-10.9383
nutně	-10.9383
▁zájmů	-10.9384
▁postoje	-10.9389
▁kapitálové	-10.9389
▁získan	-10.9391
▁požadované	-10.9392
▁dovozu	-10.9396
▁grafický	-10.9396
▁mlh	-10.9399
státní	-10.9401
tika	-10.9402
▁samozřejm	-10.9408
▁nadšen	-10.9409
▁průměrný	-10.9409
▁vyrovnan	-10.941
▁počítačový	-10.9413
▁nevím	-10.9422
▁Karla	-10.9422
jeli	-10.9423
▁analýzy	-10.9425
ačnou	-10.9425
▁statistick	-10.943
hraniční	-10.9433
▁kvalit	-10.9445
▁Chorvatska	-10.9447
▁vedla	-10.9449
ložený	-10.945
▁dalo	-10.9456
▁tlaku	-10.9456
jan	-10.9461
▁drobné	-10.9465
▁odborník	-10.9468
▁objemu	-10.947
▁důchodu	-10.9471
▁časové	-10.9475
dáme	-10.9479
▁Kohl	-10.948
▁levé	-10.948
▁kolektiv	-10.9486
▁přivedl	-10.9489
▁grafu	-10.9493
▁autobusy	-10.9494
▁management	-10.9496
▁reagoval	-10.9498
▁osobnost	-10.9498
▁mnou	-10.9503
PI	-10.9505
znamenal	-10.951
▁Sever	-10.9515
▁loňsk	-10.952
▁buňk	-10.952
▁mladý	-10.953
▁mírn	-10.9531
lčí	-10.9539
▁předběžn	-10.9558
▁krásn	-10.956
▁trestné	-10.9561
▁křesťan	-10.9564
▁projektů	-10.9567
▁potřebn	-10.9571
čková	-10.9571
▁tiskov	-10.9573
tiky	-10.9574
▁ideál	-10.9577
▁1,5	-10.9578
▁svobodné	-10.9587
řídí	-10.959
nvestiční	-10.9591
▁obal	-10.9593
ung	-10.9595
▁bytost	-10.9596
▁speciali	-10.96
▁legend	-10.9602
▁Mluvčí	-10.9602
▁Rudolf	-10.9602
▁dosažení	-10.9602
▁elektráren	-10.9602
▁intenzit	-10.9602
▁jednoduchá	-10.9602
▁metropoli	-10.9602
▁nechtějí	-10.9602
▁nejpozději	-10.9602
▁obsažen	-10.9602
▁otevřena	-10.9602
▁pochopení	-10.9602
▁teorii	-10.9602
▁tradičně	-10.9602
▁výpověď	-10.9602
plácet	-10.9602
▁Pardubic	-10.9602
▁neutrální	-10.9602
▁hrozb	-10.9602
▁únoru	-10.9602
▁jmění	-10.9602
▁Peníze	-10.9603
▁reakcí	-10.9603
▁Moskva	-10.9603
▁složitější	-10.9603
▁očekával	-10.9603
▁Divadl	-10.9603
táhnout	-10.9603
▁likvidace	-10.9603
▁anket	-10.9603
▁hezk	-10.9603
▁břehu	-10.9603
▁nevýhod	-10.9603
▁Zástupc	-10.9603
▁restauraci	-10.9604
▁poplatník	-10.9604
▁Rozdíl	-10.9604
▁Obdobn	-10.9604
▁úlev	-10.9605
▁dotace	-10.9605
▁dojít	-10.9606
▁operací	-10.9607
cvič	-10.9607
▁kabel	-10.9607
▁kategorii	-10.9608
▁panel	-10.9608
▁dělají	-10.9608
spektr	-10.9609
▁vtip	-10.961
▁Slovan	-10.9613
▁výhodnější	-10.9613
▁vzácn	-10.9615
▁Nic	-10.9617
▁utrpěl	-10.9618
▁mezd	-10.9618
visí	-10.962
▁reformy	-10.9622
▁vykoná	-10.9622
▁podporuje	-10.9622
měnit	-10.9625
▁udržení	-10.9625
▁Žen	-10.9625
▁reálný	-10.9628
▁městech	-10.9629
▁množ	-10.9629
▁sněmovně	-10.9629
▁oblačnost	-10.9631
▁stíhání	-10.9635
▁vešker	-10.9635
▁konečný	-10.9638
▁nepříjemné	-10.964
▁Dokon	-10.964
▁časopisů	-10.9643
pravit	-10.9643
▁přijdou	-10.9649
▁zabezpeč	-10.9652
▁popř	-10.9653
▁žádostí	-10.9654
munist	-10.9658
▁Nemá	-10.966
▁Takový	-10.9661
▁vína	-10.9663
▁Tour	-10.9674
▁bílé	-10.9679
▁výrazný	-10.9682
▁mladí	-10.969
▁odborníky	-10.969
▁vzpomínk	-10.9691
▁dodá	-10.9691
▁značn	-10.9694
▁textový	-10.9695
▁realitní	-10.9695
▁využívání	-10.9698
▁Bank	-10.9701
▁mechanick	-10.9704
▁pochází	-10.9705
vláda	-10.9711
▁Paříži	-10.9712
▁žádosti	-10.9719
▁mluvil	-10.9721
▁vyvolá	-10.9725
▁sezónu	-10.9726
▁šedesát	-10.9729
▁konve	-10.9733
▁hledal	-10.9737
▁vlk	-10.9743
▁uložení	-10.9751
▁nastavit	-10.976
mus	-10.9761
▁technologick	-10.9766
▁založení	-10.9775
▁škoda	-10.9777
▁Olymp	-10.9778
▁hmoty	-10.9783
▁mluvčího	-10.9788
▁dokonč	-10.9795
▁domy	-10.98
▁Svat	-10.9801
▁tank	-10.9805
▁důsledk	-10.9805
▁letecké	-10.9809
▁zákazníkům	-10.9811
▁nemohli	-10.9813
▁svobodu	-10.9819
▁ukázala	-10.9823
▁muse	-10.9824
tkání	-10.9829
▁obvodní	-10.9829
▁reprezentantů	-10.983
▁struktura	-10.9842
národních	-10.9842
▁lékařsk	-10.9842
▁časopise	-10.9847
▁tich	-10.9847
▁skla	-10.9855
▁provedl	-10.9862
▁snažil	-10.9863
▁Plat	-10.9864
▁nezaměstnanost	-10.9864
▁ztráta	-10.9868
▁ekologick	-10.9881
oučástí	-10.989
▁grafick	-10.9892
▁narozen	-10.9899
▁neboli	-10.9899
dpověď	-10.9902
ectví	-10.9902
▁provozní	-10.9903
▁ohrožen	-10.9903
pozoruhodn	-10.9909
polí	-10.9909
▁kilometr	-10.9918
▁Kur	-10.9919
▁řídící	-10.9927
▁nedostat	-10.9929
▁dokumentu	-10.993
▁zvětš	-10.9935
▁čtrnácti	-10.9935
OP	-10.9938
riti	-10.9938
▁Graf	-10.9941
▁pochopit	-10.9946
hodné	-10.9946
hlédn	-10.9947
▁zvýšené	-10.9947
▁Afriky	-10.9947
▁Ameriky	-10.9947
▁Bohužel	-10.9947
▁Ladislav	-10.9947
▁Nedávn	-10.9947
▁Plzni	-10.9947
▁SCSI	-10.9947
▁Telecom	-10.9947
▁devatenáct	-10.9947
▁energii	-10.9947
▁gymnázi	-10.9947
▁instituce	-10.9947
▁investování	-10.9947
▁konkrétně	-10.9947
▁nejvýznamnější	-10.9947
▁nizozemsk	-10.9947
▁plzeňsk	-10.9947
▁strojírensk	-10.9947
▁výrobek	-10.9947
▁čtvereční	-10.9947
▁čtvrtfinále	-10.9947
▁hudby	-10.9947
▁podpořil	-10.9947
▁přirozené	-10.9947
▁hloubk	-10.9947
▁lokální	-10.9947
▁kapitán	-10.9947
▁požadují	-10.9947
▁rámeček	-10.9947
▁Policisté	-10.9947
▁chránit	-10.9947
▁mládí	-10.9947
▁ohrožuj	-10.9947
▁názvu	-10.9947
▁koncepci	-10.9947
▁pobočk	-10.9947
▁trzích	-10.9947
▁David	-10.9947
▁ztráce	-10.9947
▁nejúspěšnější	-10.9947
▁léčebn	-10.9947
▁nalézt	-10.9947
▁Všeobecn	-10.9947
máhají	-10.9947
▁Včera	-10.9948
▁schránk	-10.9948
▁odstavce	-10.9948
▁okénk	-10.9948
▁dražb	-10.9948
▁použil	-10.9948
▁závad	-10.9948
▁vybrané	-10.9948
▁zaujal	-10.9948
▁zimě	-10.9948
▁Chip	-10.9948
▁ekonomicky	-10.9948
▁klasifik	-10.9948
▁stabilní	-10.9948
▁věnovan	-10.995
ight	-10.995
▁každému	-10.9951
▁obrázky	-10.9951
▁dvojic	-10.9952
▁nadcházející	-10.9953
▁Tentokrát	-10.9953
▁Nevím	-10.9955
▁koncern	-10.9955
beton	-10.9956
▁faktorů	-10.9959
▁síla	-10.996
▁lamp	-10.996
▁opravdov	-10.996
▁kategorií	-10.9961
▁hlavou	-10.9962
▁49	-10.9964
▁navazuj	-10.9965
▁plod	-10.9966
▁Šp	-10.9968
▁výkonnost	-10.9969
rodil	-10.997
▁bojovat	-10.9971
▁právnické	-10.9971
▁chodit	-10.9972
▁odborn	-10.9975
▁Londýně	-10.9976
▁úrokov	-10.9976
▁světovou	-10.9976
▁konat	-10.9976
▁záměru	-10.9978
▁tón	-10.9979
▁umělecký	-10.9979
▁parametrů	-10.998
▁originální	-10.9983
▁kritérií	-10.9984
▁tradici	-10.9985
▁mez	-10.9986
▁spravedlnosti	-10.9987
▁týmy	-10.9988
▁relac	-10.9989
▁Děti	-10.999
▁připojen	-10.9991
▁pouč	-10.9993
'	-10.9998
▁zbývající	-10.9999
▁přítel	-11
▁způsobuje	-11.0002
▁Japon	-11.0006
▁třetinu	-11.0007
▁schůzky	-11.0008
▁uživatele	-11.0009
▁vesmíru	-11.001
▁šéfa	-11.001
stihnout	-11.0012
▁nezbytné	-11.0015
▁úvahy	-11.0015
najdeme	-11.0018
▁zájemci	-11.0019
▁úkolem	-11.002
▁slíbil	-11.0021
▁uznal	-11.0024
▁biologické	-11.0025
▁nemocných	-11.0025
▁okruhu	-11.0029
jednat	-11.0029
▁vyvoláva	-11.0031
▁blíže	-11.0043
▁činu	-11.0045
▁paliva	-11.0047
▁povede	-11.0048
▁starosty	-11.0056
omín	-11.0057
CP	-11.0068
▁Kap	-11.0078
▁drahé	-11.0079
▁opustil	-11.0082
vnějších	-11.0083
▁Zahraničn	-11.0091
▁úroky	-11.0094
▁zaměření	-11.0096
▁způsobené	-11.0097
▁výkonem	-11.01
▁pouhé	-11.01
▁bosenský	-11.0102
▁úkolů	-11.0102
▁turistický	-11.0104
▁podnikatelský	-11.0106
▁uvedení	-11.0109
▁Stav	-11.011
▁scény	-11.0115
mlouva	-11.0118
▁dokumentů	-11.0118
▁objevit	-11.0123
▁platy	-11.0136
▁udržel	-11.0139
▁Mohl	-11.0143
mann	-11.0143
▁Lidové	-11.0147
▁zásady	-11.0147
▁posílen	-11.0148
bíhají	-11.0149
▁podat	-11.015
▁realiz	-11.0152
▁čtvrtin	-11.0158
▁klidu	-11.0159
krás	-11.0162
▁Med	-11.0167
▁představí	-11.0171
cestoval	-11.0171
▁paláce	-11.0186
▁poukaz	-11.0187
▁Lit	-11.019
▁nesouhlas	-11.0194
▁čtvrtý	-11.0195
▁hradu	-11.0196
▁listopad	-11.0199
▁odkud	-11.0206
čern	-11.0206
▁180	-11.0208
▁sklon	-11.021
plynul	-11.0211
▁šestnáct	-11.0211
▁zahraničními	-11.0212
▁Mas	-11.0215
▁zakázk	-11.022
▁výprav	-11.0221
▁odložen	-11.0229
▁poklesl	-11.0232
▁Bend	-11.0241
▁stovk	-11.0242
▁vývojové	-11.0251
▁závěrečn	-11.0252
▁dalšímu	-11.0258
▁zastoupen	-11.0259
▁časopis	-11.026
ďte	-11.0261
kování	-11.0262
kolik	-11.0268
▁51	-11.027
▁akademi	-11.0271
▁Karlov	-11.0272
▁chemick	-11.0274
▁zůstala	-11.0276
▁jednoznačn	-11.0276
▁filmy	-11.0279
▁ochotn	-11.03
palestinsk	-11.0304
▁1996	-11.0304
▁Alexandr	-11.0304
▁Barceloně	-11.0304
▁Británii	-11.0304
▁Bělehrad	-11.0304
▁IFOR	-11.0304
▁Nejlepší	-11.0304
▁Portugalsk	-11.0304
▁chorvatské	-11.0304
▁fázi	-11.0304
▁honorář	-11.0304
▁instalaci	-11.0304
▁multimediální	-11.0304
▁následek	-11.0304
▁podmínkou	-11.0304
▁populární	-11.0304
▁požádat	-11.0304
▁pravidlo	-11.0304
▁publikován	-11.0304
▁tlačítka	-11.0304
▁tlačítkem	-11.0304
▁týdně	-11.0304
▁umožnit	-11.0304
▁úsměv	-11.0304
nápověd	-11.0304
▁Bohemia	-11.0304
▁březnu	-11.0304
▁cigaret	-11.0304
▁normy	-11.0304
▁pomáhá	-11.0304
▁bazén	-11.0304
▁Organiza	-11.0304
▁azbest	-11.0304
▁kratší	-11.0304
▁vrstvy	-11.0304
▁déšť	-11.0304
▁naléhav	-11.0304
▁ploše	-11.0304
▁Srbsk	-11.0304
▁příslušníci	-11.0304
▁chalup	-11.0304
▁zklamán	-11.0304
spěje	-11.0305
▁těžce	-11.0305
▁doposud	-11.0305
▁sociálně	-11.0305
▁Robert	-11.0305
▁kanadsk	-11.0305
▁divize	-11.0305
▁Soubor	-11.0305
▁Věřím	-11.0305
▁provozovatel	-11.0305
▁zajímat	-11.0305
▁Část	-11.0305
▁značky	-11.0305
▁někoho	-11.0305
▁likvidaci	-11.0305
▁pololetí	-11.0305
▁ocitl	-11.0305
▁barvu	-11.0305
▁1987	-11.0305
▁pozdější	-11.0305
▁stoupl	-11.0306
▁prodávající	-11.0306
▁kvalifikace	-11.0306
▁Hodnot	-11.0307
▁komisi	-11.0307
▁ekonomice	-11.0307
▁nutný	-11.0307
▁debat	-11.0307
▁Případ	-11.0307
▁klimatu	-11.0307
▁historik	-11.0308
▁založené	-11.0308
▁Jenom	-11.0309
▁uvažovat	-11.0312
▁drog	-11.0313
▁zeleni	-11.0313
▁termo	-11.0313
▁Generální	-11.0314
plyn	-11.0314
▁děd	-11.0315
▁právnických	-11.0316
krýt	-11.0318
SO	-11.0319
▁prud	-11.0321
▁desky	-11.0321
▁ukáže	-11.0321
▁červenci	-11.0321
▁odpovídal	-11.0322
pouštějí	-11.0323
▁rozbor	-11.0324
tisícov	-11.0328
▁horách	-11.0328
leb	-11.0328
▁pevný	-11.0328
▁ukázat	-11.0329
▁Novotná	-11.0329
▁pozorování	-11.0329
▁výstavbě	-11.0333
▁potvrzení	-11.0336
▁vzorky	-11.0336
▁letiště	-11.0337
▁vydělá	-11.0339
▁JU	-11.034
▁tvrdý	-11.034
▁Často	-11.0341
hrává	-11.0342
▁Mon	-11.0343
ODA	-11.0343
▁cenách	-11.0345
▁myšlenka	-11.0345
▁vánoc	-11.0348
▁pravý	-11.0349
▁fyzický	-11.035
▁ohrožení	-11.0351
▁parametry	-11.0353
mínil	-11.0353
lezl	-11.0353
▁Znám	-11.0353
▁společném	-11.0356
bíral	-11.0356
▁Die	-11.0356
▁Atlanty	-11.0359
ČE	-11.0361
▁vozy	-11.0361
žití	-11.0361
▁muzeum	-11.0363
▁koš	-11.0364
▁úvodu	-11.0366
▁adresu	-11.0366
▁Slovensk	-11.0369
▁zjednoduš	-11.0369
▁nahradit	-11.0372
▁%)	-11.0375
▁absolvoval	-11.0375
konalo	-11.0377
▁SV	-11.038
▁Svazu	-11.0381
▁vyšel	-11.0383
▁průmyslov	-11.0383
▁přírodovědecké	-11.0383
▁sektoru	-11.0385
▁NOV	-11.0387
▁poledn	-11.0388
▁řeky	-11.0389
▁očekávání	-11.0392
▁třetina	-11.0395
▁účelem	-11.0396
▁plet	-11.0396
▁určitém	-11.0399
▁obrovsk	-11.0402
▁99	-11.0406
▁představitel	-11.0409
▁zaplatil	-11.0414
▁Vít	-11.0415
▁parku	-11.0418
▁jediného	-11.042
jov	-11.0422
▁propad	-11.0423
▁dvojí	-11.0425
▁pojem	-11.0429
večer	-11.0432
krývají	-11.0433
▁Ter	-11.0433
▁srážky	-11.0436
čátkem	-11.0437
▁napsat	-11.0437
▁plynů	-11.0438
▁neznámé	-11.0442
▁skryt	-11.0443
▁nedokáž	-11.0455
dejme	-11.0457
▁průzkumu	-11.0464
▁styku	-11.0467
bojí	-11.0468
▁ztrátu	-11.0469
ézt	-11.0476
▁stupni	-11.0476
▁cíli	-11.048
▁příspěvky	-11.0484
▁spokojeni	-11.0485
▁zbytečn	-11.0487
měrně	-11.0491
▁zvlád	-11.0514
psychologick	-11.0515
▁Velm	-11.052
▁obchodů	-11.0525
berg	-11.0525
▁potenciální	-11.0525
▁bíl	-11.0526
JÍ	-11.0527
▁studenti	-11.0528
▁varianty	-11.0535
▁britsk	-11.0537
▁umělé	-11.0539
▁desít	-11.054
▁změnila	-11.0548
Švýcarsk	-11.0551
▁nějakým	-11.0553
eček	-11.0556
▁vzp	-11.0557
IST	-11.0559
čkách	-11.0563
yplývá	-11.0563
▁vymezen	-11.0565
▁ochotni	-11.0565
US	-11.0568
▁Výstav	-11.0569
▁specializované	-11.0572
▁založena	-11.0572
▁hrála	-11.0577
▁příjemné	-11.0579
pustili	-11.0581
▁Správ	-11.0581
▁hlubo	-11.0582
▁návštěvník	-11.0583
▁mírový	-11.0586
▁poškoz	-11.059
▁zbytk	-11.0591
▁výrazné	-11.0595
▁Společn	-11.0595
▁masov	-11.0601
▁doplň	-11.0602
vesel	-11.0602
▁zjednodušen	-11.0608
▁ekonomika	-11.0608
▁pouště	-11.061
.12.	-11.0613
studoval	-11.0613
posled	-11.0613
▁působící	-11.0618
▁Martina	-11.0622
67	-11.0623
▁ucho	-11.0627
▁Nikd	-11.0631
▁představoval	-11.0632
dnes	-11.0634
▁kontrola	-11.0636
▁figur	-11.0637
▁postupné	-11.0641
▁případný	-11.0646
▁vedoucího	-11.0646
▁španělské	-11.0655
▁historick	-11.0656
IA	-11.0657
ontrol	-11.0661
▁interpret	-11.0662
jíždějí	-11.0663
▁americkém	-11.0665
▁společenský	-11.0668
povídal	-11.0669
▁Celk	-11.0672
▁antropolog	-11.0674
▁1997	-11.0675
▁Chomutov	-11.0675
▁Ukrajiny	-11.0675
▁Zvláštní	-11.0675
▁akcionářů	-11.0675
▁církví	-11.0675
▁deficit	-11.0675
▁galerie	-11.0675
▁hřiště	-11.0675
▁náboženství	-11.0675
▁ovlivňuje	-11.0675
▁prosazovat	-11.0675
▁páteční	-11.0675
▁upozorňuje	-11.0675
▁zpracováva	-11.0675
▁Koaliční	-11.0675
▁naznačil	-11.0675
▁orchestr	-11.0675
▁ovladač	-11.0675
▁posádk	-11.0675
▁potrestán	-11.0675
▁priorit	-11.0675
▁produktivit	-11.0675
▁sledování	-11.0675
▁šetření	-11.0675
▁dveří	-11.0675
▁nepřátel	-11.0675
▁specifik	-11.0675
▁určuje	-11.0675
▁IBM	-11.0675
▁Původně	-11.0675
▁držitel	-11.0675
▁bronz	-11.0675
▁burze	-11.0675
▁příznak	-11.0675
▁oxidu	-11.0675
▁vrstev	-11.0675
▁enzym	-11.0675
▁patrné	-11.0675
▁usilovat	-11.0675
připravovan	-11.0675
▁podporou	-11.0675
▁podnicích	-11.0675
▁proslul	-11.0675
▁příslušníků	-11.0675
▁úzk	-11.0675
▁potíží	-11.0675
▁pronájem	-11.0675
▁fáze	-11.0675
▁nedaleko	-11.0675
▁kritické	-11.0675
▁sdělovací	-11.0675
▁Formát	-11.0675
▁filozofie	-11.0675
▁příliv	-11.0675
▁královn	-11.0675
▁vzestup	-11.0675
▁Tureck	-11.0675
▁Word	-11.0675
▁lyžař	-11.0675
▁nájem	-11.0675
▁naposledy	-11.0676
▁zámku	-11.0676
vázat	-11.0676
▁středoevropsk	-11.0676
▁svátky	-11.0676
▁integraci	-11.0677
▁srdeční	-11.0677
▁myšlenkou	-11.0677
▁hutní	-11.0677
▁obrázků	-11.0677
▁násilí	-11.0677
▁těžb	-11.0678
střih	-11.0678
▁hostitel	-11.0678
▁šíření	-11.068
▁myšlenku	-11.068
▁Kreml	-11.068
▁odhadnout	-11.068
▁duše	-11.068
▁nehodlá	-11.068
▁manželství	-11.068
▁sílu	-11.0681
▁Týr	-11.0681
▁uhlí	-11.0681
▁přežití	-11.0682
▁vážný	-11.0682
▁tratí	-11.0682
▁slabší	-11.0682
▁důchodové	-11.0683
▁prováze	-11.0683
▁nevhodn	-11.0683
▁obnovu	-11.0683
▁znamenalo	-11.0684
▁nízko	-11.0684
▁dlouhodobě	-11.0685
▁podnět	-11.0685
▁stanovit	-11.0686
hodlají	-11.0687
▁zdanění	-11.0692
▁zákazníci	-11.0692
▁doporučení	-11.0694
▁testování	-11.0695
▁posoudit	-11.0695
▁Komis	-11.0697
▁vzdá	-11.0699
▁soustředění	-11.07
▁profil	-11.0701
▁silnější	-11.071
▁Labem	-11.0719
▁foto	-11.072
▁přístrojů	-11.0722
▁poslání	-11.0722
▁sub	-11.0722
▁jádro	-11.0723
▁úředníků	-11.0725
▁tvrdě	-11.0729
▁Nejde	-11.073
▁následky	-11.0734
nická	-11.0735
▁přinese	-11.0737
▁úlohu	-11.0738
▁jezer	-11.0738
▁vládou	-11.0739
stavovat	-11.0743
▁přehlídky	-11.0744
▁sklo	-11.0744
▁začínající	-11.0746
▁totožn	-11.0748
kryl	-11.0757
▁experti	-11.0761
řád	-11.0764
▁Jac	-11.0767
▁Nizozem	-11.0769
▁válka	-11.0771
▁zápisu	-11.0775
dělování	-11.0779
▁soudce	-11.0779
▁Naši	-11.0792
▁překr	-11.0792
▁kvalifik	-11.0793
▁vymez	-11.0797
▁Platí	-11.08
▁KON	-11.08
PT	-11.0802
▁zachoval	-11.0806
▁výbuchu	-11.0807
▁technického	-11.0815
▁nasazení	-11.0817
▁Tisk	-11.0818
▁světlo	-11.0819
▁technika	-11.0819
pisuje	-11.0822
▁sbor	-11.0831
▁italský	-11.0832
▁jistotu	-11.0844
▁specifick	-11.0845
▁týmem	-11.0846
▁ziskem	-11.0851
▁snahy	-11.0853
▁Lidov	-11.0857
▁lidové	-11.0862
části	-11.0866
▁agentur	-11.0866
▁výstavu	-11.0872
▁kvalifikovan	-11.0875
nder	-11.0878
letí	-11.0882
▁Byli	-11.0883
▁hotelů	-11.0886
▁měnové	-11.0894
▁Mc	-11.0896
▁papírů	-11.0899
▁Vítěz	-11.09
lizace	-11.0902
▁Mel	-11.0904
▁předpoklady	-11.0904
▁náročné	-11.0905
▁fotbalu	-11.0914
▁slovník	-11.0919
nechává	-11.092
▁osobě	-11.0932
▁trvalo	-11.0933
▁ikon	-11.0935
korun	-11.0939
kupuje	-11.0942
▁kulturních	-11.0945
▁přenosov	-11.0945
▁díly	-11.0949
▁zákazu	-11.0952
▁vysoko	-11.0954
▁kabinet	-11.0954
▁předvedl	-11.0957
▁spory	-11.0957
▁Malý	-11.0958
▁zabývají	-11.0964
▁Výhod	-11.0966
▁Jedn	-11.0968
▁rozpor	-11.0972
▁výběrové	-11.0973
▁návštěv	-11.0973
▁centrál	-11.0974
▁srážk	-11.0975
▁obrazovk	-11.0978
▁chová	-11.0986
▁snížen	-11.0988
▁zaměstnanec	-11.0988
jištěn	-11.0991
demokratick	-11.0997
▁malého	-11.1009
▁zrušen	-11.1011
▁trati	-11.1019
počtu	-11.1021
▁programem	-11.1021
▁doplněn	-11.1023
▁vrcholu	-11.1027
▁vzhled	-11.1033
▁Win	-11.1037
▁66	-11.1047
▁zajímavost	-11.1051
▁komunik	-11.1052
▁obtížně	-11.1054
▁typické	-11.1054
daly	-11.1054
▁inteligen	-11.1059
radioaktivní	-11.1059
▁1984	-11.1059
▁Nejdřív	-11.1059
▁Rakušan	-11.1059
▁Republik	-11.1059
▁Thajsk	-11.1059
▁Vedoucí	-11.1059
▁Výzkum	-11.1059
▁dodatečně	-11.1059
▁důležitá	-11.1059
▁fotoaparát	-11.1059
▁franků	-11.1059
▁inspekce	-11.1059
▁instalace	-11.1059
▁majetkem	-11.1059
▁pohledávek	-11.1059
▁redakce	-11.1059
▁upozornit	-11.1059
▁vyšetření	-11.1059
▁DPH	-11.1059
▁Temelín	-11.1059
▁nejmenší	-11.1059
▁nezměnil	-11.1059
▁Bejbl	-11.1059
▁stupňů	-11.1059
▁zakladatel	-11.1059
▁zoufal	-11.1059
▁certifikát	-11.1059
▁konstrukce	-11.1059
▁period	-11.1059
▁Průměrn	-11.1059
▁pojmů	-11.1059
▁zkratk	-11.1059
▁ordinac	-11.1059
▁vyvinul	-11.106
▁stovek	-11.106
▁dvojnásobn	-11.106
▁Bílé	-11.106
▁vojsk	-11.106
▁přežít	-11.106
▁jedince	-11.106
▁teplá	-11.106
▁sehrál	-11.106
▁Sokol	-11.106
▁chápat	-11.106
▁ozdob	-11.106
▁Řešení	-11.106
▁audio	-11.106
▁Asociac	-11.106
▁zkoumá	-11.106
▁vyroben	-11.106
▁uváděn	-11.1061
▁restaurace	-11.1061
▁1968	-11.1061
▁sněhov	-11.1061
▁kvalifikační	-11.1061
▁platební	-11.1061
▁formální	-11.1062
▁Plán	-11.1062
▁daný	-11.1062
▁spolupracovat	-11.1062
▁1986	-11.1062
▁vázán	-11.1062
▁něčem	-11.1063
▁poznatků	-11.1063
▁německá	-11.1063
▁modem	-11.1063
▁zatížen	-11.1063
ČNÍ	-11.1063
pravicov	-11.1064
▁III	-11.1064
CA	-11.1065
▁volbami	-11.1065
▁složité	-11.1065
▁poslanecké	-11.1065
▁nohy	-11.1066
▁května	-11.1066
▁3,5	-11.1067
▁Cheb	-11.1067
▁rychlejší	-11.1068
▁rozložení	-11.1068
losování	-11.1069
nutit	-11.1069
▁zlaté	-11.107
▁podzemní	-11.107
▁marně	-11.107
▁ČZ	-11.107
▁žáků	-11.107
▁Sovětský	-11.1071
▁pružn	-11.1071
▁Bill	-11.1071
těsn	-11.1071
▁DEM	-11.1073
▁oznámení	-11.1073
▁nápis	-11.1073
▁odstranění	-11.1076
▁legislativní	-11.1077
▁Tedy	-11.1077
▁nájemce	-11.1077
▁užitek	-11.1077
▁Potom	-11.1079
▁upravit	-11.108
▁Belgie	-11.1081
▁bilance	-11.1083
▁sláv	-11.1085
▁vyvolat	-11.1086
▁Britsk	-11.1091
▁týdeník	-11.1094
▁All	-11.1094
▁tarif	-11.1096
▁hrubého	-11.1097
▁Jedná	-11.1098
▁elektřiny	-11.1104
▁pes	-11.1105
▁Nejen	-11.1107
▁měny	-11.1107
▁Svobod	-11.1108
▁určena	-11.1108
▁osobností	-11.1108
cházelo	-11.1111
▁manželka	-11.1111
▁ruku	-11.1111
▁jevů	-11.1117
▁Německem	-11.1119
▁vedlo	-11.112
▁samotný	-11.1122
▁Les	-11.1122
▁Lux	-11.1123
skop	-11.1124
▁demokratů	-11.1127
▁vstupní	-11.1127
▁tvor	-11.1132
bývající	-11.1134
▁koalici	-11.1138
▁provede	-11.1139
▁návštěvy	-11.1144
▁nekonečn	-11.115
▁bezprostřední	-11.1152
▁výstavbu	-11.1155
atrně	-11.1157
▁evropsk	-11.1167
▁specializovan	-11.1169
▁výběrem	-11.1173
▁připraveni	-11.1173
stva	-11.1176
▁stejná	-11.1177
▁Výstava	-11.118
▁neshod	-11.1187
▁linky	-11.1188
▁fotbalových	-11.1191
▁veden	-11.1192
▁desetin	-11.1196
vyšších	-11.1198
▁vůdce	-11.1199
▁charakterizova	-11.12
▁monitoru	-11.1202
▁spotřebu	-11.1202
▁Dub	-11.1203
▁primátora	-11.1203
▁oborů	-11.1204
▁Japonsku	-11.1204
▁úz	-11.1208
▁polohy	-11.1209
▁orgánu	-11.1217
▁Františk	-11.1224
▁oceánu	-11.1224
▁obvodu	-11.1226
▁skutečností	-11.1226
▁skupinou	-11.1226
▁půdu	-11.1233
etické	-11.124
▁ozbrojen	-11.1244
▁700	-11.1248
▁ostrovy	-11.125
tisknout	-11.125
▁rud	-11.1252
▁červené	-11.1256
svědčil	-11.1261
▁evropského	-11.1263
▁uvedeno	-11.1273
▁hydro	-11.1274
▁Smlouv	-11.1276
konala	-11.1276
ámek	-11.1279
▁pozván	-11.128
▁Pen	-11.1282
▁cel	-11.1286
▁šedesáti	-11.1292
▁připustil	-11.13
SKO	-11.1302
▁turistick	-11.1302
▁sportovních	-11.1304
▁svěřen	-11.1308
▁Obča	-11.1313
▁zdravotnický	-11.1315
psaný	-11.1316
▁vzrůst	-11.1322
▁kapacity	-11.1325
▁Škod	-11.1328
▁vzdálené	-11.1332
▁Jediný	-11.1332
▁špičkov	-11.1336
▁rusk	-11.134
▁Zda	-11.1344
▁paliv	-11.1346
▁dokumenty	-11.1346
káže	-11.1347
▁hvězdy	-11.1354
▁zápis	-11.1355
hodnost	-11.1356
▁vysla	-11.1365
▁IV	-11.1371
▁pru	-11.1373
▁platný	-11.1374
▁Norsk	-11.1375
▁zdi	-11.1387
FS	-11.139
kově	-11.1391
▁Rady	-11.1395
▁Sol	-11.1402
hruba	-11.1406
poslední	-11.1406
▁podstatný	-11.141
▁stole	-11.1412
▁filozof	-11.1414
▁metru	-11.1419
▁vybírá	-11.1425
lární	-11.1426
▁Londýn	-11.1426
▁mořský	-11.143
▁vyplácen	-11.1436
trpěl	-11.1441
▁rozvoji	-11.1443
léhá	-11.1444
▁zřetel	-11.1447
▁zálož	-11.1447
▁rovnová	-11.1451
wan	-11.1453
jistit	-11.1453
místě	-11.1453
▁Vždy	-11.1458
▁muzik	-11.1459
▁EuroTel	-11.1459
▁Kalvoda	-11.1459
▁Okresní	-11.1459
▁brambor	-11.1459
▁domnívají	-11.1459
▁firmám	-11.1459
▁hovořit	-11.1459
▁kalendář	-11.1459
▁naštěstí	-11.1459
▁nežádoucí	-11.1459
▁ovlivňují	-11.1459
▁označuje	-11.1459
▁posuzovat	-11.1459
▁publiku	-11.1459
▁rejstříku	-11.1459
▁spoluhráč	-11.1459
▁vyhlídk	-11.1459
▁Sociální	-11.1459
▁dubnu	-11.1459
▁energetik	-11.1459
▁komponent	-11.1459
▁náležit	-11.1459
▁převzít	-11.1459
▁radikální	-11.1459
▁zázemí	-11.1459
▁uplatnit	-11.1459
▁Poborský	-11.1459
▁odlišný	-11.1459
▁Elektr	-11.1459
▁souhrn	-11.1459
▁efektivní	-11.1459
▁Českomoravsk	-11.1459
▁Domácí	-11.1459
▁kamarád	-11.1459
▁redaktor	-11.1459
▁připomínk	-11.1459
▁nevědí	-11.1459
▁viditeln	-11.1459
▁zásilk	-11.1459
▁Všechno	-11.146
▁záloh	-11.146
▁Musel	-11.146
▁osvobození	-11.146
▁celostátní	-11.146
▁pokoušel	-11.146
▁učinit	-11.146
▁fungují	-11.146
▁nejrychlejší	-11.146
▁nestačil	-11.146
▁sněžení	-11.146
sazuje	-11.146
▁navržen	-11.146
▁Šéf	-11.146
▁forem	-11.146
▁prodlení	-11.146
▁slyšet	-11.146
▁vracet	-11.146
▁ztracen	-11.146
▁dlouhodobý	-11.146
▁samospráv	-11.146
▁rysy	-11.146
▁stránek	-11.146
▁Slavii	-11.1461
▁škál	-11.1461
▁obrazovce	-11.1461
▁podílejí	-11.1461
▁Objekt	-11.1462
▁přál	-11.1462
▁Grand	-11.1462
▁studií	-11.1462
žádají	-11.1464
▁občanství	-11.1464
biologie	-11.1464
▁velko	-11.1465
▁obrázku	-11.1465
▁Vesel	-11.1466
▁přizpůsobit	-11.1466
árek	-11.1467
▁plány	-11.1467
lepnutím	-11.1469
▁ÚV	-11.1469
▁dohad	-11.147
▁pracovnice	-11.1471
ALI	-11.1474
▁Roman	-11.1474
▁Číny	-11.1474
▁olympijsk	-11.1474
▁vezme	-11.1475
▁učí	-11.1477
▁včerejším	-11.1477
▁demokraté	-11.148
▁dobách	-11.148
▁Druhou	-11.148
▁podnikat	-11.1481
▁prodloužení	-11.1481
▁stavbu	-11.1485
▁regulace	-11.1488
▁dávk	-11.1489
▁převoz	-11.1489
▁znalostí	-11.1493
▁Dohod	-11.1493
CO	-11.1494
▁fronty	-11.1496
▁trvalé	-11.1496
▁Wimbledonu	-11.1497
▁summitu	-11.1501
▁orientaci	-11.1503
▁písemně	-11.1503
▁každodenní	-11.1504
▁uvede	-11.1504
▁nemovitosti	-11.1506
▁Zelen	-11.151
▁výjimky	-11.1513
▁krátký	-11.1514
▁zbrojní	-11.1514
▁zpěvák	-11.1517
▁ukládání	-11.1522
▁ztrátou	-11.1524
▁klima	-11.1524
▁Fotbal	-11.1525
▁předmětů	-11.1529
▁kritéria	-11.1533
rážky	-11.1533
▁Pražského	-11.1542
ENÍ	-11.1542
zanedbateln	-11.1546
▁módní	-11.1556
▁Ger	-11.1557
▁snažili	-11.1558
usi	-11.1559
▁obchodníci	-11.1561
▁resortu	-11.1562
▁Nor	-11.1565
▁teplotě	-11.1566
▁jednalo	-11.1567
nin	-11.1574
▁sboru	-11.1576
▁světla	-11.1579
▁úplné	-11.1583
▁vyhlášen	-11.1587
▁smích	-11.1587
▁předměty	-11.1588
▁překvapil	-11.1588
▁vůz	-11.1591
▁Test	-11.1596
▁vzniknou	-11.1596
▁vnímá	-11.1597
▁doplňk	-11.16
▁německém	-11.1601
iletá	-11.1609
▁sjezdu	-11.161
▁64	-11.1611
▁Michaela	-11.1614
▁zvuku	-11.1617
▁sestavení	-11.1621
▁odehráv	-11.1621
▁obdobné	-11.1623
▁návštěva	-11.1626
bund	-11.1628
▁mapy	-11.1635
▁náhradu	-11.1636
▁hit	-11.1636
▁důkazy	-11.1643
▁poslal	-11.1644
▁předchozích	-11.1652
▁bojů	-11.1656
▁přijatelné	-11.1656
▁charakteru	-11.1663
splnění	-11.1663
14	-11.1667
▁tvaru	-11.1669
▁úspory	-11.1671
▁úkoly	-11.1673
▁některý	-11.1682
▁hráli	-11.1683
▁Sovětském	-11.1684
▁maďarský	-11.1697
▁přiměřen	-11.1699
▁Ostravar	-11.1701
▁kandidáty	-11.1701
jmenovaný	-11.1702
▁zvukové	-11.1704
▁domluv	-11.1708
▁planety	-11.1709
▁známých	-11.172
▁válečn	-11.1721
▁koalic	-11.1747
OST	-11.1754
▁sněmovn	-11.176
▁odbory	-11.1767
▁konto	-11.1767
▁investorů	-11.1767
▁magistrát	-11.1769
▁mód	-11.1778
▁tip	-11.1789
▁osvět	-11.1798
▁řízen	-11.1798
▁špičkové	-11.1801
řádně	-11.1808
▁Prac	-11.1817
▁Pražský	-11.1819
▁Boj	-11.1824
novými	-11.1829
SM	-11.1831
▁mládež	-11.1832
tivnější	-11.1837
▁mechanismu	-11.1838
rušit	-11.1839
stávat	-11.1847
▁dobro	-11.1848
íčko	-11.1849
▁výkonů	-11.185
▁věty	-11.1852
▁komunisti	-11.1856
šetřit	-11.1858
vlastn	-11.186
▁integr	-11.1865
▁Čechů	-11.1866
žívání	-11.1869
▁statut	-11.1876
▁komunální	-11.1876
mýšlí	-11.1876
▁Alžbět	-11.1876
▁CADKON	-11.1876
▁Finanční	-11.1876
▁Intergraph	-11.1876
▁Lebeď	-11.1876
▁Pithart	-11.1876
▁Srbů	-11.1876
▁Zjuganov	-11.1876
▁altruismu	-11.1876
▁bližší	-11.1876
▁církvi	-11.1876
▁dědictví	-11.1876
▁fenomén	-11.1876
▁hektar	-11.1876
▁konferencí	-11.1876
▁nejstarší	-11.1876
▁nepřetržit	-11.1876
▁neschopnost	-11.1876
▁nábytku	-11.1876
▁odmítají	-11.1876
▁odpovědí	-11.1876
▁otevírá	-11.1876
▁ovlivněn	-11.1876
▁reagovat	-11.1876
▁schůzi	-11.1876
▁softwaru	-11.1876
▁strategii	-11.1876
▁technologii	-11.1876
▁triumf	-11.1876
▁ukazatel	-11.1876
▁uzavírá	-11.1876
▁vytvářejí	-11.1876
▁zpoždění	-11.1876
▁zpátky	-11.1876
▁zálivu	-11.1876
▁živočichů	-11.1876
▁žádoucí	-11.1876
rehabilit	-11.1876
▁Nejčastěj	-11.1876
▁Vídni	-11.1876
▁asistent	-11.1876
▁jazz	-11.1876
▁leasing	-11.1876
▁atentát	-11.1876
▁nárůst	-11.1876
▁říjnu	-11.1876
▁dovednost	-11.1876
▁nezaměstnaných	-11.1876
▁Mazda	-11.1876
▁Mencl	-11.1876
▁Bratink	-11.1876
▁splatnosti	-11.1876
▁vyvinut	-11.1876
▁nízká	-11.1876
▁vyznačuj	-11.1876
▁podpoře	-11.1876
▁zpomal	-11.1876
▁navrhnout	-11.1876
▁Polsko	-11.1876
▁zůstanou	-11.1876
▁dokáží	-11.1876
▁mřížk	-11.1876
▁splnit	-11.1876
▁multi	-11.1876
▁diagram	-11.1877
▁zazněl	-11.1877
▁maximum	-11.1877
▁kombinaci	-11.1877
▁náprav	-11.1877
▁Praktick	-11.1877
▁stůl	-11.1877
▁zvolit	-11.1877
▁přednášk	-11.1877
▁rozsáhlý	-11.1877
▁Mimo	-11.1877
▁Andre	-11.1878
▁Nabídk	-11.1878
▁zařadil	-11.1878
▁délce	-11.1878
▁vrchní	-11.1878
▁komunikaci	-11.1878
▁zahrnut	-11.1878
▁trpí	-11.1878
▁Charles	-11.1878
▁vyrovnal	-11.1878
▁junio	-11.1878
▁Zálež	-11.1879
▁ligové	-11.1879
▁Sedm	-11.1879
kryje	-11.1879
▁kondom	-11.188
jíždí	-11.188
▁okresů	-11.188
▁nastat	-11.1881
▁ponechat	-11.1881
▁kreslení	-11.1882
▁nakažen	-11.1883
▁nejvýše	-11.1883
▁simul	-11.1883
▁Bonn	-11.1883
▁resort	-11.1884
▁Technick	-11.1884
▁otec	-11.1885
▁interval	-11.1885
▁podmíněn	-11.1885
▁bance	-11.1885
oprvé	-11.1886
21	-11.1886
▁Stručně	-11.1886
▁jmenuje	-11.1887
▁52	-11.1887
charakterizuj	-11.1893
▁kilogramů	-11.1893
▁blesk	-11.1894
chytit	-11.1895
▁pohybovat	-11.1897
▁respektovat	-11.1899
▁předcházel	-11.1899
▁oleje	-11.19
▁dočasně	-11.1901
▁mrav	-11.1901
▁odejít	-11.1903
▁Data	-11.1903
▁Brazílie	-11.1903
▁obchodování	-11.1906
▁podílí	-11.1908
▁přijímá	-11.1908
▁prvé	-11.1909
▁energetické	-11.191
▁květin	-11.1912
▁jistou	-11.1913
▁pádu	-11.1915
▁poskytování	-11.1918
▁postižených	-11.1918
▁fotbalov	-11.1918
▁dokončení	-11.1919
▁padesátých	-11.1921
▁nedal	-11.1922
▁trik	-11.1922
▁skládá	-11.1925
hřeb	-11.1925
▁vyhledá	-11.1925
▁potřebujeme	-11.1925
▁Mír	-11.1928
▁vkladů	-11.1931
▁vyhlášení	-11.1932
▁zaplacení	-11.1937
▁kontrole	-11.1939
▁účinnosti	-11.1943
jdu	-11.1945
▁zastavení	-11.1946
▁vozidla	-11.1948
▁Kniha	-11.1948
stanou	-11.1951
▁kongresu	-11.1952
▁Chci	-11.1955
▁schématu	-11.1962
▁katolické	-11.1968
▁typický	-11.1971
▁předal	-11.1971
▁zakázky	-11.1976
▁Vstup	-11.1976
▁objeven	-11.1979
▁hale	-11.1979
schválila	-11.1982
▁ZÁ	-11.1984
▁šestnácti	-11.1986
▁uložit	-11.1988
IG	-11.1996
▁celo	-11.1997
▁probíhal	-11.1998
být	-11.2
▁zvěř	-11.2003
▁pevn	-11.2003
▁plic	-11.2004
▁míra	-11.2005
▁jezdil	-11.2007
▁Bro	-11.2015
▁vaku	-11.2021
▁titulů	-11.2023
▁brankáře	-11.2025
▁lidu	-11.2034
▁valné	-11.2035
▁listů	-11.2035
vládne	-11.2037
▁Jistě	-11.2041
▁nápady	-11.2049
98	-11.2051
▁růstem	-11.2058
▁sousedů	-11.2058
▁Siln	-11.2059
▁královsk	-11.206
▁oblíben	-11.206
svědčení	-11.2062
▁projeví	-11.2067
▁maz	-11.207
▁niž	-11.2073
▁čtenáři	-11.2076
▁čínské	-11.2079
▁Olympi	-11.2085
▁nazýva	-11.2085
▁typick	-11.2086
▁jedenácti	-11.2087
▁dokázali	-11.2089
▁reprezentanti	-11.2091
▁očekávan	-11.2093
▁zabývající	-11.2095
▁schéma	-11.2102
▁vzá	-11.2102
▁jasný	-11.2102
▁určení	-11.2104
▁tváří	-11.2109
▁přidal	-11.2114
▁specifické	-11.2115
▁úvah	-11.2121
▁spotřebitele	-11.2131
▁šla	-11.214
▁uplynulý	-11.214
▁klíče	-11.2141
hodit	-11.2142
▁textové	-11.2148
vodně	-11.2152
▁soli	-11.2153
▁služební	-11.2153
▁symbolick	-11.2155
▁expert	-11.216
▁350	-11.2162
▁vznikající	-11.2178
▁obdobn	-11.2181
▁vysíla	-11.2188
▁uměle	-11.2199
▁mís	-11.2201
Ile	-11.2201
členné	-11.2201
▁pravidelné	-11.2215
▁katolick	-11.2215
▁přijateln	-11.2217
stupující	-11.2221
levo	-11.2221
tivně	-11.2223
▁dividend	-11.2226
▁190	-11.2229
▁obsluh	-11.2238
▁působ	-11.224
▁včerejš	-11.224
▁získává	-11.2249
▁900	-11.2253
bíhá	-11.2254
▁jist	-11.2257
▁pedagog	-11.2257
▁požadovaný	-11.2258
▁astronom	-11.2262
▁produk	-11.2263
stoupení	-11.2264
▁předchozím	-11.2267
pochyby	-11.2272
▁chodb	-11.2278
▁zkušen	-11.228
▁hrd	-11.228
▁Invest	-11.2282
článk	-11.2284
▁Mor	-11.2286
▁nemocný	-11.2294
pomíná	-11.2295
▁expozi	-11.2298
škodliv	-11.2305
▁říkají	-11.2306
trhl	-11.2308
▁pozdě	-11.2308
▁Pozor	-11.2311
▁nejmodernější	-11.2311
▁Bratislava	-11.2311
▁Casimir	-11.2311
▁Demokratick	-11.2311
▁Jindřich	-11.2311
▁Ostatní	-11.2311
▁Tigrid	-11.2311
▁cizince	-11.2311
▁dodržování	-11.2311
▁galerii	-11.2311
▁generací	-11.2311
▁hlubší	-11.2311
▁hypotéz	-11.2311
▁identifik	-11.2311
▁kompetence	-11.2311
▁konstatuje	-11.2311
▁metropole	-11.2311
▁nejznámější	-11.2311
▁nominální	-11.2311
▁otevřít	-11.2311
▁podpořit	-11.2311
▁požadovat	-11.2311
▁prohlídk	-11.2311
▁představenstva	-11.2311
▁přitažliv	-11.2311
▁semifinále	-11.2311
▁strategií	-11.2311
▁udržuje	-11.2311
▁vojáci	-11.2311
▁vydavatel	-11.2311
▁výsledn	-11.2311
▁wimbledonsk	-11.2311
▁zveřejnil	-11.2311
▁šablon	-11.2311
▁žadatel	-11.2311
dostatečnou	-11.2311
▁Africe	-11.2311
▁Kolumb	-11.2311
▁Majitel	-11.2311
▁NDR	-11.2311
▁Nedvěd	-11.2311
▁Počítač	-11.2311
▁charakteristik	-11.2311
▁literární	-11.2311
▁polojasno	-11.2311
▁požadoval	-11.2311
▁složek	-11.2311
▁byznys	-11.2311
▁kodex	-11.2311
▁nátlak	-11.2311
▁stránky	-11.2311
▁vyhovuje	-11.2311
střílel	-11.2311
▁Dříve	-11.2311
▁patřičn	-11.2311
▁údolí	-11.2311
▁vystřídal	-11.2311
▁divadle	-11.2311
▁čtvrteční	-11.2311
▁nevidí	-11.2311
▁nízký	-11.2311
▁položky	-11.2311
▁rytíř	-11.2311
▁logické	-11.2311
▁Městsk	-11.2311
▁doporučil	-11.2311
▁počínaj	-11.2311
▁informovan	-11.2311
▁poplatek	-11.2311
▁vyrovnat	-11.2311
▁účinku	-11.2311
▁Jugoslávie	-11.2311
▁stoupá	-11.2311
chlazení	-11.2311
▁podobná	-11.2311
▁Prodej	-11.2311
▁Komerčn	-11.2311
▁nejhorší	-11.2311
▁štáb	-11.2311
▁potravinářské	-11.2312
povídat	-11.2312
▁splnil	-11.2312
▁Rychl	-11.2312
▁fotografie	-11.2312
▁Maďarsku	-11.2312
▁počkat	-11.2312
▁přijme	-11.2312
▁rakouský	-11.2312
▁reaktor	-11.2312
▁korekc	-11.2312
▁ekonomická	-11.2312
▁ničem	-11.2312
▁zaručen	-11.2313
▁nápoj	-11.2313
▁malíř	-11.2314
▁bohatství	-11.2314
▁Marie	-11.2314
▁Začal	-11.2314
▁radnici	-11.2314
▁Skal	-11.2314
▁verzí	-11.2314
▁vstupenk	-11.2315
▁psychiatr	-11.2315
▁barva	-11.2315
▁neděle	-11.2316
▁Uveden	-11.2316
▁dozor	-11.2317
▁lodi	-11.2317
▁vyhnout	-11.2318
▁Ruml	-11.2318
▁teple	-11.2319
▁odhalen	-11.2319
▁divok	-11.2321
▁jezdit	-11.2321
▁peset	-11.2323
▁nedostatku	-11.2324
▁okresy	-11.2324
▁cement	-11.2324
▁obřad	-11.2325
▁změnám	-11.2325
▁předcházející	-11.2328
▁odvet	-11.2329
▁podílet	-11.233
▁novinách	-11.2331
▁centimetrů	-11.2331
▁prodejny	-11.2332
▁uvědomit	-11.2332
▁EU	-11.2332
▁oborech	-11.2333
ujme	-11.2333
▁nemovitostí	-11.2333
▁překvapivě	-11.2333
▁zlatý	-11.2335
▁řekne	-11.2335
následuj	-11.2335
▁plánování	-11.2338
▁přelom	-11.2338
▁tabulka	-11.2341
může	-11.2343
▁Žid	-11.2344
▁uvádějí	-11.2346
▁Ján	-11.2346
▁seriálu	-11.2347
▁zvaný	-11.2348
pamatuj	-11.2348
▁složitý	-11.2351
▁krut	-11.2351
▁ukládá	-11.2353
26	-11.2354
▁ocenění	-11.2354
▁referendum	-11.2357
▁mládeže	-11.2357
▁prožil	-11.2358
▁astronomi	-11.236
▁kvalitou	-11.236
▁zkušební	-11.2363
▁Dopravní	-11.2364
▁správce	-11.2364
▁Excelu	-11.2366
▁propojení	-11.2366
▁armádě	-11.2367
▁přidat	-11.2368
padesát	-11.2372
▁procesoru	-11.2373
▁oddíl	-11.2373
▁Budou	-11.2374
▁hmotnosti	-11.2374
▁trenérů	-11.2376
serv	-11.2377
▁závazky	-11.2378
▁skalní	-11.238
▁návštěvnost	-11.2389
▁fotbalisté	-11.2392
▁budově	-11.2393
▁tvarů	-11.2394
▁císaře	-11.2397
▁obuv	-11.2398
▁dodavatele	-11.2399
▁pokryt	-11.2401
▁vozu	-11.2402
▁šed	-11.2405
▁návrhů	-11.2406
▁energetický	-11.2407
▁vyjde	-11.2408
Severoatlantické	-11.2411
▁Potřebuje	-11.2411
▁optick	-11.2413
▁materiálem	-11.2414
▁stadiónu	-11.2414
▁zubní	-11.2415
▁5000	-11.2423
▁magistrátu	-11.2424
▁obchodníků	-11.2424
▁kupon	-11.2427
▁akciov	-11.2431
▁položil	-11.2434
▁Brod	-11.2435
▁dolů	-11.2445
Gar	-11.245
▁lesa	-11.2452
ručí	-11.2455
▁tvůrc	-11.2458
▁čínský	-11.2459
▁hrou	-11.246
▁evropským	-11.2461
▁zřízení	-11.2472
▁odpovědnosti	-11.2473
▁zkresl	-11.2479
▁krokem	-11.2481
▁jugoslávské	-11.2481
▁konečn	-11.2482
▁ekologický	-11.2486
▁básník	-11.2486
▁bojovn	-11.2492
▁podzimní	-11.2496
▁rozpočtové	-11.2501
▁Prof	-11.2504
▁novely	-11.2512
▁zdát	-11.2514
▁průběžn	-11.2518
▁strávil	-11.2521
▁obecný	-11.2522
▁překvap	-11.2523
▁černý	-11.2525
▁platil	-11.2532
▁menu	-11.2534
otisk	-11.2539
DOS	-11.254
▁ranní	-11.2543
▁statistické	-11.2544
▁muselo	-11.2546
díval	-11.2546
▁přesvědč	-11.2556
▁klíčový	-11.2564
▁Spart	-11.2579
▁krále	-11.2584
▁dav	-11.2585
příkladu	-11.2592
▁Výrob	-11.2604
▁přesvědčiv	-11.2605
▁významným	-11.2612
▁snadné	-11.2623
▁zvon	-11.2626
▁43	-11.2632
schopné	-11.2632
biologick	-11.2644
▁znalost	-11.2649
ářství	-11.2655
▁garant	-11.2656
▁stadión	-11.2658
▁okruh	-11.2659
▁volí	-11.2661
▁260	-11.2671
▁přehlídk	-11.2681
▁Volb	-11.2704
▁úředník	-11.2704
▁basketbal	-11.2705
ářských	-11.2709
▁měří	-11.2711
▁uzná	-11.2711
přijeli	-11.2721
▁stíhán	-11.2721
▁velkoobchod	-11.2726
▁převážn	-11.2733
▁zub	-11.2735
▁výstavb	-11.2741
▁norma	-11.2746
▁přesahuj	-11.2759
pořádat	-11.2761
FIFA	-11.2765
▁Budějovic	-11.2765
▁Dienstbier	-11.2765
▁Dosavadní	-11.2765
▁Fischer	-11.2765
▁Kongres	-11.2765
▁Manažer	-11.2765
▁Siemens	-11.2765
▁Skupina	-11.2765
▁Těžko	-11.2765
▁biskup	-11.2765
▁byrokrat	-11.2765
▁design	-11.2765
▁disponuj	-11.2765
▁družstvo	-11.2765
▁družstvu	-11.2765
▁geometrii	-11.2765
▁inflaci	-11.2765
▁naznačuje	-11.2765
▁neuspěl	-11.2765
▁normálně	-11.2765
▁obličej	-11.2765
▁označován	-11.2765
▁regenerace	-11.2765
▁rekonstrukce	-11.2765
▁rozšiřuje	-11.2765
▁rámečku	-11.2765
▁seznámit	-11.2765
▁skupenství	-11.2765
▁službě	-11.2765
▁strategické	-11.2765
▁transformační	-11.2765
▁uprchl	-11.2765
▁zajistí	-11.2765
▁zúčastnit	-11.2765
▁Štědrý	-11.2765
▁1982	-11.2765
▁dodávek	-11.2765
▁posuzován	-11.2765
▁přiznává	-11.2765
▁Červen	-11.2765
připravoval	-11.2765
▁Poldi	-11.2765
▁shodují	-11.2765
▁stránku	-11.2765
▁středisko	-11.2765
▁čistíren	-11.2765
▁neomezen	-11.2765
▁vstupenek	-11.2765
▁zákrok	-11.2765
▁Dušan	-11.2765
▁středisku	-11.2765
▁vládnoucí	-11.2765
▁velvyslanectví	-11.2765
▁Armád	-11.2765
▁informován	-11.2765
▁posléze	-11.2765
▁nabídkou	-11.2765
▁žádat	-11.2765
▁Náklady	-11.2765
▁usiluje	-11.2765
▁skromn	-11.2765
▁uznat	-11.2765
▁konstrukcí	-11.2765
▁vazeb	-11.2765
▁Bavor	-11.2765
▁zastánc	-11.2766
▁Manžel	-11.2766
▁udržova	-11.2766
▁jindy	-11.2766
▁vazba	-11.2766
▁Otevř	-11.2766
▁Varech	-11.2766
▁tribunál	-11.2766
▁salát	-11.2766
▁leckd	-11.2766
▁hrůz	-11.2766
▁spoléha	-11.2766
▁senátní	-11.2766
▁přejít	-11.2766
▁Projekt	-11.2766
▁nabídne	-11.2766
▁náhlé	-11.2766
▁duševní	-11.2767
▁nepotřebuje	-11.2767
▁rozmístěn	-11.2767
▁směřuje	-11.2767
▁Rozhodnutí	-11.2767
▁Slavia	-11.2767
▁zodpovědnost	-11.2768
▁integrace	-11.2768
krácen	-11.2768
▁chuť	-11.2768
▁chaos	-11.2768
▁Oprav	-11.2768
▁trvající	-11.2768
▁nesporn	-11.2768
▁kated	-11.2769
▁regulační	-11.2769
▁horské	-11.2769
▁nejsem	-11.2769
▁Bělohradský	-11.277
▁ohně	-11.277
▁Mac	-11.2771
střelen	-11.2771
▁Nadace	-11.2771
allye	-11.2772
blížení	-11.2773
▁podrobnosti	-11.2773
▁nezákonn	-11.2773
▁turné	-11.2775
▁Závod	-11.2775
zývají	-11.2776
ckner	-11.2776
▁kontrolovat	-11.2776
▁nedošlo	-11.2777
▁neumí	-11.2778
▁automat	-11.2778
▁věrn	-11.2778
▁napaden	-11.2779
▁tmav	-11.2779
▁Milán	-11.2781
▁strop	-11.2782
▁památek	-11.2782
▁pozic	-11.2783
▁kdykoliv	-11.2784
▁atmosféra	-11.2784
▁slunce	-11.2785
▁sedimentů	-11.2785
▁šedesátých	-11.2786
▁závěrečném	-11.2786
▁faktory	-11.2787
▁svatb	-11.2787
Přerov	-11.2788
▁souhlasit	-11.2789
▁pravděpodobné	-11.2789
▁zaslouží	-11.2789
▁sedmdesátých	-11.279
▁upozornění	-11.2791
▁kůže	-11.2792
▁Kolek	-11.2795
▁Dal	-11.2797
▁37	-11.2798
▁Clintonov	-11.2809
▁dostaneme	-11.2815
▁matka	-11.2817
natý	-11.2818
▁interní	-11.2819
▁plná	-11.282
▁vystupuj	-11.2821
▁pěkně	-11.2822
▁značná	-11.2824
▁Los	-11.2825
▁vyhodnocen	-11.2825
▁univerzitě	-11.2827
off	-11.2827
▁uživatelé	-11.2828
▁dokázat	-11.2828
▁Váš	-11.2829
▁významně	-11.2831
▁Kan	-11.2832
▁zveřejnění	-11.2834
▁moři	-11.2835
▁datové	-11.2837
▁luxusní	-11.2837
kurzor	-11.2839
▁zatčen	-11.284
▁závažné	-11.2842
▁dotazník	-11.2842
▁sféry	-11.2843
▁švédské	-11.2846
▁literatury	-11.2847
▁světeln	-11.2848
▁tlakem	-11.2849
▁Děl	-11.285
lezsk	-11.2854
▁dividendy	-11.2855
▁přizpůsob	-11.2855
▁závažný	-11.2855
▁zničení	-11.2856
▁mise	-11.2861
▁olympiádě	-11.2863
▁zuby	-11.2864
▁Car	-11.2864
▁slibuje	-11.2867
▁zásadě	-11.2869
▁zbytky	-11.287
▁spojit	-11.2872
▁postupovat	-11.2879
▁spojů	-11.2882
▁jednal	-11.2883
▁podnikatelsk	-11.2887
▁mateřské	-11.2887
▁nešlo	-11.2887
hraj	-11.2893
▁Asie	-11.2895
▁analog	-11.2898
▁výtvarné	-11.2905
▁Bulharsk	-11.2908
▁činů	-11.2909
DU	-11.2911
▁Fotbalist	-11.2913
▁rozhovorů	-11.2914
▁středo	-11.2915
▁popisuje	-11.2918
▁Své	-11.2922
▁fyzika	-11.2925
▁elektronický	-11.2927
pravují	-11.293
▁počátk	-11.293
▁výstavní	-11.2932
▁Poslanec	-11.2935
▁Čtyři	-11.2937
▁svěřenc	-11.2943
například	-11.2946
▁brněnsk	-11.2948
▁vyspěl	-11.2949
UN	-11.2951
▁násiln	-11.2957
▁spojuje	-11.2966
hodinové	-11.297
▁nebezpečný	-11.2973
▁tělesné	-11.2981
který	-11.3006
▁Nemoh	-11.3029
▁ČT	-11.3039
▁urychl	-11.3047
álka	-11.3061
▁získaný	-11.3064
▁prestiž	-11.3097
▁Vaše	-11.3099
▁hračk	-11.3108
▁Con	-11.3116
▁důvěry	-11.312
kreslen	-11.3132
▁nasazen	-11.3135
▁Washington	-11.3136
▁nemocnic	-11.314
▁pout	-11.3142
▁sektor	-11.3145
▁zničen	-11.3151
▁klíčové	-11.3153
▁Karadžiče	-11.3154
▁literatur	-11.3157
▁schůzk	-11.3157
▁faktur	-11.316
▁užívá	-11.3167
▁samostatn	-11.3189
atmosfér	-11.3189
▁Ann	-11.3195
▁oceněn	-11.3197
▁slun	-11.3198
93	-11.3212
ukční	-11.3218
NC	-11.3223
šetří	-11.3224
hodná	-11.3224
▁náročný	-11.3225
▁Jir	-11.323
nejvýš	-11.3234
▁psy	-11.3234
ifikace	-11.3236
▁organizáto	-11.3241
▁ubytovací	-11.3242
▁zázrak	-11.3242
▁Blízké	-11.3242
▁Kreslení	-11.3242
▁Předpokládá	-11.3242
▁aplikaci	-11.3242
▁důležitou	-11.3242
▁filharmoni	-11.3242
▁kanalizace	-11.3242
▁kariéru	-11.3242
▁konkurent	-11.3242
▁neexistují	-11.3242
▁nepřítel	-11.3242
▁ovlivnit	-11.3242
▁podmínkám	-11.3242
▁popularit	-11.3242
▁přirozeně	-11.3242
▁referenda	-11.3242
▁svědky	-11.3242
▁vojáky	-11.3242
▁vynález	-11.3242
▁výpovědi	-11.3242
▁zneužití	-11.3242
▁Gabčíkov	-11.3242
▁komunistů	-11.3242
▁lehké	-11.3242
▁předpokládal	-11.3242
▁setkáváme	-11.3242
▁snižovat	-11.3242
atlantick	-11.3242
▁Michail	-11.3242
▁fosilní	-11.3242
▁kontrakt	-11.3242
▁paralel	-11.3242
▁pomůck	-11.3242
zřídka	-11.3242
▁obrátit	-11.3242
▁přivezl	-11.3242
▁rubrik	-11.3242
▁stupeň	-11.3242
▁etapě	-11.3242
▁jedinců	-11.3242
▁zvyšují	-11.3242
▁Atlantiku	-11.3242
▁klobouk	-11.3242
▁nezmění	-11.3242
▁československý	-11.3242
▁politicky	-11.3242
▁povahy	-11.3242
▁Dynam	-11.3242
▁válku	-11.3242
▁přírodu	-11.3242
▁Trans	-11.3242
▁talent	-11.3242
▁budoucna	-11.3242
▁češtině	-11.3242
imochodem	-11.3242
▁zbaven	-11.3242
▁týče	-11.3242
hlíží	-11.3242
▁administrativní	-11.3242
▁výtečn	-11.3242
▁Karpov	-11.3242
▁antropologie	-11.3242
▁přídav	-11.3242
▁zkrátka	-11.3242
▁smečky	-11.3242
▁Lendl	-11.3242
▁Boyle	-11.3242
▁image	-11.3242
▁obzor	-11.3242
▁kombinace	-11.3242
▁chybět	-11.3243
▁mzda	-11.3243
▁vyšla	-11.3243
▁hokejisté	-11.3243
▁Španělska	-11.3243
▁vytížen	-11.3243
▁stavět	-11.3243
▁staletí	-11.3243
▁rumunsk	-11.3243
▁kritický	-11.3244
▁distributor	-11.3244
▁vyráběn	-11.3244
▁Zdeňk	-11.3244
▁poražen	-11.3244
▁Středisk	-11.3245
▁nálad	-11.3245
▁dostupné	-11.3245
▁Říman	-11.3245
▁arabské	-11.3245
▁Minul	-11.3245
▁dívat	-11.3246
▁rozprav	-11.3246
▁1980	-11.3246
▁Optima	-11.3246
▁prapor	-11.3246
▁nohou	-11.3246
▁ocenil	-11.3246
▁Intel	-11.3247
▁solidní	-11.3247
▁psů	-11.3247
▁jídla	-11.3248
▁liberální	-11.3248
▁převah	-11.3248
▁Maďarsko	-11.3249
▁JAK	-11.3249
▁zabit	-11.3249
▁nezbývá	-11.325
▁příznivců	-11.325
▁plnit	-11.325
▁Říká	-11.3251
▁2,5	-11.3251
kcionáři	-11.3252
▁ligový	-11.3252
▁Spolu	-11.3253
▁arabský	-11.3253
▁Příští	-11.3254
▁znečištění	-11.3254
▁Peck	-11.3254
zkoušet	-11.3254
rovnávací	-11.3255
následoval	-11.3255
abilní	-11.3255
▁podlehl	-11.3255
▁příjezd	-11.3256
▁Pokus	-11.3256
bydlí	-11.3256
▁kout	-11.3257
▁oken	-11.3258
▁Konec	-11.3258
▁převést	-11.326
▁Škol	-11.326
▁sáze	-11.326
▁varování	-11.326
▁ráj	-11.3261
▁ohni	-11.3261
▁vyměnit	-11.3261
▁osnov	-11.3262
▁tabu	-11.3262
▁euro	-11.3263
▁matky	-11.3263
▁induk	-11.3263
▁nápln	-11.3264
▁výraznější	-11.3265
kazil	-11.3266
▁vítr	-11.3266
▁kouř	-11.3267
▁Krist	-11.3267
▁stád	-11.3269
sadit	-11.3269
▁Vesmíru	-11.3271
▁uzavřena	-11.3271
▁vybudování	-11.3274
zřetelně	-11.3276
▁pohřeb	-11.3277
▁uvolnění	-11.3277
▁zvládnout	-11.3278
▁polární	-11.3282
▁kroků	-11.3282
▁uznávan	-11.3282
▁hlasovat	-11.3283
▁Označ	-11.3285
▁vystoupí	-11.3286
▁stavba	-11.3288
▁podoba	-11.3288
▁elektronické	-11.329
▁kurt	-11.3292
▁vzdal	-11.3292
escu	-11.3293
přesněji	-11.3293
▁Belgii	-11.3294
▁genetick	-11.3295
▁expertů	-11.3297
▁vyprš	-11.3297
▁částkou	-11.3304
▁starostí	-11.3309
konců	-11.3316
▁průměrně	-11.3317
▁zachován	-11.3321
pomínají	-11.3321
OT	-11.3322
▁dokončen	-11.3322
rovné	-11.3324
▁volbou	-11.3331
▁Slovák	-11.3331
▁extrémní	-11.3333
▁komet	-11.3336
▁slyší	-11.3338
jadern	-11.334
okres	-11.3348
▁kluk	-11.335
▁manažerské	-11.3353
▁krevní	-11.3362
▁elektrický	-11.3369
▁učení	-11.3372
▁registrac	-11.3374
68	-11.3382
▁kanálů	-11.3382
pracuje	-11.3384
▁Ekonomick	-11.3384
▁absolv	-11.3386
▁obhájce	-11.3386
▁zobrazen	-11.3388
▁prestižní	-11.3389
▁uchazečů	-11.3398
dél	-11.3399
▁adapt	-11.3399
▁čistě	-11.3406
▁1500	-11.3406
▁převlád	-11.3407
▁veškerý	-11.3408
▁zdokonal	-11.3409
▁Rok	-11.3412
▁svalov	-11.3418
danou	-11.3422
▁krav	-11.3425
řejmě	-11.3426
NS	-11.343
▁archeolog	-11.3433
▁detailní	-11.3439
▁krvi	-11.3442
▁vzpomín	-11.3446
niknout	-11.3454
▁subjektů	-11.3454
▁had	-11.3461
▁italsk	-11.3467
▁výhodn	-11.3478
dvacetiletý	-11.3478
▁Věr	-11.3487
▁maďarské	-11.3493
ash	-11.3498
UJE	-11.3498
▁propadl	-11.3514
chrom	-11.3516
místo	-11.3528
tvrdí	-11.3531
▁Aleš	-11.3533
▁odběratelů	-11.354
▁ráz	-11.354
▁biolog	-11.3543
▁obyčejný	-11.3544
▁jugoslávsk	-11.3548
AG	-11.3561
can	-11.3588
▁125	-11.3602
▁hotové	-11.3603
▁tenisové	-11.3603
▁Pražsk	-11.3605
▁krásné	-11.3609
▁smrtí	-11.362
▁týkají	-11.3637
▁Svaz	-11.3639
▁krajní	-11.364
▁organick	-11.3641
▁kuponov	-11.3655
▁totemismu	-11.3655
▁sfér	-11.3657
▁japon	-11.3662
▁zadní	-11.3668
▁atomové	-11.3678
▁uspořádal	-11.3681
▁terorist	-11.3681
▁odpovídají	-11.3682
▁řešen	-11.3687
▁oddělen	-11.3693
▁záznamové	-11.37
▁zřízen	-11.3705
▁komplet	-11.3706
▁zní	-11.3709
▁předání	-11.3716
▁předpis	-11.3717
▁brzd	-11.3719
hradit	-11.3723
▁Závěr	-11.3729
bírat	-11.3738
▁Masarykov	-11.3738
olicejní	-11.3739
▁Bosn	-11.374
▁obdiv	-11.3741
▁konzerv	-11.3741
▁počáteční	-11.3742
▁strategický	-11.3742
neštěstí	-11.3742
peptid	-11.3742
▁Doufám	-11.3742
▁Výjimk	-11.3742
▁Výsledek	-11.3742
▁Wembley	-11.3742
▁anonymní	-11.3742
▁cizinců	-11.3742
▁definovat	-11.3742
▁dvojnásobek	-11.3742
▁dětmi	-11.3742
▁evidenci	-11.3742
▁humanitární	-11.3742
▁intenzivně	-11.3742
▁komfort	-11.3742
▁kriminál	-11.3742
▁království	-11.3742
▁lhůty	-11.3742
▁nabídnut	-11.3742
▁neúspěch	-11.3742
▁otázkách	-11.3742
▁ošetření	-11.3742
▁podruhé	-11.3742
▁připomenout	-11.3742
▁revoluce	-11.3742
▁tvůrčí	-11.3742
▁týdnu	-11.3742
▁uhličitého	-11.3742
▁upozorňují	-11.3742
▁uskutečň	-11.3742
▁veřejnou	-11.3742
▁výrobku	-11.3742
▁zajistil	-11.3742
▁zdravotně	-11.3742
▁zvyšovat	-11.3742
▁zážitek	-11.3742
▁Boleslav	-11.3742
▁HGF	-11.3742
▁PŘED	-11.3742
▁Zdravotn	-11.3742
▁převzetí	-11.3742
▁sportovci	-11.3742
▁užitečné	-11.3742
▁zloděj	-11.3742
▁řekněme	-11.3742
▁LDS	-11.3742
▁Poborského	-11.3742
▁Strakoni	-11.3742
▁ostravské	-11.3742
▁sankce	-11.3742
▁Havlov	-11.3742
▁umístit	-11.3742
▁skener	-11.3742
▁série	-11.3742
▁naprosté	-11.3742
▁souprav	-11.3742
▁Mostaru	-11.3742
▁Nobelov	-11.3742
▁mobilní	-11.3742
▁opačný	-11.3742
▁sleduje	-11.3742
▁srpnu	-11.3742
▁krystal	-11.3742
▁pátý	-11.3742
pomáhal	-11.3742
▁potravy	-11.3742
▁projednávání	-11.3742
▁MHz	-11.3742
▁komisí	-11.3742
▁zhoubn	-11.3742
▁centrem	-11.3742
▁nepatří	-11.3742
▁kompost	-11.3742
▁odevzda	-11.3742
▁Názor	-11.3742
▁stačit	-11.3742
▁Komora	-11.3742
▁chemie	-11.3742
▁stěžují	-11.3742
▁minimum	-11.3742
▁pozemků	-11.3742
▁národnostní	-11.3742
▁rozvinut	-11.3742
skočit	-11.3742
▁konzervativní	-11.3742
▁letišti	-11.3742
záhad	-11.3742
▁veličin	-11.3742
▁Ústí	-11.3742
▁Počítá	-11.3742
▁sehnat	-11.3742
▁Prahu	-11.3742
▁Úprav	-11.3742
▁obnovit	-11.3742
▁shluk	-11.3742
▁obránce	-11.3742
▁vyhověl	-11.3742
▁modernizaci	-11.3742
▁promítá	-11.3742
▁turisté	-11.3742
▁kostým	-11.3742
▁nebrání	-11.3742
▁proběhla	-11.3742
▁remíz	-11.3743
▁román	-11.3743
▁Filip	-11.3743
vážet	-11.3743
▁karet	-11.3744
▁podobnost	-11.3744
▁vykonávat	-11.3744
▁azyl	-11.3744
▁emise	-11.3744
▁pilot	-11.3744
▁realizaci	-11.3744
▁útočn	-11.3745
▁diskusí	-11.3745
▁zaslal	-11.3745
▁moudr	-11.3745
▁podoby	-11.3745
▁cítit	-11.3745
▁mak	-11.3745
▁experimentální	-11.3746
▁1948	-11.3746
▁chrání	-11.3746
ford	-11.3747
▁videa	-11.3748
▁dovoluje	-11.3748
▁léčení	-11.3748
▁půjčky	-11.3749
▁vylepš	-11.3749
▁Mistr	-11.3749
▁Chang	-11.3749
▁dárk	-11.375
▁potřebovat	-11.375
▁budování	-11.375
▁odmítnut	-11.3751
▁svobodný	-11.3751
▁očima	-11.3752
▁POD	-11.3753
▁Klepn	-11.3755
▁tabulku	-11.3755
▁bát	-11.3755
▁nádob	-11.3756
▁rozdělit	-11.3756
určují	-11.3757
▁dovolí	-11.3758
▁Vzá	-11.3758
▁nahoru	-11.3759
▁obává	-11.3759
▁Ukázal	-11.376
▁přestane	-11.3761
▁ušetří	-11.3761
▁atmosféru	-11.3761
▁volit	-11.3761
▁formulář	-11.3764
▁oblib	-11.3764
rychlostní	-11.3765
▁prosím	-11.3766
▁španělsk	-11.3768
▁venku	-11.377
▁nechci	-11.3772
▁hovořili	-11.3774
▁Důvodem	-11.3774
▁hromadné	-11.3776
▁přišly	-11.3776
▁užitku	-11.3776
▁kolekc	-11.3776
▁technikou	-11.3779
▁náhle	-11.3779
▁vybere	-11.3782
▁vkus	-11.3783
▁prostorách	-11.3786
▁Seznam	-11.3786
▁prvek	-11.3788
▁vydělal	-11.3791
▁Chorvat	-11.3792
▁láh	-11.3793
▁změnách	-11.3795
▁vycházet	-11.3796
▁pták	-11.3797
▁popsat	-11.3803
▁jednotné	-11.3803
placení	-11.3804
▁kontrolou	-11.3806
▁vlastníkem	-11.3808
▁pohotovost	-11.3809
▁čelní	-11.3809
▁semináře	-11.3811
▁Olomouce	-11.3812
▁diplomatické	-11.382
▁dělníků	-11.3824
▁ostrovů	-11.3827
▁Karlový	-11.3834
▁technik	-11.3836
▁běže	-11.3841
▁prodejně	-11.3845
▁plní	-11.3851
▁nevíme	-11.3851
▁izraelský	-11.3863
▁chirurg	-11.3876
▁samotn	-11.3878
jížděl	-11.3883
▁Koup	-11.3883
▁automobilový	-11.3885
▁klinick	-11.3902
▁vstupuje	-11.3906
cestovat	-11.3912
▁Stan	-11.3913
▁Večer	-11.3927
▁uvolnil	-11.3931
▁způsobit	-11.3941
▁Králov	-11.3957
erie	-11.3958
▁moravské	-11.3962
ařské	-11.3972
▁42	-11.398
▁vycházel	-11.3989
▁reklamní	-11.3992
▁tempo	-11.3993
hrával	-11.4004
slovní	-11.4012
MF	-11.4013
oporu	-11.4019
▁cenové	-11.4023
▁Podstatn	-11.4037
▁140	-11.405
sazování	-11.4053
76	-11.4079
▁obranné	-11.4087
izraelsk	-11.4088
▁tvůrce	-11.4092
▁soupeřů	-11.4094
▁tuzemsk	-11.4095
▁Kup	-11.4105
▁Turist	-11.4114
▁Řekl	-11.4117
▁svazové	-11.4123
▁aneb	-11.4125
morav	-11.4126
ohledně	-11.4134
▁Hal	-11.4137
▁popsán	-11.4138
mohou	-11.4143
▁Lig	-11.4147
▁bezpečně	-11.4151
▁využit	-11.416
atřicet	-11.4161
▁šampionát	-11.4162
▁zemědělsk	-11.4164
▁psycho	-11.4165
▁vyžadují	-11.4165
▁stříbrné	-11.4165
svit	-11.4166
▁následk	-11.4184
▁účinnost	-11.4184
▁slabý	-11.4185
▁veřejný	-11.4195
▁těle	-11.4196
▁spolupracovník	-11.4197
▁56	-11.4203
▁hrubé	-11.4217
▁lázeňsk	-11.4225
▁jednoznačný	-11.4225
▁integrovan	-11.423
alternativ	-11.4232
▁Důvod	-11.4234
▁příslušnost	-11.4235
▁Japonsko	-11.4235
projevilo	-11.4237
▁povolen	-11.4237
▁výpočet	-11.4244
▁Barn	-11.4252
▁nejedn	-11.4255
▁Maďar	-11.4258
▁stanovené	-11.4264
▁zněl	-11.4265
▁zved	-11.4266
ografii	-11.4267
▁šíří	-11.4267
▁Weizs	-11.4268
▁bratislavsk	-11.4268
sekretariát	-11.4268
zrcadl	-11.4268
▁Antonín	-11.4268
▁Benešov	-11.4268
▁Dvořák	-11.4268
▁Jednotliv	-11.4268
▁Lubomír	-11.4268
▁Náměst	-11.4268
▁Sarajev	-11.4268
▁Schneider	-11.4268
▁cizinci	-11.4268
▁cizině	-11.4268
▁deklarace	-11.4268
▁evoluční	-11.4268
▁institut	-11.4268
▁kancléř	-11.4268
▁kmitočt	-11.4268
▁komunisté	-11.4268
▁lékáren	-11.4268
▁medailí	-11.4268
▁ministerstev	-11.4268
▁nejsilnější	-11.4268
▁nemožné	-11.4268
▁nečekaně	-11.4268
▁opozici	-11.4268
▁oslaben	-11.4268
▁oživení	-11.4268
▁posouzení	-11.4268
▁přeháňky	-11.4268
▁redakci	-11.4268
▁restituční	-11.4268
▁skript	-11.4268
▁spánku	-11.4268
▁struktuře	-11.4268
▁tabulátor	-11.4268
▁uspokojení	-11.4268
▁uzávěr	-11.4268
▁vyloučit	-11.4268
▁zúčastní	-11.4268
▁Bayern	-11.4268
▁Vinohrad	-11.4268
▁archív	-11.4268
▁informovat	-11.4268
▁minerální	-11.4268
▁nevznik	-11.4268
▁portfoli	-11.4268
▁princezn	-11.4268
▁přidružen	-11.4268
▁svatební	-11.4268
▁tiskárna	-11.4268
▁univerzáln	-11.4268
▁výkyvy	-11.4268
▁zlepšit	-11.4268
▁altruist	-11.4268
▁ohlášen	-11.4268
▁stadia	-11.4268
▁zlepšil	-11.4268
instalovat	-11.4268
šetřil	-11.4268
▁Libanon	-11.4268
▁stoupenc	-11.4268
▁Mazdy	-11.4268
▁lístky	-11.4268
▁družic	-11.4268
▁nahrazen	-11.4268
▁preventivn	-11.4268
▁řemesl	-11.4268
▁letadlo	-11.4268
▁válkou	-11.4268
▁porušil	-11.4268
▁ČSAV	-11.4268
▁ohrom	-11.4268
▁slalom	-11.4268
▁licence	-11.4268
▁vydělat	-11.4268
▁kádru	-11.4268
▁neuvažuj	-11.4268
▁čáry	-11.4268
hlédl	-11.4268
▁Něco	-11.4268
▁doplnit	-11.4268
▁zahájí	-11.4268
rozhodoval	-11.4268
▁Polsku	-11.4268
▁ovládat	-11.4268
▁jedinečn	-11.4268
▁pozemky	-11.4268
▁jídlo	-11.4268
▁penalt	-11.4268
▁jedinci	-11.4268
▁vyrábějí	-11.4268
▁odškodnění	-11.4268
▁účinný	-11.4268
▁tisíciletí	-11.4268
▁potrvá	-11.4268
▁Odhad	-11.4268
▁dealer	-11.4268
▁užívat	-11.4268
▁umístil	-11.4269
▁Čečen	-11.4269
▁veliká	-11.4269
štejn	-11.4269
▁nestalo	-11.4269
▁Maastrichtu	-11.4269
▁USD	-11.4269
pálil	-11.4269
▁nebudu	-11.4269
šňů	-11.4269
▁návštěvníci	-11.4269
▁kůži	-11.4269
▁žánr	-11.4269
▁hlášen	-11.4269
▁odvozen	-11.4269
▁uklid	-11.4269
▁městečk	-11.4269
▁Holub	-11.4269
▁dopředu	-11.427
▁Hlas	-11.427
▁nemění	-11.427
▁vracejí	-11.427
▁hornin	-11.427
▁koncentrací	-11.427
▁Krkonoších	-11.4271
▁přečte	-11.4271
▁Zásad	-11.4271
▁setkat	-11.4271
▁dřevěný	-11.4271
▁restaurací	-11.4272
▁otřes	-11.4272
▁východisk	-11.4272
▁zlata	-11.4273
▁ruchu	-11.4273
▁masa	-11.4273
▁léčba	-11.4273
▁mikroorganismů	-11.4273
▁dešťov	-11.4274
▁zasvěcen	-11.4274
▁chybějící	-11.4274
▁věčn	-11.4274
▁zakončen	-11.4274
▁Juli	-11.4274
▁řešil	-11.4274
▁jádra	-11.4275
přát	-11.4276
▁Nesmí	-11.4277
▁odmítnout	-11.4278
▁odstín	-11.4278
▁přenesen	-11.4278
▁spokojenosti	-11.4278
▁realizovat	-11.4279
lákat	-11.4281
▁náročnější	-11.4281
▁absurdní	-11.4281
▁městská	-11.4281
▁rozhodnuto	-11.4282
▁úkor	-11.4282
▁tuzemských	-11.4283
▁SNS	-11.4284
▁záložník	-11.4284
▁Situace	-11.4286
▁stres	-11.4286
▁obrace	-11.4286
0.000	-11.4288
▁hlavě	-11.4291
▁vidění	-11.4292
▁kapr	-11.4292
▁vyšetřovací	-11.4295
▁základnu	-11.4295
▁kytarist	-11.4297
▁opakovat	-11.4299
▁zkoušky	-11.4299
▁protokol	-11.43
▁vykazuje	-11.4301
▁převeden	-11.4302
▁kdybychom	-11.4303
▁letoun	-11.4304
▁drát	-11.4304
▁Byt	-11.4305
▁mírou	-11.4305
▁oceňuj	-11.4305
▁počítají	-11.4306
▁myslíte	-11.4307
▁linek	-11.4309
▁odvolal	-11.431
▁ukládat	-11.4312
▁Syn	-11.4312
▁středně	-11.4313
▁střelec	-11.4317
▁závazků	-11.4318
▁víno	-11.4318
▁skvělé	-11.432
ždyť	-11.4322
▁vztahuje	-11.4323
▁řádek	-11.4324
▁právnick	-11.4328
▁Bójů	-11.4335
▁islámské	-11.4337
▁potka	-11.4343
▁varoval	-11.4348
▁Hodn	-11.4348
▁vyplývající	-11.4359
▁nespokojenost	-11.4372
▁otce	-11.4381
zie	-11.4395
strašně	-11.4406
▁Kamp	-11.4407
▁smrteln	-11.4408
▁pevně	-11.4408
▁schémat	-11.4417
▁Husov	-11.4421
▁rodné	-11.4448
▁Světov	-11.445
▁91	-11.4454
7%	-11.4464
▁členské	-11.4465
▁kvalitativn	-11.4475
▁jeskyn	-11.4477
▁př	-11.4478
méno	-11.449
▁srovnatelné	-11.4503
▁horský	-11.4506
▁Pel	-11.4508
▁cílov	-11.4531
▁hlava	-11.4537
▁technologický	-11.4554
▁kapitálový	-11.4559
▁Král	-11.4563
NSK	-11.4579
▁uskutečnil	-11.458
▁magi	-11.458
▁cílů	-11.4595
způsobují	-11.4646
▁odráž	-11.4652
▁srovnatelný	-11.4654
▁speciálně	-11.4663
sovětsk	-11.4671
▁poločase	-11.4677
▁závazk	-11.4686
▁adresář	-11.469
▁všeobecn	-11.4691
NU	-11.4694
▁Severoatlantick	-11.4696
▁Potřeb	-11.4696
▁Atlant	-11.4706
▁živý	-11.4707
▁pozitiv	-11.471
▁účet	-11.472
▁prezidentský	-11.4727
▁teoretické	-11.473
▁zákoník	-11.4734
▁rozumné	-11.4736
▁úzké	-11.4738
▁bohatý	-11.4744
▁lacin	-11.4745
▁Tenis	-11.475
▁přispíva	-11.4751
▁přítele	-11.4754
▁Ostrav	-11.4755
▁věnuj	-11.4769
▁oblačno	-11.4775
▁obdobný	-11.4776
▁umožňují	-11.4782
jišťuje	-11.479
▁dočasn	-11.4791
▁odjel	-11.4803
vrátit	-11.4809
▁sovětský	-11.4812
ČSSD	-11.4814
▁administra	-11.4823
▁Křesťan	-11.4823
▁Olszewsk	-11.4823
▁laboratorní	-11.4823
▁sudetský	-11.4823
ejzajímavější	-11.4823
populárnější	-11.4823
▁Bezpečnost	-11.4823
▁Bierhoff	-11.4823
▁Evropou	-11.4823
▁Jupiter	-11.4823
▁Karadžic	-11.4823
▁Letošní	-11.4823
▁Madrid	-11.4823
▁Naštěstí	-11.4823
▁Obyvatel	-11.4823
▁Sněmovn	-11.4823
▁Soutěž	-11.4823
▁arcibiskup	-11.4823
▁burzy	-11.4823
▁celosvětov	-11.4823
▁chorvatský	-11.4823
▁dirigent	-11.4823
▁energií	-11.4823
▁kandidovat	-11.4823
▁kontext	-11.4823
▁krátkodobé	-11.4823
▁leccos	-11.4823
▁následovat	-11.4823
▁opozicí	-11.4823
▁poskytne	-11.4823
▁premiéře	-11.4823
▁překážky	-11.4823
▁restitucí	-11.4823
▁seriózní	-11.4823
▁stability	-11.4823
▁televizor	-11.4823
▁totalitní	-11.4823
▁vzdělávání	-11.4823
▁zdůvodnil	-11.4823
▁závislá	-11.4823
▁Úspěšn	-11.4823
▁úspěšnost	-11.4823
▁Čtvrt	-11.4823
škráb	-11.4823
▁Jackson	-11.4823
▁Litvínov	-11.4823
▁Softwar	-11.4823
▁Stehlík	-11.4823
▁dokonalé	-11.4823
▁incident	-11.4823
▁londýn	-11.4823
▁nahrávk	-11.4823
▁neexistoval	-11.4823
▁nešťastn	-11.4823
▁odlišné	-11.4823
▁ozónu	-11.4823
▁podotkl	-11.4823
▁preferenc	-11.4823
▁prezervativ	-11.4823
▁prokuratur	-11.4823
▁tendenci	-11.4823
▁učebnic	-11.4823
▁viceprezident	-11.4823
▁výkres	-11.4823
▁výslovně	-11.4823
▁zakázán	-11.4823
▁získají	-11.4823
Standard	-11.4823
▁Ukrajina	-11.4823
▁dostatečné	-11.4823
▁imunitní	-11.4823
▁socialismu	-11.4823
▁výrobou	-11.4823
▁záleže	-11.4823
▁Moderní	-11.4823
▁Město	-11.4823
▁zachránil	-11.4823
▁Podívej	-11.4823
▁Pražan	-11.4823
▁kapitul	-11.4823
▁mrtvé	-11.4823
▁náleží	-11.4823
▁porušování	-11.4823
▁těžší	-11.4823
▁znamení	-11.4823
▁filtr	-11.4823
▁laserov	-11.4823
▁Dukly	-11.4823
▁Mandler	-11.4823
▁abeced	-11.4823
▁vyměnil	-11.4823
▁zemědělci	-11.4823
▁Kopřiv	-11.4824
▁herečka	-11.4824
▁vyžádá	-11.4824
burgu	-11.4824
▁Island	-11.4824
▁MIDI	-11.4824
▁chápán	-11.4824
▁profese	-11.4824
▁Obvodní	-11.4824
▁položku	-11.4824
▁živnostenský	-11.4824
▁charitativní	-11.4824
▁naučit	-11.4824
▁ČSAD	-11.4824
▁hrozil	-11.4824
▁nutná	-11.4824
▁příroda	-11.4824
▁Atleti	-11.4824
▁druzí	-11.4824
▁Vojenské	-11.4824
▁obvinil	-11.4824
▁zajímal	-11.4824
▁výlučn	-11.4824
▁Dlouho	-11.4824
▁necelé	-11.4824
▁Hapal	-11.4824
▁stěží	-11.4824
▁rozumět	-11.4824
▁kubismu	-11.4824
▁převažuj	-11.4824
▁Maďarska	-11.4824
▁uplatňova	-11.4824
▁vystupoval	-11.4825
▁Akci	-11.4825
▁mýtu	-11.4825
▁proměnliv	-11.4825
▁frakc	-11.4825
▁zvrat	-11.4825
▁koncentraci	-11.4825
▁vyjít	-11.4825
sudek	-11.4826
▁přečetl	-11.4826
▁Berger	-11.4826
▁diváci	-11.4826
především	-11.4826
▁utajen	-11.4826
ampión	-11.4826
▁poctiv	-11.4827
▁kresb	-11.4827
▁kopané	-11.4827
▁Masaryk	-11.4827
▁kláštera	-11.4828
▁studené	-11.4828
▁tvorba	-11.4828
▁ultra	-11.4829
▁nesměl	-11.4829
▁česky	-11.4829
▁cítil	-11.483
háněl	-11.4831
▁loď	-11.4832
píší	-11.4832
▁balení	-11.4832
▁Příklad	-11.4833
▁duši	-11.4834
▁publikace	-11.4834
▁kámen	-11.4834
▁1950	-11.4835
▁využije	-11.4835
▁úder	-11.4836
▁síni	-11.4836
▁přidělen	-11.4837
▁potvrzují	-11.4837
▁obdrží	-11.4837
▁zvyklí	-11.4837
▁prázdninách	-11.4837
▁Politick	-11.4838
▁obsáhl	-11.4838
▁očích	-11.4838
týž	-11.4839
▁vzorků	-11.484
▁ČESK	-11.484
▁expozice	-11.484
▁sbírky	-11.4841
poškozené	-11.4842
▁vznikne	-11.4842
▁utekl	-11.4842
▁plot	-11.4843
▁připravují	-11.4843
▁písma	-11.4844
▁dostupný	-11.4844
▁vysílání	-11.4845
▁trůn	-11.4846
▁alternativní	-11.4846
▁důstojník	-11.4847
ůstek	-11.4847
▁chápe	-11.485
▁zanikl	-11.4852
▁drobných	-11.4853
účtování	-11.4853
▁Potvrdil	-11.4854
▁Švýcarska	-11.4854
ázev	-11.4856
▁Prag	-11.4857
▁Alma	-11.4857
▁osobám	-11.4857
▁přihlásil	-11.4857
▁mistrovsk	-11.4858
▁vyrovnání	-11.486
▁překvapiv	-11.4861
▁náhodně	-11.4863
▁zvukových	-11.4863
ografické	-11.4866
nechávají	-11.487
▁měnil	-11.487
▁kompletní	-11.4871
▁vníma	-11.4872
▁FC	-11.4876
▁pojistn	-11.4876
▁branku	-11.4878
▁sídla	-11.4879
▁trojic	-11.4881
tržení	-11.4881
▁čaj	-11.4881
▁izraelské	-11.4881
▁výměník	-11.4884
dávky	-11.4884
šený	-11.4887
▁MOV	-11.489
▁předsednictv	-11.489
▁pětadvacet	-11.489
LED	-11.4891
▁Dag	-11.4893
hořel	-11.4896
▁částečn	-11.4897
▁Řek	-11.4906
▁prodejna	-11.4909
▁léto	-11.4915
87	-11.4915
▁sídlí	-11.4915
čínsk	-11.4919
▁psaní	-11.492
▁jmenoval	-11.4923
▁získávání	-11.4927
▁momentáln	-11.4931
▁stříbrn	-11.4933
▁Baník	-11.4948
▁Geo	-11.4948
▁Optic	-11.4949
▁závěrečný	-11.495
▁drav	-11.4952
▁provozování	-11.4954
▁levné	-11.4956
▁77	-11.4964
▁ověřen	-11.4969
▁dosahují	-11.4974
▁tiskový	-11.4974
▁přesvědčil	-11.498
▁soukromým	-11.498
▁Buď	-11.4982
▁uzavřené	-11.4983
▁Švýcar	-11.4983
▁nezískal	-11.4992
▁zadržen	-11.4996
▁slovenský	-11.4997
▁mořské	-11.4998
▁plánované	-11.5004
▁měnov	-11.5009
▁nálož	-11.5017
▁takzvané	-11.5019
▁touh	-11.5024
▁Obsah	-11.5027
▁230	-11.5034
▁životnost	-11.504
jednala	-11.5041
▁výživ	-11.5048
TER	-11.5048
ogenní	-11.5056
bytová	-11.5064
▁válečné	-11.5072
soudit	-11.5072
▁pouh	-11.5079
▁Občansk	-11.508
jednán	-11.508
▁obyčejné	-11.5096
▁armádní	-11.5101
▁předčasné	-11.5104
▁hlás	-11.5122
tlačit	-11.5124
Centr	-11.513
▁proměnil	-11.5138
padnout	-11.5138
▁tečk	-11.515
▁lidový	-11.5156
▁zdravý	-11.5163
▁klimatické	-11.5169
▁počítačov	-11.517
▁svobodn	-11.517
▁Zákaz	-11.5174
archeologi	-11.5179
▁vyrovnaný	-11.519
▁takzvaný	-11.5191
▁závažn	-11.5198
▁příbuzné	-11.5199
▁etický	-11.5202
▁dávn	-11.5217
vezm	-11.5218
▁vzkaz	-11.5219
▁Carl	-11.5235
izování	-11.5251
▁186	-11.5257
▁vesnic	-11.5257
▁mladík	-11.526
▁poradil	-11.5262
▁dospělé	-11.5263
▁tradic	-11.527
▁úměrn	-11.5272
▁Zemanov	-11.5275
▁letecký	-11.5285
▁kongres	-11.5305
▁vesmír	-11.5306
▁vědec	-11.5306
▁Ostravsk	-11.5309
▁bojoval	-11.5312
▁muzeu	-11.5316
▁chodil	-11.5318
▁jater	-11.5335
▁překvapen	-11.5342
eckém	-11.5352
jednali	-11.5358
▁potvrzen	-11.5362
▁dělník	-11.5374
389	-11.5376
▁srozumiteln	-11.5398
tvořily	-11.5402
▁začínal	-11.5403
vyjádřen	-11.5403
▁restaur	-11.5403
německou	-11.5403
▁květ	-11.5403
▁klášte	-11.5407
▁Krkonoš	-11.5409
nešní	-11.541
▁Jugosláv	-11.5411
svobozen	-11.5411
doporučují	-11.5412
egyptsk	-11.5412
▁Běloruska	-11.5412
▁Eduard	-11.5412
▁Jihoafrick	-11.5412
▁Manchester	-11.5412
▁Městě	-11.5412
▁Niederl	-11.5412
▁Pentium	-11.5412
▁Polskem	-11.5412
▁Pořadatel	-11.5412
▁Poštovní	-11.5412
▁Pravděpodobn	-11.5412
▁Rozhovor	-11.5412
▁Svorada	-11.5412
▁asteroid	-11.5412
▁displej	-11.5412
▁doprovázen	-11.5412
▁ekvivalent	-11.5412
▁generaci	-11.5412
▁gramotnost	-11.5412
▁instance	-11.5412
▁inzerát	-11.5412
▁konfiguraci	-11.5412
▁kooperac	-11.5412
▁mechanismy	-11.5412
▁ministerstvem	-11.5412
▁mrtvých	-11.5412
▁mužstvu	-11.5412
▁nejlevnější	-11.5412
▁nejvhodnější	-11.5412
▁nepřijatelné	-11.5412
▁nesprávn	-11.5412
▁organismů	-11.5412
▁oteplení	-11.5412
▁ovlivňova	-11.5412
▁pohromadě	-11.5412
▁potvrdit	-11.5412
▁pracovišti	-11.5412
▁prohlašuje	-11.5412
▁protagonist	-11.5412
▁redukci	-11.5412
▁rozvržení	-11.5412
▁sluchátka	-11.5412
▁spolupracují	-11.5412
▁stabilitu	-11.5412
▁strojírenství	-11.5412
▁svědků	-11.5412
▁ubytovn	-11.5412
▁uskutečněn	-11.5412
▁vyjadřova	-11.5412
▁vyvrchol	-11.5412
▁vzdělávací	-11.5412
▁výhrady	-11.5412
▁výsledcích	-11.5412
▁zachránit	-11.5412
▁zaměstnává	-11.5412
▁zvýhodněn	-11.5412
▁závazek	-11.5412
▁závislé	-11.5412
▁švýcarské	-11.5412
▁1981	-11.5412
▁Hrdličk	-11.5412
▁Kepler	-11.5412
▁Vědci	-11.5412
▁bázi	-11.5412
▁hřbitov	-11.5412
▁kampaň	-11.5412
▁odehrál	-11.5412
▁označují	-11.5412
▁podmínkami	-11.5412
▁složku	-11.5412
▁zastávk	-11.5412
▁zbraň	-11.5412
▁Thomas	-11.5412
▁Uvažuje	-11.5412
▁prokázán	-11.5412
▁pátrá	-11.5412
přihlášk	-11.5412
▁Balkán	-11.5412
▁kliniky	-11.5412
▁komentoval	-11.5412
▁očekávají	-11.5412
▁překonat	-11.5412
▁Výběr	-11.5412
▁pouštní	-11.5412
▁Právní	-11.5412
▁kosmický	-11.5412
▁sazby	-11.5412
▁vyjednávání	-11.5412
▁kontrast	-11.5412
▁obtíže	-11.5412
▁SNR	-11.5412
▁hmyz	-11.5412
▁jedinec	-11.5412
▁vazbě	-11.5412
▁vyřešil	-11.5412
omputer	-11.5412
▁podléha	-11.5412
▁poplatků	-11.5412
▁sérii	-11.5412
režie	-11.5412
▁dráhu	-11.5412
▁profesí	-11.5412
opakovaně	-11.5412
▁prvotní	-11.5412
▁lidstva	-11.5412
▁ojediněle	-11.5412
▁přehrad	-11.5412
▁přijímat	-11.5412
▁odvahu	-11.5412
▁zahrnují	-11.5412
▁neviděl	-11.5412
▁čistírn	-11.5412
▁Gross	-11.5412
▁otravy	-11.5412
▁povahu	-11.5412
▁uplatnil	-11.5412
KDS	-11.5412
▁absenc	-11.5412
▁kolaps	-11.5412
▁partie	-11.5412
▁Smith	-11.5412
hlížel	-11.5412
▁Reuter	-11.5412
▁sladk	-11.5412
▁jarní	-11.5412
▁nadějn	-11.5412
▁postačí	-11.5412
▁2:1	-11.5412
▁zastupitelstvo	-11.5412
▁Radovan	-11.5412
▁velkolep	-11.5412
▁obezit	-11.5412
▁vpravo	-11.5412
▁cvičení	-11.5412
▁kombinací	-11.5412
▁patent	-11.5413
obdržela	-11.5413
▁Kučer	-11.5413
▁etapy	-11.5413
▁liberalizac	-11.5413
▁počty	-11.5413
▁doplnil	-11.5413
▁filozofii	-11.5413
▁sportovce	-11.5413
▁dimenz	-11.5413
▁smečka	-11.5413
hlédnutí	-11.5413
▁ohlas	-11.5413
▁Vilém	-11.5413
▁afér	-11.5413
▁finance	-11.5413
▁ekonomickou	-11.5413
▁koncentr	-11.5413
▁Kvalit	-11.5413
▁převrat	-11.5413
▁konverz	-11.5413
▁Baker	-11.5414
▁lůžk	-11.5414
ohrozil	-11.5414
▁Ford	-11.5414
▁Španělsko	-11.5414
▁spoření	-11.5414
▁zaměřuje	-11.5414
▁dvor	-11.5414
▁1998	-11.5414
▁sníží	-11.5414
▁derby	-11.5414
▁léčbě	-11.5414
▁děkan	-11.5415
▁hluboký	-11.5415
▁Krás	-11.5415
běhne	-11.5415
▁členění	-11.5415
▁zmenšen	-11.5415
▁Hráč	-11.5415
pravdě	-11.5415
▁trub	-11.5415
▁studii	-11.5415
▁nedostatkem	-11.5416
▁WAV	-11.5416
▁nezvykl	-11.5416
▁výměr	-11.5416
ředstavitelé	-11.5418
▁jednotlivců	-11.542
▁Přírod	-11.542
▁ISO	-11.542
▁běží	-11.5421
▁pravice	-11.5421
▁vynesl	-11.5422
▁dozví	-11.5422
▁pravdy	-11.5422
▁Winter	-11.5422
▁předloh	-11.5422
▁mezer	-11.5422
▁vyzván	-11.5423
▁pestr	-11.5423
▁trase	-11.5424
▁tureck	-11.5424
▁článků	-11.5425
▁celky	-11.5425
▁zvláštnost	-11.5425
eportáž	-11.5426
▁dálkové	-11.5426
▁sbírek	-11.5426
▁alternativy	-11.5428
▁čelit	-11.5428
▁usilují	-11.5429
▁salon	-11.5429
▁průvodce	-11.543
vypořádá	-11.543
▁tenkrát	-11.5431
▁podávání	-11.5431
▁udělen	-11.5432
▁protivník	-11.5432
▁jakéhokoli	-11.5433
▁tvrdit	-11.5433
▁plus	-11.5433
▁okresu	-11.5435
▁vyplni	-11.5435
▁správnou	-11.5435
▁Provoz	-11.5437
▁ušetřit	-11.5438
▁Přibyl	-11.5438
▁mohutn	-11.5439
▁památky	-11.5439
▁lodí	-11.5439
▁základny	-11.5443
▁nákladech	-11.5444
▁námět	-11.5445
▁vyhleda	-11.5445
▁ideologick	-11.5446
▁silami	-11.5447
▁znamenala	-11.5447
▁pití	-11.5448
▁skupinách	-11.5449
▁porost	-11.5449
▁dýcha	-11.5449
▁jmenování	-11.5453
▁Kolín	-11.5455
▁domku	-11.5455
▁nazval	-11.5461
▁pozdní	-11.5464
▁NT	-11.5465
▁vyznačen	-11.5466
▁vydrží	-11.5468
▁pomník	-11.5472
▁zkrac	-11.5472
▁myln	-11.5475
▁využívající	-11.5481
▁Palác	-11.5491
dále	-11.5492
▁odluk	-11.5493
▁zažil	-11.5495
jednává	-11.5495
▁těsné	-11.5505
▁maličkost	-11.5505
▁pozval	-11.5509
kromě	-11.5525
▁publikací	-11.5526
▁polský	-11.5529
reál	-11.5532
program	-11.5533
▁opon	-11.5543
SOU	-11.5549
▁jednotný	-11.5557
dáte	-11.5558
▁jednotka	-11.5563
▁atomov	-11.5567
sazení	-11.5567
▁samostatnost	-11.5587
rozuměj	-11.5588
▁Žád	-11.5593
print	-11.5593
OJ	-11.5596
elektrick	-11.5602
▁desítká	-11.5608
▁dvaadvacet	-11.5629
pouštět	-11.5637
▁Osm	-11.5642
▁stabiliz	-11.5651
▁vznikal	-11.5668
▁měřit	-11.5673
BU	-11.5674
▁třetin	-11.5688
OSTI	-11.5697
▁hokejové	-11.5701
▁skleníkový	-11.5706
ktické	-11.5709
▁rozlož	-11.5709
▁muslimsk	-11.571
▁očekávané	-11.5717
▁stiskn	-11.5726
ikonu	-11.573
▁skleník	-11.5733
▁anglick	-11.5734
▁dialogové	-11.5754
▁odbornost	-11.5756
▁bosen	-11.5763
▁oblíbený	-11.5764
▁Jih	-11.5771
▁Čtyř	-11.5799
ručně	-11.5804
obrazit	-11.5804
▁maxim	-11.5808
▁fakult	-11.5812
▁úvod	-11.5828
▁Novotn	-11.5832
mentálně	-11.584
▁nadměrn	-11.5844
HP	-11.5846
▁450	-11.5854
▁hrozn	-11.5855
▁kritéri	-11.5855
▁240	-11.5875
▁hub	-11.5876
▁Hub	-11.5886
▁krev	-11.5888
▁parametr	-11.5893
▁Histori	-11.5904
▁výjimk	-11.5915
▁úloh	-11.5932
▁vozov	-11.5935
▁družstevní	-11.5939
▁koordinac	-11.596
▁ústřed	-11.5962
▁využívají	-11.5963
pojit	-11.5973
▁61	-11.5977
▁ukončen	-11.5988
▁Vaš	-11.5989
▁Brněnsk	-11.5989
▁ovládá	-11.5989
▁uvolněn	-11.599
▁centimetr	-11.6007
funk	-11.602
▁algoritm	-11.6022
uskutečnila	-11.6026
▁dívá	-11.603
podivu	-11.6032
hrání	-11.6035
▁účinně	-11.6035
členný	-11.6036
▁databázový	-11.6037
▁expanz	-11.6037
▁švýcarský	-11.6037
Cagiva	-11.6037
▁Apple	-11.6037
▁Barcelony	-11.6037
▁Dudajev	-11.6037
▁Frankfurt	-11.6037
▁Harrachov	-11.6037
▁Konkrétn	-11.6037
▁Liverpool	-11.6037
▁Lobkowicz	-11.6037
▁Moskvy	-11.6037
▁Myslíte	-11.6037
▁Měsíc	-11.6037
▁Původní	-11.6037
▁Schumacher	-11.6037
▁Stráský	-11.6037
▁angličtiny	-11.6037
▁atribut	-11.6037
▁dosaženo	-11.6037
▁dětství	-11.6037
▁efektivnosti	-11.6037
▁epidemie	-11.6037
▁evoluce	-11.6037
▁extremist	-11.6037
▁fundamentalist	-11.6037
▁hollywoodsk	-11.6037
▁intenzivní	-11.6037
▁jménu	-11.6037
▁kinematografie	-11.6037
▁komplikace	-11.6037
▁konkurs	-11.6037
▁kriminalist	-11.6037
▁kritizoval	-11.6037
▁lhůtě	-11.6037
▁metabolick	-11.6037
▁mláďat	-11.6037
▁nabízel	-11.6037
▁nabízet	-11.6037
▁nejmladší	-11.6037
▁nelíbí	-11.6037
▁nesmějí	-11.6037
▁notebook	-11.6037
▁ohrozit	-11.6037
▁pohledávky	-11.6037
▁poloostrov	-11.6037
▁pozůstatk	-11.6037
▁počínání	-11.6037
▁pronájmu	-11.6037
▁pódiu	-11.6037
▁redakční	-11.6037
▁rozšiřování	-11.6037
▁separatist	-11.6037
▁skrývá	-11.6037
▁spekulace	-11.6037
▁spekulací	-11.6037
▁stadion	-11.6037
▁svědectví	-11.6037
▁tlačítek	-11.6037
▁trápí	-11.6037
▁vyčleněn	-11.6037
▁vztazích	-11.6037
▁výdělečn	-11.6037
▁zdůrazňuje	-11.6037
▁ÚSES	-11.6037
▁úředníci	-11.6037
▁ČSTK	-11.6037
▁Čarnogursk	-11.6037
generační	-11.6037
▁Budinský	-11.6037
▁Honecker	-11.6037
▁Luboš	-11.6037
▁TNF	-11.6037
▁Větší	-11.6037
▁cizinec	-11.6037
▁eventuáln	-11.6037
▁exhibic	-11.6037
▁hnízd	-11.6037
▁levněji	-11.6037
▁polštář	-11.6037
▁seznámil	-11.6037
▁znepokojen	-11.6037
kontaminac	-11.6037
▁Opět	-11.6037
▁bydliště	-11.6037
▁lůžek	-11.6037
▁omezování	-11.6037
▁předpokládají	-11.6037
▁HDP	-11.6037
▁nazývá	-11.6037
▁plynáren	-11.6037
▁ropovod	-11.6037
Oscar	-11.6037
▁bezespor	-11.6037
▁prodavač	-11.6037
▁profesní	-11.6037
▁rozmnož	-11.6037
▁Vánoční	-11.6037
▁poskytovan	-11.6037
▁učební	-11.6037
▁kosmické	-11.6037
▁výzvu	-11.6037
▁šlecht	-11.6037
▁Haagu	-11.6037
▁mrtvol	-11.6037
▁nekončí	-11.6037
▁nerozumí	-11.6037
kompenz	-11.6037
▁Tchaj	-11.6037
▁matematické	-11.6037
▁přiznat	-11.6037
▁terminologi	-11.6037
KDH	-11.6037
▁Vánoce	-11.6037
▁sdružuj	-11.6037
▁skandál	-11.6037
▁belgick	-11.6037
▁nazvaný	-11.6037
▁pojmy	-11.6037
▁odlišuj	-11.6037
▁recenze	-11.6037
▁demisi	-11.6037
▁pronajat	-11.6037
▁minulou	-11.6037
▁Easy	-11.6037
▁uváděl	-11.6037
▁spektrum	-11.6037
▁mezisklad	-11.6037
▁praxí	-11.6037
▁pokouší	-11.6037
▁plakát	-11.6037
▁pryč	-11.6037
▁nevadí	-11.6037
▁koupě	-11.6037
týkat	-11.6037
šplha	-11.6037
▁mutace	-11.6037
major	-11.6037
▁Kyjev	-11.6037
▁převyšuj	-11.6037
▁napodob	-11.6037
▁hygienické	-11.6037
▁stereo	-11.6037
kročit	-11.6037
▁vyvážen	-11.6037
▁zastupování	-11.6037
▁Římě	-11.6038
▁reprezentuje	-11.6038
▁levicov	-11.6038
▁snižují	-11.6038
▁Neznám	-11.6038
týkal	-11.6038
▁něčím	-11.6038
▁PŘI	-11.6038
▁pohlaví	-11.6038
▁žádal	-11.6038
▁veterán	-11.6038
▁usiloval	-11.6038
▁zastupitelství	-11.6038
▁bydlet	-11.6038
▁inteligentní	-11.6038
▁inkas	-11.6038
▁strážníci	-11.6038
▁Listin	-11.6038
▁ocas	-11.6038
2:0	-11.6038
▁rovnost	-11.6038
▁Group	-11.6039
▁výtisk	-11.6039
▁spuštění	-11.6039
▁neodpovídá	-11.6039
▁ledovce	-11.6039
▁vyrobil	-11.6039
▁námitky	-11.6039
▁teplé	-11.6039
▁součin	-11.6039
▁sousedství	-11.6039
▁průhledn	-11.6039
▁prudké	-11.6039
▁střechy	-11.6039
▁slyšel	-11.604
▁komunikací	-11.604
▁vápenc	-11.604
▁interpretace	-11.604
▁někam	-11.604
▁stoprocentní	-11.604
▁grant	-11.6041
▁pyšn	-11.6041
▁nezajímá	-11.6041
▁Dukla	-11.6041
▁léčby	-11.6042
▁norem	-11.6042
▁sumy	-11.6042
▁Olg	-11.6042
▁stolní	-11.6042
▁běžc	-11.6043
STAV	-11.6043
▁Nájem	-11.6043
▁kabin	-11.6043
▁Thun	-11.6043
▁kníže	-11.6044
▁Nemůže	-11.6044
▁složitost	-11.6044
▁Prohlásil	-11.6046
▁datum	-11.6047
▁Grafová	-11.6048
▁Solid	-11.6048
▁dostavil	-11.6049
▁určí	-11.6049
▁přežil	-11.605
bajt	-11.605
▁Lys	-11.6052
▁hmotnost	-11.6052
▁naučil	-11.6053
▁teplý	-11.6053
▁jmenovat	-11.6053
▁pozitivně	-11.6054
▁přenést	-11.6054
▁prodejců	-11.6054
▁minima	-11.6054
Finsko	-11.6054
▁geografick	-11.6055
▁Neměl	-11.6055
▁pamatuje	-11.6055
▁selekčn	-11.6055
míří	-11.6057
▁dílčí	-11.6057
▁makro	-11.6057
▁novinkou	-11.6057
▁Zpočátku	-11.6058
▁účelům	-11.6058
▁Libor	-11.6061
▁dějinách	-11.6061
kontinentální	-11.6061
▁sídlo	-11.6061
▁předešl	-11.6063
▁hluk	-11.6064
▁Web	-11.6067
rozuměl	-11.6073
▁Polák	-11.6073
▁inspektor	-11.6075
▁uznává	-11.6075
▁rozměrů	-11.6078
▁socialistické	-11.6083
▁LID	-11.6083
▁sestra	-11.6086
▁zvolí	-11.6089
▁zapsán	-11.6091
platila	-11.6094
▁59	-11.6095
▁invalidní	-11.61
▁starožitnost	-11.6104
▁Zkus	-11.6104
▁filozofické	-11.6106
▁Vodičk	-11.6113
▁organ	-11.6114
▁94	-11.6119
atřicetilet	-11.6125
▁Těm	-11.6125
▁vyhrazen	-11.6135
▁gest	-11.6144
▁omezeným	-11.6145
▁vzrost	-11.6147
▁klientel	-11.6148
▁pomocník	-11.6153
▁prázdné	-11.6154
▁příjemný	-11.6158
▁rizikový	-11.616
▁Rozhodn	-11.6178
TON	-11.6186
▁čar	-11.6191
▁zásobník	-11.6193
▁zhodnoc	-11.6202
psání	-11.6206
▁vývojový	-11.622
▁demokrat	-11.6225
▁sond	-11.623
▁zaujím	-11.6232
▁vývojář	-11.6232
▁hád	-11.6233
vládní	-11.6234
sunut	-11.6236
rovnávání	-11.6236
hrnul	-11.6237
▁neobyčejn	-11.6259
slouží	-11.626
1992	-11.6261
▁jakoukoli	-11.627
▁zlikvidov	-11.6292
pracování	-11.6292
▁položen	-11.6301
▁trojnásobn	-11.6306
▁ilustrac	-11.6314
▁řecké	-11.6315
USA	-11.6315
škodí	-11.6317
▁konstatova	-11.6341
které	-11.6347
▁levný	-11.635
jistá	-11.6355
▁stanovil	-11.6361
ICK	-11.6383
▁Rozhodl	-11.6417
▁Švéd	-11.6423
▁hostin	-11.6431
růstá	-11.6445
▁etnick	-11.6468
▁peče	-11.6475
▁uvolni	-11.6479
▁William	-11.6487
▁nepřinesl	-11.6492
▁Obchod	-11.6502
obyčejně	-11.6547
▁publika	-11.6552
▁využíván	-11.6553
vědčí	-11.6554
▁přírodovědeck	-11.6557
▁leteck	-11.6558
▁Opti	-11.6569
▁táhn	-11.6572
▁neprav	-11.6577
▁vozidl	-11.6588
▁Knih	-11.6596
▁poruše	-11.6601
▁závislost	-11.662
▁zkušebn	-11.6622
čítat	-11.6623
dražil	-11.6624
▁Míst	-11.6626
tabulk	-11.6634
▁naplněn	-11.6638
▁mask	-11.6644
edmdesát	-11.6645
▁zaplacen	-11.6649
▁Dět	-11.6652
▁příznačn	-11.6653
▁souhlasil	-11.6656
▁Brazíli	-11.6659
▁dvacát	-11.6668
▁Způsob	-11.6669
▁sediment	-11.6674
▁penzi	-11.6679
▁Začátk	-11.6686
chybějí	-11.6698
reprezenta	-11.6698
▁KSČ	-11.67
▁Účast	-11.6703
ntelektuál	-11.6703
▁elementární	-11.6703
▁jednodušší	-11.6703
▁mediální	-11.6703
JPEG	-11.6703
sloučenin	-11.6703
▁Austrálie	-11.6703
▁Domnívám	-11.6703
▁FBIS	-11.6703
▁Hamburk	-11.6703
▁Harvard	-11.6703
▁Informace	-11.6703
▁Ludvík	-11.6703
▁Oldřich	-11.6703
▁Pivovar	-11.6703
▁Saúdsk	-11.6703
▁Vídeň	-11.6703
▁WWW	-11.6703
▁bankovnictví	-11.6703
▁deklaraci	-11.6703
▁domorodc	-11.6703
▁důležitější	-11.6703
▁federaci	-11.6703
▁firmách	-11.6703
▁fungování	-11.6703
▁hardwarov	-11.6703
▁komentátor	-11.6703
▁konfigurace	-11.6703
▁konkurovat	-11.6703
▁krasobruslař	-11.6703
▁literatuře	-11.6703
▁marketingu	-11.6703
▁nacionalism	-11.6703
▁nominaci	-11.6703
▁novotvary	-11.6703
▁nukleární	-11.6703
▁odpovědět	-11.6703
▁pneumatik	-11.6703
▁pojišťovnou	-11.6703
▁poptávku	-11.6703
▁problematice	-11.6703
▁předpovědi	-11.6703
▁předvánoční	-11.6703
▁přerozdělování	-11.6703
▁racionální	-11.6703
▁referát	-11.6703
▁rekreaci	-11.6703
▁rozsáhlejší	-11.6703
▁rozvíjejí	-11.6703
▁rubrice	-11.6703
▁seskupení	-11.6703
▁stěžovat	-11.6703
▁symplektick	-11.6703
▁trénovat	-11.6703
▁vláken	-11.6703
▁vypráví	-11.6703
▁vyžadovat	-11.6703
▁východoevropský	-11.6703
▁zapomenout	-11.6703
▁zaručit	-11.6703
▁zavražděn	-11.6703
▁zodpovězen	-11.6703
▁zákulisí	-11.6703
▁úložiště	-11.6703
▁Četrans	-11.6703
▁červnov	-11.6703
▁1983	-11.6703
▁Mitterrand	-11.6703
▁Pistol	-11.6703
▁definice	-11.6703
▁infarkt	-11.6703
▁kosmonaut	-11.6703
▁médií	-11.6703
▁nenávist	-11.6703
▁osaměl	-11.6703
▁palubě	-11.6703
▁prozradil	-11.6703
▁pseudo	-11.6703
▁přihlášen	-11.6703
▁rozvíjet	-11.6703
▁rozčleněn	-11.6703
▁tiskáren	-11.6703
▁tolerance	-11.6703
▁Maďarskem	-11.6703
▁Návrat	-11.6703
▁Vešker	-11.6703
▁interiér	-11.6703
▁kvót	-11.6703
▁plošný	-11.6703
▁procedur	-11.6703
▁špatnou	-11.6703
▁kampaně	-11.6703
▁populaci	-11.6703
▁povolební	-11.6703
▁rozsudk	-11.6703
▁tendence	-11.6703
▁analytick	-11.6703
▁cementárn	-11.6703
▁infikova	-11.6703
▁makléř	-11.6703
▁otazník	-11.6703
▁odvezl	-11.6703
▁zjišťova	-11.6703
▁Právo	-11.6703
▁neškodn	-11.6703
▁pozměň	-11.6703
▁archiv	-11.6703
▁funkčnost	-11.6703
▁vzbudil	-11.6703
▁účinků	-11.6703
▁mikrofon	-11.6703
▁milimetr	-11.6703
▁uvítal	-11.6703
▁Kladně	-11.6703
▁Veřejn	-11.6703
▁placentál	-11.6703
▁fází	-11.6703
znamenají	-11.6703
▁reagují	-11.6703
▁vyslovit	-11.6703
▁Francií	-11.6703
▁praktik	-11.6703
▁stráví	-11.6703
▁taxonomie	-11.6703
▁Ctrl	-11.6703
▁účinné	-11.6703
▁domníval	-11.6704
▁finalist	-11.6704
▁ujistil	-11.6704
přízeň	-11.6704
▁Michel	-11.6704
▁hospodaří	-11.6704
▁komunit	-11.6704
▁nabídek	-11.6704
▁amatér	-11.6704
▁logik	-11.6704
▁Irák	-11.6704
▁podobnou	-11.6704
▁Kurzy	-11.6704
▁zastupuje	-11.6704
▁biochemi	-11.6704
▁povstal	-11.6704
▁ustavující	-11.6704
▁značku	-11.6704
▁vybojoval	-11.6704
▁chaotick	-11.6704
▁aridní	-11.6704
▁popředí	-11.6704
▁Marián	-11.6704
▁pól	-11.6704
▁dřevěné	-11.6704
▁přehnan	-11.6704
▁Prokop	-11.6704
▁tragick	-11.6704
▁desek	-11.6704
▁vrstva	-11.6704
▁směřující	-11.6704
▁plastik	-11.6704
▁narkom	-11.6705
▁vystavuje	-11.6705
▁fixac	-11.6705
▁ovládací	-11.6705
▁zánět	-11.6705
▁nazvané	-11.6705
▁přípustn	-11.6705
▁trasy	-11.6705
▁ČSD	-11.6705
zkoumat	-11.6705
▁konsensus	-11.6705
▁rozdělí	-11.6705
▁brazilsk	-11.6705
▁učiní	-11.6705
▁architektonick	-11.6705
▁Super	-11.6705
▁Moravia	-11.6705
▁virus	-11.6706
▁Proces	-11.6706
▁oboustrann	-11.6706
▁1976	-11.6706
▁uplatňován	-11.6706
▁jednostrann	-11.6706
▁poušti	-11.6706
▁češtiny	-11.6706
▁Soulu	-11.6706
▁Setkání	-11.6706
▁střídají	-11.6706
▁komunikační	-11.6706
▁robot	-11.6707
▁bankrot	-11.6707
▁rockov	-11.6707
▁holub	-11.6707
▁lázní	-11.6707
▁Nechci	-11.6707
▁Cítí	-11.6707
▁realizace	-11.6707
▁zimy	-11.6708
▁Značn	-11.6708
▁dotaci	-11.6708
▁profesi	-11.6708
▁léčbu	-11.6708
▁zabránil	-11.6708
▁volající	-11.6708
▁nepřesnost	-11.6709
▁kameny	-11.6709
▁obstará	-11.6709
▁zničil	-11.6709
▁fakticky	-11.6709
▁spotřeba	-11.671
▁toxické	-11.6711
▁šipk	-11.6711
▁sníh	-11.6711
▁rekordman	-11.6712
▁publikaci	-11.6713
yplynulo	-11.6713
▁faul	-11.6713
▁vyprávěl	-11.6714
▁touží	-11.6714
▁všední	-11.6714
▁dvoudenní	-11.6715
▁mezistátní	-11.6716
▁faktorem	-11.6716
▁zajišťující	-11.6717
▁desetkrát	-11.6717
▁Aktiv	-11.6718
▁produkcí	-11.6721
1972	-11.6722
▁distribuční	-11.6724
rábě	-11.6725
▁líčí	-11.6725
hodinový	-11.6725
evropský	-11.6726
▁konání	-11.6726
▁Hleda	-11.6726
▁uheln	-11.6727
▁bál	-11.6732
svědčuje	-11.6732
▁hrazen	-11.6736
▁výtvarník	-11.674
ALE	-11.6741
plácení	-11.6744
azeta	-11.6745
▁použije	-11.6755
▁Francouzský	-11.6755
▁krádež	-11.6758
▁vysílač	-11.6762
▁zelený	-11.6766
▁poškozený	-11.6773
▁pevnin	-11.6774
nsen	-11.6775
▁vypracoval	-11.6777
symetri	-11.6778
▁pedagogick	-11.6787
▁přispívají	-11.6791
ousek	-11.6792
pracovala	-11.6795
256	-11.6795
▁pozoruhodné	-11.6796
▁vysílací	-11.6797
▁pomst	-11.6815
▁rozpočtový	-11.6818
dražit	-11.6829
kontroluje	-11.6833
▁zoologick	-11.6833
▁předsedkyn	-11.6835
▁Fakt	-11.6845
▁Výš	-11.6847
▁Historick	-11.6847
▁filmař	-11.6854
▁nabízený	-11.6858
▁diplomatický	-11.6862
▁protějš	-11.6864
▁Významn	-11.6875
▁oceánické	-11.6877
ower	-11.6877
▁zúčastněný	-11.6879
▁optimismu	-11.6909
▁bránil	-11.6915
▁návratnost	-11.6922
▁maso	-11.6924
děláme	-11.693
▁Výrobc	-11.6954
▁Podpor	-11.6978
▁ukáz	-11.7009
▁socialist	-11.7011
▁citeln	-11.7011
▁nulov	-11.7023
▁lekto	-11.7028
▁Alan	-11.7028
▁nacházel	-11.7029
konaly	-11.7047
▁modifik	-11.7054
▁lebk	-11.7069
▁definovan	-11.7091
▁nedělá	-11.7092
▁osazen	-11.7119
operační	-11.7121
přineslo	-11.7123
produkt	-11.7138
1991	-11.7138
hradil	-11.7163
▁uzavřený	-11.7168
LET	-11.7178
panuje	-11.7214
▁jakýkoli	-11.7218
▁vrácen	-11.722
▁ovlivnil	-11.7228
▁Druh	-11.7231
▁strašn	-11.7233
▁pořádají	-11.7246
živí	-11.7252
▁splněn	-11.7253
pokládat	-11.7265
istického	-11.7286
▁nemovitost	-11.7296
přestává	-11.7297
ůbec	-11.7303
▁Osl	-11.7312
▁srovnateln	-11.7322
▁propojen	-11.7326
▁elektřin	-11.7333
▁spravedlnost	-11.7334
avky	-11.7337
▁poskytován	-11.7346
▁ryz	-11.7346
magnetické	-11.7355
gramů	-11.7363
▁bilanc	-11.7374
▁učit	-11.7378
▁doporučen	-11.738
▁Víc	-11.7381
▁kilogram	-11.7388
▁průvod	-11.7404
▁Radnic	-11.7412
glaciál	-11.7418
▁Bohuslav	-11.7418
▁Kuvajt	-11.7418
▁Reichel	-11.7418
▁ceremoniál	-11.7418
▁diktátor	-11.7418
▁holding	-11.7418
▁kanalizací	-11.7418
▁konstantní	-11.7418
▁ofsajd	-11.7418
▁paměť	-11.7418
▁podezřelý	-11.7418
▁pořizovací	-11.7418
▁poštovní	-11.7418
▁severozápad	-11.7418
▁telekomunikací	-11.7418
▁velvyslanec	-11.7418
▁vrtulník	-11.7418
▁Černomyrdin	-11.7418
LSNS	-11.7418
ýpovědní	-11.7418
▁Akademie	-11.7418
▁Albertville	-11.7418
▁Bratislavy	-11.7418
▁Delphi	-11.7418
▁Digital	-11.7418
▁General	-11.7418
▁Hospodářsk	-11.7418
▁Muslim	-11.7418
▁Netanjahu	-11.7418
▁Princip	-11.7418
▁Pálffy	-11.7418
▁SPIRIT	-11.7418
▁TWA	-11.7418
▁Vynikající	-11.7418
▁bezmocn	-11.7418
▁brožur	-11.7418
▁bulharsk	-11.7418
▁buněčné	-11.7418
▁databáze	-11.7418
▁databázi	-11.7418
▁delegát	-11.7418
▁drůbež	-11.7418
▁dveřmi	-11.7418
▁finálové	-11.7418
▁havárii	-11.7418
▁inzulín	-11.7418
▁katalyzátor	-11.7418
▁kazašsk	-11.7418
▁komedie	-11.7418
▁komisař	-11.7418
▁kompetencí	-11.7418
▁kultuře	-11.7418
▁lidstvo	-11.7418
▁milisekund	-11.7418
▁nechybí	-11.7418
▁nosorožců	-11.7418
▁novorozen	-11.7418
▁odpolední	-11.7418
▁olomoucké	-11.7418
▁organismy	-11.7418
▁paradigma	-11.7418
▁pojišťoven	-11.7418
▁pojišťovně	-11.7418
▁portfeje	-11.7418
▁prospěšn	-11.7418
▁pátku	-11.7418
▁přibližuj	-11.7418
▁přísluší	-11.7418
▁radikálně	-11.7418
▁raketoplán	-11.7418
▁splátek	-11.7418
▁stěžuje	-11.7418
▁těhotenství	-11.7418
▁vlhkost	-11.7418
▁vyzkoušel	-11.7418
▁vyčerpán	-11.7418
▁vídeňské	-11.7418
▁zahájit	-11.7418
▁zajišťoval	-11.7418
▁zakázek	-11.7418
▁zaručuje	-11.7418
▁zdůraznit	-11.7418
▁zneužívání	-11.7418
▁zopakoval	-11.7418
▁zpracovává	-11.7418
▁záruční	-11.7418
▁zázračn	-11.7418
▁Život	-11.7418
▁železnice	-11.7418
▁1979	-11.7418
▁Němce	-11.7418
▁Teplice	-11.7418
▁emitent	-11.7418
▁omezit	-11.7418
▁pohodlné	-11.7418
▁poválečn	-11.7418
▁sféře	-11.7418
▁tekutin	-11.7418
▁thajské	-11.7418
▁FMV	-11.7418
▁KGB	-11.7418
▁lehký	-11.7418
▁málokdo	-11.7418
▁překonání	-11.7418
▁stadiu	-11.7418
▁účinnou	-11.7418
▁Československý	-11.7418
▁Zpráv	-11.7418
▁injekc	-11.7418
▁nesrovnateln	-11.7418
▁prodluž	-11.7418
▁Dokument	-11.7418
▁SGI	-11.7418
▁obyvatelstvo	-11.7418
▁PET	-11.7418
▁Student	-11.7418
▁informuje	-11.7418
▁komodit	-11.7418
▁lahví	-11.7418
▁smířit	-11.7418
▁trénuj	-11.7418
▁Západoevropsk	-11.7418
▁kolegové	-11.7418
▁nejblíže	-11.7418
▁Zajímal	-11.7418
▁odstavec	-11.7418
▁vyústi	-11.7418
▁James	-11.7418
▁podepsat	-11.7418
▁rozsáhlou	-11.7418
▁chystají	-11.7418
▁svrchované	-11.7418
▁udržován	-11.7418
▁dávek	-11.7418
▁polymer	-11.7418
▁přeplněn	-11.7418
▁sloučení	-11.7418
▁umírněn	-11.7418
▁nikomu	-11.7418
▁někomu	-11.7418
▁Prahou	-11.7418
▁netrpěliv	-11.7418
▁srbské	-11.7418
▁železné	-11.7418
▁Automatick	-11.7418
▁vzdělan	-11.7418
▁Holandsk	-11.7418
▁loupež	-11.7418
▁nepodaří	-11.7418
▁poznámky	-11.7418
▁tvořiv	-11.7418
▁odhalit	-11.7418
▁Kadlec	-11.7418
▁mutací	-11.7418
▁podporoval	-11.7418
▁Mlýn	-11.7418
▁dědeček	-11.7418
▁Louis	-11.7418
▁nedaleké	-11.7418
▁Fuchs	-11.7418
▁oběhové	-11.7418
▁přetížen	-11.7418
▁něčeho	-11.7418
▁prováděl	-11.7418
běhnout	-11.7418
▁úchyt	-11.7418
▁chleba	-11.7418
▁dovážen	-11.7418
▁Následující	-11.7418
▁odvážn	-11.7418
▁modré	-11.7418
▁šancí	-11.7418
▁Účastníci	-11.7418
▁mocenské	-11.7419
▁vybudoval	-11.7419
▁hokejistů	-11.7419
▁sochař	-11.7419
opouštěl	-11.7419
▁fotografií	-11.7419
▁stromeček	-11.7419
▁vyhledávání	-11.7419
▁legendární	-11.7419
▁Suková	-11.7419
▁Týden	-11.7419
▁formálně	-11.7419
▁Front	-11.7419
▁účinnější	-11.7419
▁kamión	-11.7419
▁Opava	-11.7419
▁kopií	-11.7419
▁kamenné	-11.742
▁nejsme	-11.742
▁spolupracuje	-11.742
▁Bartoš	-11.742
▁příloh	-11.742
▁transport	-11.742
▁implantát	-11.742
▁vyhořelé	-11.742
▁Kouba	-11.742
▁kapsy	-11.742
hánějí	-11.742
▁hlučn	-11.742
▁Ježek	-11.742
▁lehko	-11.742
▁pojmu	-11.742
▁zmizí	-11.742
▁Zápas	-11.742
▁Samotn	-11.742
▁lákav	-11.742
▁písmo	-11.7421
▁Španělsku	-11.7421
▁adaptace	-11.7421
▁nazvat	-11.7421
▁metan	-11.7421
▁princ	-11.7422
▁usedl	-11.7422
▁výsad	-11.7422
▁1970	-11.7422
▁neuron	-11.7422
▁jinam	-11.7422
▁Zvýšen	-11.7422
▁skladatel	-11.7422
▁nikam	-11.7422
hrádk	-11.7423
▁registrační	-11.7423
▁jízdenk	-11.7423
▁nereáln	-11.7423
▁vejce	-11.7423
smluvně	-11.7423
▁zády	-11.7423
▁třídenní	-11.7424
▁stimulaci	-11.7424
▁neznají	-11.7424
▁protestant	-11.7424
▁štědr	-11.7424
▁topení	-11.7424
▁únosn	-11.7424
▁rovný	-11.7424
▁Jaw	-11.7424
▁ležel	-11.7424
▁nosič	-11.7424
▁Klasick	-11.7425
▁hraček	-11.7425
▁Hledá	-11.7425
▁oblouk	-11.7425
▁zranil	-11.7425
▁pískov	-11.7426
▁nikde	-11.7426
▁Obavy	-11.7426
▁Přenos	-11.7426
▁lékařství	-11.7426
▁kouření	-11.7427
▁Januš	-11.7428
ničím	-11.7428
▁sněmu	-11.7428
▁Jágr	-11.7429
▁Obraz	-11.7429
▁bohatší	-11.7429
▁umělců	-11.7429
▁potká	-11.7429
▁odezv	-11.7429
▁starat	-11.743
▁republikánsk	-11.743
▁koncept	-11.743
▁odnětí	-11.743
vážil	-11.7431
vracení	-11.7431
▁Místopředsed	-11.7431
▁koncepčn	-11.7432
▁kras	-11.7433
▁Kováč	-11.7434
▁nádrž	-11.7435
▁řadič	-11.7436
▁odnesl	-11.7437
▁bytový	-11.7437
▁nájezd	-11.7438
▁sešla	-11.744
▁technic	-11.7441
▁vracel	-11.7442
▁Esc	-11.7442
▁Horák	-11.7443
▁zelené	-11.7448
▁produkuj	-11.7449
▁pětatřicet	-11.7452
▁Snah	-11.7458
▁protín	-11.7476
▁neplatn	-11.7481
extrémně	-11.7482
▁Indián	-11.7484
značení	-11.7487
▁koncov	-11.749
▁Hut	-11.7497
tvrze	-11.7499
▁nechut	-11.7502
▁křesťanské	-11.7503
Edit	-11.7504
▁teroristický	-11.7505
tažené	-11.7513
▁basketbalist	-11.7515
▁překonal	-11.7524
formulovat	-11.7538
▁stáj	-11.7543
▁zmiňuj	-11.7545
Komensk	-11.7547
▁doplňují	-11.7551
▁Adam	-11.7554
▁ledový	-11.7583
point	-11.7583
▁regulac	-11.759
vydržel	-11.759
▁kostr	-11.759
▁drsn	-11.7595
konkurenceschopn	-11.7597
▁důvěryhodn	-11.7604
▁skrz	-11.7606
▁vyrůst	-11.7607
▁poločas	-11.761
bitový	-11.7613
▁Běl	-11.7619
▁vyplněn	-11.765
působí	-11.767
zemědělská	-11.7671
▁působnost	-11.7681
▁meziroční	-11.7718
▁nedoved	-11.7749
▁prodán	-11.7768
▁vyplacen	-11.7771
▁animac	-11.7786
socialistický	-11.7786
▁vyplatil	-11.7797
muslimské	-11.7806
▁počítal	-11.7811
▁Izraelsk	-11.7868
▁čtyřlet	-11.7881
▁proměnn	-11.7887
ometrick	-11.7897
▁Nebude	-11.7911
vládnout	-11.7919
▁vůdc	-11.792
▁vápn	-11.794
▁dechov	-11.7951
▁individu	-11.7951
▁jazykov	-11.7954
▁Chemi	-11.7968
▁mateřsk	-11.7981
▁požadovan	-11.7986
uživatelské	-11.7994
▁mušk	-11.8012
hlídce	-11.802
poskytla	-11.8043
▁poprav	-11.8054
▁Belgi	-11.8059
▁meteorolog	-11.8066
psána	-11.8066
▁piv	-11.8067
▁Bój	-11.808
▁Senát	-11.8081
▁výdaj	-11.8089
▁každodenn	-11.8101
▁orientac	-11.8103
▁souvisl	-11.8123
▁vypracován	-11.8124
▁soustředěn	-11.8134
▁Vietnam	-11.8139
▁vytvářen	-11.8143
▁kytar	-11.8146
čátek	-11.8154
ILA	-11.8158
ladil	-11.8181
průchod	-11.8183
▁antropogenní	-11.8187
▁izolační	-11.8187
▁karlovarsk	-11.8187
▁západoevropský	-11.8187
deutsche	-11.8187
navrhovatel	-11.8187
soustřeďuje	-11.8187
▁Bedřich	-11.8187
▁Chvalovský	-11.8187
▁Dlouhý	-11.8187
▁Frýdku	-11.8187
▁Giovanni	-11.8187
▁Gretzky	-11.8187
▁Hendrix	-11.8187
▁Holbrooke	-11.8187
▁Hovořil	-11.8187
▁Kravčuk	-11.8187
▁Margaret	-11.8187
▁Marseille	-11.8187
▁MicroStation	-11.8187
▁OpenScript	-11.8187
▁Oxfordu	-11.8187
▁Padesát	-11.8187
▁Parlament	-11.8187
▁Plzně	-11.8187
▁Pospíšil	-11.8187
▁Rangers	-11.8187
▁Silvestr	-11.8187
▁Sládka	-11.8187
▁Sportovní	-11.8187
▁Stockholm	-11.8187
▁Varšav	-11.8187
▁Zeitung	-11.8187
▁bezšňůrov	-11.8187
▁biotechnologi	-11.8187
▁cyklů	-11.8187
▁delegací	-11.8187
▁deregulac	-11.8187
▁disident	-11.8187
▁dominantní	-11.8187
▁doporučit	-11.8187
▁elektrárna	-11.8187
▁fanoušci	-11.8187
▁fyziologick	-11.8187
▁handicap	-11.8187
▁havárie	-11.8187
▁horizontu	-11.8187
▁hypoték	-11.8187
▁instalační	-11.8187
▁investoři	-11.8187
▁jihovýchodní	-11.8187
▁kariéry	-11.8187
▁knihkupectví	-11.8187
▁libovolné	-11.8187
▁lukrativní	-11.8187
▁manažeři	-11.8187
▁navštívit	-11.8187
▁nejčastější	-11.8187
▁nepochopil	-11.8187
▁návaznost	-11.8187
▁odcházel	-11.8187
▁perfektní	-11.8187
▁podmínku	-11.8187
▁podrážděn	-11.8187
▁portrét	-11.8187
▁poselství	-11.8187
▁prezentován	-11.8187
▁prvoligov	-11.8187
▁připomínal	-11.8187
▁příchozí	-11.8187
▁půvab	-11.8187
▁reprezentovat	-11.8187
▁revoluci	-11.8187
▁rovnoměrn	-11.8187
▁roztříštěn	-11.8187
▁službách	-11.8187
▁stránkách	-11.8187
▁tiskárnu	-11.8187
▁turistiky	-11.8187
▁třicátých	-11.8187
▁uspokojit	-11.8187
▁utrpení	-11.8187
▁ušlechtil	-11.8187
▁veterinární	-11.8187
▁zákonodárn	-11.8187
▁Štěpán	-11.8187
korespond	-11.8187
restrukturalizac	-11.8187
vyskytuje	-11.8187
ŠTÍ	-11.8187
▁Australan	-11.8187
▁Bukureš	-11.8187
▁Hercegovin	-11.8187
▁Klient	-11.8187
▁Očekává	-11.8187
▁Překvap	-11.8187
▁analytik	-11.8187
▁biosfér	-11.8187
▁definován	-11.8187
▁diktatur	-11.8187
▁diskrimin	-11.8187
▁epizod	-11.8187
▁hřbet	-11.8187
▁konvertibilit	-11.8187
▁křesla	-11.8187
▁medvěd	-11.8187
▁média	-11.8187
▁osamostatn	-11.8187
▁poliklinik	-11.8187
▁posuzoval	-11.8187
▁rovnoběž	-11.8187
▁schvalování	-11.8187
▁středisek	-11.8187
▁substantiv	-11.8187
▁trolejbus	-11.8187
▁tělovýchov	-11.8187
▁upravuje	-11.8187
▁výcvik	-11.8187
▁všelijak	-11.8187
▁začátečn	-11.8187
▁zlepšování	-11.8187
▁zvážit	-11.8187
▁zásuvk	-11.8187
▁závislý	-11.8187
▁Kralup	-11.8187
▁Kultur	-11.8187
▁Navrátil	-11.8187
▁Památk	-11.8187
▁Solidarit	-11.8187
▁Stráž	-11.8187
▁Záhřebu	-11.8187
▁domnívat	-11.8187
▁legální	-11.8187
▁nepůjde	-11.8187
▁nevyhnul	-11.8187
▁odhodlán	-11.8187
▁povzbuz	-11.8187
▁výchozí	-11.8187
▁zapomenut	-11.8187
▁útlum	-11.8187
▁čtvrtletně	-11.8187
▁Kontakt	-11.8187
▁iniciátor	-11.8187
pište	-11.8187
▁dodávku	-11.8187
▁evidentn	-11.8187
▁fázové	-11.8187
▁hájit	-11.8187
▁lístku	-11.8187
▁ministerský	-11.8187
▁náznak	-11.8187
▁pařížsk	-11.8187
▁převezme	-11.8187
▁srovnávat	-11.8187
▁studijní	-11.8187
▁vizuální	-11.8187
▁neskončil	-11.8187
▁politici	-11.8187
▁vůdčí	-11.8187
▁intelektuální	-11.8187
▁nebytový	-11.8187
▁romantick	-11.8187
▁vhodnější	-11.8187
▁chápou	-11.8187
▁nervozit	-11.8187
▁tabák	-11.8187
▁sváteční	-11.8187
▁vyrobit	-11.8187
▁Informoval	-11.8187
▁delikt	-11.8187
▁hesla	-11.8187
▁shodli	-11.8187
▁barokní	-11.8187
▁recese	-11.8187
▁certifikace	-11.8187
▁úklid	-11.8187
▁afrických	-11.8187
▁licenci	-11.8187
▁názvy	-11.8187
▁rovnou	-11.8187
▁monarchi	-11.8187
▁položek	-11.8187
▁sazba	-11.8187
▁židovské	-11.8187
▁fašismu	-11.8187
▁vybuchl	-11.8187
▁látku	-11.8187
▁stránka	-11.8187
▁přijede	-11.8187
▁netuší	-11.8187
▁dovezen	-11.8187
▁prověrk	-11.8187
▁vyřeší	-11.8187
▁vypovězen	-11.8187
▁konektor	-11.8187
▁dráze	-11.8187
▁krizí	-11.8187
▁provází	-11.8187
▁Snímek	-11.8187
▁Belgičan	-11.8187
▁Pechar	-11.8187
▁ideologie	-11.8187
▁trošk	-11.8187
▁Soros	-11.8187
▁Žije	-11.8187
▁hloup	-11.8187
▁mrzí	-11.8187
▁zátěž	-11.8187
▁zachycuj	-11.8187
▁poezie	-11.8187
▁smíšený	-11.8187
▁zkrácení	-11.8188
▁motýl	-11.8188
ručením	-11.8188
▁klasik	-11.8188
▁Příprav	-11.8188
▁mléko	-11.8188
▁obrátí	-11.8188
▁letadel	-11.8188
▁obklop	-11.8188
▁Francis	-11.8188
▁biologii	-11.8188
▁záchod	-11.8188
▁čtyřnásobn	-11.8188
▁Diana	-11.8188
▁pohodlně	-11.8188
▁Pravidl	-11.8188
▁útul	-11.8188
▁Albert	-11.8188
▁laskav	-11.8188
▁rámec	-11.8188
▁Nynější	-11.8188
▁emisí	-11.8188
▁podporovan	-11.8188
▁úročen	-11.8188
▁opatrně	-11.8188
▁odcizi	-11.8188
chovávat	-11.8188
▁nezdá	-11.8188
▁setkávají	-11.8188
▁akutní	-11.8188
▁šperk	-11.8189
▁nalezli	-11.8189
▁iluze	-11.8189
▁reprezentaci	-11.8189
▁juniorů	-11.8189
▁postranní	-11.8189
▁mléka	-11.8189
▁zdražení	-11.8189
▁prostředkem	-11.8189
▁odrůd	-11.8189
▁Údaj	-11.8189
▁nepočítal	-11.8189
▁nedokonč	-11.8189
▁hyper	-11.819
▁linie	-11.819
mínka	-11.819
▁zaměstnanosti	-11.819
▁krabic	-11.819
▁dědičn	-11.819
▁Obvykl	-11.8191
▁přizpůsobení	-11.8191
▁objednávky	-11.8191
▁Zlatý	-11.8191
▁určován	-11.8191
▁Boston	-11.8191
▁hladovku	-11.8192
▁ekologie	-11.8192
▁zpravodajství	-11.8192
▁dárek	-11.8192
▁podceňova	-11.8192
▁Uhersk	-11.8192
▁spolkové	-11.8192
▁útěk	-11.8193
▁láska	-11.8193
▁Nováček	-11.8193
▁biologických	-11.8193
▁říkat	-11.8193
▁aukcí	-11.8193
tlačil	-11.8194
▁odolnost	-11.8194
▁udělil	-11.8194
▁Atén	-11.8195
▁Lenn	-11.8195
▁Hrál	-11.8195
▁Řadič	-11.8195
▁Hotel	-11.8196
▁pozemkov	-11.8196
▁Trnav	-11.8196
▁lidech	-11.8196
▁vlastnické	-11.8197
▁skokan	-11.8197
▁smyslupln	-11.8197
▁výmluv	-11.8197
▁pasáž	-11.8197
▁krouž	-11.8198
▁výjezd	-11.8198
obtížnější	-11.8198
▁gard	-11.8199
▁principiáln	-11.82
▁natočil	-11.82
▁poslanecký	-11.8201
▁hymn	-11.8201
▁čistot	-11.8201
▁podobá	-11.8202
točit	-11.8203
▁organizován	-11.8203
dokonalejší	-11.8204
▁Botan	-11.8204
▁Popov	-11.8205
▁sólo	-11.8206
interpretaci	-11.821
▁psí	-11.821
▁zánik	-11.8211
▁unikl	-11.8214
▁slovinsk	-11.8214
▁ozval	-11.8215
věřuje	-11.8216
stižen	-11.822
▁Pár	-11.822
▁kytic	-11.8223
podstatnější	-11.8224
Místku	-11.8224
▁akční	-11.8225
▁suché	-11.8228
▁šál	-11.823
▁Čísl	-11.8231
▁Kraus	-11.824
▁Vytvořen	-11.8259
▁Květ	-11.826
milionový	-11.8262
▁nerozhodn	-11.8265
pravdivost	-11.8266
opádn	-11.8272
▁odebíra	-11.8273
▁potravinářský	-11.8281
podnik	-11.8283
▁zbylý	-11.8283
divné	-11.8284
▁islámský	-11.8305
▁tisícovk	-11.8319
▁garáž	-11.832
světlení	-11.8322
▁tenistk	-11.8369
▁neposkyt	-11.8375
mnohých	-11.8377
ktorů	-11.8414
▁přicházel	-11.8441
▁Ročn	-11.8498
▁vnesen	-11.8505
drobnější	-11.8509
nekonečně	-11.8525
▁Podstat	-11.8538
▁zpracoval	-11.8554
růstající	-11.8575
▁modifikac	-11.8595
dotýká	-11.8599
▁Fotbalov	-11.8616
▁Sovět	-11.863
▁náboženský	-11.8637
▁kolečk	-11.8638
▁ilustr	-11.8659
▁slan	-11.8668
jevit	-11.8671
▁Svobodn	-11.8675
svěce	-11.8684
▁stabilizovan	-11.8688
▁obměn	-11.8708
▁Obsahuj	-11.8718
▁spouště	-11.874
▁rostl	-11.8747
kreslí	-11.875
▁islám	-11.8786
▁Steve	-11.8791
cházely	-11.8795
nezávislý	-11.8815
švédsk	-11.8872
▁vyplývají	-11.8876
▁Georg	-11.8878
sledují	-11.8901
▁zástup	-11.8907
▁Excel	-11.8913
yžaduje	-11.8919
assa	-11.8927
▁slavnostn	-11.8927
▁vycház	-11.895
dvacátého	-11.8956
▁vybudován	-11.8964
▁společenstv	-11.897
▁uplatněn	-11.8972
▁prodloužen	-11.8975
▁Hlavn	-11.8982
▁odstraněn	-11.8983
▁vysílá	-11.8988
▁public	-11.8988
1.1	-11.8992
oblečen	-11.901
▁rozumn	-11.9016
cionálně	-11.902
emigrant	-11.902
inflační	-11.902
▁Bruntál	-11.902
▁Institut	-11.902
▁Komárk	-11.902
▁Leopold	-11.902
▁Přibliž	-11.902
▁Příslušn	-11.902
▁Wernisch	-11.902
▁bosenskosrbsk	-11.902
▁demokracií	-11.902
▁indián	-11.902
▁kambodžsk	-11.902
▁nejjednodušší	-11.902
▁netradiční	-11.902
▁následovn	-11.902
▁onemocněl	-11.902
▁opodstatněn	-11.902
▁revoluční	-11.902
▁spolumajitel	-11.902
▁státoprávní	-11.902
▁středoškolsk	-11.902
▁televizí	-11.902
▁usilovně	-11.902
▁virtuální	-11.902
▁živočišn	-11.902
endotoxin	-11.902
ymfocyty	-11.902
▁Agassi	-11.902
▁EVROP	-11.902
▁Galerie	-11.902
▁Grimaux	-11.902
▁Hamilton	-11.902
▁Kratochvíl	-11.902
▁Kredba	-11.902
▁MPEG	-11.902
▁Nazarbajev	-11.902
▁Nejdůležitější	-11.902
▁Palestinců	-11.902
▁Plečnik	-11.902
▁Podmínkou	-11.902
▁Později	-11.902
▁Suchopár	-11.902
▁Umožňuje	-11.902
▁Uživatel	-11.902
▁Vladislav	-11.902
▁Vltavy	-11.902
▁absolutně	-11.902
▁celoživotní	-11.902
▁civilizace	-11.902
▁fanoušky	-11.902
▁financovat	-11.902
▁fungovat	-11.902
▁hierarchi	-11.902
▁inscenace	-11.902
▁interview	-11.902
▁jihozápad	-11.902
▁kolísání	-11.902
▁komplikuje	-11.902
▁konfrontace	-11.902
▁kontinuit	-11.902
▁kopírování	-11.902
▁lékárny	-11.902
▁matematice	-11.902
▁můstku	-11.902
▁neobejde	-11.902
▁nepřál	-11.902
▁nevrátí	-11.902
▁nezměněn	-11.902
▁olympionik	-11.902
▁otázkám	-11.902
▁ovlivňován	-11.902
▁paprsky	-11.902
▁peněženk	-11.902
▁pochlubit	-11.902
▁podvojné	-11.902
▁pokaždé	-11.902
▁posluchačů	-11.902
▁preparát	-11.902
▁prezentovat	-11.902
▁problematické	-11.902
▁pěveck	-11.902
▁předpokládané	-11.902
▁přetrvávají	-11.902
▁příslušenství	-11.902
▁relikvi	-11.902
▁restituce	-11.902
▁rámečky	-11.902
▁schůzce	-11.902
▁splátky	-11.902
▁spolehnout	-11.902
▁stříbra	-11.902
▁trinitron	-11.902
▁uskupení	-11.902
▁užitečný	-11.902
▁velvyslance	-11.902
▁videozáznam	-11.902
▁vytvářel	-11.902
▁zdůrazňují	-11.902
▁zveřejnit	-11.902
▁Úspěch	-11.902
▁Ústřední	-11.902
▁štafet	-11.902
buněčný	-11.902
▁3:0	-11.902
▁Amerika	-11.902
▁United	-11.902
▁VLÁD	-11.902
▁besedy	-11.902
▁heslem	-11.902
▁hnojiv	-11.902
▁impuls	-11.902
▁ledovců	-11.902
▁monument	-11.902
▁navštěvuj	-11.902
▁navždy	-11.902
▁nepřístup	-11.902
▁novoroční	-11.902
▁omezuje	-11.902
▁poskytoval	-11.902
▁posloužit	-11.902
▁prosazoval	-11.902
▁připouští	-11.902
▁reaguje	-11.902
▁rezoluc	-11.902
▁vytápěn	-11.902
▁kritizuj	-11.902
▁majoritní	-11.902
▁policií	-11.902
▁různorod	-11.902
▁senzor	-11.902
▁svrchovaný	-11.902
trénoval	-11.902
▁Kovařík	-11.902
▁kampani	-11.902
▁mikroskopick	-11.902
▁předchůdce	-11.902
▁vězeň	-11.902
▁špatná	-11.902
▁Kambodž	-11.902
▁Opavy	-11.902
▁dceřin	-11.902
▁doporučí	-11.902
▁nenápadn	-11.902
▁pasivní	-11.902
▁příslib	-11.902
▁zeptat	-11.902
▁Čtenář	-11.902
▁dálniční	-11.902
▁nerentabiln	-11.902
▁rozvíjen	-11.902
▁směnitelnost	-11.902
▁tělocvičn	-11.902
▁dívky	-11.902
▁licenční	-11.902
▁paušál	-11.902
▁půjdou	-11.902
OECD	-11.902
▁Galás	-11.902
▁Lepší	-11.902
▁Vyšší	-11.902
▁nesplnil	-11.902
▁nářadí	-11.902
▁zatykač	-11.902
▁Ženevě	-11.902
▁nalézá	-11.902
▁nečekané	-11.902
▁sazeb	-11.902
▁uprchlíků	-11.902
▁potravu	-11.902
▁vyjmut	-11.902
stěhovat	-11.902
▁shodně	-11.902
▁stěžoval	-11.902
▁potřetí	-11.902
ejdražší	-11.902
vyplácí	-11.902
▁Chariton	-11.902
▁renomovan	-11.902
▁středeční	-11.902
▁ukončí	-11.902
▁Komory	-11.902
▁VZP	-11.902
▁Zahrad	-11.902
▁striktn	-11.902
hlížejí	-11.902
▁nevyloučil	-11.902
▁uniform	-11.902
▁detektiv	-11.902
▁Začíná	-11.902
▁rozhořč	-11.902
čerpat	-11.902
▁žalud	-11.902
▁křídle	-11.902
▁mítinku	-11.902
▁vyvolané	-11.902
▁skládky	-11.902
▁Pokles	-11.902
▁mozek	-11.902
▁sérií	-11.902
▁Fiala	-11.902
▁oheň	-11.902
Science	-11.902
▁ohranič	-11.902
▁facto	-11.902
▁natáčet	-11.902
▁vážnou	-11.902
▁elektroniky	-11.9021
▁hájil	-11.9021
▁lichenolog	-11.9021
▁omezil	-11.9021
▁rozloučil	-11.9021
▁organizované	-11.9021
▁Přechod	-11.9021
▁projednání	-11.9021
▁zajímají	-11.9021
▁tržeb	-11.9021
▁večeři	-11.9021
ejtěžší	-11.9021
▁nedaří	-11.9021
konvenční	-11.9021
▁sídliště	-11.9021
▁Pakosta	-11.9021
▁bojkot	-11.9021
▁přiblížil	-11.9021
▁Oblast	-11.9021
▁nemluvě	-11.9021
▁omluvit	-11.9021
▁osminásobn	-11.9021
▁Tabul	-11.9021
▁neúměrn	-11.9021
▁značek	-11.9021
▁Růst	-11.9021
▁neočekáv	-11.9021
▁uniká	-11.9021
▁projekc	-11.9021
▁unikátní	-11.9021
▁lidovců	-11.9021
CHOD	-11.9021
▁Basikov	-11.9021
▁modernizace	-11.9021
▁papež	-11.9021
▁necítí	-11.9021
▁alfa	-11.9021
▁zkuste	-11.9021
Soft	-11.9021
▁statutární	-11.9021
▁krvav	-11.9021
▁1:1	-11.9021
▁zákonitě	-11.9022
▁uvolní	-11.9022
▁jara	-11.9022
▁interaktivní	-11.9022
▁železa	-11.9022
▁ztratí	-11.9022
▁úpadk	-11.9022
▁vězně	-11.9022
▁charit	-11.9022
krývat	-11.9022
▁nožem	-11.9022
▁kouzeln	-11.9022
▁Instala	-11.9022
▁Kypr	-11.9022
▁rentabilit	-11.9023
▁emisní	-11.9023
▁ustálen	-11.9023
▁Írán	-11.9023
▁Rabac	-11.9023
▁přesunout	-11.9023
▁Považuj	-11.9023
▁Ježka	-11.9023
▁Korea	-11.9024
▁houby	-11.9024
▁nabídká	-11.9024
▁rakve	-11.9024
▁maleb	-11.9024
▁náhlý	-11.9024
▁doplní	-11.9024
▁mívá	-11.9024
▁Věda	-11.9025
▁přijímán	-11.9025
▁Trestn	-11.9025
▁odchyl	-11.9026
▁lákají	-11.9026
PRAV	-11.9026
▁poznámka	-11.9026
▁lokaliz	-11.9026
▁plynoucí	-11.9026
▁hlavičk	-11.9026
▁pečuj	-11.9026
▁Duke	-11.9027
▁potěšen	-11.9027
▁postará	-11.9028
▁odečt	-11.9028
▁žáky	-11.9029
▁tajemn	-11.9031
▁Daňov	-11.9031
razítk	-11.9032
▁dovolil	-11.9035
▁mravenc	-11.9036
▁syrov	-11.9036
▁Černovic	-11.9037
▁škodlivin	-11.9038
ejlépe	-11.9039
▁vyslán	-11.9039
▁Ryb	-11.904
Liaz	-11.9042
▁zpřístupněn	-11.9042
▁Lidsk	-11.9042
postoupili	-11.9044
▁bibli	-11.9045
▁takzvan	-11.9047
pravděpodobnější	-11.9047
▁publicist	-11.9052
▁podepíš	-11.9053
díváme	-11.9055
▁opětovn	-11.9057
▁Jakub	-11.9059
▁vydan	-11.9059
▁celoročn	-11.9061
▁vyučova	-11.9063
▁skřín	-11.9073
▁iniciova	-11.9079
▁politolog	-11.9081
ýkonný	-11.9088
▁Zájemc	-11.9089
▁Týk	-11.9099
EMI	-11.9102
▁chovají	-11.9113
▁cenový	-11.9118
▁obzvláš	-11.9143
▁odvíj	-11.9179
KOU	-11.9198
▁vyprávěn	-11.9211
nejdůležitějších	-11.9211
bílých	-11.9214
profit	-11.922
▁objednal	-11.9234
avidel	-11.9245
▁Stavebn	-11.9245
▁Bomb	-11.9249
▁ROK	-11.927
hrozně	-11.9283
▁nepracuj	-11.9291
přidá	-11.9355
naft	-11.9363
milionové	-11.9376
okouše	-11.9386
alizuje	-11.9391
pravděpodobnosti	-11.9422
otemismus	-11.9424
▁nenechá	-11.9467
▁nakupova	-11.9477
▁předčasn	-11.9479
▁Spíš	-11.9487
▁Nemoc	-11.9511
chtiv	-11.9568
▁Pln	-11.9572
▁příhod	-11.9595
▁vyložen	-11.9659
šéfem	-11.9663
▁sobot	-11.9671
▁extrém	-11.9673
▁Moravsk	-11.9677
odporuje	-11.9685
▁adaptovan	-11.9698
▁užitkov	-11.972
▁obyčejn	-11.9746
▁ustaven	-11.9751
▁zbroj	-11.9804
ěrnost	-11.9808
▁pravděpodobn	-11.9818
▁referendu	-11.9832
hodinovou	-11.9846
▁uspořádán	-11.986
kategori	-11.9871
počívá	-11.9873
▁nepřiměřen	-11.988
▁zaměstnán	-11.989
▁Minist	-11.9894
sílat	-11.9908
▁zdravotnick	-11.9911
kazovat	-11.9915
realistick	-11.9917
▁pečliv	-11.9919
▁Návštěv	-11.9929
Vancouver	-11.9929
avrančíková	-11.9929
mýšlejí	-11.9929
▁Frederi	-11.9929
▁Inspekt	-11.9929
▁bouřliv	-11.9929
▁eukleidovsk	-11.9929
▁kormidelník	-11.9929
▁pardubick	-11.9929
▁porcelán	-11.9929
▁prohlížeč	-11.9929
▁prozkoumán	-11.9929
▁vyhrožoval	-11.9929
▁zahraničně	-11.9929
[...]
