<unk>	0
<s>	0
</s>	0
<doc>	0
</doc>	0
<head>	0
</head>	0
<phr>	0
</phr>	0
▁	-1.79537
,	-3.46552
.	-3.59532
u	-4.29886
a	-4.41808
▁a	-4.54593
▁v	-4.56341
m	-4.57265
y	-4.63333
i	-4.65141
▁se	-4.69441
▁na	-4.75713
ch	-4.97417
▁je	-5.22454
▁s	-5.24859
o	-5.25214
s	-5.26188
▁z	-5.27165
á	-5.31106
ho	-5.36322
e	-5.37305
í	-5.37869
▁"	-5.41824
t	-5.46799
▁že	-5.47741
▁do	-5.57742
ů	-5.61548
▁o	-5.62762
▁po	-5.6302
é	-5.63091
ě	-5.63439
▁za	-5.68016
em	-5.68171
ou	-5.70305
▁pro	-5.72985
ž	-5.75206
z	-5.8589
to	-5.97448
d	-5.97897
▁-	-6.00065
▁k	-6.00225
▁V	-6.03788
ní	-6.06994
l	-6.09461
p	-6.13151
v	-6.13705
ý	-6.15165
k	-6.16021
mi	-6.17189
▁ve	-6.17279
ně	-6.17933
▁to	-6.1813
▁(	-6.22732
▁od	-6.23892
r	-6.26648
▁by	-6.31596
▁S	-6.34425
▁vy	-6.34873
▁při	-6.35953
b	-6.36459
ce	-6.36846
na	-6.38779
▁ne	-6.39866
▁ale	-6.42409
>	-6.43683
▁i	-6.44526
ých	-6.50092
li	-6.5099
▁si	-6.53066
te	-6.56798
la	-6.57863
č	-6.61085
▁jsou	-6.61226
ná	-6.61325
le	-6.61522
▁jako	-6.62855
ka	-6.63043
ku	-6.63841
ci	-6.64247
me	-6.64529
né	-6.65674
▁které	-6.66344
it	-6.66759
st	-6.68582
n	-6.71299
)	-6.72476
▁však	-6.74137
j	-6.74179
š	-6.75406
lo	-6.75878
x	-6.76601
▁tak	-6.7809
▁Po	-6.78453
▁:	-6.7849
c	-6.81998
h	-6.83208
▁před	-6.84228
ové	-6.84422
ky	-6.84544
▁který	-6.85582
▁A	-6.88253
uje	-6.90336
▁nebo	-6.92319
▁jeho	-6.94627
▁bude	-6.95579
?	-6.98238
en	-6.98666
ovat	-7.00158
ého	-7.00884
mu	-7.013
▁jen	-7.01689
ni	-7.01703
▁O	-7.03953
▁Z	-7.03972
f	-7.03974
g	-7.05645
ek	-7.06333
▁Na	-7.07535
▁pře	-7.08201
in	-7.08568
ře	-7.08832
nou	-7.09752
vá	-7.09986
▁než	-7.10261
▁má	-7.10635
▁už	-7.1143
no	-7.11545
ta	-7.13728
▁aby	-7.14403
ze	-7.14496
ří	-7.16039
al	-7.16508
▁K	-7.16591
po	-7.16908
ech	-7.17042
▁jak	-7.17371
ný	-7.19706
▁byl	-7.20799
▁P	-7.20955
▁jejich	-7.22032
že	-7.22725
▁být	-7.23295
▁jsem	-7.2337
cí	-7.23621
jí	-7.23718
ko	-7.24765
▁až	-7.26122
▁Je	-7.26398
ro	-7.26735
ová	-7.26931
ti	-7.27224
ru	-7.27434
▁která	-7.2808
il	-7.28597
▁také	-7.28832
ra	-7.30182
ování	-7.31373
▁podle	-7.31512
▁jsme	-7.32047
pl	-7.32897
▁<	-7.33186
ne	-7.33563
ým	-7.36042
lu	-7.37873
ř	-7.38124
▁co	-7.39478
vě	-7.39982
▁ze	-7.40803
▁mezi	-7.41611
▁pod	-7.42143
ných	-7.43277
▁roz	-7.43413
va	-7.43731
▁let	-7.45463
▁není	-7.45711
▁ob	-7.46016
el	-7.46757
on	-7.47659
▁ani	-7.4821
čí	-7.48706
▁bylo	-7.4888
ma	-7.49159
▁své	-7.49213
or	-7.49262
▁či	-7.50342
▁Ne	-7.50473
▁ještě	-7.51479
da	-7.51601
▁již	-7.52137
ské	-7.52901
ov	-7.52905
ách	-7.52922
▁když	-7.53578
ba	-7.54266
ň	-7.54513
lá	-7.5472
▁může	-7.55162
ují	-7.55205
če	-7.55555
▁korun	-7.5611
▁M	-7.5645
▁byla	-7.56999
ny	-7.57353
ových	-7.57531
vý	-7.57576
kud	-7.58116
▁J	-7.5849
▁toho	-7.58495
ři	-7.59012
▁H	-7.59246
kou	-7.5939
/	-7.60041
at	-7.61156
▁To	-7.61936
ost	-7.62241
▁bez	-7.63356
).	-7.63634
▁D	-7.64845
▁pak	-7.65642
děl	-7.65986
▁U	-7.66222
je	-7.66551
er	-7.66867
▁další	-7.6725
▁Do	-7.68032
ním	-7.68356
ům	-7.68364
S	-7.68919
tu	-7.6894
ví	-7.69123
▁kteří	-7.69153
▁kde	-7.69641
D	-7.7046
tě	-7.70692
▁tím	-7.70825
▁více	-7.72925
nu	-7.72926
tr	-7.74147
▁té	-7.74285
vol	-7.74577
se	-7.74686
▁tedy	-7.75462
▁první	-7.75804
▁roku	-7.75933
vi	-7.77474
P	-7.78482
▁I	-7.78677
ly	-7.78945
),	-7.79585
cích	-7.80413
▁nich	-7.80481
ri	-7.80946
▁Za	-7.81371
ace	-7.81846
ovi	-7.81862
▁Pro	-7.81875
▁G	-7.82242
ty	-7.82472
▁musí	-7.82837
▁B	-7.8315
▁nej	-7.8357
▁kdy	-7.84
lí	-7.84211
kr	-7.84673
de	-7.84981
▁mají	-7.85072
▁proti	-7.85677
▁nad	-7.86421
ků	-7.86679
ného	-7.87708
re	-7.87742
▁roce	-7.89848
ší	-7.89854
M	-7.89891
ha	-7.89921
▁pouze	-7.90094
▁ú	-7.90142
-	-7.90463
oval	-7.90827
an	-7.90903
ká	-7.91251
▁tu	-7.92418
▁tom	-7.92556
nost	-7.93212
▁proto	-7.9329
▁F	-7.93417
▁tomu	-7.93767
▁ke	-7.93799
ních	-7.94753
ém	-7.94966
2	-7.94989
hr	-7.95006
I	-7.95384
by	-7.95385
T	-7.95553
▁vlastní	-7.95696
ový	-7.95715
od	-7.96374
▁L	-7.96555
▁budou	-7.96801
▁poslední	-7.97312
še	-7.97808
ží	-7.979
▁třeba	-7.97904
6	-7.98263
ení	-7.98953
či	-7.99145
▁protože	-7.9924
▁přes	-7.99543
nější	-7.99851
▁totiž	-7.99956
▁li	-8.00395
si	-8.00727
▁lze	-8.01005
▁nás	-8.01298
ve	-8.01461
du	-8.02652
kon	-8.02749
▁T	-8.03702
ry	-8.03752
▁Při	-8.03807
bu	-8.03954
▁asi	-8.03977
ově	-8.04084
▁její	-8.04138
1	-8.04682
is	-8.05117
ového	-8.05127
pe	-8.05525
ovou	-8.05609
▁Ko	-8.06066
hl	-8.06207
co	-8.0637
▁C	-8.06857
pr	-8.06971
▁ji	-8.07144
5	-8.07151
▁velmi	-8.07421
▁byly	-8.07616
▁měl	-8.07838
▁zatím	-8.08015
za	-8.08049
ská	-8.08283
▁řekl	-8.08304
tra	-8.0839
us	-8.08668
ální	-8.08717
osti	-8.08987
▁de	-8.09938
tá	-8.1061
ských	-8.11034
lé	-8.11487
dí	-8.11782
kem	-8.1207
▁19	-8.12094
pra	-8.12281
▁včera	-8.12707
stav	-8.13156
▁tisíc	-8.13178
ami	-8.13274
▁Š	-8.13389
ců	-8.13531
9	-8.13604
aci	-8.14108
dr	-8.14121
▁kon	-8.14399
4	-8.14449
C	-8.14656
▁dva	-8.14979
zí	-8.15527
ující	-8.16257
pa	-8.1629
ným	-8.16813
▁dnes	-8.16831
▁všech	-8.16908
▁re	-8.17144
B	-8.17164
ši	-8.17275
tí	-8.17665
7	-8.17669
N	-8.1798
ot	-8.18018
▁firmy	-8.18107
ické	-8.1855
str	-8.18611
stup	-8.19237
lou	-8.19402
V	-8.19759
ol	-8.19971
R	-8.20256
▁především	-8.20409
ský	-8.20863
et	-8.21196
▁Jak	-8.21381
3	-8.21508
0	-8.21743
val	-8.22166
▁nám	-8.22291
ím	-8.22453
▁Ve	-8.22652
K	-8.22767
ter	-8.2286
▁případě	-8.22956
nosti	-8.23117
▁dvou	-8.23227
▁Co	-8.2326
▁'	-8.23753
ec	-8.24181
▁rok	-8.24514
▁například	-8.24527
▁ty	-8.24874
ích	-8.25054
▁procent	-8.25312
O	-8.25716
▁mít	-8.26086
dy	-8.26571
▁jim	-8.26608
vo	-8.26734
▁E	-8.27142
ční	-8.27543
ar	-8.27571
▁době	-8.27579
▁tři	-8.27661
ám	-8.27745
▁nyní	-8.27824
▁zda	-8.28214
spo	-8.2824
▁pří	-8.29363
právě	-8.30371
vr	-8.31093
▁3	-8.31358
ček	-8.31556
vat	-8.3199
hu	-8.32099
▁něm	-8.32648
▁mohou	-8.32716
▁lidí	-8.32808
▁Podl	-8.32826
ými	-8.33021
▁společnosti	-8.33048
▁jeden	-8.33147
▁práce	-8.33156
U	-8.33442
ila	-8.33449
▁stále	-8.33765
▁těchto	-8.34376
▁ovšem	-8.345
▁všechny	-8.34789
rod	-8.35158
▁nez	-8.35252
vy	-8.35456
nout	-8.35464
ského	-8.35504
bě	-8.35658
ání	-8.35735
ur	-8.36201
vod	-8.36224
▁nové	-8.36253
cela	-8.36516
ť	-8.3666
ili	-8.36794
os	-8.36876
▁několik	-8.36907
w	-8.3704
▁Ale	-8.37633
fi	-8.37908
man	-8.3793
...	-8.38119
E	-8.38275
há	-8.38388
8	-8.38737
▁kterou	-8.3888
▁W	-8.39187
▁což	-8.39577
ního	-8.39708
▁mě	-8.40463
▁větší	-8.40553
ací	-8.40619
sti	-8.40949
ova	-8.41167
ji	-8.41206
mat	-8.41473
▁tento	-8.41692
A	-8.43163
án	-8.4335
br	-8.43446
▁možné	-8.43953
▁jednání	-8.44028
ští	-8.44083
ob	-8.44231
▁České	-8.45178
▁stát	-8.45308
L	-8.4545
sta	-8.45577
vedl	-8.458
klad	-8.45872
▁dalších	-8.45967
lit	-8.4611
dob	-8.46352
ič	-8.46436
▁Od	-8.46652
▁Tak	-8.47151
▁svět	-8.47703
▁R	-8.47708
ství	-8.4772
Á	-8.48159
Z	-8.48221
es	-8.48268
▁ČR	-8.4854
▁měla	-8.4871
▁kdo	-8.48786
▁naše	-8.48823
▁Praze	-8.49298
ované	-8.4937
▁neu	-8.49481
▁Ch	-8.49576
▁4	-8.49669
▁mu	-8.49733
▁zejména	-8.49889
pis	-8.50163
téměř	-8.50281
▁Vy	-8.50294
▁zařízení	-8.50689
sp	-8.50756
▁základní	-8.50803
▁svou	-8.50928
nit	-8.50994
op	-8.51326
pat	-8.51965
▁10	-8.52115
▁nevy	-8.52164
▁Proto	-8.52764
ing	-8.52917
▁část	-8.53015
▁jde	-8.53039
▁strany	-8.53104
let	-8.54049
▁možnost	-8.54113
ú	-8.54195
▁systém	-8.54589
▁naši	-8.54639
▁prostředí	-8.54703
▁letech	-8.55476
ven	-8.55805
ační	-8.56012
▁čas	-8.56079
▁Te	-8.56144
▁sice	-8.5635
▁dvě	-8.56403
▁Kdy	-8.56422
▁nepo	-8.56456
▁svého	-8.56605
ají	-8.56836
▁Ma	-8.56861
plat	-8.57215
▁každý	-8.5733
do	-8.57727
ovali	-8.57734
▁svých	-8.57771
ant	-8.58095
▁jiné	-8.58175
per	-8.58355
▁zákon	-8.58681
▁N	-8.58852
▁nejen	-8.59085
nik	-8.59269
▁místo	-8.598
form	-8.60222
▁postup	-8.60412
▁5	-8.60518
▁země	-8.60705
▁vše	-8.61335
▁Bo	-8.61341
▁obchodní	-8.61342
F	-8.61504
▁uvedl	-8.61752
▁tomto	-8.62067
▁Ro	-8.62256
ik	-8.62271
▁světa	-8.62304
ník	-8.6247
itel	-8.62858
ali	-8.62937
▁zde	-8.63142
▁prezident	-8.63614
ga	-8.63668
▁druhé	-8.64069
nov	-8.64615
▁ministr	-8.64958
cen	-8.6497
▁způsob	-8.65087
▁nes	-8.65396
zn	-8.6572
skou	-8.65736
▁milionů	-8.65812
▁000	-8.65939
▁hodin	-8.66018
ste	-8.66726
▁sociální	-8.66982
▁něco	-8.67046
hled	-8.67136
as	-8.67188
▁svým	-8.67195
▁vlády	-8.67216
ice	-8.67801
▁sto	-8.67976
men	-8.6817
▁představ	-8.68335
00	-8.68507
▁stejně	-8.68684
▁nic	-8.68762
▁říká	-8.68922
▁nedo	-8.69227
žen	-8.69369
kov	-8.69611
té	-8.69702
▁pracovní	-8.69798
▁Ta	-8.69877
▁Č	-8.69924
ovala	-8.6995
▁výkon	-8.70125
gr	-8.7021
▁některé	-8.70251
▁kolem	-8.70277
rt	-8.70492
hy	-8.70856
up	-8.71103
▁ceny	-8.71213
sk	-8.71561
rů	-8.71763
▁zboží	-8.71775
▁zákona	-8.71856
▁tam	-8.71933
▁Re	-8.72177
sku	-8.72263
▁Jan	-8.72586
ář	-8.72787
ější	-8.72967
▁pa	-8.73009
▁opět	-8.73425
dní	-8.73558
%	-8.7364
▁oblasti	-8.7371
▁6	-8.74082
▁začal	-8.74177
▁pan	-8.74184
▁dobře	-8.74226
▁příliš	-8.74256
▁program	-8.74267
▁patří	-8.74445
▁několika	-8.74897
▁finanční	-8.74925
▁svůj	-8.75103
▁dosud	-8.75126
ev	-8.75148
ge	-8.75255
▁návrh	-8.75461
▁některých	-8.75484
álně	-8.75501
▁práci	-8.75784
▁osob	-8.75785
ovací	-8.75956
▁firma	-8.76123
▁zemí	-8.76253
čka	-8.76543
▁ten	-8.76704
▁%	-8.7675
nění	-8.76827
▁vůbec	-8.77154
▁Se	-8.77401
id	-8.77496
▁1	-8.77541
vní	-8.77607
▁byli	-8.78082
▁vždy	-8.78262
▁2	-8.78362
sko	-8.78399
kl	-8.78546
▁půl	-8.78555
▁období	-8.78897
ed	-8.79484
▁pět	-8.7959
▁neboť	-8.79755
ovým	-8.79853
▁státní	-8.79878
▁výstav	-8.7994
▁největší	-8.79956
▁zájem	-8.80282
čin	-8.80687
▁zahraniční	-8.81085
▁velký	-8.81391
ad	-8.81987
jší	-8.82448
▁české	-8.82505
:	-8.82583
sky	-8.82687
kové	-8.82823
▁rozdíl	-8.82864
▁nejsou	-8.8321
rad	-8.83229
ber	-8.83496
▁často	-8.83547
jde	-8.83642
▁sebe	-8.83684
▁vyšší	-8.83727
▁střední	-8.83958
▁Mo	-8.83988
▁ex	-8.84179
▁velké	-8.84315
▁nemá	-8.84414
ck	-8.84623
▁neza	-8.84946
▁20	-8.85002
nice	-8.85155
▁systému	-8.85406
▁dokonce	-8.85434
▁USA	-8.85443
▁jedn	-8.85462
ském	-8.85493
ul	-8.85786
▁jste	-8.85833
olog	-8.85898
▁St	-8.86314
▁Le	-8.86348
▁přímo	-8.86438
▁společnost	-8.86681
▁Před	-8.8676
▁jež	-8.86892
▁Ty	-8.86929
G	-8.87271
▁měli	-8.87436
▁stav	-8.87517
▁čtyři	-8.87521
▁sám	-8.87543
mluv	-8.87553
ilo	-8.87618
ment	-8.8786
▁prodej	-8.87871
▁Kč	-8.87967
▁lidé	-8.88124
▁problém	-8.88221
jezd	-8.88242
▁ředitel	-8.8826
▁celé	-8.88315
▁části	-8.88357
ran	-8.8852
▁Má	-8.88524
▁počet	-8.88809
por	-8.88988
nes	-8.88997
▁nebude	-8.89036
▁doby	-8.89101
během	-8.89148
▁mo	-8.89339
▁cen	-8.89399
▁Js	-8.89521
▁1992	-8.89647
▁rovněž	-8.89652
▁snad	-8.89701
▁kontrol	-8.90078
bou	-8.90083
▁slov	-8.90214
rán	-8.90244
▁informace	-8.90433
▁níž	-8.90592
čení	-8.90764
▁Kr	-8.90915
kol	-8.91029
nt	-8.9105
▁trhu	-8.91071
▁hor	-8.9121
▁První	-8.91239
▁den	-8.91315
▁nimi	-8.91334
les	-8.91487
▁vám	-8.91566
tur	-8.91604
▁mnoho	-8.91751
▁život	-8.91764
vůli	-8.91764
včetně	-8.92035
▁tří	-8.92109
rát	-8.92137
▁soud	-8.9214
níci	-8.92163
ném	-8.92287
zřejmě	-8.92289
▁trh	-8.92309
▁mohl	-8.92329
▁Pa	-8.92407
▁situace	-8.92426
▁Mi	-8.92494
▁boj	-8.92516
stal	-8.9258
▁takže	-8.92653
▁obě	-8.92789
▁zahraničí	-8.93233
▁řád	-8.93239
▁Ú	-8.93451
▁Ka	-8.93665
▁Pod	-8.93864
tato	-8.93989
▁chyb	-8.94059
▁Ob	-8.94325
▁životní	-8.94345
ován	-8.94377
▁případ	-8.94493
ovaných	-8.94695
▁film	-8.94746
be	-8.9498
ák	-8.95218
▁méně	-8.95235
▁Pří	-8.95357
ón	-8.95417
▁např	-8.95476
▁obchod	-8.95917
▁současné	-8.95971
▁Tr	-8.96043
▁spolu	-8.96099
▁Evropy	-8.96114
▁peníze	-8.96114
▁řešení	-8.96181
zen	-8.96249
iště	-8.9638
▁trenér	-8.96533
▁vz	-8.96731
▁takové	-8.96806
ač	-8.96902
dle	-8.96929
Č	-8.96953
▁vedení	-8.96966
▁Zatím	-8.96978
▁víc	-8.9699
var	-8.97193
nými	-8.97227
▁dost	-8.97371
pt	-8.97579
▁něj	-8.97586
▁di	-8.97727
▁jedna	-8.97737
▁podíl	-8.98144
▁škol	-8.98212
▁chce	-8.98242
▁způsobem	-8.98278
▁Li	-8.98322
▁význam	-8.98726
▁člověk	-8.98733
ud	-8.98833
▁Nej	-8.98918
▁spíše	-8.99109
šel	-8.99179
▁dále	-8.99404
▁republiky	-8.99406
nil	-8.99512
ner	-8.99518
kách	-8.99761
▁bo	-9.00025
▁mezinárodní	-9.00119
ď	-9.0033
▁navíc	-9.00383
pro	-9.00425
▁přitom	-9.00432
▁rozhodnutí	-9.0046
he	-9.00502
rn	-9.00545
ska	-9.00685
▁12	-9.00737
Í	-9.01019
H	-9.01088
▁dobu	-9.01134
▁Da	-9.01173
▁znamená	-9.01202
▁vlastně	-9.01334
▁kom	-9.01397
▁šest	-9.01432
▁jednotlivý	-9.01632
▁jednoho	-9.01717
▁mimo	-9.01728
▁15	-9.01763
ických	-9.018
▁čtyř	-9.01824
▁problémy	-9.01919
iz	-9.0209
▁dostal	-9.0212
▁prostor	-9.02138
▁naopak	-9.0214
▁znovu	-9.02151
▁plán	-9.02171
krát	-9.02299
▁množství	-9.02585
▁věd	-9.02607
gen	-9.02776
ST	-9.02785
▁závod	-9.02807
ovém	-9.02827
▁In	-9.02841
čet	-9.03121
▁provoz	-9.03632
tní	-9.03686
ér	-9.04154
▁letošní	-9.04238
▁odbor	-9.04243
▁stran	-9.04304
íme	-9.04429
▁skutečně	-9.04497
▁naší	-9.0453
stoupil	-9.04649
▁Petr	-9.04724
▁plat	-9.04751
▁města	-9.04759
ložit	-9.04759
▁míst	-9.04791
voz	-9.04995
▁platí	-9.0518
▁straně	-9.05223
▁většinou	-9.05291
ir	-9.05295
potřeb	-9.05298
▁určen	-9.05406
▁ostatní	-9.05513
▁zhruba	-9.05814
nutí	-9.05845
bud	-9.05937
ště	-9.05966
▁základ	-9.05987
▁1.	-9.06099
ele	-9.06254
▁vývoj	-9.06483
▁dlouho	-9.06664
▁jaké	-9.06677
ak	-9.06905
▁list	-9.06929
dra	-9.07114
viz	-9.07171
nici	-9.07178
▁Vý	-9.07201
jem	-9.07339
▁kole	-9.07418
▁18	-9.07436
▁řízení	-9.07516
▁území	-9.07606
▁text	-9.07694
▁Al	-9.07744
šlo	-9.07837
ického	-9.07957
ig	-9.07984
▁nejlepší	-9.08056
▁Jiří	-9.08079
▁jiných	-9.08133
▁deset	-9.08241
▁málo	-9.08469
kla	-9.0851
▁nelze	-9.0855
▁minut	-9.08555
hal	-9.08559
▁celý	-9.08564
▁vláda	-9.08636
tek	-9.08686
▁firem	-9.09024
▁bych	-9.09197
▁jej	-9.092
rat	-9.09228
bor	-9.09329
mysl	-9.09432
▁nemoc	-9.09478
ver	-9.09529
▁Ho	-9.09533
▁Zá	-9.09542
▁skupin	-9.09562
▁zase	-9.09629
▁projekt	-9.09726
aj	-9.09772
▁vyh	-9.09918
▁Ná	-9.09992
▁letos	-9.10121
bývá	-9.10124
▁moc	-9.10132
vede	-9.10132
▁jedno	-9.10176
▁smlouvy	-9.10456
▁tzv	-9.10519
▁dolarů	-9.10528
raz	-9.10792
rob	-9.10896
ající	-9.10901
▁vedoucí	-9.10995
gu	-9.11001
tře	-9.11075
ému	-9.11183
ic	-9.11194
nul	-9.1123
▁podnik	-9.11255
▁kam	-9.11449
▁Václav	-9.11678
▁pěti	-9.11853
▁jedné	-9.11907
čil	-9.12058
ková	-9.1209
▁pomocí	-9.12244
▁lepší	-9.12408
měř	-9.12469
▁krok	-9.12536
▁model	-9.12544
ala	-9.12668
fr	-9.12803
nské	-9.12951
▁druhý	-9.12958
▁Byl	-9.13104
vání	-9.13123
▁zápas	-9.13146
bl	-9.13248
ené	-9.13257
▁činnosti	-9.13305
▁roky	-9.13388
▁prohlásil	-9.13562
▁třetí	-9.13571
res	-9.1359
▁vstup	-9.13901
▁prav	-9.14202
RA	-9.14463
▁Přesto	-9.14508
▁dál	-9.14542
ována	-9.14711
▁znám	-9.14789
▁majitel	-9.14891
▁Další	-9.14891
▁obraz	-9.15115
▁Pr	-9.15274
▁vás	-9.15298
▁jednou	-9.15349
▁různých	-9.15447
dů	-9.15582
▁světě	-9.15591
▁dá	-9.15896
▁později	-9.15906
▁americké	-9.16042
koli	-9.16052
▁hlavní	-9.16178
bar	-9.16187
▁konce	-9.16379
iny	-9.16386
▁7	-9.16677
▁plyn	-9.16788
▁chod	-9.16804
lin	-9.16822
▁nemůže	-9.1686
pol	-9.16909
▁západní	-9.17054
▁můžete	-9.17149
ická	-9.17288
fo	-9.1731
ovaný	-9.17406
▁30	-9.17412
▁ČSFR	-9.17442
▁zdravotní	-9.17442
▁menší	-9.17453
čky	-9.17583
▁státu	-9.17633
▁vod	-9.17741
tů	-9.17752
▁občan	-9.17805
nem	-9.17912
dit	-9.17988
▁nepři	-9.17994
nese	-9.18378
▁člověka	-9.18381
ily	-9.18421
slov	-9.18446
▁bývalé	-9.18462
▁Evropě	-9.18481
▁programu	-9.18504
▁já	-9.18714
tor	-9.18983
▁svobod	-9.19004
▁století	-9.19005
tisk	-9.19025
▁vyp	-9.19138
▁tým	-9.19151
▁podniku	-9.19414
del	-9.19446
▁služby	-9.19531
▁skupiny	-9.1954
▁autor	-9.19611
▁Pře	-9.19772
▁věci	-9.19819
kul	-9.19863
▁9	-9.20063
▁hlas	-9.20121
▁činnost	-9.20265
▁De	-9.20374
▁Lu	-9.20391
▁led	-9.20499
▁domácí	-9.20512
▁funkce	-9.20592
▁úspěch	-9.20592
▁jinak	-9.20599
▁CD	-9.20621
▁prý	-9.20703
▁16	-9.20824
ární	-9.20922
▁názor	-9.2096
and	-9.21031
▁rychle	-9.21103
▁fakt	-9.21268
▁zároveň	-9.2132
▁mělo	-9.2145
▁Ba	-9.21614
▁situaci	-9.21664
▁Mar	-9.21728
▁nových	-9.21904
▁večer	-9.21966
pokoj	-9.22078
▁neo	-9.2219
▁dnešní	-9.22207
▁dobré	-9.22229
NÍ	-9.22309
▁obyvatel	-9.22385
tvo	-9.22422
nos	-9.22731
▁připraven	-9.22748
▁možná	-9.22749
▁snímku	-9.22752
znal	-9.22813
▁malé	-9.23054
kor	-9.2318
▁náklady	-9.23187
▁La	-9.23269
▁tvrdí	-9.23315
▁obou	-9.23333
dom	-9.23402
▁stojí	-9.23431
▁oprav	-9.23554
▁přesto	-9.23653
▁100	-9.23657
▁stejné	-9.23763
▁prvním	-9.24225
fe	-9.24319
▁Ti	-9.24327
▁politické	-9.24402
▁titul	-9.24404
▁republik	-9.24431
ca	-9.24469
atel	-9.24555
vin	-9.24586
▁pořád	-9.2472
▁11	-9.24795
▁máme	-9.24839
▁1993	-9.24952
▁děti	-9.24953
zv	-9.2506
▁Ten	-9.25092
▁mohli	-9.25152
▁podporu	-9.25165
▁neměl	-9.25233
▁Rad	-9.25311
ický	-9.25383
ó	-9.25478
ES	-9.25485
▁měly	-9.25493
▁cenu	-9.25733
▁místní	-9.25734
▁Gr	-9.25815
ův	-9.2593
▁získat	-9.26073
▁Praha	-9.26073
▁díl	-9.26162
átor	-9.26267
ovány	-9.26366
dl	-9.26437
▁bod	-9.26756
ovaly	-9.27004
bychom	-9.27077
▁určité	-9.27111
▁partner	-9.2715
▁majetku	-9.27206
▁dokument	-9.27206
▁nakonec	-9.27207
▁států	-9.27252
▁Ž	-9.27284
▁osm	-9.27309
▁dr	-9.27326
▁všechno	-9.27451
▁těch	-9.27517
▁toto	-9.27589
▁rozhodl	-9.27784
▁nikdy	-9.27786
vou	-9.28032
▁17	-9.28247
▁sta	-9.28278
ujeme	-9.28289
▁25	-9.28322
▁ode	-9.28411
▁vů	-9.28601
tivní	-9.28632
▁právní	-9.28689
kládá	-9.28706
▁premiér	-9.28723
▁čtvrt	-9.28745
▁výši	-9.2885
▁skončil	-9.28933
ici	-9.28972
▁porad	-9.29018
nek	-9.2903
mer	-9.29146
▁podniků	-9.29163
▁14	-9.2927
ct	-9.29303
lem	-9.29436
▁papír	-9.29525
▁pár	-9.29591
▁svém	-9.29697
▁novin	-9.29742
ok	-9.29792
▁An	-9.29977
dat	-9.30056
ten	-9.3006
▁souhlas	-9.30096
▁manžel	-9.30097
▁vliv	-9.30186
▁dříve	-9.30227
ang	-9.304
ej	-9.30426
▁dne	-9.30643
▁příprav	-9.30689
počíta	-9.30848
▁nového	-9.30861
ským	-9.30871
lek	-9.30971
▁možnosti	-9.30975
ij	-9.31022
▁vody	-9.31044
Š	-9.31053
tem	-9.31111
▁test	-9.31139
vali	-9.31214
vil	-9.31259
▁sobotu	-9.31276
▁Prahy	-9.31277
▁místě	-9.3128
▁nebyl	-9.31341
▁post	-9.31351
▁lety	-9.31437
▁zdá	-9.31449
▁osobní	-9.31465
dal	-9.31476
CH	-9.31588
vu	-9.3182
▁nutné	-9.31872
▁kdyby	-9.32021
▁stanov	-9.32069
▁proč	-9.32176
inter	-9.32199
den	-9.322
▁týden	-9.32214
din	-9.32234
▁deseti	-9.32279
chází	-9.32332
▁nový	-9.3247
vé	-9.32613
▁efekt	-9.32663
ster	-9.32672
▁stavu	-9.33
ící	-9.33066
držel	-9.33102
zo	-9.33107
▁Cen	-9.33125
▁starost	-9.33213
▁parlamentu	-9.33358
pad	-9.33419
▁tr	-9.33547
ření	-9.3357
▁předseda	-9.3357
▁Br	-9.33622
▁účel	-9.33715
▁zisk	-9.33724
▁Tento	-9.33949
mír	-9.34081
▁svaz	-9.34273
▁ministerstva	-9.34288
▁dat	-9.34291
hlav	-9.34361
▁pohled	-9.34381
▁sil	-9.34442
▁zemi	-9.34456
▁bychom	-9.34471
▁přece	-9.34739
▁vítěz	-9.34883
der	-9.34925
▁telefon	-9.34948
▁změn	-9.3511
ností	-9.35143
hla	-9.3521
nka	-9.35356
▁Tato	-9.35405
▁informací	-9.35519
▁organizace	-9.35519
▁všichni	-9.35519
▁policie	-9.35519
▁všem	-9.35587
▁samozřejmě	-9.356
▁akce	-9.35622
▁potom	-9.35633
▁vys	-9.35843
inu	-9.35901
kami	-9.35974
▁střed	-9.36052
▁přístup	-9.3611
▁nikdo	-9.36147
▁Rusk	-9.36239
DA	-9.36311
▁poté	-9.36316
▁můžeme	-9.36363
▁Není	-9.36485
OS	-9.3658
nský	-9.36633
▁živ	-9.36694
▁Klaus	-9.36796
▁hlavně	-9.368
rop	-9.36907
nci	-9.36913
▁poměrně	-9.3692
ké	-9.37127
nebo	-9.37168
▁byt	-9.37198
▁českých	-9.37225
šť	-9.37273
▁původní	-9.37307
▁Kromě	-9.37394
▁nižší	-9.37394
ovalo	-9.37432
▁pražské	-9.3746
J	-9.37478
blíž	-9.37618
tky	-9.37667
ika	-9.37788
▁věcí	-9.37883
▁schopn	-9.37898
go	-9.37911
▁dodal	-9.37927
lep	-9.38003
▁návštěv	-9.38022
▁sdružení	-9.38027
trochu	-9.38028
graf	-9.38099
▁dvěma	-9.38178
▁důvod	-9.38238
▁člen	-9.38242
šli	-9.38348
▁tvrd	-9.38471
▁doprav	-9.38487
▁prezidenta	-9.38648
▁něho	-9.38682
ško	-9.38732
byl	-9.38986
par	-9.39155
nc	-9.39181
▁SSSR	-9.39305
▁sobě	-9.3932
ovy	-9.39329
▁cena	-9.39354
nic	-9.39357
▁Ze	-9.39616
▁Ha	-9.39632
▁8	-9.39637
▁klub	-9.39656
Ž	-9.39658
▁Jana	-9.39741
▁50	-9.39755
▁prohlášení	-9.3995
býval	-9.39959
▁Mezi	-9.39967
isté	-9.39996
▁obr	-9.40081
▁Di	-9.40118
bal	-9.40144
▁výrazně	-9.40154
osud	-9.40397
▁200	-9.40406
▁výhod	-9.4044
▁podmínky	-9.40599
▁kromě	-9.406
▁komise	-9.406
▁Jestli	-9.40601
▁někdy	-9.40602
▁úvěr	-9.40607
prve	-9.40759
▁žádné	-9.40815
jedná	-9.40868
ané	-9.40893
▁Jako	-9.40899
nk	-9.40928
▁posl	-9.40929
▁stud	-9.40958
▁budov	-9.41064
▁šéf	-9.41254
▁zásad	-9.41369
hle	-9.41414
dla	-9.4151
▁obsah	-9.41513
▁pís	-9.41649
cké	-9.41653
fer	-9.4168
▁mnoh	-9.41714
▁základě	-9.41762
▁služeb	-9.41911
▁výroby	-9.41911
▁spoj	-9.41929
▁pre	-9.41941
▁zemích	-9.4195
▁13	-9.42231
jich	-9.42232
alo	-9.42234
kovi	-9.4224
▁Evropské	-9.42368
▁došlo	-9.4246
▁dohod	-9.4252
▁většina	-9.42573
▁čtenář	-9.42573
▁Morav	-9.42583
▁vzor	-9.42705
▁nepře	-9.42822
kli	-9.42865
▁projev	-9.43027
▁růst	-9.43271
▁rodin	-9.4352
dním	-9.43539
▁čím	-9.4371
▁pu	-9.43868
▁hned	-9.43928
sil	-9.43942
▁Ar	-9.43974
▁hra	-9.44057
▁místa	-9.44306
▁nep	-9.44453
▁host	-9.44458
▁šesti	-9.44564
▁1991	-9.44587
▁peněz	-9.44587
▁mnoha	-9.44588
▁tvoří	-9.44603
▁nejvyšší	-9.44717
▁syn	-9.44735
▁práv	-9.44874
ard	-9.44957
19	-9.44965
▁miliard	-9.44972
▁metod	-9.44991
▁oba	-9.44997
▁fa	-9.45061
van	-9.45114
▁jich	-9.45123
▁objekt	-9.45177
▁pomoc	-9.45218
ává	-9.45229
▁tehdy	-9.45267
▁povrch	-9.45275
▁jistě	-9.45278
▁rozpočtu	-9.45279
▁soubor	-9.45293
▁výbor	-9.45294
▁života	-9.45332
▁měst	-9.45347
▁pokus	-9.45375
▁uměl	-9.45411
▁sedm	-9.45718
▁start	-9.45763
ide	-9.45852
▁div	-9.45876
un	-9.45919
▁struktur	-9.45952
▁vysoké	-9.45952
py	-9.46037
▁hry	-9.46087
▁nepro	-9.46116
brán	-9.46178
stavit	-9.46307
▁muž	-9.4634
▁nějak	-9.46377
prostřed	-9.46444
ovaná	-9.46471
▁správ	-9.46487
▁malý	-9.46613
▁dosavadní	-9.46641
▁vyhrál	-9.46642
▁vítězství	-9.46665
▁teď	-9.46679
žije	-9.46826
▁východní	-9.46838
▁Ku	-9.46868
▁nena	-9.46997
mohlo	-9.47075
▁členů	-9.4711
▁milionu	-9.47128
▁nebylo	-9.47254
▁úřad	-9.47262
ňuje	-9.47299
▁Čí	-9.47303
▁prosince	-9.47336
▁poprvé	-9.47342
▁ploch	-9.47345
▁prv	-9.47348
▁prostředky	-9.47354
▁úkol	-9.47415
▁Že	-9.47554
proti	-9.47579
▁40	-9.47652
slav	-9.4771
▁pla	-9.47724
ismu	-9.47782
▁chtěl	-9.4781
▁neod	-9.47885
▁Me	-9.479
mohla	-9.48031
▁konkrétní	-9.48035
▁unie	-9.48048
díky	-9.48355
▁spor	-9.48431
▁založen	-9.48552
▁žádný	-9.48561
▁her	-9.48585
▁spolupráci	-9.48739
▁výsledky	-9.48739
znamenal	-9.4874
▁opatření	-9.4874
▁zůstal	-9.48744
▁my	-9.48759
▁teprve	-9.48765
▁trest	-9.48864
óz	-9.48896
▁rozvoj	-9.48929
▁zas	-9.49026
čku	-9.49047
ostí	-9.49073
▁vznik	-9.49091
▁kal	-9.49117
řad	-9.4921
ismus	-9.49266
▁světové	-9.49444
tal	-9.49805
šti	-9.49827
kat	-9.49949
cím	-9.49958
▁polo	-9.49989
▁času	-9.50022
▁ODS	-9.50092
metr	-9.50141
▁1994	-9.50163
▁prakticky	-9.50163
ina	-9.50177
rak	-9.50194
▁vnitřní	-9.50325
▁mil	-9.50371
ren	-9.50604
▁skutečnost	-9.50736
ence	-9.50806
▁hlediska	-9.50882
▁manažer	-9.50882
▁prostřednictví	-9.50883
ovo	-9.5089
měr	-9.50904
▁Roz	-9.50913
▁utkání	-9.50954
▁výběr	-9.50981
▁jenž	-9.51085
▁dal	-9.51101
hn	-9.51202
ění	-9.51356
▁Du	-9.51531
št	-9.51605
▁orgán	-9.51607
▁republice	-9.51607
pravidla	-9.51607
▁velice	-9.51619
▁stál	-9.51625
▁celou	-9.51722
stane	-9.51728
jev	-9.51927
pustil	-9.52057
▁výraz	-9.52123
len	-9.52177
▁procenta	-9.52229
▁někdo	-9.52339
▁odhad	-9.52349
▁získal	-9.5238
▁celkové	-9.52417
tím	-9.52524
▁daně	-9.52605
▁24	-9.52691
pen	-9.52712
uji	-9.52719
▁ministra	-9.52768
▁jejím	-9.52816
plav	-9.52817
nd	-9.52894
▁působí	-9.53044
▁dispozici	-9.53072
▁následující	-9.53073
nky	-9.53144
▁souvislosti	-9.53356
▁auto	-9.53406
▁stanoven	-9.53615
▁Jelcin	-9.53637
▁1990	-9.53813
▁mluvčí	-9.53831
50	-9.53897
▁musel	-9.5398
▁typu	-9.54093
oč	-9.54202
port	-9.54219
▁řadu	-9.54325
hi	-9.545
▁kterým	-9.54548
▁záměr	-9.54562
▁přechod	-9.54569
▁rámci	-9.54572
▁nákup	-9.54669
▁ledna	-9.54796
zení	-9.54804
eb	-9.54826
▁Jen	-9.54897
▁prostě	-9.54915
▁kvalit	-9.54928
▁změny	-9.54991
OV	-9.55138
▁Pak	-9.55284
▁nejméně	-9.55333
cký	-9.55421
▁podařilo	-9.5544
▁budeme	-9.55627
▁teplot	-9.55644
race	-9.55763
▁sestav	-9.55775
▁Já	-9.55782
▁materiál	-9.5581
icky	-9.55912
▁proces	-9.55932
ký	-9.55978
ance	-9.55997
▁připoj	-9.56083
▁mne	-9.56142
▁společné	-9.56202
tit	-9.56253
▁roli	-9.56313
▁loni	-9.56321
eta	-9.56403
▁sebou	-9.56411
vz	-9.56458
▁vln	-9.56595
▁kart	-9.5666
lék	-9.56758
▁jednot	-9.56774
▁Například	-9.56832
▁podnikání	-9.56899
▁různé	-9.56972
kázal	-9.57009
▁sever	-9.57018
koliv	-9.57053
▁automobil	-9.57069
čně	-9.57095
▁bank	-9.57255
star	-9.57326
▁vládní	-9.5738
mar	-9.57466
▁vět	-9.57487
▁státy	-9.57505
▁princip	-9.57558
trž	-9.57575
▁minulý	-9.57607
▁opravdu	-9.57653
▁čs	-9.57674
▁akci	-9.57699
EN	-9.57702
▁tolik	-9.57755
▁výzkum	-9.57792
denní	-9.5785
▁výše	-9.5785
ickou	-9.57854
pas	-9.57871
nec	-9.57891
▁Jde	-9.57905
▁fond	-9.58022
▁právo	-9.58199
stroj	-9.58316
▁disk	-9.58348
▁účast	-9.58359
▁funkci	-9.58376
▁miliónů	-9.58377
▁smlouvu	-9.58377
▁snaží	-9.58382
▁nedávno	-9.58426
▁doma	-9.58465
▁příčin	-9.5847
padl	-9.58512
▁příklad	-9.58513
▁tenis	-9.58524
vést	-9.5856
jat	-9.58695
▁schopnost	-9.58705
▁volební	-9.58716
▁náš	-9.58752
ovými	-9.58809
SK	-9.58875
AN	-9.58902
est	-9.58926
žení	-9.58939
▁Kon	-9.58963
ať	-9.58968
▁zákaz	-9.59108
počátku	-9.59158
▁kandidát	-9.59158
▁termín	-9.59158
▁časopis	-9.59158
▁nárok	-9.59172
part	-9.59208
▁kap	-9.59239
▁Dnes	-9.59273
jak	-9.59362
▁zvýšení	-9.59538
pil	-9.59724
kar	-9.59871
▁národ	-9.59873
▁uveden	-9.59908
ovaného	-9.59931
▁okolí	-9.59953
▁volb	-9.60022
▁lev	-9.60044
jdou	-9.60054
▁věc	-9.60073
▁Kdo	-9.60182
▁měsíců	-9.60317
▁průměrn	-9.60375
jící	-9.60388
dění	-9.60507
▁ústav	-9.60589
000	-9.6068
rd	-9.60695
též	-9.60696
▁ministerstvo	-9.60739
▁zvláštní	-9.60739
▁koaliční	-9.60739
▁chtějí	-9.60739
lů	-9.60746
pit	-9.60778
násob	-9.60789
▁dnech	-9.60889
▁pojištění	-9.60937
▁ukázal	-9.60972
vají	-9.61002
▁chování	-9.61057
dání	-9.61159
▁klid	-9.6128
▁ztrát	-9.61366
▁jiného	-9.61471
tel	-9.61472
▁Windows	-9.61539
▁hvězd	-9.61539
▁jediný	-9.61557
▁bývalý	-9.61569
▁Zeman	-9.61576
dává	-9.61599
▁předmět	-9.61627
▁středu	-9.61667
▁léč	-9.61668
ivé	-9.61726
áři	-9.61737
klo	-9.61781
▁slova	-9.61811
▁ekonomické	-9.61866
▁dosáhl	-9.61872
▁metrů	-9.61895
▁přednost	-9.61909
▁dopis	-9.6191
▁hotel	-9.61922
▁objevil	-9.61927
▁úřadu	-9.61998
▁postupně	-9.62114
▁národní	-9.62204
dávají	-9.62227
▁hráčů	-9.62247
▁zahraničních	-9.623
▁zpět	-9.62346
▁společenství	-9.62404
▁pevn	-9.62446
lení	-9.62513
▁2.	-9.62533
▁stal	-9.62622
▁ochran	-9.62641
▁dostat	-9.62672
▁rady	-9.62715
▁Bar	-9.62746
▁vztah	-9.62797
ena	-9.62907
ger	-9.62965
▁podobně	-9.63161
▁Čech	-9.63224
šek	-9.6324
▁padesát	-9.6342
,5	-9.63552
áme	-9.6356
stává	-9.63781
▁Če	-9.63883
▁gen	-9.63963
▁nemusí	-9.63978
▁MS	-9.64
▁svazu	-9.64024
▁číslo	-9.64034
gan	-9.64058
▁čeká	-9.64195
▁kancelář	-9.6428
pul	-9.64416
▁Zde	-9.64624
stran	-9.64651
▁poslanců	-9.64804
▁přibližn	-9.64804
▁zástupce	-9.64804
▁klient	-9.64806
▁nadále	-9.64808
▁Dr	-9.64813
▁ročně	-9.64818
▁pracovníků	-9.6482
▁vede	-9.64852
th	-9.65144
▁tržní	-9.65153
▁pacient	-9.65227
▁kulturní	-9.65243
▁Bude	-9.65318
▁obrat	-9.65392
▁evropské	-9.65398
ton	-9.65548
íte	-9.65614
▁odmítl	-9.65638
▁koncert	-9.65674
▁klubu	-9.65719
aly	-9.65728
▁vaše	-9.65782
▁dalším	-9.65789
zem	-9.65847
▁pohyb	-9.65857
▁poměr	-9.66186
▁každ	-9.66189
rit	-9.6622
▁Většin	-9.66478
▁hospodářství	-9.66478
▁jazyk	-9.66478
▁výrobní	-9.66478
▁nabídky	-9.66479
▁lépe	-9.66504
▁podobné	-9.66513
▁hodně	-9.66646
▁střel	-9.66805
▁přenos	-9.66891
▁Bu	-9.67142
▁spojen	-9.67192
▁počtu	-9.67245
▁generální	-9.67294
▁umožňuje	-9.67325
▁podniky	-9.6733
puštěn	-9.67337
▁podstatně	-9.67432
▁jenom	-9.67476
nické	-9.67484
▁přijat	-9.67535
stické	-9.67615
▁22	-9.67643
▁vyz	-9.67666
▁rozum	-9.67815
▁týmu	-9.67827
▁přesně	-9.67856
▁vznikl	-9.67891
ujících	-9.67955
▁Už	-9.67957
▁Be	-9.6801
ickým	-9.68012
▁jmen	-9.68052
zu	-9.68144
▁sami	-9.6816
▁považuje	-9.6818
▁začíná	-9.68185
▁musíme	-9.68189
▁olympijské	-9.68212
▁hrál	-9.6823
SE	-9.68277
▁případech	-9.68346
▁potvrdil	-9.68383
▁problémů	-9.68412
▁říci	-9.68454
▁novou	-9.6847
▁počítač	-9.68539
▁městě	-9.68628
pír	-9.68692
▁trval	-9.68791
hraje	-9.688
▁fondu	-9.68821
tovat	-9.68836
▁uzavře	-9.68845
před	-9.68887
▁důchod	-9.69042
▁obvykle	-9.69043
▁sítě	-9.69064
▁sport	-9.69078
šil	-9.69153
▁oddělení	-9.69155
▁Hrad	-9.69194
íky	-9.69254
▁banky	-9.69285
čel	-9.69294
▁pra	-9.69333
lat	-9.69336
▁českého	-9.69337
▁čist	-9.69368
jasn	-9.69377
▁pomoci	-9.69387
▁Ani	-9.69393
▁řada	-9.6948
kryt	-9.69538
▁kop	-9.69589
▁pracovník	-9.69617
▁možností	-9.69635
▁Ni	-9.69678
▁občanů	-9.69751
▁vedle	-9.69761
nů	-9.69857
▁fotbalist	-9.69896
▁otázku	-9.69912
▁výrobků	-9.69912
půjč	-9.69916
▁nebyla	-9.69942
ík	-9.69965
zní	-9.70133
▁ME	-9.70192
▁politiky	-9.70229
▁platit	-9.70247
▁průběhu	-9.70347
vané	-9.70481
▁čem	-9.7059
▁stejn	-9.70664
▁nabízí	-9.70789
▁událost	-9.70789
▁vrchol	-9.70789
▁bohat	-9.70791
▁adres	-9.70803
▁export	-9.70807
▁příjem	-9.70839
▁nějaké	-9.7088
▁nemají	-9.70951
▁ulici	-9.71057
▁fotbal	-9.7106
▁ryb	-9.71091
▁zdrojů	-9.71126
vát	-9.71143
▁miliardy	-9.71171
▁kterém	-9.71225
sídl	-9.71286
nému	-9.71509
▁fyzik	-9.71535
ložil	-9.71609
▁otázka	-9.71674
▁otázky	-9.71674
▁úrovni	-9.71674
▁autobus	-9.71674
▁celkem	-9.71674
▁reprezentant	-9.71675
▁chvíli	-9.71675
▁minulé	-9.71682
▁dotaz	-9.71702
▁Česká	-9.71709
leč	-9.7171
▁klíč	-9.71721
ned	-9.71754
▁slab	-9.71855
níků	-9.71856
▁takto	-9.71882
▁uvádí	-9.71887
ováno	-9.71929
▁moci	-9.71968
▁pozor	-9.71987
elný	-9.72348
son	-9.72351
ávat	-9.72373
▁moderní	-9.72405
▁Ru	-9.72471
antní	-9.72554
▁mistrovství	-9.72567
▁předchozí	-9.72567
tah	-9.72568
rem	-9.72692
čné	-9.72732
▁tvar	-9.72737
▁postavení	-9.728
▁každém	-9.7283
ke	-9.72916
▁jaký	-9.73007
▁pokles	-9.73024
▁potřebuje	-9.73066
sad	-9.73066
▁objektů	-9.73146
▁jednom	-9.73168
▁60	-9.73183
▁mistr	-9.73262
▁červen	-9.73288
▁21	-9.73349
LA	-9.73362
▁každé	-9.73369
▁stejný	-9.73385
Dr	-9.73424
▁energie	-9.73468
▁dětí	-9.73468
▁sportovní	-9.73469
▁zaměstnanců	-9.7347
▁NATO	-9.73471
▁Miloš	-9.73475
▁výměn	-9.73542
▁podnikatel	-9.73722
▁dohody	-9.73818
▁lékař	-9.73916
▁názoru	-9.73925
lid	-9.73939
plynul	-9.73991
▁pozornost	-9.74027
měnit	-9.74029
W	-9.74072
▁kterých	-9.74162
▁cestu	-9.74231
ěte	-9.74266
▁Ber	-9.74345
lík	-9.7436
▁dvanáct	-9.74377
▁finále	-9.74378
▁knih	-9.74505
▁obor	-9.74543
▁počítače	-9.74561
▁společností	-9.74577
▁textu	-9.74648
▁parlament	-9.74696
dají	-9.74716
▁listopadu	-9.74722
▁prů	-9.74723
▁užit	-9.74817
▁vybavení	-9.74879
▁představuje	-9.74976
▁setkání	-9.74978
išť	-9.74978
▁takový	-9.75002
ených	-9.75002
▁měsíce	-9.75058
▁měsíc	-9.75068
▁nikoli	-9.75109
▁sama	-9.75149
nského	-9.75266
▁Izrael	-9.75294
▁regul	-9.75295
týká	-9.75304
▁prostředků	-9.75305
▁Země	-9.75319
▁cizí	-9.75417
▁čtvrtek	-9.75432
▁Ještě	-9.75438
▁Sa	-9.75466
▁budoucí	-9.75472
▁Tím	-9.75503
▁současně	-9.75551
▁příští	-9.75689
▁řadě	-9.75707
▁strana	-9.75725
▁Ra	-9.75907
▁obchodního	-9.75911
▁kolik	-9.75939
sáhl	-9.76028
šení	-9.7619
▁výrobky	-9.7622
▁Navíc	-9.76221
▁OSN	-9.76228
▁Nyní	-9.76229
vad	-9.76285
▁produkce	-9.76307
▁PO	-9.76348
rou	-9.76376
▁neděli	-9.76624
▁druhém	-9.76626
ozi	-9.76677
▁data	-9.76712
▁Cel	-9.76725
▁atd	-9.76814
▁představit	-9.76862
CE	-9.76863
nictví	-9.76891
▁nemohl	-9.76936
▁zdroje	-9.77087
sed	-9.77106
▁Josef	-9.77155
▁federální	-9.77155
▁reklam	-9.77157
▁zasedání	-9.77168
▁hrát	-9.77169
▁těles	-9.77174
▁muset	-9.77189
▁motor	-9.77192
▁pobyt	-9.77217
▁skupina	-9.77251
▁dobrý	-9.77253
▁hlavním	-9.77373
vádí	-9.77433
▁skutečnosti	-9.77468
▁kterého	-9.77493
čili	-9.77494
▁70	-9.77521
▁provozu	-9.77521
ováním	-9.77539
▁popis	-9.77548
hlásil	-9.77775
▁oznámil	-9.78098
▁prezentace	-9.78098
▁speciální	-9.78098
▁začátku	-9.78098
▁kapacit	-9.781
▁srovnání	-9.781
▁trans	-9.78101
▁spokojen	-9.78102
▁třetin	-9.78102
front	-9.78103
▁tlak	-9.78211
▁podrob	-9.78226
▁smyslu	-9.7839
rád	-9.78415
▁blok	-9.78449
▁jiný	-9.78511
▁postoj	-9.78532
▁součástí	-9.7856
cházejí	-9.78648
cem	-9.78751
ben	-9.78771
▁hodnoty	-9.78851
▁použití	-9.78852
▁akcií	-9.78864
▁výboru	-9.79034
▁teorie	-9.79051
▁přízniv	-9.79051
▁přírodní	-9.79054
OR	-9.79063
▁1989	-9.79063
▁buď	-9.79063
▁privatizace	-9.79065
▁kvalitní	-9.79079
jedna	-9.79099
▁strom	-9.79104
▁apod	-9.79111
▁útok	-9.79182
▁objev	-9.79203
▁Pe	-9.79222
▁zákazník	-9.79238
▁jasné	-9.79435
▁Star	-9.79453
šit	-9.79554
▁kapitál	-9.79629
třech	-9.79641
▁Hor	-9.7969
▁škod	-9.79759
LE	-9.79765
▁přiče	-9.79771
stál	-9.79839
▁plně	-9.79856
▁konci	-9.79877
obec	-9.79887
psat	-9.80043
und	-9.80043
▁přesvědčen	-9.80205
▁školy	-9.80262
▁ostrov	-9.80262
LI	-9.80332
▁těm	-9.80335
TA	-9.80337
ejte	-9.80408
▁domů	-9.80413
▁Jedno	-9.80523
▁závěr	-9.8054
▁dostane	-9.80552
▁samo	-9.8056
koupit	-9.80647
▁našem	-9.8066
▁bran	-9.80686
▁jednotlivé	-9.80762
rovná	-9.80804
▁možno	-9.80833
▁objektu	-9.80967
ška	-9.80973
▁Američan	-9.80983
▁Někter	-9.80983
▁zdravotnictví	-9.80983
▁variant	-9.80983
▁veřejné	-9.80983
▁umění	-9.80987
▁tuzemsk	-9.80991
▁Martin	-9.80998
ros	-9.81023
díl	-9.81058
▁zvolen	-9.81078
▁Ivan	-9.81083
razil	-9.81278
drží	-9.81348
▁obchodu	-9.81377
30	-9.81382
vykl	-9.81433
▁dopravy	-9.8148
izaci	-9.81625
▁student	-9.81685
▁údaje	-9.81801
▁rozhodující	-9.81963
▁gól	-9.81964
▁respekt	-9.81964
▁nebezpečí	-9.81965
▁podobě	-9.81971
▁technik	-9.81973
▁Pavel	-9.81975
▁Bylo	-9.82032
ologie	-9.82171
▁celého	-9.82193
▁Podobn	-9.822
kových	-9.82201
▁investice	-9.82227
▁rad	-9.82247
▁opak	-9.82381
▁státního	-9.82427
▁ostatních	-9.82475
▁řad	-9.82477
▁nějaký	-9.82525
▁kultury	-9.82546
▁noci	-9.82638
cího	-9.8266
▁práva	-9.82735
čních	-9.82741
vláště	-9.82763
RO	-9.82773
ovské	-9.82851
▁žádost	-9.82954
▁druh	-9.82956
▁jízd	-9.82974
▁spojení	-9.82976
▁vzájemn	-9.82998
▁telefonní	-9.83048
▁aktivit	-9.83089
▁typ	-9.83119
▁společně	-9.83127
▁Kar	-9.83253
píše	-9.83287
▁soutěže	-9.83319
▁nová	-9.83364
▁politických	-9.83421
▁snadno	-9.83444
▁disku	-9.83568
▁smrti	-9.83616
užit	-9.83623
▁Ca	-9.83663
▁záznam	-9.8367
▁zájmu	-9.83793
bezpeč	-9.83834
▁televizní	-9.83953
▁jméno	-9.83953
▁Proč	-9.8397
▁osmi	-9.8401
net	-9.84161
ňování	-9.84228
▁Toto	-9.84323
procesor	-9.84436
např	-9.84492
▁tisíce	-9.84526
▁východ	-9.84672
▁průmysl	-9.84956
▁předpoklad	-9.84964
▁John	-9.84964
▁Rakousk	-9.84965
svoji	-9.84968
▁snímek	-9.84968
▁hnutí	-9.85003
▁zdraví	-9.85024
▁Stejn	-9.85026
roj	-9.85056
▁Tu	-9.85115
▁Ří	-9.85138
▁lidi	-9.85172
▁vidí	-9.85184
▁nejvíce	-9.8522
bytek	-9.85228
▁styl	-9.85251
věří	-9.85337
▁Mal	-9.85343
▁Hol	-9.85411
▁vytvoření	-9.8542
▁důvodů	-9.85543
plnění	-9.85577
▁dané	-9.85583
▁český	-9.85684
AD	-9.85777
IN	-9.85824
ovský	-9.85837
rovna	-9.85888
▁vzhledem	-9.85891
ion	-9.85903
▁Jaroslav	-9.85984
▁motiv	-9.85985
▁náročn	-9.85986
▁jisté	-9.86036
řitom	-9.86066
▁pás	-9.86067
▁23	-9.86142
cení	-9.8619
▁náhod	-9.86294
▁Hr	-9.863
▁plné	-9.86629
▁sezón	-9.8666
psal	-9.86675
▁mužů	-9.86732
faktor	-9.86776
ER	-9.86807
mět	-9.86845
▁hráči	-9.86856
▁rád	-9.86862
▁velkou	-9.8687
bral	-9.86942
▁placen	-9.86958
▁region	-9.86984
▁trvá	-9.86994
▁předem	-9.8701
▁signál	-9.87015
▁zvýšil	-9.87015
▁hokej	-9.87016
▁(1	-9.87017
▁těžko	-9.87017
▁planet	-9.87026
▁okolo	-9.87028
▁podobný	-9.87099
▁poně	-9.87146
áno	-9.87157
▁pocit	-9.87199
▁daleko	-9.87232
▁celkov	-9.87285
ČS	-9.87322
▁spíš	-9.87589
▁slib	-9.87685
▁Český	-9.87858
▁Maďar	-9.88057
▁náměstí	-9.88057
▁zástupci	-9.88057
▁kontakt	-9.88057
▁někteří	-9.88069
▁přátel	-9.8807
▁delší	-9.8807
však	-9.88109
▁zaměstnání	-9.88111
▁září	-9.88111
▁hru	-9.88159
▁kilometrů	-9.88166
▁rukou	-9.88179
her	-9.88196
▁obsahuje	-9.88218
▁pokut	-9.8844
▁soudu	-9.8845
▁uživatel	-9.88565
TI	-9.88627
▁Bez	-9.88696
▁Spo	-9.88896
▁dovoz	-9.88967
stávají	-9.88973
▁věku	-9.89002
▁smysl	-9.89092
ČSSD	-9.89109
▁výsledek	-9.89109
cházet	-9.89109
▁cestovní	-9.89111
▁očekává	-9.89121
▁určitý	-9.89128
▁tvář	-9.89196
▁koncem	-9.89198
▁hodiny	-9.89265
▁obvod	-9.89411
▁zvyk	-9.89431
▁hmot	-9.89467
▁Karlov	-9.89467
▁přišel	-9.89543
▁druhů	-9.89545
▁mohly	-9.89554
▁oboru	-9.8965
▁zkušenosti	-9.89668
▁ředitele	-9.89714
áci	-9.89763
kovou	-9.89813
áků	-9.90128
atmosfér	-9.90173
▁Olomouc	-9.90173
▁aplikace	-9.90173
▁existuje	-9.90173
▁nejbližší	-9.90173
▁patnáct	-9.90173
▁podmínek	-9.90173
▁nebudou	-9.90174
▁zůstává	-9.90176
▁Může	-9.90176
▁česko	-9.90177
▁dnů	-9.90231
▁Pan	-9.90263
▁cíl	-9.90343
▁koalice	-9.90439
▁Kčs	-9.90544
▁aut	-9.90576
▁jednotliv	-9.90579
▁olympijský	-9.90598
▁objekty	-9.90634
▁hospodářské	-9.908
▁každého	-9.90855
▁rizik	-9.90891
▁NE	-9.90914
▁způsobil	-9.91015
▁stavební	-9.91167
▁úroveň	-9.91248
▁dospěl	-9.91248
▁Hlavní	-9.91249
▁památ	-9.91249
▁starší	-9.91257
▁výnos	-9.91271
▁formul	-9.91301
▁tady	-9.91329
▁úprav	-9.91357
HO	-9.91382
▁společný	-9.91394
▁slavn	-9.91409
▁osobnost	-9.91471
▁minulosti	-9.91587
EL	-9.91597
▁případně	-9.91788
onu	-9.91928
▁rychlost	-9.91934
▁fakult	-9.91976
▁Char	-9.91989
▁mal	-9.92095
▁Přes	-9.92127
▁čin	-9.92138
▁hrad	-9.92165
rab	-9.92172
▁metr	-9.92199
▁běžné	-9.92247
▁poslanci	-9.92336
▁pátek	-9.92336
▁praxi	-9.92338
▁dává	-9.92477
▁Jeden	-9.92478
▁Brně	-9.92552
▁určitě	-9.92558
▁soukrom	-9.9256
▁Každý	-9.92586
jet	-9.92618
NI	-9.92754
CI	-9.92911
▁německé	-9.92955
▁pracovat	-9.92961
▁kraj	-9.93107
měl	-9.93113
▁fin	-9.93149
▁příslušn	-9.93219
▁prvního	-9.93247
▁nedostat	-9.93347
▁sklad	-9.93426
▁důležité	-9.93434
▁vidět	-9.93434
▁šanci	-9.93435
▁rekord	-9.93436
▁příkaz	-9.9344
pustit	-9.93531
▁postižen	-9.93549
▁přijal	-9.93565
▁smí	-9.9358
pek	-9.93762
▁světový	-9.93866
KA	-9.93886
ON	-9.93953
▁krajin	-9.93976
▁lékaře	-9.94006
IS	-9.9414
▁cest	-9.9414
▁oblast	-9.94166
ložení	-9.94189
rp	-9.94212
▁roční	-9.94226
▁výrobce	-9.94545
▁zvířat	-9.94545
▁návrat	-9.94545
▁uvědom	-9.94546
▁Musí	-9.94565
▁síly	-9.94571
▁volbách	-9.94627
▁odpovídá	-9.94683
▁stačí	-9.94708
▁komor	-9.94744
▁léta	-9.94766
▁července	-9.94768
▁nikoliv	-9.94827
▁kvality	-9.94832
▁mám	-9.94861
taj	-9.9488
▁Nové	-9.94885
▁hráče	-9.94971
▁dny	-9.95002
▁loňské	-9.9509
▁tun	-9.95111
▁NA	-9.95236
áni	-9.95337
zoval	-9.95346
ona	-9.95467
▁změnit	-9.95484
pel	-9.95508
▁Německa	-9.95527
▁hráč	-9.95566
dali	-9.95583
▁hromad	-9.95669
▁týdne	-9.95669
▁zemřel	-9.95673
▁prodeje	-9.95685
raději	-9.95702
▁knihy	-9.95737
▁jediné	-9.95752
pořád	-9.95851
mor	-9.95853
wa	-9.95972
▁podstatě	-9.95978
KO	-9.96083
vající	-9.96153
▁zranění	-9.96157
▁tisku	-9.96182
▁nákladů	-9.96191
nce	-9.96225
▁členy	-9.9627
pře	-9.96301
▁voleb	-9.96328
▁záležitost	-9.9634
skal	-9.96353
ROM	-9.96396
▁zákazníků	-9.96643
▁Fran	-9.96751
▁35	-9.96767
níku	-9.96796
▁Ministerstv	-9.96805
▁analýz	-9.96805
▁oprávněn	-9.96805
▁technologie	-9.96805
▁víkend	-9.96805
▁výrobu	-9.96806
▁tepla	-9.96811
stoupit	-9.96811
▁představitelé	-9.96813
▁obviněn	-9.96814
▁vrátil	-9.96839
▁úplně	-9.96848
dvacet	-9.96888
▁dělat	-9.96901
▁investiční	-9.96915
▁objem	-9.9698
▁zkouš	-9.97013
▁nájem	-9.97109
boj	-9.97112
▁přehled	-9.97117
▁rozšíření	-9.9712
▁druhou	-9.97203
▁ekonom	-9.97295
▁Již	-9.97308
pád	-9.97467
AR	-9.9749
áním	-9.9757
▁doba	-9.97578
kový	-9.97593
▁elektron	-9.97644
set	-9.97663
▁park	-9.97817
▁polovin	-9.97944
▁techniky	-9.97945
▁družstev	-9.97955
▁příspěvk	-9.97955
▁zásob	-9.97955
▁nezbytn	-9.97955
▁síť	-9.97969
stoupí	-9.9798
kombin	-9.98013
▁Nad	-9.98046
▁technické	-9.98152
▁dějin	-9.98182
ávají	-9.9824
▁míry	-9.98278
▁celá	-9.98287
ckého	-9.98288
▁staré	-9.98299
▁omezen	-9.98362
▁vývoje	-9.98378
▁podnikatele	-9.98419
▁seznam	-9.98466
bře	-9.98475
▁liber	-9.98496
▁zprávy	-9.98551
oma	-9.98599
▁použit	-9.98619
▁činí	-9.98731
▁90	-9.98792
▁jakým	-9.98838
▁Nový	-9.98886
▁kola	-9.98958
značně	-9.98992
▁pochyb	-9.99008
▁scén	-9.9908
▁olympiád	-9.99117
▁vytvořit	-9.99117
▁úspor	-9.99124
okres	-9.99135
▁studiu	-9.99141
▁dvakrát	-9.99194
▁Ústav	-9.99205
▁drobn	-9.99277
▁drah	-9.99353
NO	-9.99399
skoro	-9.99435
▁volby	-9.99443
▁500	-9.99447
▁chcete	-9.99522
▁podnikatelů	-9.99687
lka	-9.99718
▁vlastnosti	-9.99741
▁ruské	-9.99776
▁Vol	-9.99891
60	-10.001
▁vývoz	-10.0014
rez	-10.0016
▁Španěl	-10.0029
▁financí	-10.0029
▁zjistil	-10.0029
kázat	-10.003
▁Františ	-10.003
mž	-10.0033
▁Kdyby	-10.0044
▁bytů	-10.0045
▁počítá	-10.0046
nové	-10.0049
▁konečně	-10.0051
kům	-10.0052
kraji	-10.0077
▁soupeř	-10.0083
kám	-10.0092
▁staro	-10.0095
▁Lib	-10.0108
izovat	-10.012
izace	-10.0121
▁Asi	-10.0121
Ř	-10.0125
▁pravidel	-10.0128
▁domu	-10.0128
▁SR	-10.0137
▁Její	-10.0143
ll	-10.0143
▁federace	-10.0148
▁firmě	-10.0148
▁výsledků	-10.0148
▁zpracování	-10.0148
▁použít	-10.0148
▁Všechny	-10.0148
▁tradic	-10.015
▁současnosti	-10.0151
▁Rozhod	-10.0153
zhledem	-10.016
▁evropských	-10.0161
▁jít	-10.0161
může	-10.0165
▁fotbalové	-10.0175
▁včerejší	-10.0187
ativní	-10.0192
ler	-10.0197
▁dvaceti	-10.0197
dělal	-10.02
▁hranice	-10.0204
nést	-10.0205
▁úrok	-10.0209
▁Kub	-10.021
▁obrany	-10.0221
myšlen	-10.0237
vnitř	-10.0242
▁nerv	-10.0247
▁náklad	-10.0248
▁maximáln	-10.0249
▁bodů	-10.025
JE	-10.025
▁probíh	-10.0253
▁bezpečnostní	-10.0258
▁snah	-10.0262
▁návrhu	-10.0262
nějších	-10.0265
▁vojenské	-10.0265
▁Německu	-10.0266
▁Společenství	-10.0269
▁Vladimír	-10.0269
▁investor	-10.0269
▁nejlépe	-10.0269
▁Právě	-10.0269
▁zbraní	-10.0269
▁sekund	-10.027
▁relativn	-10.027
▁žen	-10.0272
▁Běh	-10.0276
▁pravděpodobně	-10.0279
▁původně	-10.0279
▁realiz	-10.0284
ávání	-10.0291
▁průmyslu	-10.0303
ckých	-10.0303
▁Měl	-10.0304
rozměr	-10.0314
▁míru	-10.0317
▁změnil	-10.0318
▁Hus	-10.0319
har	-10.0326
▁dokázal	-10.033
▁roze	-10.033
▁amerických	-10.0331
▁dvacet	-10.0332
▁Firma	-10.0335
▁objeví	-10.0339
▁někter	-10.0354
▁silnic	-10.0355
dis	-10.0357
▁Kol	-10.0362
ins	-10.0365
▁šíř	-10.0368
▁cílem	-10.0379
řízení	-10.039
▁dlouhé	-10.0391
▁předpokládá	-10.0391
▁udělat	-10.0391
▁dokáže	-10.0391
MU	-10.0392
▁formát	-10.0392
▁patrně	-10.0394
ovanou	-10.0401
▁hodnot	-10.041
bírá	-10.0413
pak	-10.0422
▁charakter	-10.0432
sadil	-10.0432
10	-10.0434
RU	-10.045
▁sněmovny	-10.0455
▁vhodné	-10.0455
ovce	-10.0459
elné	-10.0464
bývají	-10.0466
80	-10.047
DO	-10.0478
▁kurz	-10.0485
oje	-10.0493
lib	-10.0493
▁pracuje	-10.0495
▁slovo	-10.0498
▁armád	-10.0499
▁osoby	-10.05
▁komunik	-10.051
▁informační	-10.0514
▁hovoří	-10.0514
▁využívá	-10.0514
▁subjekt	-10.0514
▁čísla	-10.0514
▁využití	-10.0515
▁brzy	-10.0515
▁kanál	-10.0517
▁možný	-10.052
▁80	-10.052
▁pozná	-10.0525
▁pravda	-10.0529
ební	-10.053
▁příležitost	-10.0544
kan	-10.0554
▁zajímav	-10.0557
31	-10.0564
▁těmi	-10.0571
▁Par	-10.0583
tion	-10.0588
▁proud	-10.0592
▁Japonsk	-10.0606
▁veřejnosti	-10.0608
▁rokem	-10.061
▁vlast	-10.0612
▁Fa	-10.0626
▁mini	-10.0633
▁dovolenou	-10.0639
▁místopředsed	-10.0639
▁nemohou	-10.0639
▁většinu	-10.0639
▁rezerv	-10.0639
▁schválen	-10.0639
▁jinde	-10.0639
▁podzim	-10.0639
▁péče	-10.0639
▁vědět	-10.064
▁Profit	-10.064
dělit	-10.064
▁oceán	-10.064
▁růstu	-10.0643
▁začne	-10.0643
▁prostoru	-10.0646
přes	-10.0665
▁molekul	-10.0666
▁lidský	-10.067
▁zisku	-10.0671
▁vládě	-10.0674
▁Ke	-10.0675
▁Kla	-10.0675
ovaným	-10.0676
rst	-10.0687
ivost	-10.0693
▁kolo	-10.0699
▁dát	-10.07
▁volné	-10.0703
▁témat	-10.0707
bere	-10.071
▁denně	-10.0714
▁ženy	-10.0716
▁Fr	-10.0716
▁národního	-10.0718
▁ústavu	-10.0724
▁Chorvatsk	-10.0724
▁takovou	-10.0727
▁2000	-10.0745
ickém	-10.0751
▁neznám	-10.0752
▁čele	-10.0754
OU	-10.0756
dával	-10.0762
▁poslanec	-10.0763
▁Sam	-10.0763
▁pokračovat	-10.0766
▁sluneční	-10.0766
▁podepsal	-10.0766
▁pozadí	-10.0766
▁látky	-10.0768
▁posíl	-10.0768
▁nechce	-10.0771
▁kruh	-10.0773
▁severní	-10.0779
▁vědecké	-10.0783
loží	-10.0786
▁26	-10.0793
▁snížení	-10.0796
▁New	-10.0797
▁veřejnost	-10.0798
▁mění	-10.0801
▁II	-10.0805
▁vytvořil	-10.0806
▁stala	-10.0826
slovensk	-10.0827
bin	-10.083
ejme	-10.084
▁1,	-10.0848
demokratick	-10.0852
▁prací	-10.0856
▁potřebné	-10.0857
▁současn	-10.0859
▁demokrat	-10.0865
▁prac	-10.0872
ista	-10.0874
ňovat	-10.0877
▁účt	-10.0878
▁Nez	-10.0891
▁UEFA	-10.0894
▁demokracie	-10.0894
▁důležitý	-10.0894
▁hodnocení	-10.0894
▁oficiální	-10.0894
▁televizi	-10.0894
▁naprosto	-10.0894
▁označil	-10.0894
▁potenciál	-10.0894
▁důkaz	-10.0894
▁Spojený	-10.0895
▁Havel	-10.0895
▁kurs	-10.0896
▁pojistné	-10.0896
▁příslušné	-10.0896
▁nijak	-10.0897
▁neví	-10.0897
▁zaměřen	-10.0897
kládat	-10.09
▁okamžitě	-10.0908
▁ukazuje	-10.0913
▁vlád	-10.0921
▁stalo	-10.0924
▁300	-10.0935
ung	-10.094
bývající	-10.0945
nova	-10.0952
vel	-10.0954
▁bezpečnosti	-10.0955
bla	-10.0962
hel	-10.0962
dávat	-10.0968
▁Ex	-10.0976
▁samostatn	-10.0976
▁nebyly	-10.0978
▁zabývá	-10.099
DE	-10.0994
▁28	-10.0995
▁procesu	-10.0996
ovského	-10.0999
níky	-10.1
▁cesty	-10.1007
▁Sta	-10.1008
▁rada	-10.1011
▁podstat	-10.1012
tický	-10.1013
leté	-10.1014
ovu	-10.1016
▁majetek	-10.1024
▁počasí	-10.1024
▁šedesát	-10.1024
▁řečeno	-10.1024
▁realit	-10.1025
NA	-10.1025
▁protest	-10.1026
vrátit	-10.1026
staví	-10.1027
RE	-10.1033
NÁ	-10.1039
▁novel	-10.104
▁členové	-10.1046
▁uložen	-10.1048
▁proměn	-10.1054
▁téma	-10.1058
oři	-10.1059
▁stanice	-10.1059
▁potřeby	-10.107
▁dokonč	-10.1082
AV	-10.1086
▁Bud	-10.1088
MI	-10.1091
▁vytvořen	-10.1096
mořsk	-10.1101
▁kanceláře	-10.1107
klád	-10.1111
rám	-10.1115
▁body	-10.1128
běhl	-10.1133
▁pole	-10.1136
▁vzniku	-10.1139
▁standard	-10.1144
▁onemocnění	-10.1156
▁požadavky	-10.1156
▁rozhodně	-10.1156
▁příjmy	-10.1156
▁názvem	-10.1156
▁učitel	-10.1156
▁vládu	-10.1162
▁lékaři	-10.1162
▁lidem	-10.1166
něk	-10.1167
▁dosáhnout	-10.1174
▁řady	-10.1185
▁teplo	-10.1188
▁získá	-10.1189
▁nehod	-10.1192
slyš	-10.1199
▁Slovensku	-10.1205
▁nezávisl	-10.1206
▁Ben	-10.1212
▁zahájení	-10.122
▁odst	-10.1226
▁dodává	-10.1227
▁vodní	-10.1228
▁Nová	-10.1231
▁krátk	-10.1242
▁systémů	-10.1246
▁ekonomiky	-10.1248
▁No	-10.1251
▁Dva	-10.1253
produkt	-10.1255
▁hlavního	-10.1281
▁potravin	-10.1289
▁Svobod	-10.1289
▁funkcí	-10.1289
▁konference	-10.1289
▁televize	-10.1289
▁vánoční	-10.1289
▁Novotn	-10.129
▁policejní	-10.129
▁ligy	-10.129
▁odborné	-10.129
▁odchod	-10.129
stru	-10.1291
MA	-10.1298
kládání	-10.1301
šp	-10.1304
▁viděl	-10.1309
▁třicet	-10.1325
volat	-10.1325
▁výš	-10.1329
▁nejde	-10.1331
▁Státní	-10.1333
▁celém	-10.1337
kyně	-10.1339
▁zákony	-10.1349
▁vybaven	-10.135
▁Velk	-10.1362
▁vztahu	-10.1363
lidov	-10.1363
▁jednak	-10.1364
istů	-10.1366
ick	-10.1368
▁mechaniky	-10.1369
▁soutěž	-10.1379
▁společného	-10.1379
▁jednat	-10.1389
▁odpad	-10.1412
bil	-10.1414
▁právnick	-10.1423
▁dodavatel	-10.1424
▁Prezident	-10.1424
▁poskytuje	-10.1424
▁zásah	-10.1424
▁Československu	-10.1424
▁připravil	-10.1424
▁PowerPoint	-10.1424
▁příbuzn	-10.1424
▁zločin	-10.1424
▁vnitra	-10.1425
▁velká	-10.1426
▁mikro	-10.1429
vedou	-10.1434
▁troj	-10.144
vest	-10.1442
▁Oba	-10.1445
▁přístupu	-10.1448
▁Společnost	-10.1449
▁nechal	-10.1452
ecká	-10.1458
hodný	-10.146
▁aktiv	-10.1462
věřil	-10.1464
kají	-10.1464
▁hod	-10.1473
klep	-10.1477
▁rychlostí	-10.1482
mark	-10.1485
▁druhá	-10.1492
▁map	-10.1497
▁totem	-10.1506
▁úst	-10.1509
▁druhého	-10.1515
▁dvoj	-10.1517
▁zub	-10.1517
dané	-10.1522
▁Aby	-10.1523
▁posun	-10.1526
▁Velké	-10.1532
rot	-10.1541
počítá	-10.1543
▁Vše	-10.1547
▁radost	-10.1548
▁27	-10.1557
▁zobraz	-10.1559
▁řekla	-10.156
▁povinnost	-10.1561
▁Francouz	-10.1561
▁Olymp	-10.1561
▁kláves	-10.1561
▁servis	-10.1561
▁zemědělství	-10.1561
▁parametr	-10.1561
▁Sovětské	-10.1561
▁spotřebitel	-10.1561
▁Belgi	-10.1561
▁zákoníku	-10.1561
jedině	-10.1562
▁ohledu	-10.1564
▁látek	-10.1564
EC	-10.1564
▁zaplatí	-10.1564
▁škody	-10.1564
▁zvuk	-10.1565
▁měsících	-10.1566
▁desítky	-10.1568
▁najít	-10.1568
▁důsled	-10.1569
▁Čechách	-10.1571
▁hotov	-10.1571
▁soused	-10.1577
▁Per	-10.1579
▁Atlantě	-10.1584
▁parlamentní	-10.1586
▁chlad	-10.1586
▁novinář	-10.159
▁předsed	-10.159
▁novým	-10.1594
▁lékařů	-10.16
brž	-10.1606
▁hladin	-10.1609
▁druhu	-10.1611
▁závěru	-10.1616
▁myslí	-10.1619
▁akt	-10.1621
iletý	-10.1627
▁vydání	-10.1628
▁prost	-10.163
▁radi	-10.1635
▁jinou	-10.1638
art	-10.1638
86	-10.1652
▁jakou	-10.1657
zemní	-10.1662
▁My	-10.1662
▁město	-10.1667
▁takového	-10.1674
árně	-10.1678
odpovědn	-10.1679
ičky	-10.1681
▁napsal	-10.1682
48	-10.1693
prázdn	-10.1693
▁souboru	-10.1695
znamená	-10.1699
▁hudební	-10.17
▁tradiční	-10.17
▁ustanovení	-10.17
▁výrobců	-10.17
▁distribu	-10.17
▁schopen	-10.17
▁těžký	-10.17
▁Francie	-10.17
▁nabídku	-10.17
▁Národní	-10.17
▁snímků	-10.17
▁pořadatel	-10.1701
jedno	-10.1702
pustí	-10.1702
▁nápad	-10.1705
▁znak	-10.1706
▁uplatnění	-10.171
▁dalšího	-10.172
▁nově	-10.1732
méně	-10.1734
padá	-10.1734
▁Jin	-10.1739
▁sbír	-10.174
▁současný	-10.1744
▁státech	-10.1745
▁zákonů	-10.175
▁ráno	-10.1754
▁správy	-10.1757
▁přijde	-10.1766
▁zvýšen	-10.1772
▁symbol	-10.1779
jímá	-10.1786
▁hranic	-10.1786
▁ekonomik	-10.179
řka	-10.1799
VA	-10.1803
▁daní	-10.1813
▁míč	-10.182
▁výběru	-10.1821
ony	-10.1825
▁Nov	-10.1826
věřit	-10.1826
▁mimořádn	-10.1839
▁rozpočet	-10.1841
▁těžké	-10.1841
▁využít	-10.1841
šky	-10.1841
▁expert	-10.1841
▁způsoben	-10.1841
▁přijetí	-10.1841
▁působení	-10.1843
▁odměn	-10.1843
▁řešit	-10.1843
▁Západ	-10.1844
▁klasick	-10.1844
▁rozhovor	-10.1847
▁hodlá	-10.1847
▁školství	-10.1848
▁tentokrát	-10.1848
OH	-10.1851
▁převážně	-10.1852
▁zajistit	-10.1853
bíd	-10.1855
▁Kam	-10.1857
▁cit	-10.1859
čila	-10.187
▁Takže	-10.1882
▁vyplývá	-10.1882
▁pořadí	-10.1883
▁vysokou	-10.1891
▁trestní	-10.1894
▁řeč	-10.1895
▁částky	-10.1898
▁Mnoh	-10.1901
utí	-10.1901
▁okamžiku	-10.1908
▁přístroj	-10.1911
▁domov	-10.1914
▁%.	-10.1916
▁demokratické	-10.192
▁seznamu	-10.1921
▁slovenské	-10.193
▁uvaž	-10.1945
tav	-10.1946
trh	-10.1946
▁takovém	-10.195
ria	-10.195
▁začali	-10.1959
▁jiná	-10.1968
▁smrt	-10.197
▁nesmí	-10.1979
munist	-10.1981
▁speciali	-10.1982
▁150	-10.1982
▁dopravní	-10.1983
▁kritéri	-10.1984
▁bohužel	-10.1984
▁družstva	-10.1984
▁nejrůznější	-10.1984
▁nepříjemn	-10.1984
▁spolupráce	-10.1984
▁povolení	-10.1984
dostatečně	-10.1984
▁Mezinárodní	-10.1984
řídil	-10.199
▁400	-10.1992
▁chybí	-10.2002
▁místech	-10.2009
ble	-10.2009
▁směrem	-10.2011
reform	-10.2013
▁ceně	-10.2014
▁udělal	-10.2014
▁Ri	-10.2023
▁cestou	-10.2028
▁údajů	-10.203
▁městské	-10.2033
▁moře	-10.2034
▁chtěli	-10.2036
▁nebezpečn	-10.204
▁nim	-10.2045
▁obcí	-10.2045
pracovat	-10.2055
40	-10.2061
▁společensk	-10.2062
bili	-10.2064
ctví	-10.2066
ive	-10.2067
▁údaj	-10.2068
▁zdroj	-10.2084
▁Ře	-10.209
▁Německ	-10.2092
vala	-10.2093
▁Or	-10.2096
▁typick	-10.2099
▁názory	-10.21
ička	-10.2109
▁jestli	-10.2124
hřeb	-10.2125
▁filozof	-10.2128
▁pondělí	-10.2129
▁prezentaci	-10.2129
▁průzkum	-10.2129
vádět	-10.2129
▁výtvarn	-10.2129
▁jistot	-10.2129
▁uspořáda	-10.2129
▁devět	-10.2129
▁vyslovil	-10.2129
▁změna	-10.2129
▁Paříž	-10.213
▁odbyt	-10.2131
ovky	-10.2131
▁smluvní	-10.2131
▁video	-10.2133
razí	-10.2134
▁poloh	-10.2135
držení	-10.2137
▁měsíční	-10.2138
▁Ste	-10.2141
▁doplň	-10.2144
▁Čern	-10.2149
▁předtím	-10.2152
▁Fin	-10.2153
▁pravidelně	-10.2154
▁máte	-10.2162
rej	-10.2178
▁vzdálenost	-10.2183
▁myslím	-10.2188
▁žádn	-10.2189
ičtí	-10.2207
▁odpor	-10.2213
▁Fo	-10.2217
▁styk	-10.2221
▁turnaj	-10.223
▁vzdálen	-10.2239
▁výzkumu	-10.2239
▁armády	-10.2244
řídit	-10.2248
tud	-10.2268
▁pravomoc	-10.2276
▁Poslední	-10.2276
▁konferenci	-10.2276
▁podmínkách	-10.2276
▁příjmů	-10.2276
▁zdravotnick	-10.2276
▁úrovně	-10.2276
▁června	-10.2276
▁HIV	-10.2276
▁rostlin	-10.2276
▁obsazen	-10.2276
▁slouží	-10.2276
▁detail	-10.2276
▁spoust	-10.2277
▁radnice	-10.2279
▁Mlad	-10.2284
▁závěrečn	-10.2284
▁Pavl	-10.2285
▁uvedla	-10.229
▁rovin	-10.2293
▁Zákon	-10.2293
▁Čas	-10.2296
▁výjimkou	-10.2296
▁půd	-10.2301
▁LN	-10.2306
▁vztahy	-10.2306
▁podpis	-10.231
bran	-10.2323
číst	-10.2325
tickou	-10.2326
▁velikost	-10.2329
hem	-10.2331
▁daň	-10.2335
▁Lab	-10.2336
▁případů	-10.2336
AL	-10.2344
▁částku	-10.2349
▁politiku	-10.2351
▁různ	-10.2354
▁německý	-10.2354
▁vysoký	-10.2354
▁taková	-10.2355
▁politický	-10.2355
▁systémy	-10.236
▁mechanika	-10.2364
▁Han	-10.2368
▁soukromé	-10.2373
koupil	-10.2378
▁součást	-10.2381
▁daňové	-10.2381
▁Každ	-10.2391
▁konkurence	-10.2399
20	-10.2402
▁optim	-10.2422
▁architekt	-10.2424
▁Největší	-10.2425
▁Současn	-10.2425
▁diplomat	-10.2425
▁tvrzení	-10.2425
▁účetnictví	-10.2425
▁většině	-10.2425
vádějí	-10.2425
▁jedenáct	-10.2425
▁požadovan	-10.2425
▁kapitol	-10.2425
▁války	-10.2425
▁aliance	-10.2426
▁brankář	-10.2426
▁čtyřicet	-10.2428
▁Bra	-10.2434
▁centra	-10.244
▁směru	-10.2443
▁Jedin	-10.2444
razit	-10.2446
▁modern	-10.2454
▁změnu	-10.2454
▁vědy	-10.2462
▁jednoznačně	-10.2466
▁Naše	-10.2466
▁museli	-10.2467
▁tiskové	-10.2478
▁sedmi	-10.248
▁váš	-10.2482
děk	-10.2485
▁rodiny	-10.2494
▁vydal	-10.2494
▁PRO	-10.2498
kazuje	-10.2504
▁jím	-10.2504
▁pražský	-10.2514
ologické	-10.2529
75	-10.2534
▁známé	-10.2534
▁němu	-10.2537
▁skupině	-10.2538
kář	-10.2547
řazen	-10.2554
▁hospod	-10.2561
▁spol	-10.2565
▁náhrad	-10.2566
▁nepod	-10.2568
▁aktivity	-10.2574
▁Evropa	-10.2576
▁Gorbačov	-10.2576
▁většiny	-10.2576
▁politice	-10.2576
▁vždycky	-10.2576
▁prohrál	-10.2576
▁schéma	-10.2577
▁záruk	-10.2577
▁individuální	-10.2577
▁začít	-10.2579
▁nemocnice	-10.2581
▁třemi	-10.2588
▁hodnotu	-10.2592
▁Jenže	-10.2592
▁obdobn	-10.2592
▁zvukov	-10.2593
▁odpovědnost	-10.2599
▁leží	-10.26
▁polovinu	-10.2603
▁dluh	-10.2605
▁Jedna	-10.2609
▁pořádku	-10.2616
▁Německo	-10.2635
▁nutno	-10.2636
▁hlasování	-10.2637
▁agentur	-10.2638
▁pracovníci	-10.264
▁Václava	-10.265
▁diváků	-10.2653
▁budoucnosti	-10.2659
▁dodá	-10.2661
▁proveden	-10.2665
▁změně	-10.2666
▁univerzity	-10.267
▁Bi	-10.267
▁Rusko	-10.2672
▁oslav	-10.2676
▁předsedy	-10.2684
míněn	-10.2695
▁životě	-10.2714
▁dělá	-10.2717
▁Kor	-10.2724
▁AIDS	-10.273
▁Británie	-10.273
▁management	-10.273
▁publika	-10.273
▁obyvatelstva	-10.273
▁vzdělání	-10.273
▁srpna	-10.273
▁Možná	-10.273
▁super	-10.2735
▁Vždyť	-10.2738
▁Bur	-10.2746
▁nástup	-10.2748
běžně	-10.2756
▁námi	-10.2759
▁konec	-10.276
▁studentů	-10.2775
IT	-10.278
▁lidské	-10.2782
telné	-10.2783
▁Slov	-10.2786
▁Škoda	-10.2796
▁důsledku	-10.2804
▁používá	-10.2804
▁čase	-10.2804
▁známý	-10.2805
▁miliony	-10.2809
tická	-10.2809
▁oči	-10.2815
líbil	-10.282
LO	-10.2822
▁nutnost	-10.2827
ároveň	-10.283
▁překvap	-10.2832
▁mnohé	-10.2835
▁pán	-10.2837
▁hlasů	-10.2838
▁stroje	-10.284
▁složení	-10.285
▁známo	-10.2855
▁přítomnost	-10.286
▁takových	-10.2867
▁běžný	-10.2869
▁jejího	-10.2873
▁uvedené	-10.2881
▁aktivní	-10.2885
▁katastrof	-10.2886
▁normální	-10.2886
▁tajemství	-10.2886
▁uspořádání	-10.2886
▁připravuje	-10.2886
▁očekávat	-10.2886
▁personál	-10.2886
▁silniční	-10.2886
hovořil	-10.2886
▁název	-10.2887
▁výprav	-10.2887
▁čísle	-10.2887
▁piva	-10.2887
▁buněk	-10.2887
směs	-10.2892
▁verze	-10.2893
▁prázdnin	-10.2894
lín	-10.2894
▁tráv	-10.2897
neme	-10.29
ica	-10.29
snad	-10.2901
▁narozen	-10.2902
▁Prav	-10.2905
▁zdalek	-10.2905
▁průměru	-10.2906
▁státních	-10.2915
▁stop	-10.2915
▁Slav	-10.2917
▁zařazen	-10.2923
▁paní	-10.2929
ěji	-10.2929
▁pravé	-10.2934
▁chceme	-10.2938
pir	-10.294
▁příštím	-10.2949
▁úřady	-10.295
▁fan	-10.2958
▁americký	-10.2974
▁zájm	-10.2974
jmenován	-10.298
▁poznání	-10.2983
▁dochází	-10.2988
▁počítačů	-10.2989
▁jiným	-10.2993
▁povinnosti	-10.2999
▁směn	-10.3
▁Karl	-10.3014
▁zásadní	-10.3018
procentní	-10.3024
▁přizpůsob	-10.3027
▁argument	-10.3045
▁režisér	-10.3045
▁vyžaduje	-10.3045
▁zpravodaj	-10.3045
▁zřejmé	-10.3045
▁dialog	-10.3045
▁zůstat	-10.3045
▁občas	-10.3045
▁pachatel	-10.3045
▁přírody	-10.3045
▁fotograf	-10.3046
▁trend	-10.3046
▁privatizaci	-10.3047
▁Úřad	-10.3048
▁marek	-10.3048
▁ostr	-10.3052
▁sdělil	-10.3053
▁Karel	-10.3055
▁článku	-10.3059
ívají	-10.3068
▁vyjádřil	-10.3069
▁vánoce	-10.3075
ňují	-10.3076
▁jaderné	-10.3076
▁banka	-10.3082
▁volný	-10.3083
▁velko	-10.3091
▁sovětské	-10.3102
▁premiéra	-10.3102
▁soudní	-10.3104
▁Tři	-10.3105
▁hlavních	-10.3107
▁univerzit	-10.3108
▁odborníků	-10.3115
▁sam	-10.3119
ór	-10.3121
▁okresní	-10.3125
▁příštího	-10.3128
▁pozitivní	-10.313
▁muži	-10.3132
▁agentury	-10.3147
▁jaderný	-10.3148
▁částí	-10.3159
▁Ostrava	-10.3159
▁úvahu	-10.3159
šování	-10.3162
▁kvalitu	-10.3163
šly	-10.3184
▁zajímavé	-10.319
▁restaur	-10.3203
▁96	-10.3205
▁Miroslav	-10.3206
▁Myslím	-10.3206
▁jména	-10.3206
▁nemovitost	-10.3206
▁organizací	-10.3206
▁perspektiv	-10.3206
▁tlačítko	-10.3206
▁čtrnáct	-10.3206
▁zahájil	-10.3206
▁požádal	-10.3207
▁věnovat	-10.3207
▁začínají	-10.3207
▁historii	-10.3207
▁válce	-10.3207
▁následn	-10.3207
▁rozhlas	-10.3207
▁konstru	-10.3211
tvrdil	-10.3212
▁Sever	-10.3213
▁Inter	-10.3217
▁roste	-10.3217
85	-10.3225
▁Česko	-10.3226
▁Mark	-10.323
▁vaší	-10.3233
▁ztratil	-10.3236
▁jaká	-10.3239
▁obran	-10.3252
▁nedá	-10.3265
EM	-10.327
▁liší	-10.3276
▁politika	-10.328
▁přísn	-10.3288
▁projektu	-10.3294
izované	-10.3313
▁přeprav	-10.3319
▁režimu	-10.3329
▁soutěži	-10.3329
▁Moh	-10.333
▁bit	-10.3333
▁mechanik	-10.334
▁barev	-10.3345
▁kultur	-10.3352
▁programy	-10.3358
▁překr	-10.336
úpln	-10.3364
▁druhy	-10.3367
ěkteří	-10.3369
TO	-10.3369
▁jednoduché	-10.337
▁kabinet	-10.337
▁nabízejí	-10.337
▁tajemník	-10.337
▁závažn	-10.337
▁1995	-10.337
▁považován	-10.337
▁Někd	-10.337
▁Základní	-10.3371
▁snížil	-10.3371
sloužil	-10.3371
▁špatné	-10.3371
▁zůstane	-10.3371
▁zvíře	-10.3371
▁pivovar	-10.3371
▁hormon	-10.3371
▁kolektiv	-10.3372
▁doktor	-10.3372
celku	-10.3372
▁dar	-10.3374
▁zimní	-10.3376
▁dopad	-10.3376
▁vývoji	-10.3378
▁Pal	-10.3383
povídá	-10.3384
▁výkonu	-10.3395
▁smlouva	-10.3399
▁úřadů	-10.3402
san	-10.3408
▁významný	-10.3423
▁obrovsk	-10.3424
/2	-10.3425
▁přestáv	-10.3433
▁déle	-10.3433
▁porazil	-10.3436
▁programů	-10.3445
▁postih	-10.3452
▁fotbalový	-10.3452
▁Stál	-10.3455
▁typů	-10.3455
▁doklad	-10.3459
letý	-10.3462
padal	-10.3474
cházející	-10.348
▁hotelu	-10.3484
dél	-10.3485
▁hranici	-10.3487
▁psa	-10.3488
▁západ	-10.3496
držet	-10.3515
hav	-10.3518
isty	-10.3519
▁existují	-10.3521
▁cesta	-10.3533
legislativ	-10.3537
▁globální	-10.3537
▁sponzor	-10.3537
▁závazk	-10.3537
▁monitor	-10.3537
▁řidič	-10.3537
▁úterý	-10.3537
▁výbuch	-10.3537
▁iniciativ	-10.3537
▁kapalin	-10.3537
▁Lidé	-10.3538
▁Letos	-10.3538
▁akademi	-10.3538
▁včas	-10.3538
▁někdejší	-10.3538
▁černo	-10.3539
dent	-10.3539
▁šance	-10.3541
▁veškeré	-10.3544
▁typy	-10.3545
▁jestliže	-10.3546
elná	-10.3548
▁lednu	-10.3552
▁děd	-10.3555
▁odborník	-10.3558
▁republika	-10.3563
▁chud	-10.3574
▁pořad	-10.3575
▁podnikatelské	-10.3575
hrát	-10.3578
▁riziko	-10.3593
padají	-10.3595
▁končí	-10.3599
▁ruce	-10.3603
▁anti	-10.3604
▁oblastí	-10.3607
▁hledání	-10.361
sát	-10.3614
72	-10.3616
▁Sv	-10.3616
▁pacientů	-10.362
▁soudí	-10.3634
▁malá	-10.3636
čan	-10.3643
▁profesionální	-10.3644
▁značné	-10.3644
▁získala	-10.3646
▁skutečné	-10.3648
▁dům	-10.3658
▁Nebo	-10.3659
▁uzná	-10.3671
▁Jedn	-10.3674
ráže	-10.368
land	-10.3685
▁kont	-10.3688
▁problémem	-10.3689
▁muže	-10.3694
▁poznat	-10.3697
▁nejdříve	-10.3707
▁používat	-10.3707
▁zvlášť	-10.3707
▁Federální	-10.3707
▁trénink	-10.3707
▁Lékař	-10.3707
▁útvar	-10.3707
▁verzi	-10.3707
▁potíže	-10.3707
▁pěkn	-10.3707
▁mzdy	-10.3707
▁najednou	-10.3708
▁shromáždění	-10.3711
▁členství	-10.3712
budete	-10.3713
▁vystoupení	-10.3714
▁výklad	-10.3714
▁palác	-10.3714
operační	-10.3716
▁Zdá	-10.3717
▁studie	-10.3719
▁úmysl	-10.3721
▁tabulky	-10.3723
▁zbytečn	-10.3723
▁sluš	-10.3725
cvič	-10.3725
▁experiment	-10.3728
▁odpověď	-10.3729
▁Změn	-10.3734
▁stranu	-10.3736
▁rozdělení	-10.3748
▁děje	-10.375
▁zápase	-10.3753
SA	-10.3767
ečná	-10.3772
▁budu	-10.3774
▁centru	-10.3775
▁kapitálu	-10.3775
▁svému	-10.3779
TE	-10.3788
▁označení	-10.3795
psané	-10.3798
▁dávno	-10.3801
▁Chce	-10.3807
▁Her	-10.3811
▁vznikla	-10.3814
▁Auto	-10.3815
▁lékařské	-10.3817
zdrav	-10.3818
▁třetím	-10.3818
brat	-10.3823
▁vztahů	-10.3828
▁zprávu	-10.383
▁dosah	-10.3837
váží	-10.3845
▁bytu	-10.3854
▁akcie	-10.3854
▁těsně	-10.3857
▁akcí	-10.3862
tabulk	-10.3863
▁časem	-10.3863
▁Michael	-10.3879
▁Nicméně	-10.3879
▁primátor	-10.3879
▁umožnil	-10.3879
▁hospodaření	-10.3879
▁katalog	-10.3879
▁prospěch	-10.3879
▁rozhodne	-10.3879
▁spočívá	-10.3879
▁výrobci	-10.3879
▁paragraf	-10.3879
▁Československa	-10.3879
▁domnívá	-10.3879
▁císař	-10.3879
▁odpovídající	-10.3879
▁Rus	-10.3881
▁zaměstnanci	-10.3881
ČSL	-10.3883
kovat	-10.3886
▁sedmdesát	-10.3898
▁nalezen	-10.3899
chůd	-10.39
▁délk	-10.39
▁počítači	-10.39
▁soukromých	-10.3903
▁MB	-10.3912
▁pozici	-10.3916
▁král	-10.3917
▁deník	-10.3918
▁odpadů	-10.3926
▁záznamník	-10.3928
▁údajn	-10.393
ejít	-10.3947
▁zaměstnavatel	-10.3952
▁písemn	-10.3956
▁vzpomín	-10.3959
▁přesun	-10.3959
tají	-10.3972
▁Ši	-10.3976
bel	-10.3979
▁sjezd	-10.3984
skými	-10.3993
ller	-10.4002
praví	-10.4007
▁ruský	-10.4007
▁určit	-10.401
▁programové	-10.4013
▁bíl	-10.4016
kin	-10.4021
▁pracoval	-10.4033
likvid	-10.4053
energetick	-10.4054
izraelsk	-10.4054
▁odběratel	-10.4054
▁odvětví	-10.4054
▁uchazeč	-10.4054
▁mechanismu	-10.4054
▁firmu	-10.4054
▁ohrožen	-10.4054
▁hrozí	-10.4054
▁mnozí	-10.4055
▁Tomáš	-10.4055
▁mozku	-10.4055
▁propag	-10.4055
▁Dále	-10.4056
▁hovor	-10.4057
▁Pohár	-10.4058
▁britské	-10.406
▁hledat	-10.406
▁DNA	-10.4062
▁prvků	-10.4066
▁horší	-10.4072
▁bezprostředn	-10.4075
▁vyrovná	-10.4079
▁Pražské	-10.408
▁pohybu	-10.4085
▁silné	-10.4089
▁půdě	-10.4097
▁vznikají	-10.4105
KU	-10.4107
▁získali	-10.4108
▁letošním	-10.411
▁vědomí	-10.4123
entní	-10.4126
▁budoucnost	-10.4137
▁vědeck	-10.4141
▁jiném	-10.4148
▁poměru	-10.4165
nesou	-10.4171
▁poháru	-10.4181
▁rozvoje	-10.4185
ohra	-10.4193
▁zemědělské	-10.4198
zaměstnan	-10.4207
náší	-10.4209
▁neroz	-10.4219
▁ochotn	-10.4229
▁případné	-10.4233
znamenat	-10.4233
▁Clinton	-10.4233
▁aplikací	-10.4233
▁problematik	-10.4233
▁upozornil	-10.4233
▁zdůraznil	-10.4233
▁Československo	-10.4233
▁Švédsk	-10.4233
▁natolik	-10.4233
▁Existuj	-10.4233
▁výrobě	-10.4233
▁výroba	-10.4233
▁informoval	-10.4233
▁rodiče	-10.4233
▁nechtěl	-10.4233
▁tudíž	-10.4233
▁podpory	-10.4233
▁bankovní	-10.4233
▁reprezentace	-10.4234
čištění	-10.4235
▁zmíněné	-10.4236
ticky	-10.4242
koupí	-10.4243
▁částečně	-10.4244
▁limit	-10.4245
▁vytváření	-10.4246
▁křiv	-10.4256
▁uzavření	-10.4263
▁Plat	-10.4268
IC	-10.4274
▁účasti	-10.4275
▁hospodářsk	-10.4276
▁režim	-10.4278
▁vlastností	-10.4279
▁přinesl	-10.4282
▁zavedení	-10.4289
▁teploty	-10.4292
▁centrální	-10.4297
▁umí	-10.43
▁Poté	-10.4304
▁zpráva	-10.4309
▁metody	-10.431
▁díla	-10.4311
▁platnost	-10.4314
▁zvěř	-10.4322
▁technick	-10.4339
▁účastníků	-10.4349
▁Ci	-10.435
▁ochranu	-10.4351
▁umístěn	-10.4353
▁ponech	-10.4369
▁klima	-10.4374
▁škole	-10.4398
istický	-10.4405
▁obecně	-10.4405
trpěl	-10.4415
▁neexistuje	-10.4415
▁odpoledne	-10.4415
▁rozhodčí	-10.4415
▁svědčí	-10.4415
▁zjednoduš	-10.4415
▁organismu	-10.4415
▁připojištění	-10.4415
▁konzerv	-10.4415
▁paměti	-10.4415
▁vyhlášen	-10.4415
▁stimul	-10.4415
▁pomalu	-10.4416
▁vyloučen	-10.4416
▁kvalifikaci	-10.4416
▁Americk	-10.4417
▁Milan	-10.4418
povídal	-10.442
▁připomíná	-10.4422
▁česká	-10.4424
▁dalšími	-10.4426
▁oblastech	-10.4428
▁dílo	-10.4436
▁povinn	-10.4442
žijí	-10.4443
▁Lidov	-10.4447
dor	-10.4456
▁pohledu	-10.4458
▁zkušenost	-10.446
▁nynější	-10.4467
▁karty	-10.4469
▁Slovenska	-10.4476
skok	-10.4481
▁sněmovn	-10.4503
▁olej	-10.4506
▁loňském	-10.4517
▁směr	-10.4518
▁materiálů	-10.4521
▁zraněn	-10.4521
pětí	-10.453
pravit	-10.4531
▁The	-10.4532
▁produk	-10.4544
tických	-10.4545
MO	-10.4547
▁nejvíc	-10.4553
inak	-10.4559
padlo	-10.4562
vir	-10.4565
▁kup	-10.4567
▁brněnské	-10.4569
▁potřeba	-10.457
▁cíle	-10.4571
▁poloviny	-10.4571
▁děj	-10.4572
▁integr	-10.4575
lární	-10.4587
volal	-10.4589
▁kód	-10.4591
▁vzájemné	-10.4592
▁koncentr	-10.4597
alternativ	-10.46
▁Itálie	-10.46
▁KSČM	-10.46
▁Londýn	-10.46
▁Ovšem	-10.46
▁Program	-10.46
▁konflikt	-10.46
▁maďarsk	-10.46
▁spolehliv	-10.46
▁výhradn	-10.46
▁zveřejněn	-10.46
▁úspěšně	-10.46
▁Ministr	-10.46
▁neustále	-10.46
▁stránce	-10.46
▁minimální	-10.46
▁rychlé	-10.46
▁desetiletí	-10.46
hlédnout	-10.46
▁snažil	-10.46
▁praxe	-10.46
▁záchran	-10.46
Vesmír	-10.46
▁chorob	-10.46
▁dodnes	-10.46
▁rozliš	-10.46
▁vysíla	-10.4601
▁nicméně	-10.4602
▁pouhý	-10.4603
▁vyjádření	-10.4603
▁paliv	-10.4605
▁činitel	-10.4605
▁úsek	-10.4605
▁regionální	-10.4606
▁desítek	-10.4607
▁duše	-10.4608
▁mírn	-10.4609
▁zdejší	-10.461
▁náhradní	-10.4613
▁turistick	-10.4615
▁Ital	-10.4616
▁rádi	-10.4618
▁důvodu	-10.462
▁vybrat	-10.4621
▁Ostravě	-10.4625
hání	-10.4631
▁určitou	-10.4637
▁ztráty	-10.4642
▁vlastnost	-10.4652
▁slev	-10.4661
▁registr	-10.4662
průměr	-10.4668
▁vymez	-10.4673
▁významné	-10.4684
▁soustavy	-10.4685
▁přístroje	-10.4701
▁konečn	-10.4701
▁chat	-10.4702
vítá	-10.4702
▁ročník	-10.4711
▁značn	-10.472
▁Bre	-10.4724
▁obrazu	-10.4724
▁zpráv	-10.4739
▁autorů	-10.4754
▁dohodu	-10.4771
▁Car	-10.4776
▁lov	-10.4778
třel	-10.4779
▁rozhovoru	-10.4781
▁Nejs	-10.4784
▁profesor	-10.4789
▁zúčastnil	-10.4789
▁Karadžič	-10.4789
▁Všichni	-10.4789
▁jednoduchý	-10.4789
▁náměstek	-10.4789
▁poptávky	-10.4789
▁teoretick	-10.4789
▁zvítězil	-10.4789
▁špatně	-10.4789
▁Naopak	-10.4789
▁jediná	-10.479
▁skvěl	-10.479
▁specializovan	-10.4791
▁poslance	-10.4791
▁Snad	-10.4792
▁zaměstnance	-10.4792
▁potřebují	-10.4792
▁čtení	-10.4793
▁koncentrace	-10.4793
▁kostel	-10.4794
▁odborníci	-10.4794
▁měření	-10.4799
▁nabídl	-10.4799
▁produktů	-10.4801
▁Výstav	-10.4801
▁okna	-10.4803
▁atlet	-10.4804
▁standardní	-10.4806
▁stráž	-10.4808
▁29	-10.4811
▁roh	-10.4812
▁statistick	-10.4814
▁vývozu	-10.4817
řez	-10.4829
vodí	-10.4843
▁stovky	-10.4844
▁úvah	-10.4846
▁pohár	-10.4848
▁vychází	-10.4849
▁milion	-10.485
▁automaticky	-10.4856
▁zrušení	-10.4863
▁záležitostí	-10.4867
▁přestup	-10.4873
▁vzduchu	-10.488
▁Evropsk	-10.4881
▁ekologick	-10.4886
▁rozsahu	-10.489
▁reálné	-10.4891
▁lidsk	-10.4891
▁pražsk	-10.4895
stával	-10.4896
▁nastal	-10.4902
▁nástroj	-10.4912
tivně	-10.4928
ekonomický	-10.493
▁voda	-10.4931
ňující	-10.4934
sion	-10.4936
▁domácím	-10.4948
▁Tam	-10.4955
▁činností	-10.4959
▁investovat	-10.4981
▁šestnáct	-10.4981
▁Ředitel	-10.4981
▁historie	-10.4981
▁upraven	-10.4981
▁mladé	-10.4981
▁resort	-10.4981
▁zakázk	-10.4981
▁konzul	-10.4981
jišťuje	-10.4981
▁zbraně	-10.4981
▁turistů	-10.4981
▁bydlení	-10.4981
povídají	-10.4982
▁věnoval	-10.4982
bavit	-10.4982
▁pojetí	-10.4982
▁rozpad	-10.4982
▁získan	-10.4982
▁zápis	-10.4983
▁nechat	-10.4984
▁stíhán	-10.4985
▁Mat	-10.4986
▁zlom	-10.4988
▁lidmi	-10.499
▁krátce	-10.4994
▁dodávky	-10.4999
▁pozice	-10.5003
▁vzal	-10.5009
▁pohybuje	-10.501
▁ZA	-10.5011
▁slun	-10.5011
ujte	-10.5016
▁věnuj	-10.5022
▁soutěží	-10.5022
▁zákonem	-10.5026
▁šampionátu	-10.5031
▁čekají	-10.5042
ováni	-10.5049
▁hodnota	-10.5051
▁domě	-10.5053
▁voličů	-10.5053
▁obecní	-10.5066
▁Svět	-10.5069
▁dostává	-10.5077
▁Soud	-10.508
▁češt	-10.508
▁provedení	-10.5093
erie	-10.5103
▁omezení	-10.5109
▁neměli	-10.5114
▁výchov	-10.5121
▁investic	-10.5124
▁forma	-10.513
▁nejdůležitější	-10.5132
▁italské	-10.514
▁rychlosti	-10.5153
▁všeobecn	-10.5156
▁jinými	-10.5162
působit	-10.5164
▁závodu	-10.5165
▁vešker	-10.5169
▁občanské	-10.5171
▁Především	-10.5177
▁elektrárny	-10.5177
▁měsíčně	-10.5177
▁sobotní	-10.5177
▁umožní	-10.5177
▁úspěšné	-10.5177
▁Richard	-10.5177
▁snížit	-10.5177
▁minimálně	-10.5177
▁veřejný	-10.5177
▁zvýšit	-10.5177
▁Spojené	-10.5177
▁úsilí	-10.5177
▁srovnateln	-10.5177
▁okruh	-10.5178
▁seminář	-10.5178
▁snímky	-10.5178
▁setkal	-10.5179
▁sektor	-10.5179
▁doslova	-10.5179
▁kritik	-10.5179
▁míře	-10.518
▁tvorbu	-10.518
▁černé	-10.518
▁poškození	-10.5181
▁nájemné	-10.5182
▁zobrazení	-10.5182
▁ukončen	-10.5182
spektr	-10.5184
▁Češi	-10.5184
▁celek	-10.5188
▁nucen	-10.5189
▁činil	-10.5189
▁myší	-10.519
▁osmdesát	-10.5191
▁pravdu	-10.5192
▁okolností	-10.5212
▁žádném	-10.5214
▁rozvod	-10.5231
▁policistů	-10.5232
▁anglické	-10.5233
▁správně	-10.5237
▁domácích	-10.524
▁různým	-10.524
▁cestě	-10.5241
▁600	-10.5243
▁žádná	-10.5245
▁váh	-10.5263
▁znát	-10.5273
▁cítí	-10.5275
▁třídy	-10.5285
▁soupeře	-10.5287
hradí	-10.5289
▁festivalu	-10.5291
▁mistrů	-10.5292
▁centrum	-10.5298
▁soli	-10.5299
▁moravsk	-10.5302
pust	-10.5314
▁silný	-10.5317
▁konstatoval	-10.5317
70	-10.5318
▁tiskov	-10.5321
▁Občansk	-10.5324
▁ústavní	-10.5328
▁koalic	-10.5329
▁materiálu	-10.533
▁představují	-10.5346
▁dítě	-10.5351
▁195	-10.5355
▁prodá	-10.5358
▁PC	-10.5372
tát	-10.5376
▁PowerPointu	-10.5377
▁existence	-10.5377
▁konkurenční	-10.5377
▁matematik	-10.5377
▁pojišťovny	-10.5377
▁rozhodování	-10.5377
▁specifick	-10.5377
▁spolupracovník	-10.5377
▁úspěšný	-10.5377
▁Samozřejmě	-10.5377
▁ČNR	-10.5377
▁schůzk	-10.5377
▁výdaje	-10.5377
▁širší	-10.5377
▁divadla	-10.5377
▁dobrovoln	-10.5377
▁editor	-10.5377
▁půjde	-10.5377
▁výskyt	-10.5377
▁sdělení	-10.5377
▁nabídka	-10.5378
▁Vznik	-10.5378
▁úvodní	-10.5378
hlédn	-10.5378
▁Řad	-10.5379
kreslen	-10.5379
▁strach	-10.5384
▁generál	-10.5385
▁nejlepším	-10.5385
▁polovina	-10.5387
▁obsadil	-10.5387
▁celní	-10.5389
▁úraz	-10.5395
▁myšlení	-10.5396
▁Muž	-10.5396
▁dodat	-10.5401
▁vzniká	-10.5402
▁představení	-10.5402
▁nezávislých	-10.5403
▁dřev	-10.5406
▁čt	-10.541
ŘE	-10.5412
▁vykoná	-10.5422
▁krásn	-10.544
dostala	-10.5451
▁Ano	-10.5457
▁podnikatelé	-10.5458
far	-10.546
▁obyčejn	-10.5465
▁vysokých	-10.5473
nder	-10.5476
▁poklesu	-10.5477
▁Stav	-10.5485
▁oper	-10.5487
hladov	-10.549
▁Proti	-10.5491
ňoval	-10.5497
▁nebyli	-10.5502
▁Slovensko	-10.5506
▁bezpečnost	-10.5509
▁půdy	-10.5512
▁(2	-10.5512
▁temp	-10.553
▁postaven	-10.5531
▁samotné	-10.5534
▁společn	-10.5548
▁úpravy	-10.5562
▁Kur	-10.5578
▁nemoci	-10.5581
▁koordin	-10.5581
▁Němci	-10.5581
▁alkohol	-10.5581
▁církve	-10.5581
▁důstojn	-10.5581
▁nábožensk	-10.5581
▁přehlídk	-10.5581
▁týdny	-10.5581
▁úředník	-10.5581
▁1988	-10.5581
▁odmítá	-10.5581
▁surovin	-10.5581
▁usnesení	-10.5581
▁nízké	-10.5581
▁představitelů	-10.5581
▁kolegy	-10.5582
▁rozporu	-10.5582
▁zapotřebí	-10.5582
▁vražd	-10.5582
▁přišla	-10.5582
▁privatizační	-10.5583
▁zákazníky	-10.5583
▁mód	-10.5585
▁zbytk	-10.5585
státní	-10.5588
▁létě	-10.559
▁Teď	-10.559
▁chemické	-10.5592
▁sluch	-10.5592
▁elektro	-10.5593
▁ochot	-10.5594
hradil	-10.5595
▁StB	-10.5597
▁porušení	-10.5613
hradit	-10.5613
▁přímé	-10.5614
▁žijící	-10.5618
▁mladých	-10.5624
cker	-10.5628
soci	-10.563
▁technický	-10.5635
▁italsk	-10.564
▁výuk	-10.5643
▁vůle	-10.565
▁armáda	-10.5651
▁důsledky	-10.5654
▁lidského	-10.5656
▁založil	-10.5664
▁německého	-10.5671
▁společenské	-10.5676
letěl	-10.5677
padne	-10.5679
▁německých	-10.5679
▁Internetu	-10.5683
hodné	-10.5688
▁stiskn	-10.569
▁mysli	-10.5695
▁okraj	-10.5695
kupní	-10.5699
▁původu	-10.5699
▁zájmy	-10.5707
▁Indi	-10.5711
▁velikosti	-10.5715
▁automobilů	-10.5725
▁Pre	-10.5726
▁tříd	-10.5727
▁Kde	-10.5736
rah	-10.5743
▁dřív	-10.5744
posled	-10.575
▁mluví	-10.5752
hodil	-10.5753
▁pomohl	-10.5753
ED	-10.5757
▁Pražsk	-10.576
okr	-10.5772
▁poškoz	-10.5774
▁částka	-10.5782
▁daňový	-10.5785
▁Egypt	-10.5789
▁firmou	-10.5789
▁funkční	-10.5789
▁pokračoval	-10.5789
▁spisovatel	-10.5789
▁technologií	-10.5789
▁zvyšuje	-10.5789
▁úmrtnosti	-10.5789
▁Druhý	-10.5789
▁Moskvě	-10.5789
▁nabízen	-10.5789
▁technologick	-10.5789
▁třináct	-10.5789
▁Místo	-10.5789
▁mužstva	-10.5789
▁vynikající	-10.5789
▁dětské	-10.579
▁populace	-10.579
hlásí	-10.579
▁Třetí	-10.579
ičtější	-10.579
▁devíti	-10.579
▁dovolené	-10.579
▁ihned	-10.579
▁štěstí	-10.579
KDU	-10.579
▁Předseda	-10.579
▁Francii	-10.579
▁Pomuku	-10.579
▁reprezentační	-10.5791
▁nasazen	-10.5791
▁Bush	-10.5791
▁tábor	-10.5792
vzdor	-10.5793
objednáv	-10.5793
▁Svaz	-10.5794
▁nemocnici	-10.5795
▁spotřební	-10.5796
▁Boris	-10.5797
▁Více	-10.5797
▁obavy	-10.5798
▁bomb	-10.5801
▁mluvit	-10.5801
▁obětí	-10.5806
▁33	-10.5807
▁vyrovnan	-10.5808
▁šok	-10.581
▁Avšak	-10.5811
▁špičkov	-10.5813
▁odpadní	-10.5824
EK	-10.583
▁těla	-10.5832
▁stačil	-10.5839
▁zastoupení	-10.584
▁podklad	-10.5841
▁přichází	-10.5851
▁CS	-10.586
spal	-10.5874
▁klade	-10.5874
▁cm	-10.5879
▁barevné	-10.5881
▁Dobr	-10.5882
▁prodává	-10.5897
▁Jižní	-10.5915
▁účastní	-10.5918
▁řeči	-10.592
▁jednoznačn	-10.5946
▁příštích	-10.5951
vláda	-10.5954
▁molekuly	-10.5955
▁českým	-10.5956
▁samotn	-10.596
▁znalost	-10.5967
▁32	-10.5968
▁ročníku	-10.5968
▁setká	-10.597
▁dostih	-10.5974
izovan	-10.5995
▁hrají	-10.5997
▁Konce	-10.6
▁dlužník	-10.6002
▁financování	-10.6002
▁implant	-10.6002
▁konkurenci	-10.6002
▁nakladatelství	-10.6002
▁tehdejší	-10.6002
▁transformace	-10.6002
▁výsledkem	-10.6002
▁závislost	-10.6002
▁úmrtí	-10.6002
▁španělsk	-10.6002
▁magistrát	-10.6002
▁mládež	-10.6002
▁sledovat	-10.6002
▁zlepšení	-10.6002
▁rozhodnout	-10.6002
▁negativní	-10.6002
▁budoucnu	-10.6002
▁příjmu	-10.6002
▁souvisí	-10.6002
▁civilní	-10.6002
▁katolick	-10.6002
▁zabránit	-10.6002
stěhoval	-10.6003
▁Vláda	-10.6003
▁zaplatit	-10.6003
▁cukr	-10.6003
▁Slavie	-10.6003
▁jedinou	-10.6003
▁svěřen	-10.6004
▁Kanad	-10.6004
▁PCB	-10.6005
▁mladí	-10.6005
▁střet	-10.6006
▁Wales	-10.6007
▁operace	-10.6007
▁Euro	-10.6007
▁Zájem	-10.6008
▁překvapení	-10.6008
▁3000	-10.6009
▁takzvan	-10.601
ezi	-10.601
▁lesní	-10.6014
▁Vedle	-10.6017
▁přítel	-10.6029
▁prodejní	-10.6038
kládají	-10.6044
▁formou	-10.6045
▁produktu	-10.6045
▁vyzval	-10.6052
▁výhodné	-10.6055
▁UK	-10.606
pracuje	-10.6067
árek	-10.6072
▁povinností	-10.6076
▁starých	-10.6078
▁snaha	-10.6087
▁vážně	-10.6089
▁San	-10.6094
▁čisté	-10.6095
▁jezdí	-10.61
lizace	-10.6105
▁napětí	-10.6107
▁Alb	-10.6114
izační	-10.6119
▁prodat	-10.6123
▁soustav	-10.6127
▁krátké	-10.6141
▁celkový	-10.6142
ZE	-10.6153
ejména	-10.6163
▁příležitosti	-10.6167
ráží	-10.6182
▁Atlant	-10.6183
▁zbytečné	-10.6199
▁správné	-10.6204
dařilo	-10.6205
nický	-10.6206
hodnou	-10.6211
▁někde	-10.6219
▁Ostatně	-10.622
▁Plzeň	-10.622
▁Sdružení	-10.622
▁obrázek	-10.622
▁rekreační	-10.622
▁služba	-10.622
▁červnu	-10.622
▁astronom	-10.622
▁záleží	-10.622
▁následk	-10.622
▁přiznání	-10.622
▁pozorovatel	-10.622
▁porovnání	-10.622
▁účetní	-10.622
▁vesmír	-10.622
▁krize	-10.622
▁navrhl	-10.6221
▁výrok	-10.6221
▁sítí	-10.6223
▁Výbor	-10.6225
▁dojde	-10.6227
hodnotí	-10.6228
rgi	-10.6228
▁Ačkoli	-10.6228
▁místnosti	-10.6233
působil	-10.6233
▁adapt	-10.6234
▁úzk	-10.6236
ismem	-10.624
▁strojů	-10.6241
▁přináší	-10.6242
▁požár	-10.6244
▁historické	-10.6247
▁udržet	-10.6249
▁začátkem	-10.6251
▁zahrad	-10.6253
fyzikální	-10.6253
▁jasně	-10.6254
▁jednotky	-10.6256
▁Kraj	-10.6272
▁prodávat	-10.6279
▁Washingtonu	-10.6282
▁hodnotě	-10.6284
▁turnaje	-10.6287
▁Obě	-10.6291
Švýcarsk	-10.6292
Ú	-10.6301
▁nemáme	-10.6302
jal	-10.6304
▁starý	-10.6308
▁lesy	-10.6314
▁Firm	-10.6321
▁znalosti	-10.6321
▁historický	-10.6342
▁hlad	-10.6355
▁americk	-10.6381
▁třiceti	-10.6383
▁vědom	-10.6392
▁pražského	-10.6397
TU	-10.6406
▁nezávislost	-10.641
nických	-10.6437
▁Bratislavě	-10.6442
▁administra	-10.6442
▁dividend	-10.6442
▁kompromis	-10.6442
▁odpověděl	-10.6442
▁otázce	-10.6442
▁rozpočtov	-10.6442
▁stadión	-10.6442
▁týdnů	-10.6442
▁uskuteční	-10.6442
▁monopol	-10.6442
▁potvrzen	-10.6442
▁Návrh	-10.6442
▁nabídnout	-10.6442
▁jaterní	-10.6442
▁Nakonec	-10.6442
▁stížnost	-10.6442
▁péči	-10.6442
▁nákladní	-10.6442
▁žalob	-10.6442
▁podpora	-10.6443
▁patřil	-10.6443
▁interak	-10.6443
▁Graf	-10.6443
▁dovolit	-10.6443
▁server	-10.6443
▁kategorie	-10.6444
▁nepodařilo	-10.6444
nášejí	-10.6446
třída	-10.6447
▁žlut	-10.6448
▁okno	-10.645
▁Podnik	-10.6454
▁nedostatek	-10.646
nejvýš	-10.6463
▁připravit	-10.6464
▁Brno	-10.6473
▁zjistit	-10.6473
▁prvky	-10.6477
evropský	-10.6478
▁stará	-10.6479
▁přítomn	-10.6481
▁vyvíj	-10.6484
▁věděl	-10.6485
▁tajné	-10.6488
▁vyspělý	-10.6493
▁nezaměstnanosti	-10.6504
▁sub	-10.6507
▁buňky	-10.6508
▁hře	-10.6511
▁soust	-10.6513
▁přiznal	-10.6516
▁120	-10.6518
▁domácnosti	-10.6519
▁získání	-10.6528
soudit	-10.6529
▁malou	-10.6531
▁stanici	-10.6533
▁provést	-10.6538
▁letní	-10.6538
LU	-10.6542
tkání	-10.6559
▁Lin	-10.6561
pozn	-10.6561
▁hlubo	-10.6567
▁návštěvě	-10.657
▁hledá	-10.6572
▁církev	-10.658
▁vojenský	-10.6581
▁osobně	-10.6582
běhu	-10.6596
pálen	-10.6599
▁vědecký	-10.6599
▁55	-10.6608
▁modelů	-10.661
▁srážk	-10.6623
▁Evropský	-10.6629
▁okrese	-10.6631
▁desít	-10.6649
▁past	-10.6658
▁širok	-10.6662
▁vložen	-10.6664
▁advokát	-10.6669
▁existenci	-10.6669
▁funguje	-10.6669
▁křesťan	-10.6669
▁otevření	-10.6669
▁otázek	-10.6669
▁pojišťovna	-10.6669
▁rozhodovat	-10.6669
▁vyšetřování	-10.6669
▁poskytnut	-10.6669
▁Slunce	-10.6669
▁žádá	-10.6669
▁lokalit	-10.6669
▁ostatně	-10.6669
▁vytvoří	-10.6669
▁aktuální	-10.6669
▁přání	-10.6669
▁zálož	-10.6669
▁Bor	-10.6669
▁situací	-10.6669
▁vyberte	-10.6669
▁legend	-10.6669
▁převzal	-10.6669
▁Znamen	-10.6669
▁islám	-10.6669
▁letadla	-10.6669
▁zůstávají	-10.667
▁dlouhodobé	-10.667
▁stáří	-10.667
▁magnet	-10.6671
▁molekulární	-10.6671
▁dobrou	-10.6672
▁operaci	-10.6673
▁prud	-10.6673
▁pochod	-10.6675
▁SRN	-10.6675
▁míní	-10.6678
▁protein	-10.6678
pozoruhodn	-10.6679
▁vystudoval	-10.668
▁odstup	-10.6684
▁Obecn	-10.6684
ston	-10.6687
▁zájemců	-10.669
▁partnerů	-10.6692
▁vypadá	-10.6701
▁školní	-10.6703
▁příslušný	-10.671
▁tamní	-10.671
ářské	-10.6712
▁nástroje	-10.6714
▁formě	-10.6716
▁jižní	-10.6719
OVÁ	-10.6729
▁zjištění	-10.6732
▁oceněn	-10.6732
▁nájemného	-10.6733
▁prodal	-10.6733
▁Brna	-10.6735
VI	-10.6745
▁fakultě	-10.6745
▁potřeboval	-10.6746
▁tvor	-10.6746
▁návštěvníků	-10.6749
▁sezóně	-10.675
▁vojensk	-10.6766
▁složen	-10.678
▁označen	-10.6781
ruší	-10.6794
éměř	-10.6795
▁členem	-10.6796
▁trvale	-10.6799
▁nevím	-10.6807
▁takovým	-10.682
logický	-10.6821
▁spojené	-10.6823
▁obyvatelé	-10.6824
▁příběh	-10.6826
71	-10.6832
▁změní	-10.6837
▁přicházejí	-10.684
▁38	-10.685
▁čeho	-10.6851
IL	-10.6859
▁filmů	-10.6866
▁zjištěn	-10.6872
▁interpret	-10.6884
▁Anglie	-10.6902
▁George	-10.6902
▁Králové	-10.6902
▁Nejvyšší	-10.6902
▁disciplín	-10.6902
▁institucí	-10.6902
▁jugoslávsk	-10.6902
▁laboratoř	-10.6902
▁literatur	-10.6902
▁mladší	-10.6902
▁nejčastěji	-10.6902
▁organizační	-10.6902
▁přinejmenším	-10.6902
▁příspěvek	-10.6902
▁software	-10.6902
▁spravedlnost	-10.6902
▁vzrostl	-10.6902
▁zabezpečení	-10.6902
▁dráhy	-10.6902
▁přispěl	-10.6902
▁rodičů	-10.6902
▁nestačí	-10.6902
▁pochopitelně	-10.6902
▁souboj	-10.6902
▁účinnost	-10.6902
▁předpisů	-10.6902
▁přírodovědeck	-10.6903
▁Polici	-10.6903
▁vlastnictví	-10.6903
▁přijít	-10.6904
▁tvorby	-10.6905
▁úloh	-10.6906
▁podobu	-10.6908
dostanou	-10.6908
▁výplat	-10.691
▁poruch	-10.6911
▁vrátí	-10.6911
▁Stačí	-10.6913
▁Střed	-10.6916
▁poznatky	-10.6917
▁vědců	-10.6918
▁přijmout	-10.6918
▁ekonomických	-10.6918
▁Bosně	-10.6919
▁zničen	-10.693
▁nemusel	-10.6932
▁policisté	-10.6935
▁vozů	-10.6943
▁hodinách	-10.6946
▁silně	-10.6954
▁smut	-10.696
▁předsedou	-10.6961
▁obrazovky	-10.6963
▁levnější	-10.6968
▁uznání	-10.6974
▁léky	-10.6978
enství	-10.699
▁církevní	-10.6994
▁klubů	-10.6997
▁festival	-10.7003
▁ideální	-10.7009
▁komplexní	-10.701
▁původ	-10.7016
▁bot	-10.7031
▁skutečný	-10.704
nedávn	-10.7066
staral	-10.708
▁Stát	-10.7093
ěřitel	-10.7109
15	-10.7114
▁postižené	-10.7117
▁čekal	-10.7119
▁Har	-10.712
▁pojme	-10.7131
▁Anglii	-10.714
▁Jaromír	-10.714
▁Microsoft	-10.714
▁NHL	-10.714
▁duchovní	-10.714
▁francouzské	-10.714
▁jménem	-10.714
▁medaile	-10.714
▁navzájem	-10.714
▁odpovědi	-10.714
▁požadavek	-10.714
▁praktické	-10.714
▁sortiment	-10.714
▁tvůrc	-10.714
▁uzavřít	-10.714
▁veřejně	-10.714
▁využívat	-10.714
▁výpočetní	-10.714
▁zabývat	-10.714
▁zástupců	-10.714
▁ČEZ	-10.714
▁článek	-10.714
▁inteligen	-10.714
▁manipul	-10.714
▁mužstvo	-10.714
▁asociace	-10.714
▁měřítk	-10.714
▁Major	-10.714
▁poskytují	-10.714
▁řetěz	-10.714
▁dětem	-10.714
▁prestiž	-10.714
▁dočasn	-10.714
▁chvíle	-10.714
▁sfér	-10.714
▁bolest	-10.7141
▁zhorš	-10.7141
▁vydává	-10.7142
▁Chtěl	-10.7143
▁venkov	-10.7149
▁risk	-10.7149
▁okolní	-10.715
▁Odbor	-10.7151
▁třikrát	-10.7154
▁Er	-10.7155
▁vysvětlit	-10.7155
89	-10.7156
▁hrob	-10.7158
▁uvažuje	-10.7159
▁disket	-10.7163
ODS	-10.7164
▁výstavby	-10.7165
▁přeměn	-10.7171
▁dres	-10.7175
▁250	-10.7191
▁zápasů	-10.7194
▁týkající	-10.7196
▁Kap	-10.7196
▁ulice	-10.7198
▁sloup	-10.7205
▁překvapiv	-10.7206
volání	-10.7211
▁Paul	-10.7214
▁umístění	-10.7226
musela	-10.7233
AC	-10.7233
▁zemské	-10.7244
▁vydá	-10.7247
▁volně	-10.725
▁pracující	-10.7256
▁Takové	-10.7258
▁obecné	-10.7259
▁používání	-10.7268
▁účastník	-10.7272
těsn	-10.7273
▁obsahující	-10.7276
soudil	-10.7292
rušení	-10.7295
▁Dvě	-10.7296
▁novinářů	-10.7301
▁herec	-10.7308
▁fondů	-10.7314
▁průmyslový	-10.732
histor	-10.7325
▁rozdělen	-10.7325
spraš	-10.7329
▁částic	-10.7344
▁výjimk	-10.7349
▁pokusil	-10.7358
▁pracují	-10.736
▁špičk	-10.7361
omín	-10.7368
▁počítačové	-10.7373
šetřit	-10.7384
▁Důležit	-10.7384
▁Obchodní	-10.7384
▁motocykl	-10.7384
▁organizaci	-10.7384
▁považuji	-10.7384
▁souladu	-10.7384
▁související	-10.7384
▁dlouhý	-10.7384
▁ministři	-10.7384
▁údržb	-10.7384
▁generace	-10.7384
▁kongres	-10.7384
▁expozi	-10.7384
▁vyhlášk	-10.7384
▁vysoká	-10.7384
▁doporučen	-10.7384
▁Polska	-10.7384
▁Žádn	-10.7384
▁Potřeb	-10.7384
šetří	-10.7384
▁obrátil	-10.7384
▁chtít	-10.7384
▁doping	-10.7384
▁Michal	-10.7385
▁Čtyř	-10.7385
▁vyplatí	-10.7385
▁vlajk	-10.7385
▁Možnost	-10.7386
ŘÍ	-10.7386
▁vystaven	-10.7387
▁tepeln	-10.7388
▁nejspíš	-10.7388
▁studia	-10.7388
▁omyl	-10.7389
▁územní	-10.7391
▁nedělní	-10.7397
▁ukazují	-10.7406
kupovat	-10.7413
▁předložil	-10.7414
▁neznamená	-10.7415
▁dolar	-10.7416
▁odborných	-10.7416
▁Man	-10.7424
▁Zlín	-10.7426
čátkem	-10.7427
11	-10.7428
▁hospodářský	-10.7428
▁nástrojů	-10.7431
▁lesů	-10.7435
▁získáva	-10.7438
▁uvedený	-10.7439
▁nechá	-10.7441
▁zajištění	-10.7443
▁prst	-10.7451
▁kdysi	-10.7452
skočil	-10.7462
▁nedávné	-10.7462
▁Představ	-10.7464
OLE	-10.7466
tažení	-10.7485
▁vystoupil	-10.7487
▁hluboko	-10.7492
▁ekologické	-10.7509
▁Slovenské	-10.7511
▁zahájen	-10.7512
ukce	-10.7519
▁noční	-10.7536
▁ačkoli	-10.754
▁souvislost	-10.7554
lezl	-10.7556
▁značný	-10.7559
▁Poslaneck	-10.7565
▁dán	-10.7577
▁zpěv	-10.7592
▁pojištěn	-10.7595
▁některým	-10.76
▁sousední	-10.7604
▁samostatné	-10.7608
článk	-10.7612
jmout	-10.7616
pravují	-10.7623
▁dokonale	-10.7627
▁hus	-10.7628
▁atmosféře	-10.7634
▁delegace	-10.7634
▁devadesát	-10.7634
▁dozvěděl	-10.7634
▁elektřin	-10.7634
▁francouzský	-10.7634
▁inflace	-10.7634
▁květnu	-10.7634
▁penzijní	-10.7634
▁poptávka	-10.7634
▁sedmnáct	-10.7634
▁službu	-10.7634
▁nejnovější	-10.7634
▁očekávan	-10.7634
▁Skutečn	-10.7634
▁badatel	-10.7634
▁mandát	-10.7634
▁vysokoškol	-10.7634
▁oblíben	-10.7634
▁všude	-10.7634
▁považují	-10.7634
▁Nejvíce	-10.7634
▁Viktor	-10.7634
▁doprovod	-10.7634
▁stanovisko	-10.7634
▁soustředěn	-10.7634
▁přírodě	-10.7634
▁prosadit	-10.7634
▁politická	-10.7634
▁samé	-10.7634
▁zábav	-10.7634
▁Popper	-10.7634
▁čísel	-10.7635
▁Podnikatel	-10.7635
▁vyšetřovatel	-10.7635
▁dohodnut	-10.7635
▁tvořen	-10.7635
▁dřívější	-10.7636
▁citliv	-10.7636
▁vysloven	-10.7637
ovněž	-10.7637
▁rytm	-10.7637
▁podaří	-10.7637
▁velitel	-10.7638
▁slovenských	-10.7639
kazují	-10.7643
▁široké	-10.7643
▁vysvětlení	-10.7643
▁vrací	-10.7645
▁myši	-10.7647
▁výstup	-10.7648
zie	-10.7648
▁mínění	-10.7649
▁grafik	-10.765
▁zlato	-10.7651
▁brát	-10.7652
▁uživatelů	-10.7652
▁Chceme	-10.7654
▁řeší	-10.766
▁bilanc	-10.7666
▁hran	-10.7667
▁léků	-10.7673
▁vysvětlil	-10.7677
▁stupně	-10.7679
▁Kolik	-10.7682
▁získává	-10.7682
▁věk	-10.7684
▁kamer	-10.7685
▁nedostal	-10.7691
▁podílel	-10.7693
▁pohybují	-10.7694
▁dosahuje	-10.7695
▁zkušeností	-10.7698
jedou	-10.77
▁mimořádné	-10.7708
▁vědci	-10.7709
▁800	-10.7717
tematick	-10.7721
▁Dán	-10.7724
▁nesouhlasí	-10.7729
vlas	-10.7734
▁znaků	-10.7742
▁třídě	-10.7752
▁rozsah	-10.7753
▁stanic	-10.7762
▁policist	-10.7782
lezsk	-10.7784
▁volič	-10.7817
▁mimořádný	-10.7818
▁rodinné	-10.7828
▁RN	-10.783
▁nebe	-10.7846
▁podal	-10.7856
pravděpodobností	-10.7868
▁role	-10.7871
▁přírodověd	-10.7889
hlížet	-10.789
▁Výsledk	-10.789
▁Zajímav	-10.789
▁atraktivní	-10.789
▁blízké	-10.789
▁centimetr	-10.789
▁milióny	-10.789
▁požadavků	-10.789
▁rozšířit	-10.789
▁telekomunikační	-10.789
▁tiskárny	-10.789
▁žebříčku	-10.789
▁montáž	-10.789
▁rozhraní	-10.789
▁složky	-10.789
▁Brazíli	-10.789
▁dlouhá	-10.789
▁předpokládat	-10.789
▁používají	-10.789
▁chráněn	-10.789
▁koncepce	-10.789
▁závisí	-10.789
▁Důvod	-10.789
▁nabídce	-10.789
▁zaplacen	-10.789
▁externí	-10.789
▁naděje	-10.789
▁vysoce	-10.7891
▁Sparty	-10.7891
▁muzea	-10.7892
▁vozidl	-10.7892
▁barvy	-10.7892
▁učinil	-10.7892
▁můj	-10.7894
▁mozkov	-10.7896
▁mnohd	-10.7897
▁naději	-10.7897
▁vysvětluje	-10.7899
▁Knih	-10.79
▁unii	-10.79
▁uzavřel	-10.7906
▁umožňující	-10.7911
▁Irsk	-10.7914
▁Chyb	-10.792
▁Nikdo	-10.7927
▁Nebyl	-10.7928
▁dvojice	-10.7931
▁čtvrté	-10.7934
▁Novák	-10.7934
▁čtyřech	-10.7938
▁přesvědč	-10.7947
▁nemůžeme	-10.796
▁uvést	-10.7966
pamatuj	-10.7967
▁totéž	-10.7968
▁Stran	-10.797
▁šat	-10.797
▁stín	-10.7972
▁akciové	-10.7974
▁grafické	-10.7981
prodej	-10.8002
44	-10.8004
▁Autor	-10.8006
▁jakékoli	-10.8006
▁Tur	-10.801
večer	-10.8011
hnal	-10.8017
▁finančn	-10.8028
▁komplex	-10.8032
▁zaměstnavatele	-10.8042
OP	-10.8045
▁divák	-10.8045
▁podstatné	-10.8051
▁britský	-10.8073
▁klepn	-10.8079
▁působ	-10.8087
elektrick	-10.8094
kládal	-10.8105
▁okolnost	-10.811
PS	-10.8112
projevuje	-10.8115
příč	-10.8116
▁Nizozemsk	-10.8121
místě	-10.8124
▁Celkov	-10.8148
wan	-10.8149
▁pivo	-10.8152
favorit	-10.8153
▁Itálii	-10.8153
▁Masaryk	-10.8153
▁divadelní	-10.8153
▁inženýr	-10.8153
▁kilogram	-10.8153
▁obligace	-10.8153
▁orientac	-10.8153
▁otevřené	-10.8153
▁pedagog	-10.8153
▁požaduje	-10.8153
▁vojáků	-10.8153
▁výjimečn	-10.8153
▁Miloslav	-10.8153
▁originál	-10.8153
▁peněžní	-10.8153
▁snižování	-10.8153
▁komentář	-10.8153
▁reagoval	-10.8153
▁přirozený	-10.8153
▁rychlý	-10.8153
▁zjistí	-10.8153
▁úrovní	-10.8153
▁komplet	-10.8153
▁odsouzen	-10.8153
▁zkušebn	-10.8153
▁poskytován	-10.8153
▁skončení	-10.8153
▁povinen	-10.8153
▁absolvent	-10.8153
▁průkaz	-10.8153
▁nevěděl	-10.8154
▁Jugoslávii	-10.8154
▁menšin	-10.8154
▁podívat	-10.8154
▁důkladn	-10.8154
▁odstraněn	-10.8155
▁každodenn	-10.8155
▁najevo	-10.8155
▁stěn	-10.8157
▁kusů	-10.8157
▁zaplatil	-10.8159
korun	-10.816
▁říct	-10.816
▁zavře	-10.8161
▁Peter	-10.8162
▁potřebný	-10.8162
▁jistý	-10.8162
▁vybírat	-10.8163
▁plát	-10.8168
▁odvolání	-10.8176
▁agent	-10.8177
▁nesmírn	-10.8178
▁strav	-10.818
▁polské	-10.8189
▁japonské	-10.8195
▁povolání	-10.8195
▁fax	-10.8199
▁cyklus	-10.82
▁vyhledá	-10.8205
▁Počet	-10.8223
▁pokyn	-10.8225
▁politik	-10.8242
▁Fotbal	-10.8249
▁hlavu	-10.8252
▁profesionál	-10.8252
▁závodník	-10.8258
rážky	-10.8275
▁skladb	-10.8275
▁schválil	-10.8289
▁reáln	-10.8295
▁34	-10.83
▁resp	-10.83
▁Mik	-10.8302
▁podřízen	-10.8312
▁bytové	-10.8324
▁hmotnost	-10.8332
▁dramatick	-10.8339
▁objektiv	-10.834
▁nebezpečné	-10.8349
▁psycholog	-10.835
▁geolog	-10.8362
tisícov	-10.8377
▁zaveden	-10.8381
▁zajištěn	-10.8383
biologick	-10.8396
▁Např	-10.84
▁noc	-10.8403
▁průběh	-10.8405
ěsíční	-10.8406
▁plný	-10.8417
▁recept	-10.8423
▁Kazachstán	-10.8424
▁Oznámil	-10.8424
▁Univerzit	-10.8424
▁existovat	-10.8424
▁informaci	-10.8424
▁obtížné	-10.8424
▁prezentací	-10.8424
▁stříbrn	-10.8424
▁svědomí	-10.8424
▁ubytování	-10.8424
▁vyjádřit	-10.8424
▁vytvářet	-10.8424
▁zdánlivě	-10.8424
▁ztrácí	-10.8424
▁Několik	-10.8424
▁prodloužen	-10.8424
▁ústřední	-10.8424
▁Problém	-10.8424
▁bariér	-10.8424
▁poskytovat	-10.8424
▁komerční	-10.8424
▁sediment	-10.8424
▁komunismu	-10.8424
▁střediska	-10.8424
▁československé	-10.8424
▁veletrh	-10.8424
▁února	-10.8424
▁junio	-10.8424
▁slavnostní	-10.8424
▁zmizel	-10.8424
▁propojen	-10.8424
▁zvětš	-10.8424
▁Slovinsk	-10.8424
záběr	-10.8424
▁kvantov	-10.8424
▁pěst	-10.8424
▁předpisy	-10.8425
▁vlákn	-10.8425
▁hrdin	-10.8427
▁vybraný	-10.8429
najdete	-10.8429
▁optimální	-10.8429
▁udělá	-10.843
▁prováděn	-10.8431
▁náskok	-10.8431
▁Kovo	-10.8431
střelil	-10.8432
▁kupující	-10.8432
▁komunikace	-10.8433
▁Bójové	-10.8433
▁uvolněn	-10.8433
▁továrn	-10.8434
▁zítra	-10.8435
▁rychleji	-10.8436
▁zmíněný	-10.8437
▁hrách	-10.8441
▁bezplatn	-10.8442
▁zvolil	-10.8445
▁sále	-10.8449
▁dálnic	-10.8457
▁plno	-10.8459
▁Voj	-10.8459
▁jednotek	-10.8463
▁klimatický	-10.8463
HA	-10.8464
▁Ostrav	-10.8468
▁závodech	-10.8473
▁atomov	-10.8474
važoval	-10.8487
▁objevuje	-10.8497
▁hlavy	-10.8498
▁podvod	-10.8501
▁podnikové	-10.8513
▁brání	-10.8517
▁fyzické	-10.8518
▁pečlivě	-10.8518
▁politiků	-10.8521
▁Met	-10.8535
▁Vlastní	-10.8561
▁Internet	-10.8565
ložený	-10.8583
▁hledají	-10.8584
sovětsk	-10.8603
▁automatick	-10.8603
▁domácnost	-10.8605
▁mírové	-10.8617
▁jasno	-10.8622
▁chyt	-10.8631
dvacetiletý	-10.8655
sáhnout	-10.8663
tivnější	-10.867
▁předložen	-10.8671
ocel	-10.8675
▁kontinent	-10.8685
▁privatiz	-10.8692
▁mohu	-10.8697
ačtyřicet	-10.8701
▁ClipArt	-10.8701
▁Krkonoš	-10.8701
▁basketbal	-10.8701
▁demokracii	-10.8701
▁fanoušků	-10.8701
▁lustrační	-10.8701
▁navštívil	-10.8701
▁nepochybn	-10.8701
▁obligací	-10.8701
▁opoziční	-10.8701
▁otevřel	-10.8701
▁otázkou	-10.8701
▁ovzduší	-10.8701
▁pracoviště	-10.8701
▁prokurátor	-10.8701
▁vyrábí	-10.8701
▁železniční	-10.8701
▁jednoduše	-10.8701
▁nádraží	-10.8701
▁osmnáct	-10.8701
▁pobřeží	-10.8701
▁častěji	-10.8701
poloviční	-10.8701
▁oblečení	-10.8701
▁Rumunsk	-10.8701
▁Pracovní	-10.8702
▁příchod	-10.8702
▁statut	-10.8702
▁odstranit	-10.8702
▁knize	-10.8702
▁modul	-10.8702
▁věnován	-10.8702
▁knížk	-10.8703
▁záření	-10.8703
▁blízkosti	-10.8704
▁obnoven	-10.8704
▁Tehd	-10.8705
▁raket	-10.8706
▁vážné	-10.8706
▁poradensk	-10.8711
▁dohodnout	-10.8711
▁říkal	-10.8712
▁scénář	-10.8713
▁Motor	-10.8713
▁písmen	-10.8715
▁přínos	-10.8715
▁několikrát	-10.8718
▁Rád	-10.8718
▁chyběl	-10.8719
nutil	-10.872
myslet	-10.8723
▁společník	-10.8725
▁pramen	-10.8732
▁ovládání	-10.8733
▁vyvolal	-10.8736
▁komunistické	-10.8736
krás	-10.8736
▁Pět	-10.8736
▁přijímá	-10.8737
případě	-10.8737
▁připadá	-10.8737
▁stán	-10.8742
▁fyzick	-10.8743
▁neznámý	-10.8743
▁1000	-10.8746
▁dělník	-10.8762
▁mrav	-10.8765
hodnotit	-10.8776
atrně	-10.8776
týdenní	-10.8798
▁aminokyselin	-10.88
▁přijel	-10.882
▁trestný	-10.8838
▁okamžik	-10.885
▁vzduch	-10.8851
ohledem	-10.8866
▁Škod	-10.8867
▁chemický	-10.8869
▁tajný	-10.8888
▁představil	-10.8894
▁konečné	-10.8925
▁blíží	-10.8934
:3	-10.8969
poví	-10.8977
▁pochopit	-10.8987
▁dopoledne	-10.8987
▁doporučuje	-10.8987
▁ministerstvu	-10.8987
▁nejrychleji	-10.8987
▁partneři	-10.8987
▁poskytnout	-10.8987
▁považovat	-10.8987
▁rekonstrukci	-10.8987
▁rozhoduje	-10.8987
▁spravedliv	-10.8987
▁strategie	-10.8987
▁vyrábět	-10.8987
▁Americe	-10.8987
▁areálu	-10.8987
▁kompres	-10.8987
▁mateřsk	-10.8987
▁neobvykl	-10.8987
▁klášte	-10.8987
▁policii	-10.8987
▁reakce	-10.8987
▁dveře	-10.8987
▁úhrad	-10.8987
▁majetkov	-10.8987
▁taneční	-10.8987
▁Trenér	-10.8987
▁dubna	-10.8987
▁Havla	-10.8987
▁politickou	-10.8987
▁sledoval	-10.8987
▁sloužit	-10.8987
ografie	-10.8987
▁praktický	-10.8987
▁srdce	-10.8987
▁muzik	-10.8988
▁jaře	-10.8988
▁humor	-10.8988
nášet	-10.8988
▁Excel	-10.8988
▁Pozor	-10.8989
▁sovětských	-10.899
▁Klub	-10.8991
▁penze	-10.8993
▁vězení	-10.8993
▁psát	-10.8993
▁rozlišení	-10.8993
krácen	-10.8994
▁vzít	-10.8996
▁zachovat	-10.8999
▁krve	-10.9
▁výlet	-10.9
škodliv	-10.9001
▁dotací	-10.9003
▁Konečn	-10.9005
▁klesl	-10.9005
▁přerušen	-10.9008
▁trvat	-10.9008
▁porážk	-10.9009
▁všeobecné	-10.902
▁stavby	-10.9026
▁kořen	-10.9026
▁obsahovat	-10.9028
▁produkty	-10.9029
▁foto	-10.9033
▁Mont	-10.9034
▁dítěte	-10.9037
▁elektrické	-10.9052
▁cestující	-10.9077
▁čekat	-10.9077
BA	-10.908
▁vším	-10.9085
▁objektivní	-10.9099
▁zjevn	-10.9101
▁filmový	-10.9122
▁pozitiv	-10.9125
▁nájemník	-10.9129
oporu	-10.9138
▁občansk	-10.9152
▁46	-10.9153
▁Vlast	-10.9153
▁zvlád	-10.9161
▁správný	-10.9183
padesát	-10.9186
▁stati	-10.9191
▁130	-10.9195
▁rozšířen	-10.9199
▁zajímavý	-10.9209
▁cyklu	-10.9229
nická	-10.9233
▁poskytl	-10.9235
▁větr	-10.9242
▁rostou	-10.9242
▁právník	-10.9243
▁odkaz	-10.926
▁Eva	-10.9266
ontrol	-10.9274
▁blízko	-10.9279
▁referendu	-10.9281
▁Stanislav	-10.9281
▁Wimbledon	-10.9281
▁geometrie	-10.9281
▁miliónu	-10.9281
▁nepřízniv	-10.9281
▁opozice	-10.9281
▁producent	-10.9281
▁výsledku	-10.9281
▁zahrnuje	-10.9281
▁zásluh	-10.9281
▁inspekto	-10.9281
▁snižuje	-10.9281
▁vstříc	-10.9281
švédsk	-10.9281
zapomněl	-10.9281
▁března	-10.9281
▁závazn	-10.9281
▁figur	-10.9281
▁účinky	-10.9281
▁šťastn	-10.9281
▁zahynul	-10.9281
▁funkcionář	-10.9281
▁čtvrtletí	-10.9281
▁rozmezí	-10.9281
▁uprchl	-10.9281
▁páté	-10.9282
▁aparát	-10.9282
▁terorist	-10.9282
▁kupónov	-10.9282
▁využil	-10.9282
▁sotva	-10.9282
▁zvýší	-10.9282
▁středověk	-10.9282
▁klesá	-10.9282
▁rakouské	-10.9282
▁morální	-10.9283
▁necelý	-10.9283
▁nositel	-10.9283
▁terén	-10.9283
▁knihovn	-10.9284
▁duchu	-10.9284
▁Fond	-10.9285
▁Mimo	-10.9285
▁útočník	-10.9285
▁téhož	-10.9286
▁pověst	-10.9287
▁diskusi	-10.9293
▁nesmysl	-10.9294
▁Šest	-10.9298
▁návod	-10.9312
▁školách	-10.9321
▁nedovol	-10.9324
▁vlak	-10.9332
▁únik	-10.9339
▁běžn	-10.9348
chybějí	-10.9353
▁vysvětl	-10.9364
vládnout	-10.9368
▁kovů	-10.9382
skutk	-10.9387
▁skutečn	-10.9392
pana	-10.9397
▁krajan	-10.9401
zákon	-10.9421
příliš	-10.9436
▁urychlen	-10.944
logicky	-10.9468
off	-10.9481
▁minulost	-10.9488
▁ostře	-10.9502
▁obsahují	-10.9508
▁pravděpodobn	-10.9516
▁koupi	-10.9531
▁projevil	-10.9539
▁ozbrojený	-10.9542
▁samozřejm	-10.9548
končit	-10.9563
▁reakci	-10.9579
▁Otázka	-10.9584
▁definitivně	-10.9584
▁digitální	-10.9584
▁gigant	-10.9584
▁hřišti	-10.9584
▁jednorázov	-10.9584
▁kyslíku	-10.9584
▁navrhuje	-10.9584
▁otevřený	-10.9584
▁označit	-10.9584
▁pokračování	-10.9584
▁prognóz	-10.9584
▁rovnová	-10.9584
▁rozšířil	-10.9584
▁sekretář	-10.9584
▁softwarov	-10.9584
▁transformaci	-10.9584
▁vyjadřuj	-10.9584
▁vězňů	-10.9584
▁začátek	-10.9584
▁důvěru	-10.9584
▁předvolební	-10.9584
▁divadlo	-10.9584
▁infekc	-10.9584
▁sexuální	-10.9584
▁zemědělců	-10.9584
▁tarif	-10.9584
▁výročí	-10.9584
▁zvyšování	-10.9584
▁Československé	-10.9584
▁používal	-10.9584
▁prozatím	-10.9584
▁vozidel	-10.9584
vrácení	-10.9584
▁prosinci	-10.9584
▁náměstk	-10.9584
▁Třeba	-10.9584
▁dětský	-10.9584
▁vyskytují	-10.9584
▁vazby	-10.9584
▁zrušit	-10.9584
▁využívají	-10.9584
▁října	-10.9584
▁Býval	-10.9584
▁ukázk	-10.9584
▁opačné	-10.9584
▁skleník	-10.9584
▁vteřin	-10.9584
▁statistik	-10.9584
▁počtem	-10.9585
▁rozsáhlé	-10.9585
▁poplatky	-10.9585
počtů	-10.9585
▁Práce	-10.9585
▁nastavení	-10.9585
▁nikoho	-10.9585
▁svoje	-10.9585
▁obvyklé	-10.9585
▁rakovin	-10.9585
▁Pomoc	-10.9585
▁Východ	-10.9586
▁Prostě	-10.9586
▁hluboké	-10.9586
▁Tvrd	-10.9586
▁uplatňuj	-10.9588
▁přispíva	-10.9589
▁myšlenky	-10.9589
▁Němec	-10.9589
▁zastavil	-10.9592
▁evropsk	-10.9592
▁postavil	-10.9592
▁Hill	-10.9593
▁Člen	-10.9607
▁Cest	-10.9609
▁tunel	-10.9611
látka	-10.9615
▁staveb	-10.9621
▁rostoucí	-10.9625
▁sídle	-10.9627
▁stručn	-10.9628
zemědělských	-10.9633
VÍ	-10.9651
▁bratr	-10.9652
příště	-10.9652
▁loňský	-10.9661
iletá	-10.9669
▁vydělá	-10.9683
▁dramat	-10.9683
▁pravděpodobnost	-10.9702
▁odešl	-10.9703
edení	-10.9712
▁kapel	-10.9746
▁vstupné	-10.9762
▁Světové	-10.9774
▁objevují	-10.9775
▁barevný	-10.981
bírají	-10.9818
▁důraz	-10.9835
blok	-10.9836
▁chladn	-10.9855
mála	-10.9866
tratil	-10.9873
▁Bój	-10.9886
▁Staroměstské	-10.9897
▁Angličan	-10.9897
▁Argentin	-10.9897
▁Evropu	-10.9897
▁Mechanik	-10.9897
▁Mečiar	-10.9897
▁Němců	-10.9897
▁Premiér	-10.9897
▁Systém	-10.9897
▁absolutní	-10.9897
▁definitivní	-10.9897
▁kilobajtů	-10.9897
▁paradox	-10.9897
▁podepsán	-10.9897
▁podezření	-10.9897
▁potvrzuje	-10.9897
▁připomněl	-10.9897
▁systematick	-10.9897
▁tabulce	-10.9897
▁vyžádal	-10.9897
▁zastupitelstva	-10.9897
▁sjednocení	-10.9897
▁smlouvě	-10.9897
▁teorií	-10.9897
▁Vývoj	-10.9897
▁kyselin	-10.9897
▁tvořit	-10.9897
▁komplikov	-10.9897
▁poločas	-10.9897
▁účinek	-10.9897
▁GSM	-10.9897
▁pochopil	-10.9897
▁režii	-10.9897
máhat	-10.9897
▁schůze	-10.9897
▁aspekt	-10.9897
▁pohádk	-10.9897
▁Druhá	-10.9897
▁zdarma	-10.9897
▁zrušil	-10.9897
▁lehce	-10.9897
▁Jihlav	-10.9897
▁celků	-10.9897
▁membrán	-10.9897
▁pokrok	-10.9897
▁čerstv	-10.9897
▁nález	-10.9897
▁ukončil	-10.9897
▁špatný	-10.9898
táhne	-10.9898
▁tramvaj	-10.9898
▁střetnutí	-10.9898
▁hustot	-10.9899
▁("	-10.9899
▁vyřešen	-10.9901
▁spotřeby	-10.9901
▁nádor	-10.9901
▁lékařsk	-10.9901
▁nejenom	-10.9903
▁pověřen	-10.9903
▁nedokázal	-10.9904
▁projednáva	-10.9904
▁neprav	-10.9904
▁vězni	-10.9907
▁bránit	-10.9907
▁Jednání	-10.9907
▁termo	-10.9909
▁Cíle	-10.9911
▁balík	-10.9911
▁diskuse	-10.9912
▁ovoce	-10.9913
▁kódování	-10.9914
▁popř	-10.9915
▁kamion	-10.9918
▁produkci	-10.9919
▁189	-10.992
▁Dodal	-10.9927
▁existující	-10.9927
▁Řeck	-10.9927
▁vyvolává	-10.9931
▁vaši	-10.9937
▁sláv	-10.9948
▁dolní	-10.9952
svědčil	-10.9953
▁Jelcinov	-10.9972
▁snaz	-10.9976
LOV	-10.9986
▁strážník	-11.0006
▁pokladn	-11.0007
▁dohodl	-11.0007
▁ceník	-11.0008
riti	-11.0022
▁přímý	-11.0024
▁živnost	-11.0029
▁anglický	-11.0035
▁běh	-11.0044
▁samostatný	-11.0048
▁socialist	-11.0068
▁moment	-11.0076
▁žil	-11.0085
▁zdravé	-11.0104
▁loňsk	-11.0129
▁rodinný	-11.013
▁počítačový	-11.0135
ařské	-11.0163
▁Vlk	-11.0168
▁okamžit	-11.0183
▁analog	-11.0214
pomeňme	-11.0219
▁Bruselu	-11.0219
▁ToolBook	-11.0219
▁dohromady	-11.0219
▁každoročn	-11.0219
▁nejnižší	-11.0219
▁penzion	-11.0219
▁pokračuje	-11.0219
▁porozumění	-11.0219
▁přispět	-11.0219
▁spořiteln	-11.0219
▁uskutečnit	-11.0219
▁volejbal	-11.0219
▁Člověk	-11.0219
▁Určit	-11.0219
▁demonstra	-11.0219
▁sportovců	-11.0219
▁dražší	-11.0219
▁dynamick	-11.0219
▁pokračují	-11.0219
▁Elektr	-11.0219
▁Vítěz	-11.0219
▁nemohu	-11.0219
▁snažit	-11.0219
▁index	-11.0219
▁Poslanc	-11.0219
▁podporovat	-11.0219
▁vyplývají	-11.0219
▁chystá	-11.0219
▁medaili	-11.0219
▁vyřešit	-11.0219
▁krizi	-11.0219
▁Mnichov	-11.0219
▁vybudovat	-11.0219
▁bílkovin	-11.0219
sáhne	-11.0219
▁vypadat	-11.0219
▁Histori	-11.0219
▁srážek	-11.0219
▁Vysok	-11.0219
▁uvidí	-11.022
▁hůře	-11.022
▁Osobn	-11.022
▁turisty	-11.022
▁doufá	-11.022
▁mlýn	-11.022
▁umělecké	-11.022
▁skončí	-11.022
▁přiměřen	-11.022
▁kolegů	-11.0221
▁sněhu	-11.0221
mítnut	-11.0221
▁mzdov	-11.0221
▁zhodnocení	-11.0222
▁dobrá	-11.0222
▁tvorbě	-11.0223
▁obilí	-11.0224
▁vedlejší	-11.0225
▁mld	-11.0225
▁pouští	-11.0226
▁chlap	-11.0229
▁ráz	-11.023
▁sběr	-11.0231
▁síti	-11.0232
▁spodní	-11.0234
▁dcer	-11.0236
▁těší	-11.0238
▁přesvědčit	-11.0239
▁dešti	-11.0239
▁Form	-11.0242
vázal	-11.0244
plňuje	-11.0246
▁čestn	-11.0251
▁pohyboval	-11.0281
ALI	-11.029
▁cenný	-11.0297
▁stávající	-11.0316
▁nadšen	-11.0367
▁grafický	-11.0371
▁mlh	-11.0386
▁obrovský	-11.0424
▁ulic	-11.0426
▁svalov	-11.0433
▁buňk	-11.0458
▁mladý	-11.0482
nutně	-11.0501
nvestiční	-11.052
▁kvalifikovan	-11.053
▁1,5	-11.0543
vnějších	-11.0544
▁předběžn	-11.0551
▁grafick	-11.0552
▁Mluvčí	-11.0553
▁Rudolf	-11.0553
▁intenzit	-11.0553
▁jednoduchá	-11.0553
▁metropoli	-11.0553
▁nechtějí	-11.0553
▁nejpozději	-11.0553
▁otevřena	-11.0553
▁pochopení	-11.0553
▁výpověď	-11.0553
▁Pardubic	-11.0553
▁dosažení	-11.0553
▁elektráren	-11.0553
▁obsažen	-11.0553
▁teorii	-11.0553
▁tradičně	-11.0553
▁očekával	-11.0553
▁Obsah	-11.0553
▁neutrální	-11.0553
▁hrozb	-11.0553
plácet	-11.0553
táhnout	-11.0553
▁složitější	-11.0553
▁jmění	-11.0553
▁únoru	-11.0553
▁Moskva	-11.0553
▁vysílá	-11.0553
▁mechanick	-11.0553
▁Peníze	-11.0553
▁reakcí	-11.0553
▁řídící	-11.0553
▁multi	-11.0553
▁mezd	-11.0554
▁Divadl	-11.0554
▁anket	-11.0554
▁břehu	-11.0554
▁likvidace	-11.0554
▁vzácn	-11.0554
▁nevýhod	-11.0554
▁hezk	-11.0555
▁Rozdíl	-11.0556
▁poplatník	-11.0556
▁letecké	-11.0556
▁Zástupc	-11.0557
▁přesahuj	-11.0557
▁kategorii	-11.0558
▁kabel	-11.0558
▁operací	-11.0558
▁úlev	-11.0559
▁restauraci	-11.0559
▁dojít	-11.056
▁dotace	-11.056
▁Obdobn	-11.0561
▁dělají	-11.0563
▁výhodnější	-11.057
▁vtip	-11.057
▁Slovan	-11.0572
▁ideál	-11.0581
počtu	-11.0581
pomínají	-11.0588
visí	-11.0593
▁vyvolá	-11.0593
▁oblačnost	-11.0595
▁množ	-11.0596
▁komunisti	-11.0619
▁podnikatelský	-11.0631
▁účinně	-11.064
▁bytost	-11.0658
národních	-11.0669
▁Nemá	-11.067
▁městský	-11.0672
hraniční	-11.0679
▁Bank	-11.0717
▁Zahraničn	-11.0734
atřicet	-11.0769
▁reálný	-11.077
▁mluvil	-11.0773
▁hledal	-11.0788
▁tank	-11.079
▁nezaměstnanost	-11.0801
oučástí	-11.0835
hrává	-11.084
dpověď	-11.0852
▁kilometr	-11.0861
▁klasický	-11.0895
▁Afriky	-11.0897
▁Ameriky	-11.0897
▁Bohužel	-11.0897
▁Ladislav	-11.0897
▁Nedávn	-11.0897
▁Plzni	-11.0897
▁SCSI	-11.0897
▁Telecom	-11.0897
▁devatenáct	-11.0897
▁energii	-11.0897
▁gymnázi	-11.0897
▁instituce	-11.0897
▁investování	-11.0897
▁konkrétně	-11.0897
▁nejúspěšnější	-11.0897
▁nizozemsk	-11.0897
▁plzeňsk	-11.0897
▁strojírensk	-11.0897
▁upozorněn	-11.0897
▁Účast	-11.0897
▁čtvrtfinále	-11.0897
▁nejvýznamnější	-11.0897
▁rámeček	-11.0897
▁výrobek	-11.0897
▁čtvereční	-11.0897
▁bosenský	-11.0897
▁nalézt	-11.0897
▁přirozené	-11.0897
▁hudby	-11.0897
▁podpořil	-11.0897
▁hloubk	-11.0897
▁ohrožuj	-11.0897
▁garant	-11.0897
▁kapitán	-11.0897
▁Policisté	-11.0897
▁požadují	-11.0897
▁lokální	-11.0898
▁předčasn	-11.0898
▁chránit	-11.0898
▁ztráce	-11.0898
▁pobočk	-11.0898
▁mládí	-11.0898
▁koncepci	-11.0898
▁názvu	-11.0898
▁trzích	-11.0898
▁stabiliz	-11.0898
▁David	-11.0898
▁schránk	-11.0898
máhají	-11.0898
▁Včera	-11.0898
▁Všeobecn	-11.0898
▁okénk	-11.0898
▁odstavce	-11.0898
▁umělecký	-11.0898
▁klasifik	-11.0898
▁pouhé	-11.0898
▁zaujal	-11.0899
▁zimě	-11.0899
▁závad	-11.0899
▁léčebn	-11.0899
▁použil	-11.0899
▁vybrané	-11.0899
▁dražb	-11.0899
▁ekonomicky	-11.09
▁stabilní	-11.09
pouštějí	-11.09
▁Chip	-11.09
ight	-11.0903
najdeme	-11.0904
▁věnovan	-11.0904
▁Tentokrát	-11.0905
▁Stal	-11.0906
▁nadcházející	-11.0906
beton	-11.0908
▁Britsk	-11.0908
▁koncern	-11.091
▁kategorií	-11.0911
▁sklon	-11.0911
▁Nevím	-11.0911
▁kated	-11.0913
▁lamp	-11.0929
JÍ	-11.093
▁opravdov	-11.0931
▁navazuj	-11.0931
▁plod	-11.0944
▁dvojic	-11.0958
▁DEM	-11.0963
mlouva	-11.0971
▁Japon	-11.099
▁biologické	-11.0996
ogenní	-11.0997
'	-11.1009
▁relac	-11.1033
▁nekonečn	-11.1065
▁vyvoláva	-11.1077
▁textový	-11.1083
▁chemick	-11.1096
▁listopad	-11.1118
▁nesouhlas	-11.1119
stihnout	-11.1165
cestoval	-11.1194
▁zastoupen	-11.1197
▁stovk	-11.1206
▁vlk	-11.1209
▁řízen	-11.1223
▁poukaz	-11.1224
íčko	-11.1224
reprezenta	-11.1249
ntelektuál	-11.1255
▁Alexandr	-11.1255
▁Barceloně	-11.1255
▁Británii	-11.1255
▁Bělehrad	-11.1255
▁IFOR	-11.1255
▁Nejlepší	-11.1255
▁Portugalsk	-11.1255
▁chorvatské	-11.1255
▁cigaret	-11.1255
▁honorář	-11.1255
▁instalaci	-11.1255
▁multimediální	-11.1255
▁následek	-11.1255
▁podmínkou	-11.1255
▁požádat	-11.1255
▁publikován	-11.1255
▁tlačítka	-11.1255
▁tlačítkem	-11.1255
▁umožnit	-11.1255
▁úsměv	-11.1255
palestinsk	-11.1255
▁Bohemia	-11.1255
▁azbest	-11.1255
▁fázi	-11.1255
▁týdně	-11.1255
▁1987	-11.1255
▁březnu	-11.1255
▁populární	-11.1255
▁pravidlo	-11.1255
nápověd	-11.1255
▁1996	-11.1255
▁bazén	-11.1255
▁normy	-11.1255
▁pomáhá	-11.1255
▁obdiv	-11.1255
▁Organiza	-11.1255
psaný	-11.1255
▁déšť	-11.1255
▁kratší	-11.1255
▁pololetí	-11.1255
▁vrstvy	-11.1255
▁naléhav	-11.1255
▁zklamán	-11.1255
▁chalup	-11.1255
▁příslušníci	-11.1255
▁ploše	-11.1255
spěje	-11.1255
▁Srbsk	-11.1255
▁těžce	-11.1255
▁vyplácen	-11.1255
▁kanadsk	-11.1255
▁Věřím	-11.1255
▁ukáže	-11.1255
▁norma	-11.1255
▁provozovatel	-11.1255
▁doposud	-11.1255
▁sociálně	-11.1255
▁Soubor	-11.1255
▁divize	-11.1255
▁zajímat	-11.1255
▁Robert	-11.1255
▁značky	-11.1255
▁někoho	-11.1255
▁úvodu	-11.1255
▁likvidaci	-11.1256
▁pozdější	-11.1256
▁Závěr	-11.1256
▁Část	-11.1256
▁barvu	-11.1256
▁ocitl	-11.1256
▁prodávající	-11.1257
certifik	-11.1257
▁stoupl	-11.1258
▁Hodnot	-11.1259
▁kvalifikace	-11.1259
▁komisi	-11.1259
▁nedokáž	-11.1259
▁historik	-11.126
▁ekonomice	-11.1261
▁Jenom	-11.1261
▁nutný	-11.1262
▁Případ	-11.1262
▁zkušen	-11.1263
▁zeleni	-11.1263
ČNÍ	-11.1263
▁debat	-11.1264
▁klimatu	-11.1265
▁drog	-11.1267
vlastn	-11.1283
krýt	-11.1291
abilní	-11.1291
▁důsledk	-11.1297
mínil	-11.1298
▁myšlenka	-11.1304
▁Slovensk	-11.1313
▁Znám	-11.1334
▁absolvoval	-11.1336
▁britsk	-11.1357
▁vánoc	-11.1361
▁masov	-11.1362
▁stranick	-11.1371
hodnost	-11.1395
▁členský	-11.1433
bíral	-11.1434
▁fyzický	-11.1442
SKO	-11.1443
▁poledn	-11.1454
▁historick	-11.1456
yplývá	-11.1528
▁psycho	-11.1534
krývají	-11.1542
▁Správ	-11.1549
▁pouště	-11.155
▁Společn	-11.1557
▁Velm	-11.1562
▁nejedn	-11.1569
▁Nikd	-11.1577
jíždějí	-11.1607
▁vyšetřova	-11.1623
▁antropolog	-11.1624
▁Chomutov	-11.1625
▁Původně	-11.1625
▁Zvláštní	-11.1625
▁akcionářů	-11.1625
▁církví	-11.1625
▁deficit	-11.1625
▁galerie	-11.1625
▁náboženství	-11.1625
▁obrázků	-11.1625
▁ovladač	-11.1625
▁ovlivňuje	-11.1625
▁potrestán	-11.1625
▁prosazovat	-11.1625
▁upozorňuje	-11.1625
▁Ukrajiny	-11.1625
▁nedaleko	-11.1625
▁orchestr	-11.1625
▁priorit	-11.1625
▁produktivit	-11.1625
▁páteční	-11.1625
▁specifik	-11.1625
▁srdeční	-11.1625
▁zpracováva	-11.1625
▁1997	-11.1625
▁Koaliční	-11.1625
▁hřiště	-11.1625
▁obsluh	-11.1625
▁posádk	-11.1625
▁sledování	-11.1625
▁IBM	-11.1625
▁naznačil	-11.1625
▁šetření	-11.1625
▁určuje	-11.1625
▁bronz	-11.1625
▁držitel	-11.1625
▁nepřátel	-11.1625
▁oxidu	-11.1625
▁dveří	-11.1625
▁vrstev	-11.1625
▁burze	-11.1625
▁příznak	-11.1625
▁enzym	-11.1625
▁středoevropsk	-11.1625
▁usilovat	-11.1625
▁vzrůst	-11.1625
▁patrné	-11.1625
▁podnicích	-11.1625
▁příslušníků	-11.1625
▁podporou	-11.1625
připravovan	-11.1625
▁Tchaj	-11.1625
▁proslul	-11.1625
▁Formát	-11.1625
▁potíží	-11.1625
▁sdělovací	-11.1625
▁Trans	-11.1625
▁pronájem	-11.1625
▁hrozn	-11.1625
▁fáze	-11.1625
▁kritické	-11.1625
▁svátky	-11.1626
▁Tureck	-11.1626
▁příliv	-11.1626
▁filozofie	-11.1626
▁Word	-11.1626
▁královn	-11.1626
▁lyžař	-11.1626
▁naposledy	-11.1627
▁zámku	-11.1627
vázat	-11.1627
▁vzestup	-11.1627
▁Situac	-11.1627
▁myšlenkou	-11.1628
▁modifik	-11.1628
▁násilí	-11.1629
hodlají	-11.1629
▁dlouhodobě	-11.163
▁integraci	-11.1631
▁hutní	-11.1632
▁myšlenku	-11.1632
střih	-11.1632
▁těžb	-11.1633
▁válka	-11.1633
▁Týr	-11.1635
▁uhlí	-11.1636
▁měnové	-11.1637
▁Kreml	-11.1637
jmenovaný	-11.1638
▁sílu	-11.1638
▁kvalifik	-11.1641
▁tratí	-11.1642
▁nevhodn	-11.1642
▁profil	-11.1642
▁prováze	-11.1643
cházelo	-11.1644
▁vážný	-11.1645
▁podnět	-11.1646
▁obnovu	-11.1647
▁nízko	-11.1648
hodinové	-11.1659
▁návštěvník	-11.1661
▁zaměstnanec	-11.1666
▁Nizozem	-11.167
▁Komis	-11.1673
bíhají	-11.1677
▁jádro	-11.168
▁totožn	-11.1747
▁odložen	-11.1754
▁jezer	-11.1761
nechává	-11.1764
▁mírový	-11.1764
▁zachoval	-11.1796
psychologick	-11.182
▁centrál	-11.1872
▁vysoko	-11.1873
▁Jac	-11.1882
vesel	-11.1888
části	-11.189
▁obrazovk	-11.1917
▁snížen	-11.1921
▁Výhod	-11.1945
▁zrušen	-11.1949
▁vzdá	-11.196
▁vzpomínk	-11.1963
▁hygienic	-11.1991
studoval	-11.2001
jištěn	-11.2003
▁obtížně	-11.2003
▁Rakušan	-11.201
▁Republik	-11.201
▁Vedoucí	-11.201
▁důležitá	-11.201
▁fotoaparát	-11.201
▁inspekce	-11.201
▁majetkem	-11.201
▁nezměnil	-11.201
▁oznámení	-11.201
▁pohledávek	-11.201
▁redakce	-11.201
▁upozornit	-11.201
▁vyšetření	-11.201
radioaktivní	-11.201
▁Sovětský	-11.201
▁Thajsk	-11.201
▁Výzkum	-11.201
▁franků	-11.201
▁instalace	-11.201
▁května	-11.201
▁1968	-11.201
▁1984	-11.201
▁DPH	-11.201
▁Nejdřív	-11.201
▁Průměrn	-11.201
▁dodatečně	-11.201
▁nejmenší	-11.201
▁Temelín	-11.201
▁zoufal	-11.201
▁Bejbl	-11.201
▁hrubého	-11.201
▁stupňů	-11.201
▁zakladatel	-11.201
▁konstrukce	-11.201
▁period	-11.201
▁certifikát	-11.201
tvrzují	-11.201
▁pojmů	-11.201
▁zkratk	-11.201
▁vyvinul	-11.201
▁stovek	-11.201
▁ordinac	-11.201
▁dvojnásobn	-11.201
▁audio	-11.201
▁jedince	-11.201
▁teplá	-11.201
▁Bílé	-11.201
▁chápat	-11.201
▁sehrál	-11.201
▁vojsk	-11.201
▁přežít	-11.201
▁Sokol	-11.2011
▁zkoumá	-11.2011
▁pružn	-11.2011
▁Asociac	-11.2011
▁Řešení	-11.2011
▁ozdob	-11.2012
▁kvalifikační	-11.2012
▁uváděn	-11.2013
▁vyroben	-11.2013
▁modem	-11.2013
▁spolupracovat	-11.2013
▁sněhov	-11.2014
▁Norsk	-11.2014
▁platební	-11.2014
▁Plán	-11.2015
losování	-11.2015
▁kuponov	-11.2016
▁něčem	-11.2016
▁formální	-11.2017
▁zatížen	-11.2017
▁vázán	-11.2018
▁složité	-11.202
▁poslanecké	-11.2021
pravicov	-11.2023
▁Bill	-11.2025
kupuje	-11.2026
▁zlaté	-11.2029
▁týdeník	-11.2044
▁Obča	-11.2057
▁ozbrojen	-11.2063
▁přesvědčiv	-11.2074
▁pozván	-11.2092
▁doplněn	-11.2101
▁vystupuj	-11.2119
▁věrn	-11.2126
▁neshod	-11.2148
vyšších	-11.2165
morav	-11.2184
▁hydro	-11.221
▁charakterizova	-11.2219
▁olympijsk	-11.2234
▁potřebn	-11.224
▁spotřebu	-11.224
svědčení	-11.2291
▁rozhodnut	-11.2335
hruba	-11.2355
▁zřetel	-11.2368
▁Smlouv	-11.2401
ifikace	-11.2402
▁Vždy	-11.2409
▁náležit	-11.241
▁EuroTel	-11.241
▁Kalvoda	-11.241
▁Sociální	-11.241
▁energetik	-11.241
▁firmám	-11.241
▁hovořit	-11.241
▁komponent	-11.241
▁naštěstí	-11.241
▁nejrychlejší	-11.241
▁nežádoucí	-11.241
▁označuje	-11.241
▁posuzovat	-11.241
▁pracovnice	-11.241
▁publiku	-11.241
▁převzít	-11.241
▁redaktor	-11.241
▁rejstříku	-11.241
▁velkoobchod	-11.241
▁zdokonal	-11.241
zanedbateln	-11.241
▁Okresní	-11.241
▁brambor	-11.241
▁domnívají	-11.241
▁kalendář	-11.241
▁ovlivňují	-11.241
▁připomínk	-11.241
▁spoluhráč	-11.241
glaciál	-11.241
▁Domácí	-11.241
▁celostátní	-11.241
▁vyhlídk	-11.241
▁zázemí	-11.241
▁radikální	-11.241
▁dubnu	-11.241
▁stránek	-11.241
▁Českomoravsk	-11.241
▁Poborský	-11.241
▁kamarád	-11.241
▁uplatnit	-11.241
▁vyžadují	-11.241
▁Druhou	-11.241
▁souhrn	-11.241
▁přál	-11.241
▁odlišný	-11.241
▁efektivní	-11.241
▁Všechno	-11.241
▁osvobození	-11.241
▁zásilk	-11.241
▁začínal	-11.241
▁pokoušel	-11.241
▁nevědí	-11.241
▁viditeln	-11.241
▁záloh	-11.241
▁Musel	-11.241
▁Zákaz	-11.241
▁učinit	-11.241
▁Označ	-11.241
▁fungují	-11.241
▁invalid	-11.241
▁nestačil	-11.241
▁sněžení	-11.241
▁navržen	-11.241
▁Šéf	-11.241
▁forem	-11.2411
▁samospráv	-11.2411
▁prodlení	-11.2411
▁slyšet	-11.2411
▁dlouhodobý	-11.2411
biologie	-11.2412
▁podílejí	-11.2412
▁rysy	-11.2412
▁ztracen	-11.2412
▁přijatelné	-11.2412
▁Slavii	-11.2412
▁vracet	-11.2412
▁obrazovce	-11.2413
přát	-11.2414
▁říkají	-11.2414
▁škál	-11.2414
žádají	-11.2414
▁Objekt	-11.2415
▁vezme	-11.2416
▁studií	-11.2416
▁Vesel	-11.2421
lepnutím	-11.2421
▁dohad	-11.243
▁viděn	-11.2458
▁Dohod	-11.2462
▁zpěvák	-11.2478
▁dávk	-11.2492
▁Zelen	-11.2501
atřicetilet	-11.2561
▁odehráv	-11.2577
členné	-11.2623
▁zřízen	-11.2666
▁osvět	-11.2711
dávky	-11.2724
jistit	-11.2761
▁Prac	-11.2799
▁předcházel	-11.2804
rehabilit	-11.2826
▁triumf	-11.2826
mýšlí	-11.2826
▁Alžbět	-11.2826
▁CADKON	-11.2826
▁Finanční	-11.2826
▁Intergraph	-11.2826
▁Lebeď	-11.2826
▁Nejčastěj	-11.2826
▁Následuj	-11.2826
▁Pithart	-11.2826
▁Zjuganov	-11.2826
▁bližší	-11.2826
▁církvi	-11.2826
▁diagram	-11.2826
▁fenomén	-11.2826
▁hektar	-11.2826
▁komunální	-11.2826
▁konferencí	-11.2826
▁lázeňsk	-11.2826
▁navrhnout	-11.2826
▁neschopnost	-11.2826
▁nábytku	-11.2826
▁odmítají	-11.2826
▁odpovědí	-11.2826
▁ovlivněn	-11.2826
▁psychiatr	-11.2826
▁reagovat	-11.2826
▁schůzi	-11.2826
▁softwaru	-11.2826
▁strategii	-11.2826
▁technologii	-11.2826
▁ukazatel	-11.2826
▁uzavírá	-11.2826
▁vytvářejí	-11.2826
▁zpoždění	-11.2826
▁zpátky	-11.2826
▁zálivu	-11.2826
▁zůstanou	-11.2826
▁živočichů	-11.2826
▁žádoucí	-11.2826
▁altruismu	-11.2826
▁dědictví	-11.2826
▁leasing	-11.2826
▁nejstarší	-11.2826
▁nepřetržit	-11.2826
▁otevírá	-11.2826
▁Srbů	-11.2826
▁Vídni	-11.2826
▁asistent	-11.2826
▁public	-11.2826
▁atentát	-11.2826
▁jazz	-11.2826
▁nárůst	-11.2826
▁říjnu	-11.2826
▁květin	-11.2826
▁nezaměstnaných	-11.2826
▁dovednost	-11.2826
▁vyvinut	-11.2826
▁Bratink	-11.2826
▁Mencl	-11.2826
▁Mazda	-11.2826
▁splatnosti	-11.2826
zajišťují	-11.2826
▁Praktick	-11.2826
▁zastavení	-11.2826
▁zpomal	-11.2826
▁vyznačuj	-11.2827
▁podpoře	-11.2827
▁nízká	-11.2827
▁Polsko	-11.2827
▁mřížk	-11.2827
sazování	-11.2827
▁dokáží	-11.2827
jíždí	-11.2827
následuj	-11.2827
▁splnit	-11.2827
▁maximum	-11.2827
štejn	-11.2827
▁jistou	-11.2827
podivu	-11.2828
▁kombinaci	-11.2828
▁zazněl	-11.2828
▁Andre	-11.2828
▁přednášk	-11.2829
▁náprav	-11.2829
▁stůl	-11.2829
▁zvolit	-11.2829
▁rozsáhlý	-11.2829
▁Nabídk	-11.2829
▁brzd	-11.2829
▁zahrnut	-11.2829
▁zařadil	-11.283
▁interval	-11.283
▁vyrovnal	-11.283
▁trpí	-11.2831
▁vrchní	-11.2832
▁ligové	-11.2833
kryje	-11.2835
▁Zálež	-11.2835
▁Sedm	-11.2835
▁simul	-11.2836
▁nakažen	-11.2837
▁Technick	-11.284
▁Bonn	-11.2843
▁blesk	-11.285
oprvé	-11.2852
chytit	-11.286
charakterizuj	-11.2877
▁Mír	-11.29
▁nazýva	-11.2907
ower	-11.299
schválila	-11.3039
pomíná	-11.3051
▁včerejš	-11.3119
▁královsk	-11.3198
stoupení	-11.3206
vládne	-11.323
▁pozdě	-11.3257
▁individu	-11.3258
▁Siln	-11.3258
prezentuje	-11.326
▁Bratislava	-11.3261
▁Casimir	-11.3261
▁Demokratick	-11.3261
▁Jindřich	-11.3261
▁cizince	-11.3261
▁galerii	-11.3261
▁hlubší	-11.3261
▁hypotéz	-11.3261
▁identifik	-11.3261
▁kompetence	-11.3261
▁konstatuje	-11.3261
▁metropole	-11.3261
▁mikroorganism	-11.3261
▁nejhorší	-11.3261
▁nejmodernější	-11.3261
▁nejznámější	-11.3261
▁nominální	-11.3261
▁otevřít	-11.3261
▁podpořit	-11.3261
▁požadovat	-11.3261
▁prohlídk	-11.3261
▁představenstva	-11.3261
▁reaktor	-11.3261
▁semifinále	-11.3261
▁strategií	-11.3261
▁udržuje	-11.3261
▁vydavatel	-11.3261
▁výsledn	-11.3261
▁wimbledonsk	-11.3261
▁zveřejnil	-11.3261
▁Nedvěd	-11.3261
▁Počítač	-11.3261
▁Tigrid	-11.3261
▁charakteristik	-11.3261
▁dodržování	-11.3261
▁přitažliv	-11.3261
▁vojáci	-11.3261
▁zúčastněn	-11.3261
▁šablon	-11.3261
▁Africe	-11.3261
▁NDR	-11.3261
▁generací	-11.3261
▁literární	-11.3261
▁polojasno	-11.3261
▁požadoval	-11.3261
▁žadatel	-11.3261
dostatečnou	-11.3261
▁Ostatní	-11.3261
▁byznys	-11.3261
▁složek	-11.3261
▁strávil	-11.3261
▁údolí	-11.3261
▁doporučil	-11.3261
▁Majitel	-11.3261
▁stránky	-11.3261
▁kodex	-11.3261
▁Podstatn	-11.3261
▁nátlak	-11.3261
▁vyhovuje	-11.3261
▁Dříve	-11.3261
střílel	-11.3261
▁patřičn	-11.3261
▁divadle	-11.3261
▁vystřídal	-11.3261
▁položky	-11.3261
▁čtvrteční	-11.3261
▁rytíř	-11.3261
▁nevidí	-11.3261
▁nízký	-11.3261
▁Jugoslávie	-11.3261
▁Městsk	-11.3261
▁logické	-11.3261
▁vyrovnat	-11.3261
▁informovan	-11.3261
▁poplatek	-11.3261
▁počínaj	-11.3262
chlazení	-11.3262
▁stoupá	-11.3262
▁splnil	-11.3262
▁potravinářské	-11.3262
▁Prodej	-11.3262
▁podobná	-11.3262
▁účinku	-11.3262
▁štáb	-11.3262
▁Komerčn	-11.3262
▁Rychl	-11.3262
povídat	-11.3263
▁fotografie	-11.3263
▁přijme	-11.3263
▁počkat	-11.3263
▁rakouský	-11.3264
▁peset	-11.3264
▁zaručen	-11.3264
▁ničem	-11.3265
▁korekc	-11.3265
▁Marie	-11.3265
▁nápoj	-11.3267
▁Začal	-11.3267
▁malíř	-11.327
▁neděle	-11.327
▁vstupenk	-11.3273
▁Ruml	-11.3274
▁odhalen	-11.3277
▁teple	-11.3277
▁Uveden	-11.3277
▁lodi	-11.3278
▁zlatý	-11.3304
pochyby	-11.3304
▁odvet	-11.3308
▁složitý	-11.333
▁zvaný	-11.3331
▁Děl	-11.3394
▁symbolick	-11.3457
▁optick	-11.3479
▁úrokov	-11.3507
▁průběžn	-11.3533
přijeli	-11.3578
Severoatlantické	-11.3598
▁vyspěl	-11.361
▁pozic	-11.3625
hrával	-11.3662
▁převážn	-11.368
▁Návštěv	-11.3716
▁byrokrat	-11.3716
FIFA	-11.3716
▁Budějovic	-11.3716
▁Bulharsk	-11.3716
▁Dienstbier	-11.3716
▁Dosavadní	-11.3716
▁Fischer	-11.3716
▁Manažer	-11.3716
▁Siemens	-11.3716
▁Skupina	-11.3716
▁Těžko	-11.3716
▁algoritm	-11.3716
▁biskup	-11.3716
▁chirurg	-11.3716
▁družstvo	-11.3716
▁družstvu	-11.3716
▁geometrii	-11.3716
▁inflaci	-11.3716
▁naznačuje	-11.3716
▁neuspěl	-11.3716
▁normálně	-11.3716
▁regenerace	-11.3716
▁rekonstrukce	-11.3716
▁rozšiřuje	-11.3716
▁rámečku	-11.3716
▁seznámit	-11.3716
▁skupenství	-11.3716
▁službě	-11.3716
▁strategické	-11.3716
▁transformační	-11.3716
▁tribunál	-11.3716
▁vyhodnocen	-11.3716
▁zajistí	-11.3716
▁zúčastnit	-11.3716
▁Štědrý	-11.3716
▁Kongres	-11.3716
▁design	-11.3716
▁organizáto	-11.3716
▁označován	-11.3716
▁velvyslanectví	-11.3716
▁1982	-11.3716
▁disponuj	-11.3716
▁obličej	-11.3716
▁přiznává	-11.3716
▁zákrok	-11.3716
▁čistíren	-11.3716
▁shodují	-11.3716
▁stránku	-11.3716
▁výživ	-11.3716
připravoval	-11.3716
▁Poldi	-11.3716
▁neomezen	-11.3716
▁Červen	-11.3716
následoval	-11.3716
▁Dušan	-11.3716
▁posuzován	-11.3716
▁dodávek	-11.3716
▁vládnoucí	-11.3716
▁vstupenek	-11.3716
▁středisko	-11.3716
▁nabídkou	-11.3716
▁Armád	-11.3716
▁usiluje	-11.3716
▁Náklady	-11.3716
▁informován	-11.3716
▁posléze	-11.3716
▁žádat	-11.3716
▁konstrukcí	-11.3716
▁uznat	-11.3716
▁Manžel	-11.3716
▁skromn	-11.3716
▁Otevř	-11.3716
▁vazeb	-11.3716
▁Bavor	-11.3716
▁udržova	-11.3716
▁vazba	-11.3716
▁jindy	-11.3716
▁zastánc	-11.3716
▁Varech	-11.3716
▁spoléha	-11.3717
▁salát	-11.3717
▁leckd	-11.3717
▁hrůz	-11.3717
▁nabídne	-11.3717
▁zodpovědnost	-11.3718
▁Projekt	-11.3718
▁přejít	-11.3718
▁náhlé	-11.3718
▁senátní	-11.3718
allye	-11.3718
▁nepotřebuje	-11.3719
▁profesi	-11.3719
▁rozmístěn	-11.3719
▁směřuje	-11.372
střelen	-11.3723
hrádk	-11.3723
▁Oprav	-11.3723
▁nezákonn	-11.3727
▁nesporn	-11.3728
▁bojovn	-11.3738
▁napaden	-11.3742
▁tmav	-11.3763
Přerov	-11.3771
▁svatb	-11.3773
▁zved	-11.3777
▁brněnsk	-11.3793
kurzor	-11.3834
▁Poslanec	-11.3842
▁zatčen	-11.3866
zývají	-11.3917
▁Nemoh	-11.3931
▁urychl	-11.3938
například	-11.3957
schopné	-11.4005
▁násiln	-11.4008
▁Fotbalist	-11.4018
rovné	-11.4026
plyn	-11.4032
▁přenosov	-11.4038
▁Washington	-11.4055
▁důvěry	-11.4081
▁světeln	-11.4133
▁zhodnoc	-11.4188
▁Blízké	-11.4192
▁Ekonomick	-11.4192
▁Gabčíkov	-11.4192
▁William	-11.4192
▁aplikaci	-11.4192
▁důležitou	-11.4192
▁filharmoni	-11.4192
▁kariéru	-11.4192
▁konkurent	-11.4192
▁neexistují	-11.4192
▁ovlivnit	-11.4192
▁podmínkám	-11.4192
▁popularit	-11.4192
▁přirozeně	-11.4192
▁referenda	-11.4192
▁ubytovací	-11.4192
▁vyráběn	-11.4192
▁výpovědi	-11.4192
▁zneužití	-11.4192
▁Kreslení	-11.4192
▁Předpokládá	-11.4192
▁kanalizace	-11.4192
▁nepřítel	-11.4192
▁svědky	-11.4192
▁zázrak	-11.4192
▁definovan	-11.4192
▁paralel	-11.4192
▁předpokládal	-11.4192
▁snižovat	-11.4192
▁vynález	-11.4192
▁lehké	-11.4192
▁setkáváme	-11.4192
▁komunistů	-11.4192
▁pomůck	-11.4192
▁fosilní	-11.4192
▁kontrakt	-11.4192
▁Michail	-11.4192
▁etapě	-11.4192
▁rubrik	-11.4192
▁stupeň	-11.4192
atlantick	-11.4192
▁přivezl	-11.4192
▁obrátit	-11.4192
zřídka	-11.4192
▁jedinců	-11.4192
▁klobouk	-11.4192
▁zvyšují	-11.4192
▁nezmění	-11.4192
▁politicky	-11.4192
▁československý	-11.4192
▁přídav	-11.4192
imochodem	-11.4192
▁image	-11.4192
▁Atlantiku	-11.4192
▁talent	-11.4192
▁Dynam	-11.4192
▁povahy	-11.4192
▁válku	-11.4192
▁budoucna	-11.4192
▁antropologie	-11.4192
▁češtině	-11.4192
▁organick	-11.4192
▁týče	-11.4192
▁přírodu	-11.4193
▁staletí	-11.4193
▁smečky	-11.4193
▁zbaven	-11.4193
▁zkrátka	-11.4193
▁Karpov	-11.4193
hlíží	-11.4193
▁výtečn	-11.4193
▁Lendl	-11.4193
▁induk	-11.4194
průchod	-11.4194
▁mzda	-11.4194
▁obzor	-11.4195
▁rumunsk	-11.4195
▁genetick	-11.4195
▁vytížen	-11.4195
▁Zdeňk	-11.4195
▁arabské	-11.4196
▁Středisk	-11.4196
▁kritický	-11.4197
▁JAK	-11.4198
▁poražen	-11.4199
▁ocenil	-11.4199
▁nálad	-11.42
kcionáři	-11.42
▁převah	-11.4201
▁dostupné	-11.4202
▁zkresl	-11.4205
▁rozprav	-11.4205
bydlí	-11.421
▁arabský	-11.4211
zkoušet	-11.4213
▁ligový	-11.4215
rovnávací	-11.4219
▁hračk	-11.422
▁ráj	-11.4235
▁Krist	-11.4249
▁nápln	-11.4251
přesněji	-11.4251
▁absolv	-11.4266
zřetelně	-11.4273
jadern	-11.4276
▁vyprš	-11.4302
řejmě	-11.4351
▁archeolog	-11.4394
▁převlád	-11.453
▁týkají	-11.4574
▁japon	-11.4597
▁řešen	-11.4629
▁oddělen	-11.4638
příkladu	-11.4653
olicejní	-11.4688
ografii	-11.4691
▁Výsledek	-11.4692
▁Wembley	-11.4692
▁Zdravotn	-11.4692
▁anonymní	-11.4692
▁cizinců	-11.4692
▁definovat	-11.4692
▁dvojnásobek	-11.4692
▁evidenci	-11.4692
▁humanitární	-11.4692
▁intenzivně	-11.4692
▁komfort	-11.4692
▁království	-11.4692
▁lhůty	-11.4692
▁neúspěch	-11.4692
▁otázkách	-11.4692
▁ošetření	-11.4692
▁podruhé	-11.4692
▁pohotovost	-11.4692
▁počáteční	-11.4692
▁převzetí	-11.4692
▁připomenout	-11.4692
▁revoluce	-11.4692
▁srozumiteln	-11.4692
▁strategický	-11.4692
▁tvůrčí	-11.4692
▁týdnu	-11.4692
▁uhličitého	-11.4692
▁upozorňují	-11.4692
▁uskutečň	-11.4692
▁veřejnou	-11.4692
▁zdravotně	-11.4692
▁zvyšovat	-11.4692
▁zážitek	-11.4692
▁řekněme	-11.4692
▁Doufám	-11.4692
▁HGF	-11.4692
▁PŘED	-11.4692
▁dětmi	-11.4692
▁kriminál	-11.4692
▁nabídnut	-11.4692
peptid	-11.4692
▁Boleslav	-11.4692
▁Seznam	-11.4692
▁užitečné	-11.4692
▁výrobku	-11.4692
▁zajistil	-11.4692
neštěstí	-11.4692
▁Poborského	-11.4692
▁projednávání	-11.4692
▁zloděj	-11.4692
▁Výjimk	-11.4692
▁ostravské	-11.4692
▁sankce	-11.4692
▁sportovci	-11.4692
▁Havlov	-11.4692
▁LDS	-11.4692
▁promítá	-11.4692
▁série	-11.4692
▁Nobelov	-11.4692
▁umístit	-11.4692
▁skener	-11.4692
▁souprav	-11.4692
▁popsán	-11.4692
▁odevzda	-11.4692
▁pátý	-11.4692
▁srpnu	-11.4692
▁Mostaru	-11.4692
▁mobilní	-11.4692
pomáhal	-11.4692
▁opačný	-11.4692
▁MHz	-11.4692
▁chemie	-11.4692
▁krystal	-11.4692
▁sleduje	-11.4692
▁pozemků	-11.4692
▁Počítá	-11.4692
▁kompost	-11.4692
▁potravy	-11.4692
▁centrem	-11.4692
▁nepatří	-11.4692
▁Komora	-11.4692
▁zhoubn	-11.4692
▁komisí	-11.4692
▁Názor	-11.4692
▁rozvinut	-11.4692
▁letišti	-11.4692
▁stěžují	-11.4692
▁minimum	-11.4692
▁stačit	-11.4692
▁sehnat	-11.4692
▁román	-11.4692
▁veličin	-11.4692
skočit	-11.4692
▁národnostní	-11.4692
▁Prahu	-11.4692
záhad	-11.4692
▁Filip	-11.4693
▁Ústí	-11.4693
▁obránce	-11.4693
▁shluk	-11.4693
▁Úprav	-11.4693
▁vyhověl	-11.4693
▁Večer	-11.4693
▁nebrání	-11.4693
▁Strakoni	-11.4694
▁obnovit	-11.4694
▁remíz	-11.4694
▁chrání	-11.4698
▁podobnost	-11.47
▁zaslal	-11.4702
▁vylepš	-11.4707
▁dárk	-11.4712
určují	-11.4721
rozuměj	-11.4722
rychlostní	-11.4724
▁útočn	-11.4733
▁Klepn	-11.474
0.000	-11.4741
▁Bosn	-11.4749
▁kolekc	-11.4762
důrazně	-11.4795
pouštět	-11.4797
▁Chorvat	-11.4862
bírat	-11.4933
▁klinick	-11.4965
▁věčn	-11.5015
▁zemědělsk	-11.5026
▁Turist	-11.5026
▁registrac	-11.504
tvořily	-11.5051
▁šampionát	-11.5081
sekretariát	-11.5218
▁Dvořák	-11.5218
▁Lubomír	-11.5218
▁Maastrichtu	-11.5218
▁Sarajev	-11.5218
▁Schneider	-11.5218
▁Vinohrad	-11.5218
▁bratislavsk	-11.5218
▁cizinci	-11.5218
▁deklarace	-11.5218
▁evoluční	-11.5218
▁institut	-11.5218
▁kancléř	-11.5218
▁kmitočt	-11.5218
▁kytarist	-11.5218
▁medailí	-11.5218
▁ministerstev	-11.5218
▁nemožné	-11.5218
▁opozici	-11.5218
▁oživení	-11.5218
▁portfoli	-11.5218
▁princezn	-11.5218
▁přeháňky	-11.5218
▁redakci	-11.5218
▁restituční	-11.5218
▁struktuře	-11.5218
▁tabulátor	-11.5218
▁tiskárna	-11.5218
▁tisíciletí	-11.5218
▁univerzáln	-11.5218
▁uspokojení	-11.5218
▁uzávěr	-11.5218
▁vyloučit	-11.5218
▁vyrábějí	-11.5218
▁zúčastní	-11.5218
▁Bayern	-11.5218
▁cizině	-11.5218
▁lékáren	-11.5218
▁nečekaně	-11.5218
▁posouzení	-11.5218
▁skript	-11.5218
▁spánku	-11.5218
zrcadl	-11.5218
▁Antonín	-11.5218
▁Benešov	-11.5218
▁Náměst	-11.5218
▁archív	-11.5218
▁informovat	-11.5218
▁komunisté	-11.5218
▁minerální	-11.5218
▁nejsilnější	-11.5218
▁oslaben	-11.5218
▁Jednotliv	-11.5218
▁Weizs	-11.5218
▁altruist	-11.5218
▁ohlášen	-11.5218
▁přidružen	-11.5218
▁výkyvy	-11.5218
▁zlepšit	-11.5218
▁nevznik	-11.5218
▁stadia	-11.5218
▁krádež	-11.5218
▁zlepšil	-11.5218
▁svatební	-11.5218
▁Libanon	-11.5218
▁nahrazen	-11.5218
instalovat	-11.5218
šetřil	-11.5218
▁stoupenc	-11.5218
▁USD	-11.5218
▁lístky	-11.5218
▁družic	-11.5218
▁letadlo	-11.5218
▁Mazdy	-11.5218
▁řemesl	-11.5218
▁zasvěcen	-11.5218
▁válkou	-11.5218
▁preventivn	-11.5218
▁ohrom	-11.5218
▁Něco	-11.5218
▁licence	-11.5218
▁porušil	-11.5218
▁slalom	-11.5218
▁pozemky	-11.5218
▁ČSAV	-11.5218
▁čáry	-11.5218
▁jídlo	-11.5218
▁kádru	-11.5218
hlédl	-11.5218
▁neuvažuj	-11.5218
▁ovládat	-11.5218
▁Polsku	-11.5219
▁vydělat	-11.5219
▁jedinečn	-11.5219
▁penalt	-11.5219
rozhodoval	-11.5219
▁dealer	-11.5219
▁Odhad	-11.5219
▁umístil	-11.5219
▁účinný	-11.522
▁hlášen	-11.522
▁městečk	-11.5221
pálil	-11.5221
▁žánr	-11.5221
▁odvozen	-11.5222
▁uklid	-11.5222
▁hornin	-11.5223
▁dřevěný	-11.5225
dražil	-11.5228
▁dešťov	-11.5228
▁východisk	-11.5229
▁Nesmí	-11.5232
▁zakončen	-11.5237
▁odstín	-11.5238
▁převeden	-11.5246
▁přenesen	-11.5249
projevilo	-11.5288
▁oceňuj	-11.5294
▁Severoatlantick	-11.5356
strašně	-11.5376
▁uskutečnil	-11.5418
▁smrteln	-11.5469
▁Hodn	-11.5476
▁kvalitativn	-11.5504
ždyť	-11.5651
▁oblačno	-11.5703
edmdesát	-11.5711
▁umožňují	-11.5728
ografické	-11.5764
▁pojistn	-11.5766
▁Křesťan	-11.5774
▁Olszewsk	-11.5774
populárnější	-11.5774
▁Bezpečnost	-11.5774
▁Bierhoff	-11.5774
▁Evropou	-11.5774
▁Jackson	-11.5774
▁Jupiter	-11.5774
▁Karadžic	-11.5774
▁Kopřiv	-11.5774
▁Letošní	-11.5774
▁Litvínov	-11.5774
▁MIDI	-11.5774
▁Naštěstí	-11.5774
▁Softwar	-11.5774
▁Stehlík	-11.5774
▁Vietnam	-11.5774
▁arcibiskup	-11.5774
▁celosvětov	-11.5774
▁charitativní	-11.5774
▁chorvatský	-11.5774
▁dirigent	-11.5774
▁energií	-11.5774
▁kandidovat	-11.5774
▁krátkodobé	-11.5774
▁laboratorní	-11.5774
▁leccos	-11.5774
▁nahrávk	-11.5774
▁neexistoval	-11.5774
▁nešťastn	-11.5774
▁následovat	-11.5774
▁opozicí	-11.5774
▁ovlivnil	-11.5774
▁premiéře	-11.5774
▁prezervativ	-11.5774
▁prokuratur	-11.5774
▁překážky	-11.5774
▁restitucí	-11.5774
▁stability	-11.5774
▁viceprezident	-11.5774
▁vzdělávání	-11.5774
▁zdůvodnil	-11.5774
▁závislá	-11.5774
▁Úspěšn	-11.5774
▁úspěšnost	-11.5774
ejzajímavější	-11.5774
▁Obyvatel	-11.5774
▁Sněmovn	-11.5774
▁Soutěž	-11.5774
▁burzy	-11.5774
▁londýn	-11.5774
▁poskytne	-11.5774
▁seriózní	-11.5774
▁sudetský	-11.5774
▁televizor	-11.5774
▁totalitní	-11.5774
Standard	-11.5774
▁incident	-11.5774
▁kontext	-11.5774
▁ozónu	-11.5774
▁socialismu	-11.5774
▁vyměnil	-11.5774
▁zakázán	-11.5774
škráb	-11.5774
▁Madrid	-11.5774
▁dostatečné	-11.5774
▁imunitní	-11.5774
▁odlišné	-11.5774
▁podotkl	-11.5774
▁tendenci	-11.5774
▁učebnic	-11.5774
▁výslovně	-11.5774
▁získají	-11.5774
▁Čtvrt	-11.5774
▁Ukrajina	-11.5774
▁výkres	-11.5774
▁záleže	-11.5774
▁Atleti	-11.5774
▁preferenc	-11.5774
▁Město	-11.5774
▁výrobou	-11.5774
▁zachránil	-11.5774
▁Moderní	-11.5774
▁Podívej	-11.5774
▁herečka	-11.5774
▁mrtvé	-11.5774
▁abeced	-11.5774
▁kapitul	-11.5774
▁Pražan	-11.5774
▁nezískal	-11.5774
▁těžší	-11.5774
německou	-11.5774
▁Mandler	-11.5774
▁náleží	-11.5774
▁porušování	-11.5774
▁znamení	-11.5774
▁Island	-11.5774
▁zemědělci	-11.5774
▁filtr	-11.5774
▁vyžádá	-11.5774
burgu	-11.5774
▁laserov	-11.5774
▁profese	-11.5774
▁chápán	-11.5774
▁Dukly	-11.5774
▁zapsán	-11.5774
▁živnostenský	-11.5774
tlačit	-11.5774
▁naučit	-11.5774
▁hrozil	-11.5774
▁Obvodní	-11.5774
▁obvinil	-11.5774
▁Vojenské	-11.5774
▁zajímal	-11.5774
▁Hapal	-11.5775
▁převažuj	-11.5775
▁výlučn	-11.5775
▁kubismu	-11.5776
▁uplatňova	-11.5776
ampión	-11.5777
▁frakc	-11.5777
▁vystupoval	-11.5778
▁poctiv	-11.5779
▁utajen	-11.5779
▁proměnliv	-11.5779
členný	-11.578
▁přečetl	-11.578
▁úměrn	-11.5788
nechávají	-11.5802
▁Politick	-11.5803
poškozené	-11.5824
systém	-11.5834
především	-11.5837
▁integrovan	-11.584
▁předsednictv	-11.5858
účtování	-11.5865
▁pětadvacet	-11.5875
▁částečn	-11.588
▁magi	-11.5938
▁ověřen	-11.6043
▁momentáln	-11.6051
archeologi	-11.6116
▁Švýcar	-11.6165
▁mistrovsk	-11.6331
vyjádřen	-11.6351
▁Jugosláv	-11.636
svobozen	-11.6362
▁redukci	-11.6362
egyptsk	-11.6362
▁Běloruska	-11.6362
▁Jihoafrick	-11.6362
▁Manchester	-11.6362
▁Pentium	-11.6362
▁Polskem	-11.6362
▁Poštovní	-11.6362
▁Pravděpodobn	-11.6362
▁Rozhovor	-11.6362
▁Svorada	-11.6362
▁Významn	-11.6362
▁asteroid	-11.6362
▁displej	-11.6362
▁doprovázen	-11.6362
▁gramotnost	-11.6362
▁hřbitov	-11.6362
▁konfiguraci	-11.6362
▁mechanismy	-11.6362
▁ministerstvem	-11.6362
▁mrtvých	-11.6362
▁nejlevnější	-11.6362
▁nejvhodnější	-11.6362
▁nepřijatelné	-11.6362
▁nesprávn	-11.6362
▁organismů	-11.6362
▁oteplení	-11.6362
▁ovlivňova	-11.6362
▁podmínkami	-11.6362
▁pohromadě	-11.6362
▁potvrdit	-11.6362
▁pracovišti	-11.6362
▁prohlašuje	-11.6362
▁protagonist	-11.6362
▁sluchátka	-11.6362
▁spolupracují	-11.6362
▁stabilitu	-11.6362
▁strojírenství	-11.6362
▁svědků	-11.6362
▁ubytovn	-11.6362
▁uskutečněn	-11.6362
▁vyjadřova	-11.6362
▁vyvrchol	-11.6362
▁vzdělávací	-11.6362
▁výhrady	-11.6362
▁výsledcích	-11.6362
▁zachránit	-11.6362
▁zaměstnává	-11.6362
▁zvláštnost	-11.6362
▁zvýhodněn	-11.6362
▁závazek	-11.6362
▁závislé	-11.6362
▁švýcarské	-11.6362
doporučují	-11.6362
▁Eduard	-11.6362
▁Hrdličk	-11.6362
▁Niederl	-11.6362
▁ekvivalent	-11.6362
▁lidstva	-11.6362
▁mužstvu	-11.6362
▁označují	-11.6362
▁rozvržení	-11.6362
▁zbraň	-11.6362
▁Městě	-11.6362
▁Pořadatel	-11.6362
▁generaci	-11.6362
▁instance	-11.6362
▁inzerát	-11.6362
▁kampaň	-11.6362
▁kooperac	-11.6362
▁odehrál	-11.6362
▁vyjednávání	-11.6362
▁1981	-11.6362
▁Kepler	-11.6362
▁Vědci	-11.6362
▁zastávk	-11.6362
▁Uvažuje	-11.6362
▁bázi	-11.6362
▁meteorolog	-11.6362
▁složku	-11.6362
▁Thomas	-11.6362
přihlášk	-11.6362
▁kliniky	-11.6362
▁profesí	-11.6362
▁prokázán	-11.6362
▁Balkán	-11.6362
▁pátrá	-11.6362
▁očekávají	-11.6362
▁sazby	-11.6362
▁komentoval	-11.6362
▁uplatnil	-11.6362
▁vyznačen	-11.6362
▁Výběr	-11.6362
▁kosmický	-11.6362
▁čistírn	-11.6362
▁Právní	-11.6362
▁pouštní	-11.6362
omputer	-11.6362
▁SNR	-11.6362
▁obtíže	-11.6362
opakovaně	-11.6362
▁podléha	-11.6362
▁sérii	-11.6362
▁vazbě	-11.6362
▁překonat	-11.6362
▁zahrnují	-11.6362
▁Baker	-11.6362
▁hmyz	-11.6362
▁kontrast	-11.6362
režie	-11.6362
▁přehrad	-11.6362
▁prvotní	-11.6362
▁2:1	-11.6362
▁Gross	-11.6362
KDS	-11.6363
hlížel	-11.6363
▁nadějn	-11.6363
▁absenc	-11.6363
▁sladk	-11.6363
▁jarní	-11.6363
▁obezit	-11.6364
▁Radovan	-11.6364
▁patent	-11.6364
▁liberalizac	-11.6364
▁Kučer	-11.6364
pravdě	-11.6365
▁konverz	-11.6365
▁dimenz	-11.6365
běhne	-11.6367
ohrozil	-11.6367
▁lůžk	-11.6367
▁zmenšen	-11.6367
▁nadměrn	-11.6376
ředstavitelé	-11.6378
▁jakéhokoli	-11.6382
▁usilují	-11.6394
eportáž	-11.6394
▁tureck	-11.6395
▁vyzván	-11.6395
▁tečk	-11.6401
▁mohutn	-11.6412
▁ideologick	-11.6431
▁zkrac	-11.6448
▁maxim	-11.6462
▁dávn	-11.6463
▁anglick	-11.6537
program	-11.6542
▁muslimsk	-11.6559
svědčuje	-11.6659
způsobují	-11.674
▁splněn	-11.6835
▁ovládá	-11.6915
smdesát	-11.6941
Cagiva	-11.6987
▁Barcelony	-11.6987
▁Dudajev	-11.6987
▁Frankfurt	-11.6987
▁Honecker	-11.6987
▁Konkrétn	-11.6987
▁Liverpool	-11.6987
▁Lobkowicz	-11.6987
▁Myslíte	-11.6987
▁Schumacher	-11.6987
▁Stráský	-11.6987
▁angličtiny	-11.6987
▁atribut	-11.6987
▁databázový	-11.6987
▁dosaženo	-11.6987
▁dětství	-11.6987
▁efektivnosti	-11.6987
▁epidemie	-11.6987
▁eventuáln	-11.6987
▁exhibic	-11.6987
▁extremist	-11.6987
▁fundamentalist	-11.6987
▁hollywoodsk	-11.6987
▁intenzivní	-11.6987
▁jménu	-11.6987
▁kinematografie	-11.6987
▁komplikace	-11.6987
▁kriminalist	-11.6987
▁kritizoval	-11.6987
▁lhůtě	-11.6987
▁metabolick	-11.6987
▁mláďat	-11.6987
▁nabízet	-11.6987
▁nejmladší	-11.6987
▁notebook	-11.6987
▁ohrozit	-11.6987
▁pozůstatk	-11.6987
▁pódiu	-11.6987
▁redakční	-11.6987
▁rozšiřování	-11.6987
▁spekulace	-11.6987
▁spekulací	-11.6987
▁svědectví	-11.6987
▁tlačítek	-11.6987
▁vyčleněn	-11.6987
▁vztazích	-11.6987
▁výdělečn	-11.6987
▁zdůrazňuje	-11.6987
▁úředníci	-11.6987
▁Čarnogursk	-11.6987
▁švýcarský	-11.6987
▁Moskvy	-11.6987
▁Měsíc	-11.6987
▁cizinec	-11.6987
▁evoluce	-11.6987
▁nabízel	-11.6987
▁nelíbí	-11.6987
▁nesmějí	-11.6987
▁pohledávky	-11.6987
▁poloostrov	-11.6987
▁polštář	-11.6987
▁počínání	-11.6987
▁pronájmu	-11.6987
▁seznámil	-11.6987
▁skrývá	-11.6987
▁trápí	-11.6987
▁ÚSES	-11.6987
▁ČSTK	-11.6987
▁Harrachov	-11.6987
▁Luboš	-11.6987
▁Větší	-11.6987
▁konkurs	-11.6987
▁omezování	-11.6987
▁separatist	-11.6987
▁znepokojen	-11.6987
▁Apple	-11.6987
▁TNF	-11.6987
▁bydliště	-11.6987
▁expanz	-11.6987
▁nacházel	-11.6987
▁předpokládají	-11.6987
generační	-11.6987
▁levněji	-11.6987
▁profesní	-11.6987
▁stadion	-11.6987
▁Opět	-11.6987
▁hnízd	-11.6987
kontaminac	-11.6987
▁Budinský	-11.6987
▁bezespor	-11.6987
▁lůžek	-11.6987
▁nazývá	-11.6987
▁plynáren	-11.6987
▁ropovod	-11.6987
▁rozmnož	-11.6987
▁ilustrac	-11.6987
▁Vánoční	-11.6987
▁prodavač	-11.6987
▁nerozumí	-11.6987
▁matematické	-11.6987
Oscar	-11.6987
▁poskytovan	-11.6987
▁terminologi	-11.6987
▁sdružuj	-11.6987
▁vyhrazen	-11.6987
▁šlecht	-11.6987
▁kosmické	-11.6987
kompenz	-11.6987
KDH	-11.6987
▁skandál	-11.6987
▁belgick	-11.6987
▁nazvaný	-11.6987
▁převyšuj	-11.6987
▁odlišuj	-11.6987
▁recenze	-11.6988
▁trojnásobn	-11.6988
▁vyplacen	-11.6988
▁PŘI	-11.6989
▁snižují	-11.6989
týkal	-11.6989
▁usiloval	-11.6989
▁levicov	-11.6989
kročit	-11.6989
2:0	-11.699
▁Vodičk	-11.699
▁rovnost	-11.6992
▁průhledn	-11.6995
▁pyšn	-11.6996
▁vápenc	-11.6996
▁geografick	-11.7018
▁selekčn	-11.7022
▁předešl	-11.7022
Finsko	-11.7022
kontinentální	-11.7025
významn	-11.703
uskutečnila	-11.7049
rozuměl	-11.7078
▁Brněnsk	-11.7087
pracovala	-11.7123
▁konstatova	-11.7181
bílých	-11.7221
▁nepřinesl	-11.7335
▁neobyčejn	-11.7365
▁Způsob	-11.7579
▁dvacát	-11.7618
obyčejně	-11.7646
JPEG	-11.7653
sloučenin	-11.7653
▁Austrálie	-11.7653
▁Domnívám	-11.7653
▁Hamburk	-11.7653
▁Mitterrand	-11.7653
▁Oldřich	-11.7653
▁Pivovar	-11.7653
▁Saúdsk	-11.7653
▁Vešker	-11.7653
▁Vídeň	-11.7653
▁WWW	-11.7653
▁bankovnictví	-11.7653
▁biochemi	-11.7653
▁cementárn	-11.7653
▁deklaraci	-11.7653
▁důležitější	-11.7653
▁elementární	-11.7653
▁federaci	-11.7653
▁firmách	-11.7653
▁funkčnost	-11.7653
▁hardwarov	-11.7653
▁jednodušší	-11.7653
▁komentátor	-11.7653
▁konfigurace	-11.7653
▁konkurovat	-11.7653
▁kosmonaut	-11.7653
▁krasobruslař	-11.7653
▁literatuře	-11.7653
▁marketingu	-11.7653
▁mediální	-11.7653
▁médií	-11.7653
▁nacionalism	-11.7653
▁nominaci	-11.7653
▁novotvary	-11.7653
▁nukleární	-11.7653
▁odpovědět	-11.7653
▁pneumatik	-11.7653
▁pojišťovnou	-11.7653
▁poptávku	-11.7653
▁problematice	-11.7653
▁předpovědi	-11.7653
▁předvánoční	-11.7653
▁přerozdělování	-11.7653
▁racionální	-11.7653
▁rekreaci	-11.7653
▁rozsáhlejší	-11.7653
▁symplektick	-11.7653
▁trénovat	-11.7653
▁vypráví	-11.7653
▁vyžadovat	-11.7653
▁zapomenout	-11.7653
▁zavražděn	-11.7653
▁zodpovězen	-11.7653
▁zákulisí	-11.7653
▁úložiště	-11.7653
▁Četrans	-11.7653
▁FBIS	-11.7654
▁Informace	-11.7654
▁Ludvík	-11.7654
▁fungování	-11.7654
▁infarkt	-11.7654
▁makléř	-11.7654
▁pseudo	-11.7654
▁referát	-11.7654
▁rozvíjejí	-11.7654
▁rubrice	-11.7654
▁seskupení	-11.7654
▁stěžovat	-11.7654
▁tiskáren	-11.7654
▁tolerance	-11.7654
▁červnov	-11.7654
▁Harvard	-11.7654
▁Pistol	-11.7654
▁Stráž	-11.7654
▁definice	-11.7654
▁nenávist	-11.7654
▁pozměň	-11.7654
▁praktik	-11.7654
▁prozradil	-11.7654
▁přihlášen	-11.7654
▁rozvíjet	-11.7654
▁vláken	-11.7654
▁východoevropský	-11.7654
hlídce	-11.7654
▁1983	-11.7654
▁domorodc	-11.7654
▁kvót	-11.7654
▁rozčleněn	-11.7654
▁zaručit	-11.7654
▁1976	-11.7654
▁interiér	-11.7654
▁procedur	-11.7654
▁Návrat	-11.7654
▁osaměl	-11.7654
▁rozsudk	-11.7654
▁plošný	-11.7654
▁vypracován	-11.7654
▁infikova	-11.7654
▁archiv	-11.7654
▁zjišťova	-11.7654
▁analytick	-11.7654
▁otazník	-11.7654
▁mikrofon	-11.7654
▁odvezl	-11.7654
▁účinků	-11.7654
▁neškodn	-11.7654
▁Veřejn	-11.7654
znamenají	-11.7654
▁vzbudil	-11.7654
▁reagují	-11.7654
▁ujistil	-11.7654
▁finalist	-11.7654
přízeň	-11.7654
▁domníval	-11.7654
▁chaotick	-11.7655
▁přehnan	-11.7655
▁přípustn	-11.7656
▁tragick	-11.7657
▁fixac	-11.7657
▁brazilsk	-11.7657
▁oboustrann	-11.7657
▁jednostrann	-11.7658
▁Uhersk	-11.7659
▁uplatňován	-11.7659
▁architektonick	-11.7659
▁Značn	-11.7662
▁rockov	-11.7664
▁etnick	-11.7666
▁Aktiv	-11.7689
▁protějš	-11.7751
▁příznačn	-11.7775
symetri	-11.7819
milionový	-11.7826
(	-12.7526
"	-13.0002
<	-13.1836
