<unk>	0
<s>	0
</s>	0
<doc>	0
</doc>	0
<head>	0
</head>	0
<phr>	0
</phr>	0
▁	-1.79441
,	-3.51926
.	-3.64753
u	-4.21736
i	-4.39947
a	-4.40461
m	-4.53334
▁a	-4.60567
▁v	-4.60784
y	-4.613
▁se	-4.74618
▁na	-4.79569
ch	-4.99524
s	-5.17965
▁s	-5.19621
á	-5.20085
o	-5.21277
▁z	-5.2574
í	-5.26691
▁je	-5.27385
e	-5.28322
t	-5.32746
ho	-5.39028
▁"	-5.4727
▁že	-5.53056
ů	-5.54987
▁do	-5.55808
▁po	-5.56334
é	-5.59106
ě	-5.60783
z	-5.62154
▁o	-5.63383
ž	-5.64338
▁za	-5.65545
em	-5.68307
▁pro	-5.68405
d	-5.75173
ou	-5.77241
l	-5.9011
ní	-5.90195
v	-5.95982
ně	-5.97135
to	-5.98667
k	-5.98807
p	-5.98823
▁V	-6.04508
▁-	-6.05428
▁k	-6.05525
ý	-6.13309
r	-6.14378
mi	-6.20614
b	-6.2168
▁vy	-6.2176
▁ve	-6.22232
▁to	-6.22994
▁od	-6.23262
▁(	-6.26194
na	-6.26289
▁S	-6.27938
ce	-6.28378
▁při	-6.28502
▁ne	-6.32665
st	-6.3436
▁by	-6.36465
li	-6.39378
ná	-6.40985
č	-6.41188
le	-6.41488
la	-6.42024
te	-6.47788
▁ale	-6.48055
n	-6.48568
ku	-6.48568
>	-6.49052
j	-6.49728
né	-6.49875
me	-6.4999
ka	-6.51371
ci	-6.54372
it	-6.54761
ých	-6.55249
š	-6.56596
▁si	-6.59757
h	-6.62396
▁jako	-6.6559
lo	-6.6577
▁jsou	-6.66595
ky	-6.66671
▁které	-6.67056
c	-6.68055
▁Po	-6.71841
uje	-6.73601
x	-6.75132
ové	-6.76717
)	-6.78162
▁však	-6.79504
in	-6.80033
▁tak	-6.83045
▁:	-6.84505
▁před	-6.84531
ře	-6.84859
▁A	-6.87451
no	-6.88006
en	-6.9082
▁který	-6.91036
vá	-6.93627
ovat	-6.94223
f	-6.95391
ze	-6.95494
po	-6.96025
g	-6.96189
▁Z	-6.96195
ni	-6.96623
▁nebo	-6.97682
▁pře	-6.98542
mu	-6.98873
ek	-6.99161
al	-6.99742
▁jeho	-6.99937
ro	-7.00235
▁O	-7.00619
▁bude	-7.00862
ta	-7.01019
▁K	-7.01877
ého	-7.03018
?	-7.03606
ný	-7.04848
nou	-7.05417
▁jen	-7.07211
ří	-7.07557
ru	-7.08744
il	-7.09457
▁Na	-7.12081
pl	-7.12444
ti	-7.13035
jí	-7.13545
že	-7.13861
vě	-7.14026
ko	-7.14819
ech	-7.14835
va	-7.15116
▁má	-7.15382
▁než	-7.15679
ra	-7.16176
▁už	-7.17088
▁jak	-7.17415
▁P	-7.17681
▁aby	-7.19889
ování	-7.23325
cí	-7.23372
ne	-7.23989
or	-7.25589
▁pod	-7.25759
el	-7.26038
▁byl	-7.26132
ných	-7.26343
▁jejich	-7.27398
da	-7.27991
▁být	-7.28664
▁jsem	-7.28739
▁Je	-7.30705
ová	-7.31427
▁až	-7.32214
ř	-7.32564
lu	-7.33009
▁která	-7.33449
ma	-7.33536
vý	-7.33642
▁také	-7.3423
on	-7.34722
ují	-7.36329
▁podle	-7.36962
▁jsme	-7.37416
▁ob	-7.37792
▁M	-7.37801
▁roz	-7.38802
ov	-7.40644
ým	-7.41172
tu	-7.42528
S	-7.42894
če	-7.43035
ři	-7.4372
▁let	-7.43881
lá	-7.43884
▁Ne	-7.44751
kou	-7.44794
ské	-7.45283
▁co	-7.45454
ba	-7.45996
čí	-7.46406
▁mezi	-7.46987
ách	-7.47183
je	-7.47601
ň	-7.47663
ny	-7.47999
D	-7.4865
▁J	-7.50364
at	-7.51252
▁není	-7.51323
▁D	-7.51687
▁ze	-7.52051
ových	-7.52333
er	-7.52571
an	-7.52641
vol	-7.53194
▁své	-7.53218
ním	-7.5329
▁již	-7.53324
▁ani	-7.53864
děl	-7.53955
▁bylo	-7.54332
tě	-7.55728
▁či	-7.56266
se	-7.56626
ší	-7.56684
ri	-7.56831
▁ještě	-7.56862
nu	-7.56873
▁U	-7.57511
ví	-7.57866
kr	-7.58567
tr	-7.58663
▁H	-7.58938
▁když	-7.58989
lí	-7.60278
▁může	-7.60624
▁korun	-7.6084
ost	-7.61389
▁další	-7.61605
▁Do	-7.62071
▁byla	-7.62496
de	-7.63526
ty	-7.63728
▁toho	-7.63821
kud	-7.63886
ků	-7.64886
ve	-7.65311
vi	-7.65379
/	-7.65405
▁B	-7.65763
▁bez	-7.66038
ly	-7.66787
ům	-7.66813
ha	-7.6704
▁To	-7.67466
ace	-7.67689
P	-7.68468
).	-7.68644
1	-7.69262
hr	-7.69466
▁té	-7.70545
▁pak	-7.71254
▁ú	-7.71648
▁F	-7.74074
▁kteří	-7.74522
re	-7.7456
ného	-7.74613
▁kde	-7.75074
oval	-7.75089
ních	-7.75974
▁tím	-7.76215
by	-7.7692
nost	-7.77393
▁Pro	-7.78225
▁více	-7.78319
▁G	-7.79476
▁nad	-7.79581
▁nej	-7.79707
▁tedy	-7.80838
tra	-7.81013
▁první	-7.81325
▁roku	-7.81398
ká	-7.81461
stup	-7.81671
od	-7.82384
▁Za	-7.83327
či	-7.83516
2	-7.83532
I	-7.83771
cích	-7.83891
▁kdy	-7.83975
▁I	-7.84019
ení	-7.84051
pe	-7.84146
),	-7.84452
ží	-7.84644
hl	-7.84675
si	-7.84959
nější	-7.85788
▁nich	-7.85891
ovi	-7.86345
▁kon	-7.88121
▁musí	-7.88187
5	-7.88328
▁re	-7.89248
▁proti	-7.89812
▁T	-7.90231
ální	-7.90431
pra	-7.905
▁mají	-7.90518
ém	-7.90842
ový	-7.91738
ry	-7.91865
T	-7.92442
tá	-7.92473
aci	-7.92606
M	-7.92811
▁de	-7.9304
pr	-7.93394
▁L	-7.93423
▁C	-7.93457
▁Ko	-7.94758
6	-7.95152
▁roce	-7.95242
du	-7.95302
ot	-7.95345
▁pouze	-7.95468
še	-7.9574
-	-7.95878
is	-7.96801
▁ke	-7.96805
et	-7.97233
ového	-7.97568
kon	-7.97737
bu	-7.98147
▁tom	-7.98172
▁pří	-7.9877
▁proto	-7.98891
▁budou	-7.98951
ských	-7.98965
stav	-7.99197
▁tomu	-7.99287
▁Š	-7.99785
ující	-7.99858
hu	-7.99881
▁její	-7.9993
▁nás	-7.99989
dí	-8.00119
ční	-8.00766
ným	-8.00783
lé	-8.00883
3	-8.00947
zí	-8.00973
▁vlastní	-8.01082
▁19	-8.01435
▁tu	-8.0158
▁řekl	-8.01814
C	-8.01935
9	-8.01937
tí	-8.02027
▁ji	-8.02302
dy	-8.02396
4	-8.02554
▁poslední	-8.02713
co	-8.03031
vo	-8.0305
▁třeba	-8.03273
ické	-8.0338
kem	-8.03422
0	-8.03572
ská	-8.03589
str	-8.04474
▁protože	-8.04616
ově	-8.05281
▁přes	-8.05302
▁totiž	-8.05326
▁3	-8.05464
▁lze	-8.06422
án	-8.06506
vy	-8.06759
ců	-8.06891
ji	-8.07082
7	-8.07227
▁Při	-8.07325
nosti	-8.07848
pa	-8.08047
V	-8.08137
▁li	-8.08139
vod	-8.08146
▁Ve	-8.08536
us	-8.08771
val	-8.09145
ši	-8.09281
ovou	-8.09365
N	-8.09387
sti	-8.09398
▁asi	-8.09694
za	-8.10282
B	-8.1042
ol	-8.10721
klad	-8.1122
ský	-8.11704
dr	-8.1172
K	-8.11756
▁E	-8.1211
osti	-8.12445
▁velmi	-8.12792
A	-8.12803
vat	-8.12842
ání	-8.13072
▁byly	-8.13088
▁zatím	-8.13387
bě	-8.13626
▁měl	-8.13629
ar	-8.14411
vr	-8.14815
ami	-8.1527
ur	-8.15524
lou	-8.15605
ter	-8.16407
sta	-8.16732
▁nám	-8.17073
▁dva	-8.17661
br	-8.17842
▁včera	-8.18076
ím	-8.18206
▁tisíc	-8.18518
sp	-8.20628
R	-8.21352
os	-8.21686
ního	-8.219
▁tři	-8.22128
▁dnes	-8.22224
▁všech	-8.22244
ích	-8.22554
ček	-8.22966
fi	-8.22997
ili	-8.23407
O	-8.23421
▁firmy	-8.23476
ila	-8.23579
ského	-8.24162
ec	-8.24196
let	-8.24838
▁něm	-8.25237
▁především	-8.25776
▁Ma	-8.26126
spo	-8.26236
▁R	-8.26565
▁Jak	-8.26839
w	-8.26936
nout	-8.2733
▁představ	-8.27457
ám	-8.28027
▁případě	-8.28331
▁dvou	-8.28604
▁zákon	-8.28728
▁'	-8.2912
▁například	-8.29186
8	-8.29208
▁Co	-8.29728
▁rok	-8.29894
▁část	-8.30245
▁procent	-8.30525
há	-8.30562
mat	-8.30731
▁nez	-8.31176
▁mít	-8.3146
▁čas	-8.31462
té	-8.31916
▁jim	-8.3197
E	-8.31986
▁době	-8.32822
▁nyní	-8.33221
itel	-8.33481
L	-8.33519
dob	-8.33662
ací	-8.33852
per	-8.33956
▁několik	-8.34153
▁zda	-8.34278
▁Mo	-8.34645
rod	-8.3537
U	-8.355
čin	-8.36233
ství	-8.36305
ští	-8.36578
právě	-8.36789
▁ty	-8.3714
ob	-8.37154
ť	-8.37189
▁mohou	-8.38087
▁lidí	-8.38208
▁práce	-8.38525
▁jeden	-8.38541
▁společnosti	-8.38563
form	-8.38603
▁W	-8.38809
▁stále	-8.3915
ými	-8.3917
ají	-8.39242
plat	-8.39531
▁těchto	-8.39744
es	-8.39754
▁ovšem	-8.39869
▁všechny	-8.40164
man	-8.40374
sko	-8.40511
▁mě	-8.40734
ova	-8.41007
žen	-8.41324
ník	-8.41376
cen	-8.41734
▁systém	-8.41819
men	-8.42123
cela	-8.4226
pat	-8.42512
Z	-8.42531
...	-8.42616
be	-8.42809
▁nové	-8.43204
sk	-8.43286
▁program	-8.4334
▁Ale	-8.43402
▁Ch	-8.43473
▁pa	-8.43542
▁Podl	-8.43771
▁Bo	-8.43799
▁4	-8.43901
rad	-8.43964
▁Tak	-8.43966
▁kterou	-8.44249
nik	-8.44304
ované	-8.44417
ovali	-8.44589
▁nedo	-8.44706
▁což	-8.4506
ič	-8.45078
do	-8.45551
▁nes	-8.45905
▁větší	-8.4593
▁Ob	-8.46042
nit	-8.46219
▁svět	-8.47014
▁tento	-8.47064
▁Od	-8.4787
ú	-8.48059
hled	-8.48231
▁uvedl	-8.48821
čka	-8.49104
ven	-8.49293
▁jiné	-8.49316
▁možné	-8.49323
▁stát	-8.49323
ář	-8.49396
▁jednání	-8.49412
lit	-8.49465
▁Vy	-8.49674
op	-8.49783
stal	-8.50048
ali	-8.50334
vedl	-8.50421
Á	-8.50475
▁České	-8.50603
ovala	-8.50956
ační	-8.50959
▁země	-8.51402
▁dalších	-8.51475
ických	-8.52109
▁nevy	-8.52394
▁mo	-8.52553
up	-8.52618
nov	-8.52785
▁Č	-8.52879
▁10	-8.5332
▁ČR	-8.53915
▁naše	-8.54145
▁měla	-8.54148
▁kdo	-8.54205
▁Se	-8.54248
ing	-8.54343
rát	-8.54389
▁Praze	-8.54667
dní	-8.54677
▁neu	-8.54989
ice	-8.55119
▁N	-8.55137
▁zejména	-8.5526
ga	-8.55356
téměř	-8.55666
▁nejen	-8.55701
zn	-8.55706
hy	-8.55718
▁nepo	-8.5593
pis	-8.55991
▁zařízení	-8.56065
ed	-8.56348
▁svou	-8.56366
▁základní	-8.56459
▁věd	-8.56955
▁výkon	-8.57608
▁mu	-8.57806
▁Proto	-8.58181
▁Ta	-8.58192
▁začal	-8.58435
ant	-8.58451
▁hodin	-8.58737
▁strany	-8.58741
ik	-8.5888
▁5	-8.59097
sku	-8.59148
▁možnost	-8.59192
potřeb	-8.60023
▁prostředí	-8.60078
kov	-8.60125
▁naši	-8.60211
jezd	-8.60266
F	-8.60319
▁sto	-8.60466
00	-8.60584
▁%	-8.60877
▁letech	-8.60879
▁jde	-8.6129
▁pan	-8.61392
skou	-8.61573
ge	-8.61826
▁Te	-8.61833
▁Kdy	-8.61852
▁dvě	-8.61854
:	-8.61889
▁svého	-8.61952
▁sice	-8.62037
▁každý	-8.62684
▁svých	-8.63147
▁sta	-8.63221
▁závod	-8.63694
▁tam	-8.6407
ev	-8.64844
ver	-8.65002
ste	-8.65067
▁místo	-8.6519
les	-8.65453
▁postup	-8.66101
▁státní	-8.66104
rán	-8.6617
▁osob	-8.66283
mysl	-8.66479
▁kom	-8.66979
ment	-8.67002
fe	-8.67042
▁obchodní	-8.67126
rů	-8.67139
por	-8.67156
jší	-8.67345
▁tomto	-8.67431
▁vše	-8.67517
▁světa	-8.67782
▁Ro	-8.6838
vní	-8.68597
▁vz	-8.68633
álně	-8.68856
▁zde	-8.68943
▁prezident	-8.68961
ická	-8.69294
▁Pa	-8.69455
▁druhé	-8.69553
▁způsob	-8.6971
as	-8.69806
nil	-8.69984
▁ministr	-8.70306
jde	-8.70378
dat	-8.7042
ném	-8.70456
▁Pr	-8.70743
▁milionů	-8.71187
▁výstav	-8.71446
rt	-8.71842
ad	-8.71855
▁Re	-8.72131
▁sociální	-8.72352
▁film	-8.72354
▁něco	-8.72436
zen	-8.72583
▁svým	-8.72584
gr	-8.72585
▁vlády	-8.72593
▁problém	-8.72667
▁St	-8.7278
ovým	-8.73377
krát	-8.73407
▁Mi	-8.73444
▁000	-8.73662
▁škol	-8.73812
▁stejně	-8.74055
▁nemá	-8.74122
iz	-8.74292
▁říká	-8.74304
▁Ú	-8.74417
rn	-8.74469
▁Br	-8.74517
▁pracovní	-8.74813
▁soud	-8.75095
olog	-8.75289
▁nic	-8.75446
▁kolem	-8.75741
▁některé	-8.75831
▁prodej	-8.76173
ovací	-8.76254
kl	-8.76408
tní	-8.76515
nými	-8.76605
▁Nej	-8.76682
▁ceny	-8.76821
nice	-8.76828
▁zboží	-8.77143
ck	-8.77194
▁stran	-8.77358
▁spolu	-8.77635
▁stav	-8.77789
▁zákona	-8.77802
▁vždy	-8.77809
▁Před	-8.77812
▁pět	-8.77892
nění	-8.77936
sky	-8.78068
▁zápas	-8.78132
▁Jan	-8.78177
pad	-8.78409
%	-8.78449
▁Ka	-8.78545
▁opět	-8.78794
▁oblasti	-8.79154
kové	-8.79218
vání	-8.79255
▁2	-8.79296
▁podíl	-8.7934
G	-8.79565
▁příliš	-8.7962
▁dobře	-8.79647
▁patří	-8.79819
▁ten	-8.80213
▁finanční	-8.80304
▁svůj	-8.80472
▁dosud	-8.80501
▁několika	-8.80503
▁části	-8.80521
▁návrh	-8.80694
▁cen	-8.80818
▁některých	-8.80871
▁di	-8.80941
dává	-8.80991
▁Le	-8.81037
nes	-8.81122
▁práci	-8.81151
id	-8.81175
ském	-8.8124
▁dá	-8.81242
ilo	-8.81468
▁firma	-8.81492
▁zemí	-8.81676
ber	-8.81688
▁Kr	-8.81697
ic	-8.8177
▁6	-8.82041
H	-8.82042
▁domácí	-8.82181
mluv	-8.8229
Í	-8.82309
▁ex	-8.82489
▁vůbec	-8.82523
ován	-8.82855
ran	-8.83234
▁rodin	-8.83736
níci	-8.83849
▁půl	-8.83927
ig	-8.83965
▁období	-8.84266
raz	-8.84299
rád	-8.84465
iště	-8.84751
▁byli	-8.84917
res	-8.84956
▁neboť	-8.85124
tur	-8.85219
▁největší	-8.85325
řad	-8.85459
▁zájem	-8.8565
ější	-8.86042
▁hor	-8.86183
▁správ	-8.86198
dl	-8.86302
▁vývoj	-8.86429
▁změn	-8.86445
▁zahraniční	-8.8647
▁Ho	-8.86694
▁letošní	-8.86757
▁velký	-8.86761
čet	-8.86795
▁díl	-8.86813
žení	-8.86827
▁obraz	-8.86953
▁sebe	-8.87092
dle	-8.87323
voz	-8.87428
▁vstup	-8.8759
kol	-8.87651
▁Al	-8.87664
pro	-8.87786
nutí	-8.87856
bou	-8.87873
▁chyb	-8.87915
▁české	-8.87919
▁Ná	-8.88008
Č	-8.88177
▁rozdíl	-8.8824
▁bo	-8.88405
▁dohod	-8.88429
▁účast	-8.88566
▁nejsou	-8.8858
ner	-8.88717
šel	-8.8878
▁In	-8.88833
dra	-8.88903
▁často	-8.89031
měř	-8.89038
▁Pod	-8.8909
ala	-8.89193
▁vyšší	-8.89194
čky	-8.89269
▁Václav	-8.89311
▁projekt	-8.89317
▁velké	-8.89684
▁Pří	-8.8984
pen	-8.89855
▁střední	-8.89861
▁byt	-8.89869
▁1	-8.89909
ložit	-8.90066
ovaných	-8.90329
chází	-8.90421
ul	-8.90442
▁neza	-8.90457
▁dokonce	-8.90803
ického	-8.90811
▁USA	-8.90813
▁12	-8.90825
nt	-8.90979
▁čtyř	-8.90982
▁kam	-8.91203
▁jste	-8.91212
▁20	-8.91219
rat	-8.91244
▁systému	-8.91309
ér	-8.91455
▁jedn	-8.91549
ák	-8.91607
var	-8.91727
▁společnost	-8.91745
▁přímo	-8.91934
dal	-8.91964
▁Má	-8.91985
▁odbor	-8.92097
fr	-8.92235
▁nejlepší	-8.92313
▁Vý	-8.92478
▁obsah	-8.92575
ovém	-8.9274
▁Ty	-8.92814
▁Li	-8.92963
go	-8.93071
stoupil	-8.93082
▁sám	-8.93095
▁tr	-8.93103
▁čtyři	-8.9327
▁měli	-8.93425
▁třetí	-8.9349
▁lidé	-8.93511
▁hlavní	-8.93621
ang	-8.93636
▁Kč	-8.93674
▁ředitel	-8.93681
▁celé	-8.9371
▁nemoc	-8.93831
▁jež	-8.93844
▁vyh	-8.9403
ska	-8.9405
během	-8.94115
and	-8.9418
▁tří	-8.942
ón	-8.94228
▁počet	-8.94295
čení	-8.94302
▁Ba	-8.94332
▁názor	-8.94338
▁Zá	-8.94351
▁nebude	-8.94385
▁polovin	-8.94645
▁doby	-8.94796
nské	-8.94971
▁1992	-8.95016
▁rovněž	-8.95022
ště	-8.95033
▁snad	-8.95089
▁republik	-8.95201
▁kontrol	-8.95455
fo	-8.95489
▁Js	-8.95566
▁slov	-8.95763
šení	-8.95802
▁informace	-8.95802
gen	-8.9587
he	-8.95885
▁hodnot	-8.95964
▁obchod	-8.96031
▁získal	-8.96202
▁život	-8.9635
▁níž	-8.96438
ač	-8.96484
▁trhu	-8.96587
▁První	-8.96621
▁nimi	-8.9681
▁počítač	-8.97087
vůli	-8.97176
▁mohl	-8.97183
▁vám	-8.97245
▁mnoho	-8.97269
sil	-8.97288
tek	-8.97306
zřejmě	-8.97385
včetně	-8.97409
▁trh	-8.97693
▁situace	-8.97795
metr	-8.97909
ková	-8.97984
rob	-8.98003
▁takže	-8.98084
pt	-8.98139
▁den	-8.98182
▁model	-8.98216
▁boj	-8.98232
▁obě	-8.98278
▁pohyb	-8.98489
ď	-8.98551
▁zahraničí	-8.98602
▁řád	-8.98609
▁vod	-8.9874
mír	-8.99189
bl	-8.99215
▁případ	-8.99507
brán	-8.99518
▁18	-8.99623
▁podnik	-8.99645
dů	-8.99799
tato	-8.99957
měr	-9.00141
▁text	-9.00218
▁životní	-9.00397
▁méně	-9.00589
▁autor	-9.00705
▁činnost	-9.00838
íme	-9.00912
▁současné	-9.01363
▁Evropy	-9.01483
▁peníze	-9.01484
▁řešení	-9.01502
hlav	-9.01597
ST	-9.01681
▁konce	-9.01886
▁trenér	-9.01902
▁význam	-9.02001
kách	-9.02002
kla	-9.02044
▁např	-9.02248
▁vedení	-9.02307
▁takové	-9.02323
▁Zatím	-9.02347
▁víc	-9.02357
▁materiál	-9.02744
lep	-9.03035
▁jedna	-9.03041
▁nový	-9.03111
▁něj	-9.03141
▁premiér	-9.03167
▁Mar	-9.03217
▁cest	-9.03341
▁čtvrt	-9.03498
▁způsobem	-9.03653
▁chce	-9.03765
▁dost	-9.03941
ak	-9.04046
▁člověk	-9.04085
▁nemůže	-9.04089
nem	-9.0429
▁spíše	-9.04531
ren	-9.04626
tor	-9.0481
▁kole	-9.04811
▁15	-9.04839
▁dále	-9.04899
znal	-9.04923
ským	-9.05037
vede	-9.05077
▁republiky	-9.05109
▁Da	-9.05113
jištěn	-9.05326
bud	-9.05349
▁neměl	-9.05424
▁člen	-9.05478
▁mezinárodní	-9.05483
▁jedno	-9.05546
▁výhod	-9.05594
din	-9.05749
▁navíc	-9.05753
▁Tr	-9.05791
atel	-9.058
ající	-9.05809
▁přitom	-9.05809
▁rozhodnutí	-9.05835
▁plat	-9.05908
▁návštěv	-9.06176
▁obyvatel	-9.06623
▁vlastně	-9.06713
▁dobu	-9.06746
▁šest	-9.06903
▁jednotlivý	-9.06926
bor	-9.07028
▁mimo	-9.07105
▁jednoho	-9.07131
▁muž	-9.07168
▁občan	-9.07257
vu	-9.07323
rop	-9.07324
▁prostor	-9.07366
▁dostal	-9.07475
▁naopak	-9.07509
▁znovu	-9.07523
▁plán	-9.07564
▁problémy	-9.07579
ujeme	-9.07702
ární	-9.07886
▁množství	-9.07951
gu	-9.08035
ené	-9.0815
▁Gr	-9.08162
ele	-9.0819
▁Lu	-9.08324
▁rychle	-9.08398
▁mal	-9.08552
▁provoz	-9.08955
bar	-9.08972
len	-9.09137
▁vyp	-9.09225
▁jaké	-9.09281
▁pohled	-9.09343
▁znamená	-9.09361
▁míst	-9.09556
tů	-9.0965
ému	-9.09831
viz	-9.09861
▁skutečně	-9.09979
▁dr	-9.10042
hal	-9.10111
ovo	-9.10117
▁partner	-9.10205
▁příští	-9.10272
▁Petr	-9.10321
▁města	-9.10333
▁nebyl	-9.10345
▁většinou	-9.1066
▁platí	-9.107
▁straně	-9.10765
▁určen	-9.10792
▁základ	-9.10851
▁ostatní	-9.10895
inter	-9.11035
ický	-9.1105
lék	-9.11053
▁naší	-9.11059
nek	-9.11109
▁zhruba	-9.11119
▁1.	-9.11614
nici	-9.11635
▁svém	-9.11792
nos	-9.11828
ČS	-9.12003
▁dlouho	-9.12033
šti	-9.12039
šlo	-9.12053
ten	-9.12068
jem	-9.1225
ir	-9.12403
tvo	-9.12425
▁plyn	-9.12459
aj	-9.12466
ily	-9.12531
▁list	-9.1268
ud	-9.12798
nský	-9.12805
icky	-9.12898
▁území	-9.12975
ovaly	-9.13172
▁řízení	-9.13174
ion	-9.13368
▁deset	-9.13421
▁Jiří	-9.1345
ována	-9.13483
vést	-9.13705
NÍ	-9.13729
tře	-9.13772
▁jiných	-9.1385
nk	-9.13884
▁nelze	-9.13921
▁minut	-9.13926
▁celý	-9.13939
▁málo	-9.1394
ané	-9.13999
▁důvod	-9.14005
pol	-9.1401
lin	-9.14186
tisk	-9.14358
▁vů	-9.14394
▁firem	-9.14394
▁bych	-9.1449
slov	-9.14546
▁skupin	-9.14847
zo	-9.14854
▁výběr	-9.14867
▁úřad	-9.15075
▁prav	-9.1509
▁sedm	-9.1535
▁nepři	-9.15393
▁zase	-9.1545
bývá	-9.15492
▁letos	-9.1553
▁bank	-9.15568
hn	-9.15667
kli	-9.15771
▁smlouvy	-9.15825
▁hra	-9.15876
▁dolarů	-9.15902
▁tzv	-9.15906
▁vláda	-9.16088
▁jej	-9.16136
nese	-9.16302
▁vedoucí	-9.16364
kor	-9.16485
slav	-9.16512
▁fa	-9.16606
▁moc	-9.16841
▁Ha	-9.16911
▁právní	-9.16967
▁musel	-9.17183
koli	-9.17261
▁politik	-9.17282
▁jedné	-9.17303
ó	-9.17359
▁mnoh	-9.17423
▁jednot	-9.17524
▁pomocí	-9.17653
▁lepší	-9.17782
▁Rad	-9.17869
▁krok	-9.17974
▁prv	-9.18021
átor	-9.18068
▁metod	-9.18281
ok	-9.1843
ložil	-9.18444
▁žádné	-9.18461
▁Byl	-9.18537
▁vznik	-9.18608
▁pěti	-9.18641
▁jiný	-9.1876
▁pražské	-9.18784
▁roky	-9.18886
▁prohlásil	-9.1894
▁25	-9.19018
▁druhý	-9.19072
ovaný	-9.19111
kul	-9.19167
čil	-9.19181
▁činnosti	-9.19205
▁neo	-9.19252
ca	-9.19263
der	-9.193
▁Pře	-9.19373
▁sil	-9.19421
▁Ku	-9.19808
▁Přesto	-9.19879
zení	-9.20005
race	-9.20196
▁vztah	-9.20218
▁majitel	-9.2026
▁Další	-9.2026
▁dál	-9.20261
▁klub	-9.20321
vou	-9.204
ké	-9.2043
ává	-9.20433
šť	-9.2058
▁kvalit	-9.20595
myšlen	-9.20644
▁7	-9.20732
▁výzkum	-9.20765
alo	-9.208
▁různých	-9.20814
▁100	-9.20886
RA	-9.20909
graf	-9.20909
▁Ž	-9.20943
▁vás	-9.20965
kami	-9.20984
▁obou	-9.21014
▁světě	-9.21028
▁jednou	-9.21043
▁později	-9.21281
▁znám	-9.2129
nul	-9.21435
▁americké	-9.21449
mer	-9.21622
▁střed	-9.21649
port	-9.21916
▁posl	-9.22052
▁chod	-9.22234
▁můžete	-9.22578
▁týden	-9.22644
▁západní	-9.22681
▁ČSFR	-9.22811
▁zdravotní	-9.22811
išť	-9.22812
▁menší	-9.22831
blíž	-9.22959
▁oba	-9.22992
▁Tento	-9.23048
del	-9.23105
▁státu	-9.23297
▁podnikatel	-9.23362
dom	-9.23373
▁30	-9.23426
jedná	-9.23489
J	-9.2359
bil	-9.23673
▁člověka	-9.23771
▁Evropě	-9.2385
▁bývalé	-9.2386
▁An	-9.23925
▁živ	-9.24285
▁svobod	-9.24373
▁století	-9.24374
▁Kon	-9.24417
▁tým	-9.24467
star	-9.24519
▁já	-9.24628
vali	-9.24799
▁služby	-9.24899
▁De	-9.24916
ES	-9.24945
▁skupiny	-9.24946
▁programu	-9.25022
▁podniku	-9.25214
iny	-9.2535
rem	-9.25371
▁věci	-9.25428
den	-9.2543
▁11	-9.2545
▁hlas	-9.25465
▁pís	-9.25686
ance	-9.25777
ící	-9.25811
dit	-9.25913
▁soutěž	-9.25954
▁funkce	-9.25961
▁úspěch	-9.25961
▁jinak	-9.25972
▁16	-9.26069
▁teplot	-9.26077
▁prý	-9.26101
▁pokus	-9.26112
▁CD	-9.26116
▁Sta	-9.26186
▁8	-9.26318
ňuje	-9.26356
tem	-9.2643
▁fakt	-9.26552
lem	-9.26685
▁zároveň	-9.26696
pracovat	-9.26749
▁led	-9.26905
▁mělo	-9.26944
▁situaci	-9.27033
▁obr	-9.27034
▁kart	-9.27184
▁večer	-9.272
dvacet	-9.27296
pokoj	-9.27491
▁nových	-9.27558
▁dnešní	-9.27576
tivní	-9.27599
▁dobré	-9.27607
ster	-9.27648
lek	-9.27655
▁hotel	-9.27676
▁nep	-9.27713
ovány	-9.27825
▁připraven	-9.28117
▁možná	-9.28118
▁snímku	-9.28123
▁Ru	-9.28421
▁předsed	-9.2866
▁tvrdí	-9.28746
▁efekt	-9.28802
▁náklady	-9.28812
▁13	-9.28817
▁projev	-9.28826
▁stojí	-9.2899
▁přesto	-9.29017
▁povinnost	-9.29077
▁stejné	-9.29116
bal	-9.29239
vin	-9.29246
ško	-9.29457
▁prvním	-9.29505
▁politické	-9.29772
▁titul	-9.29777
▁oprav	-9.29824
lid	-9.29951
▁pořád	-9.29954
▁ode	-9.30125
nci	-9.30136
▁máme	-9.30307
▁1993	-9.30321
▁děti	-9.30323
▁trest	-9.30435
isté	-9.30546
▁malé	-9.30567
▁Ten	-9.30617
▁podporu	-9.30636
▁mohli	-9.30876
▁automobil	-9.3088
▁ztrát	-9.30886
▁ochran	-9.30889
▁test	-9.30926
ovalo	-9.30959
▁měly	-9.30972
▁mistr	-9.31076
ření	-9.31222
▁La	-9.31307
byl	-9.31361
nka	-9.31409
pit	-9.31415
▁získat	-9.31441
▁Praha	-9.31443
▁měst	-9.3149
ard	-9.31576
▁my	-9.31597
▁zas	-9.31599
▁místní	-9.31722
▁cenu	-9.31849
▁17	-9.31936
zv	-9.31944
▁stud	-9.32029
▁čist	-9.32135
ct	-9.32326
kat	-9.32484
▁Ti	-9.32489
▁určité	-9.325
▁bod	-9.32512
bychom	-9.32522
▁majetku	-9.32574
▁dokument	-9.32576
▁nakonec	-9.32576
▁deseti	-9.32632
▁států	-9.32693
▁objev	-9.32825
vil	-9.32836
▁poměr	-9.32875
▁všechno	-9.32886
▁toto	-9.32939
▁těch	-9.33005
ností	-9.3308
▁rozhodl	-9.33153
▁nikdy	-9.33161
▁osm	-9.33166
▁Me	-9.33366
▁Slovensk	-9.33441
čné	-9.3355
padl	-9.33601
nic	-9.33857
▁14	-9.34009
80	-9.34161
▁skončil	-9.34302
▁výši	-9.34331
py	-9.34514
stává	-9.34519
CH	-9.34551
tky	-9.34554
kládá	-9.34659
▁podniků	-9.3471
bran	-9.34719
▁porad	-9.34814
▁papír	-9.34898
▁telefon	-9.34912
lů	-9.34913
ickou	-9.34955
▁pár	-9.34972
nické	-9.35061
ův	-9.35108
▁fond	-9.35164
jev	-9.35182
000	-9.35292
▁9	-9.35366
▁zpráv	-9.35418
nc	-9.35423
št	-9.35423
ton	-9.35431
▁novin	-9.35454
▁souhlas	-9.35465
▁manžel	-9.35466
▁vliv	-9.35591
▁dříve	-9.35607
▁kap	-9.35779
W	-9.35872
eb	-9.35962
uji	-9.35991
počíta	-9.35991
▁příprav	-9.36063
▁Ze	-9.36204
▁nového	-9.36236
NA	-9.36247
▁dne	-9.36327
Š	-9.36434
▁akci	-9.36488
▁sobotu	-9.36645
▁Prahy	-9.36645
▁místě	-9.36681
nky	-9.36753
▁Roz	-9.3681
▁možnosti	-9.36884
▁zdá	-9.36904
▁pre	-9.36946
▁Du	-9.36981
▁vody	-9.3701
▁nutné	-9.37242
▁stanov	-9.37323
DA	-9.37353
tit	-9.37384
▁post	-9.37422
▁kdyby	-9.3743
hrát	-9.37462
▁lety	-9.37681
▁Jelcin	-9.37839
ici	-9.37877
▁vznikl	-9.37877
▁osobní	-9.38024
▁disku	-9.38273
▁polo	-9.38278
ivé	-9.38429
cké	-9.38433
držel	-9.38479
▁druh	-9.38563
▁starost	-9.38701
▁nepře	-9.38759
▁parlamentu	-9.38811
zem	-9.38823
▁Cen	-9.38907
▁zisk	-9.3905
▁účel	-9.39091
▁stavu	-9.39178
▁proč	-9.39325
▁vys	-9.39445
▁svaz	-9.39536
▁všem	-9.39552
▁získá	-9.39562
50	-9.39576
▁ministerstva	-9.39657
▁bychom	-9.39762
níků	-9.39948
▁typ	-9.39957
▁zemi	-9.39984
▁předseda	-9.40159
OV	-9.40199
hle	-9.40204
▁vítěz	-9.4025
▁kapitál	-9.40271
kázal	-9.40291
▁Rusk	-9.40408
kovi	-9.40461
▁přece	-9.40549
▁vysvětl	-9.40843
▁Tato	-9.40869
▁informací	-9.40888
▁organizace	-9.40888
▁všichni	-9.40888
▁policie	-9.40888
▁samozřejmě	-9.40974
▁potom	-9.41022
▁akce	-9.41023
lení	-9.41026
lat	-9.41144
▁přístup	-9.41442
oč	-9.41504
▁spojen	-9.4151
▁pokles	-9.41511
▁nikdo	-9.41519
ění	-9.41622
ence	-9.41801
▁můžeme	-9.41855
par	-9.41857
▁Klaus	-9.42135
▁poté	-9.42158
▁hlavně	-9.42198
vz	-9.42237
▁trval	-9.42286
▁Není	-9.42341
▁poměrně	-9.42416
▁přijat	-9.42424
čně	-9.42431
ovaná	-9.42449
nebo	-9.42583
▁Kromě	-9.42763
▁nižší	-9.42763
▁českých	-9.42798
▁div	-9.42921
▁lev	-9.43221
▁věcí	-9.4333
▁sdružení	-9.43396
trochu	-9.43397
počítá	-9.43403
zdrav	-9.43436
hla	-9.43462
dním	-9.43476
▁dodal	-9.43517
▁doprav	-9.43538
▁původní	-9.43564
▁schopn	-9.43564
▁dvěma	-9.43573
▁tvrd	-9.43615
šli	-9.43647
fer	-9.43745
▁prezidenta	-9.44064
▁vět	-9.44118
OS	-9.44262
stran	-9.44332
jící	-9.44518
ismu	-9.44523
▁něho	-9.4455
▁SSSR	-9.44674
▁pu	-9.44679
▁sobě	-9.44695
ij	-9.44816
▁uzavře	-9.4483
prostřed	-9.45098
▁Di	-9.45108
▁Jana	-9.45144
prve	-9.45167
▁200	-9.45226
▁prohlášení	-9.45319
býval	-9.45322
▁Mezi	-9.45355
▁her	-9.45589
ickým	-9.45668
▁cena	-9.45701
▁zákazník	-9.45711
▁výrazně	-9.45829
osud	-9.45864
padá	-9.45906
dla	-9.45921
Ž	-9.45951
▁podmínky	-9.45968
▁kromě	-9.45969
▁někdy	-9.45969
▁komise	-9.4597
▁Jestli	-9.45971
▁úvěr	-9.45982
▁Jako	-9.46018
aly	-9.46227
▁budov	-9.46321
šil	-9.46367
ika	-9.46435
rak	-9.46473
▁zásad	-9.46487
▁šéf	-9.46623
násob	-9.46663
ovy	-9.46741
▁spoj	-9.46813
jasn	-9.4688
izace	-9.4693
▁základě	-9.47149
▁služeb	-9.4728
▁výroby	-9.4728
▁zemích	-9.47291
stavit	-9.47319
čku	-9.47496
▁života	-9.47541
▁50	-9.47566
▁Evropské	-9.47785
▁došlo	-9.47848
eta	-9.4785
▁většina	-9.47942
▁čtenář	-9.47942
▁Morav	-9.47963
ide	-9.48031
▁založen	-9.48049
▁vzor	-9.4817
▁prac	-9.48384
▁růst	-9.48542
jich	-9.48548
▁mimořádn	-9.48609
▁čím	-9.48739
van	-9.48935
▁důsled	-9.49123
ismus	-9.49208
19	-9.49222
▁práv	-9.49222
▁samostatn	-9.4928
▁hned	-9.49301
cký	-9.4933
▁místa	-9.4975
▁šesti	-9.49849
▁1991	-9.49956
▁peněz	-9.49957
▁tvoří	-9.49977
▁nejvyšší	-9.50096
▁Pe	-9.50134
gan	-9.50217
▁pomoc	-9.50282
▁národ	-9.50311
▁miliard	-9.50318
vají	-9.50332
▁objekt	-9.50364
▁dostat	-9.50415
▁mnoha	-9.50503
▁Ar	-9.50525
▁soubor	-9.50526
▁výbor	-9.50546
▁rozpočtu	-9.50636
▁tehdy	-9.50636
▁host	-9.50645
▁povrch	-9.50646
▁jistě	-9.50651
▁jich	-9.50714
▁vyz	-9.50752
ovými	-9.50759
▁syn	-9.50827
▁uměl	-9.50835
tal	-9.50954
lík	-9.51072
▁vedle	-9.51285
cházejí	-9.51295
▁struktur	-9.51321
▁vysoké	-9.51321
▁dalším	-9.51341
▁ekonom	-9.51343
▁start	-9.51387
čních	-9.51438
▁samo	-9.5161
▁český	-9.5175
▁nepro	-9.5175
▁hry	-9.51768
▁východ	-9.51843
▁nějak	-9.51877
rovna	-9.51895
sídl	-9.51975
▁dosavadní	-9.5201
▁vyhrál	-9.52011
rit	-9.52017
▁vítězství	-9.52037
▁teď	-9.52055
mor	-9.52192
žije	-9.52264
nec	-9.52374
▁takový	-9.52422
ký	-9.52539
▁milionu	-9.52553
mohlo	-9.52596
▁uživatel	-9.52705
▁prosince	-9.52705
▁poprvé	-9.52712
▁ploch	-9.52717
▁prostředky	-9.52728
▁pla	-9.52759
▁rychlost	-9.52808
▁úkol	-9.52812
▁nebylo	-9.52844
▁východní	-9.52887
▁chtěl	-9.52942
▁členů	-9.53028
proti	-9.53078
▁Jen	-9.53144
▁Že	-9.53176
mohla	-9.53352
▁konkrétní	-9.53404
▁princip	-9.53404
▁unie	-9.53421
▁dat	-9.53472
▁Čí	-9.53474
▁nena	-9.53477
ujících	-9.53604
▁40	-9.53666
díky	-9.53721
produkt	-9.53753
▁neod	-9.53757
óz	-9.5402
ovaného	-9.54099
▁spolupráci	-9.54108
▁výsledky	-9.54108
▁opatření	-9.54108
znamenal	-9.54109
▁zůstal	-9.54116
▁úprav	-9.54118
▁teprve	-9.54137
▁Zde	-9.5419
▁rozvoj	-9.54319
ostí	-9.54485
▁disk	-9.54543
▁žádný	-9.54691
▁spor	-9.5474
▁záležitost	-9.54818
▁sezón	-9.54825
SK	-9.55053
▁ODS	-9.55446
▁loňské	-9.55514
▁prakticky	-9.55532
▁1994	-9.55532
▁německé	-9.55543
▁světové	-9.5559
hi	-9.55603
▁přenos	-9.55686
▁vnitřní	-9.55731
▁skutečnost	-9.55941
inu	-9.56111
▁hlediska	-9.56251
▁manažer	-9.56251
▁prostřednictví	-9.56252
▁jejím	-9.56265
▁utkání	-9.56329
▁kal	-9.56604
▁Tu	-9.56636
nského	-9.56667
▁užit	-9.56783
stane	-9.56861
▁působí	-9.56875
dání	-9.56894
▁jenž	-9.56944
▁času	-9.56963
▁republice	-9.56976
▁orgán	-9.56976
pravidla	-9.56977
▁nedostat	-9.56981
▁stál	-9.56984
▁velice	-9.56992
▁vývoz	-9.57002
▁omezen	-9.5705
▁auto	-9.57059
▁sever	-9.57069
▁celou	-9.57117
▁výraz	-9.57159
klád	-9.57226
▁malý	-9.57475
▁24	-9.57483
▁mil	-9.57497
pas	-9.57542
koliv	-9.57585
pustil	-9.57589
▁procenta	-9.57666
▁vzdálen	-9.57706
▁někdo	-9.57706
▁odhad	-9.57724
▁nástroj	-9.57733
▁celkové	-9.5789
▁připoj	-9.57908
níky	-9.58012
▁daně	-9.58143
ozi	-9.58153
▁tříd	-9.58164
▁pra	-9.58196
▁ministra	-9.5821
▁dispozici	-9.58441
▁následující	-9.58442
▁fakult	-9.58442
tím	-9.58514
▁souvislosti	-9.58796
rab	-9.58797
tel	-9.58875
▁kterým	-9.58904
stroj	-9.58913
▁Če	-9.58924
▁sport	-9.58941
▁řadu	-9.58946
cím	-9.58995
▁gen	-9.591
▁stanoven	-9.59175
▁1990	-9.59182
,5	-9.59189
▁mluvčí	-9.59203
▁Již	-9.59217
nému	-9.59347
ávají	-9.59574
plav	-9.59601
zu	-9.59674
▁Be	-9.59763
▁záměr	-9.59934
▁přechod	-9.5994
▁rámci	-9.59944
ologie	-9.59987
▁prostě	-9.59998
▁nákup	-9.60045
vad	-9.6009
klo	-9.60123
díl	-9.60128
▁typu	-9.60157
▁ledna	-9.60196
íte	-9.60283
kají	-9.6033
dají	-9.60364
nů	-9.60428
▁policist	-9.6068
▁postižen	-9.60694
▁nejméně	-9.60703
▁podařilo	-9.60818
před	-9.60842
▁proces	-9.61109
▁změny	-9.6123
▁budeme	-9.61274
▁Pak	-9.61354
▁hmot	-9.61439
▁hranic	-9.61524
▁společné	-9.61591
EN	-9.61611
▁cíl	-9.61698
▁sestav	-9.61711
▁loni	-9.61759
▁roli	-9.61817
▁mne	-9.61837
▁sebou	-9.61856
▁tenis	-9.62029
▁Například	-9.62201
▁podnikání	-9.62261
▁různé	-9.62361
bili	-9.62403
cem	-9.62581
ger	-9.62709
▁armád	-9.62739
dávají	-9.62749
mar	-9.62851
tovat	-9.62904
▁minulý	-9.62976
▁státy	-9.62992
▁opravdu	-9.63027
▁vládní	-9.63061
▁Já	-9.63071
▁tolik	-9.63152
▁výše	-9.63215
▁fin	-9.63284
▁příklad	-9.63305
kar	-9.63373
▁Jde	-9.63391
▁snah	-9.63473
▁právo	-9.63598
▁schopnost	-9.63661
▁čs	-9.63718
▁funkci	-9.63745
▁miliónů	-9.63745
▁smlouvu	-9.63745
▁snaží	-9.63754
▁nedávno	-9.63793
ík	-9.63846
▁náklad	-9.63869
▁příčin	-9.63916
AN	-9.64138
▁Už	-9.64202
dění	-9.64242
▁zákaz	-9.64245
▁vln	-9.64275
▁náš	-9.64335
▁volební	-9.64525
počátku	-9.64527
▁kandidát	-9.64527
▁termín	-9.64527
▁časopis	-9.64527
▁nárok	-9.64553
jak	-9.64632
her	-9.6467
▁Dnes	-9.64682
nové	-9.64822
▁doma	-9.6484
denní	-9.64922
▁zvýšení	-9.64941
▁nájem	-9.6498
▁Bu	-9.65036
▁ústav	-9.65076
▁uveden	-9.65143
▁sklad	-9.65188
▁molekul	-9.65303
▁příležitost	-9.65314
▁okolí	-9.65324
pracuje	-9.65367
▁věc	-9.65426
jdou	-9.65445
▁Kdo	-9.65644
part	-9.65671
und	-9.65696
▁měsíců	-9.65707
ební	-9.65921
▁průměrn	-9.65986
šit	-9.66073
ať	-9.66074
▁ministerstvo	-9.66108
▁zvláštní	-9.66108
▁koaliční	-9.66108
▁chtějí	-9.66108
▁pojištění	-9.66113
▁dnech	-9.66237
▁ukázal	-9.66424
▁prů	-9.66454
▁kraj	-9.66553
▁chování	-9.66608
▁Ře	-9.66611
▁rozum	-9.66712
stávají	-9.66787
▁volb	-9.66888
▁klid	-9.66892
▁bývalý	-9.66898
▁Windows	-9.66908
▁hvězd	-9.66908
▁jediný	-9.66932
▁Zeman	-9.66953
▁předmět	-9.66995
▁metrů	-9.67037
▁jiného	-9.67062
▁léč	-9.67134
▁dosáhl	-9.67247
šek	-9.6725
▁přednost	-9.67291
▁dopis	-9.67304
nictví	-9.67364
elný	-9.67509
▁slova	-9.67517
▁rady	-9.67555
▁ekonomické	-9.67557
▁středu	-9.67599
▁postupně	-9.67618
▁hráčů	-9.6762
▁zahraničních	-9.67633
wa	-9.67657
pil	-9.67693
▁PowerPoint	-9.67714
▁rozhovor	-9.67714
▁zpět	-9.67715
stické	-9.67762
▁společenství	-9.67778
jat	-9.67819
sát	-9.67826
▁pevn	-9.67891
th	-9.67929
▁2.	-9.67935
▁národní	-9.67943
▁Dr	-9.67988
▁objevil	-9.68233
onu	-9.68249
antní	-9.68342
▁někter	-9.68413
▁úřadu	-9.68518
▁podobně	-9.68532
▁počtu	-9.68534
▁Čech	-9.68699
ena	-9.68795
▁padesát	-9.69075
trž	-9.69151
▁Bar	-9.69162
▁žádn	-9.69178
SE	-9.69241
▁mini	-9.69298
▁nemusí	-9.69347
▁scén	-9.69355
▁číslo	-9.69399
▁čeká	-9.69455
▁svazu	-9.69557
▁kancelář	-9.69591
▁MS	-9.69638
dávat	-9.69656
vát	-9.69726
▁krátk	-9.69897
pul	-9.69925
▁Kar	-9.69944
▁data	-9.6998
▁poslanců	-9.70173
▁přibližn	-9.70173
▁zástupce	-9.70173
▁klient	-9.70175
▁nadále	-9.7018
▁ročně	-9.70194
▁pracovníků	-9.70277
▁neví	-9.7032
např	-9.70434
nějších	-9.70437
▁pacient	-9.7057
▁tržní	-9.7059
▁evropské	-9.70622
ováním	-9.70743
cení	-9.70817
▁Bude	-9.70823
▁kulturní	-9.70905
▁obrat	-9.70987
▁odmítl	-9.71007
▁třicet	-9.71033
▁koncert	-9.71054
▁vaše	-9.71186
volání	-9.7132
leč	-9.71384
▁Ra	-9.71591
▁každ	-9.71603
znamená	-9.71727
vající	-9.71733
▁klubu	-9.71782
▁dal	-9.71793
▁Většin	-9.71847
▁hospodářství	-9.71847
▁jazyk	-9.71847
▁výrobní	-9.71848
▁nabídky	-9.71848
▁hodně	-9.71859
▁lépe	-9.71886
▁podobné	-9.71901
elné	-9.7211
ováno	-9.72117
ina	-9.72278
▁střel	-9.72303
měl	-9.72367
▁tun	-9.72496
ených	-9.72656
▁společensk	-9.72694
▁umožňuje	-9.72694
▁komunik	-9.72695
ler	-9.72698
puštěn	-9.72711
▁vede	-9.72824
▁generální	-9.72854
▁jenom	-9.72875
▁22	-9.72899
▁podstatně	-9.72913
▁podniky	-9.73068
áno	-9.73073
son	-9.73242
▁půd	-9.73262
▁týmu	-9.73397
▁přesně	-9.73468
▁jmen	-9.7347
razil	-9.73489
bře	-9.73532
▁považuje	-9.73549
▁režim	-9.73551
▁vysoký	-9.73551
▁začíná	-9.73555
▁hrál	-9.73627
▁olympijské	-9.73634
▁musíme	-9.73691
▁případech	-9.73722
▁potvrdil	-9.7376
30	-9.73833
▁proveden	-9.73842
▁novou	-9.7389
▁říci	-9.73897
▁70	-9.73906
▁řada	-9.74037
▁městě	-9.74112
▁problémů	-9.74259
hraje	-9.74318
▁důchod	-9.74411
▁obvykle	-9.74411
▁velikost	-9.74411
▁oddělení	-9.74412
▁německý	-9.74422
▁PO	-9.74434
▁sítě	-9.74442
▁podstat	-9.7459
▁Hrad	-9.7464
▁českého	-9.74686
▁zajímav	-9.74699
íky	-9.74758
ěji	-9.74813
▁sami	-9.74856
▁fondu	-9.74862
pír	-9.74879
▁pomoci	-9.75074
RO	-9.75086
ivost	-9.75143
▁možností	-9.75184
▁fotbalist	-9.75209
▁otázku	-9.75281
▁výrobků	-9.75281
likvid	-9.75281
půjč	-9.75286
▁úvah	-9.75295
▁neznám	-9.75315
kryt	-9.75337
▁banky	-9.75347
bíd	-9.75359
▁podrob	-9.75453
▁občanů	-9.75463
▁ME	-9.75583
▁novinář	-9.75585
▁kop	-9.7565
▁Ani	-9.75651
sed	-9.75686
▁platit	-9.75704
▁průběhu	-9.75755
áři	-9.75821
▁fotbal	-9.75822
▁pracovník	-9.75829
▁nebyla	-9.75883
▁řeč	-9.76077
dis	-9.76094
▁událost	-9.76158
▁nabízí	-9.76158
▁vrchol	-9.76158
▁bohat	-9.76162
▁turnaj	-9.76162
▁adres	-9.7618
▁export	-9.76185
▁příjem	-9.7623
ávat	-9.76251
▁stejn	-9.76314
▁nějaké	-9.7633
▁nemají	-9.76359
▁zdrojů	-9.76508
vané	-9.76535
▁miliardy	-9.7657
LA	-9.76754
▁Nová	-9.76803
▁ryb	-9.76837
▁fyzik	-9.7688
▁čem	-9.76924
▁ulici	-9.76929
▁otázky	-9.77043
▁úrovni	-9.77043
▁otázka	-9.77043
▁autobus	-9.77043
▁celkem	-9.77043
▁reprezentant	-9.77044
▁chvíli	-9.77045
▁soused	-9.77046
▁politiky	-9.77049
▁minulé	-9.77051
▁Česká	-9.77083
▁dotaz	-9.77084
▁klíč	-9.77106
taj	-9.77118
▁takto	-9.77249
▁uvádí	-9.77276
▁uvaž	-9.77304
▁slab	-9.77315
▁zájm	-9.77353
▁pozor	-9.7739
▁Hol	-9.77516
ros	-9.77679
▁21	-9.77706
lka	-9.77723
rovná	-9.77737
ávání	-9.77775
▁moderní	-9.77829
izaci	-9.7792
▁mistrovství	-9.77936
▁předchozí	-9.77936
▁Země	-9.77966
▁moci	-9.77981
▁každém	-9.78125
▁tvar	-9.78164
▁postavení	-9.78194
▁lékař	-9.78289
▁stejný	-9.78487
histor	-9.78515
▁objektů	-9.78549
▁červen	-9.78641
▁osmi	-9.78683
▁potřebuje	-9.7882
▁každé	-9.78832
▁energie	-9.78837
▁potravin	-9.78837
▁NATO	-9.78837
▁dětí	-9.78838
▁sportovní	-9.78839
▁zaměstnanců	-9.78841
▁Miloš	-9.78846
rp	-9.78848
kombin	-9.78908
▁blok	-9.78912
▁výměn	-9.78914
▁jednom	-9.79077
▁znak	-9.79126
▁Ni	-9.79151
▁jaký	-9.79185
▁kterých	-9.79239
▁Auto	-9.79323
klep	-9.79364
▁pozornost	-9.79364
▁60	-9.79478
▁parlament	-9.79495
plynul	-9.7951
▁úst	-9.79582
▁dvanáct	-9.79746
▁finále	-9.79747
kových	-9.79803
Dr	-9.79856
měnit	-9.79856
▁knih	-9.79868
▁Ber	-9.79873
▁společností	-9.80082
kům	-9.80089
▁listopadu	-9.80122
▁obor	-9.80154
▁vybavení	-9.80289
sad	-9.80326
▁dohody	-9.80371
▁měsíc	-9.80401
▁cestu	-9.80405
▁názoru	-9.80426
▁měsíce	-9.80438
▁nikoli	-9.80439
▁setkání	-9.80489
▁Izrael	-9.80663
▁regul	-9.80664
▁centru	-9.80667
CE	-9.80674
▁prostředků	-9.80677
týká	-9.80677
▁textu	-9.80717
▁pohár	-9.80733
▁představuje	-9.80756
▁řadě	-9.80821
▁Ještě	-9.80825
▁cizí	-9.80836
▁čtvrtek	-9.80867
▁Tím	-9.80924
▁současně	-9.80928
píše	-9.80947
▁budoucí	-9.80986
IS	-9.81041
▁sama	-9.81053
▁obchodního	-9.81246
▁kolik	-9.81341
sáhl	-9.81445
cího	-9.81452
▁výrobky	-9.81589
▁Navíc	-9.8159
ovský	-9.81591
▁OSN	-9.81597
▁Nyní	-9.81601
▁lidské	-9.81614
čel	-9.81663
▁produkce	-9.81769
▁koupi	-9.81801
▁neděli	-9.81899
▁druhém	-9.82003
KO	-9.82102
stru	-9.82174
▁(1	-9.82194
▁Sa	-9.82263
▁Brně	-9.82288
▁Cel	-9.82293
▁zdroje	-9.82308
roj	-9.82419
jímá	-9.82449
▁atd	-9.8245
▁Josef	-9.82524
▁federální	-9.82524
vláště	-9.82525
▁reklam	-9.82526
▁zasedání	-9.82538
▁nemohl	-9.82541
▁těles	-9.82554
▁muset	-9.82565
▁motor	-9.82597
▁pobyt	-9.82622
▁nebezpečn	-9.82642
▁dobrý	-9.82653
▁skupina	-9.82691
tah	-9.82721
▁sam	-9.82786
▁stal	-9.82871
▁strana	-9.82889
ovce	-9.82906
▁kterého	-9.82969
vádí	-9.82982
▁popis	-9.83025
hlásil	-9.83131
▁počítače	-9.83161
▁skutečnosti	-9.83175
▁provozu	-9.83194
▁oznámil	-9.83467
▁prezentace	-9.83467
▁speciální	-9.83467
▁začátku	-9.83467
▁používá	-9.83468
▁kapacit	-9.8347
▁srovnání	-9.8347
▁spokojen	-9.83471
držet	-9.83472
▁třetin	-9.83472
▁trans	-9.83472
front	-9.83474
▁postoj	-9.83503
▁úrok	-9.83554
▁hlavním	-9.83603
▁tlak	-9.83642
▁Lib	-9.83696
▁smyslu	-9.83879
▁součástí	-9.83974
ňování	-9.84027
▁použití	-9.84274
jedna	-9.84395
▁teorie	-9.84419
▁1989	-9.8442
▁zbytečn	-9.8442
▁přízniv	-9.8442
▁přírodní	-9.84426
▁poslanec	-9.8443
▁buď	-9.84434
▁privatizace	-9.84436
▁chlad	-9.84466
▁ostrov	-9.84488
▁strom	-9.84504
▁apod	-9.8451
▁akcií	-9.8456
OR	-9.84572
▁výboru	-9.84574
▁útok	-9.84602
set	-9.84608
jet	-9.84712
čili	-9.8472
ovské	-9.84808
▁jasné	-9.84938
tický	-9.85153
třech	-9.85161
▁škod	-9.85326
▁plně	-9.85342
▁optim	-9.85385
psat	-9.85462
míněn	-9.85522
obec	-9.85605
TA	-9.85628
▁Spo	-9.85633
LE	-9.8564
▁konci	-9.85652
LI	-9.85688
▁hodnoty	-9.85776
▁závěr	-9.85794
▁těm	-9.85825
ejte	-9.85841
▁domů	-9.85859
▁dostane	-9.8591
▁kvalitní	-9.86002
▁Hor	-9.86007
skal	-9.86014
▁našem	-9.86021
rez	-9.86051
▁možno	-9.8615
▁jednotlivé	-9.86156
stál	-9.86349
▁Američan	-9.86352
▁Někter	-9.86352
▁zdravotnictví	-9.86352
▁variant	-9.86352
▁veřejné	-9.86352
kraji	-9.86353
▁umění	-9.86357
▁tuzemsk	-9.86364
▁Martin	-9.86376
▁Ivan	-9.86465
▁školy	-9.86487
▁zvolen	-9.86491
▁objektu	-9.86513
ška	-9.86793
▁agent	-9.86829
drží	-9.8684
▁přesvědčen	-9.86867
▁dopravy	-9.86911
▁přiče	-9.86946
rd	-9.87008
Ř	-9.87022
▁student	-9.87046
ckého	-9.87184
▁údaje	-9.87264
▁obchodu	-9.87317
▁technik	-9.87319
▁rozhodující	-9.87332
▁respekt	-9.87332
▁gól	-9.87333
▁nebezpečí	-9.87334
▁poznat	-9.87336
▁podobě	-9.87343
▁Pavel	-9.87347
▁Bylo	-9.87451
▁uzná	-9.87476
▁celého	-9.87526
▁Star	-9.87589
▁investice	-9.87624
ned	-9.87659
▁nějaký	-9.87675
▁Podobn	-9.87687
AV	-9.87785
▁opak	-9.87811
▁noci	-9.87814
▁ostatních	-9.87816
EL	-9.87927
▁kultury	-9.87932
IN	-9.87958
pravit	-9.8799
MI	-9.88019
▁státního	-9.88034
▁práva	-9.88141
▁Jedno	-9.88198
▁vzájemn	-9.88305
net	-9.88319
▁žádost	-9.88323
▁jízd	-9.88354
užit	-9.88359
▁mikro	-9.88362
pětí	-9.88398
▁aktivit	-9.88462
▁společně	-9.88502
▁produk	-9.88521
ativní	-9.8854
ble	-9.88574
▁snadno	-9.88718
slyš	-9.88721
▁politických	-9.88779
▁umí	-9.88787
▁spojení	-9.88802
▁záznam	-9.88966
▁nová	-9.89033
dent	-9.89146
plnění	-9.89179
ER	-9.89181
vest	-9.89196
bezpeč	-9.89197
▁telefonní	-9.89266
▁průmysl	-9.89301
▁jméno	-9.89322
▁televizní	-9.89322
▁fyzick	-9.89323
▁soutěže	-9.89335
▁klasick	-9.89345
▁soustav	-9.89357
▁smrti	-9.89382
lib	-9.89574
vykl	-9.89585
▁Toto	-9.89673
▁Proč	-9.89693
▁Ca	-9.89812
procesor	-9.89924
věří	-9.89939
▁zájmu	-9.89981
▁tisíce	-9.90122
▁přesvědč	-9.90141
▁předpoklad	-9.90333
▁John	-9.90333
▁Rakousk	-9.90335
▁snímek	-9.90339
▁Stejn	-9.9034
svoji	-9.90341
AD	-9.90349
▁hnutí	-9.90394
▁zdraví	-9.90513
▁Ří	-9.90563
▁vidí	-9.90609
▁nejvíce	-9.90612
bytek	-9.90656
▁styl	-9.9068
▁lidi	-9.90743
▁vytvoření	-9.90834
▁23	-9.90844
▁hospodářsk	-9.91054
▁důvodů	-9.91174
▁Chce	-9.91197
▁vzhledem	-9.91228
▁Jaroslav	-9.91353
▁dosah	-9.91354
▁motiv	-9.91355
▁náročn	-9.91358
▁jisté	-9.91435
kám	-9.91449
▁pás	-9.91464
▁Vše	-9.91592
pře	-9.91645
▁náhod	-9.91873
▁Jedn	-9.91927
řitom	-9.91928
▁grafick	-9.92026
psal	-9.92286
▁velkou	-9.92323
faktor	-9.92327
mět	-9.92338
▁region	-9.92346
▁hokej	-9.92384
▁signál	-9.92384
▁zvýšil	-9.92385
▁těžko	-9.92387
▁planet	-9.92397
▁okolo	-9.92401
▁ročník	-9.9242
▁umístěn	-9.92424
▁placen	-9.92439
▁hráči	-9.92451
ckých	-9.92495
▁podobný	-9.92517
▁mužů	-9.92541
▁daleko	-9.92572
▁celkov	-9.92614
▁pocit	-9.92652
▁předem	-9.92811
▁plné	-9.92812
▁spíš	-9.92917
jedno	-9.93256
▁slib	-9.93257
▁zvyk	-9.93328
▁Maďar	-9.93425
▁filozof	-9.93425
▁náměstí	-9.93425
▁zaměstnavatel	-9.93425
▁zaměstnání	-9.93425
▁zástupci	-9.93425
▁kontakt	-9.93426
▁přátel	-9.93439
▁někteří	-9.93441
▁delší	-9.93445
▁spol	-9.93446
bral	-9.93494
▁září	-9.93499
ickém	-9.93504
však	-9.93517
▁kilometrů	-9.93543
▁rukou	-9.93606
▁Český	-9.93696
▁obsahuje	-9.93755
▁1,	-9.93937
kovou	-9.93957
▁pokut	-9.94014
TI	-9.94165
▁trvá	-9.94223
▁Bez	-9.94273
▁hru	-9.94368
▁určitý	-9.94378
níku	-9.94467
▁proměn	-9.9447
▁výsledek	-9.94478
cházet	-9.94479
▁cestovní	-9.94483
▁očekává	-9.94494
▁zkušenost	-9.94526
▁věku	-9.94553
▁značn	-9.94575
▁dovoz	-9.9458
▁tvář	-9.94607
pak	-9.94629
▁Karlov	-9.94714
▁obvod	-9.94928
▁ředitele	-9.9494
▁mohly	-9.95001
▁přišel	-9.95026
▁soudu	-9.95039
▁barev	-9.95071
▁koncem	-9.95162
▁oboru	-9.95165
▁hodiny	-9.95168
▁druhů	-9.9522
▁smysl	-9.95279
odpovědn	-9.95382
CI	-9.95398
ovaným	-9.9541
▁Slov	-9.95511
▁symbol	-9.95542
atmosfér	-9.95542
▁Olomouc	-9.95542
▁aplikace	-9.95542
▁existuje	-9.95542
▁nejbližší	-9.95542
▁patnáct	-9.95542
▁podmínek	-9.95542
▁nebudou	-9.95543
▁zůstává	-9.95546
▁Může	-9.95547
▁stavební	-9.95572
▁dnů	-9.95628
▁zkušenosti	-9.95695
▁česko	-9.95714
▁roční	-9.95791
▁Přes	-9.95802
▁koalice	-9.95835
▁Vol	-9.95853
▁olympijský	-9.95922
dali	-9.95979
▁objekty	-9.96042
▁Kčs	-9.96052
▁jednotliv	-9.96109
▁Hr	-9.96117
▁rizik	-9.96168
▁každého	-9.96205
▁NE	-9.96207
▁odst	-9.96318
EM	-9.9643
AR	-9.9655
▁festival	-9.96617
▁úroveň	-9.96617
▁dospěl	-9.96617
▁Hlavní	-9.96618
▁památ	-9.96619
HO	-9.96628
▁starší	-9.96636
▁výnos	-9.96649
▁společný	-9.9667
▁formul	-9.96697
▁tady	-9.96741
ung	-9.96756
▁způsobil	-9.96762
izovat	-9.97015
slovensk	-9.97017
▁osobnost	-9.97035
▁minulosti	-9.97046
áni	-9.97145
▁původ	-9.97161
▁Mal	-9.97163
kový	-9.97206
▁případně	-9.97293
▁znalost	-9.97331
▁Char	-9.97373
▁běžné	-9.97667
▁Bud	-9.977
▁poslanci	-9.97705
▁restaur	-9.97705
▁pátek	-9.97705
▁existují	-9.97705
▁rozsah	-9.97705
▁praxi	-9.97708
cházející	-9.97745
▁soukrom	-9.97849
▁Jeden	-9.97867
▁určitě	-9.97934
▁Každý	-9.97951
▁ekologick	-9.97977
▁charakter	-9.98007
▁hospodářské	-9.98025
NI	-9.98228
▁poně	-9.98258
▁prvního	-9.98512
▁příslušn	-9.98553
▁hrad	-9.98694
▁důležité	-9.98803
▁vidět	-9.98803
▁šanci	-9.98804
▁rekord	-9.98805
▁příkaz	-9.98814
▁přijal	-9.98863
pustit	-9.98952
DO	-9.99198
▁oblast	-9.99227
▁lékaře	-9.99327
▁obrovsk	-9.99506
▁Pan	-9.99772
boj	-9.998
▁smí	-9.99871
▁zvířat	-9.99914
▁výrobce	-9.99914
▁návrat	-9.99914
▁uvědom	-9.99915
▁Musí	-9.99938
▁síly	-9.99951
▁volbách	-10
▁hráče	-10.0002
▁troj	-10.0003
▁odpovídá	-10.0005
▁léta	-10.0007
ON	-10.0009
▁července	-10.0016
▁stačí	-10.0021
▁nikoliv	-10.0025
▁komor	-10.0027
▁aut	-10.0027
brat	-10.0046
▁nájemné	-10.0046
▁krajin	-10.0046
▁Fr	-10.0054
rej	-10.0057
čátkem	-10.0057
▁dny	-10.0058
ben	-10.0064
▁starý	-10.0079
▁elektron	-10.0085
▁Německa	-10.0092
▁kvality	-10.0097
▁hráč	-10.0102
▁smrt	-10.0102
▁týdne	-10.0104
▁hromad	-10.0104
▁automatick	-10.0104
▁zemřel	-10.0104
▁okolnost	-10.0106
raději	-10.0107
munist	-10.0107
▁voleb	-10.0107
▁konečn	-10.0109
▁změnit	-10.011
▁mám	-10.0111
▁knihy	-10.0114
▁jediné	-10.0116
▁světový	-10.0121
▁Nové	-10.0122
nický	-10.0127
▁rozliš	-10.0131
▁Slav	-10.0134
pořád	-10.0145
▁podstatě	-10.0152
▁zranění	-10.0157
▁tisku	-10.0169
ROM	-10.0179
▁nákladů	-10.0187
▁Ministerstv	-10.0217
▁oprávněn	-10.0217
▁technologie	-10.0217
▁analýz	-10.0217
▁víkend	-10.0217
▁výrobu	-10.0217
▁vzduch	-10.0218
stoupit	-10.0218
▁tepla	-10.0218
▁představitelé	-10.0218
▁Fran	-10.0218
▁obviněn	-10.0219
▁úplně	-10.0222
▁vrátil	-10.0223
▁investiční	-10.0224
▁dělat	-10.023
▁objem	-10.0238
▁zkouš	-10.0243
▁rozšíření	-10.0251
▁členy	-10.0252
istů	-10.0252
KA	-10.0256
▁přehled	-10.0261
ovanou	-10.0274
▁prodeje	-10.0276
▁druhou	-10.0277
pel	-10.0278
▁dodá	-10.0291
▁jakým	-10.0296
řízení	-10.0299
JE	-10.0302
▁zákazníků	-10.0304
pád	-10.0311
▁církev	-10.0332
▁družstev	-10.0332
▁příspěvk	-10.0332
▁zásob	-10.0332
▁nezbytn	-10.0332
▁techniky	-10.0334
▁síť	-10.0334
stoupí	-10.0335
▁park	-10.0349
▁dějin	-10.0356
▁35	-10.0357
▁technické	-10.0363
▁seznam	-10.0371
▁celá	-10.0376
▁míry	-10.038
har	-10.0384
▁liber	-10.0387
▁použit	-10.0399
▁doba	-10.0401
▁90	-10.0411
▁staré	-10.0435
▁pochyb	-10.0435
okres	-10.0441
▁Nový	-10.0446
▁činí	-10.0448
▁olympiád	-10.0449
▁vytvořit	-10.0449
▁kód	-10.0449
▁úspor	-10.045
▁všeobecn	-10.045
▁fotograf	-10.0451
▁neroz	-10.0452
▁studiu	-10.0452
▁uložen	-10.0455
▁kola	-10.0455
ňovat	-10.0456
▁dvakrát	-10.0459
▁slavn	-10.0461
▁Ústav	-10.0462
▁podnikatele	-10.0472
▁pravděpodobně	-10.0475
volal	-10.0477
▁drobn	-10.0478
▁volby	-10.0487
▁Nad	-10.0491
▁chcete	-10.0493
▁drah	-10.0505
skoro	-10.0505
značně	-10.0506
▁500	-10.052
▁zprávy	-10.0524
▁vlastnosti	-10.0527
může	-10.0556
▁vývoje	-10.0556
▁Španěl	-10.0566
▁financí	-10.0566
▁zjistil	-10.0566
kázat	-10.0567
▁Františ	-10.0567
▁Internet	-10.0567
kan	-10.0571
▁dítě	-10.0574
▁Kdyby	-10.0583
pek	-10.06
▁konečně	-10.0605
▁stráž	-10.0611
▁vzpomín	-10.0616
▁podnikatelů	-10.0628
▁dvaceti	-10.0628
▁soupeř	-10.0632
▁bytů	-10.0651
telné	-10.0652
▁pravidel	-10.066
60	-10.0679
▁Asi	-10.0685
▁federace	-10.0685
▁firmě	-10.0685
▁maximáln	-10.0685
▁výsledků	-10.0685
▁zpracování	-10.0685
▁použít	-10.0685
▁Všechny	-10.0685
▁širok	-10.0686
▁tradic	-10.0688
▁současnosti	-10.0688
▁Rozhod	-10.0691
▁Svět	-10.0692
▁SR	-10.0692
▁Její	-10.0696
▁evropských	-10.0699
rám	-10.0699
▁No	-10.07
zhledem	-10.0701
oma	-10.0706
▁včerejší	-10.0726
▁ruské	-10.0736
▁jít	-10.074
▁radi	-10.075
ecká	-10.0757
▁obrany	-10.076
▁fotbalové	-10.0764
▁probíh	-10.0765
vnitř	-10.0773
▁domu	-10.0778
▁bodů	-10.0793
▁hranice	-10.0796
zaměstnan	-10.0799
▁Společenství	-10.0806
▁Vladimír	-10.0806
▁investor	-10.0806
▁nejlépe	-10.0806
jmout	-10.0806
▁Právě	-10.0806
▁sekund	-10.0806
▁zbraní	-10.0807
▁vojenské	-10.0807
▁klima	-10.0808
▁relativn	-10.0808
▁Běh	-10.081
▁nerv	-10.0813
▁Německu	-10.0814
▁realiz	-10.0814
▁staro	-10.0815
▁bezpečnostní	-10.0821
▁kvalifik	-10.0821
▁původně	-10.0834
▁návrhu	-10.0848
▁Měl	-10.0849
▁Hus	-10.0862
▁průmyslu	-10.0862
▁cílem	-10.0865
▁amerických	-10.0866
▁demokrat	-10.0866
▁Firma	-10.0873
▁integr	-10.0878
▁míru	-10.088
▁dokázal	-10.0883
nova	-10.0886
rozměr	-10.0887
▁stanic	-10.0903
OU	-10.0905
bírá	-10.0917
▁architekt	-10.0928
▁dlouhé	-10.0928
▁předpokládá	-10.0928
▁udělat	-10.0928
▁dokáže	-10.0928
▁formát	-10.0929
▁patrně	-10.0931
▁objeví	-10.0934
dělal	-10.094
▁Kub	-10.0943
▁Fin	-10.0945
MU	-10.0951
land	-10.096
přes	-10.0962
▁Kol	-10.0964
RU	-10.0971
sadil	-10.0973
▁silnic	-10.098
▁pozná	-10.0985
ologické	-10.0994
▁sněmovny	-10.0994
▁vhodné	-10.1
bývají	-10.1004
10	-10.1006
▁kurz	-10.1014
DE	-10.1018
kazují	-10.1025
dával	-10.1039
hodný	-10.1039
▁domácnost	-10.1051
▁informační	-10.1051
▁komplex	-10.1051
▁subjekt	-10.1051
▁hovoří	-10.1051
▁využívá	-10.1051
▁čísla	-10.1051
▁využití	-10.1051
▁brzy	-10.1052
▁kanál	-10.1055
▁slovo	-10.1055
▁možný	-10.1062
▁pravda	-10.107
▁změnil	-10.1095
ona	-10.1097
▁osoby	-10.1101
EC	-10.112
ovského	-10.1129
▁rokem	-10.1152
▁těmi	-10.1152
▁Japonsk	-10.1154
▁roze	-10.1164
▁veřejnosti	-10.1169
▁26	-10.1169
▁Chorvatsk	-10.1176
▁dovolenou	-10.1176
▁místopředsed	-10.1176
▁nemohou	-10.1176
▁většinu	-10.1176
▁rezerv	-10.1176
▁schválen	-10.1176
▁jinde	-10.1176
▁podzim	-10.1176
▁péče	-10.1176
▁vědět	-10.1177
▁Profit	-10.1177
▁začne	-10.1178
▁oceán	-10.1178
▁proud	-10.12
▁růstu	-10.1203
▁vládě	-10.1212
▁prostoru	-10.1218
soci	-10.1229
▁ženy	-10.1229
▁zisku	-10.1235
bere	-10.1238
hel	-10.124
▁národního	-10.1253
▁Nez	-10.1255
▁témat	-10.1259
▁takovou	-10.1262
▁denně	-10.1268
▁kolo	-10.1268
▁stovk	-10.1269
▁ústavu	-10.1286
▁šíř	-10.1292
NO	-10.1295
▁2000	-10.1297
▁Sam	-10.13
▁pokračovat	-10.1303
▁vytvořil	-10.1303
▁sluneční	-10.1303
▁podepsal	-10.1303
▁pozadí	-10.1303
▁mladý	-10.1303
▁snížení	-10.1303
▁čele	-10.1304
▁látky	-10.1305
▁střet	-10.1306
▁posíl	-10.1306
ejme	-10.1308
▁nechce	-10.1309
▁veřejnost	-10.131
▁kruh	-10.1314
▁zrušen	-10.1323
▁vědecké	-10.1325
20	-10.1328
▁údaj	-10.134
▁New	-10.1341
▁lidský	-10.1342
▁II	-10.1348
kovat	-10.1363
▁potřebné	-10.1367
▁mění	-10.1374
▁rada	-10.1383
dělit	-10.1384
▁vlád	-10.1385
▁severní	-10.1386
loží	-10.1396
▁skutečn	-10.14
▁dát	-10.1407
▁současn	-10.1409
▁účt	-10.1417
ticky	-10.1427
▁UEFA	-10.1431
▁demokracie	-10.1431
▁důležitý	-10.1431
▁hodnocení	-10.1431
▁oficiální	-10.1431
▁televizi	-10.1431
▁označil	-10.1431
▁potenciál	-10.1431
▁naprosto	-10.1431
▁důkaz	-10.1431
▁blízko	-10.1431
▁Spojený	-10.1432
▁Havel	-10.1432
▁kurs	-10.1433
▁nijak	-10.1434
▁zaměřen	-10.1435
▁pojistné	-10.1436
▁stala	-10.1437
kládat	-10.1442
▁okamžitě	-10.1446
▁příslušné	-10.1448
▁Par	-10.1449
ňují	-10.1449
▁ukazuje	-10.1452
▁volné	-10.1454
rst	-10.1454
▁doplň	-10.1456
bývající	-10.1481
▁prací	-10.1492
▁300	-10.1498
▁bezpečnosti	-10.1508
tion	-10.1509
tav	-10.151
▁stalo	-10.1514
▁zabývá	-10.1529
▁Ex	-10.1531
tickou	-10.154
▁procesu	-10.1554
▁majetek	-10.1561
▁počasí	-10.1561
▁šedesát	-10.1561
▁řečeno	-10.1561
▁realit	-10.1563
▁protest	-10.1563
vrátit	-10.1565
▁dokonč	-10.1571
kář	-10.1572
▁27	-10.1579
▁novel	-10.1581
▁nebyly	-10.1587
▁Bra	-10.1587
▁překr	-10.1588
▁členové	-10.1596
▁téma	-10.1608
mořsk	-10.1611
▁28	-10.1616
▁řady	-10.1622
▁vytvořen	-10.1627
▁potřeby	-10.1639
▁stanice	-10.1641
▁standard	-10.165
▁kanceláře	-10.1653
▁teplo	-10.1666
▁prodá	-10.1672
▁body	-10.1674
bin	-10.1688
▁Česko	-10.1689
▁onemocnění	-10.1692
▁požadavky	-10.1692
▁příjmy	-10.1692
▁rozhodně	-10.1692
▁názvem	-10.1692
▁učitel	-10.1693
▁lidem	-10.1709
▁dosáhnout	-10.1711
▁vládu	-10.1712
▁cesty	-10.1719
iletý	-10.172
NÁ	-10.1736
▁lékaři	-10.1736
▁nehod	-10.1737
▁Ben	-10.1738
běhl	-10.1746
▁nezávisl	-10.1748
ŘE	-10.175
▁cit	-10.1752
▁zahájení	-10.176
posled	-10.1774
▁ekonomiky	-10.1787
AL	-10.181
▁vzniku	-10.1814
▁Svobod	-10.1826
▁funkcí	-10.1826
▁konference	-10.1826
▁televize	-10.1826
▁Státní	-10.1826
▁vánoční	-10.1826
▁policejní	-10.1827
▁Novotn	-10.1827
▁buňk	-10.1827
▁ligy	-10.1827
▁odchod	-10.1828
MA	-10.1831
▁dvoj	-10.1837
▁systémů	-10.1837
▁Dva	-10.1846
▁dodává	-10.185
▁hlavního	-10.1852
▁viděl	-10.1855
▁tvor	-10.1859
kládání	-10.1861
omín	-10.1861
LO	-10.1862
ezi	-10.1871
▁nejde	-10.1873
▁celém	-10.1877
▁vybaven	-10.1881
▁právnick	-10.1884
▁mechaniky	-10.1908
▁společného	-10.1914
▁jednak	-10.1915
▁Velk	-10.1919
▁odpad	-10.1933
▁jednat	-10.1938
demokratick	-10.1947
volat	-10.1951
▁odborné	-10.1958
▁výš	-10.1959
▁Prezident	-10.1961
▁dodavatel	-10.1961
▁poskytuje	-10.1961
▁zásah	-10.1961
▁Československu	-10.1961
▁připravil	-10.1961
▁příbuzn	-10.1961
▁nezaměstnanost	-10.1961
▁zločin	-10.1961
▁vnitra	-10.1963
▁velká	-10.1963
▁aktiv	-10.1966
ičky	-10.1972
vedou	-10.1976
▁Společnost	-10.1981
▁nechal	-10.1993
staví	-10.1994
▁zvuk	-10.2001
▁sbír	-10.2007
věřil	-10.2012
▁přístupu	-10.2012
VA	-10.2013
▁radost	-10.2013
▁Slovensku	-10.2029
leté	-10.203
RE	-10.2033
▁totem	-10.2051
▁druhého	-10.2053
▁rychlostí	-10.2063
▁Velké	-10.2071
▁druhá	-10.2083
▁Aby	-10.2088
mark	-10.2094
▁zobraz	-10.2096
▁Olymp	-10.2098
▁Francouz	-10.2098
▁kláves	-10.2098
▁registr	-10.2098
elektrick	-10.2098
▁parametr	-10.2098
▁zemědělství	-10.2098
▁Sovětské	-10.2098
▁servis	-10.2098
▁spotřebitel	-10.2098
▁Belgi	-10.2098
▁zákoníku	-10.2099
jedině	-10.21
▁ohledu	-10.2102
▁látek	-10.2102
▁zaplatí	-10.2102
▁měsících	-10.2102
▁škody	-10.2105
▁desítky	-10.2106
▁najít	-10.2107
▁Čechách	-10.2108
▁map	-10.2113
▁posun	-10.2121
ick	-10.2129
▁Atlantě	-10.2132
▁hotov	-10.2138
▁lékařů	-10.214
▁hladin	-10.2148
▁češt	-10.2157
86	-10.2164
▁závěru	-10.217
▁zub	-10.2176
▁parlamentní	-10.219
▁jinou	-10.2193
▁vydání	-10.2194
istický	-10.2198
vel	-10.2198
▁vlast	-10.2206
▁myslí	-10.2208
▁napsal	-10.2214
▁takového	-10.2215
OH	-10.223
prázdn	-10.223
brž	-10.2232
▁město	-10.2233
▁distribu	-10.2237
▁hudební	-10.2237
▁ustanovení	-10.2237
▁výrobců	-10.2237
▁cyklu	-10.2237
▁schopen	-10.2237
▁tradiční	-10.2237
▁uplatnění	-10.2237
▁těžký	-10.2237
▁Francie	-10.2237
▁nabídku	-10.2237
▁Národní	-10.2237
▁snímků	-10.2237
▁pořadatel	-10.2238
árně	-10.2247
▁Per	-10.2248
▁objektiv	-10.2249
▁nápad	-10.2249
šky	-10.225
▁vodní	-10.2257
▁současný	-10.2257
▁souboru	-10.226
▁150	-10.2278
▁nově	-10.2279
pustí	-10.2281
▁akt	-10.2282
▁státech	-10.2284
méně	-10.2286
▁druhu	-10.2287
40	-10.2291
▁zvýšen	-10.2303
▁ráno	-10.2308
▁přijde	-10.2324
48	-10.2325
▁ulic	-10.2328
studoval	-10.2329
▁ideál	-10.2353
řka	-10.2361
▁ekonomik	-10.2364
▁zajistit	-10.2378
▁šampionát	-10.2378
▁těžké	-10.2378
▁rozpočet	-10.2378
▁využít	-10.2378
▁expert	-10.2378
▁přijetí	-10.2378
▁hodlá	-10.2378
▁působení	-10.238
▁odměn	-10.238
▁řešit	-10.2381
hřeb	-10.2383
▁Západ	-10.2384
▁Vlast	-10.2385
▁míč	-10.2387
▁Střed	-10.2387
▁tentokrát	-10.2387
▁školství	-10.2388
▁převážně	-10.2389
▁vyplývá	-10.2418
▁zákonů	-10.2419
▁pořadí	-10.2425
ovky	-10.2427
▁Takže	-10.2427
▁způsoben	-10.2431
▁vysokou	-10.2432
tud	-10.2439
vláda	-10.2444
▁přístroj	-10.245
▁okamžiku	-10.2451
▁nim	-10.2459
▁Mnoh	-10.2462
▁demokratické	-10.2463
▁domov	-10.2465
▁částky	-10.2467
▁seznamu	-10.2473
▁takovém	-10.2474
▁správy	-10.2482
▁Nov	-10.2483
▁slovenské	-10.2485
čila	-10.2497
třel	-10.2511
▁nesmí	-10.2514
▁speciali	-10.2519
▁bohužel	-10.2521
▁družstva	-10.2521
▁kritéri	-10.2521
▁nejrůznější	-10.2521
▁nepříjemn	-10.2521
▁spolupráce	-10.2521
▁povolení	-10.2521
▁Mezinárodní	-10.2521
▁směrem	-10.2521
dostatečně	-10.2521
zemní	-10.2522
řídil	-10.253
▁Inter	-10.2532
▁místech	-10.2547
▁udělal	-10.2554
▁západ	-10.2558
▁jiná	-10.256
▁daní	-10.257
▁údajů	-10.2575
▁chybí	-10.2582
▁400	-10.259
▁moře	-10.2605
▁cestou	-10.2624
▁chtěli	-10.2625
reform	-10.2626
▁dopravní	-10.2626
▁Německ	-10.2629
inak	-10.263
▁zdroj	-10.2641
▁ceně	-10.2652
▁Kam	-10.2658
věřit	-10.2661
▁jestli	-10.2662
▁prezentaci	-10.2665
▁vyjádřil	-10.2665
▁pondělí	-10.2665
▁průzkum	-10.2665
vádět	-10.2665
▁výtvarn	-10.2666
▁uspořáda	-10.2666
trpěl	-10.2666
▁jistot	-10.2666
▁Bój	-10.2666
▁vyslovil	-10.2666
▁devět	-10.2667
▁Paříž	-10.2667
▁odbyt	-10.2669
▁smluvní	-10.267
▁video	-10.267
▁měsíční	-10.2675
držení	-10.2684
▁předtím	-10.2689
▁obcí	-10.2689
▁městské	-10.269
▁Čern	-10.2695
▁pravidelně	-10.2697
▁vyrovná	-10.2701
▁dřev	-10.2703
▁reáln	-10.2719
trh	-10.2722
▁máte	-10.273
▁fan	-10.2733
▁britsk	-10.2742
▁myslím	-10.2745
ičtí	-10.2761
▁obrazovk	-10.2763
▁setká	-10.2768
▁odpor	-10.2777
▁trestní	-10.2785
▁poloh	-10.2795
děk	-10.2808
řídit	-10.281
▁styk	-10.2811
▁Poslední	-10.2812
▁konferenci	-10.2812
▁nesouhlas	-10.2812
▁podmínkách	-10.2812
▁pravomoc	-10.2812
▁příjmů	-10.2812
▁úrovně	-10.2812
▁června	-10.2812
▁HIV	-10.2812
▁rostlin	-10.2813
▁obsazen	-10.2813
▁slouží	-10.2813
▁detail	-10.2813
▁daň	-10.2813
▁radnice	-10.2814
▁spoust	-10.2815
▁směru	-10.2819
▁závěrečn	-10.282
▁loňsk	-10.282
▁Mlad	-10.2825
▁Pavl	-10.2829
▁výjimkou	-10.2832
▁Zákon	-10.2835
▁rovin	-10.2839
▁bíl	-10.2839
▁Čas	-10.284
▁Lab	-10.2847
▁LN	-10.2848
razí	-10.2852
▁podpis	-10.2853
▁armády	-10.2857
▁případů	-10.2886
▁taková	-10.2887
▁politický	-10.2894
▁mechanika	-10.29
▁součást	-10.291
ctví	-10.291
▁soukromé	-10.2922
▁Atlant	-10.2925
▁částku	-10.2925
▁různ	-10.2928
▁Každ	-10.2929
▁konkurence	-10.2938
▁daňové	-10.295
▁vztahy	-10.2955
číst	-10.2961
▁diplomat	-10.2962
▁Největší	-10.2962
▁Současn	-10.2962
▁Washington	-10.2962
▁účetnictví	-10.2962
▁tvrzení	-10.2962
▁většině	-10.2962
▁požadovan	-10.2962
▁jedenáct	-10.2962
vádějí	-10.2962
▁kapitol	-10.2962
▁války	-10.2962
▁brankář	-10.2962
▁rostou	-10.2962
▁aliance	-10.2963
▁čtyřicet	-10.2965
pust	-10.2967
▁jím	-10.2974
▁modern	-10.2983
▁centra	-10.2985
▁Jedin	-10.2989
▁Naše	-10.2997
lidov	-10.3004
▁jednoznačně	-10.3006
▁tiskové	-10.3031
▁PRO	-10.3035
izované	-10.3042
kazuje	-10.3044
▁náhrad	-10.3063
▁změna	-10.3066
▁pražský	-10.3068
▁váš	-10.3078
▁skupině	-10.3079
▁známé	-10.3082
▁hospod	-10.3094
▁vydal	-10.3094
řazen	-10.3095
▁dvojic	-10.3103
▁Evropa	-10.3113
▁Gorbačov	-10.3113
▁většiny	-10.3113
▁politice	-10.3113
▁japon	-10.3113
▁vždycky	-10.3113
▁prohrál	-10.3113
▁schéma	-10.3114
▁aktivity	-10.3114
▁záruk	-10.3114
▁individuální	-10.3115
▁Nikd	-10.3116
▁začít	-10.3116
▁nemocnice	-10.312
▁třemi	-10.3126
razit	-10.3128
▁známo	-10.3131
▁Jenže	-10.3131
▁odpovědnost	-10.3136
▁Bur	-10.3137
▁obdobn	-10.3138
75	-10.3145
art	-10.3148
▁leží	-10.3149
▁dluh	-10.3153
▁pořádku	-10.316
▁nutno	-10.3164
biologick	-10.3164
▁Německo	-10.3175
▁hlasování	-10.3177
▁pracovníci	-10.3183
▁diváků	-10.3189
▁překvap	-10.3207
▁dělá	-10.3208
▁univerzity	-10.3209
▁pravděpodobn	-10.3209
▁Rusko	-10.3216
▁budoucnosti	-10.3217
▁zvukov	-10.3251
▁oslav	-10.3254
▁životě	-10.3256
▁AIDS	-10.3267
▁Británie	-10.3267
▁Vždyť	-10.3267
▁publika	-10.3267
▁management	-10.3267
▁vzdělání	-10.3267
▁obyvatelstva	-10.3267
▁srpna	-10.3267
▁Možná	-10.3268
▁zpěv	-10.3268
▁změně	-10.3269
▁známý	-10.3273
▁super	-10.3276
▁král	-10.3292
TO	-10.33
▁nástup	-10.3301
▁důsledku	-10.3303
▁konec	-10.3307
▁přinesl	-10.3309
▁složení	-10.331
▁Jedna	-10.331
▁studentů	-10.3314
cker	-10.3316
▁typick	-10.3333
▁Škoda	-10.3334
▁miliony	-10.335
běžně	-10.3351
ároveň	-10.3365
▁přítomnost	-10.3369
▁nutnost	-10.3375
▁stroje	-10.3382
▁hlasů	-10.3382
▁běžný	-10.3394
▁nepod	-10.3404
▁pán	-10.3408
▁normální	-10.3423
▁uspořádání	-10.3423
▁katastrof	-10.3423
▁připravuje	-10.3423
▁tajemství	-10.3423
▁očekávat	-10.3423
hovořil	-10.3423
▁personál	-10.3423
▁silniční	-10.3423
▁buněk	-10.3423
▁název	-10.3424
▁čísle	-10.3424
▁výprav	-10.3424
▁piva	-10.3425
směs	-10.3431
▁prázdnin	-10.3431
líbil	-10.3434
▁uvedené	-10.3434
IT	-10.3435
▁verze	-10.3435
▁tráv	-10.3441
▁průměru	-10.3444
▁zdalek	-10.3447
▁narozen	-10.345
▁takových	-10.345
▁Prav	-10.3454
▁aktivní	-10.3454
▁zařazen	-10.3461
▁mnohé	-10.3462
snad	-10.3468
▁chceme	-10.3483
jmenován	-10.3502
▁americký	-10.3503
▁Han	-10.3506
▁směn	-10.353
▁poznání	-10.3535
▁pravé	-10.3543
▁přizpůsob	-10.3547
evropský	-10.3559
▁stop	-10.3569
▁režisér	-10.3582
▁vyžaduje	-10.3582
▁zřejmé	-10.3582
▁argument	-10.3582
▁zpravodaj	-10.3582
▁dialog	-10.3582
▁zůstat	-10.3582
▁občas	-10.3582
▁pachatel	-10.3582
▁agentury	-10.3582
▁přírody	-10.3582
▁trend	-10.3584
▁privatizaci	-10.3584
▁marek	-10.3586
▁dochází	-10.3589
▁Úřad	-10.3589
ráže	-10.359
▁sdělil	-10.3593
▁Karel	-10.3596
▁článku	-10.3598
▁jaderné	-10.3614
▁pracoval	-10.3614
▁zásadní	-10.3616
▁vánoce	-10.3616
▁velko	-10.3617
▁sovětské	-10.364
▁univerzit	-10.3643
▁počítačů	-10.3644
▁odborníků	-10.3655
▁Tři	-10.3664
procentní	-10.367
▁okresní	-10.3682
▁jaderný	-10.3682
▁pozitivní	-10.3685
▁Ostrava	-10.3691
▁96	-10.372
▁Karl	-10.3737
▁Myslím	-10.3743
▁Poslanec	-10.3743
▁experiment	-10.3743
▁nemovitost	-10.3743
▁organizací	-10.3743
▁perspektiv	-10.3743
▁tlačítko	-10.3743
▁čtrnáct	-10.3743
▁Miroslav	-10.3743
▁jména	-10.3743
▁zahájil	-10.3743
▁požádal	-10.3743
▁Místo	-10.3743
▁věnovat	-10.3743
▁začínají	-10.3743
▁rozhlas	-10.3744
▁válce	-10.3744
▁historii	-10.3744
▁následn	-10.3744
▁příštího	-10.3745
▁konstru	-10.3752
kládají	-10.3755
▁roste	-10.3758
▁ztratil	-10.3774
ívají	-10.3775
▁vaší	-10.3786
tvrdil	-10.3787
šly	-10.3789
▁kultur	-10.3828
▁přeprav	-10.3847
▁liší	-10.3847
▁zajímavé	-10.3853
▁mechanik	-10.3875
padají	-10.389
povídá	-10.3898
ór	-10.3899
▁obran	-10.3902
ěkteří	-10.3905
▁jednoduché	-10.3907
▁kabinet	-10.3907
▁nabízejí	-10.3907
▁1995	-10.3907
▁smlouva	-10.3907
▁tajemník	-10.3907
▁závažn	-10.3907
▁považován	-10.3907
▁Někd	-10.3907
▁Základní	-10.3908
sloužil	-10.3908
▁snížil	-10.3908
▁špatné	-10.3908
▁zůstane	-10.3908
▁hormon	-10.3908
▁pivovar	-10.3908
▁zvíře	-10.3908
▁kolektiv	-10.3909
▁doktor	-10.391
celku	-10.391
▁zimní	-10.3917
▁bit	-10.3926
▁zastoupen	-10.393
▁soudní	-10.3943
▁déle	-10.3968
/2	-10.3969
85	-10.3976
▁postih	-10.3988
▁porazil	-10.3989
▁psa	-10.3996
koupil	-10.4
úpln	-10.4024
▁úřadů	-10.4025
▁Stál	-10.4034
▁přísn	-10.4041
▁fotbalový	-10.4041
▁typů	-10.4043
▁volný	-10.4052
▁dar	-10.4062
▁nedá	-10.4063
legislativ	-10.4074
▁globální	-10.4074
▁sponzor	-10.4074
▁závazk	-10.4074
▁monitor	-10.4074
▁řidič	-10.4074
▁úterý	-10.4074
▁výbuch	-10.4074
▁iniciativ	-10.4074
▁kapalin	-10.4075
▁Lidé	-10.4075
▁Letos	-10.4075
▁akademi	-10.4075
▁někdejší	-10.4075
▁včas	-10.4075
▁černo	-10.4076
▁hledání	-10.4078
▁šance	-10.4081
▁jestliže	-10.4083
▁veškeré	-10.4085
dél	-10.4088
▁lednu	-10.4091
▁děd	-10.4101
▁chud	-10.4135
entní	-10.4137
▁MB	-10.4143
▁riziko	-10.4145
▁oblastí	-10.4153
▁končí	-10.4161
▁pacientů	-10.4162
▁ruce	-10.4165
▁přestáv	-10.4165
▁Nebo	-10.4169
▁odborník	-10.4171
72	-10.4177
▁anti	-10.4192
padal	-10.4194
▁profesionální	-10.4203
▁pořad	-10.4205
▁významný	-10.4222
TE	-10.4232
▁dům	-10.4234
▁ozbrojen	-10.4243
▁Federální	-10.4243
▁nejdříve	-10.4243
▁používat	-10.4243
▁shromáždění	-10.4243
▁zvlášť	-10.4243
▁Fotbal	-10.4243
▁trénink	-10.4243
▁Lékař	-10.4243
▁útvar	-10.4244
▁dávno	-10.4244
▁potíže	-10.4244
operační	-10.4244
▁verzi	-10.4244
▁pěkn	-10.4244
▁mzdy	-10.4244
▁najednou	-10.4246
▁členství	-10.4253
▁palác	-10.4255
▁značné	-10.4255
▁výklad	-10.4257
▁vystoupení	-10.4258
▁tabulky	-10.426
▁Zdá	-10.426
▁studie	-10.4261
▁Změn	-10.4264
▁odpověď	-10.4266
cvič	-10.4266
▁sluš	-10.4266
▁úmysl	-10.4271
▁podnikatelské	-10.4285
ečná	-10.4287
▁rozdělení	-10.4289
▁děje	-10.4291
▁Mark	-10.4316
▁označení	-10.4337
psané	-10.4345
▁budu	-10.4358
▁Her	-10.4359
▁těsně	-10.4379
▁lékařské	-10.4383
SA	-10.4391
tabulk	-10.44
▁Michael	-10.4416
▁Nicméně	-10.4416
▁obyčejn	-10.4416
▁primátor	-10.4416
▁rozhodne	-10.4416
▁umožnil	-10.4416
▁hospodaření	-10.4416
▁katalog	-10.4416
▁paragraf	-10.4416
▁prospěch	-10.4416
▁spočívá	-10.4416
▁výrobci	-10.4416
▁Československa	-10.4416
▁domnívá	-10.4416
▁odpovídající	-10.4416
▁císař	-10.4416
▁pozici	-10.4416
▁Har	-10.4417
▁zaměstnanci	-10.4419
▁akcí	-10.4423
ČSL	-10.4425
▁sedmdesát	-10.4436
far	-10.4437
váží	-10.4438
▁soukromých	-10.4439
▁vztahů	-10.4443
chůd	-10.4444
▁nalezen	-10.4448
▁akcie	-10.4462
▁délk	-10.4464
▁odpadů	-10.4467
budete	-10.4468
▁záznamník	-10.4478
▁skutečné	-10.4498
▁písemn	-10.4527
pir	-10.4527
▁lidsk	-10.4534
ejít	-10.4535
tivně	-10.4547
▁muže	-10.456
▁určit	-10.4562
MO	-10.4576
energetick	-10.4591
▁odvětví	-10.4591
izraelsk	-10.4591
▁mechanismu	-10.4591
▁odběratel	-10.4591
▁uchazeč	-10.4591
▁firmu	-10.4591
▁hrozí	-10.4591
▁ohrožen	-10.4591
▁Tomáš	-10.4591
▁mnozí	-10.4592
▁mozku	-10.4592
▁zemědělské	-10.4592
▁propag	-10.4592
▁Dále	-10.4593
▁hovor	-10.4595
▁Pohár	-10.4597
▁hledat	-10.46
▁DNA	-10.461
▁deník	-10.461
▁prvků	-10.4612
▁bezprostředn	-10.4616
ismem	-10.4616
▁horší	-10.4618
oporu	-10.4633
▁Pražské	-10.4635
KU	-10.4637
▁budoucnost	-10.4649
praví	-10.4654
ller	-10.4665
▁vědomí	-10.4665
▁půdě	-10.4668
ěte	-10.4687
▁rozvoje	-10.4717
▁ponech	-10.4721
▁vědeck	-10.4728
ňující	-10.4738
▁Kor	-10.4754
▁absolv	-10.4769
znamenat	-10.477
▁Clinton	-10.477
▁aplikací	-10.477
▁problematik	-10.477
▁upozornil	-10.477
▁vytváření	-10.477
▁zdůraznil	-10.477
▁Československo	-10.477
▁Švédsk	-10.477
▁ruský	-10.477
▁výrobě	-10.477
▁natolik	-10.477
▁Existuj	-10.477
▁výroba	-10.477
▁rodiče	-10.477
▁informoval	-10.477
▁nechtěl	-10.477
▁tudíž	-10.477
▁podpory	-10.477
▁bankovní	-10.4771
▁reprezentace	-10.4771
čištění	-10.4772
▁účastníků	-10.4774
▁zmíněné	-10.4775
▁částečně	-10.4782
koupí	-10.4784
▁silné	-10.4785
▁limit	-10.4785
▁křiv	-10.48
▁Plat	-10.4818
▁vlastností	-10.4821
nesou	-10.4824
tematick	-10.4826
▁zavedení	-10.483
▁centrální	-10.4848
▁vznikají	-10.4849
hodné	-10.4853
▁platnost	-10.486
▁povinn	-10.486
▁technick	-10.4873
▁Poté	-10.4882
▁případné	-10.4891
▁uzavření	-10.4907
▁ochotn	-10.4912
▁přesun	-10.4918
IC	-10.4934
▁neexistuje	-10.4952
▁odpoledne	-10.4952
▁připomíná	-10.4952
▁rozhodčí	-10.4952
▁svědčí	-10.4952
▁zjednoduš	-10.4952
▁organismu	-10.4952
▁připojištění	-10.4952
▁konzerv	-10.4952
▁paměti	-10.4952
▁stimul	-10.4952
▁vyhlášen	-10.4952
▁urychl	-10.4952
povídal	-10.4953
▁pomalu	-10.4953
▁vyloučen	-10.4953
▁Americk	-10.4954
▁obecně	-10.4955
▁Milan	-10.4957
▁kvalifikaci	-10.4957
▁česká	-10.4964
▁oblastech	-10.4965
▁Lidov	-10.4999
žijí	-10.4999
▁vydá	-10.5012
▁pražsk	-10.5012
dostala	-10.5013
▁nynější	-10.5033
▁sněmovn	-10.5036
▁britské	-10.5045
▁zraněn	-10.5052
▁olej	-10.508
▁nejvíc	-10.5086
▁brněnské	-10.5115
▁The	-10.5122
▁koncentr	-10.5134
▁Itálie	-10.5137
▁KSČM	-10.5137
▁Londýn	-10.5137
▁Ovšem	-10.5137
▁Program	-10.5137
▁konflikt	-10.5137
▁maďarsk	-10.5137
▁spolehliv	-10.5137
▁zveřejněn	-10.5137
▁úspěšně	-10.5137
alternativ	-10.5137
▁Ministr	-10.5137
▁neustále	-10.5137
▁výhradn	-10.5137
▁stránce	-10.5137
▁rychlé	-10.5137
▁minimální	-10.5137
hlédnout	-10.5137
▁desetiletí	-10.5137
▁snažil	-10.5137
▁praxe	-10.5137
▁záchran	-10.5137
Vesmír	-10.5137
▁chorob	-10.5137
▁vysíla	-10.5138
▁dodnes	-10.5138
▁děj	-10.5138
▁nicméně	-10.5139
▁vzájemné	-10.514
▁vyjádření	-10.5141
▁činitel	-10.5141
▁pouhý	-10.5141
▁regionální	-10.5144
▁desítek	-10.5145
▁paliv	-10.5146
▁úsek	-10.5146
▁duše	-10.5146
▁zdejší	-10.5148
průměr	-10.5153
▁Ital	-10.5155
▁vlastnost	-10.5158
▁turistick	-10.5158
▁Ostravě	-10.5162
▁určitou	-10.5171
▁vybrat	-10.5173
▁náhradní	-10.5199
▁potřeba	-10.5205
▁milion	-10.5222
▁přístroje	-10.5238
▁slev	-10.5239
▁programové	-10.5257
vítá	-10.5274
▁významné	-10.5305
▁Karadžič	-10.5326
▁teoretick	-10.5326
▁Všichni	-10.5326
▁náměstek	-10.5326
▁poptávky	-10.5326
▁profesor	-10.5326
▁zvítězil	-10.5326
▁zúčastnil	-10.5326
▁jednoduchý	-10.5326
▁špatně	-10.5326
▁Naopak	-10.5326
▁čtení	-10.5327
▁jediná	-10.5327
▁statistick	-10.5327
▁skvěl	-10.5327
▁specializovan	-10.5328
▁poslance	-10.5329
▁Snad	-10.533
▁koncentrace	-10.5331
▁zaměstnance	-10.5331
▁kostel	-10.5331
▁potřebují	-10.5333
▁odborníci	-10.5333
▁měření	-10.5338
▁nabídl	-10.5343
▁Výstav	-10.5344
▁atlet	-10.5344
▁okna	-10.5346
▁produktů	-10.5349
▁mohu	-10.5352
▁29	-10.5353
lární	-10.5374
▁Car	-10.5376
▁vložen	-10.5385
▁standardní	-10.5386
▁občanské	-10.5396
stával	-10.5417
▁váh	-10.542
▁Evropsk	-10.5421
▁škole	-10.5454
ohra	-10.5493
ráží	-10.5517
povídají	-10.5518
▁investovat	-10.5518
▁zhodnoc	-10.5518
▁Ředitel	-10.5518
▁šestnáct	-10.5518
▁upraven	-10.5518
▁mladé	-10.5518
▁stíhán	-10.5518
▁historie	-10.5518
▁resort	-10.5518
▁zakázk	-10.5518
▁anglické	-10.5518
▁konzul	-10.5518
▁ovládá	-10.5518
▁turistů	-10.5518
▁krásn	-10.5518
▁bydlení	-10.5519
▁zbraně	-10.5519
▁pozice	-10.5519
▁věnoval	-10.5519
bavit	-10.5519
▁pojetí	-10.552
▁získan	-10.552
▁zápis	-10.552
▁nechat	-10.5521
▁samotné	-10.5523
▁lidmi	-10.5532
▁krátce	-10.5538
▁dodávky	-10.5547
ujte	-10.5567
▁rozpad	-10.5568
▁roh	-10.557
▁pohybuje	-10.5576
▁600	-10.5584
▁zlom	-10.5585
▁věnuj	-10.5586
▁voličů	-10.5591
▁činil	-10.5597
▁domě	-10.5601
ekonomický	-10.5609
▁obecní	-10.5623
▁čekají	-10.5625
▁Soud	-10.5628
▁lov	-10.5638
▁výchov	-10.5651
▁reálné	-10.5655
▁investic	-10.5656
▁slun	-10.5672
▁nejdůležitější	-10.5679
ukce	-10.5683
▁vešker	-10.5701
▁úspěšné	-10.5714
▁Především	-10.5714
▁Richard	-10.5714
▁elektrárny	-10.5714
▁konstatoval	-10.5714
▁měsíčně	-10.5714
▁osmdesát	-10.5714
▁sobotní	-10.5714
▁umožní	-10.5714
▁snížit	-10.5714
▁minimálně	-10.5714
▁moravsk	-10.5714
▁Občansk	-10.5714
▁veřejný	-10.5714
▁zvýšit	-10.5714
▁Spojené	-10.5714
▁úsilí	-10.5714
▁okruh	-10.5714
▁kritik	-10.5714
▁srovnateln	-10.5715
▁seminář	-10.5715
▁snímky	-10.5716
▁doslova	-10.5716
▁různým	-10.5716
▁setkal	-10.5716
▁sektor	-10.5716
▁míře	-10.5718
▁poškození	-10.5718
▁černé	-10.5719
▁pozdě	-10.5719
▁tvorbu	-10.572
▁ukončen	-10.572
▁zobrazení	-10.572
spektr	-10.5723
▁Češi	-10.5723
▁italské	-10.5723
▁celek	-10.5726
▁pravdu	-10.5731
▁nucen	-10.5732
padne	-10.5735
▁myší	-10.5736
▁vzal	-10.5762
▁rozvod	-10.5791
▁soupeře	-10.5803
skok	-10.5806
▁cítí	-10.5813
▁znát	-10.5842
působit	-10.5854
erie	-10.5855
hradí	-10.5858
▁koalic	-10.5861
▁generál	-10.5876
kreslen	-10.5877
▁existence	-10.5914
▁konkurenční	-10.5914
▁matematik	-10.5914
▁pojišťovny	-10.5914
▁rozhodování	-10.5914
▁specifick	-10.5914
▁spolupracovník	-10.5914
▁úspěšný	-10.5914
▁Samozřejmě	-10.5914
▁ČNR	-10.5914
▁schůzk	-10.5914
▁výdaje	-10.5914
▁širší	-10.5914
▁divadla	-10.5914
▁dobrovoln	-10.5914
▁editor	-10.5914
▁půjde	-10.5914
▁výskyt	-10.5914
▁sdělení	-10.5915
▁nabídka	-10.5915
▁Vznik	-10.5915
▁38	-10.5916
▁úvodní	-10.5916
▁Řad	-10.5916
▁chemické	-10.5923
▁strach	-10.5924
▁obsadil	-10.5925
hlédn	-10.5929
▁celní	-10.5932
▁nezávislých	-10.5939
▁Muž	-10.594
▁úraz	-10.5943
▁představení	-10.5961
▁myšlení	-10.5962
▁ochot	-10.5968
▁vykoná	-10.5971
▁bezpečnost	-10.5977
▁tiskov	-10.5993
hladov	-10.6009
▁forma	-10.6042
státní	-10.6048
ňoval	-10.6063
▁postaven	-10.6064
▁ústavní	-10.6073
▁společn	-10.6104
kupní	-10.6116
▁nábožensk	-10.6118
▁církve	-10.6118
▁důstojn	-10.6118
▁přehlídk	-10.6118
▁týdny	-10.6118
▁vyspělý	-10.6118
▁1988	-10.6118
▁Němci	-10.6118
▁alkohol	-10.6118
▁koordin	-10.6118
▁usnesení	-10.6118
▁úředník	-10.6118
▁odmítá	-10.6118
▁surovin	-10.6118
▁nízké	-10.6118
▁představitelů	-10.6118
▁kolegy	-10.6118
▁rozporu	-10.6119
▁vražd	-10.6119
▁zapotřebí	-10.6119
▁přišla	-10.612
▁privatizační	-10.612
▁mód	-10.6122
▁zbytk	-10.6123
vir	-10.6126
▁Teď	-10.6127
▁italsk	-10.6128
▁létě	-10.6131
▁sluch	-10.6131
▁StB	-10.6139
hradil	-10.614
▁technický	-10.6154
▁žijící	-10.6155
hradit	-10.6157
▁přímé	-10.6167
▁historický	-10.6182
▁údajn	-10.6211
▁výuk	-10.6212
▁okraj	-10.6223
hodil	-10.6228
▁temp	-10.6234
letěl	-10.624
▁Pražsk	-10.6275
izační	-10.6279
▁dřív	-10.628
nder	-10.6292
▁silný	-10.6296
▁mluví	-10.631
▁poškoz	-10.631
▁Egypt	-10.6326
▁firmou	-10.6326
▁funkční	-10.6326
▁pokračoval	-10.6326
▁spisovatel	-10.6326
▁technologick	-10.6326
▁technologií	-10.6326
▁zvyšuje	-10.6326
▁úmrtnosti	-10.6326
▁Druhý	-10.6326
▁Moskvě	-10.6326
▁nabízen	-10.6326
▁vynikající	-10.6326
▁třináct	-10.6326
▁populace	-10.6326
▁dětské	-10.6326
▁mužstva	-10.6326
▁ihned	-10.6326
ičtější	-10.6326
hlásí	-10.6326
▁Třetí	-10.6326
▁dovolené	-10.6326
▁štěstí	-10.6327
▁Předseda	-10.6327
KDU	-10.6327
▁Francii	-10.6327
▁antropolog	-10.6327
▁oblačno	-10.6327
▁Pomuku	-10.6327
vzdor	-10.6327
▁devíti	-10.6328
▁reprezentační	-10.6328
▁Bush	-10.6328
▁Boris	-10.6328
▁nasazen	-10.6329
▁tábor	-10.633
objednáv	-10.6332
▁Svaz	-10.6332
▁nemocnici	-10.6333
▁Více	-10.6336
▁spotřební	-10.634
▁mluvit	-10.6342
▁bomb	-10.6343
ED	-10.6345
▁obětí	-10.6346
▁Avšak	-10.6348
▁šok	-10.6358
▁Indi	-10.6362
▁pomohl	-10.6363
▁vyrovnan	-10.6364
▁daňový	-10.6371
▁mírn	-10.6374
▁těla	-10.6388
▁stačil	-10.6405
EK	-10.6409
▁špičkov	-10.6433
▁jednoznačn	-10.6478
▁dostih	-10.6513
▁odpadní	-10.652
logický	-10.6535
▁elektro	-10.6537
▁financování	-10.6539
▁konkurenci	-10.6539
▁magistrát	-10.6539
▁nakladatelství	-10.6539
▁souvisí	-10.6539
▁tehdejší	-10.6539
▁transformace	-10.6539
▁výsledkem	-10.6539
▁závislost	-10.6539
▁úmrtí	-10.6539
▁španělsk	-10.6539
▁dlužník	-10.6539
▁implant	-10.6539
▁mládež	-10.6539
▁sledovat	-10.6539
▁rozhodnout	-10.6539
▁PCB	-10.6539
▁zlepšení	-10.6539
▁negativní	-10.6539
▁budoucnu	-10.6539
▁civilní	-10.6539
▁příjmu	-10.6539
▁katolick	-10.6539
▁zabránit	-10.6539
stěhoval	-10.6539
▁operace	-10.6539
▁Vláda	-10.654
▁zaplatit	-10.654
▁cukr	-10.654
▁jedinou	-10.654
▁Slavie	-10.654
▁svěřen	-10.6541
▁Kanad	-10.6542
▁mladí	-10.6543
▁Wales	-10.6545
▁Zájem	-10.6546
▁překvapení	-10.6546
▁Euro	-10.6547
▁takzvan	-10.6549
TU	-10.6555
▁Vedle	-10.6559
▁3000	-10.6564
▁vyzval	-10.6571
fyzikální	-10.6579
▁přítel	-10.6582
▁nechá	-10.6587
▁formou	-10.6591
▁barevné	-10.6636
hodnou	-10.6647
árek	-10.6652
▁celkový	-10.6658
▁lesní	-10.6677
▁stiskn	-10.6681
ejména	-10.6698
▁hrají	-10.671
▁vážně	-10.6711
dařilo	-10.6746
▁někde	-10.6755
▁Ostatně	-10.6757
▁Plzeň	-10.6757
▁Sdružení	-10.6757
▁astronom	-10.6757
▁obrázek	-10.6757
▁rekreační	-10.6757
▁služba	-10.6757
▁červnu	-10.6757
▁záleží	-10.6757
▁přiznání	-10.6757
▁následk	-10.6757
▁poskytl	-10.6757
▁pozorovatel	-10.6757
▁porovnání	-10.6757
▁účetní	-10.6757
▁vesmír	-10.6757
▁krize	-10.6758
▁navrhl	-10.6758
▁výrok	-10.676
▁sítí	-10.6762
▁Výbor	-10.6764
▁Ačkoli	-10.6766
▁adapt	-10.6771
▁místnosti	-10.6772
▁strojů	-10.6781
▁úzk	-10.6785
▁požár	-10.6787
▁zahrad	-10.6788
působil	-10.6798
Ú	-10.682
▁Kraj	-10.6821
▁jasně	-10.6823
▁Firm	-10.6856
izovan	-10.6884
▁nezávislost	-10.6912
Švýcarsk	-10.6912
▁americk	-10.6921
▁hlad	-10.6925
▁vědom	-10.694
▁rozpočtov	-10.6979
▁Bratislavě	-10.6979
▁administra	-10.6979
▁dividend	-10.6979
▁kategorie	-10.6979
▁kompromis	-10.6979
▁odpověděl	-10.6979
▁stadión	-10.6979
▁týdnů	-10.6979
▁uskuteční	-10.6979
▁monopol	-10.6979
▁otázce	-10.6979
▁potvrzen	-10.6979
▁Nakonec	-10.6979
▁Návrh	-10.6979
▁jaterní	-10.6979
▁nabídnout	-10.6979
▁stížnost	-10.6979
▁recept	-10.6979
▁péči	-10.6979
▁žalob	-10.698
▁patřil	-10.698
▁podpora	-10.698
▁Graf	-10.698
▁interak	-10.698
▁dovolit	-10.698
▁server	-10.6981
▁nepodařilo	-10.6981
nášejí	-10.6986
▁žlut	-10.6987
OVÁ	-10.6989
▁okno	-10.6992
▁Podnik	-10.6995
běhu	-10.7003
nejvýš	-10.7006
▁stará	-10.7031
▁vyvíj	-10.7035
▁věděl	-10.7045
▁tajné	-10.7045
▁přítomn	-10.7058
▁soust	-10.7063
▁hlubo	-10.7098
▁vojenský	-10.7099
LU	-10.7099
soudit	-10.7102
tkání	-10.7102
▁vědecký	-10.7106
rgi	-10.712
▁magnet	-10.7139
▁Evropský	-10.7146
třída	-10.7176
▁okrese	-10.7177
▁desít	-10.7184
pálen	-10.7194
▁existenci	-10.7206
▁funguje	-10.7206
▁otevření	-10.7206
▁otázek	-10.7206
▁pojišťovna	-10.7206
▁rozhodovat	-10.7206
▁vyšetřování	-10.7206
▁Slunce	-10.7206
▁advokát	-10.7206
▁křesťan	-10.7206
▁poskytnut	-10.7206
▁lokalit	-10.7206
▁přání	-10.7206
▁žádá	-10.7206
▁ostatně	-10.7206
▁aktuální	-10.7206
▁vytvoří	-10.7206
▁zálož	-10.7206
▁operaci	-10.7206
▁situací	-10.7206
▁vyberte	-10.7206
▁legend	-10.7206
▁islám	-10.7206
▁letadla	-10.7206
▁převzal	-10.7206
▁Znamen	-10.7207
▁zůstávají	-10.7207
▁dlouhodobé	-10.7207
▁stáří	-10.7208
▁dobrou	-10.7208
▁molekulární	-10.7209
▁návštěvníků	-10.7211
▁prud	-10.7211
▁SRN	-10.7212
▁pochod	-10.7213
▁protein	-10.7216
pozoruhodn	-10.7218
▁míní	-10.7218
▁příslušný	-10.7227
▁zájemců	-10.7228
ěřitel	-10.7231
▁Obecn	-10.7235
▁oceněn	-10.7273
▁označen	-10.7311
▁vojensk	-10.7312
▁složen	-10.7323
▁potřeboval	-10.7334
▁srážk	-10.7414
▁interpret	-10.7417
"	-10.7434
▁laboratoř	-10.7439
▁Anglie	-10.7439
▁George	-10.7439
▁Králové	-10.7439
▁Nejvyšší	-10.7439
▁disciplín	-10.7439
▁institucí	-10.7439
▁jugoslávsk	-10.7439
▁literatur	-10.7439
▁mladší	-10.7439
▁nejčastěji	-10.7439
▁organizační	-10.7439
▁přinejmenším	-10.7439
▁příspěvek	-10.7439
▁software	-10.7439
▁spravedlnost	-10.7439
▁vzrostl	-10.7439
▁zabezpečení	-10.7439
▁rodičů	-10.7439
▁dráhy	-10.7439
▁přispěl	-10.7439
▁nestačí	-10.7439
▁pochopitelně	-10.7439
▁souboj	-10.7439
▁předpisů	-10.7439
▁účinnost	-10.7439
▁přírodovědeck	-10.744
▁vlastnictví	-10.744
▁Polici	-10.744
▁Bosně	-10.744
▁přijít	-10.7442
▁úloh	-10.7445
▁tvorby	-10.7446
▁podobu	-10.7447
dostanou	-10.7447
▁poruch	-10.7451
▁výplat	-10.7452
▁vrátí	-10.7453
▁příběh	-10.7455
▁ekonomických	-10.7459
▁zničen	-10.7469
▁nemusel	-10.7482
▁levnější	-10.75
▁smut	-10.7509
rážky	-10.7521
nedávn	-10.7609
▁pracující	-10.7619
▁chyt	-10.7644
ontrol	-10.7672
svobozen	-10.7677
▁Anglii	-10.7677
▁Jaromír	-10.7677
▁Microsoft	-10.7677
▁NHL	-10.7677
▁duchovní	-10.7677
▁francouzské	-10.7677
▁inteligen	-10.7677
▁jménem	-10.7677
▁medaile	-10.7677
▁navzájem	-10.7677
▁odpovědi	-10.7677
▁požadavek	-10.7677
▁praktické	-10.7677
▁sortiment	-10.7677
▁tvůrc	-10.7677
▁týkající	-10.7677
▁uzavřít	-10.7677
▁veřejně	-10.7677
▁využívat	-10.7677
▁výpočetní	-10.7677
▁zabývat	-10.7677
▁zástupců	-10.7677
▁ČEZ	-10.7677
▁článek	-10.7677
▁manipul	-10.7677
▁mužstvo	-10.7677
▁měřítk	-10.7677
▁asociace	-10.7677
▁poskytují	-10.7677
▁Major	-10.7677
▁dětem	-10.7677
▁řetěz	-10.7677
▁prestiž	-10.7677
▁dočasn	-10.7677
▁chvíle	-10.7677
▁sfér	-10.7677
▁důraz	-10.7678
▁přeměn	-10.7678
▁bolest	-10.7678
▁zhorš	-10.768
▁Chtěl	-10.7681
▁sloup	-10.7686
▁venkov	-10.7688
▁Odbor	-10.7689
▁okolní	-10.769
▁risk	-10.7694
▁pojme	-10.7694
▁hrob	-10.7705
▁disket	-10.7706
ODS	-10.7706
▁čekal	-10.7713
ogenní	-10.7753
▁překvapiv	-10.7763
▁Paul	-10.7779
▁špičk	-10.7797
▁obecné	-10.7816
▁herec	-10.7851
▁rozdělen	-10.7856
▁zemské	-10.7887
▁výjimk	-10.7888
šetřit	-10.7921
▁Důležit	-10.7921
▁motocykl	-10.7921
▁organizaci	-10.7921
▁považuji	-10.7921
▁související	-10.7921
▁Obchodní	-10.7921
▁dlouhý	-10.7921
▁souladu	-10.7921
▁údržb	-10.7921
▁expozi	-10.7921
▁generace	-10.7921
▁ministři	-10.7921
▁kongres	-10.7921
▁vyhlášk	-10.7921
▁socialist	-10.7921
▁vysoká	-10.7921
▁doporučen	-10.7921
▁Polska	-10.7921
▁Potřeb	-10.7921
▁Žádn	-10.7921
šetří	-10.7922
▁chtít	-10.7922
▁doping	-10.7922
▁obrátil	-10.7922
▁Čtyř	-10.7922
▁Michal	-10.7922
▁vyplatí	-10.7922
▁vlajk	-10.7923
soudil	-10.7923
ŘÍ	-10.7924
▁Možnost	-10.7925
▁nejspíš	-10.7925
▁vystaven	-10.7926
kupovat	-10.7926
▁tepeln	-10.7926
▁omyl	-10.7927
▁studia	-10.7927
▁územní	-10.793
▁nedělní	-10.7941
spraš	-10.7959
▁dolar	-10.7977
▁nedávné	-10.8001
▁uvedený	-10.8002
OLE	-10.8007
skočil	-10.8023
▁hluboko	-10.8036
▁zahájen	-10.8042
▁souvislost	-10.805
▁ačkoli	-10.8055
▁průmyslový	-10.8064
článk	-10.8148
těsn	-10.8151
▁dokonale	-10.8163
▁Jugosláv	-10.8169
▁atmosféře	-10.8171
▁delegace	-10.8171
▁devadesát	-10.8171
▁dozvěděl	-10.8171
▁francouzský	-10.8171
▁inflace	-10.8171
▁květnu	-10.8171
▁penzijní	-10.8171
▁poptávka	-10.8171
▁službu	-10.8171
▁elektřin	-10.8171
▁nejnovější	-10.8171
▁mandát	-10.8171
▁očekávan	-10.8171
▁sedmnáct	-10.8171
▁vysokoškol	-10.8171
▁Skutečn	-10.8171
▁oblíben	-10.8171
▁badatel	-10.8171
▁Viktor	-10.8171
▁všude	-10.8171
▁považují	-10.8171
▁Nejvíce	-10.8171
▁politická	-10.8171
▁doprovod	-10.8171
▁soustředěn	-10.8171
▁stanovisko	-10.8171
▁přírodě	-10.8171
▁prosadit	-10.8171
▁zábav	-10.8171
▁Popper	-10.8171
▁čísel	-10.8172
▁vyšetřovatel	-10.8172
▁Podnikatel	-10.8172
▁dřívější	-10.8172
▁tvořen	-10.8173
▁dohodnut	-10.8173
▁citliv	-10.8174
▁vysloven	-10.8174
▁rytm	-10.8175
▁velitel	-10.8175
▁podaří	-10.8175
▁slovenských	-10.8176
ovněž	-10.8176
pravděpodobností	-10.8178
▁vrací	-10.8184
▁vysvětlení	-10.8189
▁zlato	-10.8192
▁grafik	-10.8194
lezl	-10.8197
▁Kolik	-10.8227
pravují	-10.8236
hodnotí	-10.8246
▁předložen	-10.8248
jedou	-10.8251
▁bilanc	-10.827
▁volič	-10.8364
▁psycholog	-10.8396
vlas	-10.8397
▁přírodověd	-10.8426
hlížet	-10.8427
▁Výsledk	-10.8427
▁atraktivní	-10.8427
▁blízké	-10.8427
▁milióny	-10.8427
▁požadavků	-10.8427
▁rozšířit	-10.8427
▁telekomunikační	-10.8427
▁tiskárny	-10.8427
▁závisí	-10.8427
▁žebříčku	-10.8427
▁Zajímav	-10.8427
▁centimetr	-10.8427
▁montáž	-10.8427
▁Brazíli	-10.8427
▁předpokládat	-10.8427
▁složky	-10.8427
▁dlouhá	-10.8427
▁rozhraní	-10.8427
▁používají	-10.8427
▁chráněn	-10.8427
▁nekonečn	-10.8427
▁dramatick	-10.8427
▁koncepce	-10.8427
▁Důvod	-10.8427
▁nabídce	-10.8427
▁externí	-10.8427
▁vysoce	-10.8428
▁naděje	-10.8428
▁zaplacen	-10.8428
▁Sparty	-10.8428
▁muzea	-10.8429
▁vozidl	-10.843
▁barvy	-10.843
▁učinil	-10.8431
▁můj	-10.8432
▁mozkov	-10.8438
▁unii	-10.8442
▁Knih	-10.8442
lezsk	-10.8443
▁umožňující	-10.8448
▁Irsk	-10.8457
▁jakékoli	-10.8458
▁Chyb	-10.8466
pamatuj	-10.8547
▁stín	-10.8548
▁finančn	-10.8557
prodej	-10.8559
▁působ	-10.8569
▁divák	-10.859
večer	-10.8616
stoupení	-10.8631
místě	-10.8663
▁pivo	-10.8689
▁Itálii	-10.869
▁Masaryk	-10.869
▁divadelní	-10.869
▁inženýr	-10.869
▁kilogram	-10.869
▁obligace	-10.869
▁orientac	-10.869
▁otevřené	-10.869
▁pedagog	-10.869
▁požaduje	-10.869
▁vojáků	-10.869
▁vybírat	-10.869
▁výjimečn	-10.869
favorit	-10.869
▁peněžní	-10.869
▁Miloslav	-10.869
▁komentář	-10.869
▁reagoval	-10.869
▁snižování	-10.869
▁rychlý	-10.869
▁přirozený	-10.869
▁úrovní	-10.869
▁odsouzen	-10.869
▁zjistí	-10.869
▁komplet	-10.869
▁zkušebn	-10.869
▁Nizozemsk	-10.869
▁skončení	-10.869
▁poskytován	-10.869
▁povinen	-10.869
▁průkaz	-10.8691
▁nevěděl	-10.8691
▁menšin	-10.8691
▁absolvent	-10.8691
▁podívat	-10.8691
▁každodenn	-10.8691
▁Jugoslávii	-10.8692
▁odstraněn	-10.8692
dvacetiletý	-10.8692
▁důkladn	-10.8693
▁Celkov	-10.8693
▁najevo	-10.8693
▁přerušen	-10.8695
▁říct	-10.8697
▁zaplatil	-10.8698
▁zavře	-10.87
▁jistý	-10.8704
musela	-10.8705
▁plát	-10.8714
▁nesmírn	-10.8726
▁strav	-10.8734
projevuje	-10.8751
▁profesionál	-10.8753
▁vyhledá	-10.8765
▁pokyn	-10.8787
ALI	-10.8789
▁schválil	-10.8814
▁polské	-10.8826
▁stěn	-10.8835
dávky	-10.8844
▁podřízen	-10.8887
tisícov	-10.8896
▁zaveden	-10.8925
▁Např	-10.8931
▁průběh	-10.8939
ěsíční	-10.8942
▁Kazachstán	-10.896
▁Oznámil	-10.896
▁Univerzit	-10.896
▁existovat	-10.896
▁obtížné	-10.896
▁prezentací	-10.896
▁svědomí	-10.896
▁ubytování	-10.896
▁vyjádřit	-10.896
▁vytvářet	-10.896
▁zdánlivě	-10.896
▁Několik	-10.896
▁informaci	-10.896
▁ztrácí	-10.896
▁Problém	-10.896
▁komunismu	-10.896
▁poskytovat	-10.896
▁stříbrn	-10.896
▁bariér	-10.896
▁prodloužen	-10.896
▁Elektr	-10.896
▁sediment	-10.896
▁komerční	-10.896
▁československé	-10.896
▁veletrh	-10.8961
▁střediska	-10.8961
▁února	-10.8961
▁junio	-10.8961
▁slavnostní	-10.8961
▁zmizel	-10.8961
▁propojen	-10.8961
▁kvantov	-10.8961
záběr	-10.8961
▁předpisy	-10.8962
▁Slovinsk	-10.8962
▁zvětš	-10.8962
▁pěst	-10.8962
▁vlákn	-10.8962
▁dálnic	-10.8964
▁klimatický	-10.8964
▁hrdin	-10.8966
najdete	-10.8968
▁udělá	-10.8968
▁prováděn	-10.8969
střelil	-10.897
▁náskok	-10.8971
▁továrn	-10.8973
▁uvolněn	-10.8973
▁vybraný	-10.8975
▁zmíněný	-10.8983
▁bezplatn	-10.8988
▁zvolil	-10.8991
▁Ostrav	-10.9012
▁geolog	-10.9013
▁atomov	-10.9016
▁získáva	-10.902
▁věk	-10.9039
příč	-10.9136
tivnější	-10.9136
sovětsk	-10.9139
▁hledají	-10.9166
važoval	-10.9175
sáhnout	-10.9199
▁kontinent	-10.9218
▁privatiz	-10.9227
vlastn	-10.9237
▁Krkonoš	-10.9238
ačtyřicet	-10.9238
▁ClipArt	-10.9238
▁basketbal	-10.9238
▁demokracii	-10.9238
▁fanoušků	-10.9238
▁lustrační	-10.9238
▁navštívil	-10.9238
▁obligací	-10.9238
▁otevřel	-10.9238
▁otázkou	-10.9238
▁ovzduší	-10.9238
▁pracoviště	-10.9238
▁prokurátor	-10.9238
▁vyrábí	-10.9238
▁železniční	-10.9238
▁Pracovní	-10.9238
▁jednoduše	-10.9238
▁nádraží	-10.9238
▁opoziční	-10.9238
▁nepochybn	-10.9238
▁osmnáct	-10.9238
▁pobřeží	-10.9238
▁častěji	-10.9238
poloviční	-10.9238
▁oblečení	-10.9238
▁Rumunsk	-10.9238
▁příchod	-10.9239
▁odstranit	-10.9239
▁statut	-10.924
▁knize	-10.924
▁věnován	-10.924
▁modul	-10.924
▁knížk	-10.924
▁záření	-10.924
▁obnoven	-10.9242
▁raket	-10.9243
▁Tehd	-10.9244
▁vážné	-10.9245
▁poradensk	-10.9251
▁říkal	-10.9253
▁chyběl	-10.926
▁společník	-10.9263
▁Rád	-10.9263
ložený	-10.9266
bírají	-10.9267
nutil	-10.9267
případě	-10.9277
▁komunistické	-10.9279
▁Pět	-10.928
▁mrav	-10.9318
▁aminokyselin	-10.9323
▁okamžik	-10.9375
ocel	-10.9403
▁Škod	-10.9403
atrně	-10.9421
▁psycho	-10.9434
ohledem	-10.9436
▁dělník	-10.9469
hodnotit	-10.9491
ografie	-10.9518
▁tajný	-10.952
▁pochopit	-10.9524
▁dopoledne	-10.9524
▁důvěry	-10.9524
▁ministerstvu	-10.9524
▁nejrychleji	-10.9524
▁partneři	-10.9524
▁poskytnout	-10.9524
▁rekonstrukci	-10.9524
▁spravedliv	-10.9524
▁strategie	-10.9524
▁vyrábět	-10.9524
▁Americe	-10.9524
▁areálu	-10.9524
▁doporučuje	-10.9524
▁neobvykl	-10.9524
▁považovat	-10.9524
▁rozhoduje	-10.9524
▁mateřsk	-10.9524
▁praktický	-10.9524
▁kompres	-10.9524
atlantick	-10.9524
▁klášte	-10.9524
▁policii	-10.9524
▁reakce	-10.9524
▁Trenér	-10.9524
▁majetkov	-10.9524
▁dubna	-10.9524
▁dveře	-10.9524
▁úhrad	-10.9524
▁taneční	-10.9524
▁politickou	-10.9524
▁sloužit	-10.9524
▁Havla	-10.9524
▁sledoval	-10.9524
▁obtížně	-10.9524
▁srdce	-10.9524
▁muzik	-10.9525
▁Excel	-10.9525
▁jaře	-10.9526
nášet	-10.9526
▁sovětských	-10.9526
▁humor	-10.9527
▁Pozor	-10.9527
▁Klub	-10.9529
krácen	-10.9535
škodliv	-10.9538
▁dotací	-10.9543
logicky	-10.9548
▁Konečn	-10.9549
▁klesl	-10.955
▁kořen	-10.9568
týdenní	-10.9619
padesát	-10.962
▁pozitiv	-10.963
▁zjevn	-10.9701
▁porážk	-10.9713
▁rozšířen	-10.973
▁odkaz	-10.979
ařské	-10.9791
▁neprav	-10.9814
švédsk	-10.9818
▁nepřízniv	-10.9818
▁Wimbledon	-10.9818
▁geometrie	-10.9818
▁inspekto	-10.9818
▁miliónu	-10.9818
▁opozice	-10.9818
▁producent	-10.9818
▁referendu	-10.9818
▁výsledku	-10.9818
▁zahrnuje	-10.9818
▁zásluh	-10.9818
▁Stanislav	-10.9818
▁vstříc	-10.9818
▁snižuje	-10.9818
▁kupónov	-10.9818
zapomněl	-10.9818
▁března	-10.9818
▁figur	-10.9818
▁funkcionář	-10.9818
▁zahynul	-10.9818
▁účinky	-10.9818
▁šťastn	-10.9818
▁závazn	-10.9818
▁čtvrtletí	-10.9818
▁rozmezí	-10.9818
▁uprchl	-10.9818
▁aparát	-10.9819
▁páté	-10.9819
▁terorist	-10.9819
▁využil	-10.9819
▁sotva	-10.9819
▁zvýší	-10.9819
▁středověk	-10.9819
▁klesá	-10.982
▁rakouské	-10.982
▁Fond	-10.982
▁necelý	-10.982
▁terén	-10.982
▁nositel	-10.9821
▁morální	-10.9821
▁knihovn	-10.9822
▁duchu	-10.9822
▁útočník	-10.9823
▁Šest	-10.9826
▁pověst	-10.9827
▁běžn	-10.9881
vládnout	-10.9912
skutk	-10.9961
příliš	-10.9977
▁minulost	-11
off	-11.0075
▁samozřejm	-11.0084
▁Němec	-11.0086
▁reakci	-11.0117
▁Otázka	-11.0121
▁definitivně	-11.0121
▁digitální	-11.0121
▁gigant	-11.0121
▁hygienic	-11.0121
▁jednorázov	-11.0121
▁kyslíku	-11.0121
▁navrhuje	-11.0121
▁označit	-11.0121
▁pokračování	-11.0121
▁prognóz	-11.0121
▁rovnová	-11.0121
▁sekretář	-11.0121
▁softwarov	-11.0121
▁statistik	-11.0121
▁transformaci	-11.0121
▁vyjadřuj	-11.0121
▁vězňů	-11.0121
▁začátek	-11.0121
▁zvyšování	-11.0121
▁důvěru	-11.0121
▁hřišti	-11.0121
▁otevřený	-11.0121
▁rozšířil	-11.0121
▁divadlo	-11.0121
▁předvolební	-11.0121
▁zemědělců	-11.0121
▁infekc	-11.0121
▁sexuální	-11.0121
▁výročí	-11.0121
▁používal	-11.0121
▁prozatím	-11.0121
▁Československé	-11.0121
▁vozidel	-11.0121
▁tarif	-11.0121
vrácení	-11.0121
▁prosinci	-11.0121
zemědělských	-11.0121
▁náměstk	-11.0121
▁Třeba	-11.0121
▁vyskytují	-11.0121
▁dětský	-11.0121
▁zrušit	-11.0121
▁vazby	-11.0121
▁října	-11.0121
▁Býval	-11.0121
▁opačné	-11.0121
▁vteřin	-11.0121
▁využívají	-11.0121
▁ukázk	-11.0121
▁skleník	-11.0121
▁rozsáhlé	-11.0122
▁osvět	-11.0122
▁počtem	-11.0122
počtů	-11.0122
▁poplatky	-11.0122
▁svoje	-11.0122
▁nastavení	-11.0122
▁obvyklé	-11.0122
▁nikoho	-11.0122
▁Práce	-11.0122
▁rakovin	-11.0122
▁Pomoc	-11.0122
▁Východ	-11.0123
▁nazýva	-11.0123
▁hluboké	-11.0123
▁Prostě	-11.0124
▁Tvrd	-11.0124
▁uplatňuj	-11.0126
▁přispíva	-11.0126
▁zastavil	-11.0131
▁Hill	-11.0134
▁zvlád	-11.0135
▁odložen	-11.0137
▁Cest	-11.0139
látka	-11.017
▁stručn	-11.0194
▁odešl	-11.02
končit	-11.021
příště	-11.0228
▁vydělá	-11.0275
tratil	-11.0428
▁Angličan	-11.0434
▁Argentin	-11.0434
▁Evropu	-11.0434
▁Mechanik	-11.0434
▁Němců	-11.0434
▁Premiér	-11.0434
▁Staroměstské	-11.0434
▁absolutní	-11.0434
▁definitivní	-11.0434
▁kilobajtů	-11.0434
▁paradox	-11.0434
▁podepsán	-11.0434
▁podezření	-11.0434
▁potvrzuje	-11.0434
▁připomněl	-11.0434
▁tabulce	-11.0434
▁zastupitelstva	-11.0434
▁Mečiar	-11.0434
▁Systém	-11.0434
▁sjednocení	-11.0434
▁smlouvě	-11.0434
▁systematick	-11.0434
▁teorií	-11.0434
▁vyžádal	-11.0434
▁kyselin	-11.0434
▁Vývoj	-11.0434
▁tvořit	-11.0434
▁GSM	-11.0434
▁komplikov	-11.0434
▁pochopil	-11.0434
▁účinek	-11.0434
▁poločas	-11.0434
▁hustot	-11.0434
máhat	-11.0434
▁schůze	-11.0434
▁aspekt	-11.0434
▁režii	-11.0434
▁Druhá	-11.0434
▁zdarma	-11.0434
▁pohádk	-11.0434
▁zrušil	-11.0434
▁lehce	-11.0434
táhne	-11.0434
▁celků	-11.0434
▁Jihlav	-11.0434
▁membrán	-11.0434
▁ukončil	-11.0434
▁pokrok	-11.0434
▁čerstv	-11.0434
▁špatný	-11.0435
▁nález	-11.0435
▁tramvaj	-11.0436
▁pověřen	-11.0442
▁projednáva	-11.0443
▁termo	-11.0445
▁vyřešen	-11.0445
▁vězni	-11.0448
▁Cíle	-11.0453
▁pokladn	-11.0624
▁lékařsk	-11.0657
▁okamžit	-11.0719
▁analog	-11.0722
pomeňme	-11.0756
▁Bruselu	-11.0756
▁ToolBook	-11.0756
▁dohromady	-11.0756
▁nejnižší	-11.0756
▁pokračuje	-11.0756
▁porozumění	-11.0756
▁spořiteln	-11.0756
▁uskutečnit	-11.0756
▁volejbal	-11.0756
▁Člověk	-11.0756
▁každoročn	-11.0756
▁přispět	-11.0756
▁sportovců	-11.0756
▁turisty	-11.0756
▁Určit	-11.0756
▁demonstra	-11.0756
▁dražší	-11.0756
▁pokračují	-11.0756
▁snažit	-11.0756
▁dynamick	-11.0756
▁nemohu	-11.0756
▁Poslanc	-11.0756
▁Vítěz	-11.0756
▁index	-11.0756
▁medaili	-11.0756
▁podporovat	-11.0756
▁chystá	-11.0756
▁vyřešit	-11.0756
▁vyplývají	-11.0756
sáhne	-11.0756
▁Mnichov	-11.0756
▁vybudovat	-11.0756
▁krizi	-11.0756
▁bílkovin	-11.0756
▁Vysok	-11.0756
▁srážek	-11.0756
▁vypadat	-11.0757
▁uvidí	-11.0757
▁Histori	-11.0757
▁Osobn	-11.0757
▁hůře	-11.0757
▁doufá	-11.0757
▁umělecké	-11.0757
▁mlýn	-11.0757
▁skončí	-11.0757
▁kolegů	-11.0758
▁přiměřen	-11.0758
mítnut	-11.0759
▁mzdov	-11.076
▁obilí	-11.0765
▁chlap	-11.077
pravdě	-11.0772
▁ráz	-11.0774
▁sběr	-11.0776
▁Form	-11.0778
▁dcer	-11.0781
vázal	-11.0793
▁čestn	-11.0811
▁mlh	-11.0844
▁evropsk	-11.0918
▁Vlk	-11.0924
bíral	-11.0973
nvestiční	-11.107
▁svalov	-11.1071
▁předběžn	-11.1073
▁Mluvčí	-11.1089
▁Rudolf	-11.1089
▁elektráren	-11.1089
▁jednoduchá	-11.1089
▁metropoli	-11.1089
▁nechtějí	-11.1089
▁nejpozději	-11.1089
▁otevřena	-11.1089
▁pochopení	-11.1089
▁výpověď	-11.1089
▁Pardubic	-11.1089
▁intenzit	-11.1089
▁tradičně	-11.1089
▁obsažen	-11.1089
▁očekával	-11.1089
▁teorii	-11.1089
▁dosažení	-11.1089
▁neutrální	-11.109
▁hrozb	-11.109
▁složitější	-11.109
plácet	-11.109
táhnout	-11.109
▁jmění	-11.109
▁vysílá	-11.109
▁mechanick	-11.109
▁Moskva	-11.109
▁únoru	-11.109
▁Peníze	-11.109
▁reakcí	-11.109
▁řídící	-11.109
▁multi	-11.1091
▁anket	-11.1091
▁Divadl	-11.1091
▁mezd	-11.1091
▁nevýhod	-11.1092
▁hezk	-11.1093
▁vzácn	-11.1094
▁letecké	-11.1094
▁poplatník	-11.1095
▁přesahuj	-11.1096
▁Zástupc	-11.1097
▁úlev	-11.1101
▁Obdobn	-11.1108
svědčil	-11.1121
▁Zahraničn	-11.1153
▁komunisti	-11.1189
národních	-11.1202
▁účinně	-11.1263
pomínají	-11.129
atřicet	-11.1313
hraniční	-11.1334
oučástí	-11.1369
dpověď	-11.1389
▁kilometr	-11.1395
▁strojírensk	-11.1434
▁Afriky	-11.1434
▁Ameriky	-11.1434
▁Bohužel	-11.1434
▁Ladislav	-11.1434
▁Nedávn	-11.1434
▁SCSI	-11.1434
▁devatenáct	-11.1434
▁energii	-11.1434
▁gymnázi	-11.1434
▁instituce	-11.1434
▁konkrétně	-11.1434
▁nizozemsk	-11.1434
▁plzeňsk	-11.1434
▁upozorněn	-11.1434
▁Účast	-11.1434
▁čtvrtfinále	-11.1434
▁Plzni	-11.1434
▁Telecom	-11.1434
▁investování	-11.1434
▁nejvýznamnější	-11.1434
▁nejúspěšnější	-11.1434
▁rámeček	-11.1434
▁výrobek	-11.1434
▁čtvereční	-11.1434
▁přirozené	-11.1434
▁nalézt	-11.1434
▁podpořil	-11.1434
▁hloubk	-11.1434
▁hudby	-11.1434
pouštějí	-11.1434
▁bosenský	-11.1434
▁kapitán	-11.1434
▁ohrožuj	-11.1434
▁Policisté	-11.1434
▁garant	-11.1434
▁požadují	-11.1434
▁předčasn	-11.1434
▁lokální	-11.1434
▁ztráce	-11.1434
▁chránit	-11.1435
▁mládí	-11.1435
▁koncepci	-11.1435
▁pobočk	-11.1435
▁názvu	-11.1435
▁trzích	-11.1435
▁David	-11.1435
▁schránk	-11.1435
▁Včera	-11.1435
▁Všeobecn	-11.1435
máhají	-11.1435
▁klasifik	-11.1435
▁okénk	-11.1436
▁umělecký	-11.1436
▁odstavce	-11.1436
▁pouhé	-11.1436
▁léčebn	-11.1436
▁použil	-11.1437
▁dražb	-11.1437
▁vybrané	-11.1439
ight	-11.1442
najdeme	-11.1443
▁věnovan	-11.1445
▁sklon	-11.1452
▁Britsk	-11.1456
▁opravdov	-11.1479
▁navazuj	-11.1496
▁Japon	-11.1496
'	-11.155
▁nadšen	-11.1572
▁listopad	-11.1643
▁relac	-11.1646
stihnout	-11.1715
▁kvalifikovan	-11.174
▁zkušen	-11.1765
ifikace	-11.1777
reprezenta	-11.1785
jíždějí	-11.1791
ntelektuál	-11.1791
▁Alexandr	-11.1791
▁Barceloně	-11.1791
▁Bohemia	-11.1791
▁Británii	-11.1791
▁Bělehrad	-11.1791
▁IFOR	-11.1791
▁Portugalsk	-11.1791
▁honorář	-11.1791
▁muslimsk	-11.1791
▁následek	-11.1791
▁podmínkou	-11.1791
▁publikován	-11.1791
▁tlačítka	-11.1791
▁tlačítkem	-11.1791
▁umožnit	-11.1791
▁úsměv	-11.1791
palestinsk	-11.1791
▁Nejlepší	-11.1791
▁Organiza	-11.1791
▁chorvatské	-11.1791
▁cigaret	-11.1791
▁instalaci	-11.1791
▁multimediální	-11.1791
▁požádat	-11.1791
▁týdně	-11.1791
▁1987	-11.1791
▁azbest	-11.1791
▁populární	-11.1791
▁pravidlo	-11.1791
▁březnu	-11.1791
▁fázi	-11.1791
▁1996	-11.1791
▁normy	-11.1791
▁pomáhá	-11.1791
nápověd	-11.1791
▁bazén	-11.1791
▁naléhav	-11.1792
▁obdiv	-11.1792
▁vrstvy	-11.1792
▁déšť	-11.1792
▁zklamán	-11.1792
▁kratší	-11.1792
▁pololetí	-11.1792
▁příslušníci	-11.1792
▁Smlouv	-11.1792
▁chalup	-11.1792
▁ploše	-11.1792
▁těžce	-11.1792
▁vyplácen	-11.1792
spěje	-11.1792
▁Srbsk	-11.1792
▁Věřím	-11.1792
▁provozovatel	-11.1792
▁Soubor	-11.1792
▁doposud	-11.1792
▁kanadsk	-11.1792
▁ukáže	-11.1792
▁Robert	-11.1792
▁zajímat	-11.1792
▁divize	-11.1792
▁norma	-11.1792
▁někoho	-11.1793
▁komisi	-11.1793
▁Závěr	-11.1794
▁ocitl	-11.1794
certifik	-11.1794
psaný	-11.1798
▁nedokáž	-11.1798
▁zeleni	-11.1803
▁nutný	-11.1803
▁debat	-11.1807
▁historik	-11.1808
▁poledn	-11.1829
▁poukaz	-11.1896
▁vánoc	-11.1926
▁masov	-11.1933
cestoval	-11.1986
yplývá	-11.2071
▁Správ	-11.2089
▁Společn	-11.2108
▁vyšetřova	-11.216
▁Nizozem	-11.2162
Severoatlantické	-11.2162
▁Chomutov	-11.2162
▁Původně	-11.2162
▁Zvláštní	-11.2162
▁akcionářů	-11.2162
▁galerie	-11.2162
▁náboženství	-11.2162
▁ovlivňuje	-11.2162
▁priorit	-11.2162
▁prosazovat	-11.2162
▁Ukrajiny	-11.2162
▁církví	-11.2162
▁deficit	-11.2162
▁nedaleko	-11.2162
▁orchestr	-11.2162
▁ovladač	-11.2162
▁potrestán	-11.2162
▁produktivit	-11.2162
▁páteční	-11.2162
▁srdeční	-11.2162
▁upozorňuje	-11.2162
▁zpracováva	-11.2162
▁specifik	-11.2162
▁1997	-11.2162
▁IBM	-11.2162
▁hřiště	-11.2162
▁obsluh	-11.2162
▁sledování	-11.2162
▁Koaliční	-11.2162
▁posádk	-11.2162
▁naznačil	-11.2162
▁nepřátel	-11.2162
▁šetření	-11.2162
▁Tureck	-11.2162
▁určuje	-11.2162
▁oxidu	-11.2162
▁bronz	-11.2162
▁držitel	-11.2162
▁vrstev	-11.2162
▁burze	-11.2162
▁dveří	-11.2162
▁enzym	-11.2162
▁podnicích	-11.2162
▁středoevropsk	-11.2162
▁příznak	-11.2162
▁usilovat	-11.2162
▁patrné	-11.2162
▁příslušníků	-11.2162
▁Tchaj	-11.2162
▁vzrůst	-11.2162
▁podporou	-11.2162
▁proslul	-11.2162
▁Formát	-11.2162
připravovan	-11.2162
▁sdělovací	-11.2162
▁potíží	-11.2162
▁pronájem	-11.2162
▁Trans	-11.2162
▁fáze	-11.2162
▁kritické	-11.2163
▁Word	-11.2164
▁královn	-11.2164
▁lyžař	-11.2164
▁Situac	-11.2165
▁modifik	-11.2166
▁dlouhodobě	-11.2166
hodlají	-11.2167
krývají	-11.2171
▁těžb	-11.2175
▁nevhodn	-11.2177
cházelo	-11.2195
▁vážný	-11.2195
▁nízko	-11.2201
jmenovaný	-11.223
▁jádro	-11.2254
hodinové	-11.2271
bíhají	-11.2292
▁totožn	-11.2318
nechává	-11.2341
▁centrál	-11.238
▁nejedn	-11.2393
▁vysoko	-11.2398
▁doplněn	-11.254
prezentuje	-11.2546
radioaktivní	-11.2546
▁Rakušan	-11.2546
▁Republik	-11.2546
▁dodatečně	-11.2546
▁důležitá	-11.2546
▁fotoaparát	-11.2546
▁inspekce	-11.2546
▁majetkem	-11.2546
▁oznámení	-11.2546
▁pohledávek	-11.2546
▁redakce	-11.2546
▁upozornit	-11.2546
▁vyšetření	-11.2546
▁Sovětský	-11.2546
▁Vedoucí	-11.2546
▁Výzkum	-11.2546
▁franků	-11.2546
▁instalace	-11.2546
▁nezměnil	-11.2546
▁1968	-11.2546
▁1984	-11.2546
▁Bejbl	-11.2546
▁Nejdřív	-11.2546
▁Thajsk	-11.2546
▁května	-11.2546
▁DPH	-11.2546
▁Temelín	-11.2546
▁zoufal	-11.2546
▁Průměrn	-11.2546
▁nejmenší	-11.2546
▁hrubého	-11.2546
▁zakladatel	-11.2547
▁konstrukce	-11.2547
▁stupňů	-11.2547
▁period	-11.2547
▁certifikát	-11.2547
▁pojmů	-11.2547
tvrzují	-11.2547
▁vyvinul	-11.2547
▁zkratk	-11.2547
▁stovek	-11.2547
▁dvojnásobn	-11.2547
▁ordinac	-11.2547
▁audio	-11.2547
▁sehrál	-11.2548
▁vojsk	-11.2548
▁zkoumá	-11.2549
▁pružn	-11.2549
▁Asociac	-11.2549
▁kuponov	-11.255
▁uváděn	-11.255
▁vyroben	-11.2551
▁sněhov	-11.2553
▁vázán	-11.2553
▁Plán	-11.2555
▁zatížen	-11.2563
pravicov	-11.2567
vesel	-11.257
vyšších	-11.2591
▁pozván	-11.2692
▁vystupuj	-11.2749
▁hydro	-11.2752
▁charakterizova	-11.2756
▁olympijsk	-11.2763
svědčení	-11.2864
▁rozhodnut	-11.2865
přát	-11.2942
▁náležit	-11.2946
▁EuroTel	-11.2946
▁Kalvoda	-11.2946
▁Okresní	-11.2946
▁Sociální	-11.2946
▁brambor	-11.2946
▁energetik	-11.2946
▁firmám	-11.2946
▁hovořit	-11.2946
▁kalendář	-11.2946
▁komponent	-11.2946
▁nejrychlejší	-11.2946
▁nežádoucí	-11.2946
▁ovlivňují	-11.2946
▁posuzovat	-11.2946
▁redaktor	-11.2946
▁rejstříku	-11.2946
▁zdokonal	-11.2946
▁Českomoravsk	-11.2946
zanedbateln	-11.2946
▁celostátní	-11.2946
▁domnívají	-11.2946
▁naštěstí	-11.2946
▁označuje	-11.2946
▁pracovnice	-11.2946
▁publiku	-11.2946
▁převzít	-11.2946
▁velkoobchod	-11.2946
▁spoluhráč	-11.2946
▁zázemí	-11.2946
glaciál	-11.2946
▁Domácí	-11.2946
▁připomínk	-11.2946
▁radikální	-11.2946
▁vyhlídk	-11.2946
▁dubnu	-11.2946
▁Poborský	-11.2947
▁souhrn	-11.2947
▁Druhou	-11.2947
▁uplatnit	-11.2947
▁vyžadují	-11.2947
▁přál	-11.2947
▁odlišný	-11.2947
▁efektivní	-11.2947
▁kamarád	-11.2947
▁začínal	-11.2947
▁zásilk	-11.2947
▁viditeln	-11.2947
▁záloh	-11.2947
▁Označ	-11.2947
▁Musel	-11.2947
▁nestačil	-11.2947
▁fungují	-11.2947
▁invalid	-11.2947
▁samospráv	-11.2948
▁dlouhodobý	-11.2949
lepnutím	-11.2949
▁odehráv	-11.295
▁škál	-11.2953
▁Objekt	-11.2954
▁viděn	-11.3079
atřicetilet	-11.309
psychologick	-11.3123
vládne	-11.3193
▁předcházel	-11.3326
členné	-11.3329
oprvé	-11.3363
▁psychiatr	-11.3363
▁CADKON	-11.3363
▁Intergraph	-11.3363
▁Lebeď	-11.3363
▁Nejčastěj	-11.3363
▁Pithart	-11.3363
▁Zjuganov	-11.3363
▁bližší	-11.3363
▁církvi	-11.3363
▁diagram	-11.3363
▁fenomén	-11.3363
▁hektar	-11.3363
▁konferencí	-11.3363
▁navrhnout	-11.3363
▁nepřetržit	-11.3363
▁nábytku	-11.3363
▁odmítají	-11.3363
▁odpovědí	-11.3363
▁reagovat	-11.3363
▁softwaru	-11.3363
▁strategii	-11.3363
▁technologii	-11.3363
▁triumf	-11.3363
▁ukazatel	-11.3363
▁vytvářejí	-11.3363
▁zpoždění	-11.3363
▁živočichů	-11.3363
▁žádoucí	-11.3363
rehabilit	-11.3363
▁Alžbět	-11.3363
▁Finanční	-11.3363
▁altruismu	-11.3363
▁dědictví	-11.3363
▁komunální	-11.3363
▁leasing	-11.3363
▁lázeňsk	-11.3363
▁neschopnost	-11.3363
▁ovlivněn	-11.3363
▁schůzi	-11.3363
▁uzavírá	-11.3363
▁zpátky	-11.3363
▁zálivu	-11.3363
▁zůstanou	-11.3363
mýšlí	-11.3363
▁Následuj	-11.3363
▁atentát	-11.3363
▁otevírá	-11.3363
▁Srbů	-11.3363
▁Vídni	-11.3363
▁asistent	-11.3363
▁nejstarší	-11.3363
▁jazz	-11.3363
▁public	-11.3363
▁nárůst	-11.3363
▁říjnu	-11.3363
▁květin	-11.3363
▁nezaměstnaných	-11.3363
▁dovednost	-11.3363
▁vyvinut	-11.3363
▁Bratink	-11.3363
▁Mencl	-11.3363
▁Praktick	-11.3363
▁zpomal	-11.3364
štejn	-11.3364
▁vyznačuj	-11.3364
sazování	-11.3364
▁mřížk	-11.3364
zajišťují	-11.3364
následuj	-11.3365
▁Andre	-11.3365
▁rozsáhlý	-11.3366
▁přednášk	-11.3366
podivu	-11.3366
▁zazněl	-11.3367
▁zahrnut	-11.3368
▁náprav	-11.3368
▁Nabídk	-11.3368
přijeli	-11.3377
▁Technick	-11.338
charakterizuj	-11.3445
schválila	-11.3596
▁včerejš	-11.3648
▁královsk	-11.3776
▁individu	-11.3794
▁Bratislava	-11.3798
▁Casimir	-11.3798
▁Demokratick	-11.3798
▁Jindřich	-11.3798
▁Tigrid	-11.3798
▁dodržování	-11.3798
▁galerii	-11.3798
▁hlubší	-11.3798
▁hypotéz	-11.3798
▁kompetence	-11.3798
▁konstatuje	-11.3798
▁metropole	-11.3798
▁nejhorší	-11.3798
▁nejmodernější	-11.3798
▁nejznámější	-11.3798
▁nominální	-11.3798
▁otevřít	-11.3798
▁podpořit	-11.3798
▁požadovat	-11.3798
▁prohlídk	-11.3798
▁představenstva	-11.3798
▁přitažliv	-11.3798
▁semifinále	-11.3798
▁strategií	-11.3798
▁udržuje	-11.3798
▁vojáci	-11.3798
▁výsledn	-11.3798
▁wimbledonsk	-11.3798
▁zveřejnil	-11.3798
▁šablon	-11.3798
▁cizince	-11.3798
▁identifik	-11.3798
▁mikroorganism	-11.3798
▁vydavatel	-11.3798
▁zúčastněn	-11.3798
▁Počítač	-11.3798
▁generací	-11.3798
▁literární	-11.3798
▁požadoval	-11.3798
▁reaktor	-11.3798
▁Africe	-11.3798
▁NDR	-11.3798
▁Nedvěd	-11.3798
▁charakteristik	-11.3798
▁polojasno	-11.3798
▁žadatel	-11.3798
▁byznys	-11.3798
▁složek	-11.3798
▁strávil	-11.3798
dostatečnou	-11.3798
▁Ostatní	-11.3798
▁doporučil	-11.3798
▁údolí	-11.3798
▁kodex	-11.3798
▁stránky	-11.3798
▁Majitel	-11.3798
▁vyhovuje	-11.3798
▁Podstatn	-11.3798
▁nátlak	-11.3798
▁vystřídal	-11.3798
střílel	-11.3798
▁patřičn	-11.3798
▁rytíř	-11.3798
▁logické	-11.3798
▁nízký	-11.3798
▁Městsk	-11.3798
▁počínaj	-11.3799
▁informovan	-11.3799
▁Rychl	-11.38
▁Komerčn	-11.38
▁rakouský	-11.3801
▁zaručen	-11.3802
▁korekc	-11.3802
▁Uveden	-11.382
pochyby	-11.3851
▁optick	-11.3977
▁průběžn	-11.4082
▁převážn	-11.4216
▁Budějovic	-11.4252
▁byrokrat	-11.4252
FIFA	-11.4252
▁Bulharsk	-11.4252
▁Dienstbier	-11.4252
▁Dosavadní	-11.4252
▁Fischer	-11.4252
▁Manažer	-11.4252
▁Návštěv	-11.4252
▁Siemens	-11.4252
▁Skupina	-11.4252
▁Těžko	-11.4252
▁algoritm	-11.4252
▁biskup	-11.4252
▁chirurg	-11.4252
▁družstvo	-11.4252
▁družstvu	-11.4252
▁geometrii	-11.4252
▁inflaci	-11.4252
▁naznačuje	-11.4252
▁normálně	-11.4252
▁organizáto	-11.4252
▁označován	-11.4252
▁regenerace	-11.4252
▁rekonstrukce	-11.4252
▁rozšiřuje	-11.4252
▁rámečku	-11.4252
▁seznámit	-11.4252
▁skupenství	-11.4252
▁službě	-11.4252
▁strategické	-11.4252
▁transformační	-11.4252
▁tribunál	-11.4252
▁vyhodnocen	-11.4252
▁zúčastnit	-11.4252
▁Štědrý	-11.4252
▁Kongres	-11.4252
▁neuspěl	-11.4252
▁design	-11.4252
▁velvyslanectví	-11.4252
▁zajistí	-11.4252
▁1982	-11.4252
▁obličej	-11.4252
▁přiznává	-11.4252
▁disponuj	-11.4252
▁zákrok	-11.4252
▁čistíren	-11.4252
▁shodují	-11.4252
▁výživ	-11.4253
▁Červen	-11.4253
následoval	-11.4253
▁neomezen	-11.4253
▁vládnoucí	-11.4253
připravoval	-11.4253
▁posuzován	-11.4253
▁Dušan	-11.4253
▁Armád	-11.4253
▁nezákonn	-11.4253
▁konstrukcí	-11.4253
▁informován	-11.4253
zřetelně	-11.4253
▁udržova	-11.4253
▁zastánc	-11.4253
▁Otevř	-11.4253
▁skromn	-11.4253
▁Projekt	-11.4255
▁rozmístěn	-11.4257
▁brněnsk	-11.4309
Přerov	-11.4327
▁bojovn	-11.4331
kurzor	-11.4403
▁zatčen	-11.4415
▁Nemoh	-11.4447
schopné	-11.458
▁Blízké	-11.4729
▁Ekonomick	-11.4729
▁William	-11.4729
▁aplikaci	-11.4729
▁důležitou	-11.4729
▁filharmoni	-11.4729
▁kanalizace	-11.4729
▁kariéru	-11.4729
▁konkurent	-11.4729
▁ovlivnit	-11.4729
▁podmínkám	-11.4729
▁popularit	-11.4729
▁předpokládal	-11.4729
▁přirozeně	-11.4729
▁referenda	-11.4729
▁ubytovací	-11.4729
▁vyráběn	-11.4729
▁výpovědi	-11.4729
▁zneužití	-11.4729
▁Gabčíkov	-11.4729
▁Kreslení	-11.4729
▁Předpokládá	-11.4729
▁neexistují	-11.4729
▁paralel	-11.4729
▁zázrak	-11.4729
▁kontrakt	-11.4729
▁snižovat	-11.4729
▁svědky	-11.4729
▁vynález	-11.4729
▁nepřítel	-11.4729
▁definovan	-11.4729
▁lehké	-11.4729
▁komunistů	-11.4729
▁pomůck	-11.4729
▁Michail	-11.4729
▁fosilní	-11.4729
▁rubrik	-11.4729
(	-12.8065
<	-12.9873
