<unk>	0
<s>	0
</s>	0
<doc>	0
</doc>	0
<head>	0
</head>	0
<phr>	0
</phr>	0
▁	-1.73123
,	-3.29395
.	-3.44172
▁a	-4.36257
▁v	-4.43405
▁se	-4.53439
a	-4.57061
▁na	-4.65518
m	-4.8015
u	-4.80848
ch	-4.93976
i	-4.95659
y	-4.9729
▁je	-5.05864
ho	-5.22195
▁"	-5.24529
▁že	-5.3126
▁z	-5.31363
▁s	-5.33247
e	-5.5275
á	-5.57031
▁o	-5.57942
▁do	-5.58351
o	-5.59318
ou	-5.61
í	-5.77051
▁pro	-5.77461
em	-5.81862
é	-5.82104
▁za	-5.82259
▁-	-5.82609
s	-5.84296
ě	-5.84888
▁po	-5.94737
▁k	-5.94819
▁to	-6.01839
▁(	-6.04542
▁ve	-6.05272
▁V	-6.06124
▁i	-6.06863
t	-6.07955
to	-6.08474
▁by	-6.14406
ů	-6.14935
ž	-6.18654
mi	-6.24651
▁ale	-6.24669
>	-6.26089
▁si	-6.33411
ý	-6.34596
▁od	-6.42356
▁jsou	-6.43631
▁jako	-6.46666
▁které	-6.48782
▁při	-6.51463
ých	-6.55456
▁však	-6.566
)	-6.57817
▁:	-6.59476
ní	-6.61482
▁tak	-6.62841
▁který	-6.68201
▁ne	-6.68716
▁nebo	-6.76472
▁jeho	-6.77387
▁bude	-6.78474
me	-6.80506
?	-6.80643
▁S	-6.82409
x	-6.83394
▁jen	-6.84169
z	-6.87619
l	-6.90498
te	-6.91265
▁Po	-6.91929
▁než	-6.9237
▁A	-6.92578
▁má	-6.9385
▁před	-6.97908
ně	-6.98512
▁už	-6.99419
▁Na	-6.99705
▁aby	-7.0066
ce	-7.01618
v	-7.01926
▁byl	-7.02485
p	-7.03602
▁jejich	-7.04449
▁jak	-7.05307
▁jsem	-7.05775
▁být	-7.06009
▁až	-7.06444
▁která	-7.1058
▁také	-7.11125
d	-7.12418
▁vy	-7.12559
ka	-7.13001
mu	-7.13234
▁jsme	-7.14452
k	-7.14956
▁<	-7.15592
▁podle	-7.15798
▁Z	-7.1689
▁Je	-7.17646
▁ze	-7.17732
ého	-7.21261
r	-7.23799
ové	-7.2391
▁co	-7.27333
▁není	-7.27653
▁mezi	-7.30155
▁bylo	-7.31206
▁O	-7.31512
▁či	-7.32554
▁ani	-7.32868
▁ještě	-7.33809
▁své	-7.34019
▁již	-7.35489
▁když	-7.3589
li	-7.36167
▁může	-7.36745
▁P	-7.3788
▁byla	-7.38838
ky	-7.39283
na	-7.39833
▁let	-7.40286
▁toho	-7.41126
▁K	-7.41578
ech	-7.4161
kud	-7.42775
▁korun	-7.43034
/	-7.44407
la	-7.46598
ná	-7.47367
ci	-7.4781
č	-7.48315
▁pak	-7.49169
).	-7.50086
▁další	-7.50817
ku	-7.50888
▁kteří	-7.51558
že	-7.51976
▁tím	-7.5198
ek	-7.52489
né	-7.52703
ým	-7.53093
▁té	-7.5406
▁kde	-7.54186
▁více	-7.56373
▁To	-7.5725
▁roku	-7.57978
▁první	-7.5808
▁tedy	-7.58297
b	-7.59955
▁bez	-7.61319
▁nich	-7.62684
cí	-7.6365
▁pod	-7.65811
n	-7.66517
),	-7.66841
ová	-7.66974
▁mají	-7.67197
ovat	-7.68409
▁tu	-7.69829
it	-7.70691
j	-7.70995
▁roce	-7.72208
š	-7.72267
▁pouze	-7.72492
▁musí	-7.72865
uje	-7.72924
▁tom	-7.73638
-	-7.73696
▁kdy	-7.74379
▁Ne	-7.74834
▁tomu	-7.75667
▁li	-7.76859
▁ke	-7.77339
▁Za	-7.77379
▁proto	-7.77915
lo	-7.78763
▁budou	-7.795
▁pře	-7.79523
▁I	-7.79991
▁třeba	-7.80822
▁protože	-7.81623
le	-7.82008
▁totiž	-7.82361
▁proti	-7.82554
nou	-7.82948
ách	-7.83771
▁nás	-7.84223
▁lze	-7.84864
▁M	-7.85272
c	-7.86863
▁nad	-7.87253
▁byly	-7.89211
▁D	-7.89257
st	-7.89318
▁měl	-7.89394
▁poslední	-7.898
▁velmi	-7.89825
▁asi	-7.89868
▁její	-7.90245
ň	-7.90294
ný	-7.90716
▁zatím	-7.90727
en	-7.90937
jí	-7.91509
▁U	-7.91874
▁řekl	-7.94089
ových	-7.94993
▁včera	-7.95111
▁ty	-7.95317
▁Pro	-7.95388
ování	-7.95631
ovi	-7.9567
ům	-7.95799
▁Podl	-7.96478
il	-7.96584
ze	-7.96955
ni	-7.97545
ost	-7.98558
al	-7.99636
▁dnes	-7.99771
h	-8.00456
▁firmy	-8.00513
▁přes	-8.01316
▁dva	-8.01664
▁J	-8.02203
▁především	-8.0286
▁Do	-8.03697
f	-8.03741
▁tisíc	-8.03991
▁vlastní	-8.0404
▁Při	-8.0524
▁případě	-8.05345
co	-8.05552
ské	-8.06172
▁'	-8.06235
▁roz	-8.06541
▁všech	-8.06852
in	-8.06936
▁například	-8.06989
▁rok	-8.0891
ne	-8.09404
▁H	-8.09483
▁době	-8.09911
▁nyní	-8.10167
ra	-8.10181
▁nám	-8.10637
▁mít	-8.10999
▁ji	-8.12611
cích	-8.13076
▁tři	-8.14477
no	-8.14654
ří	-8.14796
▁Ve	-8.14904
▁lidí	-8.15143
▁jim	-8.15175
▁společnosti	-8.15287
▁práce	-8.15562
▁mohou	-8.1579
ných	-8.16012
▁stále	-8.16504
▁těchto	-8.16771
▁zda	-8.16811
▁ovšem	-8.16905
▁všechny	-8.17221
ře	-8.17305
ři	-8.17401
▁jeden	-8.17768
▁dvou	-8.19502
▁několik	-8.19519
po	-8.19968
ují	-8.20003
▁procent	-8.21029
▁kterou	-8.21284
▁což	-8.21619
▁G	-8.22221
g	-8.22355
ta	-8.22416
...	-8.23612
▁něm	-8.23692
▁tento	-8.24053
▁možné	-8.26357
lu	-8.26658
▁České	-8.27402
kou	-8.27468
▁Ale	-8.27744
▁jde	-8.27767
▁T	-8.27841
▁Jak	-8.2815
▁dalších	-8.28409
právě	-8.29062
▁Co	-8.29193
cela	-8.29265
▁nové	-8.29308
ový	-8.30481
▁měla	-8.30727
▁ČR	-8.30925
▁Praze	-8.31702
▁jednání	-8.32061
pl	-8.32286
▁zejména	-8.32288
téměř	-8.32557
ovou	-8.32596
▁naše	-8.3265
▁Od	-8.32699
▁svou	-8.33188
at	-8.33952
vě	-8.34042
el	-8.34597
▁Proto	-8.34989
osti	-8.35044
ém	-8.35048
▁strany	-8.35193
ými	-8.35355
▁nej	-8.35449
on	-8.36517
vá	-8.36788
ř	-8.36832
▁prostředí	-8.37077
▁kdo	-8.37218
▁zařízení	-8.3741
je	-8.37446
ro	-8.37457
or	-8.37554
▁sice	-8.37734
▁letech	-8.37799
či	-8.37983
▁B	-8.38269
ly	-8.38489
▁Kdy	-8.38803
ru	-8.38897
▁základní	-8.39124
ny	-8.3915
▁svého	-8.39187
▁dvě	-8.40146
▁svých	-8.40217
▁větší	-8.40238
M	-8.40641
ko	-8.40968
▁možnost	-8.41091
▁nejen	-8.41348
▁R	-8.41965
▁jiné	-8.4224
ami	-8.42294
se	-8.42904
S	-8.43419
ti	-8.43473
▁naši	-8.43644
spo	-8.43654
ám	-8.43885
▁světa	-8.43913
▁tomto	-8.44413
▁místo	-8.44767
▁Tak	-8.45193
▁L	-8.46288
▁každý	-8.4637
ov	-8.46831
▁nic	-8.47319
▁000	-8.47558
▁C	-8.47614
▁část	-8.48168
▁druhé	-8.4818
▁milionů	-8.48183
T	-8.4834
▁zde	-8.48626
er	-8.48951
▁něco	-8.49412
▁vlády	-8.49464
če	-8.49623
▁svým	-8.49639
▁stát	-8.49646
▁mu	-8.49848
da	-8.5025
▁uvedl	-8.50504
ově	-8.50747
▁stejně	-8.51381
▁ceny	-8.52916
si	-8.53536
▁zákona	-8.53711
oval	-8.53749
▁kolem	-8.53915
▁systém	-8.54019
D	-8.54034
▁zboží	-8.5419
tu	-8.54241
▁N	-8.54586
▁tam	-8.54996
va	-8.55414
▁oblasti	-8.56009
▁země	-8.56332
▁10	-8.5644
us	-8.56476
▁dobře	-8.56555
▁2	-8.56753
▁příliš	-8.56809
▁patří	-8.56838
▁říká	-8.57272
▁%	-8.57477
▁dosud	-8.57511
▁svůj	-8.57525
A	-8.5754
▁některých	-8.57935
▁byli	-8.57977
▁práci	-8.58188
▁některé	-8.58383
▁zemí	-8.58548
▁vůbec	-8.59617
čí	-8.59736
ích	-8.59862
▁opět	-8.59901
děl	-8.60081
ská	-8.60137
lá	-8.60334
ující	-8.60884
▁1	-8.61014
ští	-8.61189
▁sociální	-8.61244
▁období	-8.61302
▁vždy	-8.61466
▁neboť	-8.62109
ného	-8.62436
nu	-8.62972
▁mě	-8.6329
▁finanční	-8.6365
R	-8.63665
▁několika	-8.63978
ového	-8.64152
K	-8.64652
▁jež	-8.64743
▁firma	-8.65038
▁ob	-8.65111
▁pracovní	-8.65419
▁nejsou	-8.65613
▁často	-8.66191
B	-8.66334
▁vyšší	-8.66356
▁systému	-8.66901
L	-8.67473
▁dokonce	-8.67838
an	-8.67932
lí	-8.68131
▁jste	-8.6822
▁Jan	-8.68413
tr	-8.68723
ty	-8.68785
▁USA	-8.68859
▁den	-8.68878
▁měli	-8.69091
▁3	-8.69199
▁sám	-8.69389
▁Js	-8.6978
▁Kč	-8.70034
ným	-8.70065
▁čas	-8.70154
▁lidé	-8.70509
▁ten	-8.70597
▁celé	-8.70609
tě	-8.70855
du	-8.71124
3	-8.71301
de	-8.71492
▁doby	-8.71552
▁střední	-8.71808
ví	-8.7183
během	-8.7191
▁níž	-8.72022
▁rovněž	-8.72057
ba	-8.72419
▁F	-8.72501
▁trhu	-8.72669
▁informace	-8.72839
kem	-8.73093
ry	-8.73241
nost	-8.73261
▁nimi	-8.73506
▁přímo	-8.7363
▁společnost	-8.7375
▁počet	-8.73784
ri	-8.73882
vůli	-8.74067
▁5	-8.74315
včetně	-8.74431
ský	-8.74818
▁situace	-8.74831
▁části	-8.74865
▁takže	-8.74889
▁hodin	-8.75203
ského	-8.75402
ním	-8.75455
▁zahraničí	-8.75639
▁státní	-8.75717
▁Ty	-8.75825
zřejmě	-8.75871
ť	-8.75907
hl	-8.75941
kr	-8.75994
▁zákon	-8.76027
ma	-8.76228
▁pět	-8.76483
▁nebude	-8.76681
re	-8.76777
ků	-8.76796
▁mohl	-8.77256
tato	-8.77484
▁sebe	-8.77664
▁méně	-8.78047
by	-8.78192
▁vše	-8.78341
▁ministr	-8.78344
▁např	-8.78465
▁Evropy	-8.7852
▁peníze	-8.78526
V	-8.78601
C	-8.78799
ím	-8.7927
ší	-8.79358
▁Zatím	-8.79372
▁víc	-8.79382
▁jednotlivý	-8.79492
I	-8.79509
▁něj	-8.79786
▁znamená	-8.79834
2	-8.79854
▁chce	-8.79902
▁vám	-8.80003
ských	-8.80228
▁Vy	-8.80273
▁způsobem	-8.80404
P	-8.80484
od	-8.8062
▁takové	-8.80657
▁ředitel	-8.81204
▁spíše	-8.81324
ha	-8.81327
▁republiky	-8.81351
ji	-8.81734
ec	-8.81811
▁nemá	-8.81897
4	-8.82055
▁čtyři	-8.82057
▁velký	-8.8206
▁dále	-8.82445
▁dobu	-8.82624
▁navíc	-8.82785
▁přitom	-8.82811
▁První	-8.8343
▁půl	-8.83476
▁české	-8.83525
▁obchodní	-8.83531
▁vlastně	-8.83674
▁problémy	-8.83773
▁jednoho	-8.841
▁prezident	-8.84397
▁naopak	-8.84544
▁snad	-8.85282
▁řízení	-8.85827
ních	-8.86202
et	-8.86207
▁zájem	-8.86616
▁města	-8.86651
▁letošní	-8.86699
▁skutečně	-8.86831
vol	-8.86908
1	-8.86992
ova	-8.87296
vý	-8.87299
▁straně	-8.87455
tá	-8.87518
▁největší	-8.87597
▁znovu	-8.87747
▁mnoho	-8.87764
▁vláda	-8.87958
N	-8.87979
▁zahraniční	-8.87995
▁většinou	-8.88043
▁životní	-8.88198
▁zhruba	-8.88214
▁jej	-8.88411
▁platí	-8.88432
ení	-8.88942
▁řešení	-8.89007
▁současné	-8.8907
▁20	-8.89307
za	-8.89452
▁nepo	-8.8994
▁území	-8.90012
▁program	-8.90201
▁jiných	-8.90435
▁Jiří	-8.90481
is	-8.90551
dr	-8.90598
▁mimo	-8.9097
▁nelze	-8.90986
▁celý	-8.91235
▁člověk	-8.91478
▁velké	-8.91599
▁bych	-8.91695
▁de	-8.91881
▁začal	-8.92047
tí	-8.92138
▁1992	-8.92348
▁letos	-8.92442
hr	-8.92471
▁tří	-8.92626
▁smlouvy	-8.92862
▁tzv	-8.92876
▁dolarů	-8.92887
▁rozhodnutí	-8.93001
tra	-8.93282
ve	-8.93585
ají	-8.93586
▁zase	-8.93793
ův	-8.9384
▁jedné	-8.94054
ši	-8.94078
▁život	-8.94351
▁Petr	-8.94793
▁lepší	-8.94809
▁pomocí	-8.94889
▁množství	-8.95105
▁činnosti	-8.95458
▁rozdíl	-8.95557
U	-8.95637
ká	-8.95859
▁šest	-8.95966
▁naší	-8.96606
nější	-8.96615
▁Přesto	-8.9688
▁vás	-8.96988
▁roky	-8.97006
ar	-8.97035
▁světě	-8.97576
▁různých	-8.97815
▁jednou	-8.9783
lou	-8.97882
▁pan	-8.97925
ste	-8.97997
Á	-8.97998
▁hlavní	-8.9818
ob	-8.98312
▁státu	-8.98613
w	-8.9865
▁později	-8.98697
▁sto	-8.98751
vi	-8.98926
▁můžete	-8.99332
▁Před	-8.99427
▁programu	-8.99717
▁ČSFR	-8.99847
▁vedení	-8.99872
▁dost	-8.99909
▁Š	-8.99937
▁svět	-8.99954
še	-9.00258
▁1.	-9.00425
▁člověka	-9.00451
Z	-9.00551
▁E	-9.00666
▁Evropě	-9.00886
▁podniku	-9.00962
bu	-9.01088
▁skupiny	-9.01234
▁století	-9.01415
▁bývalé	-9.01545
lé	-9.01787
▁věci	-9.01821
▁služby	-9.01936
▁moc	-9.02082
▁Václav	-9.02136
ili	-9.02255
▁málo	-9.02266
▁deset	-9.02269
▁dlouho	-9.02276
▁spolu	-9.02608
▁domácí	-9.02612
▁nevy	-9.02612
▁jinak	-9.03
▁činnost	-9.03052
▁prý	-9.03057
E	-9.03071
▁mělo	-9.03159
▁r	-9.036
let	-9.03625
os	-9.03697
▁zároveň	-9.03708
▁obou	-9.03855
▁situaci	-9.0407
vr	-9.04284
val	-9.04396
▁dnešní	-9.04611
▁prohlásil	-9.04661
ila	-9.0473
▁trh	-9.04749
ců	-9.05056
▁snímku	-9.05158
▁náklady	-9.05244
▁možná	-9.05685
▁přesto	-9.05794
▁návrh	-9.0593
▁problém	-9.06091
▁nových	-9.06176
▁místní	-9.06227
▁prvním	-9.06263
▁cenu	-9.06405
▁nemůže	-9.06598
▁stojí	-9.06673
ické	-9.06774
▁měly	-9.0689
▁máme	-9.06938
5	-9.06983
▁tvrdí	-9.07007
▁mohli	-9.07186
▁děti	-9.07358
▁1993	-9.07358
▁jaké	-9.07433
ovali	-9.07707
▁firem	-9.07835
ol	-9.08095
▁jedna	-9.08096
▁získat	-9.08478
▁Praha	-9.08478
▁Ko	-9.08588
9	-9.08665
▁toto	-9.09114
▁států	-9.09141
▁pěti	-9.09359
▁těch	-9.09573
▁majetku	-9.09611
▁Byl	-9.09665
▁nakonec	-9.09669
▁CD	-9.0972
▁všechno	-9.09777
ží	-9.09893
▁funkce	-9.09975
▁jedno	-9.10103
▁nikdy	-9.10184
▁W	-9.10762
▁výši	-9.10962
▁podniků	-9.11179
▁svém	-9.11261
▁lety	-9.11263
ing	-9.11544
pa	-9.11632
▁konce	-9.11685
▁100	-9.11725
▁4	-9.11734
▁30	-9.11822
▁právní	-9.11898
▁proč	-9.11942
0	-9.12191
▁místě	-9.12262
▁Má	-9.12394
▁vody	-9.1243
pe	-9.12503
▁americké	-9.12638
▁možnosti	-9.12764
ější	-9.12801
▁třetí	-9.13093
▁nového	-9.13222
ační	-9.13235
▁stavu	-9.13422
▁dříve	-9.13444
▁Prahy	-9.13681
ční	-9.13712
▁dobré	-9.13718
▁sobotu	-9.13733
6	-9.13837
▁Ta	-9.13969
▁nutné	-9.14277
▁kdyby	-9.1434
ální	-9.14375
00	-9.1448
▁nebyl	-9.14504
▁mezinárodní	-9.14635
pra	-9.14834
▁15	-9.15271
dí	-9.15282
▁parlamentu	-9.15341
▁osob	-9.15642
▁bychom	-9.15815
▁přece	-9.15837
op	-9.15904
▁předseda	-9.1593
▁Tento	-9.16299
▁zemi	-9.16319
▁soud	-9.16419
▁pohled	-9.16681
▁ministerstva	-9.16694
▁týden	-9.16819
ur	-9.16821
▁Tato	-9.17548
str	-9.17612
▁stav	-9.17667
▁postup	-9.17803
▁Není	-9.17899
▁informací	-9.17924
▁všichni	-9.17924
▁policie	-9.17924
▁organizace	-9.17925
▁jedn	-9.17938
▁poté	-9.18094
▁prostor	-9.18242
▁Další	-9.18249
▁samozřejmě	-9.18296
dy	-9.18351
▁rychle	-9.18521
▁nikdo	-9.18547
▁můžeme	-9.18634
▁malé	-9.18827
▁nový	-9.19133
ované	-9.19171
▁Ten	-9.19174
▁hlavně	-9.19175
man	-9.1942
▁já	-9.19574
▁českých	-9.19599
O	-9.19734
pr	-9.19741
▁Kromě	-9.198
▁poměrně	-9.19926
nebo	-9.19973
▁prezidenta	-9.19999
▁věcí	-9.20039
▁něho	-9.2004
▁obě	-9.2024
ace	-9.20289
▁způsob	-9.20395
▁sdružení	-9.20449
trochu	-9.20451
▁dvěma	-9.20483
dl	-9.20588
▁vedoucí	-9.2108
▁pár	-9.21124
▁Jana	-9.21542
▁SSSR	-9.2171
▁sobě	-9.21713
▁50	-9.21798
▁Se	-9.21968
bychom	-9.22118
▁vliv	-9.22191
jich	-9.22242
▁stran	-9.22322
▁Mezi	-9.2236
▁prohlášení	-9.22367
▁jí	-9.22656
▁Jako	-9.22981
▁podmínky	-9.23005
▁komise	-9.23005
▁Jestli	-9.23005
▁někdy	-9.23007
▁nez	-9.23363
▁200	-9.23577
▁základě	-9.23791
lit	-9.23795
▁večer	-9.23823
▁Evropské	-9.24241
▁potom	-9.24303
▁výroby	-9.2436
▁zemích	-9.24397
ovým	-9.24491
▁došlo	-9.24594
▁neu	-9.24658
▁6	-9.24716
▁kromě	-9.24929
▁čím	-9.24957
▁většina	-9.24979
dním	-9.25355
br	-9.25554
▁premiér	-9.25666
▁místa	-9.258
▁ostatní	-9.2595
▁určité	-9.26152
mohlo	-9.2618
▁hned	-9.26321
ad	-9.26492
▁nejlepší	-9.26526
▁dál	-9.26616
ter	-9.26932
▁peněz	-9.26992
▁výrazně	-9.27058
▁života	-9.27153
zn	-9.27423
ice	-9.2766
▁tehdy	-9.27672
▁rozpočtu	-9.27676
▁podíl	-9.2774
▁miliard	-9.27844
▁hry	-9.27855
▁druhý	-9.28251
▁mnoha	-9.28348
▁vysoké	-9.28357
▁východní	-9.28512
▁jich	-9.28528
▁tvoří	-9.28552
▁jistě	-9.28587
▁cena	-9.28643
nosti	-9.28896
▁osm	-9.28919
▁vývoj	-9.28988
8	-9.28997
▁teď	-9.29054
▁vítězství	-9.29092
aci	-9.29125
stav	-9.2916
jší	-9.29252
▁milionu	-9.29277
▁nebylo	-9.29497
mat	-9.29592
▁prosince	-9.29741
▁prostředky	-9.29743
▁poprvé	-9.29744
es	-9.29874
ven	-9.29883
▁dne	-9.29916
▁čtyř	-9.29949
fi	-9.29965
▁unie	-9.30443
▁času	-9.30515
▁názor	-9.30577
▁Ro	-9.30601
▁stejné	-9.30648
▁přístup	-9.30734
▁spolupráci	-9.31145
▁výsledky	-9.31158
▁teprve	-9.31171
▁opatření	-9.31178
▁Re	-9.31282
▁jenž	-9.31387
▁nějak	-9.31392
ací	-9.3182
▁dodal	-9.31916
rt	-9.32069
▁žádné	-9.32102
ck	-9.32379
ému	-9.32485
▁prakticky	-9.32613
▁vnitřní	-9.32702
▁politické	-9.32865
▁40	-9.32951
há	-9.3318
▁podnik	-9.33267
▁hlediska	-9.33288
▁prostřednictví	-9.33288
▁akce	-9.33312
hle	-9.33314
▁mnoh	-9.33316
▁stal	-9.33324
▁utkání	-9.33339
▁zdravotní	-9.33366
▁procenta	-9.33567
ství	-9.33663
▁republice	-9.34013
▁velice	-9.34118
▁celou	-9.34184
▁ministra	-9.34336
▁ODS	-9.3435
▁zisk	-9.34412
▁neza	-9.34567
▁někdo	-9.34744
▁daně	-9.34781
rad	-9.34806
▁1991	-9.35002
ovala	-9.35273
▁kterým	-9.35333
▁dispozici	-9.3548
▁nižší	-9.35482
▁souvislosti	-9.35566
F	-9.35585
díky	-9.35673
▁provoz	-9.35678
ali	-9.35707
▁řadu	-9.35985
▁minut	-9.36012
▁typu	-9.36054
▁1990	-9.3622
▁šesti	-9.36259
nutí	-9.36404
▁osobní	-9.36713
zí	-9.36739
▁změny	-9.36796
▁obyvatel	-9.36832
▁rámci	-9.36967
▁ledna	-9.36985
mohla	-9.37027
▁prostě	-9.37107
cen	-9.37214
▁kam	-9.37447
▁mne	-9.37472
▁původní	-9.37533
▁nejméně	-9.3773
▁budeme	-9.37747
▁sebou	-9.37809
▁podařilo	-9.3782
▁dat	-9.37979
▁doma	-9.38007
▁menší	-9.38039
ák	-9.38475
▁roli	-9.38504
skou	-9.38507
▁význam	-9.38574
▁objekt	-9.38585
▁St	-9.38624
▁státy	-9.38636
▁různé	-9.38674
▁čs	-9.38803
▁ti	-9.39028
▁Jen	-9.39079
▁deseti	-9.39158
▁Například	-9.39237
▁podnikání	-9.39258
sti	-9.39741
▁Tr	-9.39812
ga	-9.3983
▁výše	-9.39966
▁opravdu	-9.40015
▁Jde	-9.40073
▁pomoc	-9.40149
▁právo	-9.40287
▁tolik	-9.40297
▁úřad	-9.40413
vy	-9.40629
▁cen	-9.4064
▁západní	-9.4064
▁ním	-9.40681
ovací	-9.40778
▁miliónů	-9.40782
▁smlouvu	-9.40782
▁snaží	-9.40782
▁nejvyšší	-9.4082
▁náš	-9.40837
▁nedávno	-9.40843
▁minulý	-9.40868
H	-9.40975
▁trenér	-9.41012
▁11	-9.41229
▁19	-9.41234
▁služeb	-9.41531
▁funkci	-9.41564
▁Dnes	-9.41611
▁zvýšení	-9.4167
▁loni	-9.4172
kové	-9.42056
▁ta	-9.42219
ník	-9.4227
▁okolí	-9.42352
▁Kdo	-9.4241
▁ú	-9.4243
▁Klaus	-9.42439
▁měsíců	-9.4251
nik	-9.42544
▁středu	-9.42657
▁žádný	-9.42665
▁chování	-9.42691
hu	-9.42721
▁fakt	-9.42807
▁Pře	-9.42969
▁koaliční	-9.43144
▁ministerstvo	-9.43144
▁chtějí	-9.43144
▁dnech	-9.43173
▁pojištění	-9.4328
▁Ma	-9.43339
▁růst	-9.43629
sta	-9.43673
▁úřadu	-9.43678
▁jiného	-9.43923
▁získal	-9.44016
▁metrů	-9.44035
▁18	-9.44057
▁postupně	-9.44063
▁text	-9.44063
▁vů	-9.44121
ik	-9.44156
▁Windows	-9.44218
▁8	-9.44295
gr	-9.44305
▁rady	-9.4434
▁zahraničních	-9.44408
ran	-9.44452
proti	-9.44609
▁25	-9.44649
▁společenství	-9.4479
▁kole	-9.44813
▁dosavadní	-9.44823
▁svazu	-9.45059
▁nes	-9.45092
ání	-9.45237
▁bývalý	-9.4536
ul	-9.45439
▁malý	-9.45496
▁členů	-9.4566
▁Pak	-9.45882
krát	-9.46301
▁12	-9.46342
▁nemusí	-9.46384
▁číslo	-9.46404
▁16	-9.46548
▁Zde	-9.46692
▁pracovníků	-9.46715
▁výkon	-9.46717
pat	-9.46947
▁klubu	-9.47048
▁podobně	-9.47086
▁podporu	-9.47142
▁nedo	-9.47216
▁zástupce	-9.47221
▁tržní	-9.47279
▁nadále	-9.47298
▁Bude	-9.47382
▁počtu	-9.47796
▁míst	-9.48003
ován	-9.48153
sk	-9.48245
▁ročně	-9.48711
▁týmu	-9.48819
▁podniky	-9.48863
▁Většin	-9.48884
▁hospodářství	-9.48884
▁nabídky	-9.48884
▁lépe	-9.48887
▁hodně	-9.48932
▁zdá	-9.48971
▁MS	-9.49075
▁přesně	-9.49076
▁projekt	-9.49175
▁dostal	-9.49277
▁každ	-9.49329
án	-9.49509
ostí	-9.49528
len	-9.49546
▁Ani	-9.49548
▁škol	-9.49565
▁přibližn	-9.4959
▁umožňuje	-9.49731
▁podstatně	-9.49744
▁jenom	-9.49795
nými	-9.50051
▁fondu	-9.50372
Í	-9.50385
up	-9.50432
id	-9.50472
▁slova	-9.50475
▁považuje	-9.50586
▁začíná	-9.50586
▁musíme	-9.50595
▁říci	-9.50626
▁Ch	-9.50639
▁případech	-9.50641
▁novou	-9.50667
ant	-9.50698
▁1994	-9.50732
▁městě	-9.50751
CH	-9.50828
▁přednost	-9.50944
▁14	-9.51121
▁banky	-9.51157
▁řada	-9.51334
▁pomoci	-9.51367
▁obvykle	-9.51448
▁sítě	-9.51452
▁vede	-9.51505
▁možností	-9.51532
bal	-9.51534
▁oddělení	-9.51547
Dr	-9.51649
▁českého	-9.51668
▁vedle	-9.51779
▁nebyla	-9.52077
▁sil	-9.52113
▁Pa	-9.52172
▁otázku	-9.52317
▁výrobků	-9.52321
šlo	-9.52335
▁politiky	-9.52371
pro	-9.52375
▁her	-9.5238
▁průběhu	-9.5258
▁Nej	-9.52605
ící	-9.52818
vat	-9.52882
▁nabízí	-9.53195
▁miliardy	-9.53205
▁nemají	-9.53248
▁ulici	-9.53262
▁kterém	-9.53378
▁zdrojů	-9.53384
▁celkové	-9.53419
▁tým	-9.53435
do	-9.53497
▁moci	-9.53522
sp	-9.5365
7	-9.53866
ať	-9.53878
▁skutečnost	-9.53949
ního	-9.5405
▁otázky	-9.54079
▁úrovni	-9.54079
▁chvíli	-9.5408
▁celkem	-9.54083
▁Česká	-9.54087
▁uvádí	-9.54157
▁7	-9.54216
čka	-9.54226
ed	-9.54265
▁Už	-9.54284
▁obraz	-9.54318
▁cestu	-9.54378
▁změn	-9.54435
▁re	-9.54513
▁takto	-9.54592
▁pražské	-9.54665
▁výzkum	-9.54692
▁chyb	-9.54715
rn	-9.54832
%	-9.54873
▁dá	-9.54899
▁mistrovství	-9.54976
▁Bo	-9.55103
▁názoru	-9.55113
▁dohody	-9.55179
▁postavení	-9.55186
▁textu	-9.5524
▁objektů	-9.55308
as	-9.55314
▁sedm	-9.55451
▁jednom	-9.55454
▁slov	-9.55743
ském	-9.55851
▁energie	-9.55873
▁dětí	-9.55873
▁NATO	-9.55875
▁Le	-9.56021
▁jejím	-9.5604
nit	-9.56269
čin	-9.56525
▁společností	-9.56595
▁2.	-9.56661
hal	-9.56757
▁finále	-9.56782
▁takový	-9.56847
▁představuje	-9.56874
▁platit	-9.56896
▁působí	-9.56919
▁listopadu	-9.56921
▁kterých	-9.56982
▁měsíce	-9.57014
▁všem	-9.57078
▁setkání	-9.57117
▁sama	-9.57305
▁každé	-9.57485
▁vybavení	-9.57523
▁obsah	-9.57554
ily	-9.57611
▁nikoli	-9.57616
▁světové	-9.57654
▁Ze	-9.57692
▁hrát	-9.57699
▁prostředků	-9.57701
▁čtvrtek	-9.57723
▁Ještě	-9.57747
▁Tím	-9.57775
zen	-9.57861
▁současně	-9.57878
▁řadě	-9.57926
▁obchodního	-9.57932
ú	-9.57955
▁hráčů	-9.5804
▁příští	-9.58091
▁skupina	-9.58106
▁národní	-9.58264
ovy	-9.58437
▁my	-9.58504
▁musel	-9.58574
▁volební	-9.58609
▁Navíc	-9.58626
▁Nyní	-9.58629
▁výrobky	-9.58631
▁OSN	-9.58635
▁produkce	-9.58638
▁atd	-9.58712
▁zdroje	-9.58756
▁provozu	-9.5884
▁oba	-9.58922
▁neděli	-9.58926
J	-9.58952
ot	-9.58962
▁sami	-9.58969
vo	-9.59019
▁skutečnosti	-9.59367
▁poně	-9.59393
ber	-9.59438
▁Josef	-9.5956
▁federální	-9.5956
▁zasedání	-9.59564
▁dobrý	-9.59594
▁kvalitní	-9.59613
▁muset	-9.59636
mž	-9.59788
ič	-9.59909
del	-9.60033
prve	-9.60033
▁výboru	-9.60154
kách	-9.60167
nout	-9.60195
▁vod	-9.60245
▁hlavním	-9.60274
▁nepři	-9.60286
▁vládní	-9.60351
▁čeká	-9.60405
▁přiče	-9.60417
▁začátku	-9.60547
▁srovnání	-9.60578
▁Mar	-9.60605
nice	-9.60785
▁součástí	-9.608
▁akcií	-9.60816
▁jiný	-9.60836
▁hodnoty	-9.60903
▁mluvčí	-9.60903
iny	-9.60976
▁prezentace	-9.6102
viz	-9.61263
▁školy	-9.61269
▁teorie	-9.61456
▁privatizace	-9.61457
▁apod	-9.61463
▁jasné	-9.61535
▁kterého	-9.61556
▁obchodu	-9.61578
▁zvláštní	-9.61636
čení	-9.61646
▁společné	-9.61697
▁Ob	-9.61812
▁ME	-9.61898
▁problémů	-9.61939
▁těm	-9.6204
per	-9.62089
ilo	-9.62222
▁generální	-9.62367
▁Země	-9.62431
▁případ	-9.62449
▁objektu	-9.62481
sku	-9.62504
▁dopravy	-9.6251
▁poslanců	-9.62543
▁domů	-9.62547
▁olympijské	-9.62585
▁plně	-9.62599
▁1989	-9.62604
mysl	-9.62653
▁jednotlivé	-9.6269
▁buď	-9.6271
▁chtěl	-9.62769
čky	-9.62789
ud	-9.63089
řitom	-9.63209
▁našem	-9.63285
▁telefonní	-9.63303
▁možno	-9.63343
▁ekonomické	-9.63369
▁veřejné	-9.63388
▁zdravotnictví	-9.63388
▁umění	-9.63389
▁Někter	-9.63391
▁dává	-9.63505
bou	-9.63665
▁kolik	-9.63693
▁údaje	-9.63716
G	-9.63721
▁mil	-9.63845
▁věc	-9.63848
ována	-9.63887
▁Ha	-9.6396
▁Bylo	-9.64028
▁Ba	-9.64127
mluv	-9.64318
▁nebezpečí	-9.64369
▁Pavel	-9.64371
▁práva	-9.64381
▁Podobn	-9.64397
▁podobě	-9.64408
▁ostatních	-9.64447
gen	-9.64488
▁investice	-9.64524
ač	-9.64538
▁24	-9.64575
▁Jelcin	-9.64608
▁kultury	-9.64638
▁noci	-9.64659
▁dr	-9.64682
▁státního	-9.64747
▁dalším	-9.64761
▁60	-9.64778
▁spojení	-9.64789
▁celého	-9.64801
▁ex	-9.6507
▁Ivan	-9.65392
▁společně	-9.65461
▁bo	-9.65478
ón	-9.65523
▁zájmu	-9.65553
např	-9.65561
▁soutěže	-9.65616
▁snadno	-9.65625
▁občanů	-9.6563
▁Proč	-9.65663
▁smrti	-9.65701
ěte	-9.65783
▁strana	-9.65822
▁republik	-9.65947
ických	-9.65981
▁Ti	-9.66112
ina	-9.66186
▁Toto	-9.66214
▁vzájemn	-9.66247
dob	-9.66263
▁televizní	-9.66359
▁jméno	-9.6636
▁tisíce	-9.66375
nt	-9.66488
▁politických	-9.66509
▁Ú	-9.66734
▁předem	-9.66775
ic	-9.66819
▁13	-9.66825
▁klub	-9.66827
▁řád	-9.66864
ář	-9.66876
RA	-9.6688
bor	-9.67059
000	-9.6712
▁Stejn	-9.67375
▁snímek	-9.67377
▁hnutí	-9.67377
▁zdraví	-9.67394
▁lidi	-9.67427
▁vytvoření	-9.67508
▁důvodů	-9.67545
▁nejvíce	-9.67587
ver	-9.67625
▁Roz	-9.67692
▁práv	-9.67734
▁pracovat	-9.67849
▁moderní	-9.68046
nos	-9.68089
▁list	-9.68103
tře	-9.68112
▁Jaroslav	-9.6839
▁vztah	-9.68401
▁vzhledem	-9.68483
▁velkou	-9.68559
hy	-9.68626
▁Český	-9.68721
▁soudu	-9.68727
▁mužů	-9.68731
▁konkrétní	-9.68776
▁jisté	-9.68822
▁připraven	-9.68852
▁počítače	-9.68916
▁hráči	-9.68988
však	-9.6919
▁otázka	-9.69213
▁světový	-9.69309
▁těžko	-9.69421
▁okolo	-9.69422
▁nepro	-9.69464
▁schopn	-9.69471
▁film	-9.69564
▁skupin	-9.69567
ovaných	-9.69662
▁daleko	-9.69749
▁zápas	-9.69778
fr	-9.69823
pis	-9.69893
▁spíš	-9.70069
▁hodiny	-9.70168
ev	-9.70215
▁bank	-9.70357
svoji	-9.70411
▁náměstí	-9.70462
▁delší	-9.70465
▁někteří	-9.70467
▁zástupci	-9.70469
▁září	-9.70474
▁rukou	-9.70479
▁typ	-9.70482
▁zaměstnání	-9.70499
▁obsahuje	-9.70522
▁kilometrů	-9.70523
▁parlament	-9.70629
▁oboru	-9.70799
▁věku	-9.70851
▁koncem	-9.70901
▁kulturní	-9.71053
▁mohly	-9.71172
var	-9.71377
ct	-9.71435
▁výsledek	-9.71515
▁cestovní	-9.71515
▁přišel	-9.71653
▁druhů	-9.71729
▁zpět	-9.71737
▁Br	-9.71741
▁zkušenosti	-9.71831
▁model	-9.71883
▁Pod	-9.7192
ický	-9.72001
▁celkov	-9.72099
▁cizí	-9.72152
▁nějaké	-9.72184
▁hospodářské	-9.72304
▁Kčs	-9.72316
▁objekty	-9.7248
▁existuje	-9.72579
▁nebudou	-9.72579
▁zůstává	-9.72579
▁Může	-9.72579
▁podmínek	-9.72582
▁dnů	-9.72589
▁olympijský	-9.72636
▁koalice	-9.72685
▁stavební	-9.72807
▁zaměstnanců	-9.72809
▁Ná	-9.72824
▁prodej	-9.72892
nem	-9.72918
▁český	-9.7298
kon	-9.73022
vod	-9.73094
▁mám	-9.73129
▁šéf	-9.73236
▁bod	-9.7324
▁smyslu	-9.7326
▁každého	-9.73311
▁běžné	-9.73457
▁rozvoj	-9.73484
▁efekt	-9.73577
▁úroveň	-9.73654
▁tady	-9.73679
pokoj	-9.73712
and	-9.73782
▁minulosti	-9.73822
▁fond	-9.73908
▁termín	-9.73918
▁La	-9.73981
▁tun	-9.74023
íky	-9.74089
pravidla	-9.74166
▁Pr	-9.74211
ovém	-9.74234
he	-9.74341
▁loňské	-9.74563
▁případně	-9.74582
▁poslanci	-9.74741
▁pátek	-9.74741
▁praxi	-9.74741
▁dvacet	-9.74762
▁rychlost	-9.7477
▁účast	-9.74818
▁jediný	-9.74823
kov	-9.7486
▁byt	-9.74881
▁Já	-9.74882
▁určitě	-9.74904
▁Každý	-9.74919
▁pří	-9.74942
▁plyn	-9.75026
▁pozornost	-9.75133
▁Brně	-9.7532
▁neo	-9.75384
▁bývá	-9.75463
NÍ	-9.7556
▁lékaře	-9.75754
▁důležité	-9.7584
▁vidět	-9.7584
▁šanci	-9.75841
bl	-9.75848
▁konci	-9.75878
▁kvality	-9.75908
▁Bez	-9.75991
Š	-9.76166
▁prvního	-9.76264
▁použití	-9.76289
▁muž	-9.76432
▁pokus	-9.76452
▁krok	-9.76569
▁doba	-9.76774
nov	-9.76828
▁druhém	-9.76886
▁síly	-9.76958
▁volbách	-9.7696
▁výrobce	-9.76964
▁července	-9.76983
▁dny	-9.77007
▁nikoliv	-9.77061
▁odpovídá	-9.77127
▁změnit	-9.77136
jící	-9.77201
slov	-9.77253
▁knihy	-9.77283
▁svaz	-9.77446
▁členy	-9.77467
▁Německa	-9.77471
žen	-9.77654
ig	-9.7788
šel	-9.77964
▁nákladů	-9.78183
ík	-9.7819
▁podstatě	-9.78193
té	-9.78334
▁zranění	-9.78407
▁speciální	-9.78471
ROM	-9.7849
stup	-9.78587
▁tisku	-9.787
▁stačí	-9.78887
▁lékař	-9.78921
ček	-9.79027
▁činí	-9.79062
▁ruské	-9.79148
▁Ministerstv	-9.79211
▁technologie	-9.79211
▁tepla	-9.79212
▁úplně	-9.79223
klad	-9.79253
▁výrobu	-9.793
▁představitelé	-9.79307
▁investiční	-9.79333
▁Pan	-9.79353
▁techniky	-9.79363
ovány	-9.79367
▁rozšíření	-9.79375
hn	-9.79524
▁druhou	-9.79549
▁Nový	-9.79666
▁počítá	-9.79735
▁podobné	-9.79826
▁Ho	-9.79929
kl	-9.80033
ujeme	-9.80058
▁Již	-9.80066
sko	-9.80101
▁dal	-9.80185
▁80	-9.80229
▁podnikatele	-9.80291
▁míry	-9.8045
▁celá	-9.80526
▁volby	-9.80533
▁pracuje	-9.80558
▁domu	-9.80581
sky	-9.80602
▁nákup	-9.80624
▁voleb	-9.80665
▁léta	-9.80701
vin	-9.80712
▁zprávy	-9.80766
▁výrobní	-9.80921
▁vstup	-9.81209
▁vznikl	-9.81248
▁Jedno	-9.81302
▁polovin	-9.81315
▁Vý	-9.81394
kla	-9.81395
▁vzor	-9.81421
▁dvakrát	-9.8157
▁vytvořit	-9.81588
ném	-9.81791
▁chcete	-9.81808
▁vlastnosti	-9.81887
▁bytů	-9.82026
▁návrhu	-9.82087
▁Tu	-9.8226
skoro	-9.82279
▁též	-9.82336
tur	-9.82393
vláště	-9.82496
▁výběr	-9.82514
▁financí	-9.82699
alo	-9.82741
▁konečně	-9.82768
▁autor	-9.82872
▁fotbalové	-9.82877
▁každém	-9.82967
▁údajn	-9.82992
▁SR	-9.83052
10	-9.83118
čet	-9.83159
▁Sa	-9.8317
▁závěr	-9.83196
▁Zá	-9.83213
jet	-9.8326
▁vyhrál	-9.83399
▁jít	-9.83508
▁dělat	-9.83543
▁Mo	-9.8364
:	-9.83709
▁lidský	-9.83841
zhledem	-9.83873
▁federace	-9.8389
▁firmě	-9.8389
▁použít	-9.8389
▁výsledků	-9.83912
▁Jeden	-9.83917
▁evropských	-9.83929
▁Lu	-9.8393
▁Všechny	-9.83953
▁současnosti	-9.8398
▁zpracování	-9.83999
be	-9.84019
▁obchod	-9.84099
▁hranice	-9.84105
▁Kr	-9.84145
▁průmyslu	-9.84231
▁bodů	-9.84249
▁Německu	-9.84327
▁hráč	-9.8434
▁vojenské	-9.84394
bě	-9.84405
▁Li	-9.84493
▁rád	-9.84557
▁potvrdil	-9.84581
ovaly	-9.84692
▁osmi	-9.84781
▁Zeman	-9.84781
▁počítač	-9.84812
ovými	-9.84846
raz	-9.84995
▁rozhodující	-9.85042
dle	-9.85088
▁Společenství	-9.85095
▁Vladimír	-9.85095
▁Právě	-9.85095
▁zbraní	-9.85096
▁nejlépe	-9.85096
▁pravděpodobně	-9.85109
▁Běh	-9.85121
▁původně	-9.85127
▁Al	-9.85251
▁osoby	-9.85285
▁objeví	-9.85302
olog	-9.85323
št	-9.85339
▁ředitele	-9.85383
▁Firma	-9.85485
ment	-9.85542
▁amerických	-9.85579
▁cílem	-9.8567
▁ženy	-9.85745
▁následující	-9.85845
třech	-9.85942
▁17	-9.86092
▁dvaceti	-9.86143
▁jaký	-9.86164
vede	-9.86187
▁dlouhé	-9.86314
▁udělat	-9.86351
▁sněmovny	-9.8638
▁dokáže	-9.86393
▁vhodné	-9.86535
lek	-9.86555
▁prostoru	-9.86694
nil	-9.86712
▁důvod	-9.86746
značně	-9.86915
nd	-9.86922
hled	-9.86942
ge	-9.87043
Č	-9.871
▁nepře	-9.87302
▁těmi	-9.87384
▁patrně	-9.87542
▁informační	-9.87549
▁čísla	-9.87549
▁brzy	-9.87549
▁pravda	-9.87559
▁hovoří	-9.87561
▁růstu	-9.87571
▁Miloš	-9.87629
ková	-9.87667
▁využití	-9.87679
▁zisku	-9.87697
▁obrany	-9.87765
▁roční	-9.87876
▁pokles	-9.87908
koli	-9.87931
▁žen	-9.87949
▁ústavu	-9.88035
▁závod	-9.8804
ner	-9.88065
▁plat	-9.88088
▁rokem	-9.88152
▁vodní	-9.88227
▁veřejnosti	-9.88232
tek	-9.88293
ovalo	-9.88323
▁úspěch	-9.88433
▁poměr	-9.88468
▁trest	-9.88623
▁vědecké	-9.8871
raději	-9.88789
▁většinu	-9.88799
▁jinde	-9.88799
▁péče	-9.88799
▁začne	-9.88816
▁nemohou	-9.88827
▁dovolenou	-9.88856
▁vědět	-9.88887
▁vládě	-9.8893
▁čele	-9.89112
▁denně	-9.89118
rů	-9.89207
SK	-9.89219
cké	-9.89232
itel	-9.89297
▁prací	-9.8935
▁sta	-9.89371
▁druh	-9.89394
▁slovo	-9.89404
▁čem	-9.89408
▁data	-9.89422
▁takovou	-9.89443
Ž	-9.89489
▁plán	-9.89535
▁národního	-9.89549
▁stala	-9.89559
▁nejbližší	-9.89732
ené	-9.89754
ster	-9.89913
▁aplikace	-9.89971
rát	-9.90037
▁pokračovat	-9.90065
▁pozadí	-9.90065
▁látky	-9.90068
nka	-9.90084
▁akci	-9.90092
men	-9.90132
▁sluneční	-9.90168
▁Ka	-9.90292
▁500	-9.90324
▁Že	-9.90388
▁řad	-9.90465
▁stanoven	-9.90555
dávají	-9.90578
▁starší	-9.906
▁rada	-9.90633
▁potřebné	-9.90642
▁veřejnost	-9.90642
iště	-9.90686
▁stalo	-9.90833
▁procesu	-9.90836
ben	-9.90879
vou	-9.90899
▁smysl	-9.90923
▁dosáhl	-9.90987
les	-9.91003
▁ES	-9.91126
níci	-9.91131
iz	-9.91258
▁výbor	-9.91311
▁kolo	-9.91319
▁důležitý	-9.91347
▁UEFA	-9.91347
▁demokracie	-9.91347
▁oficiální	-9.91347
▁označil	-9.91347
▁televizi	-9.91347
▁Spojený	-9.91347
▁Havel	-9.9135
▁nijak	-9.91351
▁ukazuje	-9.91383
▁hodnocení	-9.91384
▁okamžitě	-9.91402
▁míru	-9.91465
▁zabývá	-9.91495
sil	-9.91518
▁nebyly	-9.91554
▁mo	-9.91594
tah	-9.91651
▁start	-9.91656
▁telefon	-9.91679
▁plné	-9.91685
▁cesty	-9.91744
▁určen	-9.91779
▁bezpečnosti	-9.91784
▁naprosto	-9.91788
▁Te	-9.91803
mar	-9.9183
▁pocit	-9.91961
▁oblast	-9.9205
▁vzniku	-9.92075
form	-9.92096
▁odmítl	-9.92178
▁body	-9.92222
▁Ke	-9.92269
▁dát	-9.92323
▁odborné	-9.92401
▁trvá	-9.92536
▁In	-9.9258
▁2000	-9.92601
OV	-9.92613
▁majetek	-9.92645
▁řečeno	-9.92646
▁počasí	-9.92647
zo	-9.92681
▁členové	-9.92708
▁potřeby	-9.92743
▁budoucí	-9.92803
▁ČSSD	-9.92835
▁stanice	-9.92838
▁kanceláře	-9.92887
▁téma	-9.92932
▁vládu	-9.9303
▁Čech	-9.93117
▁Nové	-9.93164
letý	-9.93215
nese	-9.93239
ak	-9.933
▁disk	-9.93373
▁řady	-9.93413
ovo	-9.93428
▁lékaři	-9.93443
ským	-9.9349
▁respekt	-9.93492
tky	-9.93538
▁zákony	-9.936
▁vývoje	-9.9388
▁systémů	-9.93886
▁Měl	-9.93888
▁22	-9.93911
W	-9.93937
▁nějaký	-9.93948
▁názvem	-9.93961
▁onemocnění	-9.93961
▁požadavky	-9.93961
▁příjmy	-9.93961
▁rozhodně	-9.93961
▁lidem	-9.94022
▁dosáhnout	-9.9405
▁neod	-9.94058
ající	-9.94066
▁300	-9.94072
▁ekonomiky	-9.94079
rán	-9.94178
▁podobný	-9.94191
▁Slovensku	-9.94257
▁Přes	-9.94271
▁Martin	-9.94276
ická	-9.94394
▁Cen	-9.94405
▁třicet	-9.94591
pil	-9.94675
▁počátku	-9.94709
▁Č	-9.94757
ala	-9.94828
ej	-9.94854
▁pole	-9.94875
ovaný	-9.95047
▁nová	-9.95054
▁titul	-9.952
cházet	-9.95223
▁konference	-9.95294
▁televize	-9.95294
▁vánoční	-9.95295
▁ligy	-9.95297
▁policejní	-9.95298
▁dostat	-9.95309
▁funkcí	-9.95322
ele	-9.95354
nul	-9.95368
▁hlavního	-9.95401
rovna	-9.95424
▁Státní	-9.9547
▁jednak	-9.95495
▁přístupu	-9.955
kami	-9.95577
▁mechaniky	-9.95655
▁koncert	-9.95801
▁celém	-9.95878
plav	-9.95902
▁proces	-9.95961
mj	-9.96043
▁společného	-9.961
▁soubor	-9.96165
uji	-9.96236
▁prodeje	-9.96282
▁řekla	-9.96334
▁trestní	-9.96411
mor	-9.96456
rod	-9.96597
▁poskytuje	-9.96646
▁Československu	-9.96646
▁vnitra	-9.96648
▁Prezident	-9.96649
▁velká	-9.96651
tím	-9.96738
▁New	-9.9676
tem	-9.96845
▁škody	-9.96937
▁nechal	-9.96943
▁70	-9.96952
jde	-9.96976
uto	-9.96981
▁Aby	-9.96983
CE	-9.96996
▁rychlostí	-9.9704
▁druhá	-9.97061
brž	-9.9707
▁parlamentní	-9.97076
▁PowerPoint	-9.97193
▁21	-9.97201
port	-9.97235
▁majitel	-9.97248
▁skončil	-9.97261
▁Velké	-9.97278
▁přijat	-9.97279
nk	-9.97316
▁radost	-9.97318
▁ryb	-9.97323
▁získá	-9.97459
▁souboru	-9.97469
▁druhu	-9.97526
▁obrat	-9.97574
▁závěru	-9.97574
▁pa	-9.97673
ér	-9.97689
vu	-9.97789
▁druhého	-9.97804
AN	-9.97899
▁zemědělství	-9.98016
▁látek	-9.98019
▁desítky	-9.98023
▁najít	-9.98034
▁měsících	-9.98036
▁měsíc	-9.98039
▁Čechách	-9.9806
▁Atlantě	-9.98087
▁správy	-9.98097
▁zaplatí	-9.98113
▁ba	-9.98149
▁dopravní	-9.9818
▁vydání	-9.98197
▁zákoníku	-9.98215
méně	-9.98275
▁jinou	-9.98295
▁město	-9.98357
▁povinnost	-9.98394
▁zákonů	-9.9841
▁vývoz	-9.98573
▁hvězd	-9.9862
▁napsal	-9.98659
▁rozhodl	-9.98666
▁vítěz	-9.98777
cím	-9.98879
▁takového	-9.98916
inu	-9.9894
▁výběru	-9.98971
▁Cel	-9.99111
nic	-9.99315
▁zemřel	-9.99333
▁Ž	-9.99338
▁hudební	-9.99405
▁schopen	-9.99405
▁Francie	-9.99405
▁těžký	-9.99405
▁nabídku	-9.99405
▁ustanovení	-9.99405
▁výrobců	-9.99406
▁snímků	-9.99408
▁evropské	-9.99453
▁síť	-9.99457
▁uplatnění	-9.99472
▁jednat	-9.99502
▁přijde	-9.99551
▁ráno	-9.99597
▁nim	-9.99601
▁státech	-9.99686
HO	-9.99687
▁oznámil	-9.99765
▁živ	-9.99778
dnu	-9.99928
nění	-9.99961
▁nena	-10.0005
▁začali	-10.0006
tní	-10.0032
▁dalšího	-10.0041
▁ceně	-10.0043
▁přechod	-10.005
▁soukromé	-10.0052
▁hráče	-10.0074
ložit	-10.0077
EN	-10.0079
▁těžké	-10.0081
▁využít	-10.0081
▁přijetí	-10.0081
▁působení	-10.0082
▁řešit	-10.0082
▁hodlá	-10.0083
▁školství	-10.0083
▁rozpočet	-10.0083
▁tentokrát	-10.0086
▁zajistit	-10.0089
▁převážně	-10.009
▁změna	-10.0092
▁hra	-10.0096
aj	-10.01
▁pořadí	-10.0105
▁Takže	-10.0108
▁vysokou	-10.0109
▁částky	-10.011
▁vyplývá	-10.0114
▁okamžiku	-10.0122
▁jiná	-10.0122
▁chybí	-10.0131
▁seznam	-10.015
▁základ	-10.0158
zv	-10.0177
▁seznamu	-10.0178
▁minulé	-10.018
voz	-10.018
▁auto	-10.0181
ten	-10.0181
▁chtěli	-10.0185
▁vztahu	-10.0187
EL	-10.02
▁potřebuje	-10.0204
▁předpokládá	-10.0215
▁Její	-10.0218
▁90	-10.0219
fo	-10.022
▁názory	-10.0222
▁nesmí	-10.0223
▁nejrůznější	-10.0224
▁spolupráce	-10.0224
▁družstva	-10.0224
▁Mezinárodní	-10.0225
▁dní	-10.0227
ir	-10.0227
▁post	-10.0229
▁moře	-10.0231
▁povolení	-10.0232
▁místech	-10.0235
▁údajů	-10.0236
▁dodává	-10.024
van	-10.024
▁směrem	-10.0242
▁nejde	-10.0246
▁cestou	-10.0247
ion	-10.0248
jev	-10.025
gu	-10.0264
nů	-10.0266
▁bohužel	-10.0272
▁%.	-10.0277
▁Kar	-10.0279
▁máte	-10.0302
▁vznik	-10.0307
▁podnikatel	-10.0312
vedl	-10.0321
▁myslím	-10.0326
pen	-10.0334
▁di	-10.034
▁výzkumu	-10.0356
▁Ra	-10.0365
▁jestli	-10.0366
▁pondělí	-10.0369
▁prezentaci	-10.0369
▁vyslovil	-10.0369
▁ohledu	-10.0372
ovaná	-10.0372
▁měsíční	-10.0373
▁armády	-10.0375
▁pravidelně	-10.0378
▁předtím	-10.038
▁smluvní	-10.0385
▁nově	-10.0387
▁systémy	-10.0388
lem	-10.0394
ici	-10.0408
▁uvedla	-10.041
stoupil	-10.0413
▁němu	-10.0428
▁stane	-10.0428
▁vědy	-10.043
▁případů	-10.0436
▁Dr	-10.0441
nici	-10.0443
ška	-10.0447
▁vztahy	-10.0468
▁zákaz	-10.0469
▁daňové	-10.0476
▁teplo	-10.0481
▁pořád	-10.0487
▁mechanika	-10.0496
▁změnu	-10.0503
ard	-10.0504
▁dostane	-10.0505
▁znám	-10.051
tel	-10.0511
▁taková	-10.0515
▁HIV	-10.0516
▁Poslední	-10.0516
▁konferenci	-10.0516
▁podmínkách	-10.0516
▁příjmů	-10.0516
▁úrovně	-10.0516
▁spoust	-10.0517
▁června	-10.0517
▁radnice	-10.0517
▁výjimkou	-10.0525
dal	-10.0526
▁politiku	-10.0527
▁tiskové	-10.0529
▁blok	-10.053
rád	-10.0531
son	-10.0532
▁neměl	-10.0537
▁částku	-10.0543
▁rodiny	-10.0547
▁dvanáct	-10.0553
▁padesát	-10.0564
ovu	-10.0568
▁severní	-10.0575
un	-10.0577
fer	-10.0585
▁spojen	-10.0591
plat	-10.0593
dali	-10.0594
íte	-10.0597
▁velikost	-10.06
▁podnikatelů	-10.0603
▁papír	-10.061
▁disku	-10.061
▁směru	-10.0612
▁měst	-10.0613
▁člen	-10.0617
▁konkurence	-10.0625
▁De	-10.0627
▁úvěr	-10.063
▁museli	-10.0631
▁zásad	-10.0632
▁Naše	-10.0637
▁současn	-10.0639
ovaného	-10.0648
▁Jedna	-10.0656
kli	-10.0656
▁sedmi	-10.0657
▁Současn	-10.0665
▁většině	-10.0665
▁války	-10.0665
▁účetnictví	-10.0665
▁aliance	-10.0666
▁Největší	-10.0666
▁tvrzení	-10.0667
ění	-10.0667
▁žádn	-10.0684
▁jednoznačně	-10.069
▁Da	-10.0696
▁3.	-10.0701
▁skupině	-10.0708
▁zvířat	-10.0711
▁jakým	-10.0712
▁volné	-10.0714
▁mimořádn	-10.072
▁aktivity	-10.0728
řídit	-10.0736
▁hodnotu	-10.074
▁Vše	-10.0745
▁přírodní	-10.0753
▁bezpečnostní	-10.077
▁uvedené	-10.077
▁polovinu	-10.0771
▁Rusko	-10.0776
▁kola	-10.078
▁poslanec	-10.0787
ska	-10.0795
řka	-10.0802
▁ODA	-10.0805
▁kon	-10.0809
▁Václava	-10.081
▁nechce	-10.0811
▁kláves	-10.0816
▁většiny	-10.0817
▁politice	-10.0817
▁začít	-10.0817
▁vždycky	-10.0818
th	-10.0819
▁pořádku	-10.0823
▁nemocnice	-10.0826
▁Jenže	-10.0828
19	-10.0831
▁individuální	-10.0832
▁centra	-10.0833
▁Ku	-10.0835
▁třemi	-10.0836
ejte	-10.0838
▁400	-10.084
▁pracovníci	-10.0841
▁Německo	-10.0842
kovi	-10.0846
▁LN	-10.0846
▁soudní	-10.0848
▁dob	-10.0849
▁mění	-10.0852
▁předsedy	-10.0855
▁hraje	-10.0858
▁univerzity	-10.0859
šli	-10.0867
ujících	-10.0873
▁budoucnosti	-10.0877
▁čase	-10.0888
▁9	-10.0893
ST	-10.0895
▁sportovní	-10.0896
▁Hor	-10.0897
▁snížení	-10.0898
▁Kdyby	-10.0905
▁životě	-10.0908
ó	-10.0916
bud	-10.0919
▁hlas	-10.092
▁paní	-10.0933
▁staré	-10.0936
▁přehled	-10.0942
atel	-10.0944
▁hrál	-10.0952
IN	-10.0955
▁lidské	-10.0961
▁německé	-10.0962
▁nutno	-10.0966
▁AIDS	-10.0971
▁Británie	-10.0971
▁vzdělání	-10.0971
▁srpna	-10.0971
▁obyvatelstva	-10.0971
▁jím	-10.0973
▁Zákon	-10.0973
▁Možná	-10.0975
▁objevil	-10.0978
▁Vždyť	-10.0979
kládá	-10.0982
vnitř	-10.0982
áři	-10.0988
▁ode	-10.0992
▁hlasů	-10.0992
▁důsledku	-10.1
star	-10.1001
ště	-10.1007
▁předchozí	-10.1009
▁mnohé	-10.1013
▁miliony	-10.1015
▁složení	-10.102
lin	-10.1024
▁zásadní	-10.1025
▁demokratické	-10.1035
LA	-10.1052
▁takových	-10.1052
cký	-10.1067
▁týká	-10.1068
ároveň	-10.1075
▁místopředsed	-10.1086
▁používá	-10.1087
▁vaše	-10.1089
SE	-10.1089
▁trval	-10.1092
▁představ	-10.1095
▁postoj	-10.11
▁státních	-10.1103
▁úřady	-10.1109
▁výkonu	-10.1124
▁očekávat	-10.1127
▁připravuje	-10.1127
▁silniční	-10.1127
▁buněk	-10.1127
▁tajemství	-10.1127
▁název	-10.1128
budete	-10.1128
▁verze	-10.1128
▁zdalek	-10.1133
▁35	-10.1135
▁kvalitu	-10.1138
▁uspořádání	-10.114
▁koupit	-10.1143
▁poznání	-10.1147
▁piva	-10.1148
▁dochází	-10.1158
▁příštím	-10.1161
▁jejího	-10.1161
der	-10.1162
stoupit	-10.1166
▁chceme	-10.1171
▁průměru	-10.1172
30	-10.1177
▁souhlas	-10.1178
▁počítačů	-10.118
▁John	-10.118
jdou	-10.118
▁Rad	-10.1184
▁banka	-10.119
▁zajímavé	-10.1195
pol	-10.1196
ký	-10.1201
nek	-10.1204
▁pobyt	-10.1205
▁jiným	-10.1207
▁vrátil	-10.1209
▁povinnosti	-10.1209
▁Mám	-10.121
▁projektu	-10.121
▁aktivní	-10.1228
▁150	-10.1229
potřeb	-10.1243
▁technické	-10.1244
▁premiéra	-10.1244
▁muži	-10.1246
▁obcí	-10.1248
go	-10.1263
▁příklad	-10.1263
▁konec	-10.1268
TA	-10.1269
▁stroje	-10.1269
jat	-10.1279
▁devět	-10.1284
▁občas	-10.1286
▁zřejmé	-10.1286
▁přírody	-10.1286
▁zůstat	-10.1286
▁privatizaci	-10.1286
▁marek	-10.1287
▁článku	-10.1288
▁Karel	-10.1289
▁dokument	-10.129
▁částí	-10.129
▁okresní	-10.1291
▁pozitivní	-10.1294
isté	-10.1296
▁vyžaduje	-10.1297
▁jaderné	-10.1297
▁úvahu	-10.1304
▁vánoce	-10.1304
šit	-10.1311
▁Oba	-10.1311
▁odborníků	-10.1312
▁agentury	-10.1315
ive	-10.1316
ler	-10.132
▁sovětské	-10.1324
her	-10.1326
▁kop	-10.1328
kul	-10.1328
▁pís	-10.133
▁jaderný	-10.1334
▁Asi	-10.1341
▁programové	-10.1346
kat	-10.1349
▁hlavních	-10.1355
▁programy	-10.1365
mír	-10.1366
▁relativn	-10.1378
▁příštího	-10.1381
leté	-10.1398
ita	-10.1402
▁vyjádřil	-10.1414
▁oprav	-10.1427
py	-10.1428
koliv	-10.1432
▁soutěž	-10.1434
šť	-10.1441
▁dotaz	-10.1442
▁jména	-10.1447
▁organizací	-10.1447
▁věnovat	-10.1447
▁zahájil	-10.1447
▁historii	-10.1447
▁válce	-10.1447
▁úkol	-10.1447
▁Myslím	-10.1448
▁vývoji	-10.145
▁roste	-10.145
▁vaší	-10.1453
▁republika	-10.1454
▁4.	-10.1458
▁hodnot	-10.146
▁manažer	-10.1462
▁politika	-10.1462
▁Škoda	-10.1469
▁liší	-10.1469
▁změně	-10.1478
▁pre	-10.1481
▁tenis	-10.15
tal	-10.15
▁režimu	-10.152
▁hotelu	-10.1523
▁výraz	-10.1532
▁Miroslav	-10.1536
▁druhy	-10.1537
ismus	-10.1538
▁Společnost	-10.1545
▁vyh	-10.1561
fe	-10.1569
▁programů	-10.1571
▁tlačítko	-10.1572
▁družstev	-10.1578
▁úřadů	-10.1584
vádí	-10.1585
▁budu	-10.1592
▁řeč	-10.1609
ěkteří	-10.161
▁jednoduché	-10.1611
▁považován	-10.1611
▁nabízejí	-10.1611
▁zůstane	-10.1611
▁1995	-10.1611
▁Někd	-10.1611
▁tajemník	-10.1613
▁zimní	-10.1616
▁ochran	-10.1617
▁uveden	-10.1617
▁smlouva	-10.1618
▁Základní	-10.1619
▁Stál	-10.1621
jak	-10.1623
tor	-10.1625
▁Fr	-10.1626
▁příslušné	-10.1626
▁déle	-10.1631
dla	-10.1631
▁Tři	-10.1633
▁ko	-10.164
/2	-10.1642
▁doktor	-10.1649
▁hranici	-10.1652
▁abych	-10.1654
▁rekord	-10.1656
kor	-10.1662
▁stranu	-10.1665
▁samo	-10.1665
▁typů	-10.1666
▁bytu	-10.1685
▁veškeré	-10.1688
▁skutečné	-10.1694
▁OS	-10.1695
▁normální	-10.1697
ca	-10.1702
▁styl	-10.1708
▁zákazníků	-10.1712
padá	-10.1715
vad	-10.1722
▁lékařů	-10.1723
▁příprav	-10.1725
▁typy	-10.1725
▁23	-10.1749
▁Sb	-10.175
▁Hlavní	-10.1754
sad	-10.1773
▁reprezentant	-10.1774
▁zvolen	-10.1777
▁úterý	-10.1778
▁Lidé	-10.1778
▁včas	-10.1778
▁někdejší	-10.1778
▁Letos	-10.1778
▁šance	-10.1778
▁lednu	-10.178
▁odbyt	-10.178
▁končí	-10.178
▁globální	-10.178
▁jestliže	-10.1784
▁ruce	-10.1787
ností	-10.1791
▁malá	-10.1799
▁dům	-10.18
▁podnikatelské	-10.1803
▁hledání	-10.181
▁dělá	-10.1813
▁stejný	-10.1814
ený	-10.1816
▁oblastí	-10.1819
▁profesionální	-10.182
▁značné	-10.1825
▁získala	-10.1826
▁svému	-10.183
▁nedá	-10.1832
▁96	-10.1834
▁kapitálu	-10.1837
▁neví	-10.1839
ivé	-10.1845
blíž	-10.1853
nky	-10.1861
▁problémem	-10.187
▁spokojen	-10.1874
▁molekul	-10.1874
dává	-10.1877
nec	-10.1889
20	-10.1892
▁tisk	-10.1905
▁existují	-10.1908
▁soutěži	-10.1911
bar	-10.1915
ď	-10.1923
nické	-10.1929
▁vznikla	-10.1935
▁Pavl	-10.1946
▁včerejší	-10.1947
▁používat	-10.1947
▁Federální	-10.1947
▁verzi	-10.1947
▁mzdy	-10.1947
▁potíže	-10.1947
▁najednou	-10.1948
▁členství	-10.1948
▁vystoupení	-10.1948
▁tabulky	-10.1949
▁studie	-10.1951
▁nejdříve	-10.1952
▁shromáždění	-10.1952
▁někter	-10.1953
▁Chce	-10.1954
▁zvlášť	-10.1956
▁třetím	-10.1957
▁motor	-10.1958
▁Bi	-10.1958
▁kap	-10.1962
▁odpověď	-10.1962
▁My	-10.1964
▁novým	-10.1965
▁vrátit	-10.1972
▁ruský	-10.1974
▁rozdělení	-10.1976
▁akcí	-10.1988
▁známé	-10.199
▁liber	-10.1995
vání	-10.2
▁časem	-10.2002
▁označení	-10.2003
▁vztahů	-10.2016
▁zprávu	-10.2018
▁vyp	-10.2018
▁akcie	-10.2019
▁daň	-10.2019
▁věd	-10.202
dané	-10.2028
▁riziko	-10.2035
brán	-10.2044
▁počítači	-10.2047
ang	-10.2048
▁centru	-10.205
▁Dva	-10.2051
ton	-10.2051
▁MB	-10.2052
▁silné	-10.2068
též	-10.2068
▁motiv	-10.2082
▁dávno	-10.2086
▁nemohl	-10.2086
▁počítat	-10.2087
▁Františ	-10.2095
átor	-10.2098
▁hotel	-10.2101
dostatečně	-10.2106
▁paragraf	-10.212
▁prospěch	-10.212
▁Československa	-10.212
▁rozhodne	-10.212
▁hospodaření	-10.212
▁Nicméně	-10.212
▁zaměstnanci	-10.212
▁automobil	-10.212
▁výrobci	-10.212
▁soudí	-10.2125
▁spočívá	-10.2129
▁odpadů	-10.2131
▁záznamník	-10.2135
▁graf	-10.2135
▁soukromých	-10.2135
▁pozici	-10.2137
▁nárok	-10.2137
▁Ru	-10.214
▁odpovídající	-10.2144
▁12.	-10.2151
▁Nová	-10.2162
dostala	-10.2167
▁posledním	-10.2169
▁Ar	-10.2175
▁Česko	-10.2178
▁příkaz	-10.2181
▁britské	-10.2183
▁pohybu	-10.2187
▁stroj	-10.219
ké	-10.2193
▁díla	-10.2194
▁Národní	-10.2196
▁schopnost	-10.2198
tů	-10.2199
▁jazyk	-10.221
▁objem	-10.2214
ismu	-10.2218
net	-10.2219
▁týdne	-10.2221
▁podepsal	-10.2223
▁patnáct	-10.223
▁poměru	-10.2233
▁rozvoje	-10.2239
dat	-10.2248
ok	-10.225
pustit	-10.2253
▁prv	-10.2254
▁očekává	-10.2256
▁pojistné	-10.2257
▁získali	-10.2273
▁sklad	-10.2282
KA	-10.2282
óz	-10.2286
tit	-10.2287
▁firmu	-10.2295
▁odvětví	-10.2295
▁hrozí	-10.2295
▁Tomáš	-10.2295
▁Pohár	-10.2296
▁hledat	-10.2296
▁horší	-10.2296
▁Dále	-10.2297
▁prvků	-10.2297
▁DNA	-10.2298
▁občanské	-10.23
▁mozku	-10.2301
▁mnozí	-10.2304
▁půdě	-10.2308
▁pás	-10.2314
▁uzavření	-10.2319
▁občan	-10.2323
▁teploty	-10.2325
▁letošním	-10.2329
▁standard	-10.233
▁vědomí	-10.2332
▁zemědělské	-10.2334
▁poháru	-10.2341
ané	-10.2346
▁letní	-10.2349
▁Američan	-10.235
lík	-10.2351
▁metody	-10.2356
▁materiál	-10.2366
▁vnější	-10.2366
▁set	-10.2373
▁PO	-10.2375
▁ochranu	-10.2382
ke	-10.2387
▁tradiční	-10.2399
▁budoucnost	-10.2403
▁účasti	-10.241
▁dovoz	-10.2412
▁Velk	-10.2422
puštěn	-10.2431
▁slouží	-10.244
▁snah	-10.2447
▁stud	-10.2449
▁měnit	-10.2465
▁pořadatel	-10.247
▁Čí	-10.2472
▁Existuj	-10.2474
▁aplikací	-10.2474
▁natolik	-10.2474
▁upozornil	-10.2474
▁zdůraznil	-10.2474
▁Československo	-10.2474
▁rodiče	-10.2474
▁bankovní	-10.2474
▁podpory	-10.2474
▁tudíž	-10.2474
▁reprezentace	-10.2474
▁výrobě	-10.2479
▁kom	-10.2481
▁voda	-10.2482
▁částečně	-10.2483
▁vytváření	-10.2483
▁žije	-10.2483
▁Zdá	-10.2487
▁Poté	-10.2491
▁výroba	-10.2492
šek	-10.2496
▁vlastností	-10.2496
▁centrální	-10.2499
▁zpráva	-10.25
▁dílo	-10.2502
▁karty	-10.2503
▁Me	-10.2506
ral	-10.2508
▁zavedení	-10.2511
▁zdroj	-10.2519
▁jaká	-10.2528
elný	-10.2531
▁pohledu	-10.2534
rak	-10.2548
▁založen	-10.2553
▁dalšími	-10.2555
▁záležitost	-10.2556
▁bran	-10.2561
▁akt	-10.2562
▁významné	-10.2568
šti	-10.2573
▁režim	-10.2573
CI	-10.2575
před	-10.2576
cího	-10.2577
▁leží	-10.2585
▁důvodu	-10.2594
▁odhad	-10.2596
zu	-10.2596
▁zmíněné	-10.2597
hla	-10.2601
zení	-10.2606
▁slovenské	-10.2606
▁společný	-10.2608
ij	-10.2609
▁jakou	-10.2614
tud	-10.2622
▁obrazu	-10.2638
▁protest	-10.2655
▁neexistuje	-10.2655
▁paměti	-10.2655
▁připojištění	-10.2655
▁pomalu	-10.2655
▁kvalifikaci	-10.2656
▁česká	-10.2657
▁odpoledne	-10.2658
▁připomíná	-10.2661
▁nynější	-10.2664
▁boj	-10.2664
▁oblastech	-10.2664
▁Musí	-10.2665
inak	-10.2665
▁svědčí	-10.267
▁vzájemné	-10.2676
▁materiálů	-10.2685
▁spoj	-10.2687
den	-10.269
▁budov	-10.2693
tion	-10.2703
▁potřeba	-10.2704
▁dohodu	-10.2706
▁Slovenska	-10.2708
▁odboru	-10.2708
▁ztráty	-10.2709
▁brněnské	-10.2714
▁NA	-10.2719
▁19.	-10.2726
▁musím	-10.2734
ární	-10.2738
ide	-10.2745
▁politický	-10.2747
pětí	-10.2751
▁poloviny	-10.2765
▁Ústav	-10.2768
▁Fa	-10.277
▁loňském	-10.2774
▁zahájení	-10.2774
▁sv	-10.278
▁rádi	-10.2781
▁technický	-10.2783
▁slib	-10.2785
hi	-10.2785
▁zraněn	-10.2786
▁planet	-10.2791
est	-10.2794
ováno	-10.2797
▁nejvíc	-10.28
álně	-10.2805
▁spor	-10.2806
stal	-10.2808
▁autorů	-10.2827
▁dané	-10.2839
▁Itálie	-10.2841
▁Ovšem	-10.2841
▁Program	-10.2841
▁stránce	-10.2841
▁minimální	-10.2841
▁rychlé	-10.2841
▁praxe	-10.2841
▁regionální	-10.2841
▁desítek	-10.2841
▁vyjádření	-10.2843
▁nicméně	-10.2844
▁Ostravě	-10.2844
▁Ministr	-10.2845
▁vybrat	-10.2846
▁zdejší	-10.2846
▁neustále	-10.2847
▁přístroje	-10.285
▁domov	-10.2852
držel	-10.2854
▁ročník	-10.2855
▁dodnes	-10.2855
▁mně	-10.2855
ani	-10.2859
▁určitou	-10.2877
měř	-10.288
▁soustavy	-10.2883
▁rozhovoru	-10.2884
▁výhradn	-10.2884
▁0	-10.2887
▁osud	-10.2888
din	-10.2895
▁popis	-10.2898
▁standardní	-10.2905
bere	-10.2911
▁problému	-10.2931
ír	-10.2935
▁demokratick	-10.294
▁ústavní	-10.2944
▁váš	-10.2947
▁takovém	-10.2947
▁vývozu	-10.2952
ováním	-10.2953
▁důkaz	-10.2959
▁Be	-10.2961
▁závodu	-10.2963
▁přátel	-10.2963
▁Bar	-10.2968
▁Ot	-10.2978
▁host	-10.2982
▁omezen	-10.2987
rou	-10.2988
▁úspor	-10.2988
▁kandidát	-10.2988
vz	-10.2995
▁řádu	-10.2996
▁pohyb	-10.2997
▁str	-10.3003
▁sponzor	-10.3005
▁italské	-10.3005
lze	-10.3008
vé	-10.3018
IS	-10.302
▁KSČM	-10.3026
pře	-10.3028
▁Všichni	-10.3029
▁jednoduchý	-10.3029
▁náměstek	-10.3029
▁poptávky	-10.3029
▁profesor	-10.3029
▁špatně	-10.3029
▁Naopak	-10.3029
▁poslance	-10.3029
▁Snad	-10.3029
▁jediná	-10.3029
▁odborníci	-10.303
▁zaměstnance	-10.303
▁okna	-10.3031
▁potřebují	-10.3032
▁těsně	-10.3032
▁koncentrace	-10.3035
▁Evropa	-10.3035
san	-10.3035
▁měření	-10.3041
násob	-10.3042
▁vychází	-10.3042
▁totem	-10.3042
▁export	-10.3043
vil	-10.3043
▁Hrad	-10.3045
▁automaticky	-10.3048
NÁ	-10.3048
▁produktů	-10.305
▁chod	-10.3052
dra	-10.3054
▁pán	-10.306
ává	-10.306
▁záležitostí	-10.3063
▁filmu	-10.3063
▁stovky	-10.3066
ena	-10.3072
▁zrušení	-10.3073
▁vzduchu	-10.3073
mile	-10.3077
bral	-10.3088
tivní	-10.3089
▁rozsahu	-10.309
▁přesvědčen	-10.3099
ger	-10.3103
ovský	-10.3105
ickou	-10.3113
▁neměli	-10.312
zní	-10.3124
▁syn	-10.3124
▁hodnota	-10.3127
▁soupeře	-10.3134
oč	-10.3137
▁činností	-10.3143
▁vys	-10.3145
▁diváků	-10.3146
▁úspěchu	-10.3154
▁čisté	-10.3155
▁studentů	-10.3157
▁daní	-10.3162
▁zákonem	-10.3174
▁záměr	-10.3174
ned	-10.3177
▁Každ	-10.3188
▁oslav	-10.3188
▁17.	-10.319
myšlen	-10.3198
▁Ano	-10.3207
půjč	-10.3217
▁Ředitel	-10.3222
▁mladé	-10.3222
▁historie	-10.3222
▁turistů	-10.3222
▁bydlení	-10.3222
▁věnoval	-10.3222
▁pojetí	-10.3222
▁investovat	-10.3224
▁lidmi	-10.3225
▁krátce	-10.3225
bavit	-10.3226
▁aktiv	-10.3227
▁vyz	-10.3228
▁pohybuje	-10.3229
▁současný	-10.3229
▁dodávky	-10.3235
čku	-10.3237
lep	-10.3239
▁dostává	-10.324
MU	-10.3247
▁určit	-10.3249
▁přenos	-10.3249
▁voličů	-10.325
▁šampionátu	-10.3251
▁domě	-10.3252
▁proud	-10.3253
▁Han	-10.3256
▁pracovník	-10.326
▁vést	-10.3269
▁provedení	-10.3272
▁návrhy	-10.3273
▁muže	-10.3273
▁omezení	-10.3275
▁pravé	-10.3285
▁zvyk	-10.3285
▁tlak	-10.3285
▁NE	-10.329
▁domácím	-10.3291
▁cesta	-10.3291
cení	-10.3306
▁obecní	-10.3307
▁Pe	-10.3308
▁materiálu	-10.3311
▁Bra	-10.3319
▁různým	-10.3319
EM	-10.3321
▁žena	-10.3327
▁podpis	-10.3343
▁rychlosti	-10.3348
▁jinými	-10.3358
byl	-10.3363
▁aktivit	-10.3365
▁nájemné	-10.337
▁opak	-10.337
měr	-10.3373
▁Evropsk	-10.3382
▁vrchol	-10.3385
nské	-10.3387
▁nejdůležitější	-10.3388
nesou	-10.3399
▁čtení	-10.3401
▁zpráv	-10.3406
rab	-10.3408
▁tr	-10.3415
▁zákazník	-10.3416
▁Du	-10.3417
▁Především	-10.3418
▁Richard	-10.3418
▁Spojené	-10.3418
▁elektrárny	-10.3418
▁minimálně	-10.3418
▁měsíčně	-10.3418
▁snížit	-10.3418
▁umožní	-10.3418
▁úsilí	-10.3418
▁úspěšné	-10.3418
▁zvýšit	-10.3418
▁míře	-10.3418
▁setkal	-10.3418
▁doslova	-10.3418
▁Češi	-10.3419
▁pravdu	-10.3419
▁snímky	-10.3419
ckých	-10.3421
▁celek	-10.3423
▁policistů	-10.3424
▁sestav	-10.3424
▁vybaven	-10.343
padl	-10.343
▁myší	-10.3431
▁tvorbu	-10.3432
▁obecně	-10.3432
▁okolností	-10.3433
▁zobrazení	-10.3435
▁poškození	-10.3435
▁oni	-10.3436
▁pu	-10.3438
▁zvýšil	-10.3442
▁cestě	-10.3443
▁mistrů	-10.3445
čil	-10.3449
▁žádném	-10.3451
▁student	-10.3452
▁barev	-10.3456
nci	-10.3464
▁zlom	-10.3467
▁žádná	-10.3469
stoupí	-10.347
▁třídy	-10.3475
▁čtenář	-10.3476
▁nemoci	-10.3481
▁festivalu	-10.3486
▁domácích	-10.3491
▁konstatoval	-10.3492
▁povrchu	-10.3493
▁aut	-10.3497
▁vzniká	-10.3501
▁vz	-10.3503
▁nechat	-10.3504
rat	-10.3507
▁sdělil	-10.3512
▁kal	-10.3513
▁centrum	-10.3513
▁součást	-10.3517
▁odpadní	-10.3524
▁hospodářsk	-10.3526
▁správně	-10.3536
▁tvář	-10.3537
▁PowerPointu	-10.3537
nce	-10.3543
eb	-10.3544
▁dějin	-10.3545
▁známo	-10.3546
▁zjistil	-10.3547
▁poklesu	-10.3548
▁nastoupil	-10.3549
něk	-10.355
▁míč	-10.3552
▁FS	-10.3562
▁jediné	-10.3565
MA	-10.3571
▁jedná	-10.3573
▁skupinu	-10.3575
▁sever	-10.3579
▁map	-10.3579
KO	-10.3582
▁objev	-10.3583
▁znát	-10.3584
▁cm	-10.359
klo	-10.3593
▁způsobil	-10.3594
▁polovina	-10.3595
▁dítě	-10.3595
▁pozice	-10.3595
směs	-10.3606
par	-10.3606
pak	-10.3608
ěji	-10.3611
▁par	-10.3613
▁městské	-10.3615
▁Samozřejmě	-10.3618
▁divadla	-10.3618
▁existence	-10.3618
▁pojišťovny	-10.3618
▁rozhodování	-10.3618
▁ČNR	-10.3618
▁širší	-10.3618
▁výskyt	-10.3618
▁půjde	-10.3618
▁nabídka	-10.3618
▁konkurenční	-10.3619
▁kol	-10.362
▁hodinu	-10.3622
▁myšlení	-10.3626
▁nezávislých	-10.3629
osud	-10.3629
▁těles	-10.3631
▁armáda	-10.3635
▁sdělení	-10.3635
▁představení	-10.364
▁Proti	-10.3642
▁výdaje	-10.3645
▁úvodní	-10.3646
▁nebyli	-10.3654
▁PRO	-10.3654
▁půdy	-10.3654
▁podnikatelé	-10.3659
▁princip	-10.3662
▁mé	-10.3669
▁vysokých	-10.3675
onu	-10.3684
▁úpravy	-10.3685
▁zákazníky	-10.3689
▁chemické	-10.3691
▁špatné	-10.3693
sty	-10.3696
▁Rusk	-10.3698
▁Tam	-10.3699
rem	-10.3701
▁metod	-10.3713
fu	-10.3716
▁vidí	-10.372
▁prodejní	-10.3725
dávat	-10.373
▁hře	-10.3735
▁hlasování	-10.3742
▁trend	-10.3751
▁stejn	-10.3752
▁celní	-10.3758
▁daňový	-10.3762
▁Francouz	-10.3763
▁generál	-10.3766
ika	-10.3767
▁smrt	-10.3768
▁Nebo	-10.3776
▁maximáln	-10.3791
▁pořad	-10.3801
▁Slovensko	-10.3804
AD	-10.3806
íme	-10.3813
▁stál	-10.3817
▁námi	-10.3818
▁Němci	-10.3822
▁církve	-10.3822
▁týdny	-10.3822
▁nízké	-10.3822
▁odmítá	-10.3822
▁kolegy	-10.3822
▁usnesení	-10.3822
▁zapotřebí	-10.3822
▁přišla	-10.3822
▁privatizační	-10.3822
▁1988	-10.3822
▁Teď	-10.3822
▁létě	-10.3823
▁Inter	-10.3824
▁postaven	-10.3826
▁StB	-10.3827
▁vůle	-10.3835
▁správné	-10.3838
▁obr	-10.3847
▁děje	-10.3847
▁porušení	-10.3854
▁Kde	-10.3855
▁důsledky	-10.3856
▁zájmy	-10.3856
▁úprav	-10.3858
▁příslušný	-10.3863
▁uvedený	-10.3865
▁automobilů	-10.3865
▁rozporu	-10.3865
▁Bu	-10.3866
▁mladých	-10.3866
neme	-10.3867
▁původu	-10.3871
▁mluví	-10.3876
▁představitelů	-10.3877
▁obce	-10.388
▁Internetu	-10.3882
▁nucen	-10.3883
▁ústav	-10.3884
▁německých	-10.3891
▁myslí	-10.3895
▁žijící	-10.3895
▁německého	-10.3898
▁lidského	-10.39
▁signál	-10.3901
▁představy	-10.3913
LI	-10.3915
▁chud	-10.3916
▁velikosti	-10.392
▁bezpečnost	-10.3921
ených	-10.3925
▁běžný	-10.3927
psal	-10.3929
▁výstav	-10.393
▁částka	-10.3933
▁zločin	-10.3937
▁nástroj	-10.3937
▁Sovětské	-10.394
ovské	-10.3941
kyně	-10.3944
▁přímé	-10.3944
▁II	-10.3952
mého	-10.3958
▁pacientů	-10.3962
ast	-10.397
vali	-10.3975
▁rozhodla	-10.3977
▁Pří	-10.3982
▁posun	-10.3985
▁Di	-10.3988
kám	-10.3989
chází	-10.3998
▁barevné	-10.4002
▁střed	-10.4003
hodil	-10.4008
kol	-10.4019
▁účastní	-10.4019
▁povrch	-10.402
kupní	-10.4021
nes	-10.4022
▁střel	-10.4024
▁metr	-10.4024
▁Moskvě	-10.403
▁Třetí	-10.403
▁firmou	-10.403
▁populace	-10.403
▁třináct	-10.403
▁vynikající	-10.403
▁štěstí	-10.403
▁Francii	-10.403
▁ihned	-10.403
▁technologií	-10.403
▁Bush	-10.403
▁mužstva	-10.403
▁funkční	-10.403
▁spotřební	-10.4031
▁reprezentační	-10.4031
vzdor	-10.4031
ČSL	-10.4031
▁Pomuku	-10.4031
▁mluvit	-10.4032
▁uměl	-10.4033
▁šok	-10.4033
stávají	-10.4034
▁obětí	-10.4035
▁Milan	-10.4035
▁zvyšuje	-10.4037
▁dovolené	-10.404
▁km	-10.4041
▁Více	-10.4044
▁úmrtnosti	-10.4044
▁přichází	-10.4045
▁těla	-10.4047
▁nemocnici	-10.4048
▁vědecký	-10.405
▁Avšak	-10.4051
▁Ber	-10.4052
▁hran	-10.4058
▁zastoupení	-10.4058
pul	-10.4062
▁obavy	-10.4065
▁18.	-10.4065
▁lesní	-10.4065
▁řeči	-10.4073
▁škola	-10.4075
▁byty	-10.4079
▁Jižní	-10.4085
▁Druhý	-10.4086
▁Předseda	-10.4087
▁čtvrt	-10.4101
▁všeho	-10.4101
nové	-10.411
jezd	-10.4112
mer	-10.4115
▁molekuly	-10.4117
▁led	-10.4128
▁pochyb	-10.4129
▁ročníku	-10.4132
▁20.	-10.4133
DE	-10.4135
▁vlastním	-10.4137
▁příležitost	-10.414
áci	-10.4154
▁studiu	-10.416
▁potravin	-10.4163
▁kroky	-10.4163
ického	-10.4168
▁ochot	-10.4169
▁turnaj	-10.4173
▁představují	-10.4173
▁určitý	-10.4176
▁prodává	-10.4177
▁28	-10.4187
▁pražsk	-10.4187
▁oprávněn	-10.4195
šení	-10.4195
▁příštích	-10.4197
▁snaha	-10.4201
OS	-10.4202
▁školní	-10.4215
▁pra	-10.4223
▁hod	-10.4224
▁pražském	-10.4226
wa	-10.4229
nský	-10.4232
▁největším	-10.424
▁konkurenci	-10.4243
▁nakladatelství	-10.4243
▁negativní	-10.4243
▁sledovat	-10.4243
▁tehdejší	-10.4243
▁transformace	-10.4243
▁zlepšení	-10.4243
▁úmrtí	-10.4243
▁budoucnu	-10.4243
▁civilní	-10.4243
▁příjmu	-10.4243
▁zabránit	-10.4243
▁Slavie	-10.4243
▁souvisí	-10.4243
▁jedinou	-10.4243
▁Wales	-10.4243
▁vyspělý	-10.4244
▁operace	-10.4244
▁PCB	-10.4244
▁výsledkem	-10.4244
▁financování	-10.4246
▁Vedle	-10.4248
▁rozhodnout	-10.4249
▁Vláda	-10.4253
▁formou	-10.4254
▁jezdí	-10.4256
▁charakter	-10.4257
▁lékařské	-10.4257
▁zaplatit	-10.4262
rovná	-10.4264
▁výhodné	-10.4264
▁postupu	-10.4265
▁celkový	-10.4266
▁americký	-10.4268
▁kód	-10.427
▁osmdesát	-10.4272
▁zbytečné	-10.4274
▁Man	-10.428
▁prodat	-10.4283
▁on	-10.4287
▁přijal	-10.4291
▁povinností	-10.4293
▁starých	-10.4297
▁partnery	-10.4299
▁tamní	-10.43
▁600	-10.43
▁noviny	-10.4302
▁účely	-10.4303
▁postižen	-10.4308
▁produktu	-10.4308
▁uzavřel	-10.431
▁příležitosti	-10.4314
▁Soud	-10.4316
▁německý	-10.4319
ju	-10.432
▁nákladní	-10.4324
▁řídí	-10.4324
▁Obě	-10.4324
▁adres	-10.4335
▁Gr	-10.4343
▁vydal	-10.4346
▁projev	-10.4349
▁napětí	-10.4357
▁pracovníky	-10.4357
čtí	-10.4358
▁zápasy	-10.4388
▁kapalin	-10.4388
▁zůstal	-10.4394
▁velkým	-10.4394
▁neměla	-10.4394
věřil	-10.4405
RO	-10.4406
ejména	-10.4409
▁zápasu	-10.4413
15	-10.4417
▁národ	-10.4419
▁prů	-10.442
▁formát	-10.4421
▁pachatel	-10.4424
▁dostali	-10.4427
▁odpor	-10.4441
▁3000	-10.4442
vést	-10.4442
▁placení	-10.4446
sloužil	-10.4451
▁historický	-10.4451
hrát	-10.4457
▁turnaje	-10.4459
▁video	-10.446
▁někde	-10.446
▁Ostatně	-10.446
▁Sdružení	-10.446
▁rekreační	-10.446
▁krize	-10.446
▁navrhl	-10.446
▁červnu	-10.446
▁výrok	-10.4461
▁sítí	-10.4461
▁místnosti	-10.4463
▁přiznání	-10.4463
▁Ačkoli	-10.4464
▁jednotky	-10.4467
▁Nad	-10.4468
▁obrázek	-10.4469
▁porovnání	-10.4469
▁udržet	-10.4471
▁přináší	-10.4473
píše	-10.4476
▁odst	-10.4476
▁lesy	-10.4481
▁začátkem	-10.4484
pel	-10.4486
▁účetní	-10.4488
▁prodávat	-10.4494
▁znalosti	-10.4496
▁Washingtonu	-10.4498
▁jasně	-10.4498
▁hodnotě	-10.4499
▁strojů	-10.4499
řez	-10.4502
▁Moravy	-10.4504
▁dopis	-10.4505
,5	-10.4505
▁nemoc	-10.4509
RE	-10.4509
icky	-10.4512
▁všemi	-10.4518
▁Fo	-10.4521
▁dar	-10.4523
▁kontrolu	-10.4527
▁věří	-10.4529
▁použit	-10.4531
▁trenéra	-10.4532
bili	-10.4533
jíž	-10.4535
▁nemáme	-10.454
padlo	-10.4541
▁polo	-10.4542
čili	-10.4552
eny	-10.4552
▁koruny	-10.4554
▁32	-10.4559
▁33	-10.4568
▁partnerů	-10.457
▁něž	-10.4576
▁pravidla	-10.4577
áno	-10.4579
▁Ruska	-10.4581
▁umístěn	-10.4584
jem	-10.4586
ouze	-10.4593
▁sport	-10.4595
▁dojde	-10.4596
▁čísle	-10.4598
▁vedením	-10.46
▁pražského	-10.4604
res	-10.4607
▁modelů	-10.4611
▁býval	-10.4613
▁perspektiv	-10.4618
ickým	-10.4619
kar	-10.4623
▁porazil	-10.4624
▁záleží	-10.463
▁schválen	-10.4635
▁případné	-10.4636
▁místy	-10.4645
▁případu	-10.4647
zemní	-10.4657
▁slovy	-10.466
tak	-10.4667
jedno	-10.4667
▁Bratislavě	-10.4682
▁Návrh	-10.4682
▁kompromis	-10.4682
▁otázce	-10.4682
▁týdnů	-10.4682
▁uskuteční	-10.4682
▁nabídnout	-10.4682
▁péči	-10.4682
▁podpora	-10.4682
▁dovolit	-10.4683
▁server	-10.4683
▁okno	-10.4683
▁nedostatek	-10.4683
▁kategorie	-10.4684
▁nepodařilo	-10.4684
▁Nakonec	-10.4685
▁Brno	-10.4689
▁připravit	-10.4689
▁prvky	-10.4691
▁tajné	-10.4691
▁Izrael	-10.4694
▁přiznal	-10.4694
▁návštěvě	-10.4694
▁přední	-10.4696
▁stará	-10.4696
▁gól	-10.47
▁Podnik	-10.47
▁jaterní	-10.4701
▁zjistit	-10.4703
▁hledá	-10.4706
▁UK	-10.4707
▁buňky	-10.4708
▁malou	-10.4709
▁domácnosti	-10.4712
musela	-10.4714
▁provést	-10.4715
▁osobně	-10.4717
▁investor	-10.4718
▁kapitál	-10.472
▁Če	-10.472
▁získání	-10.4725
kovou	-10.4727
▁nezaměstnanosti	-10.4728
▁stanici	-10.4729
▁druhým	-10.4739
▁operační	-10.4744
▁vojenský	-10.4745
▁Evropský	-10.4748
▁spojené	-10.4752
klep	-10.476
▁partnera	-10.477
boj	-10.4775
hlav	-10.478
▁klient	-10.4795
▁pracoval	-10.48
▁režisér	-10.4804
zem	-10.4804
▁klíč	-10.4807
▁událost	-10.4807
pustí	-10.4812
pustil	-10.4813
▁manžel	-10.4813
ony	-10.4814
vítá	-10.4816
▁trénink	-10.4826
▁filmů	-10.4827
rit	-10.4831
▁prohrál	-10.4838
pana	-10.4839
▁případy	-10.4845
pek	-10.4855
▁odpověděl	-10.4856
▁devíti	-10.4859
▁začalo	-10.4859
▁dřív	-10.4859
▁rad	-10.4863
▁vstupu	-10.487
▁umožnil	-10.4871
pad	-10.4876
ll	-10.488
dělit	-10.488
▁změní	-10.488
pt	-10.4881
TO	-10.4881
▁přicházejí	-10.4881
▁Rus	-10.4884
lat	-10.4891
por	-10.4891
▁státním	-10.4893
▁prodal	-10.4893
▁západních	-10.4896
aly	-10.4901
▁oficiálně	-10.4906
▁úspěšně	-10.4909
▁příjem	-10.4909
▁Slunce	-10.491
▁advokát	-10.491
▁existenci	-10.491
▁funguje	-10.491
▁otázek	-10.491
▁pojišťovna	-10.491
▁rozhodovat	-10.491
▁ostatně	-10.491
▁Znamen	-10.491
▁letadla	-10.491
▁stáří	-10.491
▁dlouhodobé	-10.491
▁žádá	-10.491
▁molekulární	-10.491
▁operaci	-10.4911
▁aktuální	-10.4911
▁přání	-10.4912
▁zůstávají	-10.4912
▁vytvoří	-10.4912
▁SRN	-10.4912
▁vyšetřování	-10.4913
▁Místo	-10.4914
▁vystudoval	-10.4915
▁formě	-10.4919
▁fakultě	-10.492
▁vypadá	-10.4922
éměř	-10.4922
▁ano	-10.4924
▁sezóně	-10.4925
▁Brna	-10.4925
▁cest	-10.4934
▁An	-10.4935
▁fakulty	-10.4935
ale	-10.4936
▁vyberte	-10.4937
utí	-10.4938
RU	-10.4938
▁návštěvníků	-10.4939
▁fotbal	-10.4939
ier	-10.494
▁zjištění	-10.4941
▁stává	-10.4943
▁dobrou	-10.4943
dařilo	-10.4946
slav	-10.4949
▁komory	-10.4952
▁otevření	-10.4952
▁The	-10.4953
▁Her	-10.4954
▁členem	-10.4956
▁modelu	-10.4963
▁struktury	-10.4966
▁ministrů	-10.4969
▁víkendu	-10.497
▁Dom	-10.4974
▁nájemného	-10.4975
▁soupeř	-10.4978
▁východ	-10.4978
▁postižené	-10.498
▁cíle	-10.498
▁čeho	-10.4982
LE	-10.4988
▁americk	-10.4994
▁hotov	-10.4996
▁dokázal	-10.4997
muž	-10.5
▁obyvatelé	-10.5003
▁rozdíly	-10.5005
▁stejném	-10.501
▁začaly	-10.5015
ckého	-10.5019
▁docela	-10.5025
izace	-10.5027
▁pobytu	-10.5029
▁změnil	-10.5035
▁snížil	-10.5037
▁jedenáct	-10.5039
▁dohoda	-10.5042
▁svá	-10.5043
▁církev	-10.5048
▁tvar	-10.5052
▁brankář	-10.5056
▁On	-10.5064
▁Německ	-10.5064
▁prodeji	-10.5069
pit	-10.507
▁knih	-10.5071
▁účastníků	-10.5071
▁limit	-10.5075
▁Par	-10.5075
Sc	-10.5075
▁odpovědnost	-10.5076
nského	-10.5081
▁klubů	-10.5081
▁takovým	-10.5085
▁cenný	-10.5085
▁Mal	-10.5092
dit	-10.5093
kům	-10.5102
▁obsahu	-10.5109
▁přístroj	-10.5109
▁hor	-10.511
lib	-10.5113
▁nehod	-10.5129
trž	-10.5137
▁postih	-10.5138
▁Jin	-10.5141
▁Anglie	-10.5142
▁Nejvyšší	-10.5142
▁institucí	-10.5142
▁mladší	-10.5142
▁software	-10.5142
▁nestačí	-10.5142
▁přispěl	-10.5142
▁pochopitelně	-10.5142
▁příspěvek	-10.5142
▁přinejmenším	-10.5142
▁Polici	-10.5142
▁vlastnictví	-10.5142
▁rodičů	-10.5142
▁přijít	-10.5143
▁dráhy	-10.5143
▁zabezpečení	-10.5143
▁Stačí	-10.5144
▁vědců	-10.5144
▁poruch	-10.5144
váží	-10.5144
▁vrátí	-10.5144
▁organizační	-10.5145
▁policisté	-10.5146
▁poznatky	-10.5147
▁Bosně	-10.5148
▁vozů	-10.5151
▁Králové	-10.5152
▁přijmout	-10.5153
▁levnější	-10.5154
▁uznání	-10.5156
▁tvorby	-10.5157
▁předpisů	-10.5161
AR	-10.5164
▁hodinách	-10.5167
▁podobu	-10.5169
▁prostory	-10.517
▁předsedou	-10.5174
▁ideální	-10.5175
▁komplexní	-10.5177
▁fyziky	-10.5177
▁PC	-10.5179
▁podal	-10.518
▁nejlepším	-10.5181
▁Olomouci	-10.5182
▁George	-10.5183
▁obrazovky	-10.5185
▁vytváří	-10.519
ine	-10.5193
ren	-10.5197
▁českou	-10.5197
▁ekonomických	-10.5199
bil	-10.52
▁léky	-10.5202
age	-10.5204
▁starosti	-10.5204
▁plochy	-10.5211
▁čtvrté	-10.5214
▁dodat	-10.5214
▁vojensk	-10.5214
▁významný	-10.5218
▁denní	-10.5218
▁nejčastěji	-10.5221
▁Nez	-10.5226
▁kancelář	-10.5228
▁nemusel	-10.5229
▁120	-10.5236
▁servis	-10.5236
ávat	-10.5236
▁pacienta	-10.5236
▁připravil	-10.5241
vir	-10.5247
▁podzim	-10.5251
▁zápasů	-10.5253
▁27	-10.526
ros	-10.526
šl	-10.526
▁jiném	-10.5261
▁ztrát	-10.5264
ODS	-10.5271
▁zkušenost	-10.5272
▁zemské	-10.5273
▁nápad	-10.5273
▁pochod	-10.5273
▁zásob	-10.5276
▁auta	-10.5279
▁zaměstnavatel	-10.528
▁hrad	-10.5282
▁ploch	-10.5289
počítá	-10.5293
dostanou	-10.5295
80	-10.5297
▁festival	-10.5298
▁sekund	-10.5298
▁(1	-10.53
AL	-10.5302
nedávn	-10.5306
▁45	-10.5307
▁chodí	-10.5309
▁rodinné	-10.5309
▁ministrem	-10.5314
mot	-10.5316
▁oči	-10.5322
▁rozhodčí	-10.5323
▁náhradní	-10.5332
▁Ad	-10.5337
▁Ci	-10.5344
▁16.	-10.5356
11	-10.5357
rot	-10.5359
▁Lib	-10.536
▁záznam	-10.5362
ista	-10.5362
▁CO	-10.5372
▁hmot	-10.5376
▁Anglii	-10.538
▁Microsoft	-10.538
▁NHL	-10.538
▁duchovní	-10.538
▁jménem	-10.538
▁medaile	-10.538
▁mužstvo	-10.538
▁navzájem	-10.538
▁odpovědi	-10.538
▁uzavřít	-10.538
▁veřejně	-10.538
▁využívat	-10.538
▁článek	-10.538
▁Major	-10.538
▁asociace	-10.538
▁chvíle	-10.538
▁dětem	-10.538
▁Jaromír	-10.538
▁ČEZ	-10.538
▁požadavek	-10.538
▁zástupců	-10.5381
▁Kub	-10.5381
▁okolní	-10.5381
▁Chtěl	-10.5381
▁zabývat	-10.5387
▁výpočetní	-10.5388
▁třikrát	-10.5389
žení	-10.5389
▁Paul	-10.5392
▁významu	-10.5395
stavit	-10.5396
▁ulice	-10.5396
▁výstavby	-10.5403
▁jižní	-10.5409
IT	-10.5414
▁Dvě	-10.5417
86	-10.5419
▁týkající	-10.5419
▁umístění	-10.5429
▁osobnosti	-10.5435
▁oper	-10.5438
▁Or	-10.544
▁praktické	-10.5442
▁používání	-10.5442
▁Takové	-10.5443
▁klid	-10.5446
▁sloup	-10.5449
▁pop	-10.5452
▁250	-10.5453
▁Profitu	-10.5455
▁Jedin	-10.5456
kládat	-10.5459
▁sousední	-10.546
▁francouzské	-10.5461
ření	-10.5461
rok	-10.5463
▁trhy	-10.5464
▁stanovení	-10.5464
řídil	-10.5465
▁milion	-10.5466
▁fondů	-10.547
▁mistra	-10.5474
ňuje	-10.5474
▁obsahující	-10.5474
tvo	-10.5477
▁nezbytn	-10.5477
▁kapitol	-10.5479
▁samostatné	-10.5483
▁kruh	-10.5484
staví	-10.5486
▁nese	-10.5487
KU	-10.5487
vní	-10.549
▁směr	-10.5498
▁mnohd	-10.5498
▁zato	-10.5506
▁čekají	-10.5507
eprve	-10.551
lů	-10.5516
▁žádost	-10.5521
▁obratu	-10.5526
▁minulém	-10.5527
ruší	-10.5534
slovensk	-10.5534
▁obchodním	-10.5541
▁průzkum	-10.5542
▁ekologické	-10.5543
▁ztratil	-10.5545
rop	-10.5546
▁prezidentem	-10.5546
áme	-10.5549
12	-10.555
▁řidič	-10.5553
▁lov	-10.5559
▁dvanácti	-10.5564
▁skončila	-10.5565
▁počítačové	-10.5567
razit	-10.5571
▁útok	-10.5573
▁rozdělen	-10.5583
▁způsobu	-10.5586
▁vyhrála	-10.5594
▁organismu	-10.5595
▁Stát	-10.5605
šil	-10.5606
lid	-10.5608
▁nechtěl	-10.561
▁ačkoli	-10.5618
▁široké	-10.5618
věřit	-10.5622
▁dlouhý	-10.5624
▁ministři	-10.5624
▁považuji	-10.5624
▁souladu	-10.5624
▁vysoká	-10.5624
▁organizaci	-10.5624
▁obrátil	-10.5624
▁Michal	-10.5624
▁chtít	-10.5624
▁generace	-10.5624
▁nejspíš	-10.5625
▁studia	-10.5625
▁územní	-10.5625
▁vyplatí	-10.5629
▁neznamená	-10.563
▁volně	-10.5633
▁ukazují	-10.5633
▁lesů	-10.5635
skočil	-10.5636
▁Polska	-10.5638
kryt	-10.5639
▁vystoupil	-10.5639
pád	-10.5639
▁související	-10.564
har	-10.5643
▁proměn	-10.5644
▁styk	-10.5645
▁plný	-10.5645
DA	-10.5645
▁noční	-10.5645
▁výš	-10.5649
▁nástrojů	-10.565
dor	-10.5653
▁odborných	-10.5654
▁silně	-10.5655
▁Karlovy	-10.566
TE	-10.5661
▁kdysi	-10.5661
▁zajištění	-10.5665
▁občané	-10.5665
OH	-10.5671
níků	-10.5671
▁Plzeň	-10.5672
▁možných	-10.5674
▁časopisu	-10.5677
▁příčin	-10.5678
▁panelu	-10.568
▁ukázal	-10.5682
▁Bur	-10.5683
▁nedávné	-10.5685
▁nemělo	-10.5687
▁průmyslový	-10.5687
60	-10.5688
▁skončilo	-10.5692
▁kurs	-10.5695
▁Obchodní	-10.57
▁jednotliv	-10.5707
▁ústavy	-10.5707
nc	-10.5708
▁sekundu	-10.5709
▁Zlín	-10.5714
▁Poslaneck	-10.5715
▁předložil	-10.5716
bel	-10.5718
▁Slovenské	-10.572
volal	-10.5723
▁přenosu	-10.5725
čné	-10.5726
▁ochrany	-10.5728
▁opravy	-10.5729
▁schopnosti	-10.573
přes	-10.573
▁dostalo	-10.5736
▁Americk	-10.5747
▁1,	-10.5748
▁vystaven	-10.5754
▁třiceti	-10.5754
▁zákazníka	-10.5754
▁anti	-10.5761
ór	-10.5762
▁stanoví	-10.5763
han	-10.577
▁přechodu	-10.577
vají	-10.577
▁univerzit	-10.5775
▁titulu	-10.5776
▁RN	-10.578
ona	-10.5787
▁Mark	-10.5798
▁desetiletí	-10.58
▁dobou	-10.5801
▁Novák	-10.5802
▁třídě	-10.5804
▁zápase	-10.5811
▁výnos	-10.5811
▁10.	-10.5812
vala	-10.5816
▁politického	-10.5817
▁reálné	-10.5822
▁důsled	-10.5823
volání	-10.5826
▁hodnotí	-10.5827
▁projekty	-10.5829
▁forma	-10.583
▁pojištěn	-10.5844
▁uživatel	-10.5844
▁míní	-10.5845
taj	-10.5845
zb	-10.5849
▁čemu	-10.5851
▁regionu	-10.5852
▁pracují	-10.5854
▁kvalita	-10.5857
▁park	-10.586
yl	-10.5861
▁uložen	-10.5861
▁dopad	-10.5863
▁novém	-10.5865
koupit	-10.5868
▁atmosféře	-10.5874
▁delegace	-10.5874
▁francouzský	-10.5874
▁inflace	-10.5874
▁nejnovější	-10.5874
▁přírodě	-10.5874
▁službu	-10.5874
▁všude	-10.5874
▁Viktor	-10.5874
▁považují	-10.5874
▁penzijní	-10.5874
▁politická	-10.5874
▁poptávka	-10.5874
▁květnu	-10.5875
▁podaří	-10.5875
▁stanovisko	-10.5875
▁výstup	-10.5875
▁vysvětlení	-10.5876
▁citliv	-10.5876
▁vysvětlit	-10.5876
▁brát	-10.5876
▁vrací	-10.5876
▁mínění	-10.5877
padne	-10.5877
▁řeší	-10.5877
▁stupně	-10.5878
▁přeprav	-10.5879
▁dokonale	-10.588
▁průměrn	-10.5882
▁Nejvíce	-10.5884
▁porad	-10.5884
▁umí	-10.5885
▁dřívější	-10.5886
▁kultur	-10.5888
▁představit	-10.5889
▁vysvětlil	-10.5889
▁podílel	-10.589
▁prosadit	-10.5891
▁Chceme	-10.5891
▁dosahuje	-10.5893
▁Gorbačov	-10.5893
art	-10.5895
▁znaků	-10.5899
▁myši	-10.5903
▁léků	-10.5903
▁SE	-10.5905
▁zkušeností	-10.5908
▁slovenských	-10.5909
▁ukázalo	-10.5913
ovněž	-10.5914
▁přípravě	-10.5918
▁dojem	-10.5922
▁orgánů	-10.5923
▁zbytek	-10.5924
▁jimi	-10.5928
▁odchodu	-10.5932
nést	-10.5933
▁trvale	-10.5935
▁nesouhlasí	-10.5937
▁role	-10.5938
▁Čs	-10.5941
▁dají	-10.5948
▁Kon	-10.595
▁obvod	-10.595
▁kanceláří	-10.5951
▁vysoký	-10.5951
▁Ca	-10.5958
▁novin	-10.596
▁závodě	-10.5963
▁místem	-10.5966
mark	-10.5967
▁mimořádný	-10.597
▁společenské	-10.5972
▁materiály	-10.5974
▁bytové	-10.598
out	-10.599
▁vodou	-10.5995
tav	-10.5996
▁800	-10.6002
▁vlastnost	-10.6009
▁mechanik	-10.6015
▁domnívá	-10.6016
▁koupil	-10.6016
trh	-10.6016
pravděpodobností	-10.6018
72	-10.6021
▁deník	-10.6029
▁výstava	-10.603
▁pevné	-10.6035
▁dospěl	-10.6036
▁grafické	-10.6038
náší	-10.6041
▁Per	-10.6041
▁kniha	-10.6042
▁Ostrava	-10.6044
▁cenou	-10.6046
▁výklad	-10.6048
▁rozsah	-10.6049
▁obor	-10.6051
▁San	-10.6056
▁pozor	-10.6057
▁zúčastnil	-10.6058
50	-10.6059
▁vydává	-10.606
▁Obecn	-10.6068
▁Představ	-10.6068
▁představu	-10.6086
▁čtenáře	-10.6088
▁názorů	-10.6088
▁nalezen	-10.6089
▁přestup	-10.6096
dní	-10.6097
orku	-10.6101
níky	-10.6103
▁prav	-10.6104
▁zbraně	-10.611
ivní	-10.6112
▁pacient	-10.612
jedou	-10.612
▁vzal	-10.6122
▁společensk	-10.6125
▁tábor	-10.6125
▁všechn	-10.6125
ujte	-10.6129
▁vážně	-10.613
▁osobních	-10.613
hlížet	-10.6131
▁Výsledk	-10.6131
▁dlouhá	-10.6131
▁milióny	-10.6131
▁rozhraní	-10.6131
▁telekomunikační	-10.6131
▁tiskárny	-10.6131
▁atraktivní	-10.6131
▁chráněn	-10.6131
▁koncepce	-10.6131
▁používají	-10.6131
▁nabídce	-10.6131
▁naděje	-10.6131
▁závisí	-10.6131
▁blízké	-10.6131
▁učinil	-10.6131
▁muzea	-10.6131
bře	-10.6131
▁rozšířit	-10.6132
▁žebříčku	-10.6132
▁unii	-10.6132
▁vysvětluje	-10.6133
▁čin	-10.6134
▁předpokládat	-10.6134
▁vysoce	-10.6135
▁naději	-10.6136
ES	-10.6136
klád	-10.6139
▁externí	-10.614
▁složky	-10.6141
▁můj	-10.6142
▁umožňující	-10.6146
▁uvést	-10.6148
▁nebezpečné	-10.6148
▁barvy	-10.615
▁čtyřech	-10.6154
▁per	-10.6154
▁způsoby	-10.6155
▁Nikdo	-10.6157
▁zaměstnavatele	-10.6162
set	-10.6162
▁Autor	-10.6163
▁dvojice	-10.6163
projevuje	-10.6164
▁návštěvu	-10.6169
▁Sparty	-10.617
▁Sv	-10.6171
▁fotbalistů	-10.6171
▁věk	-10.6173
▁totéž	-10.6174
pálen	-10.6176
lení	-10.6185
▁nemůžeme	-10.6185
ete	-10.6189
▁akciové	-10.619
lis	-10.6191
▁test	-10.6194
iletý	-10.6199
▁agentura	-10.6201
▁podnikové	-10.6203
▁Kor	-10.6206
▁čtyřmi	-10.6206
▁podání	-10.6206
▁kurz	-10.6209
▁Fin	-10.6228
▁budovy	-10.6229
▁studium	-10.6232
▁nároky	-10.6236
▁vědci	-10.6249
▁nachází	-10.6253
čně	-10.6254
▁návrat	-10.6259
▁Kolik	-10.6261
▁nebe	-10.6264
něte	-10.6265
▁mini	-10.6283
▁úst	-10.6283
▁mysli	-10.629
▁nabídl	-10.6291
▁stranou	-10.6291
LO	-10.6291
ug	-10.6295
▁tisíci	-10.6298
▁světového	-10.6302
▁listu	-10.6302
▁podstatné	-10.6303
▁finančn	-10.6307
hnal	-10.6308
▁teplota	-10.6308
▁Profit	-10.6314
▁partner	-10.6316
▁chorob	-10.6323
▁26	-10.6327
▁vln	-10.6328
dol	-10.6332
▁jakékoli	-10.6338
▁pravidel	-10.6339
▁Cena	-10.6341
Ř	-10.6341
▁filmový	-10.6343
▁neznámý	-10.6347
áš	-10.6352
▁Vol	-10.6369
▁složen	-10.6371
▁Ši	-10.6371
▁past	-10.6372
▁spisovatel	-10.6373
▁systémem	-10.6375
▁větším	-10.6383
▁zkouš	-10.6387
dů	-10.6388
bývá	-10.639
bytek	-10.6393
▁Itálii	-10.6394
▁Miloslav	-10.6394
▁obligace	-10.6394
▁peněžní	-10.6394
▁snižování	-10.6394
▁úrovní	-10.6394
▁povinen	-10.6394
▁menšin	-10.6394
▁odsouzen	-10.6394
▁podívat	-10.6394
▁Jugoslávii	-10.6394
▁podstat	-10.6394
▁najevo	-10.6395
▁říct	-10.6395
▁Peter	-10.6395
▁super	-10.6396
▁požaduje	-10.6398
▁vybírat	-10.6398
▁nesmírn	-10.6399
▁skončení	-10.64
▁vojáků	-10.64
▁fax	-10.6401
▁chemický	-10.6402
▁Tad	-10.6403
▁pr	-10.6407
▁pivo	-10.6408
▁celku	-10.6411
▁předmětem	-10.6411
▁divadelní	-10.6411
▁hlavu	-10.6411
▁pokyn	-10.6413
▁kusů	-10.6416
▁Moravě	-10.6416
▁Počet	-10.6417
▁trestný	-10.6417
▁bodu	-10.642
▁cyklus	-10.642
▁povolání	-10.6422
▁účel	-10.6424
▁patřil	-10.6425
▁odvolání	-10.6428
▁tříd	-10.6429
volat	-10.6431
▁japonské	-10.6431
▁pouhý	-10.6434
ologie	-10.6435
kázal	-10.6435
ZE	-10.6441
NA	-10.6444
▁následn	-10.6445
▁kartu	-10.6446
▁úvěrů	-10.6451
hav	-10.6453
▁dílem	-10.6457
▁důvodem	-10.646
▁některým	-10.6463
▁vlny	-10.6466
▁podřízen	-10.6477
▁55	-10.6479
▁koupí	-10.6483
▁výstavy	-10.6483
▁národů	-10.6485
▁Nebyl	-10.6488
▁odbor	-10.6493
▁škole	-10.6494
▁starosta	-10.6496
▁ekonom	-10.6498
▁fotbalový	-10.65
▁dostih	-10.6504
▁přípravy	-10.6505
▁Den	-10.6508
děk	-10.6511
▁jakých	-10.6522
▁Dalším	-10.6523
▁předložen	-10.6525
▁upraven	-10.6525
▁českým	-10.6529
▁otevřené	-10.6532
▁Hra	-10.6533
ola	-10.6533
▁Ruské	-10.6538
ráží	-10.6544
▁Západ	-10.6558
▁hrají	-10.6561
▁horní	-10.6567
▁nástup	-10.6568
stran	-10.6571
íka	-10.6571
▁ona	-10.6575
gel	-10.658
▁tvrdé	-10.6582
▁úraz	-10.6582
▁pražský	-10.6582
▁nákupu	-10.6584
▁stanov	-10.6592
▁informoval	-10.6592
▁Lékař	-10.6592
ány	-10.6593
▁mistr	-10.6595
▁profesionál	-10.6595
AM	-10.661
ama	-10.6615
▁vlád	-10.6617
▁jistý	-10.662
▁min	-10.6622
▁Ri	-10.6622
▁volný	-10.6623
cc	-10.6626
nová	-10.663
▁zajištěn	-10.6635
▁rovin	-10.6637
▁fyzické	-10.6644
▁Např	-10.6646
rob	-10.6646
▁kus	-10.6651
▁průběh	-10.6652
▁symbol	-10.6655
sadil	-10.6659
nozí	-10.666
▁schopna	-10.6662
▁Řad	-10.6663
▁jasno	-10.6663
▁Oznámil	-10.6664
▁Problém	-10.6664
▁Univerzit	-10.6664
▁bariér	-10.6664
▁existovat	-10.6664
▁informaci	-10.6664
▁obtížné	-10.6664
▁prezentací	-10.6664
▁svědomí	-10.6664
▁vyjádřit	-10.6664
▁vytvářet	-10.6664
▁ztrácí	-10.6664
▁února	-10.6664
▁ubytování	-10.6664
▁optimální	-10.6665
▁vybraný	-10.6665
▁starost	-10.6665
istů	-10.6666
▁náskok	-10.6666
▁zítra	-10.6666
▁továrn	-10.6666
▁Bójové	-10.6667
▁zdánlivě	-10.6668
▁hrách	-10.6668
▁rychleji	-10.6671
▁schválil	-10.6671
bíd	-10.6671
▁jednotek	-10.6672
▁tradice	-10.6672
▁československé	-10.6672
▁kupující	-10.6674
▁podvod	-10.6676
▁závodech	-10.6678
▁hlavy	-10.6679
▁nadace	-10.6683
▁správu	-10.6683
▁střediska	-10.6683
▁politiků	-10.6683
▁Sam	-10.6684
▁samotné	-10.6685
▁ústřední	-10.6686
▁objevuje	-10.6687
▁obvinění	-10.6687
▁dohodě	-10.669
▁správný	-10.6691
ovaným	-10.6693
jen	-10.6694
▁hledají	-10.6695
▁brání	-10.6697
▁kontroly	-10.6698
▁vesnici	-10.6699
▁narodil	-10.67
při	-10.67
og	-10.6701
▁předpisy	-10.6702
▁uspořáda	-10.6707
▁Změn	-10.6709
▁kalů	-10.6713
▁dostávají	-10.6715
▁slavnostní	-10.6715
níku	-10.6718
▁zaveden	-10.6719
▁zvolil	-10.6719
▁boje	-10.6721
▁Sun	-10.6722
▁vzdálenosti	-10.6729
▁Svoboda	-10.6729
▁souborů	-10.6729
▁sále	-10.6732
▁Vlastní	-10.6735
af	-10.6737
▁rizika	-10.6741
▁spotřebitel	-10.6742
ičtí	-10.6746
▁soutěží	-10.6746
▁JE	-10.6749
ňování	-10.6749
▁návratu	-10.675
▁vysloven	-10.6753
čních	-10.6753
▁udělá	-10.6756
▁sobotní	-10.6757
TI	-10.6762
běhl	-10.6765
▁signálu	-10.6773
kin	-10.6773
ins	-10.6775
razí	-10.6791
▁neroz	-10.6791
▁částic	-10.6793
▁vznikají	-10.6795
▁nebezpečn	-10.6803
kládají	-10.6804
▁rezerv	-10.6805
▁spis	-10.6808
▁ostatními	-10.681
▁pomohl	-10.6811
▁drží	-10.6812
jel	-10.6813
▁Pre	-10.6816
počátku	-10.682
▁náhod	-10.682
▁předsed	-10.682
▁důvody	-10.6821
▁investic	-10.6825
▁právník	-10.6829
▁závodů	-10.6829
▁příbuzn	-10.6839
případě	-10.6843
land	-10.6843
▁jednot	-10.6846
▁klade	-10.6846
MO	-10.6847
▁cíl	-10.6853
▁Internet	-10.686
▁dění	-10.686
najdete	-10.6861
▁struktur	-10.6861
▁stop	-10.6862
ša	-10.6862
▁čtyřicet	-10.6871
▁určený	-10.6872
▁komunikace	-10.6876
▁pivovar	-10.6876
25	-10.6878
entní	-10.6886
měl	-10.6891
▁poz	-10.6891
▁zlato	-10.6893
▁pas	-10.6898
▁mírové	-10.69
▁černé	-10.69
▁dětské	-10.6901
▁určené	-10.6902
dem	-10.6904
držení	-10.6911
▁ozbrojený	-10.6919
▁průmysl	-10.6923
▁státě	-10.6924
bin	-10.6929
▁produkt	-10.6933
▁Ital	-10.6933
▁mohu	-10.6938
▁Euro	-10.6939
▁zas	-10.694
▁argument	-10.6941
▁demokracii	-10.6942
▁fanoušků	-10.6942
▁jednoduše	-10.6942
▁lustrační	-10.6942
▁navštívil	-10.6942
▁nepochybn	-10.6942
▁nádraží	-10.6942
▁obligací	-10.6942
▁otázkou	-10.6942
▁ovzduší	-10.6942
▁pobřeží	-10.6942
▁pracoviště	-10.6942
▁prokurátor	-10.6942
▁vyrábí	-10.6942
▁železniční	-10.6942
▁častěji	-10.6942
▁Pracovní	-10.6942
▁odstranit	-10.6942
▁Tehd	-10.6942
▁obnoven	-10.6942
▁knize	-10.6942
▁modul	-10.6942
▁čísel	-10.6942
▁věnován	-10.6942
▁záření	-10.6942
▁vážné	-10.6942
▁dohodnout	-10.6943
▁raket	-10.6943
▁blízkosti	-10.6943
▁říkal	-10.6943
▁bloku	-10.6943
▁přínos	-10.6943
▁písmen	-10.6944
▁oblečení	-10.6945
▁chyběl	-10.6945
▁pramen	-10.6947
▁několikrát	-10.6948
▁komunistické	-10.6949
▁kvalitě	-10.6949
▁opoziční	-10.695
40	-10.695
▁uprostřed	-10.6951
čel	-10.6952
▁vyvolal	-10.6953
▁dopravě	-10.6953
poloviční	-10.6954
▁díl	-10.6957
▁ovládání	-10.6957
myslet	-10.6959
▁pomůže	-10.6959
▁žít	-10.6963
▁klimatický	-10.6965
ble	-10.6965
▁nejlepších	-10.6965
▁novináři	-10.6966
▁Švédsk	-10.6967
▁připadá	-10.6967
▁sportu	-10.6969
▁příchod	-10.6973
▁cítí	-10.6977
pust	-10.6979
rna	-10.6981
▁doprava	-10.6982
▁tajný	-10.6987
▁Pražské	-10.6987
▁znaky	-10.6988
▁velkého	-10.6988
▁Taková	-10.6989
áček	-10.6993
▁výpravy	-10.6996
▁noc	-10.7003
▁působit	-10.7005
▁obrazů	-10.7009
▁mezinárodních	-10.701
▁viděli	-10.7011
▁Rakousku	-10.7012
držet	-10.7015
▁blíží	-10.7029
▁dopravu	-10.7032
rst	-10.7032
▁večerní	-10.7037
▁rodinný	-10.7041
OU	-10.7047
ČS	-10.7049
▁společn	-10.7053
▁pla	-10.7054
MI	-10.7055
▁udělal	-10.7059
▁určitých	-10.706
▁souhlasí	-10.7064
▁testu	-10.7064
▁Rusku	-10.7064
▁metoda	-10.7065
▁Mi	-10.7066
▁zásah	-10.7073
ab	-10.7074
▁úvěry	-10.7074
▁gen	-10.7075
▁strach	-10.7077
▁měsíci	-10.7087
▁hru	-10.7088
eta	-10.7088
▁samostatný	-10.7113
▁využívá	-10.7119
▁zvítězil	-10.7121
▁fondy	-10.7125
▁stisk	-10.7126
▁hal	-10.713
AV	-10.7141
▁pohybují	-10.7143
▁realit	-10.7143
▁editor	-10.7143
▁převzal	-10.7144
▁vědom	-10.7145
▁okamžik	-10.7145
▁průměr	-10.7152
▁úspěšný	-10.7153
▁1000	-10.7154
▁vedou	-10.7155
▁termínu	-10.7157
šly	-10.7161
▁vytvořil	-10.7162
▁Muž	-10.7165
izovat	-10.7166
dis	-10.7169
▁píše	-10.7185
▁začínají	-10.7186
▁Vznik	-10.719
řazen	-10.7191
znal	-10.7196
▁komerční	-10.7197
ohledem	-10.7199
▁aminokyselin	-10.72
▁31.	-10.7201
kan	-10.7203
oři	-10.7205
vel	-10.7206
,8	-10.7212
▁obec	-10.7213
▁Musím	-10.7214
▁hlad	-10.722
▁vedl	-10.7224
▁Americe	-10.7228
▁dopoledne	-10.7228
▁dveře	-10.7228
▁ministerstvu	-10.7228
▁nejrychleji	-10.7228
▁partneři	-10.7228
▁považovat	-10.7228
▁reakce	-10.7228
▁rekonstrukci	-10.7228
▁rozhoduje	-10.7228
▁strategie	-10.7228
▁Trenér	-10.7228
▁sloužit	-10.7228
▁vyrábět	-10.7228
▁Havla	-10.7228
▁policii	-10.7228
▁srdce	-10.7228
▁jaře	-10.7228
▁Klub	-10.7228
▁areálu	-10.7228
▁psát	-10.7228
▁viděl	-10.7228
▁rozlišení	-10.7229
▁vzít	-10.7229
▁vězení	-10.7229
▁penze	-10.7229
▁politickou	-10.7229
▁krve	-10.7229
▁dubna	-10.7229
▁trvat	-10.723
▁výlet	-10.723
▁čekat	-10.723
▁Konečn	-10.7231
▁dotací	-10.7231
▁zachovat	-10.7232
▁poskytnout	-10.7233
▁stavby	-10.7236
▁provádět	-10.7239
▁vodu	-10.724
▁Čas	-10.724
čištění	-10.7242
▁obsahovat	-10.7242
▁vydat	-10.7243
▁ukončení	-10.7247
plňuje	-10.7249
▁sídle	-10.7249
▁El	-10.725
▁elektrické	-10.7252
▁narození	-10.7253
AC	-10.7253
▁zjevn	-10.7255
▁přišli	-10.7256
▁objektivní	-10.7258
▁vším	-10.7259
býval	-10.726
▁dítěte	-10.7261
▁Mnoho	-10.7264
▁postavit	-10.7265
▁zastavit	-10.7265
▁sovětských	-10.7266
▁událostí	-10.7268
▁taneční	-10.7269
▁připojení	-10.7272
pot	-10.7272
▁učitel	-10.7273
▁techniku	-10.7273
▁formu	-10.7275
▁kontakty	-10.7275
▁obci	-10.7279
▁orgány	-10.7281
▁příkladem	-10.7284
áním	-10.7287
íci	-10.7288
▁výhody	-10.7288
▁schválení	-10.7289
▁kabinetu	-10.7289
▁5.	-10.7289
rní	-10.729
denní	-10.7294
▁managementu	-10.7299
▁hluboko	-10.73
skal	-10.7301
psané	-10.7301
▁plánu	-10.7302
▁cosi	-10.7302
▁produkty	-10.7303
▁přesvědčení	-10.7317
▁Malé	-10.7317
▁zahrad	-10.7318
▁události	-10.7318
▁rodina	-10.7319
počet	-10.7323
▁útoku	-10.7324
▁maximální	-10.7326
▁principy	-10.7328
▁zjistili	-10.733
▁vašeho	-10.733
lka	-10.7336
▁občany	-10.734
▁los	-10.7344
▁předpoklad	-10.7345
▁severu	-10.7346
▁vyhlásil	-10.7348
▁otevřel	-10.7348
▁průmyslové	-10.7352
▁hranic	-10.7353
▁samostatně	-10.7357
▁hlasy	-10.7358
▁kmen	-10.736
nému	-10.7365
▁dělí	-10.7374
▁rozhodli	-10.7377
metr	-10.7377
▁souhlasu	-10.7378
▁soubory	-10.7378
▁běžně	-10.7389
NI	-10.7389
▁znamenat	-10.7389
▁stejným	-10.739
▁průkaz	-10.7393
▁sociálního	-10.7397
tát	-10.7401
nášet	-10.7415
▁obrovské	-10.7416
▁zmíněný	-10.7422
šky	-10.7423
ence	-10.7424
▁vyzval	-10.7424
▁projevil	-10.7426
▁SP	-10.7426
▁povinn	-10.7429
▁15.	-10.743
▁kluby	-10.743
▁člena	-10.743
41	-10.7433
17	-10.7438
▁monitor	-10.7439
▁odkaz	-10.7441
▁oznámila	-10.7445
sed	-10.7446
▁fyzick	-10.7461
▁Bla	-10.7462
und	-10.7462
▁bohat	-10.7463
▁vstoupil	-10.747
▁příslušn	-10.7474
▁založil	-10.748
▁Rada	-10.7482
▁Mnoh	-10.7485
▁vytvořen	-10.7485
nictví	-10.7487
▁pečlivě	-10.7488
▁65	-10.7491
▁jakém	-10.7491
▁cyklu	-10.7493
▁nástroje	-10.7494
▁rostou	-10.7494
▁6.	-10.7496
▁vět	-10.7497
tisk	-10.7504
▁Zájem	-10.7505
▁formátu	-10.7509
▁klepn	-10.751
áků	-10.751
▁Stanislav	-10.7522
▁března	-10.7522
▁geometrie	-10.7522
▁miliónu	-10.7522
▁producent	-10.7522
▁snižuje	-10.7522
▁zahrnuje	-10.7522
▁zahynul	-10.7522
▁účinky	-10.7522
▁rozmezí	-10.7522
▁páté	-10.7522
▁sotva	-10.7522
▁kupónov	-10.7522
▁rakouské	-10.7522
▁klesá	-10.7522
▁čtvrtletí	-10.7522
▁využil	-10.7522
▁morální	-10.7522
▁pověst	-10.7522
▁blízko	-10.7524
▁návod	-10.7524
▁Šest	-10.7525
▁praktický	-10.7525
▁téhož	-10.7525
▁diskusi	-10.7527
ložil	-10.7527
▁výsledku	-10.7528
▁zajišťuje	-10.7529
ovky	-10.7531
▁opozice	-10.7536
▁zásluh	-10.7536
▁školách	-10.7536
▁poradce	-10.7537
▁výkonné	-10.7537
▁příběh	-10.7537
▁anglické	-10.7538
▁ZA	-10.7539
▁přestal	-10.754
▁přinesl	-10.7542
▁zvýší	-10.7542
příliš	-10.7543
rd	-10.7545
▁kovů	-10.7546
▁průměrné	-10.7547
brat	-10.7547
▁dohod	-10.7548
▁formy	-10.755
▁činit	-10.755
▁směn	-10.7551
▁pravomoci	-10.7555
▁vzpomíná	-10.7556
▁plno	-10.7558
▁postupy	-10.7558
▁zachování	-10.7561
▁resp	-10.7565
▁příčinou	-10.7567
▁Lon	-10.7569
▁král	-10.7573
▁volbu	-10.7574
▁duchu	-10.7578
▁provádí	-10.7579
▁představiteli	-10.7579
▁sam	-10.7583
nova	-10.7584
zdrav	-10.7585
▁věnuje	-10.7586
▁zásadně	-10.7587
ejme	-10.7588
ovanou	-10.7589
▁Ex	-10.7589
▁šlo	-10.7596
▁poskytl	-10.7597
ana	-10.76
▁Zemi	-10.7608
▁kandidátů	-10.7611
padají	-10.7619
▁padesáti	-10.7622
▁pražských	-10.7622
▁Št	-10.7636
ick	-10.7638
▁slep	-10.7639
▁7.	-10.7641
▁Boris	-10.7645
▁odešl	-10.7648
▁Er	-10.7649
▁Ni	-10.7651
▁Popper	-10.7669
jeli	-10.767
inter	-10.7677
▁krajin	-10.7678
▁daném	-10.7681
▁Občanské	-10.7686
▁papíru	-10.7687
▁klasický	-10.769
▁odpad	-10.769
▁vědeck	-10.7695
▁obchody	-10.7696
▁následujících	-10.7702
▁dvoj	-10.7704
▁pokut	-10.7712
▁modely	-10.7718
▁Cha	-10.7719
ičky	-10.7719
▁Michael	-10.7719
▁živé	-10.7719
kož	-10.772
loží	-10.772
▁Hol	-10.7725
▁znal	-10.7736
▁výbuch	-10.7742
▁dával	-10.7746
▁soustav	-10.7748
▁krátké	-10.7753
▁chyby	-10.7756
▁obsahují	-10.7764
▁No	-10.777
SA	-10.7775
▁loňský	-10.7777
stál	-10.778
edení	-10.778
▁vzdálenost	-10.7781
▁ST	-10.7784
cem	-10.7786
▁kont	-10.7787
▁vstříc	-10.7787
▁zpravodaj	-10.7788
▁Klause	-10.7792
▁1992.	-10.7797
sídl	-10.78
▁46	-10.78
▁chat	-10.7801
▁jediným	-10.7802
▁reakci	-10.7803
▁potřebn	-10.7803
▁neznám	-10.7803
▁služba	-10.7804
▁věda	-10.7806
ŘE	-10.7807
Vesmír	-10.781
▁přeměn	-10.7811
▁uvažuje	-10.7814
▁poznat	-10.7818
▁žlut	-10.782
▁48	-10.7822
▁Španěl	-10.7823
▁Bor	-10.7824
▁Otázka	-10.7825
▁definitivně	-10.7825
▁digitální	-10.7825
▁divadlo	-10.7825
▁důvěru	-10.7825
▁gigant	-10.7825
▁hřišti	-10.7825
▁kyslíku	-10.7825
▁označit	-10.7825
▁pokračování	-10.7825
▁prognóz	-10.7825
▁předvolební	-10.7825
▁sekretář	-10.7825
▁transformaci	-10.7825
▁výročí	-10.7825
▁vězňů	-10.7825
▁zvyšování	-10.7825
▁vozidel	-10.7825
▁října	-10.7825
▁Býval	-10.7825
▁prosinci	-10.7825
▁Československé	-10.7825
▁vazby	-10.7825
▁počtem	-10.7825
▁rozsáhlé	-10.7825
▁Práce	-10.7825
▁nikoho	-10.7825
▁svoje	-10.7825
▁zastavil	-10.7826
▁myšlenky	-10.7826
▁hluboké	-10.7827
▁Člen	-10.7828
příště	-10.783
▁majitele	-10.783
▁poradit	-10.783
▁Cest	-10.7831
▁navrhuje	-10.7832
řízení	-10.7833
▁sexuální	-10.7833
▁neplatí	-10.7834
▁mírně	-10.7835
▁prozatím	-10.7836
▁začátek	-10.7837
▁poplatky	-10.7837
▁oběti	-10.7838
▁výdajů	-10.7838
zemědělských	-10.7841
▁rozšířil	-10.7842
▁barevný	-10.7843
▁Třeba	-10.7844
▁zrušit	-10.7845
▁mechanismus	-10.7846
▁chtěla	-10.7848
▁tuzemsku	-10.7848
▁rostoucí	-10.7853
▁bratr	-10.7857
▁Uvedl	-10.7857
▁třetiny	-10.7859
▁kapel	-10.786
▁východě	-10.7864
▁dílů	-10.7866
▁filmové	-10.7868
▁Několik	-10.787
▁příležitostí	-10.7871
▁boji	-10.7873
▁sezóny	-10.7874
▁reklamy	-10.7874
▁zůstalo	-10.7878
▁Hlavním	-10.788
▁schopností	-10.7883
▁čtrnáct	-10.7884
▁svobody	-10.7884
▁vědí	-10.7885
▁Jaké	-10.7886
▁představitele	-10.7888
▁nastavení	-10.7888
▁majitelé	-10.7893
IL	-10.7894
▁pokuty	-10.7895
vrácení	-10.7895
▁našel	-10.7895
▁krajiny	-10.7896
▁přítomnosti	-10.7896
5%	-10.7899
▁žil	-10.79
▁nezávislé	-10.7903
▁nastal	-10.7904
▁výborů	-10.7904
▁postavil	-10.7909
▁Val	-10.7912
▁startu	-10.7917
elné	-10.7918
▁Rakouska	-10.7922
▁Svět	-10.7925
▁starý	-10.7926
stické	-10.793
▁herec	-10.7939
▁objevují	-10.794
▁činil	-10.7941
ickém	-10.7941
▁znění	-10.7943
enou	-10.7944
▁záležitosti	-10.7946
▁víkend	-10.7946
▁ekonomický	-10.7951
graf	-10.7952
▁pohár	-10.7954
lín	-10.7964
▁36	-10.7965
leč	-10.7966
▁tuzemské	-10.7968
part	-10.7972
▁koncertu	-10.7973
▁necelý	-10.7973
▁víme	-10.7976
▁Vlk	-10.7977
▁stylu	-10.7979
▁známý	-10.7982
▁Jaká	-10.7994
▁hus	-10.7997
ON	-10.7998
▁Clinton	-10.7998
▁koní	-10.8011
▁českém	-10.8015
▁běh	-10.8017
▁věděl	-10.8018
▁výrobních	-10.8021
▁odraz	-10.8021
▁plnění	-10.8023
▁oceán	-10.803
▁čtenářů	-10.8032
▁primátor	-10.8032
▁nájemník	-10.8035
▁karta	-10.8038
▁Mont	-10.8039
išť	-10.8043
▁obrovský	-10.8043
▁Světové	-10.8045
▁Pomoc	-10.8052
▁žalob	-10.8053
▁červen	-10.8059
▁zdravotního	-10.8063
▁exportu	-10.8065
▁existující	-10.8066
▁surovin	-10.8066
▁diplomat	-10.8067
▁obsadil	-10.8067
▁přítomn	-10.8072
lék	-10.8074
▁potřeboval	-10.8075
▁účtu	-10.8077
▁vklad	-10.8077
▁pěst	-10.8078
▁dosáhla	-10.8078
ička	-10.8078
▁výkony	-10.8088
▁důraz	-10.8088
ložení	-10.809
▁Let	-10.8096
týká	-10.8104
▁Výbor	-10.8106
▁vlně	-10.8113
▁přítomnost	-10.8114
▁klidně	-10.8115
▁ostatním	-10.8118
▁děj	-10.8121
jmout	-10.8122
▁státem	-10.8128
▁menších	-10.8133
▁variant	-10.8134
▁Úřadu	-10.8135
▁dětský	-10.8135
▁trans	-10.8137
▁Evropu	-10.8137
▁Mechanik	-10.8137
▁Němců	-10.8137
▁Premiér	-10.8137
▁Systém	-10.8137
▁Vývoj	-10.8137
▁definitivní	-10.8137
▁kilobajtů	-10.8137
▁podezření	-10.8137
▁potvrzuje	-10.8137
▁připomněl	-10.8137
▁sjednocení	-10.8137
▁smlouvě	-10.8137
▁teorií	-10.8137
▁tvořit	-10.8137
▁účinek	-10.8137
▁aspekt	-10.8137
▁lehce	-10.8137
▁režii	-10.8137
▁tabulce	-10.8137
▁zdarma	-10.8137
▁zrušil	-10.8137
▁ukončil	-10.8137
▁pokrok	-10.8137
▁membrán	-10.8137
▁schůze	-10.8137
▁zastupitelstva	-10.8138
▁pověřen	-10.8138
▁spotřeby	-10.8138
▁hustot	-10.8138
▁střetnutí	-10.8138
▁nedokázal	-10.8138
▁bránit	-10.8139
▁vězni	-10.8139
▁GSM	-10.8139
▁produkci	-10.814
▁celků	-10.814
▁("	-10.814
▁nejenom	-10.8141
▁absolutní	-10.8141
▁označen	-10.8141
▁ovoce	-10.8142
▁diskuse	-10.8142
▁Pět	-10.8143
▁Dodal	-10.8145
▁kamion	-10.8146
▁kódování	-10.8146
▁vaši	-10.8148
▁klasické	-10.8149
▁překlad	-10.815
▁akademie	-10.815
▁dostatek	-10.815
▁balík	-10.8151
▁vyvolává	-10.8153
▁Druhá	-10.8154
▁dolní	-10.8155
ismem	-10.8157
▁Staroměstské	-10.8157
▁předložit	-10.8158
▁Jednání	-10.816
▁ukázk	-10.8165
▁systematick	-10.8165
▁silný	-10.8169
▁závislosti	-10.817
▁anglický	-10.8171
▁kontrolní	-10.8176
▁38	-10.8177
▁fakultu	-10.8179
▁náhodou	-10.818
▁veřejných	-10.8181
▁užívání	-10.8181
▁nahradil	-10.8181
▁výstavě	-10.8182
▁Jaký	-10.8184
▁firemní	-10.8184
▁zahraničním	-10.8186
▁církevní	-10.8189
▁Mon	-10.8191
▁Karadžič	-10.8192
▁Severní	-10.8193
▁zvěře	-10.8194
▁atlet	-10.8198
ologické	-10.8201
▁Němec	-10.8202
▁základem	-10.8205
▁fyzikální	-10.8205
▁časové	-10.8206
ance	-10.8207
táhne	-10.8209
ust	-10.8212
jako	-10.8217
▁škodu	-10.8218
tovat	-10.8222
▁Sparta	-10.8222
▁stráž	-10.8223
áni	-10.8224
ller	-10.8224
▁pravděpodobnost	-10.8225
▁soused	-10.8227
▁příčiny	-10.8227
▁zdravé	-10.8229
stu	-10.823
▁Egypt	-10.8231
▁11.	-10.8233
▁zdravotnické	-10.8234
▁nep	-10.8239
▁najde	-10.8241
▁důchod	-10.8244
jímá	-10.8246
oji	-10.8255
▁pohyboval	-10.8256
▁koně	-10.8256
▁trenérem	-10.8261
▁vyžádal	-10.8262
zoval	-10.8263
▁Ústavní	-10.8264
▁principu	-10.8267
▁týdnech	-10.827
▁Mir	-10.8272
▁sporu	-10.8283
▁textový	-10.8288
▁podobného	-10.8292
▁budova	-10.8293
OLE	-10.8294
▁Fran	-10.8295
▁postav	-10.8302
▁katalog	-10.8304
ME	-10.8306
číst	-10.8307
end	-10.8308
▁probíh	-10.8311
▁reálný	-10.8319
▁levé	-10.8322
▁životním	-10.8323
▁nadšen	-10.8334
▁komplex	-10.8336
31	-10.8338
▁Firm	-10.835
▁pokračoval	-10.8353
▁nerv	-10.836
▁jiní	-10.836
nějších	-10.8367
▁koho	-10.8371
vykl	-10.8376
ívají	-10.8376
▁situací	-10.8385
▁zábav	-10.8385
▁matematik	-10.8389
oje	-10.8392
▁bezprostředn	-10.8394
▁škod	-10.8394
▁poloh	-10.8398
▁nezávislost	-10.8404
procentní	-10.8405
▁zjištěn	-10.8408
▁počítačový	-10.8409
▁laboratoř	-10.841
▁Hus	-10.8413
OR	-10.8418
▁pohádk	-10.8421
▁přenosov	-10.8422
▁trestné	-10.8426
▁svobodné	-10.8427
▁mnou	-10.8428
▁seminář	-10.8429
▁nechá	-10.8434
▁mandát	-10.8437
▁rodin	-10.8438
▁postoje	-10.8439
▁třetího	-10.844
jedná	-10.8443
▁poskytují	-10.8444
ráže	-10.8451
▁obal	-10.8451
bírají	-10.8453
▁inženýr	-10.8458
▁Poslanc	-10.846
▁dražší	-10.846
▁dynamick	-10.846
▁nejnižší	-10.846
▁nemohu	-10.846
▁podporovat	-10.846
▁přispět	-10.846
▁snažit	-10.846
▁sportovců	-10.846
▁uskutečnit	-10.846
▁Člověk	-10.846
ačtyřicet	-10.846
▁chystá	-10.846
▁index	-10.846
▁krizi	-10.846
▁vybudovat	-10.846
▁vypadat	-10.846
▁vyřešit	-10.846
▁skončí	-10.846
▁Osobn	-10.846
▁turisty	-10.846
▁mlýn	-10.846
▁dohromady	-10.846
▁sněhu	-10.846
▁každoročn	-10.846
▁mld	-10.846
▁obilí	-10.8461
▁zhodnocení	-10.8461
▁dobrá	-10.8461
jedině	-10.8461
▁dcer	-10.8461
▁síti	-10.8462
▁pouští	-10.8462
jasn	-10.8462
▁těší	-10.8462
▁bomb	-10.8463
▁Úřad	-10.8463
▁vedlejší	-10.8463
▁přesvědčit	-10.8464
▁atmosféry	-10.8465
▁pokračuje	-10.8466
▁porozumění	-10.8466
▁Odbor	-10.8467
▁tvorbě	-10.8468
▁všeobecně	-10.8468
▁spodní	-10.8468
▁připojit	-10.8469
▁Hradci	-10.847
▁hůře	-10.847
▁zbytečně	-10.847
▁penzion	-10.8471
▁Bruselu	-10.8472
▁tělo	-10.8472
▁umělecké	-10.8472
▁srážek	-10.8472
▁ruky	-10.8473
▁městský	-10.8475
▁Jelcina	-10.8478
▁přinést	-10.848
▁vesnice	-10.8484
ávání	-10.8484
▁analýzy	-10.8485
▁poznamenal	-10.8486
řad	-10.8488
▁dala	-10.8489
rej	-10.8492
▁Senátu	-10.8494
mála	-10.8494
▁obsazení	-10.8494
▁rovině	-10.8495
▁silnice	-10.8496
pír	-10.8497
▁spolupracovníků	-10.8498
▁personální	-10.8499
ill	-10.8499
▁34	-10.8501
▁autobusy	-10.8502
▁Chorvatska	-10.8506
▁vědě	-10.8508
hradí	-10.8509
antní	-10.851
▁Američané	-10.8516
▁zad	-10.8518
▁130	-10.8522
85	-10.8526
skok	-10.8527
▁historické	-10.8528
▁Kohl	-10.8529
bla	-10.8532
▁grafický	-10.8532
▁zájemce	-10.8532
▁kolektivní	-10.8535
▁sval	-10.8537
▁dovozu	-10.8537
▁zájmů	-10.854
▁důchodu	-10.8543
▁čtyřiceti	-10.8544
bývají	-10.8544
▁opustit	-10.8544
▁experiment	-10.8545
▁Novotný	-10.8545
▁volných	-10.8552
▁hokej	-10.8556
▁požadované	-10.8559
▁vzpomínk	-10.8562
▁výkonný	-10.8564
▁roze	-10.8565
▁Karla	-10.8565
běhu	-10.8568
tají	-10.8573
▁témat	-10.8576
▁patnácti	-10.8581
▁nevím	-10.8582
ujícího	-10.8585
íček	-10.8586
počítat	-10.8586
▁nepříjemné	-10.8587
▁přivedl	-10.8589
▁drobn	-10.8589
stru	-10.8594
▁dalo	-10.8595
áhy	-10.8597
▁vyrovnan	-10.8598
▁výhod	-10.8603
▁drobné	-10.8605
▁Rakousk	-10.8605
▁tlaku	-10.8605
▁objemu	-10.8615
▁získan	-10.8615
▁bi	-10.8624
▁výchov	-10.8625
▁spol	-10.8625
▁potenciál	-10.8628
▁střet	-10.8629
▁grafu	-10.8631
▁moment	-10.8633
▁kapitálové	-10.8634
ria	-10.8636
▁průměrný	-10.8641
ité	-10.8647
kový	-10.8649
▁1,5	-10.8651
cky	-10.8656
▁Mohl	-10.8661
▁montáž	-10.8672
▁odborník	-10.8675
▁prost	-10.8678
▁vedla	-10.8681
▁vlak	-10.8682
▁projektů	-10.8684
▁turistický	-10.8688
▁přev	-10.8691
▁dlužník	-10.8696
▁nutnost	-10.8696
▁osobnost	-10.8699
kládal	-10.8707
ens	-10.8708
znamenal	-10.8709
▁management	-10.871
▁členský	-10.8714
▁kolektiv	-10.8719
▁mladý	-10.872
▁Kraj	-10.872
rum	-10.8722
▁překvapení	-10.8727
▁struktura	-10.8727
ško	-10.8727
▁vyšetřovatel	-10.8731
▁hormon	-10.8737
▁projednáva	-10.8738
▁Sever	-10.8738
▁Takový	-10.8739
▁poli	-10.8742
řídí	-10.8743
▁prosadil	-10.8743
▁bílé	-10.8744
▁výrazný	-10.8748
▁rostlin	-10.8749
▁dělení	-10.8752
▁důstojn	-10.8757
▁značný	-10.876
▁provedl	-10.876
▁zvíře	-10.8761
▁Slov	-10.8763
▁omyl	-10.8764
nvestiční	-10.877
88	-10.8771
▁lékařsk	-10.8774
▁čist	-10.8775
▁85	-10.8781
▁čekal	-10.8782
▁jmenován	-10.8785
▁Auto	-10.8785
▁konečný	-10.8787
▁speciali	-10.8791
▁otevře	-10.8791
▁Mluvčí	-10.8793
▁dosažení	-10.8793
▁hrozb	-10.8793
▁intenzit	-10.8793
▁jednoduchá	-10.8793
▁metropoli	-10.8793
▁nechtějí	-10.8793
▁neutrální	-10.8793
▁obsažen	-10.8793
▁pochopení	-10.8793
▁teorii	-10.8793
▁tradičně	-10.8793
▁výpověď	-10.8793
▁únoru	-10.8793
▁Moskva	-10.8793
▁jmění	-10.8793
▁Peníze	-10.8793
▁reakcí	-10.8793
▁složitější	-10.8793
▁Divadl	-10.8793
▁likvidace	-10.8793
▁břehu	-10.8793
▁Zástupc	-10.8793
▁Rudolf	-10.8793
▁nevýhod	-10.8793
▁nejpozději	-10.8793
▁restauraci	-10.8794
▁Obdobn	-10.8794
▁Rozdíl	-10.8794
▁úlev	-10.8794
▁dotace	-10.8794
▁dojít	-10.8795
▁dělají	-10.8795
▁operací	-10.8795
▁vtip	-10.8795
▁kabel	-10.8796
▁kategorii	-10.8796
▁výhodnější	-10.8797
▁elektráren	-10.8798
▁provozní	-10.8798
▁mezd	-10.8799
▁sněmovně	-10.8801
▁podporuje	-10.8804
▁reformy	-10.8804
▁Východ	-10.8805
▁zvuk	-10.8806
▁městech	-10.8807
▁prof	-10.8808
▁udržení	-10.8811
▁Morav	-10.8811
▁oblačnost	-10.8813
▁Zahraničn	-10.8813
▁vína	-10.8814
vedou	-10.8816
▁přírodověd	-10.882
stavbě	-10.8822
▁stíhání	-10.8824
ng	-10.8824
▁časopisů	-10.8825
▁přijdou	-10.8825
▁Tour	-10.883
táhnout	-10.8835
▁pochází	-10.8837
▁žádostí	-10.8838
▁realitní	-10.8838
▁otevřena	-10.884
▁strom	-10.8848
▁Paříži	-10.8848
▁dokumentu	-10.8848
▁neboli	-10.8849
▁rod	-10.8853
▁hledal	-10.8854
▁mluvil	-10.8854
▁sezónu	-10.8857
▁nech	-10.8861
▁odborníky	-10.8865
▁využívání	-10.8868
44	-10.8869
▁svobodu	-10.887
▁ochotn	-10.8876
▁Lin	-10.8879
▁uložení	-10.888
▁vešker	-10.8882
▁Lit	-10.8885
▁hmoty	-10.889
▁žádosti	-10.8892
▁skla	-10.8895
▁posílen	-10.8897
▁zná	-10.89
▁mal	-10.8903
▁proveden	-10.8905
eček	-10.8909
▁Důležit	-10.8914
▁domy	-10.8916
▁založení	-10.8919
daných	-10.892
▁mladí	-10.8921
▁obvodní	-10.8929
čátkem	-10.8931
▁nemohli	-10.8932
▁ukázala	-10.8937
▁škoda	-10.8937
▁záměru	-10.8938
▁tank	-10.8939
▁původ	-10.8952
▁zvýšen	-10.8956
▁katastrof	-10.8957
▁požádal	-10.8958
▁šedesát	-10.8965
▁0,	-10.8965
asi	-10.8966
▁Ros	-10.8967
era	-10.8967
▁tich	-10.8967
▁zákazníkům	-10.897
▁95	-10.8973
ůj	-10.8976
▁letecké	-10.8977
▁mluvčího	-10.8993
▁Dá	-10.8993
▁mimořádné	-10.8995
▁reprezentantů	-10.8999
CD	-10.9002
▁zvýšené	-10.9004
▁výkonnost	-10.901
nete	-10.9014
▁platy	-10.9015
▁stanic	-10.9019
▁Mlad	-10.902
tkání	-10.9028
▁činu	-10.9031
▁ztráta	-10.9032
ačnou	-10.9036
▁platnost	-10.9038
▁zařazen	-10.9039
národních	-10.9045
▁muse	-10.9047
▁úmysl	-10.9048
▁neb	-10.9049
▁řídící	-10.905
kář	-10.905
▁monopol	-10.9052
▁vražd	-10.9052
▁uzavře	-10.9053
▁značn	-10.9056
▁protein	-10.9057
cker	-10.9064
▁týmy	-10.9066
▁snažil	-10.9067
▁nezaměstnanost	-10.9067
lob	-10.9067
▁každému	-10.9069
▁čtrnácti	-10.9071
▁Plat	-10.9073
platit	-10.908
▁fan	-10.9082
▁zní	-10.9082
▁mikro	-10.9082
▁tvrdý	-10.9083
oučástí	-10.9084
VA	-10.9095
dání	-10.9096
▁připojen	-10.9103
▁poskytovat	-10.9113
'	-10.9117
▁9.	-10.9118
▁Pal	-10.9119
▁sjezd	-10.912
▁29	-10.912
▁OH	-10.9125
▁dvojic	-10.9126
▁šéfa	-10.9127
▁podnikatelský	-10.9128
▁obecné	-10.9129
▁odstup	-10.9129
▁grafick	-10.9129
▁stačil	-10.9129
▁zvětš	-10.913
▁poklesl	-10.913
hání	-10.9133
▁kvantov	-10.9133
▁Graf	-10.9134
▁Stav	-10.9135
▁recept	-10.9138
▁Ameriky	-10.9138
▁Bohužel	-10.9138
▁Ladislav	-10.9138
▁Nedávn	-10.9138
▁Plzni	-10.9138
▁SCSI	-10.9138
▁Telecom	-10.9138
▁energii	-10.9138
▁instituce	-10.9138
▁investování	-10.9138
▁nejvýznamnější	-10.9138
▁podpořil	-10.9138
▁přirozené	-10.9138
▁čtvrtfinále	-10.9138
▁kapitán	-10.9138
▁chránit	-10.9138
▁mládí	-10.9138
▁názvu	-10.9138
▁koncepci	-10.9138
▁rámeček	-10.9138
máhají	-10.9138
▁nejúspěšnější	-10.9138
▁Včera	-10.9138
▁Policisté	-10.9138
▁použil	-10.9138
▁zaujal	-10.9138
▁ekonomicky	-10.9138
▁stabilní	-10.9138
▁závad	-10.9138
▁trzích	-10.9138
▁Chip	-10.9139
▁výrobek	-10.914
▁množ	-10.914
▁zimě	-10.914
▁nadcházející	-10.9141
▁obrázky	-10.9141
▁Tentokrát	-10.9143
▁síla	-10.9143
▁tradici	-10.9144
▁faktorů	-10.9145
▁plod	-10.9145
▁pochopit	-10.9146
▁konat	-10.9146
▁Londýně	-10.9147
▁chodit	-10.9148
▁čtvrtý	-10.9148
▁bojovat	-10.9148
▁odstavce	-10.9148
▁hlavou	-10.9149
▁Afriky	-10.9149
▁hudby	-10.9149
▁David	-10.9151
▁tón	-10.9152
▁kritérií	-10.9153
▁lokální	-10.9153
▁uznal	-10.9155
▁schůzky	-10.9157
▁právnické	-10.9159
▁požadují	-10.9159
▁originální	-10.9162
▁umělecký	-10.9165
▁scény	-10.9165
▁jmen	-10.9165
▁způsobuje	-10.9166
▁parametrů	-10.9166
▁vybrané	-10.9171
▁úvahy	-10.9172
▁spravedlnosti	-10.9172
▁nalézt	-10.9175
▁Děti	-10.9175
▁koš	-10.9176
▁zavře	-10.9179
▁slíbil	-10.918
▁nezbytné	-10.9182
▁zájemci	-10.9183
▁ekologick	-10.9184
▁třetinu	-10.9184
▁ono	-10.9186
▁zbývající	-10.9186
▁vesmíru	-10.9186
▁biologické	-10.9187
▁světovou	-10.9189
▁pokusil	-10.919
▁Zajímav	-10.919
▁Hr	-10.9191
▁drahé	-10.9192
▁radi	-10.9196
▁uživatele	-10.9199
▁zaměření	-10.92
▁vlasti	-10.92
▁úroky	-10.9201
▁okruhu	-10.9201
▁nemocných	-10.9203
▁způsobené	-10.9204
▁úkolem	-10.9204
▁dělal	-10.9209
▁Lidové	-10.9211
▁povede	-10.9212
▁vývojové	-10.9219
▁ostře	-10.9222
▁blíže	-10.9222
kolik	-10.9223
▁Vít	-10.9225
▁starosty	-10.9229
▁paliva	-10.9229
▁přijel	-10.923
▁Dobr	-10.9231
▁představí	-10.9236
▁hovořil	-10.9237
bíhá	-10.9237
hý	-10.9237
lap	-10.9237
▁bosenský	-10.9238
hladov	-10.924
psat	-10.9241
▁fyzický	-10.9243
pas	-10.9243
▁dokumentů	-10.9245
▁konkrétně	-10.9256
▁udržel	-10.9256
myslí	-10.9257
▁adresu	-10.9257
▁klidu	-10.9259
pos	-10.9261
logický	-10.9262
▁podat	-10.9265
▁hradu	-10.9265
▁výkonem	-10.9268
▁jih	-10.9268
▁uvedení	-10.9268
▁pouhé	-10.9269
pin	-10.927
▁Nevím	-10.9271
▁úkolů	-10.9274
řek	-10.9278
▁paláce	-10.9281
▁rozhovor	-10.9281
▁objevit	-10.9287
▁útvar	-10.9287
▁postupné	-10.9292
▁poukaz	-10.9297
▁zásady	-10.9301
▁skutečný	-10.9302
▁případný	-10.9304
▁zůstala	-10.9307
VÍ	-10.9312
ánek	-10.9313
▁založené	-10.9315
▁platné	-10.9317
▁sklon	-10.9331
▁odkud	-10.9339
▁dalšímu	-10.9349
▁30.	-10.9353
▁hladin	-10.9355
▁pevný	-10.9357
IC	-10.9357
▁Indi	-10.9361
▁dluh	-10.937
▁zahraničními	-10.9375
▁pobočk	-10.9378
▁filmy	-10.9382
▁uvědom	-10.9395
▁česko	-10.9403
▁nesouhlas	-10.9405
▁vzduch	-10.9413
▁hrob	-10.9414
▁možný	-10.9414
leb	-10.9417
▁Cíle	-10.9417
spal	-10.9423
▁výprav	-10.9425
▁Nejs	-10.9426
▁hloub	-10.9427
▁disket	-10.9433
těl	-10.9433
▁výjimečn	-10.9435
▁širok	-10.9439
▁rizik	-10.944
▁parku	-10.944
oucí	-10.9452
▁umělé	-10.9454
▁zastoupen	-10.9456
▁stovk	-10.9462
▁Šp	-10.9463
▁působil	-10.9466
pir	-10.9467
▁bot	-10.947
▁exportní	-10.947
hodnou	-10.9472
▁8.	-10.9473
▁školu	-10.9477
Ú	-10.948
▁agent	-10.9482
pracovat	-10.9483
▁jednoznačn	-10.9483
střelil	-10.9487
▁180	-10.9488
▁Tur	-10.9491
kombin	-10.9492
▁rytm	-10.9495
▁Alexandr	-10.9495
▁Barceloně	-10.9495
▁Británii	-10.9495
▁Nejlepší	-10.9495
▁březnu	-10.9495
▁cigaret	-10.9495
▁fázi	-10.9495
▁instalaci	-10.9495
▁normy	-10.9495
▁následek	-10.9495
▁podmínkou	-10.9495
▁pomáhá	-10.9495
▁populární	-10.9495
▁požádat	-10.9495
▁pravidlo	-10.9495
▁publikován	-10.9495
▁tlačítka	-10.9495
▁tlačítkem	-10.9495
▁týdně	-10.9495
▁umožnit	-10.9495
▁Bělehrad	-10.9495
▁Srbsk	-10.9495
▁déšť	-10.9495
▁kratší	-10.9495
▁vrstvy	-10.9495
▁Organiza	-10.9495
▁naléhav	-10.9495
▁ploše	-10.9495
▁divize	-10.9495
▁těžce	-10.9495
▁Robert	-10.9495
▁Věřím	-10.9495
▁Část	-10.9495
▁likvidaci	-10.9495
▁značky	-10.9495
▁Soubor	-10.9495
▁ocitl	-10.9495
▁někoho	-10.9495
▁pololetí	-10.9495
▁kvalifikace	-10.9495
▁příslušníci	-10.9495
▁debat	-10.9496
▁1996	-10.9496
▁doposud	-10.9496
▁1987	-10.9496
▁nutný	-10.9496
▁pozdější	-10.9496
▁komisi	-10.9496
▁ekonomice	-10.9496
▁IFOR	-10.9497
▁klimatu	-10.9497
▁uvažovat	-10.9497
▁kapacit	-10.9499
▁drog	-10.95
▁desky	-10.95
▁lidsk	-10.9501
▁Generální	-10.9501
▁červenci	-10.9502
▁horách	-10.9502
▁multimediální	-10.9502
▁Hodnot	-10.9502
▁ukázat	-10.9503
▁zajímat	-10.9505
▁právnických	-10.9505
▁rozbor	-10.9507
▁výstavbě	-10.951
▁letiště	-10.9513
čené	-10.9514
▁vzorky	-10.9515
▁myšlenka	-10.9515
▁panel	-10.9515
▁Novotná	-10.9518
▁cenách	-10.9519
▁pozorování	-10.9521
▁ukáže	-10.9522
▁potvrzení	-10.9522
▁kilometr	-10.9522
▁vyšel	-10.9524
▁ohrožení	-10.9525
▁Často	-10.9525
▁prodávající	-10.9525
studoval	-10.9527
▁vozy	-10.9527
▁obsazen	-10.9527
▁barvu	-10.9528
▁koupi	-10.9529
▁šestnáct	-10.9529
▁provozovatel	-10.9532
▁absolvoval	-10.9533
▁průmyslov	-10.9533
▁parametry	-10.9535
▁obvyklé	-10.9538
▁účelem	-10.9539
▁JU	-10.9539
▁Atlanty	-10.954
▁ochotni	-10.9541
▁úvodu	-10.9543
▁pojem	-10.9546
▁muzeum	-10.9546
▁očekávání	-10.9551
▁Svazu	-10.9554
▁příspěvky	-10.9557
▁sektoru	-10.9557
▁potřebný	-10.9558
▁přírodovědecké	-10.956
▁Mil	-10.9562
ODA	-10.9564
TU	-10.9565
▁Slovensk	-10.9565
▁chorvatské	-10.9565
▁nahradit	-10.9565
▁mezinárodním	-10.9568
▁plynů	-10.9569
▁podílu	-10.957
▁stupni	-10.9571
▁%)	-10.9572
▁dvojí	-10.9573
▁varianty	-10.9576
▁třetina	-10.9578
▁ekonomika	-10.9579
▁srážky	-10.9581
▁potenciální	-10.9584
skutk	-10.9591
▁řeky	-10.9592
▁kup	-10.9593
▁představitel	-10.9594
▁tvořen	-10.9594
ějším	-10.9595
▁napsat	-10.9595
staral	-10.9596
▁jediného	-10.9596
▁příjemné	-10.9596
▁fin	-10.9597
▁obchodů	-10.9601
▁nedostal	-10.9604
▁plynu	-10.9605
▁španělské	-10.9605
ezi	-10.9606
vnějších	-10.9614
▁průzkumu	-10.9618
▁styku	-10.9619
▁ztrátu	-10.962
▁cíli	-10.9621
letí	-10.9621
▁studenti	-10.9624
▁určitém	-10.9626
vesel	-10.9632
▁společném	-10.9633
oma	-10.9634
▁důchodové	-10.9634
▁Velm	-10.9634
▁Britsk	-10.9646
▁spokojeni	-10.9648
▁výrazné	-10.965
▁společenský	-10.9651
▁troj	-10.9651
▁jeví	-10.9651
▁kontrola	-10.9661
▁hovor	-10.9662
▁změnila	-10.9664
▁Jac	-10.9668
,4	-10.967
▁pořádá	-10.9675
▁rychlý	-10.9677
▁nezávisl	-10.9682
▁časopis	-10.9686
kových	-10.9687
▁platný	-10.9688
vát	-10.9689
mět	-10.969
▁působící	-10.9692
▁pozná	-10.9697
▁nájemní	-10.9709
▁důsledně	-10.9712
▁založena	-10.9715
▁specializované	-10.9716
chodu	-10.9719
▁most	-10.9723
▁detail	-10.9727
árně	-10.9728
▁Eva	-10.973
▁nějakým	-10.9733
třel	-10.9734
▁hrála	-10.9741
▁nález	-10.9742
▁All	-10.9743
▁osoba	-10.9745
▁telefonu	-10.9746
ovského	-10.9746
▁dosah	-10.9747
dění	-10.9752
kovat	-10.9756
▁záruk	-10.9757
▁Ří	-10.9762
▁hlubo	-10.9764
▁menším	-10.9774
▁dám	-10.9775
ováni	-10.9775
▁Martina	-10.9786
▁zájemců	-10.9791
▁zjednoduš	-10.9791
▁devadesát	-10.9793
▁Podnikatel	-10.9797
rám	-10.9801
▁75	-10.9802
▁OD	-10.9806
▁lék	-10.9807
ána	-10.9817
▁vedoucího	-10.9817
▁přesun	-10.9817
LU	-10.9818
▁formul	-10.9833
▁dobrovoln	-10.9836
▁zabezpeč	-10.9836
povídá	-10.9837
▁Společn	-10.9848
elná	-10.9858
jíždějí	-10.9858
race	-10.9862
▁humor	-10.9865
▁Chomutov	-10.9865
▁Ukrajiny	-10.9865
▁Zvláštní	-10.9865
▁církví	-10.9865
▁deficit	-10.9865
▁dveří	-10.9865
▁galerie	-10.9865
▁hřiště	-10.9865
▁náboženství	-10.9865
▁orchestr	-10.9865
▁ovladač	-10.9865
▁páteční	-10.9865
▁upozorňuje	-10.9865
▁určuje	-10.9865
▁IBM	-10.9865
▁Koaliční	-10.9865
▁držitel	-10.9865
▁naznačil	-10.9865
▁ovlivňuje	-10.9865
▁patrné	-10.9865
▁priorit	-10.9865
▁vrstev	-10.9865
▁šetření	-10.9865
▁burze	-10.9865
▁oxidu	-10.9865
▁usilovat	-10.9865
▁podporou	-10.9866
▁produktivit	-10.9866
▁pronájem	-10.9866
▁fáze	-10.9866
▁sdělovací	-10.9866
▁příliv	-10.9866
▁královn	-10.9866
▁vzestup	-10.9866
▁nedaleko	-10.9866
nutně	-10.9866
▁filozofie	-10.9866
vázat	-10.9866
▁zámku	-10.9866
▁naposledy	-10.9866
▁Formát	-10.9866
▁potrestán	-10.9866
▁1997	-10.9866
▁hutní	-10.9866
▁integraci	-10.9866
▁těžb	-10.9866
▁myšlenkou	-10.9866
▁svátky	-10.9866
▁slabší	-10.9867
▁manželství	-10.9867
▁srdeční	-10.9867
▁šíření	-10.9867
▁sběr	-10.9867
▁podnicích	-10.9867
▁obrázků	-10.9867
▁duše	-10.9867
▁myšlenku	-10.9867
▁přežití	-10.9868
▁vážný	-10.9868
▁Původně	-10.9868
▁sílu	-10.9868
▁Týr	-10.9868
▁nehodlá	-10.9868
▁obnovu	-10.9869
▁nízko	-10.9869
▁podnět	-10.9869
▁odhadnout	-10.9869
▁strav	-10.987
▁testování	-10.9872
▁prosazovat	-10.9872
▁stanovit	-10.9872
▁znamenalo	-10.9873
▁Komis	-10.9873
stupují	-10.9874
▁zdanění	-10.9874
najdeme	-10.9874
hodlají	-10.9876
▁sledování	-10.9876
▁olej	-10.9878
daly	-10.9878
▁potíží	-10.9879
▁doporučení	-10.9882
▁zákazníci	-10.9883
▁profil	-10.9883
▁posoudit	-10.9883
▁silnější	-10.9884
▁soustředění	-10.9887
▁akcionářů	-10.9887
▁soust	-10.9888
▁Labem	-10.9888
▁Nejde	-10.9889
▁Irsk	-10.989
▁pouště	-10.9891
▁následky	-10.9891
▁přehlídky	-10.9892
▁tvrdě	-10.9893
padal	-10.9896
▁jezer	-10.9896
▁registr	-10.9898
▁jádro	-10.99
▁přístrojů	-10.99
▁doklad	-10.99
▁příslušníků	-10.9902
▁Správ	-10.9904
▁Nikd	-10.9904
ičtější	-10.9906
▁úrok	-10.9907
▁úředníků	-10.9908
▁přinese	-10.9908
bírá	-10.9914
▁americkém	-10.9914
▁úlohu	-10.9914
▁jistotu	-10.9914
▁půd	-10.9915
▁vládou	-10.9917
▁začínající	-10.9919
▁Františk	-10.992
▁desetin	-10.9921
▁soudce	-10.9922
▁Karl	-10.993
rez	-10.9934
jte	-10.9934
▁Naši	-10.9938
▁staví	-10.9938
▁zápisu	-10.9943
▁experti	-10.9944
▁výběrové	-10.9945
▁25.	-10.9946
▁moravsk	-10.9947
▁svobod	-10.9948
▁náročné	-10.9948
padla	-10.9951
▁Platí	-10.9953
reform	-10.9953
▁Svat	-10.9955
▁předpoklady	-10.9956
▁válka	-10.9956
▁zachoval	-10.9957
▁Celk	-10.9963
▁lidové	-10.9967
▁italský	-10.9967
▁výbuchu	-10.9968
▁díly	-10.9973
▁nasazení	-10.9973
▁hotelů	-10.9976
▁Les	-10.9978
▁subjekt	-10.9985
▁sbor	-10.9987
hlásí	-10.9989
▁orgán	-10.9989
▁Kovo	-10.9992
▁Byli	-10.9993
▁papírů	-10.9993
valy	-10.9994
▁týmem	-10.9997
▁technika	-10.9997
▁ikon	-10.9997
▁fotbalu	-11.0001
poví	-11.0001
▁technického	-11.0003
▁obran	-11.0004
▁2,	-11.0005
lic	-11.0007
hem	-11.001
kování	-11.001
▁náklad	-11.0011
▁spory	-11.0013
▁zobraz	-11.0013
▁snahy	-11.0014
▁výstavu	-11.0015
▁vrcholu	-11.0022
▁ziskem	-11.0024
▁slovník	-11.0028
▁světlo	-11.0029
▁komor	-11.0032
nechává	-11.0034
části	-11.0036
ících	-11.0038
▁sbír	-11.0042
▁úz	-11.0043
▁měnové	-11.0044
▁osobě	-11.0053
▁21.	-11.0055
▁Sta	-11.0058
▁předvedl	-11.0059
▁cel	-11.0064
▁školení	-11.0064
čela	-11.0064
▁olympiád	-11.0066
bran	-11.0073
▁Char	-11.0077
▁agentur	-11.0077
▁zákazu	-11.0078
,6	-11.0079
▁kritické	-11.0089
▁užit	-11.009
▁chová	-11.0091
▁procento	-11.0091
▁typické	-11.0095
vest	-11.0096
▁skladb	-11.0105
▁Malý	-11.0106
▁nedělní	-11.0107
▁vzdálené	-11.0107
▁div	-11.0107
▁vstupní	-11.011
▁smut	-11.011
▁nájem	-11.0114
▁Výhod	-11.0114
▁programem	-11.0116
▁vlast	-11.012
▁připraveni	-11.0126
▁kulturních	-11.0133
▁66	-11.0135
hel	-11.0142
▁Chyb	-11.0146
▁zabývají	-11.0155
▁zaměstnanec	-11.016
▁podklad	-11.0172
▁kabinet	-11.0173
▁rozpor	-11.0174
▁určena	-11.0176
▁ostr	-11.0176
▁poskytnut	-11.0177
▁sortiment	-11.0178
▁vložit	-11.0178
▁republiku	-11.0178
bíral	-11.018
▁trvalo	-11.0181
▁Možnost	-11.0181
▁rozšířen	-11.0182
skými	-11.0185
▁Mat	-11.0186
▁červené	-11.0188
▁trati	-11.0189
BA	-11.019
lip	-11.0195
▁daný	-11.0197
▁hloubk	-11.0205
▁okrese	-11.0208
▁Kol	-11.0209
▁obrazovk	-11.0209
cházejí	-11.0213
▁14.	-11.0214
▁malého	-11.0214
▁snížen	-11.0217
▁posl	-11.0217
▁našim	-11.022
▁vzhled	-11.0221
▁většího	-11.0232
▁utrpěl	-11.0232
vyšších	-11.0239
▁tráv	-11.0239
ŘÍ	-11.0244
▁specifik	-11.0246
▁architekt	-11.0247
bývající	-11.0248
▁Rakušan	-11.025
▁Thajsk	-11.025
▁Vedoucí	-11.025
▁dodatečně	-11.025
▁důležitá	-11.025
▁fotoaparát	-11.025
▁franků	-11.025
▁inspekce	-11.025
▁instalace	-11.025
▁konstrukce	-11.025
▁majetkem	-11.025
▁pohledávek	-11.025
▁redakce	-11.025
▁upozornit	-11.025
▁vyšetření	-11.025
▁Bejbl	-11.025
▁stupňů	-11.025
▁zoufal	-11.025
▁pojmů	-11.025
▁Průměrn	-11.025
▁zkratk	-11.025
▁stovek	-11.025
▁vyvinul	-11.025
▁dvojnásobn	-11.025
▁přežít	-11.025
▁DPH	-11.025
▁vojsk	-11.025
▁sehrál	-11.025
▁audio	-11.025
▁jedince	-11.025
▁certifikát	-11.025
▁Asociac	-11.025
▁uváděn	-11.025
▁Řešení	-11.025
▁zaplatil	-11.025
▁chápat	-11.025
▁Prostě	-11.025
▁kvalifikační	-11.025
▁1984	-11.0251
▁sněhov	-11.0251
▁restaurace	-11.0251
▁formální	-11.0251
▁1968	-11.0251
▁nejmenší	-11.0251
▁Rád	-11.0251
▁1986	-11.0252
▁nezměnil	-11.0252
▁nohy	-11.0252
▁poznatků	-11.0252
▁složité	-11.0252
▁německá	-11.0252
▁spolupracovat	-11.0253
▁května	-11.0253
▁Tedy	-11.0253
▁kvalifikovan	-11.0254
▁nápis	-11.0254
nutit	-11.0255
▁3,5	-11.0255
▁marně	-11.0255
▁žáků	-11.0255
▁III	-11.0256
vádějí	-11.0256
EC	-11.0256
▁Bill	-11.0256
▁rychlejší	-11.0256
▁Vítěz	-11.0257
▁sláv	-11.0258
▁Sovětský	-11.0258
▁legislativní	-11.0258
▁podzemní	-11.0259
▁DEM	-11.0259
▁Belgie	-11.0261
▁užitek	-11.0261
▁krátký	-11.0261
▁reagoval	-11.0262
▁upravit	-11.0262
▁platební	-11.0262
▁nájemce	-11.0262
▁Potom	-11.0263
▁vyvolat	-11.0264
▁manželka	-11.0264
▁odstranění	-11.0265
▁ruku	-11.0266
▁volbami	-11.0267
elů	-11.0267
▁mírový	-11.0268
▁rozložení	-11.0269
▁bilance	-11.0272
▁oznámení	-11.0274
▁Nejen	-11.0274
2.	-11.0276
▁měny	-11.0277
▁potřebu	-11.0277
ávají	-11.0278
▁jevů	-11.028
usi	-11.0281
▁aktivita	-11.0282
▁Jedná	-11.0287
▁Lux	-11.0287
▁elektřiny	-11.0287
▁sociálně	-11.0287
rp	-11.0289
▁Nejdřív	-11.0289
14	-11.0289
▁osobností	-11.029
▁výstavbu	-11.0292
▁poslanecké	-11.0293
▁hrubého	-11.0295
▁týdeník	-11.0297
▁Či	-11.0298
▁návštěvy	-11.03
▁ostrovy	-11.03
▁51	-11.0303
▁Japonsku	-11.0303
▁Německem	-11.0303
sáhl	-11.0305
▁Výstava	-11.0307
tání	-11.0308
▁samotný	-11.0308
▁demokratů	-11.0311
PS	-11.0312
tisícov	-11.0313
▁linky	-11.0315
▁doplň	-11.0315
▁údaj	-11.0316
▁koalici	-11.0316
▁základním	-11.0321
▁vedlo	-11.0324
▁stejná	-11.0325
▁kapacity	-11.0326
▁uplynulý	-11.0327
čila	-11.0329
▁bezprostřední	-11.0331
▁svěřen	-11.0331
▁centrál	-11.0332
▁oborů	-11.0332
▁polohy	-11.0334
▁půdu	-11.0335
▁Mas	-11.0335
▁orgánu	-11.0335
cová	-11.0335
čan	-11.0339
▁trvalé	-11.0341
DO	-11.0344
ED	-11.0345
tisknout	-11.0348
▁výběrem	-11.0352
▁oceánu	-11.0354
▁rozhlas	-11.0354
▁Nic	-11.0356
tický	-11.0358
▁nastavit	-11.0359
▁monitoru	-11.036
▁velitel	-11.0376
▁obvodu	-11.0377
▁fotbalových	-11.0378
roj	-11.038
dáme	-11.038
▁primátora	-11.0382
ějších	-11.0383
vající	-11.0384
▁Kam	-11.0386
▁váh	-11.0386
▁skutečností	-11.0393
▁vůdce	-11.0394
▁skupinou	-11.0394
OST	-11.0396
ářské	-11.0397
▁konflikt	-11.0407
▁of	-11.0407
▁evropského	-11.041
▁specializovan	-11.041
▁skryt	-11.041
▁venkov	-11.041
▁49	-11.0412
▁rozv	-11.0413
▁obdobné	-11.0418
cházelo	-11.0421
▁řek	-11.0422
▁učí	-11.0422
▁dokumenty	-11.0423
▁Rady	-11.0423
▁metru	-11.0424
▁placen	-11.0429
▁šedesáti	-11.043
▁Sol	-11.0434
▁pat	-11.0436
▁zvukové	-11.0439
▁sportovních	-11.0439
▁700	-11.044
svědčil	-11.044
▁zakladatel	-11.0443
▁Met	-11.0443
▁základy	-11.0443
▁vím	-11.0447
prodej	-11.0447
▁hvězdy	-11.0448
▁vzniknou	-11.0448
▁Ste	-11.0454
zákon	-11.0459
ovce	-11.0461
▁plány	-11.0466
▁připustil	-11.047
▁číst	-11.0474
snad	-11.0475
▁mořský	-11.0476
▁zdravotnický	-11.0481
▁Norsk	-11.0487
▁vzrůst	-11.0495
ÁT	-11.0498
▁současném	-11.0499
▁Bílé	-11.0499
▁císař	-11.0504
▁rozvoji	-11.0511
▁předal	-11.0516
▁historick	-11.052
▁podstatný	-11.052
▁zlaté	-11.0526
▁rozliš	-11.0526
cal	-11.0528
prázdn	-11.053
ork	-11.053
▁Boj	-11.0537
▁listy	-11.0537
▁silnic	-11.0537
počíta	-11.0538
▁známe	-11.0539
▁Jediný	-11.0541
▁vyloučen	-11.0543
▁podrob	-11.0543
ess	-11.055
izované	-11.055
▁stole	-11.0551
ini	-11.0551
▁paliv	-11.0553
▁dolar	-11.0554
▁délk	-11.0557
▁dodavatele	-11.0559
▁Ben	-11.056
▁alkohol	-11.0567
▁zápis	-11.0568
díl	-11.0569
▁fotbalov	-11.0571
▁dozvěděl	-11.0578
89	-11.058
jedna	-11.058
hraje	-11.058
▁původním	-11.058
▁rozvod	-11.059
dají	-11.0594
▁CS	-11.0597
▁smí	-11.0598
hruba	-11.0599
poslední	-11.06
žijí	-11.06
▁konečné	-11.0601
▁Stran	-11.0601
▁klientů	-11.0603
místě	-11.0604
▁vybírá	-11.0607
▁Celkov	-11.0612
▁ozdob	-11.0618
▁Nor	-11.062
▁Motor	-11.0621
▁cit	-11.0625
vedli	-11.0626
▁minuty	-11.0628
legislativ	-11.0629
▁23.	-11.0629
CA	-11.063
▁motocykl	-11.0631
▁filozof	-11.0631
70	-11.0631
▁malým	-11.0632
▁uvedeno	-11.0633
▁64	-11.0636
▁doporučuje	-11.0638
▁britsk	-11.0645
▁Stal	-11.0647
▁EuroTel	-11.065
▁domnívají	-11.065
▁energetik	-11.065
▁firmám	-11.065
▁hovořit	-11.065
▁komponent	-11.065
▁naštěstí	-11.065
▁nežádoucí	-11.065
▁ovlivňují	-11.065
▁posuzovat	-11.065
▁převzít	-11.065
▁spoluhráč	-11.065
▁uplatnit	-11.065
▁zázemí	-11.065
▁brambor	-11.065
▁odlišný	-11.065
▁označuje	-11.065
▁Poborský	-11.065
▁Sociální	-11.065
▁nevědí	-11.065
▁kamarád	-11.065
▁redaktor	-11.065
▁viditeln	-11.065
▁Domácí	-11.065
▁Musel	-11.065
▁učinit	-11.065
▁zásilk	-11.065
▁připomínk	-11.065
▁pokoušel	-11.065
▁nestačil	-11.065
▁sněžení	-11.065
▁nejrychlejší	-11.065
▁Šéf	-11.065
▁Slavii	-11.065
▁prodlení	-11.065
▁forem	-11.065
▁slyšet	-11.065
▁škál	-11.065
▁ztracen	-11.065
▁vracet	-11.065
▁rysy	-11.065
▁dlouhodobý	-11.0651
▁stránek	-11.0651
▁obrazovce	-11.0651
▁dubnu	-11.0651
▁radikální	-11.0651
▁připravena	-11.0651
▁efektivní	-11.0651
▁záloh	-11.0651
▁Grand	-11.0651
▁studií	-11.0651
▁podílejí	-11.0651
▁Objekt	-11.0652
▁přál	-11.0652
▁občanství	-11.0652
▁Vesel	-11.0653
▁zjistí	-11.0653
▁přizpůsobit	-11.0653
▁dohad	-11.0654
▁obrázku	-11.0655
▁Číny	-11.0656
▁odpovědn	-11.0656
ica	-11.0656
▁vstupné	-11.0658
▁fronty	-11.066
▁Okresní	-11.066
▁stavbu	-11.066
▁pracovnice	-11.0661
▁češt	-11.0661
▁zřetel	-11.0661
▁Všechno	-11.0662
▁rejstříku	-11.0662
▁převoz	-11.0662
36	-11.0664
▁písemně	-11.0664
▁dobách	-11.0665
▁podnikat	-11.0665
▁každodenní	-11.0666
▁klima	-11.0667
▁plyne	-11.0669
▁demokraté	-11.0669
▁prodloužení	-11.0669
▁regulace	-11.0669
kryl	-11.0669
ukce	-11.067
▁osvobození	-11.067
cími	-11.0671
▁Druhou	-11.0672
▁souhrn	-11.0672
▁včerejším	-11.0674
▁zaznamenal	-11.0674
▁Roman	-11.0675
▁Kalvoda	-11.0675
▁Zelen	-11.0676
▁zpěvák	-11.0677
▁Wimbledonu	-11.0679
▁znalostí	-11.068
▁Spo	-11.068
▁Dohod	-11.0681
▁ukládání	-11.0681
▁čistý	-11.0682
ňoval	-11.0682
▁teplotě	-11.0682
▁summitu	-11.0683
▁kritéria	-11.0683
▁předmětů	-11.0683
▁zbrojní	-11.0684
▁orientaci	-11.0687
▁nemovitosti	-11.069
▁zvěř	-11.0694
▁náhradu	-11.0694
▁Fotbal	-11.0695
▁výjimky	-11.0695
splnění	-11.0696
žádají	-11.0701
▁poslal	-11.0705
▁obchodníci	-11.0706
▁tvrd	-11.0707
▁překvapil	-11.0707
▁chci	-11.0708
▁úplné	-11.071
▁předměty	-11.0711
VI	-11.0711
HA	-11.0712
▁tvaru	-11.0713
▁ztrátou	-11.0715
▁módní	-11.0715
sion	-11.0715
▁jednalo	-11.0718
▁vůz	-11.072
▁stěn	-11.072
▁resortu	-11.0728
▁smích	-11.0729
▁snažili	-11.0734
jal	-11.0734
▁Pražského	-11.0737
▁divu	-11.074
▁sboru	-11.0741
tických	-11.0741
▁sedí	-11.0743
▁sjezdu	-11.0748
▁Dan	-11.0748
▁zvuku	-11.0749
▁bolest	-11.075
▁odbory	-11.0752
▁zrušen	-11.0752
▁věty	-11.0755
▁vyhlídk	-11.0756
▁Mc	-11.0756
▁dávk	-11.0757
▁návštěva	-11.0757
tp	-11.076
▁všeobecné	-11.0761
▁požár	-11.0763
▁ClipArt	-11.0766
nin	-11.0768
▁celkovém	-11.0768
▁světla	-11.0768
▁představil	-11.077
▁fa	-11.0774
▁13.	-11.0778
▁textové	-11.078
▁konto	-11.0782
▁prvé	-11.0785
▁kritick	-11.0786
▁známých	-11.0787
▁zájm	-11.0787
konala	-11.0791
▁Michaela	-11.0792
▁sestavení	-11.0794
▁uměle	-11.0794
▁mapy	-11.0795
▁samot	-11.0796
▁")	-11.0797
enství	-11.0797
▁kandidáty	-11.0801
▁důkazy	-11.0802
▁úspory	-11.0802
▁planety	-11.0805
▁charakteru	-11.0808
▁bojů	-11.0808
▁zdi	-11.0809
▁domluv	-11.0811
▁některý	-11.0811
▁47	-11.0813
▁Ostravar	-11.0817
▁německém	-11.0819
▁příspěvk	-11.0826
rušení	-11.0826
▁úkoly	-11.0828
▁Moh	-11.0829
▁rud	-11.0832
▁špičkové	-11.0832
ptal	-11.0833
▁Čechů	-11.0834
▁světov	-11.0836
▁hráli	-11.0838
▁tip	-11.0838
▁olympijsk	-11.084
IST	-11.0842
▁vyhlášen	-11.0844
▁předchozích	-11.0845
noví	-11.0853
dom	-11.0857
ston	-11.0858
▁Die	-11.0862
okr	-11.0866
▁investorů	-11.0867
▁maďarský	-11.088
lidov	-11.0887
▁metra	-11.0897
▁evropském	-11.0898
▁skládá	-11.09
▁drah	-11.0903
▁procesor	-11.0908
dával	-11.0909
vice	-11.091
vládne	-11.0912
▁kritik	-11.0914
▁úsek	-11.0917
stává	-11.0924
ingu	-11.0928
▁naším	-11.0935
▁chodb	-11.0936
▁křiv	-11.0936
▁držet	-11.0937
kazují	-11.0943
▁Pen	-11.0947
▁Olomouc	-11.0947
▁účastník	-11.0951
▁Sovětském	-11.0951
OP	-11.0952
▁koalic	-11.0954
psaný	-11.0956
praví	-11.0957
▁typický	-11.096
Ile	-11.0961
▁okolnost	-11.0962
▁přestáv	-11.0962
▁vstoupit	-11.0963
▁podílí	-11.0964
▁pracovníka	-11.0964
▁rozumn	-11.097
▁modern	-11.0971
▁výkonů	-11.0975
▁prach	-11.0975
▁zhorš	-11.0976
lární	-11.0976
bylo	-11.0981
▁red	-11.0982
▁Ján	-11.0983
▁obyvatele	-11.0983
▁magistrát	-11.0983
▁vysoko	-11.0984
vané	-11.0988
▁krajan	-11.0998
▁Pražský	-11.1
▁mód	-11.1
vých	-11.1001
far	-11.1003
▁volejbal	-11.1009
▁Rozhod	-11.101
▁autora	-11.1017
▁nedal	-11.1018
▁uživatelů	-11.1021
istický	-11.1024
▁scénář	-11.1025
▁šestnácti	-11.1027
▁objeven	-11.103
▁kart	-11.1031
▁sklo	-11.1034
levo	-11.1035
▁Jedn	-11.1036
▁mechanismu	-11.1038
▁vyvíj	-11.1041
▁chyt	-11.1042
rozměr	-11.105
šetřit	-11.1052
▁distribu	-11.1055
▁oleje	-11.1055
▁objektiv	-11.1055
hodnotit	-11.1056
schválila	-11.1056
▁kontakt	-11.1058
▁jevy	-11.1059
ečná	-11.1059
čern	-11.1059
▁vámi	-11.106
▁společník	-11.1061
▁hospod	-11.1063
▁statut	-11.1067
▁nádor	-11.1067
▁chlap	-11.1067
mýšlí	-11.1067
▁CADKON	-11.1067
▁Finanční	-11.1067
▁Intergraph	-11.1067
▁Lebeď	-11.1067
▁Pithart	-11.1067
▁Srbů	-11.1067
▁Zjuganov	-11.1067
▁asistent	-11.1067
▁bližší	-11.1067
▁církvi	-11.1067
▁fenomén	-11.1067
▁jazz	-11.1067
▁konferencí	-11.1067
▁nejstarší	-11.1067
▁nábytku	-11.1067
▁nárůst	-11.1067
▁odpovědí	-11.1067
▁ovlivněn	-11.1067
▁reagovat	-11.1067
▁schůzi	-11.1067
▁softwaru	-11.1067
▁strategii	-11.1067
▁zpátky	-11.1067
▁zálivu	-11.1067
▁říjnu	-11.1067
▁žádoucí	-11.1067
▁Mazda	-11.1067
▁splatnosti	-11.1067
▁vyznačuj	-11.1067
▁nezaměstnaných	-11.1067
▁nízká	-11.1067
▁zpomal	-11.1067
▁dokáží	-11.1067
▁dědictví	-11.1067
▁technologii	-11.1067
▁uzavírá	-11.1067
▁Vídni	-11.1067
▁splnit	-11.1067
▁Mencl	-11.1067
▁zůstanou	-11.1067
▁zazněl	-11.1067
▁navrhnout	-11.1067
▁kombinaci	-11.1067
▁stůl	-11.1067
▁diagram	-11.1067
▁rozsáhlý	-11.1067
▁Praktick	-11.1067
▁zařadil	-11.1067
▁maximum	-11.1067
▁přednášk	-11.1067
▁Charles	-11.1067
▁komunikaci	-11.1067
▁kondom	-11.1067
▁délce	-11.1067
▁vrchní	-11.1068
▁ligové	-11.1068
▁vytvářejí	-11.1068
▁otevírá	-11.1068
▁nastat	-11.1069
▁okresů	-11.1069
▁bance	-11.107
▁podmíněn	-11.107
▁zahrnut	-11.107
▁interval	-11.107
▁komunální	-11.107
▁otec	-11.107
charakterizuj	-11.107
▁zvolit	-11.107
▁kreslení	-11.1072
▁vyrovnal	-11.1073
biologie	-11.1073
▁odmítají	-11.1073
▁nejvýše	-11.1073
▁blesk	-11.1074
▁Brazílie	-11.1075
▁Stručně	-11.1076
▁Polsko	-11.1076
▁živočichů	-11.1076
▁ponechat	-11.1077
▁pohybovat	-11.1077
stupující	-11.1078
▁kilogramů	-11.1079
▁obchodování	-11.1079
▁Vstup	-11.1081
kryje	-11.1082
▁respektovat	-11.1082
▁odejít	-11.1082
▁služební	-11.1084
▁dočasně	-11.1089
být	-11.109
▁závodní	-11.1092
▁pádu	-11.1092
26	-11.1095
▁Postup	-11.1095
▁Chci	-11.1095
▁energetické	-11.1096
▁postižených	-11.1096
▁vkladů	-11.1096
oprvé	-11.1097
▁kontrole	-11.1098
▁uvede	-11.1099
▁potřebujeme	-11.1102
▁zakázky	-11.1102
▁dokončení	-11.1102
▁jistou	-11.1103
▁poskytování	-11.1103
▁statistické	-11.1106
pisuje	-11.1107
▁uložit	-11.1109
▁padesátých	-11.1111
▁zastavení	-11.1111
▁vyhlášení	-11.1115
▁zaplacení	-11.1118
▁účinnosti	-11.1124
novými	-11.1124
▁představoval	-11.1125
▁kongresu	-11.1125
IP	-11.1129
krás	-11.1129
▁projeví	-11.1129
▁vozidla	-11.1132
▁hrd	-11.1132
▁Kniha	-11.1132
▁Spor	-11.1133
▁schématu	-11.1134
příkladu	-11.1135
▁titulů	-11.1135
▁trpí	-11.1137
▁míra	-11.1138
▁KB	-11.1141
▁předcházel	-11.1143
▁katolické	-11.1145
▁niž	-11.1146
NO	-11.1147
▁probíhal	-11.1148
▁nemocný	-11.1154
▁Bank	-11.1156
▁řešením	-11.1157
▁lidu	-11.1157
▁valné	-11.116
▁listů	-11.116
▁šíř	-11.1161
▁specifické	-11.1166
▁zaměřen	-11.1171
▁rodinu	-11.1174
▁Bre	-11.1176
▁bio	-11.1179
▁jasný	-11.1181
▁hale	-11.1182
iletá	-11.1184
▁testy	-11.1186
▁předpokladu	-11.1188
hodit	-11.1188
ker	-11.119
▁vzá	-11.1191
losování	-11.1192
▁nápady	-11.1193
▁dokázali	-11.1198
ďte	-11.1206
▁resort	-11.1209
▁čtenáři	-11.1219
▁obtížně	-11.1221
eme	-11.1221
▁sezón	-11.1222
▁určení	-11.1222
▁brankáře	-11.1226
▁uplynul	-11.1226
lci	-11.1227
▁růstem	-11.123
▁sousedů	-11.1233
▁Jistě	-11.1234
▁tváří	-11.1237
Severoatlantické	-11.1238
▁hotely	-11.1239
▁fotograf	-11.124
tiky	-11.1241
▁zabývající	-11.1246
▁reprezentanti	-11.1248
▁zajímavý	-11.1253
▁snaz	-11.1253
pochyby	-11.1255
▁britský	-11.1255
▁Než	-11.1256
▁jedenácti	-11.1257
▁chlad	-11.1257
▁bývají	-11.1257
71	-11.1259
▁veden	-11.1259
▁společných	-11.1262
▁objevily	-11.1264
▁podnikatelsk	-11.1269
▁velkém	-11.127
▁neměly	-11.1271
▁přijímá	-11.1273
▁šla	-11.1276
▁přijala	-11.1276
▁reklam	-11.128
▁Svobod	-11.128
▁vědu	-11.128
▁spotřebitele	-11.1282
:3	-11.1284
loni	-11.1284
▁stejných	-11.1285
▁osudu	-11.1288
▁odpovídal	-11.1291
▁Prvním	-11.1293
▁zvýšila	-11.1293
▁vznikající	-11.1298
▁odmítli	-11.1303
▁pravidelné	-11.1309
▁stála	-11.1313
▁bíl	-11.1313
▁jazyka	-11.1315
▁Har	-11.1322
98	-11.1324
▁jest	-11.1324
▁klíče	-11.1326
▁nazýva	-11.133
▁zeměmi	-11.1331
▁únik	-11.1333
▁ÚV	-11.1336
▁pokusy	-11.1337
▁provede	-11.1338
▁zvukov	-11.1338
▁našli	-11.134
▁přidal	-11.134
▁schéma	-11.135
kají	-11.1352
▁Johna	-11.1353
▁dosti	-11.1355
▁účt	-11.1361
▁zahájen	-11.1361
▁vázán	-11.1366
▁zvířata	-11.1367
▁expert	-11.1369
ební	-11.137
pustili	-11.1376
▁kraj	-11.1386
▁odchod	-11.1389
▁Paříž	-11.1389
▁zmizel	-11.1396
▁Volb	-11.1399
▁znak	-11.1401
▁jmenuje	-11.1408
▁divák	-11.1408
▁vládních	-11.1416
▁každým	-11.1418
▁astronomi	-11.1419
▁katolick	-11.1421
kupovat	-11.1422
▁hrdin	-11.1423
▁1994.	-11.1426
▁dres	-11.1427
díval	-11.1428
▁novinářů	-11.1428
▁nevěděl	-11.1429
▁knihovn	-11.143
▁nemám	-11.143
▁dividend	-11.1431
▁hráčem	-11.1431
▁Pozor	-11.1434
stávat	-11.1435
▁cestující	-11.1436
dová	-11.1437
iner	-11.1437
▁sedmnáct	-11.1437
▁požadovaný	-11.1438
▁Zemana	-11.1443
▁urychlen	-11.1444
▁beze	-11.1446
▁pout	-11.1448
▁návrhů	-11.1453
▁získává	-11.1454
▁prováděn	-11.1456
▁teplot	-11.1457
▁pokládá	-11.1458
▁konkrétním	-11.1461
▁pracující	-11.1465
čnost	-11.1466
▁duch	-11.1467
může	-11.1468
▁Host	-11.1472
ivost	-11.1473
▁jízd	-11.1474
▁císaře	-11.1474
tika	-11.1478
▁nositel	-11.148
celku	-11.148
▁Invest	-11.1485
následuj	-11.1485
nášejí	-11.1497
▁říkají	-11.1498
▁pozdě	-11.1499
▁nižších	-11.1501
dostatečnou	-11.1502
střílel	-11.1502
▁Bratislava	-11.1502
▁Demokratick	-11.1502
▁Majitel	-11.1502
▁Nedvěd	-11.1502
▁Ostatní	-11.1502
▁Počítač	-11.1502
▁Tigrid	-11.1502
▁byznys	-11.1502
▁charakteristik	-11.1502
▁cizince	-11.1502
▁galerii	-11.1502
▁hlubší	-11.1502
▁hypotéz	-11.1502
▁kompetence	-11.1502
▁konstatuje	-11.1502
▁literární	-11.1502
▁metropole	-11.1502
▁nominální	-11.1502
▁polojasno	-11.1502
▁požadoval	-11.1502
▁požadovat	-11.1502
▁semifinále	-11.1502
▁složek	-11.1502
▁strategií	-11.1502
▁udržuje	-11.1502
▁vojáci	-11.1502
▁vyhovuje	-11.1502
▁zveřejnil	-11.1502
▁šablon	-11.1502
▁Dříve	-11.1502
▁kodex	-11.1502
▁nejmodernější	-11.1502
▁nejznámější	-11.1502
▁nevidí	-11.1502
▁stránky	-11.1502
▁vystřídal	-11.1502
▁údolí	-11.1502
▁divadle	-11.1502
▁otevřít	-11.1502
▁rytíř	-11.1502
▁doporučil	-11.1502
▁patřičn	-11.1502
▁poplatek	-11.1502
▁počínaj	-11.1502
▁představenstva	-11.1502
▁vyrovnat	-11.1502
▁Komerčn	-11.1502
▁Jugoslávie	-11.1502
▁stoupá	-11.1502
▁Prodej	-11.1502
▁čtvrteční	-11.1502
▁nízký	-11.1502
▁NDR	-11.1502
▁štáb	-11.1502
▁nejhorší	-11.1502
▁počkat	-11.1502
▁fotografie	-11.1502
▁Mimo	-11.1502
▁nápoj	-11.1502
povídat	-11.1502
▁nátlak	-11.1502
▁přijme	-11.1502
▁Maďarsku	-11.1502
▁generací	-11.1502
▁malíř	-11.1502
▁reaktor	-11.1502
▁ekonomická	-11.1502
▁bohatství	-11.1503
▁Marie	-11.1503
▁radnici	-11.1503
▁Začal	-11.1503
▁lodi	-11.1503
▁logické	-11.1503
▁vyhnout	-11.1503
▁jezdit	-11.1503
▁nedostatku	-11.1504
▁neděle	-11.1504
▁Ruml	-11.1504
▁Uveden	-11.1504
▁obřad	-11.1504
▁zaručen	-11.1505
▁dešti	-11.1505
▁podobná	-11.1505
▁peset	-11.1506
▁odvet	-11.1507
▁uvědomit	-11.1507
▁cement	-11.1508
7,	-11.1508
▁novinách	-11.1509
▁armádě	-11.1509
▁Africe	-11.1509
▁předcházející	-11.151
▁okresy	-11.151
nášel	-11.1511
▁položky	-11.1511
▁podílet	-11.1512
▁prodejny	-11.1512
▁přelom	-11.1512
▁oborech	-11.1513
▁závazky	-11.1513
▁krut	-11.1513
▁změnám	-11.1514
▁zvaný	-11.1516
▁kvalitou	-11.1516
▁centimetrů	-11.1517
▁figur	-11.1517
▁tabulka	-11.1517
▁uvádějí	-11.1518
▁černo	-11.1518
▁Žid	-11.1518
▁složitý	-11.1519
▁obsluh	-11.1519
▁lev	-11.152
▁nemovitostí	-11.1521
▁verzí	-11.1522
▁ukládá	-11.1522
▁překvapivě	-11.1522
▁členům	-11.1523
▁oddíl	-11.1523
▁dodržování	-11.1523
▁fotbalisté	-11.1524
▁jakož	-11.1529
▁seriálu	-11.1529
▁vyjde	-11.153
▁plánování	-11.153
▁mládeže	-11.1532
▁Rok	-11.1532
▁Dopravní	-11.1532
▁šed	-11.1533
▁průběžn	-11.1535
▁návštěvnost	-11.1535
▁skalní	-11.1535
▁výměnu	-11.1538
▁ocenění	-11.1538
▁elektron	-11.1539
▁Ter	-11.154
▁referendum	-11.1541
▁přidat	-11.1541
▁tvarů	-11.1543
▁Excelu	-11.1544
▁zkušební	-11.1545
dvacet	-11.1547
ručí	-11.1547
▁vozu	-11.1549
▁propojení	-11.155
▁trvání	-11.155
visí	-11.1551
▁potravinářské	-11.1552
pozn	-11.1553
▁hmotnosti	-11.1553
▁trenérů	-11.1556
▁zdravotním	-11.1558
▁novely	-11.156
▁řekne	-11.1563
▁IV	-11.1563
▁přijatelné	-11.1563
▁lesa	-11.1564
▁zubní	-11.1565
▁Budou	-11.1565
bojí	-11.1567
▁spravedliv	-11.1567
▁tvrdil	-11.1569
▁tiskov	-11.1573
▁budově	-11.1574
▁hrou	-11.1574
▁Brod	-11.1574
▁vedoucích	-11.1575
▁materiálem	-11.1578
▁menu	-11.158
▁dolů	-11.1581
▁stadiónu	-11.1582
telné	-11.1583
▁obav	-11.1587
▁klíčový	-11.1588
▁podzimní	-11.1589
▁prázdnin	-11.1589
▁magistrátu	-11.1589
▁Potřebuje	-11.159
▁zřízení	-11.1592
▁von	-11.1593
ecká	-11.1593
▁procesoru	-11.1594
CP	-11.1595
▁energetický	-11.1599
wan	-11.1601
▁dav	-11.1603
▁premiéru	-11.1603
▁narazil	-11.1604
▁vystupuj	-11.1608
▁výhodu	-11.1611
koupil	-11.1612
berg	-11.1612
▁evropským	-11.1615
nili	-11.1616
kova	-11.1618
▁známá	-11.1619
▁komu	-11.162
▁krokem	-11.1625
▁zdát	-11.1625
▁předchozím	-11.1627
▁čínský	-11.1629
▁celostátní	-11.1629
▁SV	-11.1631
▁západním	-11.1631
▁Aleš	-11.1632
▁vloni	-11.1632
▁stávající	-11.1635
▁obchodníků	-11.1639
▁básník	-11.1641
▁odpovědnosti	-11.1641
▁psychiatr	-11.1644
▁klasick	-11.1644
▁jugoslávské	-11.1645
▁projevy	-11.1645
▁strávil	-11.1646
▁podpořit	-11.1652
platí	-11.1653
▁stě	-11.1653
▁rozpočtové	-11.1653
▁obecný	-11.1657
▁studenty	-11.1658
▁dopise	-11.1659
▁zvýšily	-11.166
▁ekologický	-11.1662
▁barva	-11.1664
▁záměry	-11.1664
▁vytvořila	-11.1665
▁sestavy	-11.1666
▁přírodního	-11.1666
▁starého	-11.1666
▁realiz	-11.1669
▁tvůrc	-11.1672
▁prožil	-11.1673
ČNÍ	-11.1675
DOS	-11.1678
▁snadné	-11.1678
▁ředitelem	-11.168
▁úpravu	-11.168
▁5000	-11.1682
▁Ir	-11.1684
▁Případ	-11.1685
▁černý	-11.1685
▁volí	-11.1685
▁rozpad	-11.1685
přijeli	-11.1686
plynul	-11.1688
▁aktivitu	-11.1688
▁muselo	-11.1688
jela	-11.1693
ložili	-11.1694
▁nebezpečný	-11.1695
▁plocha	-11.1699
▁vyv	-11.1702
▁ranní	-11.1707
▁doplňk	-11.1708
razil	-11.171
▁objevili	-11.1711
▁Lá	-11.1713
21	-11.1713
▁správce	-11.1717
▁28.	-11.1721
hlédnout	-11.1721
▁pedagog	-11.1722
45	-11.1724
▁Mag	-11.1735
▁procesy	-11.1736
▁přehledu	-11.1741
otisk	-11.1745
▁43	-11.1751
SM	-11.1753
▁závody	-11.1755
▁syna	-11.1762
tle	-11.1764
▁fyzika	-11.1777
▁bit	-11.1778
▁Spart	-11.1781
▁týdenní	-11.1782
zaměstnan	-11.1785
zývají	-11.1796
▁výtvarné	-11.1801
▁horské	-11.1809
▁jist	-11.181
▁přesvědčiv	-11.1811
lské	-11.1811
zích	-11.182
▁významným	-11.1823
▁konkrétních	-11.1825
PT	-11.1826
▁člověku	-11.183
▁zmíněn	-11.183
▁rozhodnutím	-11.1831
▁kroku	-11.1838
dent	-11.1839
skému	-11.1842
▁krále	-11.1848
▁mak	-11.1851
slyš	-11.1851
▁obrazy	-11.1854
▁minulost	-11.1854
▁datové	-11.1855
▁přesvědč	-11.1855
▁loňsk	-11.1856
▁znalost	-11.186
▁Mé	-11.1861
▁Karlový	-11.1864
▁jednáních	-11.1866
▁Své	-11.1866
plnění	-11.1869
▁260	-11.187
hrají	-11.1872
▁Fond	-11.1872
▁stadión	-11.1873
▁vyskytují	-11.1873
▁údržb	-11.1873
▁okruh	-11.1873
▁ZÁ	-11.1877
▁Vlast	-11.1879
▁zub	-11.1879
▁setká	-11.1882
▁ideál	-11.1883
▁sledoval	-11.1883
měnit	-11.1884
▁Win	-11.1886
▁náročný	-11.1888
▁kuponov	-11.1889
▁texty	-11.1896
▁tramvaj	-11.1898
▁optim	-11.1898
▁Žádn	-11.19
prostřed	-11.1901
▁volebním	-11.1902
▁slab	-11.1907
▁Karlov	-11.1908
▁dřev	-11.1912
ejít	-11.1913
▁Las	-11.1913
68	-11.1914
líbil	-11.1915
▁prac	-11.1916
▁prodejem	-11.1916
▁stín	-11.192
▁99	-11.1922
▁doplněn	-11.1924
▁zpěv	-11.1925
▁převážn	-11.1927
▁grafik	-11.1928
favorit	-11.1931
▁kout	-11.1936
▁přesahuj	-11.1937
▁kamer	-11.194
▁softwarov	-11.1943
ografie	-11.1945
off	-11.1945
▁interak	-11.1947
▁odložen	-11.1949
▁neumí	-11.1952
▁strážník	-11.1953
▁Červen	-11.1956
FIFA	-11.1956
připravoval	-11.1956
▁1982	-11.1956
▁Dienstbier	-11.1956
▁Dosavadní	-11.1956
▁Fischer	-11.1956
▁Manažer	-11.1956
▁Poldi	-11.1956
▁Siemens	-11.1956
▁Skupina	-11.1956
▁biskup	-11.1956
▁design	-11.1956
▁dodávek	-11.1956
▁družstvo	-11.1956
▁družstvu	-11.1956
▁geometrii	-11.1956
▁inflaci	-11.1956
▁naznačuje	-11.1956
▁neomezen	-11.1956
▁neuspěl	-11.1956
▁normálně	-11.1956
▁označován	-11.1956
▁přiznává	-11.1956
▁regenerace	-11.1956
▁rekonstrukce	-11.1956
▁rozšiřuje	-11.1956
▁rámečku	-11.1956
▁seznámit	-11.1956
▁shodují	-11.1956
▁skupenství	-11.1956
▁službě	-11.1956
▁stránku	-11.1956
▁zúčastnit	-11.1956
▁Štědrý	-11.1956
▁Kongres	-11.1956
▁konstrukcí	-11.1956
▁posléze	-11.1956
▁vládnoucí	-11.1956
▁zákrok	-11.1956
▁čistíren	-11.1956
▁Armád	-11.1956
▁Bavor	-11.1956
▁Náklady	-11.1956
▁skromn	-11.1956
▁vazeb	-11.1956
▁vstupenek	-11.1956
▁usiluje	-11.1956
▁uznat	-11.1956
▁zastánc	-11.1956
▁nabídkou	-11.1956
▁žádat	-11.1956
▁velvyslanectví	-11.1956
▁jindy	-11.1956
▁Manžel	-11.1956
▁hrůz	-11.1956
▁vazba	-11.1956
▁leckd	-11.1956
látka	-11.1956
▁Varech	-11.1956
▁Dušan	-11.1956
▁tribunál	-11.1956
▁náhlé	-11.1956
▁Slavia	-11.1956
▁duševní	-11.1957
▁nepotřebuje	-11.1957
▁spoléha	-11.1957
▁transformační	-11.1957
▁salát	-11.1957
▁nesporn	-11.1957
▁směřuje	-11.1957
▁integrace	-11.1957
▁rozmístěn	-11.1957
krácen	-11.1957
▁regulační	-11.1957
▁chuť	-11.1957
▁Rozhodnutí	-11.1957
▁chaos	-11.1957
▁ohně	-11.1958
▁podrobnosti	-11.1958
střelen	-11.1958
▁nejsem	-11.1958
▁strategické	-11.1958
▁Mečiar	-11.1958
▁Závod	-11.1959
▁přejít	-11.1959
▁památek	-11.1959
▁informován	-11.1959
▁tmav	-11.1959
▁záchran	-11.196
ckner	-11.196
allye	-11.196
▁Bělohradský	-11.196
▁kontrolovat	-11.196
▁nedošlo	-11.196
▁turné	-11.196
▁napaden	-11.1961
▁svatb	-11.1961
▁strop	-11.1962
▁Těžko	-11.1962
▁Milán	-11.1963
▁slunce	-11.1963
stanou	-11.1964
Přerov	-11.1965
▁zajistí	-11.1966
▁atmosféra	-11.1967
▁velkoobchod	-11.1967
▁středisko	-11.1968
▁Nadace	-11.1968
▁faktory	-11.1968
▁kůže	-11.197
▁souhlasit	-11.197
▁stíhán	-11.197
▁sedmdesátých	-11.197
těsn	-11.1971
▁sedimentů	-11.1971
▁způsobů	-11.1971
▁Krát	-11.1974
▁plná	-11.1974
▁kdykoliv	-11.1974
▁druhému	-11.1975
▁šedesátých	-11.1976
izaci	-11.1976
▁dokázat	-11.1977
▁pravděpodobné	-11.1977
▁37	-11.1978
▁zaslouží	-11.1978
▁armádu	-11.1978
▁matka	-11.1978
▁upozornění	-11.1979
kurzor	-11.1979
▁ohrožen	-11.1979
▁trvající	-11.198
▁středisku	-11.1982
▁švédské	-11.1983
▁pěkně	-11.1984
▁Los	-11.1984
▁literatury	-11.1985
▁zbytky	-11.1985
ěné	-11.1985
▁výhodn	-11.1988
▁zveřejnění	-11.1991
▁olympiádě	-11.1992
▁moři	-11.1992
▁dostaneme	-11.1993
▁polské	-11.1994
▁spotřebu	-11.1995
nových	-11.1996
tratil	-11.1996
▁násiln	-11.1999
▁dotazník	-11.1999
▁zatčen	-11.2
▁žijí	-11.2
▁závažný	-11.2001
US	-11.2002
▁luxusní	-11.2002
▁Děl	-11.2003
▁interní	-11.2004
▁značná	-11.2009
▁spojů	-11.2009
▁univerzitě	-11.2011
▁mise	-11.2016
▁postupovat	-11.2016
▁slibuje	-11.2017
▁uživatelé	-11.2017
▁sféry	-11.202
▁spojit	-11.2023
▁závažné	-11.2024
íků	-11.2024
▁nešlo	-11.2026
▁senátní	-11.2026
▁dividendy	-11.2031
▁pouč	-11.2033
▁zuby	-11.2033
▁tlakem	-11.2033
▁rozhovorů	-11.2033
▁zničení	-11.2035
▁fotbalista	-11.2035
▁kg	-11.2038
▁činů	-11.2039
potřebě	-11.204
▁olympiády	-11.2041
▁metodou	-11.2043
▁záruky	-11.2044
▁doklady	-11.2044
75	-11.2046
▁popisuje	-11.2047
▁zásadě	-11.2047
▁garant	-11.2048
▁jednal	-11.2049
▁příspěvku	-11.2049
rážky	-11.205
▁alkoholu	-11.2052
▁zodpovědnost	-11.2054
▁zprávě	-11.2056
▁nutnosti	-11.2058
▁výstavní	-11.2061
▁Con	-11.2062
▁mateřské	-11.2063
▁Bulharsk	-11.2064
například	-11.2064
▁spojuje	-11.2064
▁Car	-11.2067
tická	-11.2067
měrně	-11.2068
▁ducha	-11.2068
▁elektro	-11.2069
▁samy	-11.207
▁úspěchem	-11.207
ňovat	-11.2072
▁argumenty	-11.2073
▁Asie	-11.2075
▁Změny	-11.2076
▁Fotbalist	-11.2077
▁silným	-11.2077
▁Lékaři	-11.2079
biologick	-11.208
▁Konce	-11.208
▁pacienti	-11.2084
▁fyzik	-11.2084
▁způsoben	-11.2085
▁obory	-11.2086
▁výnosy	-11.2087
▁stopy	-11.2087
▁přirozený	-11.2087
schopné	-11.2093
▁fakta	-11.2094
▁městského	-11.2094
▁klienty	-11.2101
▁prohráli	-11.2103
▁pojistného	-11.211
▁smluv	-11.2112
▁špatný	-11.2114
▁nepod	-11.2115
▁krátk	-11.2116
▁nastala	-11.2117
▁příslušného	-11.2125
SP	-11.2126
▁psycholog	-11.2127
▁tělesné	-11.2128
▁závěrečném	-11.2129
▁republikou	-11.2133
▁daních	-11.2139
▁DO	-11.2141
▁slovem	-11.2141
▁souboj	-11.2142
▁minutě	-11.2143
večer	-11.2145
▁hračk	-11.2145
▁propad	-11.2146
▁množstvím	-11.2147
▁podepsali	-11.2147
víme	-11.215
tažení	-11.2152
▁top	-11.2156
▁proudu	-11.2157
▁chladn	-11.2157
▁šel	-11.2161
▁poradensk	-11.2163
▁měří	-11.2167
danou	-11.2169
▁zahájením	-11.217
teče	-11.2172
korun	-11.2176
▁manažerské	-11.218
▁přípravu	-11.2186
▁nějakém	-11.219
▁As	-11.2193
▁52	-11.2204
▁temp	-11.2204
▁získaný	-11.2206
▁Výrob	-11.2207
▁Mí	-11.2207
▁klíčové	-11.2209
▁uspořádal	-11.2214
▁návrhem	-11.2218
▁předmět	-11.222
▁úspěchy	-11.2221
▁22.	-11.2224
▁ekonomického	-11.2228
▁působ	-11.223
▁úředník	-11.2233
▁závodník	-11.2237
▁přím	-11.2242
jíždí	-11.2246
ino	-11.2247
dělat	-11.2253
▁Poslanec	-11.2255
▁propadl	-11.226
▁Olymp	-11.2264
▁Nemoh	-11.2267
▁kapr	-11.2267
▁jinému	-11.2272
▁připraveny	-11.2276
▁Rozhodn	-11.2283
▁známým	-11.2284
▁zajímav	-11.2286
nder	-11.2287
▁takovému	-11.2288
▁personál	-11.229
▁podlehl	-11.2291
▁svobodný	-11.2294
▁výuk	-11.2296
PI	-11.2297
DI	-11.2313
lčí	-11.2315
▁900	-11.2316
užit	-11.2318
▁efektu	-11.2319
▁svazové	-11.232
▁hlásí	-11.2321
▁Tomu	-11.2323
▁nemohla	-11.2326
▁útočník	-11.2331
▁důvěry	-11.2331
▁Kanad	-11.2332
šování	-11.2338
úpln	-11.2338
▁kroků	-11.2338
▁tenisové	-11.2339
▁automobilový	-11.234
▁plát	-11.2342
▁prestiž	-11.2343
▁narozen	-11.2343
ván	-11.2344
▁zvláštním	-11.2345
▁Karadžiče	-11.2349
▁pěkn	-11.2349
▁Washington	-11.235
▁zničen	-11.2352
▁horský	-11.2353
▁Med	-11.2362
▁zlatý	-11.2373
▁sedmdesát	-11.2374
ight	-11.2376
▁užívá	-11.2378
▁vánoc	-11.238
▁prokázal	-11.2382
▁pokryt	-11.2385
ávali	-11.2387
▁dosavadních	-11.2389
▁oceněn	-11.2393
▁ojediněl	-11.2393
isty	-11.2393
▁vašem	-11.2394
▁plném	-11.2394
▁odborn	-11.2397
▁řízen	-11.2401
áty	-11.2402
▁Řeck	-11.2404
cvič	-11.2405
dělal	-11.241
následoval	-11.2414
stavení	-11.2416
šetří	-11.2418
▁sektor	-11.2418
▁vyřešen	-11.2421
nejvýš	-11.2425
zřetelně	-11.2427
nutil	-11.2427
▁Kro	-11.2428
▁brněnsk	-11.2428
▁mez	-11.2429
íš	-11.2431
▁Zálež	-11.2431
▁organizáto	-11.2432
atlantick	-11.2432
zřídka	-11.2432
▁Blízké	-11.2432
▁HZDS	-11.2432
▁Jindřich	-11.2432
▁Kreslení	-11.2432
▁aplikaci	-11.2432
▁důležitou	-11.2432
▁fosilní	-11.2432
▁kanalizace	-11.2432
▁kariéru	-11.2432
▁komunistů	-11.2432
▁konkurent	-11.2432
▁lehké	-11.2432
▁obrátit	-11.2432
▁ovlivnit	-11.2432
▁podmínkám	-11.2432
▁popularit	-11.2432
▁přirozeně	-11.2432
▁referenda	-11.2432
▁snižovat	-11.2432
▁svědky	-11.2432
▁ubytovací	-11.2432
▁výpovědi	-11.2432
▁zneužití	-11.2432
▁Michail	-11.2432
▁rubrik	-11.2432
▁stupeň	-11.2432
▁jedinců	-11.2432
▁přírodu	-11.2432
▁zvyšují	-11.2432
▁klobouk	-11.2432
▁nezmění	-11.2432
▁Atlantiku	-11.2432
▁válku	-11.2432
▁Dynam	-11.2432
▁budoucna	-11.2432
▁antropologie	-11.2432
▁přídav	-11.2432
▁zbaven	-11.2432
▁týče	-11.2432
▁Karpov	-11.2432
▁administrativní	-11.2432
▁Boyle	-11.2432
▁politicky	-11.2432
▁mzda	-11.2433
▁přivezl	-11.2433
▁zkrátka	-11.2433
▁kombinace	-11.2433
▁češtině	-11.2433
▁Lendl	-11.2433
▁smečky	-11.2433
▁vytížen	-11.2433
▁chybět	-11.2433
▁Vaše	-11.2433
▁Středisk	-11.2433
▁hokejisté	-11.2433
▁image	-11.2433
▁stavět	-11.2433
▁Španělska	-11.2433
▁nálad	-11.2433
▁dostupné	-11.2433
▁distributor	-11.2433
▁poražen	-11.2433
▁rozprav	-11.2433
▁dívat	-11.2433
▁staletí	-11.2433
▁příznivců	-11.2433
▁prapor	-11.2434
▁zázrak	-11.2434
▁příjezd	-11.2434
▁Zdeňk	-11.2434
▁nohou	-11.2434
▁1980	-11.2434
▁nezbývá	-11.2434
▁arabské	-11.2434
▁Intel	-11.2434
▁psů	-11.2434
▁ocenil	-11.2434
▁plnit	-11.2435
▁převah	-11.2435
▁Optima	-11.2435
▁Minul	-11.2435
▁liberální	-11.2435
sadit	-11.2435
▁KDU	-11.2436
▁kontrakt	-11.2436
▁Spolu	-11.2436
▁ligový	-11.2436
▁Říká	-11.2436
▁stimul	-11.2437
▁Škol	-11.2437
▁Příští	-11.2437
▁solidní	-11.2437
▁Maďarsko	-11.2437
▁jídla	-11.2438
▁mrav	-11.2438
▁Peck	-11.2438
▁arabský	-11.2438
▁Konec	-11.2438
▁nápln	-11.2439
▁setkáváme	-11.2439
▁dokončen	-11.2439
▁Pokus	-11.2439
kazil	-11.2439
▁2,5	-11.244
▁praví	-11.244
▁oken	-11.244
▁uzavřena	-11.244
▁vítr	-11.2441
▁varování	-11.2441
▁Mel	-11.2441
▁tabu	-11.2441
▁vyvoláva	-11.2441
▁matky	-11.2442
▁převést	-11.2442
▁vyměnit	-11.2442
▁znečištění	-11.2443
bydlí	-11.2444
▁jakými	-11.2444
▁Krist	-11.2445
▁Star	-11.2445
▁ráj	-11.2446
▁staro	-11.2446
▁ohni	-11.2446
▁etapě	-11.2447
▁výraznější	-11.2447
▁EU	-11.2447
▁hlasovat	-11.2447
AG	-11.2447
▁stavba	-11.2448
▁kurt	-11.2449
▁vyrovná	-11.2449
▁Říman	-11.2449
konců	-11.245
▁projevu	-11.2451
▁uznávan	-11.2451
▁vojáky	-11.2452
▁pohřeb	-11.2452
▁vystoupí	-11.2455
faktor	-11.2455
▁povahy	-11.2455
▁Belgii	-11.2456
▁Vesmíru	-11.2456
jdu	-11.2457
▁opustil	-11.2458
▁vybudování	-11.246
▁komet	-11.2461
▁získáva	-11.2462
▁uvolnění	-11.2463
▁osnov	-11.2464
▁polární	-11.2465
▁kanálů	-11.2465
▁vzdal	-11.2466
▁zvládnout	-11.2466
dni	-11.2467
▁nepřítel	-11.2467
přesněji	-11.2468
▁volbou	-11.2472
▁sáze	-11.2473
▁částkou	-11.2473
▁kluk	-11.2474
▁propag	-11.2476
▁zobrazen	-11.2477
▁expertů	-11.2478
▁úprava	-11.2478
▁kořeny	-11.2479
▁tržby	-11.248
pořád	-11.2482
▁knížky	-11.2482
▁kapacitou	-11.2483
▁vyšla	-11.2484
▁vítěze	-11.2486
drželi	-11.2488
▁slyší	-11.2488
▁Předpokládá	-11.2488
▁extrémní	-11.249
▁starostí	-11.249
▁uchazečů	-11.249
▁všemu	-11.249
▁pes	-11.2491
iček	-11.2491
▁kontinentu	-11.2491
▁volb	-11.2494
▁současným	-11.2498
▁Podstatn	-11.2501
pera	-11.2501
▁krevní	-11.2501
▁nemocí	-11.2503
mana	-11.2503
▁krav	-11.2506
komunistický	-11.2506
▁detailní	-11.2507
▁podobným	-11.2507
▁průměrně	-11.2507
▁učení	-11.2508
▁astronom	-11.2521
▁vysvětl	-11.2522
▁prestižní	-11.2523
▁předpokládal	-11.2526
▁krajní	-11.2527
▁hit	-11.2527
▁krvi	-11.2528
▁Ekonomick	-11.2528
▁úseku	-11.2529
▁taky	-11.2534
▁subjektů	-11.2535
▁čistě	-11.2535
umět	-11.2537
▁kupon	-11.2537
▁Voda	-11.254
▁nepřízniv	-11.2542
▁okraji	-11.2542
anti	-11.2548
90	-11.2548
▁mozkov	-11.2549
▁play	-11.2551
▁obchodě	-11.2552
UJE	-11.2557
▁elektrický	-11.2557
ozi	-11.2558
▁vytvořili	-11.2558
členné	-11.2558
pravit	-11.2558
střih	-11.2561
▁roh	-11.2564
▁veškerý	-11.2567
▁odběratel	-11.2569
▁majitelů	-11.2569
▁automatické	-11.2574
▁strukturu	-11.2574
▁zásahu	-11.2574
▁uvedli	-11.2576
▁samostatn	-11.2577
▁Voj	-11.2579
▁právem	-11.258
▁tvary	-11.2581
▁reáln	-11.2582
▁obhájce	-11.2583
▁německým	-11.2585
▁elektronické	-11.2586
▁komentář	-11.2587
bývalo	-11.2589
▁mechaniku	-11.2589
▁odběratelů	-11.259
▁prezidentský	-11.2592
▁přijali	-11.2595
▁turnaji	-11.2596
▁témata	-11.2598
▁Chorvat	-11.2604
▁vedly	-11.2605
▁dějiny	-11.2607
▁manažerů	-11.2608
▁statistik	-11.2613
▁krásné	-11.2613
▁vlastními	-11.2615
▁slev	-11.2618
▁nedovol	-11.2619
▁zadní	-11.2626
▁maďarské	-11.2632
▁hosty	-11.2638
řejmě	-11.2639
▁relativní	-11.2643
▁ztratila	-11.2645
tickou	-11.2649
lová	-11.265
místo	-11.2652
▁350	-11.2652
drží	-11.2653
▁Barn	-11.2657
slovní	-11.2657
▁náležit	-11.2658
▁Vod	-11.2658
▁toku	-11.2661
koro	-11.2663
▁Test	-11.2667
▁logicky	-11.2667
▁1500	-11.2669
▁zachován	-11.2669
▁vydala	-11.2671
ždyť	-11.2671
jednat	-11.2671
▁vítězů	-11.2679
víz	-11.2686
▁Jelcinov	-11.2689
▁Kla	-11.2689
▁náhle	-11.2695
▁hotové	-11.2696
▁zabit	-11.2699
CO	-11.27
▁poměry	-11.2709
▁vodě	-11.2712
▁významně	-11.2715
▁konečn	-11.2718
▁občana	-11.2719
▁napadl	-11.272
▁záznamové	-11.272
▁elektronický	-11.2727
▁obyčejný	-11.2728
JE	-11.2728
Gar	-11.273
tedy	-11.2738
▁125	-11.274
novu	-11.2743
▁mís	-11.2746
hé	-11.2748
SKO	-11.2752
▁archeolog	-11.2753
▁kontaktu	-11.2755
▁ráz	-11.2756
▁počátk	-11.2763
ativní	-11.2763
▁kostel	-11.2765
kazuje	-11.2767
▁nejedn	-11.2768
▁jugoslávsk	-11.2769
▁důsledk	-11.277
▁vysokoškol	-11.2771
.12.	-11.2771
pomíná	-11.2772
▁předání	-11.2773
▁Bro	-11.2777
▁slabý	-11.2782
▁atomové	-11.2785
ues	-11.2791
kreslen	-11.2792
kého	-11.2793
▁stán	-11.2801
▁Kan	-11.2804
jednán	-11.2814
▁přítel	-11.2815
▁následujícím	-11.2822
▁Pražsk	-11.2824
▁Masarykov	-11.2824
▁staveb	-11.2828
▁klesl	-11.2828
▁deviz	-11.2836
hne	-11.2837
▁jednotné	-11.284
▁Hal	-11.2842
▁nejlepšího	-11.2845
bude	-11.2847
▁zemědělců	-11.2847
▁Kazachstán	-11.2848
tvrdí	-11.2849
▁týkají	-11.285
▁Svaz	-11.2851
▁hromadné	-11.2853
▁totemismu	-11.2855
▁stiskn	-11.2858
▁smrtí	-11.2859
▁Čtyři	-11.2859
▁používal	-11.2859
▁zodpovědn	-11.286
dnes	-11.286
▁rakovin	-11.286
▁významn	-11.286
▁potvrdila	-11.286
▁sfér	-11.2862
hradit	-11.2862
▁Pel	-11.2863
▁italsk	-11.2867
▁předpis	-11.2867
znamenat	-11.2872
▁dramat	-11.2875
▁úhrad	-11.2875
▁odpovídají	-11.2875
▁biolog	-11.2876
krývají	-11.2876
▁medaili	-11.2877
ině	-11.2879
dpověď	-11.2883
ung	-11.2888
enc	-11.2888
▁oddělen	-11.289
▁uvolnil	-11.29
stupovat	-11.29
ohra	-11.2901
▁kolech	-11.2902
▁komunismu	-11.2903
▁prst	-11.2908
▁Dokon	-11.2909
ěsíční	-11.2918
▁brzd	-11.2919
▁norma	-11.2919
nápověd	-11.2919
▁okraj	-11.2922
▁Závěr	-11.2922
cházející	-11.2923
▁jejími	-11.2924
▁volit	-11.2925
dejme	-11.2925
▁Klepn	-11.293
olicejní	-11.2931
▁dlouhodobě	-11.2931
▁konzerv	-11.2932
▁humanitární	-11.2932
neštěstí	-11.2932
peptid	-11.2932
▁Boleslav	-11.2932
▁Doufám	-11.2932
▁HGF	-11.2932
▁Výjimk	-11.2932
▁Výsledek	-11.2932
▁Wembley	-11.2932
▁anonymní	-11.2932
▁cizinců	-11.2932
▁definovat	-11.2932
▁dvojnásobek	-11.2932
▁dětmi	-11.2932
▁evidenci	-11.2932
▁intenzivně	-11.2932
▁komfort	-11.2932
▁království	-11.2932
▁lhůty	-11.2932
▁nabídnut	-11.2932
▁neúspěch	-11.2932
▁otázkách	-11.2932
▁ošetření	-11.2932
▁připomenout	-11.2932
▁revoluce	-11.2932
▁skener	-11.2932
▁sportovci	-11.2932
▁uhličitého	-11.2932
▁umístit	-11.2932
▁upozorňují	-11.2932
▁užitečné	-11.2932
▁veřejnou	-11.2932
▁zajistil	-11.2932
▁zdravotně	-11.2932
▁zloděj	-11.2932
▁zvyšovat	-11.2932
▁Havlov	-11.2932
▁LDS	-11.2932
▁Poborského	-11.2932
▁sankce	-11.2932
▁sleduje	-11.2932
▁srpnu	-11.2932
▁série	-11.2932
▁Mostaru	-11.2932
▁mobilní	-11.2932
▁potravy	-11.2932
▁pátý	-11.2932
▁souprav	-11.2932
▁řekněme	-11.2932
pomáhal	-11.2932
▁MHz	-11.2932
▁Názor	-11.2932
▁komisí	-11.2932
▁kompost	-11.2932
▁nepatří	-11.2932
▁týdnu	-11.2932
▁stačit	-11.2932
skočit	-11.2932
▁Komora	-11.2932
▁pozemků	-11.2932
▁projednávání	-11.2932
▁tvůrčí	-11.2932
▁zážitek	-11.2932
▁Ústí	-11.2932
▁Prahu	-11.2932
▁zved	-11.2932
▁chemie	-11.2932
▁letišti	-11.2932
▁minimum	-11.2932
▁vyhověl	-11.2932
▁modernizaci	-11.2932
▁obránce	-11.2932
▁shluk	-11.2932
▁počáteční	-11.2932
▁multi	-11.2933
▁opačný	-11.2933
▁nebrání	-11.2933
▁turisté	-11.2933
▁kostým	-11.2933
▁remíz	-11.2933
▁Bohemia	-11.2933
▁román	-11.2933
▁Filip	-11.2933
▁proběhla	-11.2933
▁vykonávat	-11.2933
▁zaslal	-11.2933
▁karet	-11.2933
▁azyl	-11.2933
vážet	-11.2933
▁1948	-11.2933
▁realizaci	-11.2933
▁pilot	-11.2934
▁emise	-11.2934
▁diskusí	-11.2934
▁převzetí	-11.2934
▁experimentální	-11.2934
▁léčení	-11.2934
▁dovoluje	-11.2935
▁chrání	-11.2935
▁potřebovat	-11.2935
▁cítit	-11.2935
▁Chang	-11.2935
▁výrobku	-11.2935
▁půjčky	-11.2935
▁strategický	-11.2936
▁videa	-11.2936
beton	-11.2936
▁budování	-11.2937
▁přestane	-11.2937
▁očima	-11.2938
▁dovolí	-11.2938
▁ČZ	-11.2938
▁tabulku	-11.2938
▁nádob	-11.2939
▁oblib	-11.2939
▁formulář	-11.2939
▁rozdělit	-11.2939
▁(2	-11.294
▁Ukázal	-11.294
▁prosím	-11.294
▁ráda	-11.294
▁Staré	-11.294
▁odmítnut	-11.2941
▁přerušen	-11.2941
sit	-11.2941
▁atmosféru	-11.2942
▁týmů	-11.2942
▁nahoru	-11.2942
▁hromad	-11.2942
▁vydělal	-11.2943
▁venku	-11.2943
▁sportovním	-11.2943
ňují	-11.2943
▁nechci	-11.2945
▁podruhé	-11.2945
▁přesný	-11.2945
ujme	-11.2946
▁Pojišťovna	-11.2946
▁ušetří	-11.2948
▁centrem	-11.2948
▁otevřený	-11.2949
▁stěžují	-11.2949
▁vkus	-11.295
▁ostrovů	-11.2952
▁policisty	-11.2953
▁udržova	-11.2953
▁moravské	-11.2956
▁čelní	-11.2956
▁prvek	-11.2957
▁vybere	-11.2958
▁přišly	-11.296
▁vzniklé	-11.2961
▁Důvodem	-11.2962
▁podobnost	-11.2962
▁diplomatické	-11.2963
▁běže	-11.2966
▁Hel	-11.2966
▁kontrolou	-11.2967
▁vycházet	-11.2968
▁prostorách	-11.2968
▁technikou	-11.297
▁Dal	-11.2971
▁vývojem	-11.2971
▁stížnosti	-11.2971
▁užitku	-11.2971
▁popsat	-11.2972
▁národnostní	-11.2972
▁foto	-11.2973
trhl	-11.2976
▁Smlouva	-11.2978
▁prodejně	-11.2979
▁změnách	-11.298
▁plní	-11.298
▁sehnat	-11.2981
dělování	-11.2982
▁architektury	-11.2982
▁Olomouce	-11.2982
▁podoby	-11.2983
álka	-11.2986
▁Husov	-11.2987
NC	-11.2987
▁způsobit	-11.2989
▁cenové	-11.2991
▁počítačov	-11.2991
▁odměny	-11.2993
▁zadání	-11.2993
DU	-11.2995
▁Seznam	-11.2996
▁semináře	-11.2996
▁různ	-11.2997
▁vlastníkem	-11.3
▁reklamní	-11.3
▁voliči	-11.3001
▁dělníků	-11.3005
▁vyhledá	-11.301
▁problematiku	-11.3012
▁požadavkům	-11.3013
93	-11.3013
▁Film	-11.3018
▁ceník	-11.302
▁opravě	-11.3024
▁pracujících	-11.3025
▁chladu	-11.3025
▁rozpadu	-11.3029
▁př	-11.3031
▁novinářům	-11.3033
▁novela	-11.3033
▁rozhovory	-11.3035
▁geolog	-11.3037
hodný	-11.3039
▁stromy	-11.3039
▁hovořili	-11.304
▁rostliny	-11.3041
příč	-11.3045
nda	-11.3046
▁nevíme	-11.3046
▁vstupuje	-11.3047
▁věřím	-11.3049
▁očí	-11.3053
▁prodá	-11.3056
▁úmyslu	-11.3056
▁izraelský	-11.3056
ňující	-11.3058
▁potenciálu	-11.3061
▁udělali	-11.3061
▁Nobelov	-11.3064
řádně	-11.3066
▁velko	-11.3067
▁Tým	-11.3067
▁mistry	-11.3068
▁posil	-11.3068
▁stříbrné	-11.3068
▁závěrečný	-11.3068
▁rozhodlo	-11.3073
mořsk	-11.3074
jížděl	-11.3075
▁26.	-11.3078
▁ostravské	-11.3081
▁technik	-11.3082
▁psa	-11.3082
48	-11.3082
▁kruhy	-11.3082
▁ústavů	-11.3083
▁Švédsku	-11.3084
▁procesů	-11.3087
▁lize	-11.3087
▁27.	-11.3088
▁klubem	-11.3089
▁předběžn	-11.309
▁naprosté	-11.3091
▁Kdybych	-11.3096
▁Lig	-11.3097
▁výkladu	-11.3099
▁Zda	-11.3102
▁deníku	-11.3104
▁24.	-11.3107
▁SD	-11.3107
▁Počítá	-11.3107
▁dospělé	-11.3107
▁opravu	-11.3108
▁obdiv	-11.3109
▁vydá	-11.3109
▁Označ	-11.3111
▁skvělé	-11.3111
▁Lab	-11.3112
▁plochu	-11.3112
▁činila	-11.3113
▁Mac	-11.3116
▁proviz	-11.3117
▁vycházel	-11.3118
▁tempo	-11.3122
▁Kup	-11.3124
kraji	-11.3126
▁zněl	-11.313
▁rodné	-11.3132
▁geny	-11.3133
▁přízniv	-11.3138
▁komora	-11.314
▁podoba	-11.3147
▁vložen	-11.3149
EK	-11.3154
knout	-11.3154
▁Večer	-11.316
▁přesné	-11.3161
▁soupeřů	-11.3161
▁kovy	-11.3162
▁140	-11.3166
▁budoucího	-11.3168
can	-11.3169
▁integrovan	-11.3173
cestoval	-11.3174
▁obranné	-11.3174
▁Mír	-11.3175
▁příslušnost	-11.3175
▁papíry	-11.3177
▁legend	-11.3178
▁běžn	-11.3182
▁představa	-11.3187
▁Řekl	-11.3192
▁chybu	-11.3197
udit	-11.3204
▁stanovené	-11.3205
▁šíří	-11.3207
nz	-11.321
▁telefony	-11.3211
▁věta	-11.3214
▁pocity	-11.3215
věří	-11.3215
ota	-11.322
ER	-11.3225
▁Turist	-11.3227
▁Kur	-11.323
▁světu	-11.3231
▁splnil	-11.3237
čkách	-11.3238
▁podnikatelům	-11.3238
▁Brit	-11.324
▁těle	-11.3241
▁vyhráli	-11.3247
▁živý	-11.3248
▁Japonsko	-11.326
▁hostů	-11.3263
▁En	-11.3273
▁efekty	-11.3273
▁pozornosti	-11.3275
ALI	-11.3275
ěřitel	-11.3275
▁novel	-11.3277
▁květin	-11.3284
izraelsk	-11.3285
▁tvůrce	-11.3285
▁popsán	-11.3286
▁obává	-11.3288
▁konzervativní	-11.3289
ovaném	-11.3296
▁zveřejněn	-11.3297
▁chirurg	-11.3299
▁výplat	-11.3303
▁soupeři	-11.3307
▁položil	-11.3307
▁zřízen	-11.3307
▁listopad	-11.331
▁obdobný	-11.3311
▁volič	-11.3313
▁Všeobecn	-11.3314
▁zákoně	-11.3318
▁problematik	-11.3318
▁prováze	-11.332
▁pocházejí	-11.3321
sin	-11.3325
rent	-11.3328
ohledně	-11.3329
▁Prof	-11.3329
pouštějí	-11.3331
morav	-11.3334
▁Stan	-11.3339
▁obviněn	-11.3346
▁kritický	-11.3347
▁děd	-11.3347
▁Argentin	-11.3351
LED	-11.3353
ong	-11.3354
▁domácnost	-11.3355
▁odmítla	-11.3356
ologové	-11.336
▁využit	-11.3362
atřicet	-11.3363
blok	-11.3373
▁požadavků	-11.3374
▁aparát	-11.3374
▁veletrh	-11.3375
▁středověk	-11.3375
▁šampionát	-11.3377
76	-11.3379
▁autobus	-11.3379
projevilo	-11.338
▁nezná	-11.3383
▁vyžadují	-11.3384
▁veřejný	-11.3385
▁bílkovin	-11.3386
▁účinnost	-11.3387
▁postupů	-11.3389
▁historik	-11.3392
▁jednoznačný	-11.3392
tito	-11.3395
▁spolupracovník	-11.3396
▁určeno	-11.3397
způsobují	-11.3398
plácet	-11.3403
▁jednorázov	-11.3407
▁hlasu	-11.3411
▁vybral	-11.3412
jov	-11.3415
▁Projekt	-11.3419
front	-11.3422
▁Miloše	-11.3424
▁soukrom	-11.3424
▁jakkoli	-11.3424
éra	-11.3424
▁Angličan	-11.3428
▁Důvod	-11.3428
▁Kolek	-11.3428
▁Jihlav	-11.3429
▁stálé	-11.3432
alternativ	-11.3432
35	-11.3434
▁nejvyšších	-11.3435
mohou	-11.3436
▁poznal	-11.3438
▁výpočet	-11.3441
▁procenty	-11.3444
stane	-11.3446
▁demonstra	-11.3449
▁bohatý	-11.345
▁navazuj	-11.345
▁Maďar	-11.3452
▁Světov	-11.3452
pomeňme	-11.3455
▁prud	-11.3456
▁risk	-11.3458
pomínají	-11.3458
▁Weizs	-11.3459
zrcadl	-11.3459
šetřil	-11.3459
▁Antonín	-11.3459
▁Benešov	-11.3459
▁Dvořák	-11.3459
▁Jednotliv	-11.3459
▁Lubomír	-11.3459
▁Sarajev	-11.3459
▁archív	-11.3459
▁cizinci	-11.3459
▁cizině	-11.3459
▁deklarace	-11.3459
▁informovat	-11.3459
▁kmitočt	-11.3459
▁komunisté	-11.3459
▁lékáren	-11.3459
▁medailí	-11.3459
▁ministerstev	-11.3459
▁nemožné	-11.3459
▁nevznik	-11.3459
▁nečekaně	-11.3459
▁opozici	-11.3459
▁oživení	-11.3459
▁přidružen	-11.3459
▁redakci	-11.3459
▁restituční	-11.3459
▁skript	-11.3459
▁spánku	-11.3459
▁stadia	-11.3459
▁struktuře	-11.3459
▁tabulátor	-11.3459
▁tiskárna	-11.3459
▁uspokojení	-11.3459
▁vyloučit	-11.3459
▁výkyvy	-11.3459
▁zlepšil	-11.3459
▁zúčastní	-11.3459
▁Mazdy	-11.3459
▁lístky	-11.3459
▁minerální	-11.3459
▁stoupenc	-11.3459
▁svatební	-11.3459
▁zlepšit	-11.3459
▁řemesl	-11.3459
▁Libanon	-11.3459
▁Náměst	-11.3459
▁letadlo	-11.3459
▁nahrazen	-11.3459
▁válkou	-11.3459
▁preventivn	-11.3459
▁ovládat	-11.3459
▁slalom	-11.3459
▁čáry	-11.3459
hlédl	-11.3459
▁doplnit	-11.3459
rozhodoval	-11.3459
▁penalt	-11.3459
▁účinný	-11.3459
▁porušil	-11.3459
▁pozemky	-11.3459
▁ČSAV	-11.3459
▁potrvá	-11.3459
▁zahájí	-11.3459
▁Trans	-11.3459
▁jedinci	-11.3459
▁jídlo	-11.3459
▁licence	-11.3459
▁jedinečn	-11.3459
pálil	-11.3459
▁Něco	-11.3459
▁užívat	-11.3459
▁umístil	-11.3459
▁vyrábějí	-11.3459
▁nejsilnější	-11.3459
▁nestalo	-11.3459
▁odškodnění	-11.3459
▁žánr	-11.3459
▁USD	-11.3459
▁kůži	-11.3459
▁tisíciletí	-11.3459
▁nebudu	-11.3459
▁návštěvníci	-11.3459
▁Maastrichtu	-11.3459
▁Schneider	-11.3459
▁městečk	-11.3459
▁odvozen	-11.3459
přát	-11.3459
▁hornin	-11.3459
▁nemění	-11.3459
▁dopředu	-11.346
▁léčba	-11.346
▁Hlas	-11.346
▁dřevěný	-11.346
▁koncentrací	-11.346
▁vracejí	-11.346
▁otřes	-11.346
▁Krkonoších	-11.346
▁Zásad	-11.3461
▁restaurací	-11.3461
▁masa	-11.3461
▁setkat	-11.3461
▁úkor	-11.3462
▁Juli	-11.3462
▁jádra	-11.3462
▁kancléř	-11.3462
▁mikroorganismů	-11.3463
▁chybějící	-11.3464
▁odstín	-11.3464
▁náročnější	-11.3464
povídal	-11.3464
▁Nesmí	-11.3465
▁cílov	-11.3465
▁obrace	-11.3465
lákat	-11.3465
▁základnu	-11.3465
▁stres	-11.3465
▁mechanick	-11.3466
▁spokojenosti	-11.3466
▁právnick	-11.3467
▁závazků	-11.3467
▁odmítnout	-11.3467
▁vykazuje	-11.3468
▁přeháňky	-11.3468
▁posouzení	-11.3468
▁vydělat	-11.3469
▁rozhodnuto	-11.347
▁absurdní	-11.347
▁stručn	-11.347
▁SNS	-11.3471
▁protokol	-11.3471
▁Hodn	-11.3471
▁zkoušky	-11.3471
▁opakovat	-11.3472
▁hlavě	-11.3472
▁záložník	-11.3474
▁víno	-11.3475
▁vidění	-11.3475
▁Situace	-11.3475
▁Byt	-11.3476
instalovat	-11.3477
▁vyšetřovací	-11.348
▁mírou	-11.3482
▁linek	-11.3482
▁středně	-11.3483
▁Polsku	-11.3483
rel	-11.3485
▁zákonu	-11.3486
▁lacin	-11.3486
▁Chorvatsko	-11.3487
▁letoun	-11.3487
▁kytarist	-11.3488
▁střelec	-11.3488
▁městská	-11.3489
▁boku	-11.3489
▁myslíte	-11.3489
▁řádek	-11.3489
▁počítají	-11.3491
ectví	-11.3491
▁ukládat	-11.3491
▁vztahuje	-11.3491
7%	-11.3495
▁kdybychom	-11.3496
▁Slovinska	-11.3496
▁odvolal	-11.3497
▁kartě	-11.3497
▁přizpůsob	-11.3498
▁otce	-11.3498
▁tuzemských	-11.3499
▁zájezdy	-11.35
▁různá	-11.35
▁varoval	-11.35
▁řetěz	-11.3501
▁kádru	-11.3502
kládání	-11.3502
sté	-11.3505
▁rozhodujícím	-11.3506
▁ledový	-11.3506
▁termo	-11.3512
▁Kamp	-11.3514
▁islámské	-11.3516
▁Váš	-11.3516
▁převeden	-11.3516
▁stačilo	-11.3517
▁Bójů	-11.3519
▁měřítku	-11.352
▁partnerem	-11.3521
▁genů	-11.3523
▁kontrol	-11.3523
▁terénu	-11.3525
▁příbuzné	-11.3526
▁družic	-11.3528
▁hranicích	-11.3529
▁vyplývající	-11.353
▁kanálu	-11.3531
▁rána	-11.3537
▁regul	-11.3538
▁ruchu	-11.3539
▁špičk	-11.3546
▁nalezení	-11.3546
▁soch	-11.3546
▁teoretické	-11.3547
▁zlata	-11.3548
▁pevně	-11.3551
▁Japonska	-11.3551
▁fyziku	-11.3554
▁nespokojenost	-11.3554
tažením	-11.3555
▁údržbu	-11.3556
▁subjekty	-11.3558
▁schémat	-11.356
▁volba	-11.356
▁dresu	-11.3561
▁okresech	-11.3563
zanedbateln	-11.3564
ářství	-11.3564
▁účastníky	-11.3568
▁veliká	-11.357
▁jeskyn	-11.3571
▁délku	-11.3571
▁kostela	-11.3572
▁hospodářský	-11.3575
▁matematiky	-11.3576
▁typick	-11.3577
strašně	-11.3578
▁hovoru	-11.358
třeba	-11.3584
▁mém	-11.3584
letěl	-11.3584
▁Doba	-11.3585
▁zaplav	-11.3587
▁Siln	-11.3588
jo	-11.3591
▁Izraelsk	-11.3592
▁testů	-11.3592
▁Věr	-11.3593
▁Fil	-11.3599
▁PR	-11.3599
ČE	-11.3601
▁variantu	-11.3601
▁informovali	-11.3602
▁(5	-11.3606
krytí	-11.3607
yplývá	-11.3607
▁pracovním	-11.361
▁iniciativa	-11.361
▁řidiči	-11.3617
▁ženský	-11.3617
▁bodem	-11.362
▁hlava	-11.3634
▁stálo	-11.3635
▁zůstaly	-11.3635
▁dopisy	-11.3636
▁hrubé	-11.3637
likvid	-11.3637
▁výnosu	-11.3638
▁návštěv	-11.3641
jištěn	-11.3643
▁Tip	-11.3647
▁Řek	-11.3647
▁magnet	-11.3648
▁členské	-11.3649
▁servisu	-11.365
▁akciov	-11.365
▁knihu	-11.3653
▁větr	-11.3653
▁srovnatelné	-11.3657
▁Dán	-11.3658
▁postižení	-11.3658
▁přenesen	-11.3661
▁zabýval	-11.3661
▁přinesla	-11.3662
▁přesvědčeni	-11.3663
▁číslem	-11.3665
▁stromů	-11.3671
▁nepr	-11.3673
65	-11.3677
▁pouh	-11.3677
▁Zemanov	-11.368
▁metodu	-11.3681
▁42	-11.3683
▁úzké	-11.3694
▁Syn	-11.3696
▁domnívám	-11.3702
▁přítele	-11.3702
▁technick	-11.3703
▁automat	-11.3703
▁Dag	-11.3707
▁91	-11.3708
▁manžela	-11.371
▁válečné	-11.371
▁standardu	-11.3711
▁režiséra	-11.3712
▁jezdil	-11.3723
22	-11.3725
▁trojic	-11.3726
▁Výzkum	-11.3731
▁drahá	-11.3732
stával	-11.3734
▁opor	-11.3739
▁ryby	-11.3745
▁technologický	-11.3753
▁způsobila	-11.3755
▁překr	-11.3759
▁cílů	-11.3762
▁linka	-11.3762
▁rozumné	-11.3763
▁kaly	-11.3764
▁tečk	-11.3766
▁firmami	-11.3769
učili	-11.3774
▁vníma	-11.3782
▁ostrov	-11.3784
▁link	-11.3787
nických	-11.3796
bírat	-11.3803
▁výtvarn	-11.3808
▁manažera	-11.3812
▁aneb	-11.3813
šp	-11.3815
87	-11.3817
▁jakého	-11.3818
▁speciálně	-11.3819
žije	-11.3821
▁Král	-11.3822
ph	-11.3823
▁region	-11.3829
▁srovnatelný	-11.3829
koupí	-11.383
▁věrn	-11.3834
▁momentáln	-11.3835
hrával	-11.3835
▁Výš	-11.3836
▁odráž	-11.3838
▁některého	-11.3838
OT	-11.3842
▁tiskový	-11.3851
▁sešli	-11.3851
▁říkám	-11.3853
▁finančním	-11.3858
▁189	-11.3864
▁poločase	-11.3871
▁stati	-11.388
▁uši	-11.388
▁platu	-11.388
IG	-11.388
▁Jeli	-11.3883
tivně	-11.3884
▁příznivé	-11.3886
▁využije	-11.389
▁SN	-11.389
▁uskutečnil	-11.3891
▁doping	-11.3891
▁vlajk	-11.3891
▁radu	-11.3899
▁životnost	-11.3906
▁okénk	-11.3908
slat	-11.3913
▁nepřátel	-11.3913
▁Atlant	-11.3914
▁Zd	-11.3917
znamená	-11.3923
▁bohaté	-11.3927
▁bytě	-11.3931
ČSSD	-11.3932
jistit	-11.3933
vrátit	-11.3933
▁platil	-11.3935
▁věnuj	-11.3935
▁přispíva	-11.3936
▁Slovan	-11.3938
▁očekával	-11.3941
▁srážk	-11.3942
▁masov	-11.3943
▁zákoník	-11.3943
především	-11.3944
sáhnout	-11.3945
▁účet	-11.3945
FS	-11.3946
▁úkon	-11.3947
▁lamp	-11.395
▁kapitálový	-11.3953
▁pochopil	-11.3956
▁nabídne	-11.3957
▁Tenis	-11.3957
▁Sokol	-11.3958
▁kyselin	-11.3959
▁vezme	-11.3963
▁pravém	-11.3964
bezpeč	-11.3968
posled	-11.3972
▁29.	-11.3974
tivnější	-11.3976
▁Rumunsk	-11.3976
▁Cup	-11.3977
▁pokračují	-11.3977
▁lyžař	-11.3979
▁umožňují	-11.398
▁oblačno	-11.3981
▁chalup	-11.3984
▁dočasn	-11.3985
dávky	-11.3987
▁chovat	-11.3987
polí	-11.3988
▁Znám	-11.3989
▁enzym	-11.3992
▁veličin	-11.3996
▁Republik	-11.3996
▁čte	-11.3998
▁vesnic	-11.4001
▁rusk	-11.4001
▁řekli	-11.4006
▁provozovat	-11.4008
▁krystal	-11.401
▁osvět	-11.4013
▁zasvěcen	-11.4014
▁Nejčastěj	-11.4014
▁Bezpečnost	-11.4014
▁Bierhoff	-11.4014
▁Evropou	-11.4014
▁Jupiter	-11.4014
▁Karadžic	-11.4014
▁Letošní	-11.4014
▁Madrid	-11.4014
▁Moderní	-11.4014
▁Naštěstí	-11.4014
▁Olszewsk	-11.4014
▁PŘED	-11.4014
▁Sněmovn	-11.4014
▁Softwar	-11.4014
▁Stehlík	-11.4014
▁Ukrajina	-11.4014
▁burzy	-11.4014
▁celosvětov	-11.4014
▁dostatečné	-11.4014
▁energií	-11.4014
▁imunitní	-11.4014
▁incident	-11.4014
▁kandidovat	-11.4014
▁kapitul	-11.4014
▁krátkodobé	-11.4014
▁laboratorní	-11.4014
▁leccos	-11.4014
▁neexistoval	-11.4014
▁náleží	-11.4014
▁následovat	-11.4014
▁odlišné	-11.4014
▁opozicí	-11.4014
▁ozónu	-11.4014
▁podotkl	-11.4014
▁poskytne	-11.4014
▁preferenc	-11.4014
▁premiéře	-11.4014
▁překážky	-11.4014
▁restitucí	-11.4014
▁seriózní	-11.4014
▁socialismu	-11.4014
▁stability	-11.4014
▁televizor	-11.4014
▁totalitní	-11.4014
▁viceprezident	-11.4014
▁vzdělávání	-11.4014
▁výslovně	-11.4014
▁závislá	-11.4014
▁získají	-11.4014
▁Úspěšn	-11.4014
▁úspěšnost	-11.4014
▁Litvínov	-11.4014
▁Město	-11.4014
▁Obvodní	-11.4014
▁Podívej	-11.4014
▁Pražan	-11.4014
▁mrtvé	-11.4014
▁prezervativ	-11.4014
▁prokuratur	-11.4014
▁těžší	-11.4014
▁výkres	-11.4014
▁zachránil	-11.4014
▁znamení	-11.4014
▁Dukly	-11.4014
▁Mandler	-11.4014
▁herečka	-11.4014
▁vyžádá	-11.4014
▁zemědělci	-11.4014
▁hrozil	-11.4014
▁položku	-11.4014
▁příroda	-11.4014
▁Island	-11.4014
▁abeced	-11.4014
▁chápán	-11.4014
▁nutná	-11.4014
▁živnostenský	-11.4014
▁MIDI	-11.4014
▁profese	-11.4014
▁naučit	-11.4014
▁charitativní	-11.4014
▁Vojenské	-11.4014
▁ČSAD	-11.4014
▁výlučn	-11.4014
▁zajímal	-11.4014
▁Hapal	-11.4014
▁kubismu	-11.4014
▁uplatňova	-11.4014
▁Dlouho	-11.4014
▁vystupoval	-11.4014
▁převažuj	-11.4014
▁frakc	-11.4015
▁druzí	-11.4015
▁Maďarska	-11.4015
▁diváci	-11.4015
▁přečetl	-11.4015
▁mýtu	-11.4015
▁vyjít	-11.4015
▁koncentraci	-11.4015
0.000	-11.4015
▁Sedm	-11.4015
sudek	-11.4015
▁chápe	-11.4015
▁kresb	-11.4015
▁Příklad	-11.4016
▁kopané	-11.4016
▁nesměl	-11.4016
▁filtr	-11.4016
▁česky	-11.4016
▁studené	-11.4016
píší	-11.4016
háněl	-11.4016
▁cítil	-11.4016
▁obdrží	-11.4016
▁loď	-11.4017
▁Soutěž	-11.4017
▁Obyvatel	-11.4017
▁obsáhl	-11.4017
▁simul	-11.4017
▁1950	-11.4017
▁lidový	-11.4017
▁úder	-11.4018
▁balení	-11.4018
▁kámen	-11.4018
▁rozumět	-11.4018
▁Potvrdil	-11.4018
▁Berger	-11.4018
▁publikace	-11.4018
▁duši	-11.4018
▁připravují	-11.4018
▁Politick	-11.4019
▁síni	-11.4019
▁Švýcarska	-11.4019
▁zvyklí	-11.4019
▁realizovat	-11.402
▁prázdninách	-11.402
▁překvapiv	-11.402
▁dostupný	-11.402
▁trůn	-11.4021
▁utekl	-11.4021
▁proměnliv	-11.4021
▁expozice	-11.4021
▁sovětský	-11.4022
týž	-11.4022
▁vzorků	-11.4022
▁písma	-11.4022
▁plot	-11.4023
▁sbírky	-11.4023
▁potvrzují	-11.4024
▁časopise	-11.4024
▁Alma	-11.4025
▁zdůvodnil	-11.4025
▁zanikl	-11.4025
▁reklama	-11.4025
▁výměník	-11.4025
▁přihlásil	-11.4025
▁vznikne	-11.4026
účtování	-11.4027
▁učebnic	-11.4029
▁tendenci	-11.4029
▁alternativní	-11.4029
▁porušování	-11.4029
▁vysílání	-11.403
▁SI	-11.4033
▁náhodně	-11.4033
▁branku	-11.4033
▁politikou	-11.4033
▁čaj	-11.4035
▁vymezen	-11.4035
rychlostní	-11.4035
▁kompletní	-11.4035
▁výrobou	-11.4035
▁předsednictv	-11.4038
nechávají	-11.4038
▁osobám	-11.4039
▁FC	-11.4039
▁drobných	-11.4039
▁armádní	-11.404
▁stěží	-11.4043
▁levné	-11.4044
▁vyměnil	-11.4046
▁zasáhnout	-11.4046
jednala	-11.4046
▁prodejna	-11.4048
▁sídla	-11.4049
▁necelé	-11.4051
▁řádky	-11.4051
▁vyrovnání	-11.4051
▁zavedl	-11.4052
▁Rumunsko	-11.4052
▁psaní	-11.4052
▁infekce	-11.4053
▁MOV	-11.4054
▁výměny	-11.4054
▁příslušníky	-11.4055
▁potřebujete	-11.4055
▁zbytku	-11.4055
▁56	-11.4057
▁udává	-11.406
▁odjezd	-11.406
kých	-11.406
▁léto	-11.406
▁zajímavá	-11.4061
▁Tvrdí	-11.4062
▁uzavřené	-11.4062
▁izraelské	-11.4062
▁nemocného	-11.4062
▁drav	-11.4062
▁Nejsem	-11.4064
▁dohodli	-11.4065
▁77	-11.4065
▁rodině	-11.4066
▁dorazil	-11.4066
▁částečn	-11.4066
▁scénu	-11.4067
▁uplatňují	-11.4067
▁kraje	-11.4067
▁přerušení	-11.4067
▁tvorba	-11.4067
▁pravomocí	-11.4068
▁důstojník	-11.4069
▁zajímá	-11.407
▁spojených	-11.4073
▁kláštera	-11.4073
▁slavného	-11.4074
▁ToolBooku	-11.4074
▁Van	-11.4076
▁sídlí	-11.4076
▁70.	-11.4077
▁jmenoval	-11.4077
▁sudetský	-11.4078
▁ověřen	-11.4078
▁výhodou	-11.4079
▁nálož	-11.408
▁analýza	-11.408
,7	-11.4082
▁poměrů	-11.4082
▁nároků	-11.4085
▁hradě	-11.4086
▁Baník	-11.4087
▁Alp	-11.4088
▁získávání	-11.4088
▁obvinil	-11.4088
▁Víme	-11.4089
▁zpracovat	-11.4091
▁OK	-11.4093
▁provozování	-11.4094
▁zvukových	-11.4094
▁Žena	-11.4096
▁touh	-11.4097
▁pohotovost	-11.4097
▁nešťastn	-11.41
čkem	-11.4101
ruh	-11.4101
▁živnost	-11.4101
▁hrub	-11.4102
▁grafiky	-11.4102
▁odborů	-11.4103
▁veletrhu	-11.4103
▁mořské	-11.4104
▁očích	-11.4104
▁prezidentovi	-11.4105
▁měnov	-11.4105
rgi	-11.4107
▁Vložit	-11.4108
▁elit	-11.4108
▁Buď	-11.4109
▁Koup	-11.411
▁opravdov	-11.4111
soudit	-11.4113
▁vlk	-11.4114
▁odjel	-11.4114
▁příkazem	-11.4115
IE	-11.4117
▁slovenský	-11.4118
tlačit	-11.412
gan	-11.412
▁Kap	-11.412
▁poskytnutí	-11.4121
▁dávn	-11.4122
▁dokonalé	-11.4123
▁anglického	-11.4127
▁přesvědčil	-11.4127
▁pru	-11.4127
▁zbývá	-11.4128
▁neznámé	-11.4128
řev	-11.4129
▁Optic	-11.4129
▁hladiny	-11.4129
▁vraždy	-11.4131
▁přímý	-11.4131
▁rozhlasu	-11.4132
▁zařazeny	-11.4132
▁požádali	-11.4134
▁Ostravsk	-11.4134
▁Masaryk	-11.4136
▁výchovy	-11.4137
nická	-11.4137
▁stali	-11.4138
▁uživatelům	-11.4138
▁platnosti	-11.4138
bytová	-11.4142
padnout	-11.4145
▁ucho	-11.4145
▁obsadili	-11.4147
▁naproti	-11.4149
▁Form	-11.4151
▁pivovarů	-11.4151
▁sdělit	-11.4154
▁stromu	-11.4155
▁nakupovat	-11.4155
▁zásahy	-11.4156
▁poradil	-11.4163
LOV	-11.4164
skop	-11.4166
▁Izraelem	-11.4166
▁takzvané	-11.4173
▁Novém	-11.4175
▁opačném	-11.4176
▁úměrn	-11.4182
jednali	-11.4183
▁zásoby	-11.4185
▁dobro	-11.4187
hoře	-11.4194
▁vyjadřují	-11.4196
jan	-11.4198
▁listin	-11.4199
▁ruch	-11.42
mann	-11.4203
SO	-11.4203
▁sub	-11.4204
▁Husa	-11.4205
▁vzkaz	-11.4206
▁zadržen	-11.4208
▁nezískal	-11.421
▁kruhu	-11.4211
▁mozkové	-11.4214
▁talent	-11.4214
krátko	-11.4215
žívání	-11.4217
▁radní	-11.4219
▁Odhad	-11.4221
▁východu	-11.4223
▁zvítězila	-11.4227
▁gólu	-11.4228
▁podpoře	-11.4232
▁narazí	-11.4233
▁osobu	-11.4234
▁obyčejné	-11.4236
▁soukromým	-11.424
vezm	-11.4242
▁předčasné	-11.4242
kově	-11.4248
▁plánované	-11.4254
▁integr	-11.4255
vodí	-11.4258
▁přístupem	-11.4265
▁zvol	-11.4271
▁připravila	-11.4271
▁genu	-11.4275
▁snížila	-11.4277
▁částice	-11.428
▁míče	-11.428
▁Carl	-11.4282
▁čekání	-11.4282
▁bojoval	-11.4283
▁genetick	-11.4291
▁proměnil	-11.4292
▁zdokonal	-11.4294
▁dodala	-11.4296
▁zdravý	-11.4296
▁zpětn	-11.4296
▁vzácn	-11.4298
▁klimatické	-11.43
▁bezpečnostních	-11.4301
▁majitelem	-11.4303
▁plic	-11.4308
▁Tel	-11.431
▁skončily	-11.4315
soudil	-11.4317
▁Jean	-11.4328
▁Čechy	-11.4328
▁očekávané	-11.4329
▁vyvolá	-11.4329
▁sluch	-11.4332
▁čt	-11.4337
▁odměn	-11.4342
▁adresář	-11.4344
▁domova	-11.4345
hrání	-11.4352
etické	-11.4352
▁Don	-11.4354
▁závěry	-11.4355
tice	-11.4355
▁autory	-11.436
▁Severoatlantick	-11.4364
▁vyrovnaný	-11.4365
▁kdež	-11.4368
▁leasing	-11.4371
▁takzvaný	-11.4372
▁dohodnut	-11.4378
▁mladík	-11.4379
▁odbornost	-11.4379
demokratick	-11.4384
▁nábožensk	-11.4389
▁etický	-11.4389
▁vel	-11.4389
▁speciálních	-11.4395
▁samé	-11.4398
389	-11.4402
palestinsk	-11.4403
▁chorvatský	-11.4405
▁osmnáct	-11.4407
rozuměj	-11.4407
dána	-11.4408
▁190	-11.4409
▁hlás	-11.4411
▁komentáře	-11.4413
▁hromadn	-11.4414
mus	-11.4414
▁důkladně	-11.4415
▁oblíbený	-11.4417
káže	-11.442
pozoruhodn	-11.4425
▁not	-11.4426
▁zkresl	-11.4427
▁známa	-11.4428
67	-11.4436
▁nabízen	-11.4437
dáte	-11.4438
▁západ	-11.444
▁léčebn	-11.4446
▁dialog	-11.4446
▁poledne	-11.4448
▁závažn	-11.4456
▁bolesti	-11.4458
▁Nov	-11.4462
jednává	-11.4467
▁náboženské	-11.4467
97	-11.4469
▁tvor	-11.4471
▁zaměstnancům	-11.4473
▁americkým	-11.4473
▁semen	-11.4474
▁Švýcar	-11.4475
▁štít	-11.4479
▁Horní	-11.4489
hořel	-11.449
▁letecký	-11.449
▁omezené	-11.4491
▁souvislost	-11.4494
▁náměstk	-11.4496
▁disciplín	-11.45
vázal	-11.4505
nický	-11.4507
ers	-11.451
▁Chart	-11.4511
ézt	-11.4515
▁šat	-11.4517
▁kolegů	-11.4517
▁kongres	-11.4519
▁muzeu	-11.452
▁vesmír	-11.452
▁vlastníků	-11.4521
▁běžným	-11.4522
▁přístav	-11.4523
▁poslancům	-11.4524
▁koncern	-11.4526
▁odehráv	-11.453
▁dražb	-11.4531
▁vteřin	-11.4531
▁spořiteln	-11.4531
▁pojistn	-11.4535
▁vykoná	-11.4541
▁dělník	-11.4541
▁uzná	-11.4545
▁povolen	-11.4546
▁přip	-11.4548
oba	-11.4548
▁mládež	-11.4549
▁jater	-11.4554
čov	-11.4555
▁podepsán	-11.4558
▁Bud	-11.4559
▁Min	-11.4559
▁potvrzen	-11.4559
▁předkládá	-11.4564
▁Portugalsk	-11.4564
▁závěrečné	-11.4565
▁prohlásila	-11.4569
▁středním	-11.457
▁pokladn	-11.4571
▁Mnichov	-11.4572
záběr	-11.4574
▁KON	-11.4575
▁modem	-11.4582
▁interpret	-11.4585
▁překvapen	-11.4586
▁společným	-11.4586
▁samospráv	-11.4587
tického	-11.4589
▁srozumiteln	-11.459
▁tunel	-11.459
RS	-11.459
vyjádřen	-11.4594
▁samozřejm	-11.4595
německou	-11.4596
vodně	-11.4598
▁obuv	-11.4598
▁Krkonoš	-11.46
burgu	-11.4601
▁junio	-11.4602
▁konzul	-11.4602
▁pátrá	-11.4602
doporučují	-11.4602
▁1981	-11.4602
▁Běloruska	-11.4602
▁Eduard	-11.4602
▁Kepler	-11.4602
▁Městě	-11.4602
▁Pentium	-11.4602
▁Pořadatel	-11.4602
▁Poštovní	-11.4602
▁Rozhovor	-11.4602
▁Svorada	-11.4602
▁Výběr	-11.4602
▁Vědci	-11.4602
▁asteroid	-11.4602
▁bázi	-11.4602
▁displej	-11.4602
▁doprovázen	-11.4602
▁ekvivalent	-11.4602
▁hřbitov	-11.4602
▁instance	-11.4602
▁inzerát	-11.4602
▁kampaň	-11.4602
▁konfiguraci	-11.4602
▁mechanismy	-11.4602
▁ministerstvem	-11.4602
▁mužstvu	-11.4602
▁nejlevnější	-11.4602
▁nejvhodnější	-11.4602
▁organismů	-11.4602
▁ovlivňova	-11.4602
▁označují	-11.4602
▁očekávají	-11.4602
▁pohromadě	-11.4602
▁potvrdit	-11.4602
▁pracovišti	-11.4602
▁protagonist	-11.4602
▁rozvržení	-11.4602
▁složku	-11.4602
▁sluchátka	-11.4602
▁stabilitu	-11.4602
▁svědků	-11.4602
▁ubytovn	-11.4602
▁vyjadřova	-11.4602
▁vzdělávací	-11.4602
▁výsledcích	-11.4602
▁zachránit	-11.4602
▁zaměstnává	-11.4602
▁zbraň	-11.4602
▁zvýhodněn	-11.4602
▁závazek	-11.4602
▁závislé	-11.4602
▁Uvažuje	-11.4602
▁hmyz	-11.4602
▁kliniky	-11.4602
▁obtíže	-11.4602
▁odehrál	-11.4602
▁podmínkami	-11.4602
▁pouštní	-11.4602
▁překonat	-11.4602
opakovaně	-11.4602
▁Pravděpodobn	-11.4602
▁komentoval	-11.4602
▁sazby	-11.4602
▁vazbě	-11.4602
▁vyjednávání	-11.4602
režie	-11.4602
▁Právní	-11.4602
▁dráhu	-11.4602
▁jedinec	-11.4602
▁kosmický	-11.4602
▁odvahu	-11.4602
▁prvotní	-11.4602
▁sérii	-11.4602
▁profesí	-11.4602
▁lidstva	-11.4602
▁otravy	-11.4602
▁čistírn	-11.4602
▁prohlašuje	-11.4602
▁sladk	-11.4602
hlížel	-11.4602
▁Gross	-11.4602
▁uplatnil	-11.4602
▁Reuter	-11.4602
▁absenc	-11.4602
▁jarní	-11.4602
▁kolaps	-11.4602
▁partie	-11.4603
▁postačí	-11.4603
▁Radovan	-11.4603
hlédnutí	-11.4603
▁počty	-11.4603
▁Kučer	-11.4603
▁vpravo	-11.4603
▁kombinací	-11.4603
▁finance	-11.4603
▁obezit	-11.4603
▁cvičení	-11.4603
▁velkolep	-11.4603
▁patent	-11.4603
▁léčbě	-11.4603
▁smečka	-11.4603
▁sportovce	-11.4603
▁doplnil	-11.4603
▁liberalizac	-11.4603
▁ohlas	-11.4603
▁generaci	-11.4603
▁Kvalit	-11.4603
▁filozofii	-11.4603
▁ekonomickou	-11.4603
▁Vilém	-11.4603
▁lůžk	-11.4603
▁výhrady	-11.4603
▁Ford	-11.4603
▁sníží	-11.4603
▁oteplení	-11.4603
▁uhlí	-11.4603
▁zaměřuje	-11.4603
▁nedostatkem	-11.4603
▁zmenšen	-11.4603
▁dvor	-11.4603
▁Baker	-11.4603
▁spoření	-11.4603
▁derby	-11.4603
▁Španělsko	-11.4604
▁1998	-11.4604
▁konverz	-11.4604
pravdě	-11.4604
▁výměr	-11.4604
▁studii	-11.4604
▁běží	-11.4604
▁SNR	-11.4604
▁nezvykl	-11.4604
▁správnou	-11.4604
▁Hráč	-11.4605
▁vyzván	-11.4605
▁Mistr	-11.4605
▁pravdy	-11.4605
▁afér	-11.4605
▁pravice	-11.4605
▁jednotlivců	-11.4605
▁členění	-11.4606
abilní	-11.4606
▁Lan	-11.4606
ředstavitelé	-11.4606
eportáž	-11.4606
▁děkan	-11.4606
▁Winter	-11.4606
▁památky	-11.4606
▁článků	-11.4607
KDU	-11.4607
▁strojírenství	-11.4608
▁zastupitelstvo	-11.4608
▁čelit	-11.4608
▁ISO	-11.4608
▁trase	-11.4608
▁kontrast	-11.4608
KDS	-11.4608
▁švýcarské	-11.4608
OSTI	-11.4609
▁tvrdit	-11.4609
▁řešen	-11.461
▁poplatků	-11.461
▁přijímat	-11.461
▁dálkové	-11.4611
▁lodí	-11.4611
▁zeleni	-11.4611
▁sbírek	-11.4611
▁2:1	-11.4611
▁salon	-11.4611
▁plus	-11.4611
▁nákladech	-11.4612
▁vyhleda	-11.4612
▁hluboký	-11.4612
▁usilují	-11.4612
▁celky	-11.4612
▁protivník	-11.4612
▁zvláštnost	-11.4612
▁základny	-11.4612
▁Polskem	-11.4613
nešní	-11.4613
▁vydrží	-11.4613
árek	-11.4614
▁dozví	-11.4614
▁průvodce	-11.4615
▁tenkrát	-11.4616
▁nepřijatelné	-11.4616
▁okresu	-11.4616
▁alternativy	-11.4617
▁prosazuje	-11.4617
▁dýcha	-11.4617
▁přibyl	-11.4617
▁pití	-11.4617
placení	-11.4618
▁Provoz	-11.4618
▁porost	-11.462
▁pozorovatelů	-11.462
▁domku	-11.4621
▁ideologick	-11.4621
▁přísně	-11.4621
▁námět	-11.4622
stihnout	-11.4622
▁scéně	-11.4622
kromě	-11.4623
▁příjemný	-11.4623
▁nazval	-11.4623
▁ušetřit	-11.4623
▁anketě	-11.4625
▁branky	-11.4626
ht	-11.4626
▁Kolín	-11.4626
▁silami	-11.4626
▁pomáhat	-11.4627
▁myln	-11.4627
▁mrtvých	-11.4627
atrně	-11.4627
▁skupinách	-11.4628
▁pětinu	-11.463
čková	-11.463
elektrick	-11.4632
▁záměrně	-11.4632
▁skutečnou	-11.4633
▁vidíte	-11.4633
izační	-11.4635
▁obchodech	-11.4635
▁vybrán	-11.4635
týdenní	-11.4635
▁povahu	-11.4636
▁skoku	-11.4636
▁znamenala	-11.4636
▁pozdní	-11.4636
▁přibývá	-11.4637
▁odluk	-11.4638
▁pokutu	-11.4639
▁hranicí	-11.4639
▁pomník	-11.4639
▁domácností	-11.4639
▁Palác	-11.4641
▁komunismus	-11.4642
▁vyznačen	-11.4643
▁slovu	-11.4644
▁zažil	-11.4644
▁počítačem	-11.4645
▁stranách	-11.4645
▁etapy	-11.4645
▁NT	-11.4647
▁Air	-11.4649
▁vyřešil	-11.4649
▁neviděl	-11.465
▁publikací	-11.465
▁slavné	-11.4652
▁reálná	-11.4653
hlédne	-11.4653
▁desítká	-11.4653
▁ojediněle	-11.4653
leva	-11.4655
▁využívající	-11.4656
program	-11.4656
▁popř	-11.4657
▁prodejce	-11.4657
▁obří	-11.4658
▁pochybnosti	-11.466
UD	-11.4661
▁přibylo	-11.4662
▁šíři	-11.4663
▁zárukou	-11.4664
▁Thomas	-11.4667
▁osmé	-11.4668
▁začínal	-11.4668
sazení	-11.4668
▁těsné	-11.467
▁vhodných	-11.467
▁ledové	-11.4672
▁naplněn	-11.4672
▁rodinou	-11.4672
ikonu	-11.4674
▁minutu	-11.4675
▁osmnácti	-11.4675
▁jazyků	-11.4676
▁opravit	-11.4677
▁cukru	-11.4677
▁světl	-11.4678
▁195	-11.4678
▁podávání	-11.4681
▁polského	-11.4681
▁problematiky	-11.4683
dávání	-11.4683
pouštět	-11.4687
▁západu	-11.4687
▁Žádný	-11.4687
▁odměnu	-11.4687
▁Ger	-11.4689
▁slevy	-11.469
▁koordinac	-11.469
▁sedmnácti	-11.469
▁maličkost	-11.4691
▁vaku	-11.4691
▁dialogové	-11.4692
▁jmenování	-11.4695
▁prochází	-11.4696
▁předloh	-11.4698
▁poškozen	-11.4699
▁prázdniny	-11.4699
▁otevřenou	-11.4701
▁chyba	-11.4701
▁Kazachstánu	-11.4702
▁skleníkový	-11.4703
▁pachatele	-11.4703
ticky	-11.4705
▁odcházejí	-11.4707
▁vzdálen	-11.4707
vlastn	-11.4709
izování	-11.4709
▁hork	-11.4709
▁pružn	-11.4709
▁stínu	-11.4712
▁nizozemsk	-11.4713
▁jednotný	-11.4713
▁vzniklo	-11.4715
▁spolehlivě	-11.4716
▁zařazení	-11.4716
▁hromada	-11.4716
▁historického	-11.4717
▁správě	-11.4718
taž	-11.4722
▁Sport	-11.4724
▁družstevní	-11.4725
▁zajímavých	-11.4726
▁dopadl	-11.4726
▁konfliktu	-11.4729
▁britských	-11.4729
▁hospodářských	-11.473
▁slabé	-11.4731
▁mezer	-11.4732
▁ryz	-11.4732
▁dnem	-11.4735
▁hokejové	-11.4737
▁suroviny	-11.474
▁zájemcům	-11.474
▁výživ	-11.474
▁odpady	-11.4741
▁kapacitu	-11.4742
▁Přibyl	-11.4744
▁samostatnost	-11.4745
▁dole	-11.4746
▁mostu	-11.4747
padesát	-11.4748
▁zahájena	-11.475
▁smyslem	-11.475
ash	-11.4753
▁vědec	-11.4754
▁tepelné	-11.4756
▁překvapením	-11.4757
▁slavný	-11.4757
▁novináře	-11.476
▁zlé	-11.4766
munist	-11.477
▁závodníků	-11.4771
▁rizikový	-11.4772
běhne	-11.4773
▁perspektivní	-11.4779
▁oprávnění	-11.4783
hodinové	-11.4784
▁Obsah	-11.4785
▁svobodn	-11.479
▁hub	-11.4791
▁určitým	-11.4791
▁VE	-11.4794
▁dlužníka	-11.4794
▁případem	-11.4797
▁přehrad	-11.4798
▁Moc	-11.4799
▁pokračovala	-11.4802
átory	-11.4804
reál	-11.4805
▁účelu	-11.4805
▁pozval	-11.4806
▁potraviny	-11.4806
▁vynesl	-11.4809
▁cenami	-11.4809
▁sedmé	-11.4811
▁vznikal	-11.4813
▁záznamu	-11.4814
▁vidím	-11.4814
13	-11.4815
▁vybaveny	-11.4817
▁středo	-11.4818
▁Sen	-11.4819
▁186	-11.482
NSK	-11.482
pali	-11.4821
zie	-11.4823
▁Žen	-11.4823
▁součásti	-11.4823
▁stavy	-11.4823
▁převrat	-11.4824
▁technologické	-11.4828
▁atomov	-11.4831
▁daného	-11.4832
▁jakéhokoli	-11.4835
▁hostitel	-11.4837
▁časový	-11.484
▁kanál	-11.4841
▁výzkumné	-11.485
ert	-11.4851
▁vlna	-11.4856
▁hlasováním	-11.4857
TER	-11.4859
▁Geo	-11.4861
▁podpisu	-11.4862
třída	-11.4862
▁buňk	-11.4863
▁polský	-11.4867
▁manažery	-11.4869
▁levný	-11.4871
NS	-11.4876
▁vrátili	-11.4876
▁pravý	-11.4877
▁Rozhodl	-11.4883
▁automobilu	-11.4884
▁Plán	-11.4887
▁oslaben	-11.4888
▁zvrat	-11.489
▁rozum	-11.489
▁dle	-11.4891
▁palác	-11.4896
stroj	-11.4901
obdržela	-11.4906
▁podnikateli	-11.4906
kání	-11.4909
▁devatenáct	-11.4911
▁naučil	-11.4912
▁textů	-11.4917
▁spolupracují	-11.4921
omín	-11.4922
ŽE	-11.4924
▁tituly	-11.4926
▁Občansk	-11.4927
▁navržen	-11.4929
▁třetin	-11.4929
▁240	-11.4931
▁fotbalist	-11.4932
▁nabízený	-11.4932
▁nulov	-11.4936
TON	-11.4938
▁cenné	-11.494
▁kandidáta	-11.4941
bov	-11.4945
▁vozov	-11.4947
▁Brněnsk	-11.4947
čnosti	-11.495
▁1)	-11.4954
zek	-11.4957
▁základu	-11.4959
▁světem	-11.4965
▁vývojový	-11.4972
▁povrchové	-11.4975
▁nadměrn	-11.4979
▁Bet	-11.498
soci	-11.4983
▁Nemá	-11.4983
▁najdou	-11.4984
▁čínské	-11.4984
▁přidělen	-11.4986
▁mask	-11.4987
▁zápasem	-11.4992
tvořily	-11.5006
dělení	-11.5007
▁Japonsk	-11.501
▁čtvrtin	-11.5012
line	-11.5016
▁známou	-11.5018
▁450	-11.5019
vinil	-11.5022
▁Novotn	-11.5023
bez	-11.5025
▁vizi	-11.5028
▁špičkov	-11.5029
▁činy	-11.5031
sovětsk	-11.5044
▁fakult	-11.5044
▁jistot	-11.5046
▁bosen	-11.5047
▁přirozeným	-11.5049
▁úvod	-11.5058
▁Čtyř	-11.506
▁jejímu	-11.5067
▁hrozn	-11.507
▁výtečn	-11.5079
íčko	-11.5079
BU	-11.508
vlas	-11.5082
bod	-11.5083
▁Hill	-11.5084
▁lese	-11.5084
nej	-11.5088
▁nepříjemný	-11.5089
natý	-11.509
▁ženské	-11.5094
▁pravomoc	-11.5096
mentálně	-11.51
▁dirigent	-11.5102
▁parametr	-11.5106
rského	-11.5107
▁zvolený	-11.5108
▁maxim	-11.5108
ručně	-11.511
▁hezk	-11.5111
▁nesmysl	-11.5115
▁vlákn	-11.5117
▁výjimk	-11.5119
▁Histori	-11.5121
okres	-11.5124
▁dostaly	-11.5127
hraniční	-11.5133
▁inspektor	-11.5137
▁stranické	-11.5138
▁žádným	-11.5139
▁krev	-11.5139
▁zařízením	-11.514
▁občanům	-11.5141
wi	-11.5147
▁neobvyklé	-11.5147
pec	-11.5149
▁bojovn	-11.5152
▁symbolick	-11.5152
▁kategorií	-11.5155
ložený	-11.5156
▁Velký	-11.5158
▁národním	-11.5158
▁triumf	-11.516
pojit	-11.516
eckém	-11.5164
▁úloh	-11.5165
▁Kole	-11.5167
▁využívají	-11.5171
▁3,	-11.5177
▁geo	-11.5179
▁ukončen	-11.5185
▁uvolněn	-11.5186
▁hráčům	-11.519
izovan	-11.519
▁dobrého	-11.5191
▁ovládá	-11.5193
▁bronz	-11.5193
bíhají	-11.5195
▁hmotnost	-11.5198
povídají	-11.5201
▁vyřazen	-11.5203
▁smrteln	-11.5205
▁centimetr	-11.5206
▁obnovit	-11.5206
▁dívá	-11.521
funk	-11.5211
spěje	-11.5212
▁dodá	-11.5214
plyn	-11.5215
▁algoritm	-11.5216
▁podporují	-11.5217
stva	-11.522
▁spojeno	-11.5224
konalo	-11.5225
▁Vždy	-11.5226
▁účinně	-11.5226
▁Tchaj	-11.5227
Cagiva	-11.5227
kontaminac	-11.5227
▁Apple	-11.5227
▁Barcelony	-11.5227
▁Budinský	-11.5227
▁Dudajev	-11.5227
▁Honecker	-11.5227
▁Liverpool	-11.5227
▁Lobkowicz	-11.5227
▁Luboš	-11.5227
▁Moskvy	-11.5227
▁Měsíc	-11.5227
▁Opět	-11.5227
▁Schumacher	-11.5227
▁Stráský	-11.5227
▁TNF	-11.5227
▁Větší	-11.5227
▁angličtiny	-11.5227
▁atribut	-11.5227
▁databázový	-11.5227
▁dosaženo	-11.5227
▁dětství	-11.5227
▁efektivnosti	-11.5227
▁epidemie	-11.5227
▁evoluce	-11.5227
▁exhibic	-11.5227
▁extremist	-11.5227
▁hnízd	-11.5227
▁hollywoodsk	-11.5227
▁intenzivní	-11.5227
▁jménu	-11.5227
▁konkurs	-11.5227
▁kriminalist	-11.5227
▁kritizoval	-11.5227
▁lhůtě	-11.5227
▁metabolick	-11.5227
▁nabízel	-11.5227
▁nabízet	-11.5227
▁nelíbí	-11.5227
▁nesmějí	-11.5227
▁notebook	-11.5227
▁omezování	-11.5227
▁pohledávky	-11.5227
▁polštář	-11.5227
▁pozůstatk	-11.5227
▁počínání	-11.5227
▁pronájmu	-11.5227
▁pódiu	-11.5227
▁redakční	-11.5227
▁ropovod	-11.5227
▁rozšiřování	-11.5227
▁separatist	-11.5227
▁seznámil	-11.5227
▁skrývá	-11.5227
▁spekulace	-11.5227
▁spekulací	-11.5227
▁svědectví	-11.5227
▁tlačítek	-11.5227
▁trápí	-11.5227
▁vztazích	-11.5227
▁výdělečn	-11.5227
▁zdůrazňuje	-11.5227
▁znepokojen	-11.5227
▁ÚSES	-11.5227
kompenz	-11.5227
▁Frankfurt	-11.5227
▁bydliště	-11.5227
▁kosmické	-11.5227
▁lůžek	-11.5227
▁poloostrov	-11.5227
▁profesní	-11.5227
▁nekončí	-11.5227
▁poskytovan	-11.5227
▁výzvu	-11.5227
▁Haagu	-11.5227
▁Vánoční	-11.5227
▁mrtvol	-11.5227
▁nazývá	-11.5227
▁nerozumí	-11.5227
▁prodavač	-11.5227
▁terminologi	-11.5227
▁belgick	-11.5227
▁přiznat	-11.5227
▁skandál	-11.5227
▁plakát	-11.5227
▁Vánoce	-11.5227
▁pojmy	-11.5227
▁spektrum	-11.5227
▁uváděl	-11.5227
▁demisi	-11.5227
▁pronajat	-11.5227
▁bezespor	-11.5227
▁Easy	-11.5227
▁pokouší	-11.5227
▁mezisklad	-11.5227
▁koupě	-11.5228
▁komplikace	-11.5228
▁pryč	-11.5228
major	-11.5228
▁mutace	-11.5228
▁praxí	-11.5228
▁levicov	-11.5228
▁nejmladší	-11.5228
▁nevadí	-11.5228
▁Kyjev	-11.5228
▁zastupování	-11.5228
▁Myslíte	-11.5228
týkat	-11.5228
▁něčím	-11.5228
týkal	-11.5228
▁inteligentní	-11.5228
▁eventuáln	-11.5228
▁snižují	-11.5228
▁veterán	-11.5228
▁reprezentuje	-11.5228
▁Neznám	-11.5228
▁rovnost	-11.5228
▁bydlet	-11.5228
2:0	-11.5228
▁ledovce	-11.5228
▁pohlaví	-11.5228
▁vyrobil	-11.5228
▁usiloval	-11.5228
▁zastupitelství	-11.5228
▁inkas	-11.5228
▁ocas	-11.5228
uskutečnila	-11.5228
▁levněji	-11.5228
▁bát	-11.5228
▁Group	-11.5228
▁neodpovídá	-11.5228
▁teplé	-11.5228
▁výtisk	-11.5228
▁slyšel	-11.5228
▁strážníci	-11.5228
▁pyšn	-11.5228
▁vápenc	-11.5229
▁komunikací	-11.5229
▁interpretace	-11.5229
▁ČSTK	-11.5229
▁léčby	-11.5229
▁součin	-11.5229
▁vyčleněn	-11.5229
▁někam	-11.5229
▁nezajímá	-11.5229
▁sousedství	-11.5229
▁stolní	-11.5229
▁námitky	-11.5229
▁dozor	-11.5229
▁Olg	-11.5229
▁norem	-11.5229
▁střechy	-11.5229
▁Dukla	-11.5229
▁Thun	-11.523
▁sumy	-11.523
▁stoprocentní	-11.523
KDH	-11.523
▁HDP	-11.523
▁Prohlásil	-11.523
▁složitost	-11.5231
▁kabin	-11.5231
▁určí	-11.5231
▁úředníci	-11.5231
▁kinematografie	-11.5231
▁prudké	-11.5232
▁pozitivně	-11.5232
nově	-11.5232
kontinentální	-11.5233
▁dílčí	-11.5233
míří	-11.5233
▁kníže	-11.5233
rozuměl	-11.5233
▁NOV	-11.5234
▁datum	-11.5234
▁Nemůže	-11.5234
Finsko	-11.5234
▁novinkou	-11.5234
▁teplý	-11.5234
▁švýcarský	-11.5235
▁prodejců	-11.5235
▁Lys	-11.5236
▁pamatuje	-11.5236
▁Grafová	-11.5236
▁jmenovat	-11.5236
▁nud	-11.5236
▁účelům	-11.5237
▁selekčn	-11.5237
▁Neměl	-11.5237
▁hluk	-11.5237
▁hektarů	-11.5238
▁geografick	-11.5238
▁Libor	-11.5238
tahuje	-11.5238
▁přenést	-11.5238
▁mohutn	-11.5239
▁posuzování	-11.5239
MF	-11.5239
▁odklad	-11.5239
▁zmáčkn	-11.524
▁Původní	-11.524
▁10%	-11.524
▁rozměrů	-11.5241
▁hád	-11.5241
▁poškodil	-11.5241
▁přestávce	-11.5241
▁ohrozit	-11.5241
▁zkoušku	-11.5241
▁sídlo	-11.5241
▁dějinách	-11.5241
▁Postupně	-11.5242
▁pořadatelů	-11.5243
▁Polák	-11.5243
▁Tatra	-11.5244
▁Web	-11.5244
▁euro	-11.5245
▁předešl	-11.5245
▁socialistické	-11.5245
▁odhaduje	-11.5245
▁Zpočátku	-11.5246
▁špičkových	-11.5247
▁disponuje	-11.5247
▁Pardubice	-11.5248
▁hygienické	-11.5248
▁učební	-11.5248
▁uznává	-11.5248
▁vykázal	-11.5249
▁plaz	-11.525
▁neobvykl	-11.525
▁úsměvem	-11.525
▁považoval	-11.5251
▁sestra	-11.5252
▁Vaš	-11.5253
▁zapsán	-11.5253
▁Římě	-11.5254
▁Vodičk	-11.5254
▁trik	-11.5254
▁Určitě	-11.5255
▁filozofické	-11.5256
▁předpokládají	-11.5256
▁badatelé	-11.5256
▁Izraele	-11.5257
▁svazek	-11.5259
▁minulou	-11.5259
▁LID	-11.5261
▁dálnice	-11.5261
▁motocyklů	-11.5262
▁Zkus	-11.5262
▁zvířete	-11.5263
▁přírodním	-11.5264
▁ohlásil	-11.5264
▁List	-11.5264
▁ostrově	-11.5265
▁drát	-11.5267
▁vyplácení	-11.5267
▁hvězda	-11.5268
CK	-11.5268
▁invalidní	-11.5269
▁Koš	-11.5269
▁gest	-11.5272
▁kompresi	-11.5272
▁zrodil	-11.5274
▁prázdné	-11.5275
▁herci	-11.5275
▁posádky	-11.5276
▁spuštění	-11.5276
▁sněmovna	-11.528
▁zvon	-11.528
▁vyhlášky	-11.5281
▁klientel	-11.5282
▁klepnutím	-11.5285
▁Kremlu	-11.5285
▁převodu	-11.5285
ovitých	-11.5285
▁schránky	-11.5285
ložených	-11.5286
▁Londýna	-11.5286
▁Listin	-11.5287
jmenovaný	-11.5287
▁iniciativy	-11.5287
▁Paříže	-11.5288
▁akcionáři	-11.5289
▁dáno	-11.5289
▁berou	-11.5289
▁azbestu	-11.529
▁bazénu	-11.529
▁zakázku	-11.5291
▁Těm	-11.5294
▁vyhrazen	-11.5294
▁Pravda	-11.5294
▁manipul	-11.5294
▁přistoupil	-11.5295
▁učitelé	-11.5296
atřicetilet	-11.5298
▁pěkný	-11.5299
▁Kolumbi	-11.5301
▁fotbalisty	-11.5301
▁starožitnost	-11.5302
▁zakázal	-11.5302
▁nevhodné	-11.5303
▁problémech	-11.5303
▁vteřiny	-11.5304
▁sporů	-11.5306
▁zásobník	-11.5306
▁doprovodu	-11.5306
▁pořádně	-11.5306
▁ekonomickým	-11.5308
▁vidíme	-11.5308
▁Nizozemska	-11.5312
▁omezeným	-11.5314
▁sond	-11.5316
▁tunelu	-11.5317
▁Benda	-11.5318
▁dialogu	-11.5318
▁pomocník	-11.5319
▁povinné	-11.532
▁povrchem	-11.532
▁doplnění	-11.5321
platné	-11.5322
▁zvané	-11.5323
▁výuky	-11.5323
ogenní	-11.5328
▁volném	-11.5328
▁využíván	-11.5329
▁mzdové	-11.5329
▁proměnn	-11.5332
▁kritiky	-11.5336
▁slevu	-11.5337
▁prodávají	-11.5338
cz	-11.5338
▁krásn	-11.534
▁nazvaný	-11.534
▁čar	-11.534
▁poplatníků	-11.534
▁předmětu	-11.5341
▁údaji	-11.5341
▁náměstka	-11.5342
▁procesory	-11.5343
▁přežil	-11.5343
▁Sex	-11.5344
▁silnici	-11.5347
▁paktu	-11.5349
▁vítězk	-11.5349
▁jízdu	-11.5349
▁Lac	-11.5354
▁používané	-11.5355
▁systémech	-11.5356
▁otázkami	-11.5357
čínsk	-11.5358
▁tváře	-11.5362
▁dolaru	-11.5362
▁vlastník	-11.5364
▁zakázán	-11.5364
▁230	-11.5365
▁Ře	-11.5366
▁olympiádu	-11.5367
▁sortimentu	-11.5367
slouží	-11.537
▁Nova	-11.5374
▁vývojář	-11.5374
ičku	-11.5375
▁59	-11.5376
▁vrah	-11.5378
▁největšího	-11.5379
▁Tisk	-11.5379
▁zaujím	-11.538
▁monopolní	-11.5388
▁Tito	-11.5395
▁elektrod	-11.5397
▁ilustrac	-11.5398
▁odpadu	-11.5401
▁choroby	-11.5402
▁Ivo	-11.5404
▁pacienty	-11.5405
▁zemřelo	-11.5407
▁užití	-11.5407
▁hostin	-11.541
▁vlivu	-11.5411
▁vyplněn	-11.5411
▁soutěžích	-11.5412
▁etnick	-11.5412
▁vzali	-11.5415
▁ukázaly	-11.5415
počtu	-11.5415
▁nahradí	-11.5417
▁rozmnož	-11.5418
▁okamžité	-11.5425
▁neobyčejn	-11.5425
▁trojnásobn	-11.5426
57	-11.5426
▁ran	-11.543
USA	-11.5431
▁slovenského	-11.5432
škodí	-11.5432
ázev	-11.5434
▁hodí	-11.5435
Pro	-11.5436
▁porazili	-11.5438
▁zůstali	-11.5442
ring	-11.5443
▁soli	-11.5446
▁zvolí	-11.5448
▁doufám	-11.5449
jeden	-11.5449
▁Vir	-11.545
▁útvarů	-11.5452
prv	-11.5458
II	-11.5461
▁koná	-11.5462
▁občansk	-11.5467
▁nebýval	-11.5468
▁stanovil	-11.5469
▁činitel	-11.5474
lína	-11.5474
JÍ	-11.5483
▁Japon	-11.5487
▁příznačn	-11.5487
▁ptát	-11.5488
obec	-11.5489
jistá	-11.549
hřeb	-11.5492
▁postupuje	-11.5494
▁zastávk	-11.5496
▁odběratele	-11.5497
▁tradičních	-11.55
IA	-11.5502
▁stálý	-11.5504
▁nákladné	-11.5505
▁oprávněné	-11.5508
▁matematické	-11.5512
▁Map	-11.5513
▁vysílač	-11.5518
▁místopředsedy	-11.5524
▁dokázala	-11.5525
▁plzeňské	-11.5526
▁příklady	-11.5526
▁dramatické	-11.5528
▁konve	-11.5532
▁Výrobc	-11.5535
▁převyšuj	-11.5538
▁příkazu	-11.5538
jevit	-11.5539
▁národa	-11.554
▁vyvážen	-11.5542
▁popisu	-11.5548
▁Trh	-11.5548
▁demokrat	-11.5553
▁94	-11.5556
▁Dole	-11.556
▁varianta	-11.5565
▁leteck	-11.5566
sadili	-11.5567
▁zálož	-11.557
▁Američanů	-11.5572
NU	-11.5577
▁zhodnoc	-11.558
▁hory	-11.5591
▁způsobí	-11.5591
▁rozumí	-11.5595
vládní	-11.56
▁Ph	-11.5601
přestává	-11.5601
nar	-11.5603
▁vzpomín	-11.5603
▁rozdílné	-11.5605
▁vlastníka	-11.5607
▁plynáren	-11.5608
▁automobilové	-11.561
▁útoků	-11.5617
▁evoluční	-11.5619
▁uzavřený	-11.562
▁skutečným	-11.5621
hodinový	-11.5624
▁prokázán	-11.5626
psání	-11.563
▁nejlepšími	-11.5631
▁Švéd	-11.5634
▁příjemně	-11.5636
▁pořádají	-11.5638
▁konstatova	-11.564
▁jakoukoli	-11.564
▁Přím	-11.5644
▁Způsob	-11.5644
hrnul	-11.5646
▁vložené	-11.5653
alba	-11.5654
▁nepříjemn	-11.5657
▁dokonč	-11.5657
▁okamžit	-11.5659
▁pětadvacet	-11.5662
▁doufá	-11.5663
▁Václavské	-11.5666
▁Významn	-11.5667
▁Obča	-11.5668
lizace	-11.5672
▁vzrost	-11.5673
dražil	-11.5678
▁vyjadřuj	-11.5679
▁Obchod	-11.5685
▁souhlasil	-11.5689
▁vzp	-11.5694
▁rekordní	-11.5699
▁opačné	-11.5702
▁Ročn	-11.5707
▁uvědomil	-11.5709
▁pomohla	-11.5715
sunut	-11.5716
hodná	-11.5716
▁hodině	-11.5716
96	-11.5718
▁světle	-11.5722
▁vhodný	-11.5727
sát	-11.5733
nikat	-11.5733
▁použitím	-11.5736
platila	-11.574
vědčí	-11.574
▁milost	-11.5745
▁Radnic	-11.5748
obyčejně	-11.5751
přineslo	-11.5752
▁William	-11.5752
▁Vysok	-11.5755
▁zlat	-11.5758
stavovat	-11.576
▁zbytečný	-11.5767
▁doprovod	-11.5768
podivu	-11.5769
▁Opti	-11.577
▁přírodovědeck	-11.5773
▁vytvořený	-11.5776
▁prodával	-11.5778
▁neprav	-11.5784
▁badatel	-11.5787
▁Temelín	-11.5787
▁vozidl	-11.5789
▁Knih	-11.5792
▁61	-11.5796
▁absolvent	-11.5799
▁totožn	-11.5799
▁Čtvrt	-11.5804
▁kontinent	-11.5806
čítat	-11.5807
▁Word	-11.5809
▁násilí	-11.5809
▁cukr	-11.581
evropský	-11.581
▁terén	-11.581
▁odporu	-11.5811
hledné	-11.5812
hodné	-11.5815
▁period	-11.5816
▁šlecht	-11.5818
▁čtvereční	-11.5819
▁tratí	-11.5822
▁knížk	-11.5824
▁Střed	-11.5825
▁zkušebn	-11.5827
▁postoupil	-11.5827
▁cítím	-11.5828
▁uplatňuj	-11.5831
▁nadějn	-11.5831
▁závislost	-11.5833
▁autorit	-11.5836
▁hrazen	-11.5839
▁minima	-11.584
▁projevují	-11.584
▁zaplacen	-11.5847
tržení	-11.5847
▁Dět	-11.5847
▁infekc	-11.5847
členný	-11.5848
svědčuje	-11.5849
▁slavn	-11.5852
▁použije	-11.5852
▁párů	-11.5857
▁Tan	-11.5859
▁Míst	-11.5859
▁Mik	-11.586
▁pozván	-11.5862
▁dvacát	-11.5863
rah	-11.5864
▁Určit	-11.5866
máhat	-11.5867
rovnání	-11.5869
▁konstru	-11.587
▁síťové	-11.5871
▁penzi	-11.5872
▁sediment	-11.5872
▁měřit	-11.5876
▁nedoved	-11.5878
▁byrokrat	-11.5885
▁komunik	-11.5886
chybějí	-11.5889
▁Rychl	-11.5891
▁KSČ	-11.5892
▁zkušen	-11.5893
▁Jenom	-11.5893
▁Účast	-11.5894
JPEG	-11.5894
▁1983	-11.5894
▁Austrálie	-11.5894
▁Domnívám	-11.5894
▁Harvard	-11.5894
▁Ludvík	-11.5894
▁Mitterrand	-11.5894
▁Oldřich	-11.5894
▁Pistol	-11.5894
▁Saúdsk	-11.5894
▁Vešker	-11.5894
▁WWW	-11.5894
▁bankovnictví	-11.5894
▁definice	-11.5894
▁deklaraci	-11.5894
▁domorodc	-11.5894
▁důležitější	-11.5894
▁federaci	-11.5894
▁firmách	-11.5894
▁fungování	-11.5894
▁hardwarov	-11.5894
▁infarkt	-11.5894
▁interiér	-11.5894
▁jednodušší	-11.5894
▁konfigurace	-11.5894
▁konkurovat	-11.5894
▁kvót	-11.5894
▁literatuře	-11.5894
▁marketingu	-11.5894
▁nenávist	-11.5894
▁neškodn	-11.5894
▁novotvary	-11.5894
▁odpovědět	-11.5894
▁pneumatik	-11.5894
▁pojišťovnou	-11.5894
▁poptávku	-11.5894
▁problematice	-11.5894
▁prozradil	-11.5894
▁předpovědi	-11.5894
▁předvánoční	-11.5894
▁přerozdělování	-11.5894
▁referát	-11.5894
▁rekreaci	-11.5894
▁rozsudk	-11.5894
▁rozsáhlejší	-11.5894
▁rubrice	-11.5894
▁seskupení	-11.5894
▁symplektick	-11.5894
▁tolerance	-11.5894
▁trénovat	-11.5894
▁vláken	-11.5894
▁vypráví	-11.5894
▁vyžadovat	-11.5894
▁zapomenout	-11.5894
▁zaručit	-11.5894
▁zavražděn	-11.5894
▁zodpovězen	-11.5894
▁zákulisí	-11.5894
▁Četrans	-11.5894
▁špatnou	-11.5894
▁Maďarskem	-11.5894
▁Návrat	-11.5894
▁kampaně	-11.5894
▁nukleární	-11.5894
▁plošný	-11.5894
▁populaci	-11.5894
▁přihlášen	-11.5894
▁rozvíjet	-11.5894
▁tiskáren	-11.5894
▁účinků	-11.5894
▁Právo	-11.5894
▁archiv	-11.5894
▁makléř	-11.5894
▁mikrofon	-11.5894
▁osaměl	-11.5894
▁otazník	-11.5894
▁uvítal	-11.5894
▁vyslovit	-11.5894
▁vzbudil	-11.5894
▁východoevropský	-11.5894
▁účinné	-11.5894
▁cementárn	-11.5894
▁reagují	-11.5894
přízeň	-11.5894
▁Ctrl	-11.5894
▁Francií	-11.5894
▁placentál	-11.5894
▁povolební	-11.5894
▁pozměň	-11.5894
▁stráví	-11.5894
▁finalist	-11.5894
▁infikova	-11.5894
▁praktik	-11.5894
▁ujistil	-11.5894
▁Michel	-11.5894
▁zastupuje	-11.5894
▁Kurzy	-11.5894
▁milimetr	-11.5894
▁povstal	-11.5894
▁taxonomie	-11.5894
▁značku	-11.5894
▁aridní	-11.5894
▁nabídek	-11.5894
▁ustavující	-11.5894
▁přehnan	-11.5894
▁fází	-11.5894
▁vybojoval	-11.5894
▁elementární	-11.5894
▁pól	-11.5894
▁Marián	-11.5894
▁Prokop	-11.5894
▁biochemi	-11.5894
▁plastik	-11.5894
▁přípustn	-11.5894
▁úložiště	-11.5894
▁ovládací	-11.5894
▁Pivovar	-11.5894
▁desek	-11.5894
▁popředí	-11.5894
šňů	-11.5894
▁fixac	-11.5894
▁rozdělí	-11.5894
▁vrstva	-11.5894
▁odvezl	-11.5894
▁dřevěné	-11.5894
▁uplatňován	-11.5894
▁rozčleněn	-11.5895
▁trasy	-11.5895
▁FBIS	-11.5895
▁oboustrann	-11.5895
▁jednostrann	-11.5895
▁zánět	-11.5895
▁ČSD	-11.5895
▁učiní	-11.5895
▁Informace	-11.5895
▁poušti	-11.5895
▁bezpečně	-11.5895
▁Proces	-11.5895
▁komunikační	-11.5895
▁mediální	-11.5895
▁léčbu	-11.5895
▁češtiny	-11.5895
▁Soulu	-11.5895
▁komunit	-11.5895
▁konsensus	-11.5895
▁lázní	-11.5895
▁Moravia	-11.5896
▁střídají	-11.5896
▁Super	-11.5896
▁dotaci	-11.5896
▁funkčnost	-11.5896
▁holub	-11.5896
ford	-11.5896
▁realizace	-11.5896
▁Značn	-11.5896
▁robot	-11.5896
▁zabránil	-11.5896
▁nepřesnost	-11.5896
▁1976	-11.5896
▁Nechci	-11.5896
▁bankrot	-11.5896
▁Setkání	-11.5896
▁nominaci	-11.5896
▁šipk	-11.5896
▁Cítí	-11.5896
▁sníh	-11.5897
▁fakticky	-11.5897
▁toxické	-11.5897
▁spotřeba	-11.5897
▁publikaci	-11.5897
▁kameny	-11.5897
▁faul	-11.5897
▁Irák	-11.5898
▁podobnou	-11.5898
▁vyprávěl	-11.5898
▁touží	-11.5898
yplynulo	-11.5898
▁pestr	-11.5899
symetri	-11.5899
▁všední	-11.5899
▁Hleda	-11.59
▁mezistátní	-11.59
▁Každé	-11.59
▁líčí	-11.5901
▁dvoudenní	-11.5901
▁vystavuje	-11.5901
▁nepamatuj	-11.5901
▁uheln	-11.5902
▁obchodovat	-11.5902
▁faktorem	-11.5902
▁volající	-11.5902
▁stěžovat	-11.5902
▁porod	-11.5902
▁produkcí	-11.5902
▁bál	-11.5903
▁rekordman	-11.5903
▁rolí	-11.5903
▁hepatocytů	-11.5903
▁kardinál	-11.5903
▁distribuční	-11.5903
▁nalezl	-11.5904
▁Vzá	-11.5904
▁desetkrát	-11.5905
▁zajišťující	-11.5905
▁nestátní	-11.5905
▁spektra	-11.5905
▁palubě	-11.5905
▁Kladně	-11.5906
▁zimy	-11.5906
▁hospodaří	-11.5906
▁tendence	-11.5906
▁Data	-11.5907
▁cestách	-11.5907
▁vynutil	-11.5907
chůd	-11.5907
▁vlasy	-11.5908
▁vyhodnocení	-11.5908
▁uchazeč	-11.5908
▁ředitelství	-11.5909
▁významnější	-11.5909
▁stád	-11.591
▁statistick	-11.591
▁Prag	-11.591
1972	-11.5911
▁altruismus	-11.5912
▁umělci	-11.5912
▁výšky	-11.5913
▁konání	-11.5914
▁odsoudil	-11.5914
▁přijatelná	-11.5916
▁předloží	-11.5916
znamenají	-11.5916
▁virus	-11.5917
▁zatížení	-11.5918
▁pokrýt	-11.5918
▁připraví	-11.5918
▁zajímavost	-11.5918
▁kouř	-11.5918
▁dosáhne	-11.592
▁evropskou	-11.592
▁prokázat	-11.592
▁komentátor	-11.592
▁jednotlivce	-11.592
▁hudbu	-11.5921
▁zvířecí	-11.5922
▁pořádek	-11.5922
▁zelený	-11.5922
▁vysloužil	-11.5923
▁pozorovatelé	-11.5923
▁nouze	-11.5924
▁analýze	-11.5925
▁vydávat	-11.5925
▁řetězce	-11.5928
▁ekonomikou	-11.5928
ňovací	-11.5928
▁cokoli	-11.5928
▁nepřinesl	-11.5928
▁vysílací	-11.5929
▁Lidový	-11.5929
▁pásmu	-11.5929
▁vzrostl	-11.593
▁zeď	-11.593
▁nástupce	-11.5931
▁Číně	-11.5931
▁autobusem	-11.5933
▁vyhrát	-11.5934
▁řádku	-11.5934
ousek	-11.5934
▁různě	-11.5934
▁modelování	-11.5935
sloučenin	-11.5936
▁jistotou	-11.5936
▁soukromí	-11.5936
▁sumu	-11.5937
▁povrchov	-11.5937
▁automatick	-11.5937
▁přesností	-11.5937
▁vědce	-11.5938
▁dodavatelů	-11.5938
▁zmínil	-11.594
▁pozoruhodné	-11.5941
▁pevnin	-11.5941
▁mlhy	-11.5941
LET	-11.5942
▁vyřazení	-11.5942
▁lekto	-11.5943
▁uvolni	-11.5945
▁technickou	-11.5945
▁podepsání	-11.5945
▁nedokáže	-11.5946
▁předkol	-11.5947
▁středoevropské	-11.5948
▁oceánické	-11.5948
▁úvah	-11.595
▁návštěvníky	-11.5952
▁směřující	-11.5952
▁kurzů	-11.5952
kontroluje	-11.5952
▁pomst	-11.5954
▁řešil	-11.5955
▁Šlo	-11.5955
▁výtvarník	-11.5955
▁Chebu	-11.5956
▁Alžběta	-11.5957
▁Bratinka	-11.5957
živí	-11.5958
▁vyloučeno	-11.5959
▁zastává	-11.5961
▁zoologick	-11.5962
▁dopisů	-11.5964
▁slavnosti	-11.5964
▁krajině	-11.5964
▁ekonomiku	-11.5968
▁nuly	-11.5968
▁kalendářní	-11.5969
dražit	-11.5969
▁ránu	-11.597
▁rozpočtový	-11.5971
▁úzk	-11.5973
▁kanály	-11.5973
▁odstoupil	-11.5974
štění	-11.5975
▁pokladny	-11.5976
▁disciplíny	-11.5976
▁optimismu	-11.5977
▁výhodný	-11.5978
▁plen	-11.598
▁zjednodušen	-11.5981
▁listiny	-11.5984
▁bránil	-11.5984
▁Stor	-11.5985
▁dán	-11.5986
▁předsedkyn	-11.5986
▁stoupla	-11.5987
▁vybrali	-11.5987
▁přispívají	-11.5989
▁dospělých	-11.599
▁sestaven	-11.5991
▁přístavu	-11.5991
▁Francouzský	-11.5991
▁Vznikl	-11.5992
▁obchodník	-11.5992
▁hormonů	-11.5993
náze	-11.5996
▁magi	-11.5998
▁citeln	-11.5999
▁autobusové	-11.6
▁větru	-11.6
▁středověku	-11.6002
▁zvykem	-11.6002
▁aparátu	-11.6003
▁Anna	-11.6003
▁diváky	-11.6006
▁úhradu	-11.6007
▁aplikacemi	-11.6007
▁nevěděli	-11.6008
▁vzrostla	-11.6008
▁Historick	-11.6009
▁opakuje	-11.601
▁telefonů	-11.601
▁filmař	-11.6011
▁diplomatický	-11.6012
▁Nedo	-11.6012
▁vyloučení	-11.6012
▁motorem	-11.6013
▁Fakt	-11.6015
▁etapa	-11.6015
▁délky	-11.6017
▁dozvěděli	-11.6018
▁široký	-11.602
▁hosté	-11.6021
trpěl	-11.6021
▁pořádání	-11.6022
▁válečný	-11.6022
▁nastane	-11.6022
hodnost	-11.6023
▁dodávat	-11.6024
▁Možnosti	-11.6024
▁dramatick	-11.6028
▁ostrova	-11.6029
rovnávání	-11.6029
▁zvolení	-11.603
▁návratnost	-11.6031
▁dluhy	-11.6031
▁nahoře	-11.6033
▁táhn	-11.6034
▁druhých	-11.6034
▁černého	-11.6035
▁městem	-11.6036
▁přísné	-11.6037
▁katastrofy	-11.6037
▁klesla	-11.604
▁Kos	-11.6045
▁samotného	-11.6046
▁zúčastněný	-11.6046
▁možnostech	-11.605
▁vysokým	-11.6051
▁bytový	-11.6051
▁nezávislosti	-11.6053
▁titulem	-11.6054
▁útvaru	-11.6056
▁vědecky	-11.6056
▁Hilla	-11.6057
▁liga	-11.6058
▁hladinu	-11.6058
▁proslul	-11.6059
▁nazvané	-11.6059
▁Alan	-11.6061
▁nemáte	-11.6061
▁proteinu	-11.6062
▁chaty	-11.6062
ND	-11.6066
▁dovnitř	-11.6068
▁Muži	-11.6068
▁objevilo	-11.6069
▁obchodníky	-11.6069
▁nepřímo	-11.6069
▁svěřil	-11.607
▁úspěšných	-11.6073
▁katalogu	-11.6073
▁rock	-11.6073
▁investici	-11.6074
▁horké	-11.6074
▁bra	-11.6076
▁rezervy	-11.6076
▁nejbližším	-11.6076
▁postaví	-11.6076
▁představila	-11.608
▁tématu	-11.608
▁Svobodn	-11.6081
▁mraz	-11.6084
▁kurzy	-11.6085
▁editoru	-11.6097
▁nechtěli	-11.6098
▁zaměstnavateli	-11.6103
▁kanceláři	-11.6105
▁založili	-11.6112
▁góly	-11.6115
▁krádež	-11.6117
▁faktur	-11.6117
▁požádala	-11.6121
▁generálním	-11.6122
děláme	-11.6122
▁kulturu	-11.6123
▁kursu	-11.6129
▁zločiny	-11.613
▁bon	-11.6131
▁Olympi	-11.6132
▁odstupné	-11.6132
▁Chorvatsk	-11.6134
▁tělesn	-11.6139
▁předák	-11.614
▁podzimu	-11.614
▁zápasech	-11.6144
▁ověřit	-11.6147
▁tréninku	-11.6149
dova	-11.6151
pracovala	-11.6152
▁udělala	-11.6152
▁krásný	-11.6153
▁nedělním	-11.6153
▁pohybů	-11.6158
▁Dne	-11.6165
▁vítězem	-11.6167
▁šťastný	-11.6168
panuje	-11.6169
▁radí	-11.617
▁ledu	-11.6174
▁nabídla	-11.6176
▁samém	-11.6177
▁přiměřen	-11.6177
▁položen	-11.6179
ohled	-11.6184
▁vlastníky	-11.6196
UM	-11.6197
▁dotazy	-11.6199
▁dokonalý	-11.62
▁nacházel	-11.62
▁Šv	-11.6202
▁lebk	-11.621
▁Černé	-11.6212
▁vyroben	-11.6213
nesení	-11.6214
vydržel	-11.6214
▁maso	-11.6215
▁nacházejí	-11.6215
▁českými	-11.6218
▁kapacita	-11.6218
poškozené	-11.6219
▁Eli	-11.6221
▁českému	-11.6227
▁známy	-11.6228
▁krátkém	-11.623
▁cizím	-11.6234
▁Jejím	-11.6236
▁nařídil	-11.6238
▁vozí	-11.6242
▁majetkové	-11.6244
▁jede	-11.6247
méno	-11.6248
▁Americké	-11.625
▁upravené	-11.6252
▁dotazu	-11.6253
míněn	-11.6259
▁trávi	-11.6261
který	-11.6261
▁královské	-11.6262
▁39	-11.6263
riti	-11.6269
▁Casimir	-11.627
pravicov	-11.627
▁nedělá	-11.6274
ALE	-11.6279
▁disky	-11.6279
▁moderního	-11.6283
▁jakosti	-11.6286
▁následné	-11.6286
▁měnil	-11.6286
▁doprav	-11.6287
hradil	-11.6287
stižen	-11.6289
▁poradenské	-11.6289
obrazit	-11.629
▁obcích	-11.629
▁dosáhli	-11.629
1992	-11.6291
ovská	-11.6296
kupuje	-11.6299
▁vymez	-11.6302
▁náboženský	-11.6303
▁logik	-11.6303
▁vložil	-11.6304
▁starších	-11.6304
▁Perské	-11.6308
vanou	-11.631
značení	-11.631
účel	-11.6312
▁spolehliv	-11.6313
▁Borise	-11.6314
bitový	-11.6314
mad	-11.6318
▁vypracoval	-11.6324
pokládat	-11.6328
▁4000	-11.6328
vaná	-11.6328
▁dostával	-11.633
▁květ	-11.6332
▁pravým	-11.6333
▁Výstav	-11.6333
▁socialist	-11.6338
zkoumat	-11.6341
▁Spíš	-11.6341
▁budoucím	-11.6346
▁osobou	-11.6347
ladit	-11.6358
▁slavnost	-11.6366
▁Mladiče	-11.6367
▁nád	-11.6368
▁Začátk	-11.6373
▁Podpor	-11.6376
▁velitele	-11.6376
ckým	-11.6396
léhá	-11.6401
▁Druh	-11.6404
▁sobotním	-11.6408
▁bitv	-11.6411
operační	-11.6412
▁slušný	-11.6414
▁obrovsk	-11.6414
▁nabízené	-11.6418
▁Ren	-11.6418
▁mužem	-11.6418
▁překonal	-11.6425
▁podrobně	-11.643
▁prostý	-11.6433
četné	-11.6434
odpovědn	-11.6434
▁Prac	-11.6438
▁předků	-11.6439
▁vrácen	-11.644
▁díle	-11.6442
▁udělen	-11.6444
NG	-11.6448
▁strašn	-11.6448
▁způsobeno	-11.6451
ocel	-11.6452
▁porážk	-11.6453
▁vrcholové	-11.6456
▁ovlivnil	-11.6457
▁splněn	-11.6461
▁peče	-11.6466
▁Park	-11.6468
▁poplatník	-11.648
▁vytvořené	-11.6485
ůbec	-11.6487
▁vyplacen	-11.6489
▁měřítk	-11.649
▁muslimsk	-11.6491
▁Daně	-11.6492
▁žádného	-11.6493
▁racionální	-11.6497
ÁNÍ	-11.6497
▁jednotn	-11.6498
▁Tureck	-11.6501
▁nemovitost	-11.6504
▁pozic	-11.6504
drobnější	-11.6517
▁světeln	-11.6521
▁vynález	-11.6521
▁něčem	-11.6524
▁Hans	-11.6524
▁poslání	-11.6524
konaly	-11.6526
▁propojen	-11.6528
▁Skutečn	-11.6529
malý	-11.6536
▁spravedlnost	-11.6537
▁elektřin	-11.6538
▁sovět	-11.6539
▁myš	-11.6539
rovné	-11.654
▁případném	-11.654
▁Alb	-11.6541
▁architektur	-11.6543
▁ukazatel	-11.6544
ovku	-11.6544
▁poskytován	-11.6546
lít	-11.6546
▁produk	-11.6547
▁zklamán	-11.6549
▁Jir	-11.655
gramů	-11.6556
▁53	-11.6558
▁Výkon	-11.6561
▁charakterizova	-11.6561
▁honorář	-11.6567
▁bilanc	-11.6568
▁problémům	-11.657
▁Víc	-11.6571
▁dovednost	-11.6575
▁doporučen	-11.6576
▁nemocné	-11.6577
▁prah	-11.6579
▁fundamentalist	-11.6581
▁sexu	-11.6582
▁tržb	-11.6582
▁Janov	-11.6585
▁kilogram	-11.6587
ografické	-11.6589
▁srovnateln	-11.6591
▁spustí	-11.6592
▁průvod	-11.6595
▁kořen	-11.6596
▁stanovis	-11.6598
▁teplá	-11.6598
šan	-11.66
▁podob	-11.66
▁Žád	-11.6601
tíží	-11.6601
▁identifik	-11.6602
▁TV	-11.6603
▁vycházejí	-11.6605
▁učit	-11.6606
▁účinku	-11.6608
▁Digital	-11.6608
▁Reichel	-11.6608
▁Teplice	-11.6608
▁bulharsk	-11.6608
▁databáze	-11.6608
▁komodit	-11.6608
▁ofsajd	-11.6608
▁paměť	-11.6608
▁poválečn	-11.6608
▁poštovní	-11.6608
▁velvyslanec	-11.6608
▁zpracovává	-11.6608
ýpovědní	-11.6608
▁Akademie	-11.6608
▁Albertville	-11.6608
▁Bratislavy	-11.6608
▁Delphi	-11.6608
▁Dokument	-11.6608
▁General	-11.6608
▁Hospodářsk	-11.6608
▁Kuvajt	-11.6608
▁Muslim	-11.6608
▁Netanjahu	-11.6608
▁Princip	-11.6608
▁Pálffy	-11.6608
▁SPIRIT	-11.6608
▁TWA	-11.6608
▁Vynikající	-11.6608
▁brožur	-11.6608
▁databázi	-11.6608
▁delegát	-11.6608
▁diktátor	-11.6608
▁dveřmi	-11.6608
▁emitent	-11.6608
▁finálové	-11.6608
▁havárii	-11.6608
▁injekc	-11.6608
▁inzulín	-11.6608
▁kanalizací	-11.6608
▁katalyzátor	-11.6608
▁kazašsk	-11.6608
▁komedie	-11.6608
▁komisař	-11.6608
▁kompetencí	-11.6608
▁lahví	-11.6608
▁lidstvo	-11.6608
▁milisekund	-11.6608
▁nechybí	-11.6608
▁nesrovnateln	-11.6608
▁nosorožců	-11.6608
▁novorozen	-11.6608
▁odpolední	-11.6608
▁olomoucké	-11.6608
▁omezit	-11.6608
▁organismy	-11.6608
▁paradigma	-11.6608
▁podezřelý	-11.6608
▁pojišťoven	-11.6608
▁pojišťovně	-11.6608
▁portfeje	-11.6608
▁pořizovací	-11.6608
▁pátku	-11.6608
▁přísluší	-11.6608
▁raketoplán	-11.6608
▁sféře	-11.6608
▁splátek	-11.6608
▁stadiu	-11.6608
▁tekutin	-11.6608
▁těhotenství	-11.6608
▁vlhkost	-11.6608
▁vrtulník	-11.6608
▁vyčerpán	-11.6608
▁vídeňské	-11.6608
▁zahájit	-11.6608
▁zakázek	-11.6608
▁zaručuje	-11.6608
▁zdůraznit	-11.6608
▁zneužívání	-11.6608
▁zopakoval	-11.6608
▁záruční	-11.6608
▁zázračn	-11.6608
▁účinnou	-11.6608
▁Černomyrdin	-11.6608
▁železnice	-11.6608
▁KGB	-11.6608
▁Němce	-11.6608
▁SGI	-11.6608
▁holding	-11.6608
▁informuje	-11.6608
▁lehký	-11.6608
▁obyvatelstvo	-11.6608
▁pohodlné	-11.6608
▁prodluž	-11.6608
▁přeplněn	-11.6608
▁severozápad	-11.6608
▁smířit	-11.6608
▁svrchované	-11.6608
▁trénuj	-11.6608
▁vyústi	-11.6608
▁Československý	-11.6608
▁Student	-11.6608
▁kultuře	-11.6608
▁polymer	-11.6608
▁rozsáhlou	-11.6608
▁srbské	-11.6608
▁stěžuje	-11.6608
▁železné	-11.6608
▁James	-11.6608
▁Zajímal	-11.6608
▁chystají	-11.6608
▁odstavec	-11.6608
▁umírněn	-11.6608
▁nejblíže	-11.6608
▁netrpěliv	-11.6608
▁tvořiv	-11.6608
▁vzdělan	-11.6608
▁dávek	-11.6608
▁někomu	-11.6608
▁podepsat	-11.6608
▁Holandsk	-11.6608
▁Kadlec	-11.6608
▁nepodaří	-11.6608
▁Automatick	-11.6608
▁Prahou	-11.6608
▁nikomu	-11.6608
▁loupež	-11.6608
▁odhalit	-11.6608
LSNS	-11.6608
glaciál	-11.6608
▁poznámky	-11.6608
▁Mlýn	-11.6608
▁přetížen	-11.6608
▁oběhové	-11.6608
▁mutací	-11.6608
▁úchyt	-11.6608
▁prováděl	-11.6608
▁Bohuslav	-11.6609
▁Fuchs	-11.6609
▁FMV	-11.6609
▁Louis	-11.6609
▁ceremoniál	-11.6609
▁Zdravotn	-11.6609
▁modré	-11.6609
▁něčeho	-11.6609
▁Zpráv	-11.6609
▁dědeček	-11.6609
▁Front	-11.6609
▁PET	-11.6609
▁nedaleké	-11.6609
▁vybudoval	-11.6609
▁formálně	-11.6609
▁mocenské	-11.6609
▁fotografií	-11.6609
▁chleba	-11.6609
▁stromeček	-11.6609
▁implantát	-11.6609
▁legendární	-11.6609
▁podporoval	-11.6609
▁hokejistů	-11.6609
▁Účastníci	-11.6609
▁lákav	-11.6609
▁Kouba	-11.6609
▁Opava	-11.6609
▁lehko	-11.6609
▁jízdenk	-11.6609
▁kamión	-11.6609
▁usedl	-11.6609
▁Týden	-11.6609
▁Život	-11.6609
▁kapsy	-11.6609
▁Samotn	-11.6609
hánějí	-11.6609
▁Zvýšen	-11.6609
▁nejsme	-11.6609
▁nazvat	-11.6609
▁PŘI	-11.6609
▁1979	-11.6609
▁vyhořelé	-11.6609
▁adaptace	-11.6609
▁málokdo	-11.6609
▁kopií	-11.6609
▁zmizí	-11.6609
▁neuron	-11.6609
▁transport	-11.6609
▁účinnější	-11.6609
hrádk	-11.6609
▁pojmu	-11.661
▁Zápas	-11.661
▁štědr	-11.661
▁únosn	-11.661
▁Bartoš	-11.661
▁Ježek	-11.661
▁písmo	-11.661
▁stimulaci	-11.661
▁Muze	-11.661
▁Klasick	-11.661
▁Hledá	-11.661
▁Španělsku	-11.661
▁Následující	-11.661
▁princ	-11.661
▁hlučn	-11.661
▁ležel	-11.661
▁nikam	-11.661
▁jinam	-11.661
▁psy	-11.661
▁oblouk	-11.661
▁výsad	-11.661
▁neznají	-11.661
▁rovný	-11.661
▁vejce	-11.661
▁registrační	-11.6611
▁1970	-11.6611
▁ultra	-11.6611
▁zády	-11.6611
▁Suková	-11.6611
▁nosič	-11.6611
▁hraček	-11.6611
▁protestant	-11.6611
▁pískov	-11.6612
▁nikde	-11.6612
▁odezv	-11.6612
▁třídenní	-11.6612
▁nájezd	-11.6612
▁posílit	-11.6612
▁bohatší	-11.6612
▁kouření	-11.6612
▁republikánsk	-11.6612
▁zranil	-11.6612
▁Jaw	-11.6612
vážil	-11.6612
▁umělců	-11.6613
▁Obraz	-11.6613
▁Januš	-11.6613
▁Obavy	-11.6613
▁vyzkoušet	-11.6613
▁vyhledávání	-11.6613
▁starat	-11.6613
▁sněmu	-11.6613
▁inteligence	-11.6614
▁topení	-11.6614
▁koncept	-11.6614
▁odnětí	-11.6614
▁nádrž	-11.6614
▁stanovisku	-11.6614
▁Jágr	-11.6614
▁lékařství	-11.6614
▁Kováč	-11.6614
▁Přenos	-11.6614
▁kras	-11.6615
vracení	-11.6615
▁Stef	-11.6615
▁koncepčn	-11.6616
▁Dostál	-11.6616
▁články	-11.6616
▁kolegové	-11.6616
▁deště	-11.6617
▁pozorovatel	-11.6617
▁manželkou	-11.6617
▁překonání	-11.6617
▁příloh	-11.6617
▁potká	-11.6617
▁řadič	-11.6617
▁způsobilosti	-11.6618
▁vracel	-11.6619
▁palet	-11.6619
▁sloves	-11.6619
▁odstoupení	-11.6619
▁Snah	-11.6619
▁okně	-11.662
▁zelené	-11.662
▁zkoumání	-11.662
▁deska	-11.662
▁přenáší	-11.6621
▁Boha	-11.6621
▁dostání	-11.6621
▁Horák	-11.6622
▁Esc	-11.6623
▁konstantní	-11.6624
▁jasná	-11.6624
▁vyrazil	-11.6624
▁vyprš	-11.6625
▁radikálně	-11.6626
▁602	-11.6627
▁novinky	-11.6627
▁sešla	-11.6627
▁oběť	-11.6627
▁zařadit	-11.6628
▁principů	-11.6629
▁terč	-11.6629
▁spolupracuje	-11.663
▁ČESK	-11.663
▁výměně	-11.663
▁protín	-11.663
▁rozměry	-11.663
▁křesťanské	-11.6631
▁France	-11.6631
▁závazku	-11.6631
▁šancí	-11.6631
▁sloučení	-11.6631
▁odletěl	-11.6632
▁koncov	-11.6632
▁nehraje	-11.6633
▁půlnoci	-11.6633
▁dodržovat	-11.6633
Edit	-11.6634
▁nedají	-11.6634
▁stížností	-11.6634
▁Čína	-11.6634
▁Dvou	-11.6634
▁Místopředsed	-11.6634
▁výměnou	-11.6637
▁odhalení	-11.6637
▁regionů	-11.6637
▁radio	-11.6639
▁Bob	-11.6639
▁známky	-11.664
▁plánuje	-11.6641
▁pitné	-11.6641
▁představovat	-11.6641
formulovat	-11.6642
▁čestn	-11.6642
▁Indián	-11.6642
▁říční	-11.6643
▁činitelé	-11.6643
▁ordinace	-11.6643
▁svatého	-11.6644
▁hudba	-11.6645
▁teoreticky	-11.6645
▁Mnichově	-11.6645
▁Open	-11.6645
▁skoky	-11.6646
▁neuvažuje	-11.6646
UN	-11.6647
▁teroristický	-11.6647
▁pětatřicet	-11.6647
extrémně	-11.6648
▁dopravou	-11.6648
▁ponechal	-11.6648
▁Clintonová	-11.6648
▁funkcionářů	-11.6649
▁honoráře	-11.665
▁ropy	-11.665
▁stručně	-11.6651
▁zakládání	-11.6652
▁nechut	-11.6652
▁jakýkoli	-11.6652
▁stáj	-11.6653
▁ptá	-11.6653
▁cla	-11.6654
[...]
