<unk>	0
<s>	0
</s>	0
<doc>	0
</doc>	0
<head>	0
</head>	0
<phr>	0
</phr>	0
▁	-1.71137
,	-3.24874
.	-3.39694
▁a	-4.30864
▁v	-4.40463
▁se	-4.49441
▁na	-4.63036
a	-4.65076
ch	-4.92672
m	-4.93191
u	-4.98117
▁je	-5.01505
i	-5.05512
y	-5.10505
ho	-5.15489
▁"	-5.19897
▁že	-5.26954
▁z	-5.31234
▁s	-5.35522
▁o	-5.55762
▁do	-5.581
ou	-5.60308
e	-5.63009
á	-5.66433
o	-5.74556
▁-	-5.77939
▁pro	-5.78078
▁za	-5.85901
é	-5.87648
í	-5.8918
▁k	-5.93863
ě	-5.94758
em	-5.94952
▁to	-5.97141
▁i	-5.97419
▁ve	-6.00799
▁(	-6.01627
s	-6.03914
▁po	-6.05018
▁V	-6.06386
to	-6.10269
▁by	-6.10372
▁ale	-6.19871
>	-6.21458
▁si	-6.2862
ž	-6.31656
t	-6.32497
mi	-6.34076
▁jsou	-6.3912
▁jako	-6.42428
▁které	-6.44159
ů	-6.47196
▁od	-6.47359
ý	-6.51177
▁však	-6.51988
▁:	-6.54565
)	-6.54671
▁při	-6.55972
ých	-6.5718
▁tak	-6.58478
▁který	-6.6367
▁nebo	-6.72379
▁jeho	-6.72939
▁bude	-6.73929
▁ne	-6.74569
?	-6.76299
ní	-6.77282
▁jen	-6.7931
▁než	-6.8788
me	-6.89173
▁má	-6.89613
x	-6.90224
▁už	-6.95209
▁aby	-6.95966
▁Na	-6.96896
▁A	-6.97105
▁S	-6.975
▁byl	-6.97773
▁před	-6.99192
▁jejich	-6.99821
▁Po	-7.00096
▁jak	-7.0114
▁jsem	-7.01143
▁až	-7.01369
▁být	-7.01387
▁která	-7.05951
▁také	-7.06558
te	-7.08864
▁jsme	-7.09821
▁<	-7.10961
▁ze	-7.1104
▁podle	-7.11174
▁Je	-7.16071
mu	-7.19255
▁Z	-7.19413
▁co	-7.22248
ce	-7.22714
▁není	-7.22957
▁bylo	-7.26295
▁mezi	-7.26621
▁ani	-7.2745
▁či	-7.28907
l	-7.29014
▁ještě	-7.2946
▁své	-7.29522
▁již	-7.30984
▁když	-7.31242
ně	-7.31868
▁může	-7.31949
▁O	-7.33665
▁byla	-7.3402
ého	-7.34774
▁toho	-7.36647
▁let	-7.37312
v	-7.37842
kud	-7.38078
/	-7.40001
▁P	-7.4026
▁korun	-7.41199
z	-7.41226
▁pak	-7.4439
k	-7.45127
▁K	-7.45407
ka	-7.4561
▁další	-7.46269
▁kteří	-7.46927
▁tím	-7.4728
▁té	-7.48666
).	-7.49159
ové	-7.49589
▁vy	-7.50102
▁kde	-7.50991
▁více	-7.52956
▁roku	-7.53262
▁první	-7.53593
▁tedy	-7.53676
že	-7.56419
▁nich	-7.58068
▁To	-7.58141
▁bez	-7.60863
▁mají	-7.63547
),	-7.63951
ky	-7.6474
ek	-7.65729
ech	-7.65836
▁tu	-7.66096
li	-7.66605
p	-7.66861
▁roce	-7.67573
▁pouze	-7.6786
▁musí	-7.68345
▁tom	-7.68458
▁kdy	-7.69783
▁li	-7.70025
▁pod	-7.70432
▁tomu	-7.70859
-	-7.72543
d	-7.72654
▁proto	-7.73595
▁ke	-7.7381
na	-7.74192
▁budou	-7.75261
▁třeba	-7.76116
ým	-7.76948
▁protože	-7.76989
▁totiž	-7.77729
ová	-7.79561
▁nás	-7.79863
▁lze	-7.80225
r	-7.80632
▁I	-7.81119
▁proti	-7.81166
▁Za	-7.81576
ná	-7.82834
la	-7.83416
▁byly	-7.8433
▁měl	-7.84612
▁poslední	-7.8508
▁velmi	-7.85192
▁její	-7.85246
▁asi	-7.85974
▁zatím	-7.86079
ku	-7.86989
▁M	-7.87562
▁nad	-7.87681
né	-7.88847
ci	-7.88896
cí	-7.89173
▁ty	-7.89357
▁řekl	-7.89604
▁Podl	-7.90054
▁včera	-7.9048
▁Ne	-7.90986
n	-7.92015
▁D	-7.94788
▁dnes	-7.95157
▁firmy	-7.95885
▁dva	-7.9719
▁především	-7.98243
▁Pro	-7.98626
▁vlastní	-7.99593
▁případě	-8.00733
▁tisíc	-8.01053
▁'	-8.01627
▁například	-8.02376
ovat	-8.02548
▁všech	-8.03463
▁přes	-8.03535
▁rok	-8.0389
▁U	-8.04215
jí	-8.04678
▁době	-8.05308
▁nyní	-8.05529
▁mít	-8.06367
▁J	-8.06692
▁nám	-8.07034
▁ji	-8.08198
nou	-8.08776
it	-8.09241
▁tři	-8.09641
b	-8.09955
co	-8.09986
▁Při	-8.1001
ň	-8.10142
▁lidí	-8.10502
▁jim	-8.10539
▁společnosti	-8.10604
▁mohou	-8.10846
▁práce	-8.1093
▁stále	-8.11865
▁těchto	-8.12138
ovi	-8.12163
▁ovšem	-8.12274
▁všechny	-8.12582
uje	-8.12653
▁zda	-8.1291
▁pře	-8.13619
▁Ve	-8.13735
▁jeden	-8.13807
ách	-8.14076
j	-8.14184
▁Do	-8.14789
ových	-8.1559
▁několik	-8.15696
▁kterou	-8.16653
š	-8.16968
▁což	-8.17486
▁tento	-8.19402
▁procent	-8.2007
▁něm	-8.20976
ování	-8.20993
...	-8.21386
ný	-8.21668
▁možné	-8.21726
▁jde	-8.22594
▁České	-8.22749
▁Ale	-8.23355
▁dvou	-8.2347
č	-8.23501
▁dalších	-8.23791
▁nové	-8.24304
cela	-8.24811
právě	-8.25161
▁měla	-8.25944
▁Jak	-8.26247
▁ČR	-8.26292
ost	-8.26635
▁Praze	-8.27071
lo	-8.27429
▁naše	-8.27817
téměř	-8.27895
▁zejména	-8.28081
▁svou	-8.28507
ům	-8.28515
▁strany	-8.3052
en	-8.31369
▁Proto	-8.31404
▁jednání	-8.31749
▁prostředí	-8.32445
▁kdo	-8.32449
▁sice	-8.3287
▁zařízení	-8.32872
▁letech	-8.33127
ze	-8.33626
▁H	-8.33979
▁základní	-8.34502
▁svého	-8.34654
▁T	-8.34702
c	-8.35364
▁dvě	-8.35512
▁svých	-8.35571
▁Kdy	-8.35797
▁nejen	-8.36979
▁větší	-8.37595
▁jiné	-8.37656
▁Co	-8.38371
▁naši	-8.38862
▁světa	-8.39197
▁tomto	-8.3977
▁možnost	-8.39924
▁místo	-8.40108
il	-8.40428
▁každý	-8.41932
▁nic	-8.42078
▁000	-8.42658
▁Tak	-8.42793
▁N	-8.43431
▁milionů	-8.43538
▁druhé	-8.43581
▁část	-8.43767
ři	-8.44582
▁něco	-8.44773
▁vlády	-8.44808
▁svým	-8.4497
▁Od	-8.45059
ými	-8.45079
▁zde	-8.45738
▁stát	-8.45858
spo	-8.46009
▁uvedl	-8.4601
le	-8.46232
cích	-8.463
▁stejně	-8.46754
▁R	-8.46826
▁B	-8.47159
▁mu	-8.47731
ské	-8.47936
▁ceny	-8.48188
▁zákona	-8.48978
▁%	-8.49063
▁kolem	-8.49175
st	-8.49197
či	-8.50086
▁oblasti	-8.51361
▁2	-8.51566
ovou	-8.51698
▁dobře	-8.51893
▁patří	-8.52204
▁příliš	-8.52224
▁L	-8.52395
▁systém	-8.52588
▁tam	-8.52662
▁země	-8.52719
▁říká	-8.52754
▁dosud	-8.52879
▁svůj	-8.52893
al	-8.53113
▁byli	-8.5317
▁roz	-8.53214
▁některých	-8.53304
▁práci	-8.53557
▁některé	-8.5371
ém	-8.53991
▁1	-8.54796
▁zboží	-8.54893
▁vůbec	-8.54987
ře	-8.55332
▁opět	-8.55542
no	-8.55787
▁C	-8.56492
▁nej	-8.5705
▁vždy	-8.57179
▁neboť	-8.57467
ový	-8.58292
▁zemí	-8.5844
at	-8.58879
▁jež	-8.59157
ám	-8.59235
▁10	-8.5979
osti	-8.60047
g	-8.60063
ných	-8.60162
▁firma	-8.60436
▁nejsou	-8.60995
ra	-8.6112
▁sociální	-8.61456
▁často	-8.61576
▁několika	-8.61695
▁období	-8.6172
in	-8.61736
▁pracovní	-8.6196
▁systému	-8.62099
▁finanční	-8.62766
ne	-8.62999
▁den	-8.6309
ni	-8.63128
▁dokonce	-8.63333
▁jste	-8.63586
ují	-8.63687
▁G	-8.63934
ští	-8.64188
▁USA	-8.64249
▁měli	-8.64279
▁sám	-8.64573
▁Js	-8.64939
▁Kč	-8.65333
ta	-8.65412
ny	-8.65665
▁lidé	-8.65876
▁celé	-8.65945
S	-8.66336
ami	-8.66823
▁níž	-8.67257
▁střední	-8.67381
▁rovněž	-8.67425
během	-8.6756
si	-8.67561
A	-8.67746
▁trhu	-8.67935
▁vyšší	-8.68581
▁nimi	-8.68863
▁přímo	-8.69061
▁doby	-8.69366
včetně	-8.69799
vůli	-8.69822
▁části	-8.70178
▁situace	-8.702
▁takže	-8.70232
▁3	-8.7061
▁zahraničí	-8.71008
▁státní	-8.71133
zřejmě	-8.71231
kou	-8.71477
▁počet	-8.71556
▁vše	-8.721
▁informace	-8.72453
tato	-8.72647
h	-8.72793
▁méně	-8.7333
▁mohl	-8.7346
▁společnost	-8.73626
ly	-8.73765
▁hodin	-8.73885
▁Evropy	-8.73889
▁peníze	-8.73894
▁např	-8.74441
▁Zatím	-8.7474
▁pět	-8.74757
po	-8.74771
▁víc	-8.74782
▁vám	-8.74971
▁chce	-8.75138
▁něj	-8.75146
▁znamená	-8.75162
▁nebude	-8.75386
▁Jan	-8.75467
M	-8.75543
▁způsobem	-8.75793
▁mě	-8.75822
▁takové	-8.75953
▁zákon	-8.76427
f	-8.76611
▁spíše	-8.76634
▁republiky	-8.76637
▁nemá	-8.77352
el	-8.77467
▁velký	-8.77528
▁dále	-8.77536
▁ten	-8.77814
▁5	-8.77866
D	-8.77905
▁dobu	-8.77907
▁navíc	-8.78154
▁přitom	-8.78177
▁čas	-8.78278
▁První	-8.79001
▁vlastně	-8.79034
je	-8.79054
▁problémy	-8.79072
▁Ty	-8.79165
▁sebe	-8.79453
▁jednoho	-8.79461
T	-8.79635
▁české	-8.79727
▁naopak	-8.79912
ří	-8.80024
▁čtyři	-8.80421
lu	-8.8063
▁ředitel	-8.80696
▁obchodní	-8.8126
▁města	-8.81938
▁zájem	-8.82029
▁letošní	-8.82126
▁skutečně	-8.822
▁straně	-8.828
▁ministr	-8.82853
▁největší	-8.83008
ově	-8.83021
▁znovu	-8.8311
▁půl	-8.83154
▁životní	-8.83158
▁jej	-8.8318
▁vláda	-8.83235
▁jednotlivý	-8.83356
▁většinou	-8.83421
▁zahraniční	-8.83423
▁zhruba	-8.83581
▁mnoho	-8.83904
or	-8.84184
▁20	-8.84249
▁současné	-8.84353
▁řešení	-8.84465
vá	-8.84523
▁prezident	-8.84805
▁řízení	-8.84977
▁platí	-8.85087
▁území	-8.8538
se	-8.85531
▁jiných	-8.85783
▁Jiří	-8.8585
▁nelze	-8.86352
▁celý	-8.8651
ť	-8.86738
on	-8.86925
▁bych	-8.87073
▁snad	-8.87148
er	-8.87156
▁1992	-8.87487
▁začal	-8.87619
▁letos	-8.87791
▁mimo	-8.88116
K	-8.8813
▁smlouvy	-8.88231
▁dolarů	-8.88245
▁rozhodnutí	-8.88474
▁r	-8.88809
▁zase	-8.88884
▁tzv	-8.89248
▁velké	-8.89257
▁jedné	-8.89392
▁program	-8.90203
▁pomocí	-8.90234
▁množství	-8.90577
ích	-8.90609
▁činnosti	-8.90765
pl	-8.91242
▁naší	-8.91665
▁roky	-8.92144
▁Přesto	-8.92242
▁člověk	-8.92254
▁vás	-8.92285
▁šest	-8.92448
us	-8.92561
▁světě	-8.929
▁různých	-8.93179
ř	-8.935
▁hlavní	-8.93535
ův	-8.93692
▁tří	-8.93736
▁státu	-8.93767
▁jednou	-8.94002
▁později	-8.94074
▁můžete	-8.94619
tu	-8.94703
▁programu	-8.9491
▁ČSFR	-8.9539
▁Petr	-8.95492
▁člověka	-8.95677
vě	-8.95764
ného	-8.95963
▁podniku	-8.962
▁Evropě	-8.96255
▁vedení	-8.96366
▁dost	-8.96399
▁skupiny	-8.9654
▁století	-8.96792
ným	-8.96818
▁věci	-8.97115
▁1.	-8.97269
▁deset	-8.97296
▁služby	-8.97305
▁málo	-8.97508
▁rozdíl	-8.97706
▁dlouho	-8.97798
▁Václav	-8.97884
▁domácí	-8.98007
▁mělo	-8.98328
▁jinak	-8.98368
▁činnost	-8.98521
▁obou	-8.98871
▁trh	-8.98969
▁prý	-8.99015
▁zároveň	-8.99075
▁Před	-8.9909
4	-8.99129
▁situaci	-8.99438
▁prohlásil	-9.00112
ru	-9.00288
ko	-9.00483
▁snímku	-9.00525
by	-9.00558
▁náklady	-9.00558
▁spolu	-9.0063
▁život	-9.00742
▁nových	-9.008
čí	-9.00821
oval	-9.01026
▁lepší	-9.01028
▁možná	-9.01064
▁přesto	-9.01104
▁prvním	-9.01316
▁tvrdí	-9.01352
ská	-9.01432
▁cenu	-9.01562
▁problém	-9.01836
▁měly	-9.01954
L	-9.01975
▁návrh	-9.01982
▁nemůže	-9.01985
▁máme	-9.02178
ský	-9.02269
▁jaké	-9.02405
▁mohli	-9.0246
▁děti	-9.02726
▁svět	-9.02919
an	-9.02993
▁firem	-9.03383
ry	-9.03534
N	-9.03813
I	-9.03822
▁získat	-9.03847
ového	-9.03871
▁Praha	-9.0416
va	-9.04192
▁toto	-9.04328
▁států	-9.04357
R	-9.04666
▁těch	-9.04852
▁majetku	-9.0498
▁CD	-9.04999
▁nakonec	-9.05039
▁všechno	-9.05115
▁Byl	-9.05222
▁funkce	-9.05363
▁stojí	-9.05496
▁nikdy	-9.05552
▁bývalé	-9.06004
ro	-9.06008
▁lety	-9.06034
▁svém	-9.06156
▁výši	-9.0625
▁proč	-9.06522
▁F	-9.0654
za	-9.06624
če	-9.06859
▁stav	-9.06931
▁místě	-9.07007
da	-9.07012
▁1993	-9.07234
▁vody	-9.07688
▁americké	-9.07732
U	-9.07797
▁možnosti	-9.07955
▁pěti	-9.08183
▁konce	-9.08271
▁4	-9.08387
▁stavu	-9.08611
▁nového	-9.08669
▁100	-9.08737
ji	-9.08772
▁dříve	-9.08822
▁dnešní	-9.08865
▁Prahy	-9.0905
▁třetí	-9.09081
▁sobotu	-9.09093
ste	-9.09149
▁30	-9.09571
▁nutné	-9.09646
▁jedna	-9.09811
ec	-9.09999
▁mezinárodní	-9.10044
▁nebyl	-9.10142
ského	-9.10203
▁Vy	-9.10413
ním	-9.10572
▁parlamentu	-9.10594
ba	-9.10663
▁moc	-9.10815
▁místní	-9.10959
▁přece	-9.11043
▁předseda	-9.11229
▁zemi	-9.11405
▁bychom	-9.11563
▁Tento	-9.11661
▁osob	-9.11665
▁ministerstva	-9.12063
▁týden	-9.12314
▁15	-9.12526
ti	-9.1255
▁jedno	-9.12573
re	-9.12821
B	-9.12824
▁Tato	-9.12871
ova	-9.13038
▁Není	-9.13084
▁podniků	-9.13293
▁informací	-9.13293
▁policie	-9.13293
▁poté	-9.13385
▁všichni	-9.13502
▁samozřejmě	-9.1366
▁Další	-9.13704
▁rychle	-9.13894
▁nikdo	-9.13915
▁můžeme	-9.13939
nu	-9.13963
ující	-9.14029
lá	-9.14454
▁hlavně	-9.14542
nebo	-9.14616
▁nový	-9.14625
▁Má	-9.14765
kem	-9.14929
▁českých	-9.14967
▁poměrně	-9.1505
du	-9.15096
▁Kromě	-9.15169
▁něho	-9.15188
▁prezidenta	-9.15189
▁věcí	-9.15356
V	-9.15394
▁Ten	-9.15721
▁sdružení	-9.15809
trochu	-9.15816
▁dvěma	-9.15835
▁50	-9.16117
▁stran	-9.16282
▁vedoucí	-9.16403
▁Jana	-9.16593
jich	-9.16931
bychom	-9.17038
▁SSSR	-9.17079
▁pan	-9.17521
▁E	-9.17615
▁Mezi	-9.17727
ají	-9.17782
▁organizace	-9.1818
▁Jako	-9.18184
▁dobré	-9.18262
3	-9.18305
▁kdyby	-9.18325
▁komise	-9.18374
▁podmínky	-9.18374
▁Jestli	-9.18374
▁sobě	-9.18375
▁někdy	-9.18375
▁ob	-9.18981
ím	-9.19077
▁ti	-9.19084
▁základě	-9.19133
▁pohled	-9.19209
▁Evropské	-9.19397
2	-9.19398
ri	-9.19593
▁zemích	-9.19714
▁došlo	-9.19872
▁výroby	-9.20074
▁čím	-9.20139
hl	-9.20284
▁kromě	-9.20345
▁způsob	-9.20445
▁většina	-9.20571
▁postup	-9.20744
▁místa	-9.20977
9	-9.21344
▁de	-9.21358
▁ostatní	-9.21381
▁určité	-9.21393
▁hned	-9.21688
ha	-9.2183
▁nejlepší	-9.21959
▁dál	-9.21972
dním	-9.22042
▁života	-9.22179
ty	-9.22335
O	-9.22455
nost	-9.22729
▁právní	-9.22936
▁rozpočtu	-9.23043
▁hry	-9.23172
lí	-9.23344
▁podíl	-9.23463
▁druhý	-9.23693
ních	-9.23707
▁tehdy	-9.23724
▁vysoké	-9.23726
▁cena	-9.23744
▁jistě	-9.23748
▁východní	-9.23838
▁malé	-9.24146
▁mnoha	-9.24238
▁jich	-9.24281
ov	-9.24387
▁teď	-9.2442
▁prohlášení	-9.24514
▁milionu	-9.24575
▁nebylo	-9.24794
▁vývoj	-9.24946
P	-9.24965
od	-9.25062
▁prosince	-9.2511
▁prostředky	-9.25111
ší	-9.25113
▁poprvé	-9.25113
ků	-9.25378
▁času	-9.25504
▁stejné	-9.25539
▁unie	-9.25811
▁ním	-9.26188
▁p	-9.26494
▁spolupráci	-9.26514
▁výsledky	-9.26525
▁teprve	-9.26535
▁opatření	-9.26541
▁jenž	-9.26725
▁jedn	-9.26985
Á	-9.27111
▁dodal	-9.27206
▁nějak	-9.27219
▁výrazně	-9.2727
▁žádné	-9.27391
▁40	-9.27602
▁večer	-9.27614
1	-9.27628
ví	-9.27798
de	-9.27848
▁prakticky	-9.27976
▁vnitřní	-9.28058
▁jí	-9.28109
C	-9.28312
▁potom	-9.28501
▁čtyř	-9.28545
▁procenta	-9.28575
▁tvoří	-9.28577
hle	-9.28601
▁hlediska	-9.28657
▁prostřednictví	-9.28657
▁utkání	-9.28686
▁zdravotní	-9.28752
▁Ta	-9.28987
▁kterým	-9.29229
▁republice	-9.29381
▁200	-9.29414
▁ministra	-9.29428
▁velice	-9.29488
▁celou	-9.2949
▁obě	-9.29496
is	-9.29513
▁premiér	-9.29531
▁osm	-9.29724
▁ODS	-9.29844
▁mnoh	-9.30076
▁někdo	-9.30113
▁daně	-9.30127
▁6	-9.30231
▁já	-9.30333
mohlo	-9.30499
▁prostor	-9.30506
▁vliv	-9.30535
▁pár	-9.3079
▁dispozici	-9.30848
▁akce	-9.30867
▁souvislosti	-9.30926
díky	-9.3097
▁řadu	-9.31229
▁typu	-9.31273
▁1990	-9.31588
▁minut	-9.31651
▁změny	-9.3209
▁obyvatel	-9.32217
▁rámci	-9.32335
▁ledna	-9.3234
mohla	-9.32459
ení	-9.32538
ských	-9.32568
▁mne	-9.32591
bu	-9.32732
▁původní	-9.32854
▁názor	-9.32889
▁sebou	-9.32897
▁budeme	-9.32977
▁doma	-9.32999
▁nejméně	-9.33096
▁menší	-9.33108
▁podařilo	-9.33155
▁stal	-9.33727
▁státy	-9.33793
▁roli	-9.33854
▁různé	-9.33957
▁sto	-9.34068
▁vítězství	-9.34122
▁čs	-9.34142
▁Například	-9.34606
▁podnikání	-9.34631
jší	-9.35007
▁dne	-9.35112
▁výše	-9.35182
▁podnik	-9.3532
▁opravdu	-9.35379
▁Jde	-9.35408
▁Š	-9.35692
▁tolik	-9.35826
▁západní	-9.36072
ější	-9.36151
▁smlouvu	-9.36151
▁miliónů	-9.36172
▁náš	-9.36176
▁nejvyšší	-9.36187
▁minulý	-9.362
▁nepo	-9.36222
▁peněz	-9.36256
▁prostě	-9.36275
▁nedávno	-9.36302
▁miliard	-9.36599
et	-9.36687
▁Jen	-9.36838
▁funkci	-9.36932
▁Dnes	-9.36969
▁zvýšení	-9.37049
▁význam	-9.37104
▁služeb	-9.37129
▁právo	-9.37149
▁loni	-9.37187
nější	-9.37211
▁okolí	-9.37747
▁Kdo	-9.37762
▁měsíců	-9.37839
▁středu	-9.37926
Z	-9.3804
▁žádný	-9.38111
▁dnech	-9.38471
ma	-9.38513
▁chtějí	-9.38513
▁koaliční	-9.38513
▁ministerstvo	-9.38513
▁vů	-9.38531
▁pojištění	-9.38609
val	-9.3866
▁politické	-9.38973
▁nižší	-9.39152
lé	-9.39339
▁metrů	-9.39368
▁jiného	-9.39369
▁šesti	-9.39387
▁postupně	-9.39392
▁rady	-9.39542
▁úřadu	-9.39547
▁soud	-9.39561
proti	-9.39562
▁Windows	-9.39592
tě	-9.39693
▁zahraničních	-9.39788
▁12	-9.39942
▁8	-9.39994
os	-9.40066
▁získal	-9.40067
▁společenství	-9.40153
▁svazu	-9.40193
5	-9.40393
tr	-9.40561
▁pomoc	-9.41053
▁členů	-9.411
▁trenér	-9.41333
ovým	-9.41464
▁nemusí	-9.41753
▁číslo	-9.41762
▁Pak	-9.41882
▁Zde	-9.4194
0	-9.42081
▁kam	-9.42104
▁25	-9.42289
▁podobně	-9.42485
▁podporu	-9.42525
▁nadále	-9.42638
▁Bude	-9.42668
▁klubu	-9.42693
▁W	-9.43168
▁počtu	-9.43228
▁1991	-9.43288
▁osobní	-9.43445
ému	-9.43549
▁Se	-9.43845
▁ta	-9.43845
▁týmu	-9.44017
▁podniky	-9.4408
▁nevy	-9.441
▁ročně	-9.4412
▁snaží	-9.44188
▁Většin	-9.44252
▁hospodářství	-9.44252
▁nabídky	-9.44253
▁lépe	-9.44254
▁přibližn	-9.44295
ve	-9.44447
▁MS	-9.44474
▁Ani	-9.44556
▁dat	-9.44584
▁každ	-9.4478
▁malý	-9.4496
▁podstatně	-9.45082
▁umožňuje	-9.451
▁jenom	-9.45144
▁výkon	-9.45292
▁přesně	-9.45354
▁dostal	-9.45365
▁hodně	-9.45366
▁růst	-9.4538
▁7	-9.45484
Dr	-9.45583
▁fondu	-9.45602
▁slova	-9.45666
▁chování	-9.45684
▁provoz	-9.4573
ar	-9.45853
▁musíme	-9.45886
▁1994	-9.45952
▁začíná	-9.45955
▁považuje	-9.4596
▁říci	-9.45968
w	-9.45969
▁případech	-9.45994
▁novou	-9.46002
▁městě	-9.46077
▁banky	-9.46351
ců	-9.46364
▁zisk	-9.46386
▁deseti	-9.46564
▁řada	-9.46573
▁pomoci	-9.46641
E	-9.46701
▁možností	-9.46763
▁sítě	-9.46818
▁obvykle	-9.46829
▁cen	-9.46854
▁oddělení	-9.46889
▁vedle	-9.47088
▁českého	-9.47105
▁vede	-9.4714
▁18	-9.47205
▁nebyla	-9.47322
let	-9.47363
▁zdá	-9.47445
tra	-9.47686
▁otázku	-9.47686
▁výrobků	-9.477
▁politiky	-9.47733
mž	-9.47807
▁kterém	-9.47882
▁průběhu	-9.47906
▁celkové	-9.48107
vol	-9.48293
děl	-9.48349
▁miliardy	-9.48368
▁nabízí	-9.48563
ter	-9.48573
▁nemají	-9.48588
▁ulici	-9.48624
▁zdrojů	-9.4869
▁text	-9.4905
es	-9.49052
▁Už	-9.49376
▁skutečnost	-9.49421
▁otázky	-9.49448
▁úrovni	-9.49448
▁chvíli	-9.49448
▁celkem	-9.4945
▁Česká	-9.49453
▁pracovníků	-9.49674
▁moci	-9.49935
vi	-9.49967
▁pražské	-9.50005
ání	-9.50025
▁názoru	-9.50258
▁dosavadní	-9.50296
▁textu	-9.50343
▁mistrovství	-9.50344
▁takto	-9.50454
▁dohody	-9.50488
▁zástupce	-9.50491
▁postavení	-9.50495
▁objektů	-9.50553
▁jednom	-9.50664
▁změn	-9.50738
▁hrát	-9.51199
▁dětí	-9.51242
▁energie	-9.51242
▁NATO	-9.51243
▁sedm	-9.51439
ať	-9.51554
▁působí	-9.51641
▁objekt	-9.51834
▁společností	-9.51852
▁platit	-9.5192
▁dá	-9.5201
ovali	-9.52011
▁bývalý	-9.52016
▁cestu	-9.52033
▁přístup	-9.52088
▁takový	-9.52107
▁tržní	-9.52118
▁finále	-9.52151
▁představuje	-9.52215
▁listopadu	-9.52232
▁Ze	-9.52313
▁setkání	-9.52327
ční	-9.52341
▁měsíce	-9.52359
▁jejím	-9.52374
▁sama	-9.52426
▁kterých	-9.52444
ěte	-9.5256
▁Klaus	-9.52666
ické	-9.52706
ká	-9.52774
▁světové	-9.52885
▁každé	-9.52907
tí	-9.52977
▁prostředků	-9.53069
▁čtvrtek	-9.53084
▁Ještě	-9.53105
▁Tím	-9.53114
▁her	-9.53176
▁současně	-9.53226
▁řadě	-9.53252
▁obchodního	-9.53347
▁národní	-9.53439
▁hráčů	-9.53473
▁příští	-9.53513
▁zdroje	-9.53539
▁14	-9.53552
▁oba	-9.53652
▁volební	-9.53785
▁Navíc	-9.53995
▁Nyní	-9.53997
▁produkce	-9.54002
▁OSN	-9.54002
▁výrobky	-9.54015
▁2.	-9.54019
▁atd	-9.54032
▁neděli	-9.54092
▁nikoli	-9.54094
ační	-9.54107
▁16	-9.54136
▁my	-9.54234
ství	-9.54417
kr	-9.54482
▁musel	-9.54489
▁skutečnosti	-9.54666
še	-9.54822
tá	-9.5488
ila	-9.54895
▁11	-9.54922
▁Josef	-9.54929
▁federální	-9.54929
▁zasedání	-9.54935
▁kvalitní	-9.54967
▁muset	-9.54987
dr	-9.55108
▁všem	-9.55246
▁poně	-9.55269
ši	-9.55302
▁výboru	-9.55425
▁sami	-9.55476
▁hlavním	-9.55583
skou	-9.55677
▁uvádí	-9.55812
▁začátku	-9.55908
▁srovnání	-9.55944
řitom	-9.56085
▁akcií	-9.56097
▁hodnoty	-9.56118
▁přiče	-9.5612
▁součástí	-9.56133
▁mluvčí	-9.56233
▁jiný	-9.56268
▁tým	-9.56343
▁obchodu	-9.56346
▁školy	-9.56358
▁prezentace	-9.56402
▁provozu	-9.56773
▁teorie	-9.56825
▁privatizace	-9.56825
▁apod	-9.56828
▁jasné	-9.56873
▁sil	-9.56887
▁společné	-9.56897
▁zvláštní	-9.57051
▁těm	-9.57283
▁problémů	-9.57311
▁generální	-9.57531
▁objektu	-9.57548
ol	-9.57593
▁kterého	-9.57744
▁olympijské	-9.57789
▁dává	-9.5783
▁dopravy	-9.5786
▁domů	-9.57867
ob	-9.57935
▁plně	-9.57979
▁1989	-9.57996
▁jednotlivé	-9.57996
▁poslanců	-9.58018
▁buď	-9.58138
krát	-9.58172
▁telefonní	-9.58426
▁chtěl	-9.58571
man	-9.58683
▁našem	-9.587
▁ekonomické	-9.58716
▁veřejné	-9.58757
▁zdravotnictví	-9.58757
▁Někter	-9.5876
▁umění	-9.58779
prve	-9.58823
▁kole	-9.58929
▁údaje	-9.59061
nutí	-9.59066
▁kolik	-9.59133
▁ME	-9.5914
▁Bylo	-9.59305
sti	-9.59319
▁dalším	-9.59469
▁práva	-9.59568
▁podobě	-9.59774
▁kultury	-9.5981
▁ostatních	-9.59825
▁investice	-9.59855
▁noci	-9.59937
▁24	-9.59952
▁dr	-9.59972
▁skupina	-9.60161
vý	-9.60165
▁státního	-9.60197
▁celého	-9.60257
např	-9.60513
▁úřad	-9.60578
▁slov	-9.60641
00	-9.60715
▁čeká	-9.60815
▁společně	-9.6082
▁přednost	-9.60837
▁zájmu	-9.60842
▁Ivan	-9.60851
▁Proč	-9.60859
▁snadno	-9.60898
▁soutěže	-9.60959
▁St	-9.60995
▁smrti	-9.61038
▁strana	-9.6105
▁občanů	-9.61062
pe	-9.61328
▁předem	-9.61366
▁Toto	-9.61441
▁tisíce	-9.61522
▁obsah	-9.61606
▁jméno	-9.61729
▁politických	-9.61785
▁pracovat	-9.61794
▁vod	-9.61859
▁míst	-9.61966
▁Stejn	-9.6274
▁snímek	-9.62743
▁zdraví	-9.62747
▁lidi	-9.62783
▁vytvoření	-9.62821
▁důvodů	-9.62865
▁nejvíce	-9.62935
▁soudu	-9.63605
▁moderní	-9.63669
▁vybavení	-9.63669
vr	-9.6372
▁Jaroslav	-9.63758
▁vzhledem	-9.63867
▁velkou	-9.63873
▁list	-9.63997
▁mužů	-9.64004
však	-9.64147
▁konkrétní	-9.64152
ck	-9.64205
▁hráči	-9.64227
▁počítače	-9.64351
▁hnutí	-9.6439
▁otázka	-9.64602
▁okolo	-9.64792
▁Země	-9.64796
▁hodiny	-9.65264
ili	-9.65336
▁film	-9.65397
▁věc	-9.65429
▁spíš	-9.65473
6	-9.65497
ované	-9.6558
ovy	-9.65812
▁náměstí	-9.65831
▁zástupci	-9.65834
▁někteří	-9.65835
▁září	-9.65836
▁rukou	-9.65837
▁kilometrů	-9.65862
▁zaměstnání	-9.65863
▁obsahuje	-9.65868
▁Nej	-9.65969
svoji	-9.65981
▁Ti	-9.66016
▁věku	-9.66031
▁koncem	-9.66068
▁oboru	-9.66107
▁chyb	-9.66238
▁60	-9.66289
▁mohly	-9.66312
▁vládní	-9.66391
dí	-9.66423
pr	-9.66694
▁mám	-9.66699
▁nějaké	-9.6679
▁výsledek	-9.66884
▁cestovní	-9.66884
▁přišel	-9.66979
dl	-9.66997
▁druhů	-9.67022
▁zkušenosti	-9.67169
000	-9.67295
▁hospodářské	-9.67381
▁výzkum	-9.6739
▁těžko	-9.67474
▁cizí	-9.67514
▁Kčs	-9.67547
▁objekty	-9.67594
aci	-9.67697
▁Pavel	-9.67886
▁Může	-9.67948
▁dnů	-9.6795
▁podmínek	-9.6795
▁nebudou	-9.67959
▁koalice	-9.68012
▁stavební	-9.68108
▁zaměstnanců	-9.68283
▁existuje	-9.68309
▁celkov	-9.68448
▁český	-9.68461
▁smyslu	-9.685
▁případ	-9.68507
▁zůstává	-9.68545
▁běžné	-9.68688
▁každého	-9.6871
▁dobrý	-9.68789
▁Pře	-9.68854
▁šéf	-9.68855
▁bývá	-9.68955
▁úroveň	-9.69023
▁tady	-9.69035
pravidla	-9.69174
▁minulosti	-9.69175
▁Podobn	-9.69178
▁loňské	-9.69246
▁dvacet	-9.69293
str	-9.69419
▁daleko	-9.69506
▁účast	-9.69629
dy	-9.69645
▁spojení	-9.69797
▁neu	-9.69826
hr	-9.6992
▁případně	-9.69963
▁pátek	-9.7011
▁praxi	-9.7011
▁poslanci	-9.70112
▁určitě	-9.70257
▁Každý	-9.70264
▁jediný	-9.70295
▁Ko	-9.70349
nosti	-9.70408
▁Já	-9.70506
▁pozornost	-9.70564
▁rychlost	-9.70595
▁dal	-9.70619
▁zpět	-9.70675
▁Jelcin	-9.70812
▁Brně	-9.70846
▁důležité	-9.71209
▁vidět	-9.71209
▁šanci	-9.71209
▁konci	-9.71223
▁kvality	-9.71267
▁doba	-9.71519
ven	-9.71529
▁možno	-9.71581
▁13	-9.7167
▁použití	-9.71737
▁prvního	-9.71951
▁druhém	-9.72013
▁skupin	-9.72014
▁zápas	-9.72183
▁krok	-9.72309
▁síly	-9.72324
▁volbách	-9.72327
▁července	-9.72335
▁dny	-9.72343
rt	-9.72345
▁nikoliv	-9.72399
▁změnit	-9.72465
▁odpovídá	-9.72492
▁nez	-9.7252
ul	-9.72528
viz	-9.72528
▁knihy	-9.72595
▁Německa	-9.72697
▁členy	-9.72766
▁nebezpečí	-9.73083
▁Český	-9.73167
pa	-9.73198
op	-9.73227
▁rozvoj	-9.73241
▁nákladů	-9.73481
▁podstatě	-9.73488
▁vztah	-9.73534
▁ruské	-9.73749
H	-9.7386
▁tisku	-9.73928
▁činí	-9.74032
▁neza	-9.74111
▁stačí	-9.7428
lou	-9.74411
▁obraz	-9.74505
▁tepla	-9.7458
▁úplně	-9.74586
F	-9.74616
▁výrobu	-9.74621
▁představitelé	-9.7467
▁investiční	-9.74682
▁Ministerstv	-9.7472
▁práv	-9.74761
8	-9.74866
▁druhou	-9.74874
▁podobné	-9.75154
ali	-9.75221
▁domu	-9.75293
▁techniky	-9.75308
ing	-9.75316
▁Již	-9.75502
▁delší	-9.75529
▁podnikatele	-9.75622
▁míry	-9.75794
▁celá	-9.75825
▁volby	-9.7588
▁pracuje	-9.75903
▁léta	-9.76005
ice	-9.76036
ROM	-9.76038
▁zprávy	-9.7608
▁č	-9.76151
▁údajn	-9.76315
▁voleb	-9.76317
▁fond	-9.76392
▁fakt	-9.76415
▁vznikl	-9.76423
▁dvakrát	-9.76934
▁vytvořit	-9.76959
▁polovin	-9.76985
▁klub	-9.77002
▁televizní	-9.77027
▁chcete	-9.77131
▁světový	-9.7714
▁návrhu	-9.77176
▁vlastnosti	-9.77177
▁bytů	-9.7721
nout	-9.77261
▁parlament	-9.77425
skoro	-9.77586
▁též	-9.77653
▁fotbalové	-9.77681
▁tun	-9.77775
ostí	-9.77793
▁muž	-9.77852
▁rád	-9.77877
dnu	-9.77903
fi	-9.77935
br	-9.77971
ovala	-9.77994
▁financí	-9.78068
▁konečně	-9.78107
▁SR	-9.78262
▁každém	-9.78329
▁dělat	-9.78344
▁typ	-9.78427
▁Jedno	-9.78563
▁jít	-9.78618
do	-9.78773
▁škol	-9.78784
vláště	-9.78916
▁vyhrál	-9.78976
▁bod	-9.78985
zhledem	-9.79213
▁federace	-9.79259
▁použít	-9.79259
▁firmě	-9.79267
▁Jeden	-9.79271
▁evropských	-9.79298
▁Všechny	-9.79313
▁současnosti	-9.79338
▁zpracování	-9.79338
▁bodů	-9.79501
▁průmyslu	-9.79502
vy	-9.79504
▁vojenské	-9.79504
▁Německu	-9.7955
▁Ma	-9.79677
ák	-9.79947
▁model	-9.80031
ad	-9.80165
▁počítá	-9.80179
čky	-9.80291
▁termín	-9.80353
▁ženy	-9.80397
ace	-9.80421
▁pravděpodobně	-9.8046
▁Právě	-9.80464
▁Společenství	-9.80464
▁Vladimír	-9.80464
▁zbraní	-9.80464
▁nejlépe	-9.80465
▁rozhodující	-9.80468
▁osoby	-9.80473
▁Bez	-9.80476
▁původně	-9.8048
ran	-9.80483
▁Běh	-9.80484
▁objeví	-9.80623
▁Zeman	-9.80682
▁jaký	-9.80702
▁ředitele	-9.80709
▁Firma	-9.80821
ev	-9.80825
▁projekt	-9.80845
gr	-9.80881
▁amerických	-9.80949
▁cílem	-9.80951
▁prodej	-9.80968
▁schopn	-9.80977
pro	-9.81063
▁80	-9.81098
▁byt	-9.81143
▁následující	-9.81249
íky	-9.81324
▁žen	-9.81463
▁olympijský	-9.8154
CH	-9.81588
▁prostoru	-9.81599
▁udělat	-9.81711
▁sněmovny	-9.8174
▁počítač	-9.8187
▁vhodné	-9.81877
▁kulturní	-9.81918
▁republik	-9.81991
značně	-9.8206
šlo	-9.8226
▁dlouhé	-9.82369
▁důvod	-9.82432
▁lékaře	-9.82502
▁těmi	-9.82584
▁zisku	-9.82666
▁růstu	-9.82674
▁technologie	-9.82722
▁Miloš	-9.82853
▁patrně	-9.82912
▁informační	-9.82918
▁čísla	-9.82918
▁brzy	-9.82918
▁hovoří	-9.82933
▁obrany	-9.83029
▁vodní	-9.83039
▁ústavu	-9.83271
▁rokem	-9.83275
▁veřejnosti	-9.83459
▁vědecké	-9.8363
▁pravda	-9.83678
▁roční	-9.83802
raději	-9.84163
▁většinu	-9.84168
▁péče	-9.84168
▁jinde	-9.84168
▁začne	-9.84173
▁dovolenou	-9.84216
▁úspěch	-9.8424
▁vládě	-9.8426
▁vzájemn	-9.84289
▁denně	-9.84396
▁řád	-9.84405
▁prací	-9.84429
▁data	-9.84447
▁čem	-9.84497
▁nedo	-9.84591
▁slovo	-9.84606
▁stala	-9.8463
▁výrobce	-9.84685
▁takovou	-9.84689
▁ES	-9.84694
▁17	-9.8482
▁vědět	-9.84941
▁národního	-9.84967
▁Mar	-9.85083
▁nejbližší	-9.85207
pra	-9.85209
▁aplikace	-9.85355
▁jisté	-9.85396
bor	-9.85406
▁pokračovat	-9.85433
▁pozadí	-9.85433
▁látky	-9.85435
▁sluneční	-9.85474
kách	-9.85778
▁Re	-9.85801
▁potřebné	-9.85815
ur	-9.85894
rn	-9.85983
▁nes	-9.86015
▁stalo	-9.86034
▁zranění	-9.86042
▁procesu	-9.8608
▁dosáhl	-9.86451
▁19	-9.8661
▁UEFA	-9.86716
▁demokracie	-9.86716
▁oficiální	-9.86716
▁označil	-9.86716
▁televizi	-9.86716
▁Havel	-9.86717
▁nijak	-9.86721
▁nemohou	-9.8673
▁nebyly	-9.86735
▁ukazuje	-9.86736
▁okamžitě	-9.86738
▁hodnocení	-9.86747
▁míru	-9.86797
▁zabývá	-9.8682
▁Spojený	-9.86834
▁budoucí	-9.86897
▁naprosto	-9.86947
▁starší	-9.86961
▁určen	-9.87004
▁cesty	-9.87017
▁plné	-9.87085
▁bezpečnosti	-9.87111
▁výbor	-9.8724
id	-9.87296
▁vzniku	-9.87325
▁body	-9.87395
ant	-9.87448
▁třicet	-9.87485
▁výběr	-9.875
▁Nové	-9.87532
▁odborné	-9.87541
▁svaz	-9.87569
▁dát	-9.876
▁odmítl	-9.87707
len	-9.87755
▁oblast	-9.87836
▁trvá	-9.87908
třech	-9.87972
▁majetek	-9.88014
▁řečeno	-9.88015
▁Ná	-9.88016
▁počasí	-9.88016
▁nová	-9.8806
▁členové	-9.88062
nik	-9.88086
▁stanice	-9.88183
▁kanceláře	-9.88231
▁potřeby	-9.88248
▁vládu	-9.88264
▁ČSSD	-9.88301
vo	-9.88428
▁zákony	-9.88599
▁řady	-9.88618
▁lékaři	-9.88629
▁rozšíření	-9.88642
▁bank	-9.88901
▁systémů	-9.88931
▁lidský	-9.88936
▁Nový	-9.88956
▁Měl	-9.89276
▁vývoje	-9.89282
▁500	-9.89293
▁nějaký	-9.893
▁hranice	-9.89309
▁názvem	-9.8933
▁onemocnění	-9.8933
▁požadavky	-9.8933
▁rozhodně	-9.89332
▁příjmy	-9.89351
▁2000	-9.89353
▁lidem	-9.89374
▁ekonomiky	-9.89385
▁dosáhnout	-9.89407
mj	-9.89466
lit	-9.8947
▁téma	-9.89498
▁podobný	-9.89517
▁Tu	-9.89549
▁Slovensku	-9.89574
▁závod	-9.89654
▁Martin	-9.89731
▁pole	-9.89785
▁smysl	-9.89821
▁Ro	-9.90023
▁rada	-9.90069
jící	-9.9007
▁počátku	-9.90213
▁přístupu	-9.9033
án	-9.90394
▁dokáže	-9.90644
▁konference	-9.90663
▁televize	-9.90663
▁ligy	-9.90665
▁vánoční	-9.90666
▁dostat	-9.90668
▁policejní	-9.90668
▁Státní	-9.90795
▁jednak	-9.90799
▁hlavního	-9.90868
▁mechaniky	-9.90902
▁řekla	-9.91057
▁300	-9.91084
▁Čech	-9.91091
▁trestní	-9.91139
▁celém	-9.91167
▁výsledků	-9.91263
▁Ú	-9.91371
▁společného	-9.91518
▁lékař	-9.91548
ální	-9.91567
▁prodeje	-9.91661
▁vstup	-9.91712
▁soubor	-9.91832
NÍ	-9.9192
ga	-9.91929
bal	-9.9196
▁poskytuje	-9.92015
▁Československu	-9.92015
▁vnitra	-9.92015
▁velká	-9.92018
▁Prezident	-9.92018
ník	-9.92077
▁parlamentní	-9.92088
ic	-9.92145
▁nechal	-9.92175
▁škody	-9.92217
brž	-9.92231
▁Aby	-9.92255
▁70	-9.92269
▁druhá	-9.92343
▁rychlostí	-9.92363
▁proces	-9.92433
▁osmi	-9.9244
ed	-9.92477
▁Velké	-9.92537
▁závěru	-9.92601
▁řad	-9.92614
▁disk	-9.92626
zn	-9.92649
▁druhu	-9.92658
▁PowerPoint	-9.92693
▁souboru	-9.92704
▁výrobní	-9.92725
▁obchod	-9.92818
▁skončil	-9.92856
▁majitel	-9.92894
▁obrat	-9.92939
nými	-9.92982
ovaných	-9.93086
ver	-9.93106
ží	-9.93175
▁druhého	-9.93319
▁zákonů	-9.93357
▁zemědělství	-9.93385
▁látek	-9.93386
▁najít	-9.93396
▁měsících	-9.934
▁Čechách	-9.93417
▁desítky	-9.93419
▁Atlantě	-9.93438
▁správy	-9.93454
▁dopravní	-9.93494
G	-9.93496
▁zákoníku	-9.93552
▁měsíc	-9.93587
▁jinou	-9.93595
▁vydání	-9.93596
nit	-9.93614
▁město	-9.93624
kové	-9.93668
▁povinnost	-9.93863
méně	-9.93886
▁čele	-9.94103
▁výběru	-9.94114
▁takového	-9.94237
▁rozhodl	-9.94241
Í	-9.94254
▁dvaceti	-9.94422
▁hráč	-9.94438
▁dní	-9.94766
▁Francie	-9.94773
▁schopen	-9.94773
▁nabídku	-9.94774
▁ustanovení	-9.94774
▁snímků	-9.94775
▁uplatnění	-9.94831
▁ráno	-9.94867
▁evropské	-9.94888
dávají	-9.94962
▁státech	-9.94994
▁oznámil	-9.95223
▁začali	-9.95238
sta	-9.95268
J	-9.95339
▁přijde	-9.95358
▁získá	-9.95574
▁nepro	-9.95575
ček	-9.95656
▁soukromé	-9.95716
tím	-9.95731
▁změna	-9.95782
▁nim	-9.95881
▁Cel	-9.95934
▁nepři	-9.96072
▁seznamu	-9.96151
▁těžké	-9.96182
▁využít	-9.96182
▁působení	-9.96186
▁hodlá	-9.9619
▁školství	-9.9619
▁rozpočet	-9.96191
▁dalšího	-9.96215
▁přijetí	-9.96218
▁zajistit	-9.96222
▁tentokrát	-9.96224
▁převážně	-9.96263
▁pokus	-9.9627
hal	-9.96389
▁pořadí	-9.96389
▁částky	-9.96404
▁vysokou	-9.96413
▁Takže	-9.96426
ič	-9.96448
▁jiná	-9.96462
▁vyplývá	-9.96514
▁okamžiku	-9.9652
▁Cen	-9.96529
▁chybí	-9.96558
▁minulé	-9.96748
▁využití	-9.96896
▁chtěli	-9.97115
▁Roz	-9.97147
nice	-9.97185
▁22	-9.97271
▁názory	-9.97334
▁nesmí	-9.97379
▁ceně	-9.97448
▁Její	-9.97512
▁předpokládá	-9.97529
▁spolupráce	-9.97611
▁nejrůznější	-9.97611
▁Mezinárodní	-9.97618
▁směrem	-9.97672
▁místech	-9.97682
▁povolení	-9.97684
▁údajů	-9.97695
▁cestou	-9.97815
▁Přes	-9.9782
▁nejde	-9.97875
▁řešit	-9.97968
▁máte	-9.9803
▁bohužel	-9.98098
▁družstva	-9.98098
▁re	-9.98412
▁němu	-9.98423
ací	-9.98426
▁21	-9.98515
▁výzkumu	-9.9854
▁myslím	-9.98572
▁potřebuje	-9.98757
▁vznik	-9.98771
▁systémy	-9.98784
▁druh	-9.9882
▁stane	-9.98849
▁Ke	-9.98885
▁dodává	-9.98937
▁jednat	-9.98938
▁jestli	-9.99024
▁pondělí	-9.9906
▁prezentaci	-9.9906
del	-9.99063
▁uvedla	-9.9907
▁ohledu	-9.99074
▁armády	-9.99111
▁pravidelně	-9.99119
▁vyslovil	-9.99125
▁předtím	-9.99158
▁Li	-9.99182
as	-9.99184
▁připraven	-9.992
▁smluvní	-9.99221
▁La	-9.99413
▁vědy	-9.99523
▁případů	-9.99531
▁veřejnost	-9.99596
SK	-9.99603
▁pocit	-9.99639
▁podnikatel	-9.99684
▁vztahy	-9.99849
▁daňové	-10.0002
▁tiskové	-10.0006
▁dvanáct	-10.0011
▁změnu	-10.0018
▁taková	-10.0032
▁dostane	-10.0042
▁konferenci	-10.0053
▁podmínkách	-10.0053
▁úrovně	-10.0053
▁radnice	-10.0053
▁spoust	-10.0053
▁června	-10.0053
▁příjmů	-10.0054
▁Poslední	-10.0054
▁výjimkou	-10.0057
▁politiku	-10.0062
▁částku	-10.0072
ovací	-10.0074
▁Tr	-10.0075
▁pokles	-10.0077
▁rodiny	-10.0079
uto	-10.0079
▁směru	-10.0086
▁severní	-10.0089
▁důležitý	-10.0092
▁plyn	-10.0093
▁neměl	-10.01
▁HIV	-10.0103
▁Ch	-10.0111
há	-10.0119
and	-10.0128
▁vztahu	-10.0138
▁podnikatelů	-10.0144
▁speciální	-10.015
▁museli	-10.0156
sk	-10.0157
▁padesát	-10.0159
▁hráče	-10.0162
ního	-10.0163
▁Naše	-10.0172
▁%.	-10.0175
▁konkurence	-10.0179
▁jakým	-10.0182
cen	-10.0193
▁většině	-10.0202
▁války	-10.0202
▁účetnictví	-10.0202
▁Současn	-10.0203
▁Jedna	-10.0203
▁tvrzení	-10.0203
▁moře	-10.0205
▁volné	-10.0208
▁New	-10.0209
▁jednoznačně	-10.0213
▁aliance	-10.0214
▁vývoz	-10.0217
▁žádn	-10.0233
▁aktivity	-10.0237
▁Br	-10.0238
▁skupině	-10.0238
▁síť	-10.0244
▁hodnotu	-10.0246
▁současn	-10.0268
▁titul	-10.027
bou	-10.0278
ován	-10.0289
▁polovinu	-10.0291
▁přírodní	-10.0292
▁akci	-10.0292
ot	-10.0293
▁on	-10.0294
▁bezpečnostní	-10.0299
▁Rusko	-10.0302
▁hraje	-10.0308
▁člen	-10.0321
▁Václava	-10.0322
▁nově	-10.0324
▁poslanec	-10.0333
▁90	-10.0334
▁většiny	-10.0354
▁politice	-10.0354
▁začít	-10.0354
▁vždycky	-10.0355
▁ODA	-10.0356
▁pořádku	-10.0357
▁nemocnice	-10.0362
▁Jenže	-10.0364
▁individuální	-10.0366
▁centra	-10.0368
▁poměr	-10.0368
▁třemi	-10.0368
▁pracovníci	-10.037
▁Německo	-10.0371
▁univerzity	-10.0373
▁předsedy	-10.0387
▁Pod	-10.0389
ilo	-10.0398
alo	-10.0406
▁LN	-10.0408
dle	-10.0408
▁budoucnosti	-10.0408
▁německé	-10.0419
▁životě	-10.0428
šel	-10.0428
▁paní	-10.0433
▁koupit	-10.0439
▁Kdyby	-10.0439
▁sportovní	-10.0444
▁snížení	-10.0444
▁400	-10.0446
▁Mám	-10.0456
ú	-10.0458
▁jím	-10.0475
▁Ba	-10.0475
▁čase	-10.0485
ily	-10.0489
ící	-10.0493
▁AIDS	-10.0508
▁Británie	-10.0508
▁srpna	-10.0508
▁obyvatelstva	-10.0508
▁Možná	-10.0512
▁Vždyť	-10.0516
▁hlasů	-10.0517
▁předchozí	-10.0519
▁objevil	-10.0522
▁důsledku	-10.0532
▁miliony	-10.0539
▁složení	-10.0543
▁vzdělání	-10.056
▁takových	-10.0569
▁týká	-10.0581
kov	-10.0598
▁Že	-10.0603
▁úřady	-10.0603
▁ex	-10.0604
▁vaše	-10.0607
▁35	-10.0609
ároveň	-10.0613
vnitř	-10.0618
rad	-10.0619
ována	-10.0626
Š	-10.063
▁používá	-10.0631
▁výkonu	-10.0633
▁místopředsed	-10.064
▁státních	-10.0641
▁projektu	-10.0661
▁očekávat	-10.0664
▁silniční	-10.0664
▁buněk	-10.0664
▁tajemství	-10.0664
▁verze	-10.0665
▁banka	-10.0666
▁připravuje	-10.0666
▁zdalek	-10.0667
▁kvalitu	-10.0673
▁uspořádání	-10.0675
▁poznání	-10.0675
▁příštím	-10.068
▁dochází	-10.0685
▁průměru	-10.0692
tní	-10.0702
▁chceme	-10.0703
▁počítačů	-10.0704
▁zajímavé	-10.0704
▁aktivní	-10.071
7	-10.071
▁John	-10.0725
▁jiným	-10.0729
▁jejího	-10.0731
▁auto	-10.0736
▁povinnosti	-10.0738
▁premiéra	-10.0738
▁funkcí	-10.0746
▁disku	-10.0748
▁hudební	-10.075
▁muži	-10.0763
▁obcí	-10.0763
▁stroje	-10.0764
▁demokratické	-10.0766
▁150	-10.0775
▁měsíční	-10.0775
▁technické	-10.0777
▁napsal	-10.0779
▁Mo	-10.0787
▁závěr	-10.079
vat	-10.0795
▁Pan	-10.0806
▁částí	-10.0807
▁konec	-10.0809
▁přírody	-10.0823
▁zřejmé	-10.0823
▁privatizaci	-10.0823
▁název	-10.0823
▁Karel	-10.0823
▁marek	-10.0823
▁článku	-10.0824
▁okresní	-10.0826
▁úvahu	-10.0827
▁občas	-10.0828
▁piva	-10.0832
sku	-10.0834
▁vyžaduje	-10.0834
▁jaderné	-10.0837
▁odborníků	-10.0838
▁Ho	-10.0839
▁agentury	-10.0841
▁kolo	-10.0859
▁programy	-10.0863
▁Oba	-10.0886
▁mění	-10.0891
▁hlavních	-10.0894
budete	-10.0902
▁kola	-10.0903
▁sovětské	-10.0913
▁příštího	-10.0924
▁relativn	-10.0927
▁budu	-10.0948
▁přechod	-10.0962
▁těžký	-10.0965
ovými	-10.0969
▁vývoji	-10.0971
▁sta	-10.0979
▁zákaz	-10.0983
▁kláves	-10.0983
▁jména	-10.0984
▁věnovat	-10.0984
▁historii	-10.0984
▁válce	-10.0984
▁vyjádřil	-10.0984
▁Myslím	-10.0985
▁roste	-10.0986
▁vaší	-10.0987
kami	-10.099
▁liší	-10.0997
▁politika	-10.0998
▁4.	-10.1002
▁mil	-10.1005
▁soutěž	-10.1024
▁hotelu	-10.1032
▁změně	-10.1034
▁režimu	-10.1035
▁základ	-10.1037
▁OS	-10.1038
▁druhy	-10.1052
▁Škoda	-10.1059
▁nákup	-10.1061
▁úřadů	-10.1072
▁výrobců	-10.1073
▁Miroslav	-10.1075
▁programů	-10.1077
▁Společnost	-10.1087
▁plat	-10.1089
rod	-10.1107
▁tlačítko	-10.1113
▁Bo	-10.1137
ovalo	-10.1142
ík	-10.1144
▁autor	-10.1144
ěkteří	-10.1147
▁jednoduché	-10.1148
▁považován	-10.1148
▁zůstane	-10.1148
▁1995	-10.1148
ském	-10.1149
▁bytu	-10.115
▁družstev	-10.1152
▁Základní	-10.1154
▁smlouva	-10.1154
▁vzor	-10.1161
▁stranu	-10.1164
▁déle	-10.1169
▁mechanika	-10.1174
▁typů	-10.1185
▁hranici	-10.1185
jet	-10.1194
▁abych	-10.1208
▁zvířat	-10.1212
▁veškeré	-10.1213
▁skutečné	-10.1219
▁rekord	-10.1224
▁potvrdil	-10.1225
▁hra	-10.1229
▁typy	-10.1236
▁tisk	-10.1237
▁Stál	-10.1238
▁Ob	-10.1241
▁počítat	-10.1248
nt	-10.1252
▁zákazníků	-10.1252
ném	-10.1255
▁lékařů	-10.1259
ovo	-10.1264
pis	-10.1269
mat	-10.1286
řka	-10.1297
▁podnikatelské	-10.1298
▁ni	-10.1301
▁Hlavní	-10.1301
zí	-10.1304
▁devět	-10.1312
▁úterý	-10.1315
▁Lidé	-10.1315
▁šance	-10.1315
▁Letos	-10.1315
▁někdejší	-10.1315
▁lednu	-10.1315
▁globální	-10.1317
▁ruce	-10.1319
▁svému	-10.1319
▁jestliže	-10.1321
▁dům	-10.1325
▁profesionální	-10.1329
▁hledání	-10.1341
gen	-10.1344
▁získala	-10.1344
▁oblastí	-10.1351
▁dělá	-10.1351
▁kapitálu	-10.1355
▁značné	-10.1357
▁stejný	-10.1358
▁ú	-10.1368
▁My	-10.1371
pat	-10.1374
▁telefon	-10.1385
▁problémem	-10.1395
▁96	-10.1396
▁pořád	-10.14
▁set	-10.1412
▁molekul	-10.142
▁Ha	-10.1423
▁zvolen	-10.1425
▁uvedené	-10.1429
▁efekt	-10.1432
cházet	-10.1435
hn	-10.1454
▁vznikla	-10.1458
▁soutěži	-10.1464
▁třetím	-10.1475
▁Chce	-10.1482
▁včerejší	-10.1482
▁Zákon	-10.1483
▁používat	-10.1484
▁verzi	-10.1484
▁potíže	-10.1484
▁členství	-10.1485
▁vystoupení	-10.1485
▁tabulky	-10.1485
▁studie	-10.1486
▁vrátit	-10.1488
▁nejdříve	-10.1488
▁shromáždění	-10.1489
▁někter	-10.1491
▁mzdy	-10.1491
▁novým	-10.1492
▁zvlášť	-10.1492
▁nedá	-10.1495
▁časem	-10.1498
▁odpověď	-10.1499
▁známé	-10.1499
ač	-10.15
▁najednou	-10.1503
▁rozdělení	-10.1505
/2	-10.1506
ických	-10.1511
▁Č	-10.152
▁označení	-10.1528
▁vztahů	-10.1533
▁zprávu	-10.1543
vin	-10.1553
hled	-10.1555
▁silné	-10.1562
▁3.	-10.1565
nd	-10.1568
▁existují	-10.1569
dostala	-10.1572
▁počítači	-10.1573
▁plán	-10.1584
▁centru	-10.1595
též	-10.1599
▁dob	-10.1608
ejte	-10.161
▁soudí	-10.1623
▁posledním	-10.1624
sko	-10.1638
▁nechce	-10.164
dostatečně	-10.1644
▁včas	-10.1644
▁prospěch	-10.1656
▁hospodaření	-10.1656
▁Nicméně	-10.1657
▁zaměstnanci	-10.1657
▁výrobci	-10.1657
nk	-10.1658
inak	-10.166
▁odpadů	-10.166
čin	-10.1661
▁spočívá	-10.1666
▁pozici	-10.1672
▁soukromých	-10.1672
▁respekt	-10.1675
▁odpovídající	-10.1676
▁Československa	-10.1678
níci	-10.1681
ická	-10.1689
▁pohybu	-10.1693
ková	-10.1693
▁23	-10.1697
▁dané	-10.1699
▁jakou	-10.1699
▁soudní	-10.1702
ané	-10.1704
▁díla	-10.171
▁12.	-10.1711
▁MB	-10.1721
▁Národní	-10.1732
▁poměru	-10.1735
▁radost	-10.1738
▁velikost	-10.1739
▁občanské	-10.1742
▁schopnost	-10.1748
▁vnější	-10.1753
▁týdne	-10.1758
▁objem	-10.1763
▁podepsal	-10.1767
▁patnáct	-10.1772
ovaný	-10.1773
▁Františ	-10.1775
čka	-10.1785
▁pojistné	-10.1789
▁získali	-10.1794
▁očekává	-10.1799
▁sedmi	-10.1823
▁zaplatí	-10.1823
ujeme	-10.1826
▁hledat	-10.1832
▁prvků	-10.1833
▁Dále	-10.1833
▁Pohár	-10.1833
▁DNA	-10.1834
▁firmu	-10.1835
▁mozku	-10.1837
▁půdě	-10.1838
▁Sb	-10.1839
▁mnozí	-10.184
up	-10.1841
fr	-10.1843
▁letošním	-10.1847
▁Nová	-10.1852
▁teploty	-10.1857
▁poháru	-10.1862
▁zemědělské	-10.1864
▁neví	-10.1874
▁metody	-10.1876
▁nárok	-10.1879
▁0	-10.1891
▁stanoven	-10.1892
▁ochranu	-10.1895
hu	-10.1899
▁De	-10.1899
▁Největší	-10.1901
▁měnit	-10.1906
▁výraz	-10.1928
▁hrozí	-10.1931
▁zemřel	-10.1932
▁tradiční	-10.1935
▁účasti	-10.1936
▁budoucnost	-10.1946
▁ryb	-10.1948
▁republika	-10.195
▁materiál	-10.1953
▁NA	-10.1955
▁úvěr	-10.1985
▁Vše	-10.199
▁snah	-10.2002
▁zůstat	-10.2005
hy	-10.2006
▁Existuj	-10.201
▁natolik	-10.201
▁rodiče	-10.201
▁zdůraznil	-10.201
▁podpory	-10.201
▁tudíž	-10.201
▁reprezentace	-10.2011
▁seznam	-10.2012
▁výrobě	-10.2013
▁částečně	-10.2015
▁vytváření	-10.2019
▁pohledu	-10.2019
▁výroba	-10.2019
▁Poté	-10.202
▁Dva	-10.2023
▁centrální	-10.2023
▁vlastností	-10.2026
▁Tři	-10.2026
▁karty	-10.2027
▁žije	-10.2028
ala	-10.2028
▁dílo	-10.203
▁slouží	-10.2031
▁Československo	-10.2033
RA	-10.2034
▁pozitivní	-10.2034
stav	-10.2039
▁dávno	-10.2046
▁zavedení	-10.2048
▁významné	-10.205
▁dalšími	-10.2051
▁pa	-10.2053
▁vzájemné	-10.2058
▁jaderný	-10.2058
rovna	-10.2062
▁Dr	-10.2063
▁aplikací	-10.2072
rak	-10.2094
▁start	-10.2099
ický	-10.2101
▁záležitost	-10.2103
CE	-10.2108
▁důvodu	-10.2111
▁lidské	-10.2115
▁obrazu	-10.2119
▁riziko	-10.2133
▁leží	-10.2143
▁musím	-10.2144
▁slovenské	-10.2148
▁společný	-10.2153
th	-10.2153
EL	-10.2178
▁paměti	-10.2192
▁připojištění	-10.2192
▁pomalu	-10.2192
▁kvalifikaci	-10.2192
▁neexistuje	-10.2193
▁česká	-10.2193
▁připomíná	-10.2195
▁odpoledne	-10.2195
▁oblastech	-10.2199
▁svědčí	-10.2207
▁brněnské	-10.2208
▁materiálů	-10.2214
▁Musí	-10.2216
▁odboru	-10.2221
▁ztráty	-10.2226
▁dohodu	-10.2226
▁mnohé	-10.2226
ovaly	-10.2235
▁Slovenska	-10.2239
ovém	-10.2242
▁mně	-10.2244
ina	-10.2245
uji	-10.2252
▁měst	-10.2254
▁samo	-10.2255
▁teplo	-10.2279
pětí	-10.2284
▁představ	-10.2287
▁poloviny	-10.2288
ským	-10.2289
▁potřeba	-10.2295
▁nabízejí	-10.2298
▁rádi	-10.2299
▁nutno	-10.2303
▁technický	-10.2309
▁loňském	-10.2314
▁zásadní	-10.2314
▁přístroje	-10.2317
▁zahájení	-10.232
▁autorů	-10.2324
▁Ústav	-10.2331
ovány	-10.2334
▁příklad	-10.2336
▁nejvíc	-10.2341
▁tajemník	-10.2351
sp	-10.236
▁končí	-10.2362
▁ročník	-10.2368
▁vánoce	-10.2369
vod	-10.2377
▁Itálie	-10.2377
▁Ovšem	-10.2377
▁Program	-10.2377
▁stránce	-10.2377
▁praxe	-10.2377
▁minimální	-10.2378
▁desítek	-10.2378
▁vybrat	-10.238
▁Ostravě	-10.238
▁nicméně	-10.238
▁Ministr	-10.2381
▁zdejší	-10.2383
▁osud	-10.2383
▁neustále	-10.2383
▁mimořádn	-10.2386
▁vyjádření	-10.2388
▁malá	-10.2392
▁dodnes	-10.2392
▁řeč	-10.2393
▁programové	-10.2393
▁soustavy	-10.2394
▁standardní	-10.2401
ik	-10.241
▁rozhovoru	-10.2413
▁určitou	-10.2413
▁problému	-10.2423
▁staré	-10.243
▁Hor	-10.2436
▁ústavní	-10.2439
bě	-10.244
▁takovém	-10.2443
čet	-10.2447
▁italské	-10.2449
▁vývozu	-10.2463
per	-10.247
▁závodu	-10.2474
▁váš	-10.2479
▁řádu	-10.2481
koliv	-10.2495
čení	-10.25
▁19.	-10.2516
▁znám	-10.2521
▁Někd	-10.2528
iny	-10.2531
ten	-10.2532
▁čisté	-10.2539
▁manažer	-10.2542
▁ba	-10.2546
▁úkol	-10.2546
▁Velk	-10.2548
▁nemohl	-10.2562
▁těsně	-10.2566
nil	-10.2566
▁Všichni	-10.2566
▁náměstek	-10.2566
▁špatně	-10.2566
▁Naopak	-10.2566
▁Snad	-10.2566
▁jediná	-10.2566
▁poptávky	-10.2566
▁odborníci	-10.2566
▁zaměstnance	-10.2567
▁poslance	-10.2567
▁okna	-10.2567
▁KSČM	-10.2567
▁potřebují	-10.2569
▁koncentrace	-10.2571
▁filmu	-10.2572
▁vychází	-10.2574
▁měření	-10.2574
▁žena	-10.2575
▁automaticky	-10.2575
▁stovky	-10.2578
▁produktů	-10.2581
▁souhlas	-10.2588
▁liber	-10.2594
▁záležitostí	-10.2596
▁zrušení	-10.2602
▁vzduchu	-10.2603
▁spokojen	-10.2606
ář	-10.2607
pol	-10.261
▁Lu	-10.2611
nem	-10.2611
▁neod	-10.2617
▁rozsahu	-10.2617
var	-10.2625
▁Le	-10.2642
▁přesvědčen	-10.2648
▁neměli	-10.2648
lze	-10.2655
raz	-10.2657
▁jedná	-10.2661
▁činností	-10.2667
▁úspěchu	-10.2671
ej	-10.2678
▁Evropa	-10.2679
▁papír	-10.2679
▁zákonem	-10.2687
▁diváků	-10.2688
▁daní	-10.2691
▁studentů	-10.2692
bl	-10.2695
tud	-10.2695
▁současný	-10.2724
▁Zdá	-10.2725
▁příslušné	-10.2728
▁ochran	-10.2729
▁oni	-10.273
▁trest	-10.2736
▁pravé	-10.2737
▁Každ	-10.2743
▁rozvoje	-10.2745
té	-10.2747
▁Zá	-10.2748
▁rozhodne	-10.2749
ber	-10.2755
▁Ředitel	-10.2758
▁historie	-10.2758
▁věnoval	-10.2758
▁bydlení	-10.2758
▁pojetí	-10.2759
▁investovat	-10.276
▁dodávky	-10.2761
▁lidmi	-10.2761
bavit	-10.2761
▁krátce	-10.2761
▁pohybuje	-10.2762
HO	-10.2765
▁voličů	-10.2767
▁daň	-10.2769
▁věd	-10.2773
stup	-10.2774
▁dostává	-10.2774
ště	-10.2775
▁šampionátu	-10.2775
▁návrhy	-10.2779
▁mladé	-10.2781
▁domě	-10.2781
port	-10.2785
▁provedení	-10.2788
▁normální	-10.2792
▁omezení	-10.2797
▁Ku	-10.28
▁boj	-10.2803
▁muže	-10.2803
▁cesta	-10.2811
▁domácím	-10.2815
EN	-10.2816
▁obecní	-10.282
▁čtení	-10.2822
▁vítěz	-10.2823
▁různým	-10.2823
▁určit	-10.2825
▁materiálu	-10.2833
ge	-10.2837
▁Kr	-10.2845
mír	-10.2852
▁vést	-10.2859
▁rychlosti	-10.2873
▁jinými	-10.288
vu	-10.2883
▁nena	-10.2885
blíž	-10.2887
▁koncert	-10.2892
▁nájemné	-10.29
▁Čí	-10.2902
▁styl	-10.293
ovu	-10.2931
▁Především	-10.2955
▁Richard	-10.2955
▁elektrárny	-10.2955
▁snížit	-10.2955
▁umožní	-10.2955
▁úsilí	-10.2955
▁minimálně	-10.2955
▁míře	-10.2955
▁doslova	-10.2955
▁měsíčně	-10.2955
▁Češi	-10.2955
▁pravdu	-10.2955
▁snímky	-10.2956
▁Spojené	-10.2956
▁zvýšit	-10.2958
▁celek	-10.2958
▁policistů	-10.2959
mého	-10.2962
▁zobrazení	-10.2964
▁myší	-10.2966
▁pozice	-10.2966
▁tvorbu	-10.2967
▁poškození	-10.2967
▁okolností	-10.2968
▁obecně	-10.2968
▁cestě	-10.2974
▁mistrů	-10.2975
▁akcie	-10.2982
vou	-10.2984
čtí	-10.2988
▁třídy	-10.2989
▁odpadní	-10.2989
▁žádném	-10.2998
▁žádná	-10.3001
▁festivalu	-10.3002
▁povrchu	-10.3005
▁nemoci	-10.3011
▁Evropsk	-10.3013
ig	-10.3017
▁Pa	-10.3025
▁domácích	-10.303
▁vzniká	-10.3036
dali	-10.3036
▁centrum	-10.3038
▁cm	-10.3043
▁nechat	-10.3046
▁poklesu	-10.3047
ct	-10.3048
jak	-10.3053
▁PowerPointu	-10.3055
nov	-10.3062
▁známo	-10.3063
pen	-10.3066
▁správně	-10.3076
▁jediné	-10.3077
▁skupinu	-10.3077
▁hodinu	-10.3083
▁dějin	-10.309
rát	-10.3091
▁dokument	-10.3093
▁FS	-10.3095
▁znát	-10.3096
ovaná	-10.3098
ned	-10.3099
▁zpráv	-10.3102
dat	-10.3107
▁uvedený	-10.311
▁polovina	-10.3117
▁jaká	-10.3118
▁nepře	-10.312
▁Federální	-10.3123
▁zahájil	-10.3123
▁hospodářsk	-10.3124
ive	-10.3125
mluv	-10.3126
▁tvář	-10.3135
směs	-10.3136
▁km	-10.3141
▁vrátil	-10.3147
▁Samozřejmě	-10.3155
▁divadla	-10.3155
▁pojišťovny	-10.3155
▁rozhodování	-10.3155
▁ČNR	-10.3155
▁půjde	-10.3155
▁nabídka	-10.3155
▁širší	-10.3155
ita	-10.3155
Ž	-10.3156
▁konkurenční	-10.3156
▁Tam	-10.3159
▁myšlení	-10.3159
▁výskyt	-10.3161
dal	-10.3163
▁půdy	-10.3169
▁armáda	-10.317
▁nebyli	-10.317
ben	-10.3172
▁sdělení	-10.3172
▁představení	-10.3172
zen	-10.3177
ster	-10.3178
▁nezávislých	-10.3181
▁neo	-10.3181
tem	-10.3184
▁Pr	-10.3186
▁výdaje	-10.319
▁podnikatelé	-10.3193
▁postoj	-10.3195
ud	-10.3198
▁úpravy	-10.3206
▁zákazníky	-10.3207
▁vysokých	-10.3213
▁export	-10.3214
▁Američan	-10.3216
▁prodejní	-10.3222
ment	-10.3227
Č	-10.3229
he	-10.3243
▁existence	-10.3243
lin	-10.3244
▁námi	-10.3246
ér	-10.3248
▁Bi	-10.3259
▁britské	-10.3263
▁myslí	-10.3265
▁organizací	-10.3283
▁akcí	-10.3286
▁hlasování	-10.3287
dob	-10.3292
▁paragraf	-10.3294
gu	-10.3297
▁zpráva	-10.33
▁občan	-10.3304
SE	-10.3307
▁17.	-10.331
▁maximáln	-10.3321
OV	-10.3325
:	-10.3329
▁pořad	-10.3334
tah	-10.3336
▁II	-10.3337
▁smrt	-10.3337
▁daňový	-10.3339
nul	-10.3342
▁reprezentant	-10.3353
▁stejn	-10.3354
▁voda	-10.3356
▁Němci	-10.3359
▁církve	-10.3359
▁nízké	-10.3359
▁týdny	-10.3359
▁odmítá	-10.3359
▁zapotřebí	-10.3359
▁usnesení	-10.3359
▁přišla	-10.3359
▁privatizační	-10.3359
▁Teď	-10.3359
▁1988	-10.3359
▁létě	-10.3359
▁Slovensko	-10.336
▁StB	-10.3361
▁příslušný	-10.3368
▁správné	-10.3371
▁Proti	-10.3371
▁Kde	-10.3375
▁děje	-10.3379
▁zájmy	-10.338
▁automobilů	-10.3381
▁mluví	-10.3381
▁mladých	-10.3384
▁obce	-10.3385
▁důsledky	-10.3388
▁původu	-10.3388
▁porušení	-10.3389
▁ruský	-10.3392
tal	-10.34
▁Internetu	-10.341
sky	-10.3412
▁žijící	-10.3413
▁hvězd	-10.3424
▁představy	-10.3427
▁Ano	-10.3427
▁německých	-10.3429
▁lidského	-10.3429
▁velikosti	-10.3434
▁Sovětské	-10.3435
▁německého	-10.3439
▁vědecký	-10.3446
▁částka	-10.3453
▁škola	-10.346
▁běžný	-10.3463
▁9	-10.3463
▁přední	-10.347
▁sklad	-10.3473
▁bezpečnost	-10.3475
▁vůle	-10.3482
▁barevné	-10.3486
▁letní	-10.349
ovaného	-10.3492
ska	-10.3497
▁vědomí	-10.3501
▁rozhodla	-10.3501
▁pacientů	-10.3502
▁řídí	-10.3507
mar	-10.3508
▁zmíněné	-10.3511
▁řeči	-10.3521
▁vyspělý	-10.3522
▁Tomáš	-10.3534
▁byty	-10.3538
▁uveden	-10.3543
▁Asi	-10.3546
KA	-10.3549
▁příprav	-10.356
tek	-10.3565
▁Moskvě	-10.3567
▁Třetí	-10.3567
▁populace	-10.3567
▁vynikající	-10.3567
▁štěstí	-10.3567
▁Francii	-10.3567
▁ihned	-10.3567
▁technologií	-10.3567
▁mužstva	-10.3567
▁spotřební	-10.3567
▁mluvit	-10.3568
ČSL	-10.3568
▁Pomuku	-10.3568
▁firmou	-10.3569
▁obětí	-10.3569
▁Milan	-10.357
▁zvyšuje	-10.3573
▁těla	-10.3575
▁dovolené	-10.3576
▁Více	-10.3579
▁obavy	-10.3579
▁úmrtnosti	-10.358
▁nemocnici	-10.3583
▁zastoupení	-10.3587
▁Avšak	-10.3587
▁vlastním	-10.3595
▁Předseda	-10.3599
něk	-10.3599
▁úspor	-10.3603
▁pracovník	-10.3604
▁Jižní	-10.361
▁Druhý	-10.3617
▁příkaz	-10.3617
▁lesní	-10.362
▁míč	-10.363
▁ročníku	-10.3651
▁chod	-10.3654
▁všeho	-10.366
▁výhradn	-10.3661
kon	-10.3662
▁Česko	-10.3663
Sc	-10.3664
▁školní	-10.3664
▁vidí	-10.3669
▁zdroj	-10.3678
jde	-10.368
▁kroky	-10.3683
▁str	-10.3683
▁příležitost	-10.3687
nic	-10.3691
▁pří	-10.3692
▁odvětví	-10.3703
▁tamní	-10.3703
▁horší	-10.3705
▁studiu	-10.3707
▁molekuly	-10.3715
▁přichází	-10.3717
▁tenis	-10.3718
▁určitý	-10.372
▁snaha	-10.3721
ke	-10.3724
▁představují	-10.3728
▁Te	-10.3731
▁příštích	-10.3735
▁největším	-10.374
kl	-10.3741
▁osmdesát	-10.3745
▁celkový	-10.3753
▁pražském	-10.3758
▁postupu	-10.377
▁doktor	-10.3772
pana	-10.3775
▁budoucnu	-10.378
▁civilní	-10.378
▁konkurenci	-10.378
▁nakladatelství	-10.378
▁sledovat	-10.378
▁transformace	-10.378
▁zlepšení	-10.378
▁úmrtí	-10.378
▁zabránit	-10.378
▁Slavie	-10.378
▁souvisí	-10.378
▁tehdejší	-10.378
▁jedinou	-10.378
▁operace	-10.378
▁PCB	-10.3781
▁výsledkem	-10.3781
▁lékařské	-10.3782
▁financování	-10.3782
▁příjmu	-10.3783
▁Vedle	-10.3784
▁rozhodnout	-10.3784
▁funkční	-10.3785
▁formou	-10.3786
▁Vláda	-10.3789
▁zbytečné	-10.379
vést	-10.3796
▁výhodné	-10.3796
▁zaplatit	-10.3797
▁nákladní	-10.3806
▁americký	-10.3812
dla	-10.3812
▁prodat	-10.3813
▁600	-10.3818
▁účely	-10.3821
▁povinností	-10.3824
padá	-10.3824
▁Obě	-10.3824
vé	-10.3827
▁partnery	-10.3828
▁noviny	-10.3831
▁produktu	-10.3832
▁starých	-10.3833
▁přijal	-10.3843
▁příležitosti	-10.3844
▁prodává	-10.385
▁placení	-10.3854
▁Vý	-10.3857
ouze	-10.3858
▁německý	-10.3866
▁pracovníky	-10.3871
▁velkým	-10.3879
▁pražsk	-10.388
▁koruny	-10.3889
▁napětí	-10.3896
▁zápasy	-10.3898
▁režim	-10.39
▁zápasu	-10.3913
▁účastní	-10.3916
▁neměla	-10.3919
kla	-10.3925
rů	-10.3927
▁uzavření	-10.3929
▁Fr	-10.3933
▁kapalin	-10.3934
▁PO	-10.3941
▁ano	-10.3941
▁dostali	-10.3945
ó	-10.3945
▁rychlé	-10.3955
▁zůstal	-10.396
▁Bar	-10.397
form	-10.3973
▁jasně	-10.398
▁Da	-10.3987
tky	-10.3989
▁kontrolu	-10.3996
mile	-10.3996
▁někde	-10.3997
▁Ostatně	-10.3997
▁Sdružení	-10.3997
▁rekreační	-10.3997
▁krize	-10.3997
▁červnu	-10.3997
▁sítí	-10.3997
▁přiznání	-10.4
EM	-10.4
▁udržet	-10.4
▁jednotky	-10.4
▁porovnání	-10.4005
▁obrázek	-10.4006
▁místnosti	-10.4006
▁prodávat	-10.4009
▁Moravy	-10.4016
nese	-10.4017
▁znalosti	-10.4018
▁strojů	-10.4021
▁hodnotě	-10.4022
▁začátkem	-10.4022
▁všemi	-10.4026
▁lesy	-10.4028
▁Washingtonu	-10.4028
▁dotaz	-10.4029
▁zimní	-10.403
▁trenéra	-10.4036
▁rozporu	-10.4036
▁barev	-10.4039
▁turnaje	-10.4045
▁Ačkoli	-10.4052
ici	-10.4056
žen	-10.4057
vzdor	-10.4057
ca	-10.4066
▁hodnota	-10.4067
▁něž	-10.4068
▁nemáme	-10.4069
▁stroj	-10.4082
▁Ruska	-10.4088
est	-10.409
▁vedením	-10.409
▁operační	-10.4096
▁nynější	-10.4101
▁modelů	-10.4105
▁použit	-10.4107
▁spor	-10.4117
ené	-10.4119
▁součást	-10.412
plav	-10.4123
tur	-10.4127
▁spojené	-10.4129
▁dojde	-10.4131
▁místy	-10.4132
▁hod	-10.4132
▁hře	-10.4134
▁případu	-10.4137
osud	-10.4137
▁slovy	-10.4145
▁případné	-10.4145
▁čísle	-10.4146
▁pražského	-10.4149
▁přináší	-10.4151
▁porazil	-10.4165
▁odhad	-10.4166
son	-10.4167
▁záleží	-10.4171
▁cenný	-10.4172
vádí	-10.4177
▁obr	-10.4183
▁pravidla	-10.4188
▁dítě	-10.42
eprve	-10.4203
▁pobyt	-10.4205
leté	-10.4205
kupní	-10.4207
▁soupeře	-10.4209
nické	-10.4214
▁Ar	-10.4217
▁Bratislavě	-10.4219
▁Návrh	-10.4219
▁nabídnout	-10.4219
▁otázce	-10.4219
▁týdnů	-10.4219
▁uskuteční	-10.4219
▁dovolit	-10.4219
▁podpora	-10.4219
▁péči	-10.4219
▁okno	-10.422
▁nepodařilo	-10.422
▁kategorie	-10.422
▁nedostatek	-10.422
▁Nakonec	-10.4222
▁Brno	-10.4222
▁Nebo	-10.4222
▁připravit	-10.4223
cím	-10.4223
▁prvky	-10.4223
▁buňky	-10.4225
▁návštěvě	-10.4226
▁stará	-10.4226
▁Podnik	-10.4229
▁stál	-10.4231
▁jaterní	-10.4233
▁Pavl	-10.4235
▁hledá	-10.4235
▁malou	-10.4238
▁druhým	-10.4238
▁f	-10.4238
▁domácnosti	-10.4239
▁osobně	-10.4244
▁Evropský	-10.4251
▁provést	-10.4252
▁získání	-10.4253
▁tajné	-10.4254
▁tlak	-10.4256
▁nezaměstnanosti	-10.4261
▁stanici	-10.4261
nky	-10.4263
cké	-10.4278
sil	-10.4279
▁blok	-10.4288
LA	-10.4288
▁charakter	-10.4292
▁3000	-10.4294
▁partnera	-10.4299
ang	-10.4324
▁filmů	-10.4334
▁případy	-10.4347
▁pracoval	-10.4349
▁všechn	-10.4356
▁vstupu	-10.4357
musela	-10.4361
▁ochot	-10.4363
▁jedenáct	-10.4363
▁sv	-10.4364
▁státním	-10.4368
▁PRO	-10.437
▁regionální	-10.437
▁začalo	-10.4371
lek	-10.4376
be	-10.4377
▁čtenář	-10.4383
ak	-10.4383
▁stává	-10.4386
ete	-10.4393
▁odpověděl	-10.4396
▁změní	-10.4398
▁objev	-10.4399
▁dřív	-10.4402
▁postižené	-10.4406
ký	-10.4413
▁profesor	-10.4419
▁post	-10.4427
▁ministrů	-10.4432
▁modelu	-10.4432
ler	-10.4433
▁západních	-10.4434
▁In	-10.4438
éměř	-10.4441
bar	-10.4442
▁Místo	-10.4446
▁Slunce	-10.4447
▁funguje	-10.4447
▁ostatně	-10.4447
▁otázek	-10.4447
▁pojišťovna	-10.4447
▁rozhodovat	-10.4447
▁stáří	-10.4447
▁dlouhodobé	-10.4447
▁letadla	-10.4447
▁molekulární	-10.4447
▁žádá	-10.4447
▁operaci	-10.4447
▁aktuální	-10.4447
▁oficiálně	-10.4448
▁přání	-10.4448
▁SRN	-10.4449
▁vyšetřování	-10.4449
▁vystudoval	-10.4451
▁sezóně	-10.4451
▁formě	-10.4452
▁vypadá	-10.4453
▁vytvoří	-10.4454
▁Brna	-10.4455
▁fakultě	-10.4456
▁nemoc	-10.4458
▁jezdí	-10.446
▁UK	-10.4463
▁fakulty	-10.4469
▁On	-10.4469
▁návštěvníků	-10.447
▁dobrou	-10.4471
▁komory	-10.4473
▁zjištění	-10.4473
▁vyberte	-10.4475
▁otevření	-10.4476
▁úspěšně	-10.4477
▁struktury	-10.4477
▁The	-10.4483
▁nese	-10.4483
▁rozdíly	-10.4484
▁hrál	-10.4484
IN	-10.4486
▁členem	-10.4487
▁víkendu	-10.4488
▁odst	-10.4488
▁cíle	-10.4491
lík	-10.4501
ion	-10.4502
▁začaly	-10.4511
▁nájemného	-10.4516
▁pobytu	-10.4517
▁denní	-10.4519
▁princip	-10.4522
▁obyvatelé	-10.4534
▁dohoda	-10.4543
▁východ	-10.4546
▁takovým	-10.4552
▁pořadatel	-10.456
▁docela	-10.4562
,5	-10.4562
▁klubů	-10.4567
▁příjem	-10.4571
▁prodeji	-10.4573
▁snížil	-10.4582
▁oči	-10.4587
nka	-10.4595
▁brankář	-10.4596
▁obsahu	-10.46
▁fotbal	-10.4611
▁účastníků	-10.4612
▁SE	-10.4614
▁hotel	-10.4615
▁významný	-10.4616
▁tvar	-10.4616
▁odpovědnost	-10.4617
▁dovoz	-10.4622
der	-10.4623
▁zůstávají	-10.463
▁jižní	-10.4631
▁americk	-10.4632
▁prostory	-10.4639
▁církev	-10.464
▁stejném	-10.4645
▁čtvrté	-10.4645
▁nucen	-10.4648
▁zjistit	-10.4653
půjč	-10.4674
▁hodnot	-10.4678
▁Anglie	-10.4679
▁institucí	-10.4679
▁přispěl	-10.4679
▁Polici	-10.4679
▁nestačí	-10.4679
▁Nejvyšší	-10.4679
▁příspěvek	-10.4679
▁přinejmenším	-10.4679
▁mladší	-10.4679
▁přijít	-10.4679
▁dráhy	-10.468
▁ode	-10.468
▁Stačí	-10.468
▁organizační	-10.4681
▁poznatky	-10.4682
▁policisté	-10.4683
▁vozů	-10.4683
▁vlastnictví	-10.4684
▁záměr	-10.4684
▁zabezpečení	-10.4684
▁levnější	-10.4685
▁Bosně	-10.4686
▁přijmout	-10.4686
▁Králové	-10.4688
▁předpisů	-10.4689
▁uznání	-10.469
▁tvorby	-10.4692
▁nejlepším	-10.4694
▁vrátí	-10.4695
▁ideální	-10.4696
▁hodinách	-10.4697
▁obrazovky	-10.4698
▁komplexní	-10.4698
▁George	-10.4699
▁fyziky	-10.4701
▁podobu	-10.4702
▁zákazník	-10.4711
▁předsedou	-10.4711
▁Olomouci	-10.4715
▁léky	-10.4716
▁zvýšil	-10.4723
▁českou	-10.4725
▁jiném	-10.4726
stoupí	-10.4731
▁plochy	-10.4732
▁vytváří	-10.4733
▁mé	-10.4734
▁starosti	-10.4734
▁ekonomických	-10.4736
▁celní	-10.4738
▁zemské	-10.4747
▁popis	-10.4751
▁pacienta	-10.4752
▁nejdůležitější	-10.4752
▁úspěšné	-10.4753
kovi	-10.4758
▁nejčastěji	-10.4759
▁zápasů	-10.4761
▁vojensk	-10.4765
▁pochopitelně	-10.4766
ODS	-10.4766
▁auta	-10.4775
ju	-10.4784
▁připravil	-10.4798
▁servis	-10.4803
▁chodí	-10.4805
▁vědců	-10.4809
▁jednoduchý	-10.4814
▁úprav	-10.4814
▁podzim	-10.4814
▁rodinné	-10.4814
▁ministrem	-10.4817
▁mnohd	-10.4819
▁zkušenost	-10.4821
▁průmyslový	-10.4829
▁16.	-10.4833
▁pás	-10.4834
▁potravin	-10.4838
▁městské	-10.4853
▁32	-10.4856
▁kancelář	-10.4863
▁postaven	-10.4869
▁ústav	-10.4869
kli	-10.4875
▁konstatoval	-10.488
▁planet	-10.4881
▁významu	-10.4885
iště	-10.4886
ner	-10.4892
▁video	-10.4895
▁Anglii	-10.4917
▁NHL	-10.4917
▁asociace	-10.4917
▁duchovní	-10.4917
▁jménem	-10.4917
▁medaile	-10.4917
▁mužstvo	-10.4917
▁navzájem	-10.4917
▁odpovědi	-10.4917
▁uzavřít	-10.4917
▁využívat	-10.4917
▁článek	-10.4917
▁chvíle	-10.4917
▁dětem	-10.4917
▁ČEZ	-10.4917
▁Jaromír	-10.4917
▁Microsoft	-10.4917
▁zástupců	-10.4917
▁požadavek	-10.4917
▁Chtěl	-10.4917
▁okolní	-10.4918
60	-10.4921
▁di	-10.4923
▁zabývat	-10.4923
▁výpočetní	-10.4924
▁třikrát	-10.4925
▁projev	-10.4926
▁Dvě	-10.4935
▁dopis	-10.4936
▁18.	-10.4936
▁výstavby	-10.4937
▁týkající	-10.4945
ovský	-10.4945
stavit	-10.495
▁umístění	-10.4951
▁trhy	-10.4959
▁Takové	-10.4964
▁osobnosti	-10.4966
▁používání	-10.4967
▁praktické	-10.4968
▁samostatné	-10.4969
▁stanovení	-10.4972
▁obsahující	-10.498
▁metod	-10.498
▁Profitu	-10.498
▁kon	-10.4981
▁fondů	-10.4982
▁špatné	-10.4983
▁francouzské	-10.4999
▁veřejně	-10.5001
▁mistra	-10.5001
▁úvodní	-10.5015
▁zato	-10.5019
▁ekologické	-10.5019
▁generál	-10.5023
▁pl	-10.5031
▁Jedin	-10.5037
▁obratu	-10.5039
▁motiv	-10.5042
▁odpor	-10.5045
▁široké	-10.5051
▁prezidentem	-10.5055
▁250	-10.5058
tel	-10.506
▁počítačové	-10.5063
▁28	-10.5066
plat	-10.5068
▁žádost	-10.5068
▁hlas	-10.5069
▁soupeř	-10.507
▁sdělil	-10.5072
ST	-10.5072
▁Ka	-10.5074
▁čekají	-10.5074
▁minulém	-10.5075
▁45	-10.5077
▁svá	-10.5081
AN	-10.5081
▁120	-10.5082
▁průměrn	-10.5092
▁skončila	-10.5093
onu	-10.5107
▁vyhrála	-10.5112
▁Ra	-10.5112
▁chemické	-10.5113
iz	-10.5118
kor	-10.5118
▁turnaj	-10.5124
OS	-10.513
11	-10.5135
▁knih	-10.514
ď	-10.514
▁organismu	-10.5141
slov	-10.5142
IS	-10.5148
▁Stát	-10.5151
▁Di	-10.5152
▁způsobu	-10.5154
▁kolegy	-10.5154
▁Rusk	-10.5156
▁syn	-10.5157
ok	-10.5158
▁nechtěl	-10.5161
▁dlouhý	-10.5161
▁ministři	-10.5161
▁považuji	-10.5161
▁souladu	-10.5161
▁vysoká	-10.5161
▁obrátil	-10.5161
▁organizaci	-10.5161
▁Michal	-10.5161
▁chtít	-10.5161
▁generace	-10.5161
▁územní	-10.5161
▁studia	-10.5162
▁ukazují	-10.5163
▁volně	-10.5164
▁vyplatí	-10.5164
▁nejspíš	-10.5166
▁neznamená	-10.5166
▁související	-10.5172
▁Polska	-10.5174
▁lesů	-10.5175
▁nástrojů	-10.5176
▁zajištění	-10.5177
▁nastoupil	-10.5178
▁Karlovy	-10.5179
▁silně	-10.518
men	-10.5183
▁kal	-10.5186
▁časopisu	-10.5189
▁panelu	-10.5189
▁odborných	-10.519
▁ko	-10.5191
▁ačkoli	-10.5192
▁kdysi	-10.5192
▁občané	-10.5195
nici	-10.5195
▁ona	-10.5199
▁10.	-10.5208
▁sekundu	-10.521
▁možných	-10.5212
▁nemělo	-10.5214
▁metr	-10.5216
▁skončilo	-10.5219
▁opravy	-10.5219
▁ústavy	-10.5224
▁přenosu	-10.5225
▁gól	-10.5229
▁pán	-10.5231
▁Poslaneck	-10.5232
▁reprezentační	-10.5237
▁příčin	-10.5237
▁Obchodní	-10.5239
▁ochrany	-10.5239
▁Slovenské	-10.5245
▁33	-10.5246
▁předložil	-10.5246
▁schopnosti	-10.5256
▁dostalo	-10.5257
▁kurs	-10.5261
▁zákazníka	-10.5262
▁nástroj	-10.5264
▁přechodu	-10.5267
št	-10.5269
ard	-10.527
▁RN	-10.5271
ké	-10.5273
▁hodnotí	-10.5275
▁titulu	-10.5276
▁sport	-10.5276
rem	-10.5278
▁projekty	-10.5287
▁dobou	-10.5288
▁stanoví	-10.5289
▁dají	-10.529
▁trval	-10.5295
▁hran	-10.5297
▁kop	-10.5302
▁novém	-10.5312
▁přicházejí	-10.5316
▁totem	-10.5328
▁Americk	-10.5332
▁čemu	-10.5336
▁turistů	-10.5336
▁reálné	-10.5338
▁desetiletí	-10.5339
▁zápase	-10.5343
pokoj	-10.5345
▁představitelů	-10.5346
▁politického	-10.5346
▁Plzeň	-10.535
▁oprav	-10.5351
▁režisér	-10.5355
muž	-10.5356
▁jimi	-10.5359
▁domov	-10.5371
▁Ru	-10.5378
▁míní	-10.5384
▁regionu	-10.5388
un	-10.5396
▁čeho	-10.5398
itel	-10.5401
▁bytové	-10.5402
▁aut	-10.5406
▁existenci	-10.5411
▁atmosféře	-10.5411
▁inflace	-10.5411
▁přírodě	-10.5411
▁službu	-10.5411
▁delegace	-10.5411
▁penzijní	-10.5411
▁považují	-10.5411
▁politická	-10.5411
▁květnu	-10.5411
▁poptávka	-10.5412
▁brát	-10.5412
▁kvalita	-10.5412
▁vysvětlení	-10.5412
▁stupně	-10.5413
▁mínění	-10.5413
▁stanovisko	-10.5413
mysl	-10.5414
▁vysvětlit	-10.5416
lem	-10.5416
▁dokonale	-10.5416
▁podaří	-10.5417
▁vysvětlil	-10.5417
LI	-10.5418
▁Nejvíce	-10.542
▁dřívější	-10.5421
▁dosahuje	-10.5422
nést	-10.5423
▁představit	-10.5423
▁prosadit	-10.5423
vede	-10.5424
nové	-10.5425
▁léků	-10.5427
▁Chceme	-10.5427
▁znaků	-10.543
▁myši	-10.5436
▁role	-10.5437
▁ukázalo	-10.5437
▁slovenských	-10.5438
▁zkušeností	-10.5441
▁francouzský	-10.5442
▁orgánů	-10.5443
▁přípravě	-10.5443
▁trvale	-10.5444
▁umí	-10.5445
ovněž	-10.5445
ros	-10.5447
▁vrací	-10.5448
▁nesouhlasí	-10.5451
▁zbytek	-10.5452
▁Čs	-10.5453
▁odchodu	-10.5454
zu	-10.5455
▁Gorbačov	-10.5459
▁vedl	-10.5463
▁kanceláří	-10.5473
ale	-10.5474
▁grafické	-10.5478
▁místem	-10.5478
▁nebezpečné	-10.5483
CI	-10.5487
▁všude	-10.5498
▁materiály	-10.5498
▁vysoký	-10.55
šti	-10.5503
TA	-10.5508
▁Nad	-10.5508
▁prodal	-10.5509
▁šlo	-10.5513
▁novin	-10.5516
▁výstava	-10.5519
▁vodou	-10.5519
voz	-10.5534
pravděpodobností	-10.5534
ón	-10.5537
▁800	-10.5538
nec	-10.554
▁27	-10.5541
vali	-10.5549
▁cenou	-10.555
orku	-10.5551
▁kniha	-10.5554
▁deník	-10.5554
▁20.	-10.5558
▁domnívá	-10.5562
▁závodě	-10.5567
▁názorů	-10.5572
▁vrchol	-10.5573
▁sestav	-10.5574
▁představu	-10.5577
▁Tad	-10.5577
inu	-10.5579
▁pracují	-10.5583
▁adres	-10.5584
▁zásob	-10.5587
▁dojem	-10.5594
▁výklad	-10.5599
▁rozsah	-10.5599
▁čtenáře	-10.5599
▁zúčastnil	-10.5602
▁podnikové	-10.5611
30	-10.5611
▁zaměstnavatele	-10.5629
▁stud	-10.563
pel	-10.5633
▁vzal	-10.5635
▁zásad	-10.5638
▁osobních	-10.5641
▁přestup	-10.5642
hlav	-10.5643
tře	-10.5644
▁způsoby	-10.5647
▁zbraně	-10.5649
▁podal	-10.5655
▁vážně	-10.5667
▁Výsledk	-10.5668
▁atraktivní	-10.5668
▁dlouhá	-10.5668
▁tiskárny	-10.5668
▁chráněn	-10.5668
▁koncepce	-10.5668
▁nabídce	-10.5668
▁používají	-10.5668
▁telekomunikační	-10.5668
▁naděje	-10.5668
▁závisí	-10.5668
▁učinil	-10.5668
▁muzea	-10.5668
▁blízké	-10.5668
▁unii	-10.5668
▁rozšířit	-10.5668
▁žebříčku	-10.5668
▁vysvětluje	-10.5669
▁předpokládat	-10.5671
▁naději	-10.5671
▁vysoce	-10.5672
▁externí	-10.5675
▁můj	-10.5675
▁složky	-10.5678
▁umožňující	-10.5679
koli	-10.5679
▁dvojice	-10.5681
▁Ostrava	-10.5681
▁uvést	-10.5683
▁barvy	-10.5685
▁fotbalistů	-10.5685
▁čtyřech	-10.5686
▁návštěvu	-10.5687
▁Sparty	-10.5688
projevuje	-10.5688
▁Nikdo	-10.569
▁Autor	-10.5691
▁milióny	-10.5695
▁přenos	-10.5699
fo	-10.57
jev	-10.5703
▁totéž	-10.5712
▁mysli	-10.5712
▁akciové	-10.5713
▁agentura	-10.5715
▁nemůžeme	-10.5717
▁živ	-10.572
▁budovy	-10.5727
▁čtyřmi	-10.5734
▁noční	-10.5735
▁opak	-10.5738
lep	-10.5742
ele	-10.5743
▁neznámý	-10.5756
nek	-10.5756
▁studium	-10.5756
▁nároky	-10.5758
▁politický	-10.5764
ujících	-10.5769
▁podání	-10.5773
▁třiceti	-10.5773
▁vědci	-10.5792
▁podstatné	-10.5792
▁trestný	-10.5794
▁trend	-10.5796
▁filmový	-10.5798
▁navrhl	-10.5799
▁listu	-10.5804
▁návrat	-10.5824
▁stranou	-10.5825
▁nabídl	-10.5835
▁cest	-10.5838
▁obor	-10.5838
▁světového	-10.5846
▁Cena	-10.5846
▁vydal	-10.5847
▁povrch	-10.5851
▁píše	-10.5853
▁finančn	-10.5855
▁kol	-10.5862
▁Profit	-10.5863
▁bodu	-10.5869
▁systémem	-10.5875
ejména	-10.5875
din	-10.5876
zo	-10.5881
▁Nebyl	-10.5884
▁střed	-10.5885
ir	-10.5886
▁řeší	-10.5888
10	-10.5895
ěji	-10.5902
▁obchodním	-10.5907
vedl	-10.5914
▁spisovatel	-10.5915
▁negativní	-10.5924
▁hrají	-10.5924
klad	-10.5926
tit	-10.5929
▁Itálii	-10.5931
▁Miloslav	-10.5931
▁povinen	-10.5931
▁podívat	-10.5931
▁Jugoslávii	-10.5931
▁najevo	-10.5931
▁říct	-10.5931
▁Peter	-10.5931
▁obligace	-10.5933
▁vybírat	-10.5934
▁fax	-10.5935
▁vojáků	-10.5936
▁Rad	-10.5936
▁snižování	-10.5937
▁peněžní	-10.5937
her	-10.594
▁Moravě	-10.5941
▁pivo	-10.5941
▁skončení	-10.5941
▁kusů	-10.5943
▁hlavu	-10.5944
▁předmětem	-10.5945
ger	-10.595
▁povolání	-10.5951
▁cyklus	-10.5952
▁přehled	-10.5953
▁odvolání	-10.5954
▁kartu	-10.5959
▁Kolik	-10.596
▁japonské	-10.5962
▁úvěrů	-10.5967
▁pouhý	-10.597
▁celku	-10.5971
▁odbyt	-10.5974
▁nesmírn	-10.5975
▁národů	-10.5975
▁dílem	-10.5976
▁Al	-10.5977
stal	-10.5977
▁věří	-10.5979
▁vlny	-10.5985
▁důvodem	-10.5988
▁výstavy	-10.599
▁oprávněn	-10.599
▁některým	-10.5991
▁složen	-10.5991
▁škole	-10.5992
▁dvanácti	-10.5995
▁jakých	-10.5996
▁umístěn	-10.5999
▁přijat	-10.6
▁Počet	-10.6008
▁přípravy	-10.6008
lat	-10.6016
▁jakékoli	-10.6022
▁Dalším	-10.6022
▁fotbalový	-10.6023
▁starosta	-10.6024
váží	-10.6025
▁Ruské	-10.6031
▁dění	-10.6031
▁fyzické	-10.6032
▁upozornil	-10.6033
▁důkaz	-10.6033
▁automobil	-10.6038
MA	-10.6038
▁nákupu	-10.6044
▁českým	-10.6046
▁posun	-10.6049
▁horní	-10.6055
▁Znamen	-10.6057
▁Če	-10.6068
▁dar	-10.6071
▁záznamník	-10.6076
▁tvrdé	-10.6077
▁devíti	-10.6083
lid	-10.6085
rou	-10.6086
▁partner	-10.6088
▁Francouz	-10.609
▁jistý	-10.609
▁graf	-10.6103
▁budov	-10.6107
▁klid	-10.6116
ír	-10.612
▁Bush	-10.6132
san	-10.6134
▁Lékař	-10.6136
▁informoval	-10.6137
▁volný	-10.6141
▁Major	-10.6141
▁schopna	-10.6142
▁hotov	-10.6146
NA	-10.6148
▁jasno	-10.6157
▁přímé	-10.6162
▁průběh	-10.6162
▁požaduje	-10.6168
▁bankovní	-10.6176
▁ploch	-10.6177
▁Např	-10.618
▁bloku	-10.6183
mot	-10.6187
▁partnerů	-10.619
nozí	-10.6191
▁chemický	-10.6194
▁26	-10.6194
▁Řad	-10.62
▁Univerzit	-10.6201
▁existovat	-10.6201
▁informaci	-10.6201
▁obtížné	-10.6201
▁prezentací	-10.6201
▁vyjádřit	-10.6201
▁vytvářet	-10.6201
▁února	-10.6201
▁ubytování	-10.6201
▁optimální	-10.6201
▁zítra	-10.6202
▁Bójové	-10.6202
lib	-10.6203
▁hrách	-10.6204
▁zdánlivě	-10.6204
▁jednotek	-10.6205
▁ztrácí	-10.6206
▁rychleji	-10.6206
▁tradice	-10.6208
▁československé	-10.6208
▁nadace	-10.6211
▁závodech	-10.6211
▁hlavy	-10.6213
▁objevuje	-10.6216
▁politiků	-10.6216
▁správu	-10.6217
▁brání	-10.6217
▁střediska	-10.6218
▁ústřední	-10.6219
▁výstav	-10.6219
▁vedou	-10.622
▁dohodě	-10.622
▁obvinění	-10.6221
▁předpisy	-10.6222
▁limit	-10.6222
íte	-10.6223
▁boje	-10.6225
fer	-10.6226
▁dostávají	-10.6227
▁kontroly	-10.6228
▁kalů	-10.623
▁starost	-10.623
▁vesnici	-10.6232
▁založen	-10.6235
W	-10.6238
▁narodil	-10.6238
▁slavnostní	-10.6241
▁vzdálenosti	-10.6247
▁souborů	-10.625
oč	-10.6252
▁rizika	-10.6255
▁Svoboda	-10.6258
▁sále	-10.6261
▁signálu	-10.6264
▁hrad	-10.6265
▁zaveden	-10.6266
▁Vlastní	-10.6267
▁mistr	-10.6268
▁PC	-10.6271
▁návratu	-10.6273
▁soutěží	-10.6273
▁vysloven	-10.6274
▁drží	-10.6285
kul	-10.6285
hodil	-10.6285
▁správný	-10.6288
▁udělá	-10.6288
▁sobotní	-10.6299
▁klepn	-10.6304
ckých	-10.6308
počátku	-10.6316
OU	-10.6323
▁závodů	-10.6326
▁těles	-10.6327
ine	-10.633
▁ostatními	-10.6333
▁důvody	-10.6338
případě	-10.6338
▁jazyk	-10.6344
ováno	-10.6354
▁nápad	-10.6372
▁vznikají	-10.6375
nes	-10.6375
▁určený	-10.6379
▁vybraný	-10.6396
▁Sv	-10.6399
▁ozbrojený	-10.6402
kám	-10.6404
▁server	-10.6407
▁čtyřicet	-10.6414
▁určené	-10.6415
pře	-10.6419
▁komunikace	-10.6419
ór	-10.6421
▁dětské	-10.6433
▁státě	-10.6435
▁předsed	-10.6437
pak	-10.644
▁historický	-10.6443
86	-10.6454
ickou	-10.6455
najdete	-10.6461
▁samostatný	-10.6462
▁sportu	-10.647
▁mohu	-10.6475
▁demokracii	-10.6479
▁jednoduše	-10.6479
▁nepochybn	-10.6479
▁nádraží	-10.6479
▁otázkou	-10.6479
▁ovzduší	-10.6479
▁vyrábí	-10.6479
▁častěji	-10.6479
▁železniční	-10.6479
▁obnoven	-10.6479
▁knize	-10.6479
▁obligací	-10.6479
▁modul	-10.6479
▁čísel	-10.6479
▁věnován	-10.6479
▁záření	-10.6479
▁vážné	-10.6479
▁dohodnout	-10.6479
▁pracoviště	-10.648
▁oblečení	-10.6481
ška	-10.6481
▁odstranit	-10.6482
▁vyvolal	-10.6482
▁pobřeží	-10.6483
▁několikrát	-10.6483
▁komunistické	-10.6484
▁kvalitě	-10.6485
▁uprostřed	-10.6485
▁žít	-10.6486
▁opoziční	-10.6487
▁blízkosti	-10.6488
▁omezen	-10.6488
▁dopravě	-10.6488
▁klimatický	-10.6489
▁ovládání	-10.649
▁příchod	-10.649
▁Ot	-10.6493
▁připadá	-10.6497
jíž	-10.6498
▁investor	-10.6499
▁novináři	-10.6501
▁nejlepších	-10.6505
▁demokratick	-10.6506
▁Internet	-10.6506
▁Rakousku	-10.6509
▁výpravy	-10.6513
▁Pražské	-10.6513
▁obrazů	-10.6517
▁Taková	-10.6519
▁znaky	-10.6519
▁rezerv	-10.6521
▁běžně	-10.6522
nění	-10.6524
▁cítí	-10.6526
▁viděli	-10.6527
▁testu	-10.6536
▁uzavřel	-10.6537
▁velkého	-10.6538
▁rodinný	-10.6539
pil	-10.6545
▁působit	-10.6546
▁mezinárodních	-10.6549
▁Bra	-10.6551
▁Rusku	-10.6563
▁souhlasí	-10.6564
▁metoda	-10.6571
čili	-10.6572
▁úvěry	-10.6575
▁plný	-10.6577
▁jednotliv	-10.6585
▁pohyb	-10.659
DE	-10.6592
py	-10.6592
▁festival	-10.6596
▁určitých	-10.6597
▁formu	-10.6605
▁měsíci	-10.6611
šli	-10.6617
psal	-10.6618
▁kapitál	-10.6619
tak	-10.662
▁společn	-10.6622
hrát	-10.6626
▁fondy	-10.6628
▁strach	-10.6635
▁5.	-10.6636
▁termínu	-10.664
▁částic	-10.664
▁dopravu	-10.6645
▁Malé	-10.6645
▁sídle	-10.6646
den	-10.6649
řídit	-10.6654
cký	-10.6659
▁prohrál	-10.6663
▁umožnil	-10.6667
▁plánu	-10.6669
▁doprava	-10.6673
▁tajný	-10.6675
▁větším	-10.6676
jedou	-10.6678
▁zaměstnavatel	-10.6678
ohledem	-10.6679
▁forma	-10.6688
▁software	-10.6688
▁zlato	-10.669
▁vytvořil	-10.6691
▁editor	-10.6694
▁okamžik	-10.6696
▁účetní	-10.6699
▁pozor	-10.6701
sad	-10.6702
▁pohybují	-10.6702
▁vodu	-10.6702
ral	-10.6703
▁výnos	-10.6707
stoupil	-10.6707
▁pomůže	-10.6711
▁zvítězil	-10.6712
les	-10.6721
▁převzal	-10.6722
áři	-10.6724
40	-10.6726
▁Musím	-10.6727
▁nemusel	-10.673
▁večerní	-10.6731
▁začínají	-10.6735
ast	-10.6736
▁advokát	-10.6738
vil	-10.6739
▁komerční	-10.674
▁65	-10.6749
▁ulice	-10.6757
▁Americe	-10.6764
▁dopoledne	-10.6764
▁ministerstvu	-10.6764
▁nejrychleji	-10.6764
▁reakce	-10.6764
▁rekonstrukci	-10.6764
▁rozhoduje	-10.6764
▁strategie	-10.6764
▁sloužit	-10.6764
▁policii	-10.6764
▁srdce	-10.6764
▁dveře	-10.6765
▁partneři	-10.6765
▁Klub	-10.6765
▁vzít	-10.6765
▁krve	-10.6765
▁vězení	-10.6765
▁psát	-10.6765
▁trvat	-10.6765
▁penze	-10.6765
▁čekat	-10.6766
▁jaře	-10.6766
▁dotací	-10.6766
▁dubna	-10.6766
▁politickou	-10.6766
▁Konečn	-10.6766
▁považovat	-10.6766
▁zachovat	-10.6768
▁Trenér	-10.6768
▁poskytnout	-10.6768
▁narození	-10.6769
▁stavby	-10.6771
▁rozdělen	-10.6772
ající	-10.6772
▁obsahovat	-10.6774
▁provádět	-10.6775
▁Havla	-10.6778
▁přišli	-10.6779
▁objektivní	-10.678
▁areálu	-10.678
▁ukončení	-10.6782
▁obci	-10.6784
▁vojenský	-10.6786
▁vším	-10.6788
▁dítěte	-10.6789
▁událostí	-10.6789
▁Mnoho	-10.6795
▁postavit	-10.6796
▁sovětských	-10.6796
▁aktivit	-10.6798
▁schválení	-10.6798
▁severu	-10.68
▁zastavit	-10.6801
▁připojení	-10.6801
▁orgány	-10.6802
▁kontakty	-10.6806
▁příkladem	-10.6806
ble	-10.6812
▁výhody	-10.6814
▁býval	-10.6814
▁Fe	-10.6815
▁kabinetu	-10.6816
▁průmyslové	-10.6818
▁události	-10.6821
▁managementu	-10.6824
▁zjistili	-10.6824
▁dodat	-10.6825
▁produkty	-10.6827
▁cosi	-10.6828
▁učitel	-10.6829
▁útoku	-10.683
▁hlasy	-10.6837
▁přesvědčení	-10.6839
▁hranic	-10.6839
▁principy	-10.6842
▁samostatně	-10.6844
▁rodina	-10.6844
▁maximální	-10.6845
▁využívá	-10.6851
▁občany	-10.6851
▁dokázal	-10.6855
▁vyhlásil	-10.6856
oje	-10.6859
▁slib	-10.686
▁elektrické	-10.6862
▁vyrábět	-10.6864
▁čtvrt	-10.6866
▁souhlasu	-10.6871
▁vašeho	-10.6874
držení	-10.688
▁výkonné	-10.6885
▁55	-10.6886
▁setkal	-10.6889
▁soubory	-10.6896
▁rozhodli	-10.6899
▁dělí	-10.69
▁stejným	-10.6907
▁předpoklad	-10.691
▁oslav	-10.6917
▁obrovské	-10.6917
▁kluby	-10.6917
▁Rada	-10.6917
▁rad	-10.6921
▁1000	-10.6931
▁změnil	-10.6931
rat	-10.6933
▁pas	-10.6933
▁zásadně	-10.6936
▁zmíněný	-10.6937
▁sociálního	-10.6942
▁znamenat	-10.6944
▁produkt	-10.6948
▁člena	-10.6948
▁akt	-10.695
▁projevil	-10.695
▁techniku	-10.6955
go	-10.6958
▁pravidel	-10.696
▁vyzval	-10.6962
▁jakém	-10.6962
▁oznámila	-10.6963
▁průměrné	-10.6965
▁přiznal	-10.6965
▁kom	-10.6992
▁živé	-10.6999
olog	-10.7007
▁založil	-10.7013
dané	-10.7018
▁povinn	-10.702
▁milion	-10.7023
▁pečlivě	-10.7025
▁nástroje	-10.7027
▁Německ	-10.7028
▁víme	-10.7032
▁postupy	-10.7034
▁cyklu	-10.7034
▁rostou	-10.7039
příliš	-10.704
▁obec	-10.704
por	-10.704
držel	-10.704
▁1,	-10.7049
▁Stanislav	-10.7059
▁března	-10.7059
▁geometrie	-10.7059
▁rozmezí	-10.7059
▁zahrnuje	-10.7059
▁sotva	-10.7059
▁kupónov	-10.7059
▁klesá	-10.7059
▁rakouské	-10.7059
▁čtvrtletí	-10.7059
▁zahynul	-10.7059
▁využil	-10.7059
▁návod	-10.706
▁Inter	-10.706
vz	-10.706
▁téhož	-10.7061
▁diskusi	-10.7063
▁snižuje	-10.7063
▁morální	-10.7063
▁výsledku	-10.7064
▁zajišťuje	-10.7065
▁map	-10.7065
▁opozice	-10.7066
▁školách	-10.7066
▁účinky	-10.7067
▁třídě	-10.7067
▁vzpomíná	-10.7067
▁poradce	-10.7068
▁čin	-10.7069
▁zásluh	-10.707
▁kovů	-10.7071
▁pravomoci	-10.7071
▁zvýší	-10.7073
▁formy	-10.7074
▁činit	-10.7076
▁Tehd	-10.7079
▁zachování	-10.7083
fe	-10.7084
▁hor	-10.7089
▁miliónu	-10.7094
▁přestal	-10.7094
řídil	-10.7098
▁duchu	-10.7098
▁kandidátů	-10.7098
NÁ	-10.71
▁provádí	-10.7101
hla	-10.7101
▁volbu	-10.7103
oři	-10.7103
▁startu	-10.7103
▁příčinou	-10.7104
▁příběh	-10.7106
▁představiteli	-10.7111
▁formátu	-10.7113
ření	-10.7115
kin	-10.712
OH	-10.7122
▁přinesl	-10.7129
▁Zemi	-10.7133
▁slep	-10.7134
▁pražských	-10.7142
▁producent	-10.7161
padají	-10.7161
▁plnění	-10.7164
▁papíru	-10.7166
aj	-10.7168
▁kurz	-10.7168
dostanou	-10.7178
▁Boris	-10.7184
▁poskytl	-10.7193
▁Me	-10.7193
▁obchody	-10.7194
ění	-10.7194
▁signál	-10.7196
▁Občanské	-10.7198
▁klasický	-10.7201
▁nezbytn	-10.7202
▁modely	-10.7211
▁mo	-10.7214
star	-10.7215
▁daném	-10.7217
▁ztratil	-10.7219
▁vyp	-10.7222
▁rozhodčí	-10.7223
ává	-10.7229
▁chyby	-10.7234
▁Zájem	-10.7237
▁následujících	-10.7241
brán	-10.7246
▁pra	-10.725
▁Popper	-10.7254
▁vybaven	-10.7256
▁přenosov	-10.726
▁krátké	-10.7264
▁Michael	-10.7265
▁příslušn	-10.7265
▁průzkum	-10.7275
▁filmové	-10.7281
▁věda	-10.7284
▁15.	-10.7285
▁loňský	-10.7286
▁výbuch	-10.7292
▁protest	-10.7299
▁test	-10.7299
▁poruch	-10.7299
▁Han	-10.7304
kyně	-10.7309
▁jediným	-10.731
vad	-10.7315
▁Sa	-10.7315
▁menšin	-10.7317
▁postižen	-10.7321
▁podpis	-10.7323
puštěn	-10.7323
▁vstoupil	-10.7326
▁vln	-10.7329
▁pojištěn	-10.7329
▁našel	-10.7329
▁San	-10.7329
▁Mnoh	-10.7329
▁vstříc	-10.7336
kol	-10.7342
ností	-10.7343
▁služba	-10.7343
▁nedávné	-10.7343
▁barevný	-10.7345
▁nezávislé	-10.7347
▁reakci	-10.7349
▁uvažuje	-10.7353
▁chtěla	-10.7357
▁Otázka	-10.7362
▁definitivně	-10.7362
▁divadlo	-10.7362
▁kyslíku	-10.7362
▁označit	-10.7362
▁prognóz	-10.7362
▁sekretář	-10.7362
▁transformaci	-10.7362
▁vozidel	-10.7362
▁vězňů	-10.7362
▁zvyšování	-10.7362
▁října	-10.7362
▁důvěru	-10.7362
▁počtem	-10.7362
▁prosinci	-10.7362
▁vazby	-10.7362
▁Práce	-10.7362
▁digitální	-10.7362
▁pokračování	-10.7362
▁nikoho	-10.7362
▁výročí	-10.7362
▁Býval	-10.7362
▁svoje	-10.7362
▁myšlenky	-10.7362
▁super	-10.7363
▁Člen	-10.7363
▁hluboké	-10.7363
▁poradit	-10.7365
▁hřišti	-10.7367
▁koní	-10.7368
▁oběti	-10.7368
▁Československé	-10.7369
▁navrhuje	-10.7369
▁sexuální	-10.7369
▁majitele	-10.7369
▁neplatí	-10.737
▁mírně	-10.737
▁výdajů	-10.7372
▁poplatky	-10.7372
▁Třeba	-10.7373
▁začátek	-10.7373
▁rozšířil	-10.7373
▁sezóny	-10.7376
zemědělských	-10.7377
▁boji	-10.7377
▁krajiny	-10.7377
▁mechanismus	-10.738
▁tuzemsku	-10.7381
▁zrušit	-10.7382
▁rostoucí	-10.7382
▁pokuty	-10.7383
▁Uvedl	-10.7385
▁dílů	-10.7387
▁útok	-10.7387
▁Jaké	-10.7392
▁třetiny	-10.7392
vají	-10.7392
▁rozsáhlé	-10.7393
▁východě	-10.7397
▁Hlavním	-10.7398
▁koncertu	-10.74
▁příležitostí	-10.7402
▁Du	-10.7404
▁reklamy	-10.7404
▁svobody	-10.7407
▁zůstalo	-10.7407
▁vědí	-10.7408
▁Rakouska	-10.7408
ený	-10.741
LE	-10.7411
▁Ž	-10.7412
▁schopností	-10.7413
▁činil	-10.7414
aly	-10.7415
▁tisíci	-10.7417
▁představitele	-10.7418
▁nastavení	-10.742
chází	-10.742
▁ukázal	-10.7421
▁výborů	-10.7422
▁cíl	-10.7423
▁obsahují	-10.7423
▁postavil	-10.7424
▁přítomnosti	-10.7426
▁majitelé	-10.7426
▁prv	-10.7427
▁Vlk	-10.7427
▁pacient	-10.7428
hi	-10.7429
▁1992.	-10.7432
▁náhradní	-10.744
áš	-10.7448
▁objevují	-10.7449
▁společenské	-10.746
▁starý	-10.7462
▁anti	-10.7463
▁Světové	-10.7465
▁(1	-10.7466
▁záležitosti	-10.7471
▁stylu	-10.7474
▁zjistil	-10.7475
▁spojen	-10.749
▁31.	-10.7491
▁českém	-10.7492
▁tuzemské	-10.7494
▁ekonomický	-10.7503
▁necelý	-10.7504
▁zad	-10.7508
▁známý	-10.7511
rd	-10.7516
▁hru	-10.752
dra	-10.7526
▁výrobních	-10.7529
▁mimořádný	-10.7535
▁36	-10.7541
▁Izrael	-10.7542
▁exportu	-10.7546
▁klidně	-10.7548
▁silný	-10.7555
▁sousední	-10.7564
▁obrovský	-10.757
▁Soud	-10.7571
nesou	-10.7576
▁primátor	-10.7579
▁výkony	-10.7585
▁Úřadu	-10.7591
▁dosáhla	-10.7594
▁nejnovější	-10.7596
▁rodičů	-10.7599
zb	-10.7601
▁Obecn	-10.7604
skal	-10.7607
▁obsadil	-10.761
▁surovin	-10.7612
▁zdravotního	-10.7615
▁Muž	-10.7617
▁firemní	-10.7619
myšlen	-10.7623
dařilo	-10.7624
▁státem	-10.7626
▁klasické	-10.7629
▁11.	-10.763
▁účtu	-10.763
▁CO	-10.7632
▁potřeboval	-10.7632
▁zpravodaj	-10.7633
▁textový	-10.7637
▁ostatním	-10.7638
▁přítomnost	-10.7639
▁důraz	-10.7639
čátkem	-10.7648
▁diplomat	-10.7651
▁vlastnost	-10.7652
dis	-10.7657
▁Pomoc	-10.7658
▁dětský	-10.7662
bytek	-10.7662
▁6.	-10.7666
rán	-10.7668
▁menších	-10.7671
▁Euro	-10.7672
▁Evropu	-10.7674
▁Mechanik	-10.7674
▁Premiér	-10.7674
▁Systém	-10.7674
▁Vývoj	-10.7674
▁definitivní	-10.7674
▁kilobajtů	-10.7674
▁lehce	-10.7674
▁potvrzuje	-10.7674
▁připomněl	-10.7674
▁režii	-10.7674
▁sjednocení	-10.7674
▁smlouvě	-10.7674
▁tabulce	-10.7674
▁teorií	-10.7674
▁tvořit	-10.7674
▁zdarma	-10.7674
▁účinek	-10.7674
▁podezření	-10.7674
▁schůze	-10.7674
▁spotřeby	-10.7674
▁zastupitelstva	-10.7674
▁nedokázal	-10.7674
▁střetnutí	-10.7674
▁bránit	-10.7675
▁GSM	-10.7675
▁produkci	-10.7675
ller	-10.7675
▁celků	-10.7676
▁resp	-10.7677
▁nejenom	-10.7677
▁absolutní	-10.7677
▁ovoce	-10.7677
▁diskuse	-10.7677
▁("	-10.7677
zení	-10.7678
▁Dodal	-10.7679
▁vaši	-10.7679
kládají	-10.7679
▁předložit	-10.7681
▁akademie	-10.7681
▁dolní	-10.7682
▁vyvolává	-10.7684
▁kódování	-10.7684
▁Druhá	-10.769
▁Staroměstské	-10.7691
▁dostatek	-10.7692
▁Jednání	-10.7693
▁Severní	-10.7693
▁zahraničním	-10.7696
15	-10.7697
▁kontrolní	-10.7698
▁náhodou	-10.7699
týká	-10.7699
▁závislosti	-10.7704
▁výstavě	-10.7705
▁zdravé	-10.7707
▁užívání	-10.7708
▁manžel	-10.7709
▁fakultu	-10.7709
▁padesáti	-10.771
▁trénink	-10.7714
▁najde	-10.7714
▁zvěře	-10.7715
zv	-10.7717
▁nahradil	-10.7717
▁veřejných	-10.7718
▁Sparta	-10.7719
íka	-10.7721
▁pachatel	-10.7723
▁označen	-10.7723
▁teplota	-10.7725
▁ukončil	-10.7725
▁základem	-10.7726
▁host	-10.7728
▁škodu	-10.7728
▁předložen	-10.7736
▁Změn	-10.7738
19	-10.7742
▁Mir	-10.7743
▁porad	-10.7743
íci	-10.775
táhne	-10.7751
▁příčiny	-10.7753
▁Ústavní	-10.7755
▁zdravotnické	-10.7755
izace	-10.776
íme	-10.7763
▁způsobil	-10.7768
▁principu	-10.7769
▁vyžádal	-10.777
▁pevné	-10.7774
jat	-10.7776
▁sporu	-10.7776
▁Němec	-10.7778
▁chat	-10.7779
▁trenérem	-10.7779
cího	-10.7788
ismus	-10.7791
▁čtrnáct	-10.7799
▁Novák	-10.7799
▁bratr	-10.7803
ier	-10.7803
▁trestné	-10.7804
▁týdnech	-10.7809
80	-10.7816
▁NE	-10.7824
▁důsled	-10.7825
AV	-10.7829
kům	-10.7831
RO	-10.7833
▁formát	-10.7838
▁podobného	-10.7839
▁fyzický	-10.784
ren	-10.7841
▁koho	-10.7841
▁jiní	-10.7858
▁mnou	-10.7866
edení	-10.7866
TE	-10.7868
▁Lon	-10.7872
▁znění	-10.7876
▁reálný	-10.7883
ll	-10.7888
▁variant	-10.7892
▁7.	-10.7893
▁lékařsk	-10.7897
▁bi	-10.7897
▁pokračoval	-10.7899
▁Bu	-10.79
icky	-10.7903
dit	-10.7903
▁Firm	-10.7905
▁pravděpodobnost	-10.791
▁životním	-10.7918
▁rozhraní	-10.792
▁situací	-10.7921
▁34	-10.7924
▁Paul	-10.7933
jako	-10.7934
▁klíč	-10.7935
▁bezprostředn	-10.7942
▁nezávislost	-10.7943
▁odsouzen	-10.7946
85	-10.7949
ij	-10.7953
▁zjištěn	-10.7953
▁Ca	-10.7954
▁SP	-10.7955
▁Jelcina	-10.7956
▁grafický	-10.7958
▁vlně	-10.7959
▁Svět	-10.797
▁poskytují	-10.7985
▁dala	-10.7995
kat	-10.7995
▁Viktor	-10.7996
jedině	-10.7997
▁Poslanc	-10.7997
▁chystá	-10.7997
▁dražší	-10.7997
▁krizi	-10.7997
▁nemohu	-10.7997
▁podporovat	-10.7997
▁přispět	-10.7997
▁sportovců	-10.7997
▁vyřešit	-10.7997
▁Člověk	-10.7997
▁skončí	-10.7997
▁Osobn	-10.7997
▁turisty	-10.7997
▁nejnižší	-10.7997
▁dohromady	-10.7997
▁sněhu	-10.7997
▁mld	-10.7997
▁třetího	-10.7997
▁obilí	-10.7997
▁dobrá	-10.7997
▁snažit	-10.7997
▁těší	-10.7997
▁síti	-10.7998
▁atmosféry	-10.7998
▁vypadat	-10.7998
▁Hradci	-10.7999
▁přesvědčit	-10.7999
▁vybudovat	-10.8
▁vedlejší	-10.8
▁zbytečně	-10.8
▁připojit	-10.8002
▁zhodnocení	-10.8002
▁ruky	-10.8002
▁pokračuje	-10.8003
▁porozumění	-10.8003
▁tvorbě	-10.8004
▁všeobecně	-10.8004
▁poznamenal	-10.8007
▁Bruselu	-10.8007
▁srážek	-10.8009
tor	-10.8009
▁přinést	-10.8016
▁rovině	-10.8016
▁obsazení	-10.8017
▁vesnice	-10.8018
▁analýzy	-10.8018
▁Chorvatska	-10.8022
leč	-10.8024
van	-10.8025
▁Senátu	-10.8025
▁spolupracovníků	-10.8027
▁zlom	-10.8029
▁opustit	-10.8029
▁neb	-10.803
▁důchodu	-10.803
▁autobusy	-10.8033
ismu	-10.8034
▁kolektivní	-10.8035
▁silnice	-10.804
▁ztrát	-10.8042
▁zájmů	-10.8043
▁Američané	-10.8043
▁Novotný	-10.8043
▁zájemce	-10.8055
▁dovozu	-10.8055
koupit	-10.8055
▁výkonný	-10.8061
fu	-10.8061
▁Mohl	-10.8063
▁městský	-10.8071
▁Karla	-10.8077
▁požadované	-10.8079
▁bílé	-10.8084
▁grafu	-10.8086
▁volných	-10.8087
▁JE	-10.8088
▁nachází	-10.8089
▁drobné	-10.8093
▁nevím	-10.8095
▁Ni	-10.8097
▁přivedl	-10.8098
▁tlaku	-10.8101
▁nepříjemné	-10.8104
ologie	-10.8105
▁průměrný	-10.8109
▁dalo	-10.8109
▁patnácti	-10.8112
▁130	-10.8115
▁experiment	-10.8119
▁projektů	-10.8125
▁objemu	-10.8126
▁členský	-10.8128
▁personální	-10.8137
▁Rus	-10.8146
▁struktura	-10.8149
▁úst	-10.8154
▁nástup	-10.8159
▁plno	-10.8162
rop	-10.8168
▁střel	-10.8168
▁získan	-10.8172
▁1,5	-10.8182
▁vedla	-10.8187
▁Takový	-10.8187
▁Be	-10.819
bývají	-10.8192
letý	-10.8194
▁hůře	-10.8196
▁hledají	-10.8197
▁konečný	-10.8198
▁potenciál	-10.8198
▁záznam	-10.8199
▁turistický	-10.8204
▁hlad	-10.8204
▁vědě	-10.8204
▁dokumentu	-10.8204
▁past	-10.8208
50	-10.8209
▁událost	-10.8213
▁kvantov	-10.8213
▁průmysl	-10.8215
▁Jaký	-10.822
▁investic	-10.8223
wa	-10.8229
KO	-10.8231
%	-10.8231
▁koupí	-10.8236
věřil	-10.8238
nictví	-10.824
▁nutnost	-10.824
▁osobnost	-10.8243
ováním	-10.8246
▁král	-10.8247
▁otevřené	-10.8254
RU	-10.8255
▁jmenován	-10.8255
tav	-10.8258
▁management	-10.8261
▁prosadil	-10.8263
▁překvapení	-10.8272
▁čtyřiceti	-10.8272
5%	-10.8275
denní	-10.8278
▁neboli	-10.8281
▁výrazný	-10.8287
▁značný	-10.8303
▁aminokyselin	-10.8306
▁prof	-10.8309
▁Jaká	-10.831
ivé	-10.8314
▁účel	-10.8315
hlížet	-10.8315
▁Několik	-10.8316
▁dělení	-10.833
▁Mluvčí	-10.833
▁dosažení	-10.833
▁jednoduchá	-10.833
▁metropoli	-10.833
▁nechtějí	-10.833
▁neutrální	-10.833
▁pochopení	-10.833
▁teorii	-10.833
▁tradičně	-10.833
▁únoru	-10.833
▁Peníze	-10.833
▁reakcí	-10.833
▁výpověď	-10.833
▁likvidace	-10.833
▁Zástupc	-10.833
▁restauraci	-10.833
▁Obdobn	-10.833
▁nejpozději	-10.833
▁jmění	-10.833
▁Rozdíl	-10.833
▁Rudolf	-10.833
▁dotace	-10.833
▁operací	-10.8331
▁dojít	-10.8331
▁kategorii	-10.8332
▁dělají	-10.8332
▁mezd	-10.8332
▁výhodnější	-10.8333
▁elektráren	-10.8335
▁reformy	-10.8335
▁sněmovně	-10.8337
▁podporuje	-10.8337
▁Zahraničn	-10.8338
▁břehu	-10.8338
▁městech	-10.834
padne	-10.8341
▁vína	-10.8341
▁realitní	-10.8342
▁přijdou	-10.8342
klo	-10.8342
▁udržení	-10.8344
▁časopisů	-10.8345
og	-10.8348
▁Tour	-10.8348
volat	-10.8348
▁sezónu	-10.8348
nci	-10.8354
▁pochází	-10.8356
▁stíhání	-10.8357
něte	-10.8359
▁skla	-10.836
▁uložení	-10.8362
táhnout	-10.8364
ovské	-10.8368
▁žádostí	-10.8369
▁otevřena	-10.8371
▁hledal	-10.8372
ňování	-10.8373
▁zraněn	-10.8374
▁odborníky	-10.8376
▁kont	-10.8377
▁hmoty	-10.8377
▁Paříži	-10.838
▁využívání	-10.8381
▁svobodu	-10.8386
▁OH	-10.8391
▁staví	-10.8392
▁obvodní	-10.8393
▁strom	-10.8396
▁kandidát	-10.8402
▁založení	-10.8402
▁mechanik	-10.8405
ana	-10.8405
▁Jin	-10.8407
TO	-10.841
▁vystaven	-10.8412
▁domy	-10.8418
▁žádosti	-10.842
▁Sun	-10.8424
rovná	-10.843
▁záměru	-10.843
▁škoda	-10.8434
▁ukázala	-10.8436
▁Pří	-10.8437
▁upraven	-10.8445
▁nemohli	-10.8445
bud	-10.845
▁rodin	-10.8451
▁schválil	-10.8457
par	-10.846
▁vešker	-10.8462
ovky	-10.8463
▁Kon	-10.8464
tion	-10.8465
píše	-10.8465
▁reprezentantů	-10.8469
▁šedesát	-10.8472
▁Důležit	-10.8473
▁mimořádné	-10.8474
▁platy	-10.8475
▁činu	-10.848
▁letecké	-10.8482
▁uspořáda	-10.8483
▁zákazníkům	-10.8483
▁ztráta	-10.8487
▁provozní	-10.8495
▁schválen	-10.8501
▁vydává	-10.8502
▁požádal	-10.8511
nedávn	-10.8511
▁řídící	-10.8511
▁zvýšené	-10.8514
ona	-10.8518
▁složitější	-10.8525
▁Čas	-10.853
▁patřil	-10.8532
běhu	-10.8536
▁9.	-10.8537
▁pu	-10.8538
▁prav	-10.8538
▁mladí	-10.8539
TI	-10.854
▁Ital	-10.854
▁mluvčího	-10.8543
▁týmy	-10.8552
▁zvýšen	-10.8553
▁monitor	-10.8559
▁každému	-10.8565
▁čtvrtý	-10.8566
▁stanic	-10.8568
▁zvuk	-10.8577
▁uskutečnit	-10.8577
▁podnikatelský	-10.8578
▁Pe	-10.8579
▁zařazen	-10.8581
▁kompromis	-10.8581
▁platnost	-10.8583
▁nehod	-10.8583
▁pražský	-10.8586
ton	-10.8592
▁úrovní	-10.8598
▁dopad	-10.8598
▁muse	-10.8598
▁úmysl	-10.8599
ačnou	-10.8602
▁výstup	-10.8604
▁navštívil	-10.8606
▁značn	-10.8608
▁vývojové	-10.861
▁nezaměstnanost	-10.8611
▁podvod	-10.8611
▁monopol	-10.8611
'	-10.8613
▁snažil	-10.8618
▁noc	-10.8619
▁podílel	-10.8621
oučástí	-10.8623
jedno	-10.8627
▁chorob	-10.863
▁tr	-10.8633
▁šéfa	-10.8635
▁založené	-10.8642
han	-10.8645
▁poskytovat	-10.8648
leb	-10.8651
před	-10.8652
▁obecné	-10.8657
čku	-10.8659
▁stačil	-10.866
▁vlád	-10.8661
▁herec	-10.8663
▁zná	-10.8664
▁roze	-10.8671
▁následn	-10.8671
▁blízko	-10.8675
▁Ameriky	-10.8675
▁Bohužel	-10.8675
▁SCSI	-10.8675
▁chránit	-10.8675
▁energii	-10.8675
▁instituce	-10.8675
▁mládí	-10.8675
▁nejvýznamnější	-10.8675
▁podpořil	-10.8675
▁přirozené	-10.8675
▁kapitán	-10.8675
▁koncepci	-10.8675
▁názvu	-10.8675
▁čtvrtfinále	-10.8675
▁Včera	-10.8675
▁rámeček	-10.8675
▁Nedávn	-10.8675
▁investování	-10.8675
▁Plzni	-10.8675
▁Ladislav	-10.8675
▁ekonomicky	-10.8675
▁Policisté	-10.8675
▁stabilní	-10.8675
▁trzích	-10.8675
▁výrobek	-10.8676
▁zimě	-10.8677
▁adresu	-10.8677
▁pokusil	-10.8677
▁obrázky	-10.8678
▁síla	-10.8678
▁konat	-10.8679
▁kritérií	-10.8679
▁Tentokrát	-10.8679
▁Londýně	-10.8679
▁tón	-10.8679
▁chodit	-10.868
▁tělo	-10.8681
▁použil	-10.8681
▁uznal	-10.8681
▁bojovat	-10.8682
▁tradici	-10.8682
▁David	-10.8683
▁úvahy	-10.8683
▁Vznik	-10.8683
▁hlavou	-10.8684
▁Afriky	-10.8685
▁hudby	-10.8685
▁Pět	-10.8685
▁odstavce	-10.8685
▁lokální	-10.8686
▁právnické	-10.8688
▁originální	-10.8689
▁umělecký	-10.869
běhl	-10.869
mer	-10.869
▁schůzky	-10.8691
▁požadují	-10.8692
▁postupné	-10.8693
▁způsobuje	-10.8693
bývá	-10.8693
▁klade	-10.8693
▁bot	-10.8694
▁scény	-10.8694
rám	-10.8694
▁faktorů	-10.8695
▁vesmíru	-10.8696
▁parametrů	-10.8697
▁zbývající	-10.8698
▁Děti	-10.8699
▁vlasti	-10.8702
▁ekonom	-10.8702
▁zájemci	-10.8704
▁spravedlnosti	-10.8706
▁povede	-10.8706
▁nezbytné	-10.8708
▁uživatele	-10.871
▁úroky	-10.8712
▁nalézt	-10.8712
▁třetinu	-10.8714
klád	-10.8714
▁nemocných	-10.8721
▁slíbil	-10.8724
▁úkolem	-10.8724
▁světovou	-10.8725
▁zaměření	-10.8725
▁drahé	-10.8726
▁okruhu	-10.8728
▁Dobr	-10.8728
dní	-10.8731
šek	-10.8731
▁způsobené	-10.8733
▁paliva	-10.8735
elný	-10.8735
▁bosenský	-10.8736
▁sekund	-10.8739
▁Klause	-10.8739
▁Lidové	-10.874
▁dokumentů	-10.8743
▁los	-10.8744
platit	-10.8744
▁představí	-10.8744
▁přijel	-10.8746
óz	-10.8747
ista	-10.8751
▁grafick	-10.8751
▁starosty	-10.8753
▁vybrané	-10.8756
▁zásady	-10.8758
kládat	-10.876
▁symbol	-10.876
▁Zajímav	-10.876
▁udržel	-10.8762
▁Mi	-10.8763
álně	-10.8764
▁společensk	-10.8764
▁klidu	-10.8765
▁hradu	-10.8766
▁podat	-10.8766
▁úkolů	-10.8768
ičtí	-10.877
▁poukaz	-10.8771
88	-10.8771
bere	-10.8771
▁uvedení	-10.8774
▁Vol	-10.8774
▁dospěl	-10.8776
▁blíže	-10.8779
▁zásah	-10.8784
▁výkonem	-10.8785
▁pouhé	-10.8786
šly	-10.879
iletý	-10.879
▁konkrétně	-10.8798
▁výš	-10.8814
▁Fa	-10.8814
▁hovořil	-10.8815
▁paláce	-10.8816
▁95	-10.8817
rna	-10.882
▁dalšímu	-10.8821
▁38	-10.8828
▁společenský	-10.8828
▁zůstala	-10.883
▁otevřel	-10.8832
eček	-10.8833
▁umělé	-10.8836
▁sklon	-10.884
▁přátel	-10.8841
▁skutečný	-10.8842
počet	-10.8843
ány	-10.8846
▁odkud	-10.8846
IT	-10.885
▁rozhovor	-10.8853
kar	-10.8856
▁parku	-10.8859
razí	-10.8864
▁biologické	-10.8872
rit	-10.8875
▁Nevím	-10.8878
▁lustrační	-10.888
▁školu	-10.8881
▁bran	-10.8883
▁30.	-10.8885
▁připojen	-10.8885
vnějších	-10.8885
▁pevný	-10.8885
▁filmy	-10.8886
tů	-10.8888
▁zahraničními	-10.889
▁pokyn	-10.8895
▁jeví	-10.8905
▁Britsk	-10.891
▁potřebný	-10.8912
▁oper	-10.8912
ráže	-10.8915
šl	-10.8924
▁výrok	-10.8929
▁nalezen	-10.8932
▁zní	-10.8943
▁česko	-10.8953
▁svědomí	-10.8956
nů	-10.8959
▁možný	-10.8961
▁platný	-10.8961
▁objevit	-10.8962
▁díl	-10.8963
▁vzduch	-10.8963
▁hrob	-10.8963
▁výhod	-10.8967
AR	-10.8969
▁8.	-10.8969
ama	-10.897
▁divadelní	-10.8975
nému	-10.8978
▁děj	-10.8979
nova	-10.8983
dem	-10.8988
▁hloub	-10.8988
▁exportní	-10.8998
▁ochotni	-10.9005
▁Ad	-10.9006
gel	-10.9009
▁přínos	-10.9009
▁student	-10.9009
kož	-10.901
ony	-10.901
▁standard	-10.9013
▁agent	-10.9019
▁koně	-10.9021
▁Auto	-10.9029
▁Alexandr	-10.9032
▁Barceloně	-10.9032
▁Británii	-10.9032
▁Nejlepší	-10.9032
▁Srbsk	-10.9032
▁březnu	-10.9032
▁déšť	-10.9032
▁fázi	-10.9032
▁instalaci	-10.9032
▁normy	-10.9032
▁následek	-10.9032
▁podmínkou	-10.9032
▁pomáhá	-10.9032
▁populární	-10.9032
▁požádat	-10.9032
▁pravidlo	-10.9032
▁tlačítka	-10.9032
▁tlačítkem	-10.9032
▁týdně	-10.9032
▁umožnit	-10.9032
▁kratší	-10.9032
▁ploše	-10.9032
▁těžce	-10.9032
▁vrstvy	-10.9032
▁divize	-10.9032
▁Část	-10.9032
▁značky	-10.9032
▁likvidaci	-10.9032
▁Soubor	-10.9032
▁někoho	-10.9032
▁kvalifikace	-10.9032
▁pololetí	-10.9032
▁doposud	-10.9032
▁příslušníci	-10.9032
▁Robert	-10.9032
▁komisi	-10.9032
▁ekonomice	-10.9033
▁pozdější	-10.9033
▁klimatu	-10.9033
▁IFOR	-10.9034
▁desky	-10.9034
▁uvažovat	-10.9034
▁plynu	-10.9034
▁červenci	-10.9034
pálen	-10.9035
▁horách	-10.9036
▁Generální	-10.9037
▁Hodnot	-10.9037
▁ukázat	-10.9038
▁multimediální	-10.9038
▁právnických	-10.9039
▁zajímat	-10.9041
▁letiště	-10.9042
▁vzorky	-10.9043
▁podílu	-10.9043
▁Dá	-10.9044
▁ono	-10.9044
▁Novotná	-10.9044
▁výstavbě	-10.9045
ODA	-10.9045
▁vyšel	-10.9047
▁cenách	-10.9047
▁vozy	-10.9048
▁pozorování	-10.9052
▁ukáže	-10.9054
▁Cíle	-10.9055
▁potvrzení	-10.9055
▁pojem	-10.9055
▁chyběl	-10.9056
▁JU	-10.9057
▁ohrožení	-10.9058
▁barvu	-10.9059
▁Karadžič	-10.9062
šení	-10.9062
▁účelem	-10.9062
▁Atlanty	-10.9065
▁%)	-10.9066
▁příspěvky	-10.9067
▁parametry	-10.9067
▁srážky	-10.9068
▁obvyklé	-10.9069
▁věnuje	-10.907
▁plynů	-10.9072
▁úvodu	-10.9072
▁ekonomika	-10.9072
▁působící	-10.9074
▁důchodové	-10.9075
▁děl	-10.9075
▁mezinárodním	-10.9076
▁muzeum	-10.9076
▁dvojí	-10.9077
▁lidsk	-10.9077
▁očekávání	-10.9078
▁kus	-10.908
▁Svazu	-10.9082
▁telefonu	-10.9082
▁sektoru	-10.9084
▁držet	-10.9086
▁přírodovědecké	-10.9087
▁Or	-10.9087
▁národ	-10.9089
▁napsat	-10.9093
▁poli	-10.9095
▁styku	-10.9096
▁studenti	-10.9096
▁řeky	-10.9097
▁potenciální	-10.9098
▁příjemné	-10.9101
▁varianty	-10.9103
▁nahradit	-10.9104
▁obchodů	-10.9105
▁třetina	-10.9106
▁ztrátu	-10.9108
,6	-10.9109
▁Organiza	-10.9114
▁průzkumu	-10.9115
▁španělské	-10.9119
▁uživatel	-10.9119
▁cíli	-10.9125
▁rostlin	-10.913
bel	-10.9135
▁zjevn	-10.9137
▁vz	-10.9138
▁jediného	-10.914
▁Františk	-10.9151
▁změnila	-10.9155
▁spokojeni	-10.9155
▁46	-10.9155
skutk	-10.9156
,8	-10.9159
▁Často	-10.916
ide	-10.9163
▁Velm	-10.9164
▁kontrola	-10.9165
▁nedostal	-10.9168
▁založena	-10.9169
▁černé	-10.9169
▁pořádá	-10.9169
▁určitém	-10.9171
▁trvalé	-10.9183
▁prost	-10.9184
▁hrála	-10.9185
▁výrazné	-10.9185
▁Par	-10.9196
▁Slovensk	-10.9196
▁75	-10.9196
usi	-10.9199
▁kruh	-10.92
LO	-10.9207
níků	-10.9207
▁udělal	-10.9212
▁postih	-10.9217
▁Hol	-10.9217
▁Eva	-10.9219
▁společném	-10.9219
▁specializované	-10.9222
▁chorvatské	-10.9223
▁rychlý	-10.9225
▁představitel	-10.9225
▁osoba	-10.9228
▁katastrof	-10.9228
pustil	-10.9233
▁nějakým	-10.9233
▁Les	-10.9237
▁park	-10.9238
tp	-10.9243
▁důsledně	-10.9248
▁odkaz	-10.9249
▁Představ	-10.9262
▁menším	-10.9267
▁tvořen	-10.9267
▁dohod	-10.9272
▁italský	-10.928
áme	-10.928
▁min	-10.9286
národních	-10.9293
▁Martina	-10.9298
▁tábor	-10.9299
▁Cha	-10.9306
RE	-10.9308
razit	-10.931
▁Celk	-10.9314
▁taneční	-10.932
▁stisk	-10.9329
▁zájemců	-10.9335
▁pověst	-10.9336
▁devadesát	-10.9336
▁šestnáct	-10.9338
▁koupi	-10.9339
▁bariér	-10.9339
▁kupující	-10.9346
▁Podnikatel	-10.9356
eta	-10.9359
▁přesun	-10.9362
▁Výbor	-10.9368
▁kód	-10.9374
kládá	-10.9374
▁náskok	-10.9375
▁nastal	-10.9376
▁vedoucího	-10.9378
▁polo	-10.9382
▁gigant	-10.9383
ičky	-10.9383
Ú	-10.9385
pt	-10.9386
▁Společn	-10.9388
ického	-10.9394
▁dám	-10.9394
▁humor	-10.9397
▁pre	-10.9397
najdeme	-10.9398
▁Španěl	-10.9401
▁Koaliční	-10.9402
▁Ukrajiny	-10.9402
▁Zvláštní	-10.9402
▁burze	-10.9402
▁církví	-10.9402
▁galerie	-10.9402
▁ovlivňuje	-10.9402
▁patrné	-10.9402
▁upozorňuje	-10.9402
▁určuje	-10.9402
▁šetření	-10.9402
▁naznačil	-10.9402
▁náboženství	-10.9402
▁usilovat	-10.9402
▁pronájem	-10.9402
▁sdělovací	-10.9402
▁držitel	-10.9402
▁podporou	-10.9402
▁příliv	-10.9402
▁fáze	-10.9402
▁vzestup	-10.9402
nutně	-10.9402
▁nedaleko	-10.9402
vázat	-10.9403
▁filozofie	-10.9403
▁integraci	-10.9403
▁Formát	-10.9403
▁hutní	-10.9403
▁zámku	-10.9403
▁1997	-10.9403
▁myšlenkou	-10.9403
▁svátky	-10.9403
▁slabší	-10.9403
▁duše	-10.9403
▁myšlenku	-10.9403
▁manželství	-10.9403
▁nehodlá	-10.9404
▁nízko	-10.9404
▁sílu	-10.9404
▁srdeční	-10.9404
▁přežití	-10.9404
▁obnovu	-10.9404
▁obrázků	-10.9404
▁Týr	-10.9404
▁podnicích	-10.9404
▁Původně	-10.9404
ug	-10.9405
▁stanovit	-10.9405
▁hřiště	-10.9405
▁Komis	-10.9405
▁šíření	-10.9405
▁odhadnout	-10.9406
▁mírové	-10.9406
▁plod	-10.9406
▁testování	-10.9407
▁Správ	-10.9408
▁potíží	-10.9409
▁prosazovat	-10.941
hodlají	-10.9411
▁sledování	-10.9412
▁silnější	-10.9413
▁Nejde	-10.9415
▁doporučení	-10.9417
▁přístrojů	-10.9417
▁posoudit	-10.9418
▁olej	-10.9419
▁zákazníci	-10.9419
▁naposledy	-10.942
▁světov	-10.942
▁znamenalo	-10.9421
▁soustředění	-10.9421
▁Labem	-10.9422
▁úlohu	-10.9422
▁úředníků	-10.9422
▁jistotu	-10.9423
AL	-10.9425
rád	-10.9425
▁následky	-10.9425
▁tvrdě	-10.9425
▁přehlídky	-10.9426
▁přinese	-10.9426
▁Byli	-10.9427
▁Nikd	-10.9428
▁viděl	-10.9428
ens	-10.9431
▁příslušníků	-10.9432
▁soudce	-10.9437
▁válka	-10.9437
▁karta	-10.9438
▁začínající	-10.944
▁Naši	-10.9442
▁vládou	-10.9442
▁ostře	-10.9443
▁Ši	-10.9447
▁Ros	-10.9453
▁pouště	-10.9453
▁lidové	-10.9459
▁zachoval	-10.9465
▁Platí	-10.9465
▁americkém	-10.9467
▁zápisu	-10.9467
▁hotelů	-10.9468
▁náročné	-10.9471
20	-10.9472
▁experti	-10.9473
▁moravsk	-10.9474
▁díly	-10.9478
▁papírů	-10.9481
▁předpoklady	-10.9482
▁technika	-10.9482
nová	-10.9487
▁výbuchu	-10.9488
▁samotné	-10.949
náší	-10.9495
kolik	-10.9496
▁Cest	-10.9497
▁výstavu	-10.9497
▁vrcholu	-10.9503
▁vložit	-10.9508
▁týmem	-10.9509
▁číst	-10.9509
▁předal	-10.9509
▁spory	-10.9511
pas	-10.9512
▁fotbalu	-10.9514
jel	-10.9517
▁Bla	-10.9518
▁krátký	-10.9519
▁25.	-10.952
▁ziskem	-10.952
bíhá	-10.9521
▁vím	-10.9521
▁procento	-10.9524
▁Dan	-10.9525
nechává	-10.9526
▁rozlišení	-10.9526
▁Malý	-10.9526
jeli	-10.9528
▁spol	-10.953
▁snahy	-10.9533
▁IBM	-10.9533
vyšších	-10.9533
bili	-10.954
▁pohádk	-10.9542
▁světlo	-10.9544
▁technického	-10.9548
boj	-10.9551
▁měnové	-10.9554
▁vstupní	-10.9558
ab	-10.956
inter	-10.9562
dů	-10.9562
▁tříd	-10.9562
▁zákazu	-10.9565
▁Výhod	-10.9565
▁All	-10.9568
▁připraveni	-10.9569
▁osobě	-10.957
▁85	-10.9573
▁červené	-10.9577
isté	-10.958
▁typické	-10.9584
▁trvalo	-10.9589
▁gen	-10.9597
rum	-10.9601
▁29	-10.9604
▁chová	-10.9606
▁vzdálené	-10.9606
▁školení	-10.9607
▁programem	-10.9612
▁soused	-10.9614
▁obvod	-10.9614
▁republiku	-10.9617
▁našim	-10.9617
nášet	-10.9625
▁oxidu	-10.9627
vrácení	-10.9627
ick	-10.9633
▁kulturních	-10.9633
▁víkend	-10.964
šit	-10.9641
▁zvyk	-10.9646
▁pivovar	-10.9647
▁nedělní	-10.9647
šť	-10.9658
▁14.	-10.9659
▁zaměstnanec	-10.9663
▁úspěšný	-10.9669
▁180	-10.967
padlo	-10.967
ených	-10.9675
▁Nejs	-10.9687
▁Oznámil	-10.9687
▁určena	-10.9688
MO	-10.9689
▁Dom	-10.97
▁vzdálenost	-10.9702
▁podstatný	-10.9707
ckého	-10.9707
eb	-10.9709
▁fanoušků	-10.9711
▁trati	-10.9713
▁praktický	-10.9721
▁rozpor	-10.9721
MU	-10.9722
▁kabinet	-10.9723
▁Problém	-10.9723
▁výlet	-10.9724
▁Možnost	-10.9724
▁zabývají	-10.9726
▁poskytnut	-10.9727
▁sortiment	-10.9728
lka	-10.973
▁Plat	-10.9735
▁Ben	-10.9736
▁češt	-10.9737
▁malého	-10.9737
cení	-10.9738
cházelo	-10.9743
▁1987	-10.9744
MI	-10.9746
▁okrese	-10.9749
▁prozatím	-10.9755
▁zvolil	-10.9756
end	-10.9757
▁snížen	-10.9758
▁vzhled	-10.9761
ejme	-10.9762
▁základním	-10.9763
▁ZA	-10.9765
▁zvíře	-10.9768
▁přístroj	-10.9771
CA	-10.9771
▁Mark	-10.9772
▁mírový	-10.9772
▁poznat	-10.9776
ráží	-10.9777
▁jádro	-10.9779
▁Bejbl	-10.9787
▁Vedoucí	-10.9787
▁dodatečně	-10.9787
▁důležitá	-10.9787
▁fotoaparát	-10.9787
▁franků	-10.9787
▁instalace	-10.9787
▁konstrukce	-10.9787
▁majetkem	-10.9787
▁pohledávek	-10.9787
▁redakce	-10.9787
▁stupňů	-10.9787
▁upozornit	-10.9787
▁vyšetření	-10.9787
▁pojmů	-10.9787
▁přežít	-10.9787
▁stovek	-10.9787
▁DPH	-10.9787
▁vojsk	-10.9787
▁Asociac	-10.9787
▁jedince	-10.9787
▁restaurace	-10.9787
▁certifikát	-10.9787
▁Řešení	-10.9787
▁Prostě	-10.9787
▁kvalifikační	-10.9787
▁1984	-10.9787
▁sněhov	-10.9787
▁formální	-10.9787
▁1968	-10.9787
▁nejmenší	-10.9788
▁nohy	-10.9788
▁1986	-10.9788
▁poznatků	-10.9788
▁inspekce	-10.9788
▁Tedy	-10.9788
▁Průměrn	-10.9788
▁legislativní	-10.9788
▁spolupracovat	-10.9788
▁května	-10.9788
▁nápis	-10.9789
▁marně	-10.9789
▁podzemní	-10.979
▁Bill	-10.979
▁chápat	-10.979
▁III	-10.9791
▁3,5	-10.9791
▁drog	-10.9791
▁upravit	-10.9792
▁rychlejší	-10.9793
▁ruku	-10.9793
▁Sovětský	-10.9794
▁manželka	-10.9794
▁vyvolat	-10.9794
▁DEM	-10.9795
násob	-10.9795
▁platební	-10.9796
▁užitek	-10.9796
▁Potom	-10.9796
▁Belgie	-10.9796
▁odstranění	-10.9798
stál	-10.9798
▁uměl	-10.9799
▁Nejen	-10.98
▁elektřiny	-10.9801
▁rozložení	-10.9801
▁žáků	-10.9802
▁jevů	-10.9802
▁volbami	-10.9802
▁většího	-10.9803
▁polohy	-10.9805
▁bilance	-10.9807
▁utrpěl	-10.9808
▁oznámení	-10.9809
▁Lux	-10.9809
▁návštěvy	-10.9813
▁Japonsku	-10.9814
▁sociálně	-10.9815
▁uplynulý	-10.9817
▁půdu	-10.982
▁poslanecké	-10.9821
▁osobností	-10.9822
▁výstavbu	-10.9822
44	-10.9822
▁měny	-10.9822
▁linky	-10.9823
▁Německem	-10.9824
▁Jedná	-10.9824
▁Nejdřív	-10.9824
▁koalici	-10.9827
▁ostrovy	-10.9831
lení	-10.9831
▁hrubého	-10.9834
▁pochod	-10.9835
▁týdeník	-10.9835
▁demokratů	-10.9836
▁kapacity	-10.9839
▁složité	-10.9839
▁Výstava	-10.9839
▁orgánu	-10.9844
▁vedlo	-10.9848
hnal	-10.9849
▁oborů	-10.985
kovou	-10.9852
▁oceánu	-10.9852
▁bezprostřední	-10.9854
▁stejná	-10.9855
▁obvodu	-10.9858
▁par	-10.9858
▁potřebu	-10.9861
▁zvukové	-10.9862
▁monitoru	-10.9865
▁systematick	-10.9865
▁výběrem	-10.9868
▁nájemní	-10.987
▁nájemce	-10.9878
▁Rady	-10.9878
▁učí	-10.9879
▁lov	-10.9897
▁sedí	-10.99
▁tráv	-10.9901
jal	-10.9901
▁reagoval	-10.9903
▁hvězdy	-10.9903
25	-10.9906
▁dokumenty	-10.9908
▁primátora	-10.9908
▁metru	-10.9909
▁Celkov	-10.9911
▁skutečností	-10.9913
čně	-10.9913
▁fotbalových	-10.9915
▁nastavit	-10.9917
▁velitel	-10.9921
▁skupinou	-10.9922
▁obdobné	-10.9923
▁plány	-10.9928
▁vůdce	-10.9929
▁Pracovní	-10.9932
▁základy	-10.9935
▁běh	-10.9938
▁plyne	-10.9947
▁evropského	-10.9957
átor	-10.9958
▁pohár	-10.996
bíd	-10.9962
▁připustil	-10.9968
při	-10.9968
▁mořský	-10.9976
▁potřeb	-10.9976
▁argument	-10.9977
▁sportovních	-10.9977
70	-10.9984
▁úz	-10.9985
▁bohat	-10.9987
▁Bílé	-10.9992
▁zlaté	-10.9993
ruší	-10.9994
▁současném	-10.9995
▁Jediný	-11
▁vzniknou	-11.0001
▁šedesáti	-11.0002
▁zdravotnický	-11.0003
TU	-11.0009
▁rozvoji	-11.0014
▁jmen	-11.0014
▁průměr	-11.002
▁venkov	-11.0023
▁specializovan	-11.0029
▁listy	-11.0031
▁třináct	-11.0036
zákon	-11.004
ON	-11.0044
▁připravena	-11.0047
▁konečné	-11.0047
asi	-11.0049
▁podklad	-11.0053
▁styk	-11.0055
trh	-11.0055
▁dvojnásobn	-11.0064
▁odraz	-11.0072
▁prvé	-11.0073
číst	-11.0081
▁chci	-11.0083
▁silnic	-11.0084
metr	-11.0094
▁700	-11.01
hlásí	-11.0102
▁německá	-11.0104
▁51	-11.0115
▁fotbalov	-11.0115
▁alkohol	-11.0117
▁minuty	-11.0118
▁zápis	-11.0118
níky	-11.0118
▁svěřen	-11.0118
▁hluboko	-11.0118
▁původním	-11.0119
▁raket	-11.0124
▁rozvod	-11.0128
▁klientů	-11.0128
hruba	-11.0137
▁právník	-11.014
▁šel	-11.0146
▁uvedeno	-11.0147
▁rod	-11.0147
▁čistý	-11.0152
89	-11.0156
▁motor	-11.0156
stávají	-11.0159
tivní	-11.0161
▁Bur	-11.0163
▁pomohl	-11.0165
ena	-11.0168
▁vstupné	-11.0171
▁Tur	-11.0172
▁motocykl	-11.0174
▁23.	-11.0174
▁hlubo	-11.0175
▁doporučuje	-11.0176
▁zaznamenal	-11.0181
jdou	-11.0186
▁postoje	-11.0186
hodnou	-11.0186
ačtyřicet	-11.0187
▁brambor	-11.0187
▁domnívají	-11.0187
▁hovořit	-11.0187
▁naštěstí	-11.0187
▁nežádoucí	-11.0187
▁odlišný	-11.0187
▁označuje	-11.0187
▁převzít	-11.0187
▁uplatnit	-11.0187
▁zázemí	-11.0187
▁Poborský	-11.0187
▁komponent	-11.0187
▁nevědí	-11.0187
▁učinit	-11.0187
▁zásilk	-11.0187
▁Domácí	-11.0187
▁Musel	-11.0187
▁Sociální	-11.0187
▁sněžení	-11.0187
▁pokoušel	-11.0187
▁škál	-11.0187
▁slyšet	-11.0187
▁Slavii	-11.0187
▁forem	-11.0187
▁nejrychlejší	-11.0187
▁prodlení	-11.0187
▁vracet	-11.0187
▁efektivní	-11.0187
▁dlouhodobý	-11.0187
▁firmám	-11.0187
▁stránek	-11.0187
▁obrazovce	-11.0187
▁dubnu	-11.0187
▁Grand	-11.0188
▁studií	-11.0188
▁radikální	-11.0188
▁přizpůsobit	-11.0188
▁věděl	-11.0188
▁podílejí	-11.0188
▁občanství	-11.0188
▁Vesel	-11.0189
▁posuzovat	-11.0189
▁fronty	-11.019
▁Číny	-11.0191
▁obrázku	-11.0191
▁Okresní	-11.0194
▁stavbu	-11.0194
▁dobách	-11.0196
▁pracovnice	-11.0197
▁rejstříku	-11.0197
▁kritéria	-11.0197
▁Všechno	-11.0197
▁podnikat	-11.0198
▁písemně	-11.02
▁každodenní	-11.02
KU	-11.0203
▁souhrn	-11.0203
▁prodloužení	-11.0203
▁Ján	-11.0204
▁regulace	-11.0204
ng	-11.0204
▁znalostí	-11.0204
▁Roman	-11.0204
▁osvobození	-11.0204
▁demokraté	-11.0204
▁poslal	-11.0205
▁náhradu	-11.0206
▁výjimky	-11.0207
▁rysy	-11.0208
▁zbrojní	-11.0208
▁Druhou	-11.0208
▁včerejším	-11.0209
▁Kalvoda	-11.021
▁redaktor	-11.0211
▁Wimbledonu	-11.0211
▁předmětů	-11.0212
▁teplotě	-11.0213
▁summitu	-11.0214
▁ukládání	-11.0215
děk	-11.0219
▁úplné	-11.022
▁orientaci	-11.022
▁představil	-11.0221
▁obchodníci	-11.0223
▁nemovitosti	-11.0223
▁Her	-11.0223
▁vůz	-11.0225
▁všeobecné	-11.0226
▁tvaru	-11.0228
žijí	-11.0229
áni	-11.0229
▁škod	-11.0229
▁resortu	-11.023
▁64	-11.0234
▁ztrátou	-11.0234
▁nezávisl	-11.0236
▁jednalo	-11.0236
▁módní	-11.0237
áci	-11.0237
▁předměty	-11.024
▁věty	-11.0241
▁von	-11.0242
▁návštěva	-11.0245
▁odbory	-11.0245
▁divu	-11.0246
VA	-11.0247
▁sboru	-11.0247
▁špičkové	-11.0248
▁vybírá	-11.0249
▁13.	-11.0251
▁sjezdu	-11.0252
▁rud	-11.0256
▁Šéf	-11.0257
myslí	-11.0257
▁Čechů	-11.0258
▁zastavil	-11.026
▁kandidáty	-11.026
▁Mon	-11.0261
▁vstoupit	-11.0263
▁snažili	-11.0263
ja	-11.0265
▁zvuku	-11.0267
▁mapy	-11.0271
▁49	-11.0272
psané	-11.0274
▁konto	-11.0274
▁Pražského	-11.0278
▁světla	-11.0279
▁důkazy	-11.0281
▁stop	-11.0284
čela	-11.0284
mark	-11.0286
▁planety	-11.0292
▁celkovém	-11.0303
▁sestavení	-11.0304
ence	-11.0306
▁úspory	-11.0307
▁Moskva	-11.0313
▁charakteru	-11.0313
ino	-11.0313
▁zavře	-11.0313
▁známých	-11.0316
▁Michaela	-11.0317
▁úkoly	-11.032
DA	-11.032
spal	-11.0324
set	-11.0325
▁ovlivňují	-11.0328
▁požár	-11.0329
▁investorů	-11.0331
▁klient	-11.0334
▁předvolební	-11.0335
▁citliv	-11.0335
▁zdi	-11.0336
Ile	-11.034
▁Karl	-11.034
konala	-11.0342
▁ClipArt	-11.0342
▁")	-11.035
▁některý	-11.035
▁bojů	-11.0351
▁bolest	-11.0351
▁německém	-11.0358
schválila	-11.0364
▁svobod	-11.0366
▁daný	-11.0366
▁neznám	-11.0367
▁metra	-11.0372
▁skládá	-11.0377
▁Rok	-11.038
▁ochotn	-11.0382
▁probíh	-11.0383
▁naším	-11.0383
brat	-11.0383
▁předchozích	-11.0384
yl	-11.0397
▁oceán	-11.0403
▁evropském	-11.0403
▁maďarský	-11.0405
iner	-11.0414
▁drah	-11.0415
▁typický	-11.042
▁47	-11.0426
rušení	-11.0427
▁vydat	-11.0427
▁Aleš	-11.0427
▁autora	-11.0433
▁páté	-11.0433
▁koupil	-11.0436
▁pracovníka	-11.0442
▁výkonů	-11.0442
▁komplex	-11.0442
▁vystoupil	-11.0444
▁jevy	-11.0446
▁podílí	-11.045
▁nedal	-11.0453
nvestiční	-11.0454
▁objeven	-11.0458
▁2,	-11.0459
▁olympijsk	-11.0462
čern	-11.0471
volání	-11.0471
části	-11.0475
rab	-11.0485
▁doklad	-11.0487
▁procesor	-11.0493
▁vámi	-11.0495
▁služební	-11.0497
enství	-11.05
▁kuponov	-11.0502
▁počítačový	-11.0507
▁sklo	-11.0508
▁okolnost	-11.0509
kovat	-11.0511
▁fyzikální	-11.0512
cker	-11.0517
áhy	-11.052
▁obyvatele	-11.0521
Severoatlantické	-11.0523
▁nebezpečný	-11.0523
▁vyšetřovatel	-11.0523
▁Pražský	-11.0524
rob	-11.0526
▁Němců	-11.0527
▁Sovětském	-11.053
▁vtip	-11.0533
dává	-11.0534
cky	-11.0534
▁magistrát	-11.0535
▁vysoko	-11.0535
být	-11.0535
▁mlýn	-11.0538
ložil	-11.054
▁pís	-11.0541
▁krajan	-11.0544
▁per	-11.0545
▁uživatelů	-11.0547
▁mód	-11.0552
▁statistické	-11.0555
jem	-11.0555
▁čtenářů	-11.0556
net	-11.0559
▁Kor	-11.0561
▁britsk	-11.0566
nc	-11.0566
▁Olomouc	-11.0568
loni	-11.0573
▁kabel	-11.0577
▁mechanismu	-11.0579
▁vyvíj	-11.058
▁Šest	-11.0581
elné	-11.0582
▁vyhlášen	-11.0583
▁oleje	-11.0585
daly	-11.059
▁údaj	-11.0594
▁řešením	-11.0597
▁Karlový	-11.0603
▁statut	-11.0604
▁CADKON	-11.0604
▁Lebeď	-11.0604
▁Pithart	-11.0604
▁Srbů	-11.0604
▁Zjuganov	-11.0604
▁asistent	-11.0604
▁bližší	-11.0604
▁církvi	-11.0604
▁konferencí	-11.0604
▁nárůst	-11.0604
▁odpovědí	-11.0604
▁ovlivněn	-11.0604
▁reagovat	-11.0604
▁schůzi	-11.0604
▁softwaru	-11.0604
▁strategii	-11.0604
▁zpátky	-11.0604
▁zálivu	-11.0604
▁říjnu	-11.0604
▁nezaměstnaných	-11.0604
▁nízká	-11.0604
▁žádoucí	-11.0604
▁splnit	-11.0604
▁zazněl	-11.0604
▁Mencl	-11.0604
▁technologii	-11.0604
▁Vídni	-11.0604
▁dědictví	-11.0604
▁uzavírá	-11.0604
▁zůstanou	-11.0604
▁nábytku	-11.0604
▁stůl	-11.0604
▁kombinaci	-11.0604
▁zařadil	-11.0604
▁Praktick	-11.0604
▁navrhnout	-11.0604
▁komunikaci	-11.0604
▁maximum	-11.0604
▁vrchní	-11.0604
▁Mazda	-11.0604
▁kondom	-11.0604
▁nejstarší	-11.0604
▁délce	-11.0604
▁nastat	-11.0604
▁bance	-11.0604
▁otevírá	-11.0605
▁otec	-11.0605
▁okresů	-11.0606
▁zvolit	-11.0606
▁Finanční	-11.0606
▁kreslení	-11.0606
▁komunální	-11.0607
▁vyrovnal	-11.0607
▁dokáží	-11.0608
▁pohybovat	-11.0609
▁blesk	-11.0609
▁odmítají	-11.0609
daných	-11.0609
▁nejvýše	-11.0609
▁odbor	-11.061
▁pochopit	-11.061
▁odejít	-11.061
stupují	-11.0611
▁Brazílie	-11.0611
▁živočichů	-11.0611
▁Polsko	-11.0611
▁Stručně	-11.0612
▁respektovat	-11.0612
▁dočasně	-11.0612
▁obchodování	-11.0612
▁kilogramů	-11.0613
▁ponechat	-11.0613
▁splatnosti	-11.0613
▁Chci	-11.0614
▁vkladů	-11.0615
▁uložit	-11.0615
▁Než	-11.0616
▁Postup	-11.0617
▁řidič	-11.0618
3,	-11.0618
oprvé	-11.062
áno	-11.0625
▁Nic	-11.0626
▁témat	-11.0627
▁energetické	-11.0628
▁kontrole	-11.0629
▁jistou	-11.063
▁Kam	-11.0632
▁zakázky	-11.0634
▁poskytování	-11.0634
▁zaplacení	-11.0635
▁vozidla	-11.0635
▁potřebujeme	-11.0636
▁Spor	-11.0637
▁zastavení	-11.0638
▁kongresu	-11.0638
▁schématu	-11.0639
▁dokončení	-11.064
▁postižených	-11.0641
▁anglické	-11.0642
▁klíče	-11.0643
▁KB	-11.0646
▁padesátých	-11.0646
▁vyhlášení	-11.0647
▁titulů	-11.0648
▁Kniha	-11.0652
▁projeví	-11.0654
▁levé	-11.0655
▁účinnosti	-11.0655
▁míra	-11.0656
▁Intergraph	-11.0657
▁tip	-11.066
▁trpí	-11.0661
▁pádu	-11.0661
▁lidu	-11.0662
▁Moh	-11.0664
▁šok	-11.0665
jímá	-11.0665
▁kontakt	-11.0666
▁hale	-11.0669
▁listů	-11.067
▁vzá	-11.0671
▁katolické	-11.0672
▁valné	-11.0672
▁představoval	-11.0673
ložit	-11.0675
▁Stav	-11.0675
pochyby	-11.0679
▁recept	-11.068
ES	-11.0681
▁bo	-11.0681
▁bývají	-11.0682
▁specifické	-11.0687
▁rodinu	-11.0688
▁niž	-11.0692
hodit	-11.0692
▁užit	-11.0694
▁snaz	-11.0696
▁dokázali	-11.0698
▁nápady	-11.0698
padl	-11.0705
▁předpokladu	-11.0705
eny	-11.0706
▁hotely	-11.0716
▁sousedů	-11.0718
▁podřízen	-11.0723
▁zabývající	-11.0723
▁čtenáři	-11.0724
▁48	-11.0725
▁podnikatelsk	-11.073
▁Nez	-11.0736
vítá	-11.0736
▁dosti	-11.0738
▁růstem	-11.0738
▁reprezentanti	-11.0738
▁určení	-11.0739
▁Den	-11.0741
▁Jedn	-11.0742
▁spotřebitele	-11.0745
▁drobn	-11.0746
▁tváří	-11.0748
pos	-11.0751
▁jazyka	-11.0752
▁Host	-11.0752
▁dynamick	-11.0754
▁věk	-11.0755
▁našli	-11.0755
▁brankáře	-11.0755
▁církevní	-11.0757
▁přidal	-11.0759
▁vědu	-11.076
▁Jistě	-11.0762
▁hal	-11.0762
ša	-11.0764
▁významn	-11.0764
▁pravidelné	-11.0767
▁sloup	-11.077
▁vznikající	-11.077
▁objevily	-11.0776
▁21.	-11.0778
▁zvýšila	-11.0779
pot	-11.078
▁Prvním	-11.0782
▁neměly	-11.0782
▁osudu	-11.0785
▁pokusy	-11.0791
▁přijala	-11.0795
▁jakož	-11.0796
▁každým	-11.0798
▁zvukov	-11.0798
kládal	-11.0799
losování	-11.0799
▁společných	-11.08
lci	-11.0802
árně	-11.0806
▁Volb	-11.0809
▁závodní	-11.0813
▁stála	-11.0814
▁ÚV	-11.0815
▁odmítli	-11.0816
▁ST	-11.0817
ána	-11.0821
ins	-11.0822
▁obtížně	-11.0823
▁stejných	-11.0823
▁výchov	-11.0839
▁zeměmi	-11.084
▁proměn	-11.0844
▁přítomn	-11.0851
▁rozsáhlý	-11.0855
▁zvířata	-11.0856
▁odpovídal	-11.0858
▁Wales	-11.0863
▁nemám	-11.0864
▁uvede	-11.0866
▁Johna	-11.0866
Ř	-11.0868
▁beze	-11.087
kan	-11.087
▁tvrd	-11.0872
▁trans	-11.0873
▁dostih	-11.088
▁katalog	-11.0887
▁známe	-11.0891
bin	-11.0891
▁únik	-11.0896
▁protein	-11.0896
▁sehrál	-11.0897
▁hráčem	-11.0898
▁Št	-11.0898
▁pěst	-11.09
▁moment	-11.09
oji	-11.0907
▁zahrnut	-11.0907
▁uplynul	-11.0908
▁modern	-11.0908
▁zahájen	-11.0911
68	-11.0912
▁návrhů	-11.0912
▁hladin	-11.0913
▁vládních	-11.0913
jezd	-11.0916
▁praví	-11.0916
▁klíčový	-11.092
▁vys	-11.0923
▁expert	-11.0924
▁podmíněn	-11.0928
▁císaře	-11.0929
▁hmot	-11.0931
72	-11.0932
▁66	-11.0934
▁Paříž	-11.0936
▁vázán	-11.0938
▁zrušil	-11.0938
▁znak	-11.0939
▁Chyb	-11.0941
▁odchod	-11.0942
▁Zemana	-11.0948
▁Fotbal	-11.0948
▁sjezd	-11.0949
kupovat	-11.0949
12	-11.095
▁hrdin	-11.0952
▁jmenuje	-11.0955
▁zaměřen	-11.0958
▁požadovaný	-11.0959
▁dvoj	-11.0961
▁reklam	-11.0964
▁katolick	-11.0968
▁cestující	-11.0968
▁Sta	-11.0969
▁schéma	-11.0971
▁oblačnost	-11.0972
▁nevěděl	-11.0973
▁novinářů	-11.0973
▁dres	-11.0974
▁nevýhod	-11.0974
celku	-11.0976
▁dividend	-11.0976
šky	-11.0977
▁umělecké	-11.0977
▁pokládá	-11.0978
slav	-11.0979
▁obsažen	-11.098
▁existující	-11.0984
kryje	-11.0991
▁konkrétním	-11.0991
▁urychlen	-11.0994
▁OD	-11.0997
letí	-11.0998
▁získává	-11.0999
▁členům	-11.1
▁Jac	-11.1
▁Ri	-11.1001
▁zaujal	-11.1004
▁Divadl	-11.1004
▁nižších	-11.1006
▁vytvořen	-11.1006
skočil	-11.1009
▁přev	-11.1011
out	-11.1014
af	-11.1015
▁pohyboval	-11.1017
▁premiéru	-11.1017
▁Stal	-11.1017
▁provedl	-11.102
▁Fo	-11.1026
lob	-11.1027
IST	-11.1031
▁stupni	-11.1031
ston	-11.1031
▁říkají	-11.1035
▁pozdě	-11.1036
dostatečnou	-11.1038
▁Bratislava	-11.1038
▁Dříve	-11.1038
▁Nedvěd	-11.1038
▁Ostatní	-11.1038
▁Tigrid	-11.1038
▁charakteristik	-11.1038
▁cizince	-11.1038
▁divadle	-11.1038
▁galerii	-11.1038
▁hlubší	-11.1038
▁kompetence	-11.1038
▁konstatuje	-11.1038
▁literární	-11.1038
▁metropole	-11.1038
▁nominální	-11.1038
▁polojasno	-11.1038
▁požadovat	-11.1038
▁semifinále	-11.1038
▁složek	-11.1038
▁strategií	-11.1038
▁stránky	-11.1038
▁udržuje	-11.1038
▁vyhovuje	-11.1038
▁údolí	-11.1038
▁Majitel	-11.1038
▁nejmodernější	-11.1038
▁nejznámější	-11.1038
▁otevřít	-11.1038
▁počínaj	-11.1038
▁šablon	-11.1038
▁Komerčn	-11.1038
▁poplatek	-11.1038
ůj	-11.1038
▁doporučil	-11.1038
▁představenstva	-11.1038
▁Jugoslávie	-11.1038
▁Prodej	-11.1038
▁NDR	-11.1039
▁štáb	-11.1039
▁čtvrteční	-11.1039
▁Mimo	-11.1039
▁fotografie	-11.1039
▁nejhorší	-11.1039
▁přijme	-11.1039
▁generací	-11.1039
▁malíř	-11.1039
▁ekonomická	-11.1039
▁Začal	-11.1039
▁radnici	-11.1039
▁vyhnout	-11.1039
▁jezdit	-11.1039
▁logické	-11.1039
▁Marie	-11.1039
▁bohatství	-11.1039
▁Ruml	-11.1039
▁nedostatku	-11.104
▁1994.	-11.104
▁dešti	-11.104
▁uvědomit	-11.104
▁neděle	-11.1041
▁Rozhodn	-11.1041
▁podobná	-11.1041
▁překvapivě	-11.1041
▁vyrovnat	-11.1041
▁jest	-11.1041
▁peset	-11.1042
▁přelom	-11.1043
▁předcházející	-11.1044
▁novinách	-11.1044
▁podílet	-11.1044
▁armádě	-11.1045
▁prodejny	-11.1045
▁Africe	-11.1046
▁okresy	-11.1046
▁položky	-11.1047
▁oborech	-11.1047
▁počkat	-11.1048
▁závazky	-11.1048
▁komu	-11.1048
žení	-11.1049
▁změnám	-11.1049
▁Maďarsku	-11.1049
▁uvádějí	-11.1049
▁centimetrů	-11.1049
▁fotbalisté	-11.105
vání	-11.105
▁vyjde	-11.1051
▁tabulka	-11.1052
▁plánování	-11.1052
▁kvalitou	-11.1053
▁nemovitostí	-11.1056
▁dodržování	-11.1056
▁Dopravní	-11.1059
stu	-11.106
▁vozu	-11.1061
▁skalní	-11.1061
▁seriálu	-11.1062
▁trenérů	-11.1062
▁vojáci	-11.1063
▁novely	-11.1063
▁zdravotním	-11.1063
▁mládeže	-11.1066
jen	-11.1067
▁zkušební	-11.1068
▁zubní	-11.1068
▁řekne	-11.1068
▁tvarů	-11.1068
▁výměnu	-11.1069
▁ocenění	-11.107
▁přidat	-11.107
zoval	-11.1072
▁referendum	-11.1073
▁přijatelné	-11.1073
▁Budou	-11.1074
▁Excelu	-11.1074
▁dolů	-11.1075
▁odešl	-11.1076
▁menu	-11.1076
▁propojení	-11.1079
▁potravinářské	-11.1081
▁dav	-11.1082
▁budově	-11.1083
▁zřízení	-11.1084
▁hmotnosti	-11.1084
▁Clinton	-11.1088
res	-11.1089
▁posílen	-11.1092
▁Demokratick	-11.1094
▁hrou	-11.1098
přijeli	-11.11
▁vystřídal	-11.1101
▁týdenní	-11.1101
▁Er	-11.1102
▁Mc	-11.1102
▁materiálem	-11.1105
▁stadiónu	-11.1106
▁tvrdil	-11.1108
CP	-11.1108
▁magistrátu	-11.1112
▁vedoucích	-11.1114
▁podzimní	-11.1114
▁studenty	-11.1114
▁procesoru	-11.1116
▁hráli	-11.1118
art	-11.1121
▁SV	-11.1121
▁známá	-11.1123
▁básník	-11.1124
▁výhodu	-11.1124
▁volí	-11.1126
lap	-11.1128
▁ředitelem	-11.1128
▁zdát	-11.1133
▁energetický	-11.1135
rst	-11.1135
▁lesa	-11.1136
▁narazil	-11.1137
▁Potřebuje	-11.1139
▁aktivitu	-11.1145
▁krokem	-11.1146
▁obchodníků	-11.1146
▁sestavy	-11.1147
▁evropským	-11.115
▁Ří	-11.1152
▁strávil	-11.1153
▁projevy	-11.1153
▁přehledu	-11.1155
▁zvýšily	-11.1156
▁záměry	-11.1156
▁čínský	-11.1161
▁závažný	-11.1162
▁jugoslávské	-11.1163
▁El	-11.1164
▁odpovědnosti	-11.1164
▁rozpočtové	-11.1165
▁úpravu	-11.1169
▁ranní	-11.1169
▁vloni	-11.1174
▁snadné	-11.1178
▁barva	-11.1178
▁stávající	-11.118
▁starého	-11.1182
▁prázdnin	-11.1186
▁vytvořila	-11.119
▁podpořit	-11.1193
▁plocha	-11.1196
▁muselo	-11.1196
ujícího	-11.12
neme	-11.1201
▁teplot	-11.1202
▁jedenácti	-11.1202
▁vyh	-11.1205
▁člověku	-11.121
ité	-11.1213
▁přírodního	-11.1214
▁syna	-11.1223
pustí	-11.1223
▁objevili	-11.1227
ďte	-11.1229
far	-11.123
▁28.	-11.1237
▁stoupá	-11.1238
▁předchozím	-11.124
mor	-11.1243
▁procesy	-11.1243
▁rozpad	-11.1246
▁závody	-11.1247
▁Met	-11.125
▁otevře	-11.1251
:3	-11.1253
▁datové	-11.1253
VI	-11.1255
▁správce	-11.1255
▁ikon	-11.1256
▁5000	-11.1268
▁rozhodnutím	-11.1269
▁kup	-11.1273
▁západním	-11.1274
▁Svobod	-11.1275
▁odborn	-11.1276
atel	-11.1278
▁obrazy	-11.128
▁taky	-11.1288
▁horské	-11.129
▁odborník	-11.1292
čil	-11.1293
▁struktur	-11.1293
▁výtvarné	-11.1293
▁nos	-11.1297
▁Své	-11.1306
valy	-11.1306
▁testy	-11.1309
▁čtrnácti	-11.1312
▁kroku	-11.1319
▁významným	-11.1326
novými	-11.1334
▁specifik	-11.1338
▁působil	-11.1339
▁pla	-11.1343
▁klasick	-11.1347
▁texty	-11.1352
▁přijímá	-11.1354
▁konkrétních	-11.1365
▁jednáních	-11.1369
plňuje	-11.1371
razil	-11.1371
▁Zlín	-11.1374
▁nesouhlas	-11.1381
padla	-11.1384
▁vědeck	-11.1385
▁Let	-11.1386
▁prodejem	-11.1386
▁kg	-11.1386
▁jednot	-11.1389
age	-11.1391
▁spoj	-11.1391
▁křiv	-11.1395
pustit	-11.1395
▁rovin	-11.1401
▁Kohl	-11.1401
OR	-11.1401
▁minulost	-11.1401
▁No	-11.1403
▁způsobů	-11.1407
▁prožil	-11.1409
▁náročný	-11.141
▁fakta	-11.1413
▁99	-11.1418
▁stráž	-11.1421
▁Fin	-11.1422
▁Fond	-11.1422
▁stadión	-11.1423
▁okruh	-11.1423
▁volebním	-11.1424
▁vyskytují	-11.1433
lis	-11.1436
▁sedmdesát	-11.1439
tají	-11.1444
taj	-11.1445
▁grafik	-11.1445
lín	-11.1446
▁druhému	-11.1448
▁setká	-11.1452
▁260	-11.1452
kombin	-11.1453
▁seminář	-11.1453
▁svobodné	-11.1454
řazen	-11.1454
▁mikro	-11.1456
ezi	-11.1459
▁zmíněn	-11.1459
▁žijí	-11.146
ávat	-11.146
▁každoročn	-11.1464
▁debat	-11.1465
▁převážn	-11.1467
▁hlásí	-11.1467
▁způsoben	-11.1467
▁vrstev	-11.1468
▁stole	-11.1469
NO	-11.1471
▁myšlenka	-11.1475
jmout	-11.1475
▁Graf	-11.1485
pust	-11.1488
▁polské	-11.1489
▁zpěv	-11.149
▁1982	-11.1493
▁Armád	-11.1493
▁Dienstbier	-11.1493
▁Dosavadní	-11.1493
▁Fischer	-11.1493
▁Poldi	-11.1493
▁Siemens	-11.1493
▁dodávek	-11.1493
▁družstvo	-11.1493
▁družstvu	-11.1493
▁geometrii	-11.1493
▁inflaci	-11.1493
▁konstrukcí	-11.1493
▁naznačuje	-11.1493
▁normálně	-11.1493
▁regenerace	-11.1493
▁rekonstrukce	-11.1493
▁rozšiřuje	-11.1493
▁rámečku	-11.1493
▁seznámit	-11.1493
▁shodují	-11.1493
▁skupenství	-11.1493
▁službě	-11.1493
▁stránku	-11.1493
▁vládnoucí	-11.1493
▁vstupenek	-11.1493
▁zákrok	-11.1493
▁zúčastnit	-11.1493
▁Štědrý	-11.1493
▁uznat	-11.1493
▁čistíren	-11.1493
▁Bavor	-11.1493
▁nabídkou	-11.1493
▁žádat	-11.1493
▁Manžel	-11.1493
▁usiluje	-11.1493
▁jindy	-11.1493
▁velvyslanectví	-11.1493
▁Skupina	-11.1493
▁Dušan	-11.1493
▁posléze	-11.1493
▁Slavia	-11.1493
▁směřuje	-11.1493
▁duševní	-11.1493
▁integrace	-11.1493
▁Náklady	-11.1493
▁salát	-11.1493
▁spoléha	-11.1493
▁rozmístěn	-11.1493
▁transformační	-11.1493
▁nesporn	-11.1494
▁regulační	-11.1494
▁Rozhodnutí	-11.1494
▁stíhán	-11.1494
▁podrobnosti	-11.1495
▁turné	-11.1495
▁napaden	-11.1495
allye	-11.1495
▁slunce	-11.1495
▁uspořádal	-11.1495
▁nedošlo	-11.1495
▁přejít	-11.1495
▁informován	-11.1495
▁atmosféra	-11.1495
▁památek	-11.1495
▁probíhal	-11.1496
▁Bělohradský	-11.1496
▁Varech	-11.1496
▁Milán	-11.1496
▁řek	-11.1497
▁přiznává	-11.1497
98	-11.1498
▁Těžko	-11.1498
ukce	-11.1499
▁literatury	-11.15
▁svazové	-11.1501
▁souhlasit	-11.1501
▁kůže	-11.1501
▁matka	-11.1501
▁Krát	-11.1502
▁zajistí	-11.1502
▁středisko	-11.1503
▁Nadace	-11.1503
▁pravděpodobné	-11.1504
▁sedimentů	-11.1504
▁přeměn	-11.1506
▁nejsem	-11.1507
▁pěkně	-11.1507
▁anglický	-11.1507
▁sedmdesátých	-11.1508
▁Ste	-11.1508
▁kdykoliv	-11.1508
▁plná	-11.1508
▁spojů	-11.1508
▁Mečiar	-11.1509
▁Los	-11.1509
▁armádu	-11.1512
▁upozornění	-11.1512
▁zveřejnění	-11.1512
▁šedesátých	-11.1513
▁olympiádě	-11.1513
ckner	-11.1513
▁dokázat	-11.1514
▁prezidentský	-11.1514
▁zaslouží	-11.1514
▁středisku	-11.1515
▁švédské	-11.1516
měr	-11.1517
▁moři	-11.1517
▁dotazník	-11.1519
ickým	-11.1519
▁univerzitě	-11.1519
▁záruky	-11.1521
▁neuspěl	-11.1521
▁slibuje	-11.1523
▁sféry	-11.1524
▁platné	-11.1524
▁interní	-11.1524
▁zbytky	-11.1526
▁Rozhod	-11.1526
▁dostaneme	-11.1527
▁luxusní	-11.1527
,4	-11.1528
▁uživatelé	-11.1529
▁směn	-11.1531
▁fotbalista	-11.1532
▁postupovat	-11.1532
▁závažné	-11.1534
▁ohrožen	-11.1534
▁složitý	-11.1535
▁faktory	-11.1536
▁činů	-11.1536
▁nešlo	-11.1536
▁zuby	-11.1538
▁samy	-11.1539
▁olympiády	-11.1539
▁smluv	-11.154
▁spojuje	-11.1541
▁zásadě	-11.1541
2.	-11.1542
▁senátní	-11.1543
▁příspěvku	-11.1543
▁Fotbalist	-11.1544
▁popisuje	-11.1546
▁mise	-11.1546
▁zničení	-11.1547
▁zodpovědnost	-11.1549
stanou	-11.1549
oucí	-11.155
▁tlakem	-11.155
▁náhlé	-11.1551
▁Úřad	-11.1551
▁výstavní	-11.1552
▁rozhovorů	-11.1554
▁dividendy	-11.1558
například	-11.1559
díl	-11.156
▁měří	-11.156
staví	-11.1562
▁Konce	-11.1562
▁zprávě	-11.1563
▁klienty	-11.1563
▁argumenty	-11.1565
▁metodou	-11.1566
▁proudu	-11.1567
čních	-11.1567
▁stopy	-11.1569
▁Ex	-11.1571
nce	-11.1572
▁alkoholu	-11.1573
▁hus	-11.1575
▁Asie	-11.1576
▁automobilový	-11.1577
▁doklady	-11.158
▁silným	-11.1581
▁Případ	-11.1582
ějším	-11.1582
danou	-11.1582
platí	-11.1582
▁množstvím	-11.1584
▁Změny	-11.1584
▁nutnosti	-11.1585
teče	-11.1588
▁mateřské	-11.1589
▁strategické	-11.159
▁pacienti	-11.159
▁úspěchem	-11.1593
▁Ber	-11.1593
▁výnosy	-11.1593
NI	-11.1596
▁Mí	-11.1601
▁přím	-11.1604
▁obory	-11.1604
▁Lékaři	-11.1604
▁kapacit	-11.161
▁nastala	-11.1611
▁klíčové	-11.1611
▁překlad	-11.1612
▁prohráli	-11.1614
▁of	-11.1614
▁městského	-11.1616
▁Fran	-11.1624
▁tělesné	-11.1627
▁slovem	-11.163
potřeb	-11.1634
▁přirozený	-11.1634
▁republikou	-11.1638
▁vlak	-11.164
▁Vítěz	-11.1642
▁příslušného	-11.1647
▁přípravu	-11.1648
▁trvání	-11.165
▁propadl	-11.165
▁Mel	-11.1652
▁pochyb	-11.1652
▁reáln	-11.1653
kový	-11.1653
ologické	-11.1654
▁stě	-11.1655
▁pojistného	-11.1656
elů	-11.1658
▁garant	-11.1661
▁minutě	-11.1662
▁DO	-11.1664
▁podepsali	-11.1666
▁manažerské	-11.1666
jasn	-11.1667
▁závěrečném	-11.1671
▁pracující	-11.1671
▁smí	-11.1674
▁nadcházející	-11.1675
▁daních	-11.1676
▁zahájením	-11.168
▁tvrdý	-11.168
▁proud	-11.1681
▁tenisové	-11.1684
▁efektu	-11.1685
▁souboj	-11.1688
▁připraveny	-11.1691
ovanou	-11.1691
ectví	-11.1693
tažení	-11.1702
▁1996	-11.1703
▁značná	-11.1703
ička	-11.1706
▁potřebn	-11.1708
▁spotřebitel	-11.1709
▁získaný	-11.1714
istů	-11.1715
▁podlehl	-11.1719
▁návrhem	-11.1722
▁úspěchy	-11.1724
▁0,	-11.1726
splnění	-11.1726
▁závodník	-11.1727
▁kontrolovat	-11.1727
CD	-11.1729
bral	-11.1729
▁poklesl	-11.1732
kázal	-11.1732
▁propad	-11.1733
▁mal	-11.1739
▁poradensk	-11.1743
▁orgán	-11.1744
▁dělal	-11.1745
▁dluh	-11.175
ložení	-11.1751
▁led	-11.1755
▁jinému	-11.1772
▁nejúspěšnější	-11.1774
▁fyzika	-11.1777
▁známým	-11.1779
▁sval	-11.1779
▁red	-11.1781
▁ekonomického	-11.1782
▁takovému	-11.1784
▁předmět	-11.1787
▁univerzit	-11.1788
▁vražd	-11.1793
▁nějakém	-11.1794
▁zas	-11.1801
▁kroků	-11.1804
▁původ	-11.1807
sadil	-11.1807
▁nemohla	-11.1812
▁Tomu	-11.1813
▁Win	-11.1814
▁nájem	-11.1816
IC	-11.1819
▁pr	-11.1826
▁volb	-11.1826
ováni	-11.1826
▁Podstatn	-11.1829
▁Poslanec	-11.1831
▁Nemoh	-11.1832
▁loňsk	-11.1833
▁žil	-11.1837
▁toku	-11.1839
▁studoval	-11.1845
▁Karadžiče	-11.1845
▁malým	-11.1849
und	-11.1851
▁samot	-11.1855
▁top	-11.1855
▁personál	-11.1857
▁zvláštním	-11.1858
▁CS	-11.186
hav	-11.1861
▁zastoupen	-11.1867
▁dosah	-11.1875
▁útočník	-11.1877
počítá	-11.1877
▁900	-11.1877
bírá	-11.1877
▁dosavadních	-11.1887
▁důvěry	-11.1897
▁Chip	-11.1897
▁svobodný	-11.1897
▁pokrok	-11.1897
▁aktivita	-11.1899
▁Washington	-11.19
▁plném	-11.1903
▁prokázal	-11.1904
▁prestiž	-11.1906
ozi	-11.1906
▁úprava	-11.1906
▁nechá	-11.1907
▁kapitálové	-11.1913
▁priorit	-11.1913
LU	-11.1914
▁ekologick	-11.1917
▁obal	-11.1918
▁balík	-11.1918
bývalo	-11.1918
▁důsledk	-11.1921
▁užívá	-11.1925
▁sedmnáct	-11.1927
▁jakými	-11.1929
▁strop	-11.1936
▁trvající	-11.1938
▁Východ	-11.1938
▁ozdob	-11.1938
▁př	-11.1941
▁všemu	-11.1942
▁Věřím	-11.1947
▁Objekt	-11.195
▁Svat	-11.1951
▁dokončen	-11.1953
▁Kar	-11.1957
▁stavbě	-11.1957
▁filozof	-11.1958
šil	-11.1958
ňuje	-11.196
▁sbor	-11.1961
nejvýš	-11.1963
ŘÍ	-11.1963
▁Hra	-11.1964
▁bomb	-11.1966
dent	-11.1968
▁vašem	-11.1968
▁Zálež	-11.1968
▁Jindřich	-11.1969
▁Michail	-11.1969
▁aplikaci	-11.1969
▁důležitou	-11.1969
▁kanalizace	-11.1969
▁kariéru	-11.1969
▁komunistů	-11.1969
▁konkurent	-11.1969
▁lehké	-11.1969
▁obrátit	-11.1969
▁ovlivnit	-11.1969
▁podmínkám	-11.1969
▁přirozeně	-11.1969
▁referenda	-11.1969
▁snižovat	-11.1969
▁svědky	-11.1969
▁výpovědi	-11.1969
▁zneužití	-11.1969
▁jedinců	-11.1969
▁přírodu	-11.1969
▁stupeň	-11.1969
▁ubytovací	-11.1969
▁válku	-11.1969
▁budoucna	-11.1969
▁Boyle	-11.1969
▁týče	-11.1969
▁zbaven	-11.1969
▁administrativní	-11.1969
▁Kreslení	-11.1969
▁antropologie	-11.1969
▁fosilní	-11.1969
▁kombinace	-11.1969
▁hokejisté	-11.1969
▁zkrátka	-11.1969
▁přivezl	-11.1969
▁smečky	-11.1969
▁češtině	-11.1969
▁dostupné	-11.1969
▁dívat	-11.197
▁příjezd	-11.197
▁stavět	-11.197
▁Španělska	-11.197
▁nezmění	-11.197
▁prapor	-11.197
▁staletí	-11.197
▁Intel	-11.197
▁nezbývá	-11.197
▁ocenil	-11.197
▁nohou	-11.197
▁Zdeňk	-11.197
▁1980	-11.197
▁Minul	-11.197
▁Optima	-11.197
▁zázrak	-11.1971
▁psů	-11.1971
▁ligový	-11.1971
▁plnit	-11.1971
▁Per	-11.1971
▁nápln	-11.1971
▁Příští	-11.1972
▁Říká	-11.1972
▁Peck	-11.1972
▁Konec	-11.1972
▁vítr	-11.1972
▁matky	-11.1972
▁kontrakt	-11.1973
▁jídla	-11.1973
▁varování	-11.1973
▁solidní	-11.1973
▁Karpov	-11.1974
▁vyměnit	-11.1975
▁setkáváme	-11.1975
▁2,5	-11.1975
▁hlasovat	-11.1976
konců	-11.1976
▁sektor	-11.1976
▁převést	-11.1976
▁etapě	-11.1977
▁ráj	-11.1977
▁chybět	-11.1977
▁Škol	-11.1977
▁Atlantiku	-11.1978
▁kontinentu	-11.1978
▁znečištění	-11.1978
▁EU	-11.1979
▁stavba	-11.1979
▁chuť	-11.198
▁výraznější	-11.198
nos	-11.1981
stává	-11.1981
▁kurt	-11.1982
▁vystoupí	-11.1982
▁vyřešen	-11.1983
▁extrémní	-11.1984
▁vojáky	-11.1986
▁knížky	-11.1986
▁vítěze	-11.1987
▁Říman	-11.1988
▁liberální	-11.1989
▁povahy	-11.1989
▁Belgii	-11.199
▁kanálů	-11.1991
▁vybudování	-11.1993
▁osnov	-11.1993
▁částkou	-11.1996
▁detailní	-11.1996
▁uvolnění	-11.1996
▁oken	-11.1997
▁rizik	-11.1999
▁Výrob	-11.1999
▁zvládnout	-11.2001
▁logicky	-11.2002
▁uvedli	-11.2002
▁učení	-11.2002
▁KDU	-11.2003
místě	-11.2004
▁expertů	-11.2005
▁podobným	-11.2005
▁uzavřena	-11.2005
▁kořeny	-11.2007
dni	-11.2009
▁kapacitou	-11.2009
▁volbou	-11.2009
▁tržby	-11.201
▁Blízké	-11.2011
umět	-11.2013
▁současným	-11.2013
koro	-11.2014
▁krvi	-11.2014
▁krevní	-11.2014
▁uchazečů	-11.2016
berg	-11.2016
▁mzda	-11.2016
▁čistě	-11.2017
▁Maďarsko	-11.2017
ues	-11.2018
sty	-11.2019
dnes	-11.2019
▁starostí	-11.202
▁sloužil	-11.2021
▁Bank	-11.2021
▁arabské	-11.2021
▁vyšla	-11.2021
ičtější	-11.2022
ždyť	-11.2023
▁úseku	-11.2024
▁krajní	-11.2024
▁Voda	-11.2024
pir	-11.2026
▁příznivců	-11.2026
▁Vít	-11.2028
▁nemocí	-11.2029
▁subjektů	-11.203
ong	-11.2031
▁Předpokládá	-11.2031
▁průměrně	-11.2032
▁prestižní	-11.2033
▁brněnsk	-11.2033
▁Vesmíru	-11.2036
▁play	-11.2036
▁spis	-11.2043
▁strukturu	-11.2044
45	-11.2049
cházejí	-11.2055
▁oceněn	-11.2056
▁lék	-11.2056
▁37	-11.2058
▁okraji	-11.2063
tisknout	-11.2063
▁krásné	-11.2065
▁obchodě	-11.2065
▁zásahu	-11.2066
▁fin	-11.2069
▁mechaniku	-11.2069
ani	-11.207
▁mozkov	-11.2074
▁hosty	-11.2076
▁veškerý	-11.2078
hraje	-11.2081
▁vytvořili	-11.2082
▁právem	-11.2084
▁témata	-11.2087
▁vlastními	-11.2089
▁manažerů	-11.2091
▁získáva	-11.2091
▁elektronické	-11.2096
▁německým	-11.2098
▁turnaji	-11.2099
▁projevu	-11.2099
▁pop	-11.2099
▁tvary	-11.2099
▁páteční	-11.2112
▁zadní	-11.2112
▁obhájce	-11.2112
▁vedly	-11.2115
▁přijali	-11.2116
▁záznamové	-11.2118
▁div	-11.2119
ill	-11.212
▁slabý	-11.212
▁dějiny	-11.2122
▁náhod	-11.2124
▁ztratila	-11.2127
▁počítačov	-11.2128
▁komentář	-11.2131
▁uváděn	-11.2131
PS	-11.2131
.12.	-11.2133
▁maďarské	-11.2133
▁350	-11.2135
věřit	-11.2136
▁přesný	-11.2138
▁HZDS	-11.2139
▁politicky	-11.2139
DI	-11.2141
▁relativní	-11.2142
▁majitelů	-11.2143
ávají	-11.2144
▁Masarykov	-11.2145
místo	-11.2147
▁zpětn	-11.2153
šování	-11.2153
▁vydala	-11.2154
hý	-11.2158
▁slev	-11.2163
▁most	-11.2163
utí	-11.2164
čel	-11.2167
▁poměry	-11.2168
land	-11.2172
pit	-11.2173
poví	-11.2179
AM	-11.2181
▁vodě	-11.2182
▁Mag	-11.2182
▁jednal	-11.2183
▁vítězů	-11.2186
řejmě	-11.2186
▁hotové	-11.2187
tedy	-11.2188
▁horský	-11.2189
nský	-11.2197
▁Husov	-11.2197
▁občana	-11.2201
▁Kla	-11.2203
dáme	-11.2207
hem	-11.221
▁automatické	-11.221
ovaným	-11.2211
▁elektronický	-11.2219
bude	-11.2219
▁jízd	-11.222
▁Sal	-11.2222
mana	-11.2225
▁předání	-11.2233
▁22.	-11.2239
▁nep	-11.224
▁kontaktu	-11.2241
▁zabit	-11.2242
▁zločin	-11.2246
vedli	-11.2246
▁obyčejný	-11.2246
▁kmen	-11.2247
▁potvrdila	-11.2257
znamenat	-11.2258
▁1500	-11.226
▁čištění	-11.2265
▁významně	-11.2265
▁atomové	-11.2265
▁historické	-11.2267
▁kritický	-11.2267
ívají	-11.2272
tvo	-11.2275
▁Ci	-11.2281
▁mís	-11.2282
tický	-11.2283
rok	-11.2283
▁jednotné	-11.2293
dejme	-11.2302
▁projednáva	-11.2308
▁vět	-11.2317
▁ráz	-11.2321
▁kostel	-11.2323
▁otevřený	-11.2324
▁jednotlivým	-11.2331
▁Staré	-11.2333
▁stanovené	-11.234
▁kolektiv	-11.2342
▁následujícím	-11.2342
▁jugoslávsk	-11.2343
▁smrtí	-11.2344
prázdn	-11.2348
UJE	-11.2348
▁cenové	-11.2349
řádně	-11.2353
▁kolech	-11.236
▁týmů	-11.2361
▁budova	-11.2362
▁jejími	-11.2363
▁image	-11.2366
▁přesné	-11.2366
▁královn	-11.2367
▁ocitl	-11.2368
nských	-11.2369
▁arabský	-11.2371
▁ledový	-11.2371
▁klesl	-11.2372
▁Mal	-11.2374
▁As	-11.2379
▁výprav	-11.2379
▁mandát	-11.2381
hradit	-11.2385
▁dolar	-11.2385
ika	-11.2387
▁Pražsk	-11.2389
▁zemědělců	-11.2394
▁staveb	-11.2395
▁pouští	-11.2395
▁akcionářů	-11.2395
▁zdanění	-11.2397
▁index	-11.2398
▁Kazachstán	-11.2399
▁Svaz	-11.24
▁moravské	-11.24
▁používal	-11.2403
▁ráda	-11.2405
▁intenzit	-11.2405
▁předběžn	-11.2406
▁rakovin	-11.2406
▁sponzor	-11.2407
▁nejlepšího	-11.2409
▁Bor	-11.2409
▁týkají	-11.241
▁jih	-11.2412
▁spodní	-11.2414
ložili	-11.2414
▁kvalifikovan	-11.2415
střelen	-11.2415
▁ceník	-11.2417
▁mini	-11.242
▁mluvil	-11.2423
počíta	-11.2424
▁dával	-11.2428
▁odpovídají	-11.2428
▁blíží	-11.2429
▁medaili	-11.2433
▁prst	-11.2433
▁kap	-11.2433
▁Izraelsk	-11.2437
▁vývojem	-11.2439
▁Dokon	-11.2439
▁publikován	-11.244
▁Výš	-11.244
CO	-11.2442
▁sportovním	-11.2443
▁komunismu	-11.2445
nského	-11.2447
dělat	-11.2447
▁hrálo	-11.2449
oma	-11.2452
▁výkonnost	-11.2454
nutit	-11.2456
▁vzniklé	-11.2457
▁norma	-11.2457
▁Závěr	-11.246
▁koš	-11.2462
▁Klepn	-11.2468
▁dlouhodobě	-11.2468
olicejní	-11.2468
peptid	-11.2469
▁Doufám	-11.2469
▁LDS	-11.2469
▁Poborského	-11.2469
▁Výsledek	-11.2469
▁Wembley	-11.2469
▁anonymní	-11.2469
▁cizinců	-11.2469
▁definovat	-11.2469
▁dětmi	-11.2469
▁humanitární	-11.2469
▁intenzivně	-11.2469
▁království	-11.2469
▁lhůty	-11.2469
▁mobilní	-11.2469
▁nabídnut	-11.2469
▁otázkách	-11.2469
▁připomenout	-11.2469
▁revoluce	-11.2469
▁sankce	-11.2469
▁skener	-11.2469
▁uhličitého	-11.2469
▁umístit	-11.2469
▁upozorňují	-11.2469
▁veřejnou	-11.2469
▁zdravotně	-11.2469
pomáhal	-11.2469
▁Komora	-11.2469
▁MHz	-11.2469
▁Mostaru	-11.2469
▁Názor	-11.2469
▁Výjimk	-11.2469
▁komisí	-11.2469
▁nepatří	-11.2469
▁srpnu	-11.2469
▁série	-11.2469
▁řekněme	-11.2469
skočit	-11.2469
▁pozemků	-11.2469
▁pátý	-11.2469
▁stačit	-11.2469
▁týdnu	-11.2469
▁užitečné	-11.2469
▁vyhověl	-11.2469
▁Ústí	-11.2469
▁Prahu	-11.2469
▁projednávání	-11.2469
▁tvůrčí	-11.2469
▁obránce	-11.2469
▁shluk	-11.2469
▁zážitek	-11.2469
▁audio	-11.2469
▁turisté	-11.2469
▁chemie	-11.2469
▁letišti	-11.2469
▁opačný	-11.2469
▁modernizaci	-11.2469
▁sportovci	-11.2469
▁nebrání	-11.2469
▁Bohemia	-11.2469
▁vykonávat	-11.2469
▁zaslal	-11.2469
▁počáteční	-11.2469
▁Filip	-11.2469
▁kostým	-11.2469
▁minimum	-11.2469
▁karet	-11.247
▁proběhla	-11.247
▁sleduje	-11.247
▁realizaci	-11.247
▁1948	-11.247
▁HGF	-11.247
▁emise	-11.247
▁převzetí	-11.247
▁zajistil	-11.247
▁evidenci	-11.247
▁léčení	-11.247
▁tmav	-11.247
▁Chang	-11.247
▁cítit	-11.2471
▁dvojnásobek	-11.2471
▁nádor	-11.2471
▁atmosféru	-11.2471
▁videa	-11.2471
▁rozdělit	-11.2471
▁půjčky	-11.2471
▁budování	-11.2471
▁experimentální	-11.2472
▁přestane	-11.2472
▁ošetření	-11.2472
▁ČZ	-11.2472
▁očima	-11.2473
▁Ukázal	-11.2473
▁prosím	-11.2474
▁ušetří	-11.2474
▁venku	-11.2474
▁tabulku	-11.2474
▁potřebovat	-11.2474
▁dovoluje	-11.2474
▁nahoru	-11.2475
▁nechci	-11.2475
dom	-11.2475
stické	-11.2477
▁potravy	-11.2477
▁čelní	-11.2479
▁podruhé	-11.248
▁astronomi	-11.248
▁Gr	-11.2481
▁Pojišťovna	-11.2482
▁výrobku	-11.2482
dělování	-11.2483
▁centrem	-11.2483
▁prvek	-11.2483
▁ostrovů	-11.2484
▁akciov	-11.2484
▁běže	-11.2484
▁stěžují	-11.2485
▁diplomatické	-11.2487
▁policisty	-11.2487
▁vycházet	-11.2489
▁architektury	-11.249
▁přišly	-11.249
▁podobnost	-11.2491
▁prostorách	-11.2491
▁voliči	-11.2493
níku	-11.2494
▁technikou	-11.2495
▁Důvodem	-11.2495
▁národnostní	-11.2498
▁prodejně	-11.2499
▁biologick	-11.2501
▁kontrolou	-11.2501
▁užitku	-11.2501
▁odměny	-11.2503
▁volit	-11.2503
▁případný	-11.2504
▁problematiku	-11.2504
▁stížnosti	-11.2505
▁Seznam	-11.2506
▁Švédsku	-11.2506
ško	-11.2508
▁opravu	-11.251
▁semináře	-11.251
▁Smlouva	-11.2511
▁změnách	-11.2512
▁způsobit	-11.2512
▁novela	-11.2513
▁podoby	-11.2513
ovce	-11.2513
▁Olomouce	-11.2514
pad	-11.2516
▁Chorvat	-11.2516
▁Mac	-11.2516
▁reklamní	-11.2517
▁plní	-11.2517
▁Film	-11.2519
▁vlastníkem	-11.2519
▁chybu	-11.2519
▁sehnat	-11.252
▁vydělal	-11.252
▁opravě	-11.2522
▁dle	-11.2523
▁stanov	-11.2526
▁chladu	-11.2528
▁dělníků	-11.2528
▁vybere	-11.2528
▁naprosté	-11.2531
▁Lab	-11.2532
▁posil	-11.2536
▁zrušen	-11.2537
▁elektrický	-11.2537
▁125	-11.2538
▁Lig	-11.2539
▁požadavkům	-11.254
▁vstupuje	-11.2546
▁vzdal	-11.2547
▁rozpadu	-11.2549
vádějí	-11.255
▁pracujících	-11.2555
▁kruhy	-11.2555
▁rostliny	-11.2556
▁novinářům	-11.2557
pek	-11.2558
▁rozhovory	-11.2558
▁krav	-11.2561
▁ran	-11.2561
▁Tým	-11.2561
▁stromy	-11.2563
▁ducha	-11.2563
▁udělali	-11.2566
har	-11.2566
▁nevíme	-11.2566
▁hovořili	-11.2567
▁šíří	-11.2567
▁lize	-11.2571
▁úmyslu	-11.2572
▁ústavů	-11.2574
rez	-11.2576
▁Kup	-11.2577
▁potenciálu	-11.2577
48	-11.2579
▁Nobelov	-11.2582
▁stříbrné	-11.2582
vel	-11.2583
▁mistry	-11.2585
▁klubem	-11.2587
▁světu	-11.2589
▁procesů	-11.2589
▁rozhodlo	-11.259
▁tempo	-11.259
▁závěrečný	-11.259
▁rodné	-11.259
▁ostravské	-11.2591
▁geny	-11.2591
pracovat	-11.2594
▁IV	-11.2598
▁vel	-11.26
▁plochu	-11.26
▁Man	-11.26
áním	-11.2603
▁komora	-11.2606
▁položil	-11.2608
▁SD	-11.2608
▁výkladu	-11.2609
▁podoba	-11.261
▁šestnácti	-11.2611
▁deníku	-11.2611
▁43	-11.2616
▁skvělé	-11.2618
▁pověřen	-11.262
▁věta	-11.2622
▁26.	-11.2623
NC	-11.2625
▁vycházel	-11.2626
▁obranné	-11.2627
dění	-11.2627
▁140	-11.2629
▁hlasu	-11.2629
▁27.	-11.2633
▁činila	-11.2634
▁papíry	-11.2635
▁hostů	-11.2635
▁obdiv	-11.2638
▁soupeřů	-11.2646
▁Egypt	-11.2647
▁zvyšovat	-11.2648
▁těle	-11.2648
▁kovy	-11.2649
▁jednoznačný	-11.2649
ust	-11.2653
▁telefony	-11.2657
▁efekty	-11.2657
▁Kdybych	-11.2658
▁šla	-11.2659
▁jdou	-11.2662
▁subjekt	-11.2667
ork	-11.2668
▁Řekl	-11.2676
era	-11.2681
PT	-11.2684
▁pocity	-11.2688
▁vážný	-11.269
▁kilometr	-11.2694
EK	-11.2697
enc	-11.2699
tito	-11.27
poloviční	-11.2705
▁přírodověd	-11.2706
▁nutný	-11.2708
▁24.	-11.2708
26	-11.2713
▁Japonsko	-11.2715
▁budoucího	-11.2717
▁Mé	-11.2727
procentní	-11.2728
▁tvůrce	-11.2731
▁podnikatelům	-11.2734
▁Večer	-11.2738
US	-11.2739
▁Mat	-11.2739
▁procenty	-11.2744
▁fotograf	-11.2746
▁Turist	-11.2753
▁vyhráli	-11.2756
▁komor	-11.2756
volal	-11.2756
▁okraj	-11.2756
VÍ	-11.2759
▁vydá	-11.2763
▁výhodn	-11.2763
▁naléhav	-11.2763
▁bohatý	-11.2763
,7	-11.2765
▁Text	-11.2767
jednat	-11.2768
▁obává	-11.2772
ola	-11.2777
▁pozornosti	-11.2779
▁prodá	-11.2789
▁popsán	-11.2793
▁soupeři	-11.2797
▁agentur	-11.2798
▁zákoně	-11.2801
měř	-11.2802
▁vzájemný	-11.2804
vala	-11.2805
▁zákonu	-11.2806
pin	-11.2808
▁Západ	-11.2811
▁postupů	-11.2815
▁běžn	-11.2817
▁ztracen	-11.2817
lů	-11.2818
projevilo	-11.2826
dají	-11.2828
▁obviněn	-11.2831
polí	-11.2838
▁ČS	-11.284
▁průmyslov	-11.2841
ohledně	-11.2842
▁disket	-11.2842
▁nález	-11.2843
▁konzervativní	-11.2847
▁odmítla	-11.2856
dol	-11.2861
▁zřízen	-11.2865
▁Světov	-11.2867
▁duch	-11.2867
měnit	-11.2868
krytí	-11.2868
▁následuj	-11.2869
▁stolu	-11.2869
▁Všeobecn	-11.287
sté	-11.2879
nete	-11.2889
▁napadl	-11.2889
▁stálé	-11.289
▁produktivit	-11.2895
▁Pre	-11.2896
▁Argentin	-11.2897
▁Odbor	-11.2899
▁odpovědn	-11.29
ině	-11.29
▁izraelský	-11.2901
nder	-11.2901
▁chirurg	-11.2904
▁nezná	-11.2907
▁výběrové	-11.292
▁císař	-11.292
▁rytm	-11.2921
▁veřejný	-11.2922
▁požadavků	-11.2922
▁aparát	-11.2925
▁veletrh	-11.2925
▁potrestán	-11.2929
▁účinnost	-11.2931
dová	-11.2931
▁cigaret	-11.2931
▁Rád	-11.2931
▁rozbor	-11.2932
cvič	-11.2932
▁bílkovin	-11.2932
▁dodavatele	-11.2932
vykl	-11.2935
▁Zda	-11.2935
▁rusk	-11.2937
▁tank	-11.294
▁vyžadují	-11.2941
těsn	-11.2941
dvacet	-11.2943
▁spolupracovník	-11.2946
▁mém	-11.2947
prostřed	-11.2949
novu	-11.2951
▁jednorázov	-11.2952
▁nebe	-11.2965
▁Angličan	-11.2966
▁spoluhráč	-11.2967
▁prováze	-11.2967
▁Důvod	-11.2969
▁vytvářejí	-11.2969
▁Projekt	-11.2972
▁červen	-11.2972
▁nejvyšších	-11.2973
▁Val	-11.2974
alternativ	-11.2974
dpověď	-11.2975
▁orchestr	-11.2979
▁výpočet	-11.2981
padal	-11.2986
▁prud	-11.2988
▁Náměst	-11.2995
▁Benešov	-11.2995
▁Dvořák	-11.2995
▁Jednotliv	-11.2995
▁Lubomír	-11.2995
▁cizinci	-11.2995
▁cizině	-11.2995
▁deklarace	-11.2995
▁komunisté	-11.2995
▁lékáren	-11.2995
▁lístky	-11.2995
▁medailí	-11.2995
▁ministerstev	-11.2995
▁nahrazen	-11.2995
▁nemožné	-11.2995
▁nečekaně	-11.2995
▁opozici	-11.2995
▁oživení	-11.2995
▁preventivn	-11.2995
▁redakci	-11.2995
▁restituční	-11.2995
▁skript	-11.2995
▁stadia	-11.2995
▁struktuře	-11.2995
▁svatební	-11.2995
▁tiskárna	-11.2995
▁uspokojení	-11.2995
▁výkyvy	-11.2995
▁zlepšit	-11.2995
▁zúčastní	-11.2995
▁kmitočt	-11.2995
▁letadlo	-11.2995
▁válkou	-11.2995
▁účinný	-11.2995
▁doplnit	-11.2996
▁minerální	-11.2996
▁potrvá	-11.2996
▁Weizs	-11.2996
▁ovládat	-11.2996
▁pozemky	-11.2996
▁zahájí	-11.2996
▁jídlo	-11.2996
▁porušil	-11.2996
▁čáry	-11.2996
▁jedinci	-11.2996
▁licence	-11.2996
▁Antonín	-11.2996
▁Trans	-11.2996
▁umístil	-11.2996
▁vyrábějí	-11.2996
pálil	-11.2996
▁nebudu	-11.2996
▁Něco	-11.2996
▁nejsilnější	-11.2996
▁kůži	-11.2996
▁odvozen	-11.2996
▁Mazdy	-11.2996
▁návštěvníci	-11.2996
▁ČSAV	-11.2996
▁nestalo	-11.2996
▁tisíciletí	-11.2996
▁USD	-11.2996
▁Maastrichtu	-11.2996
▁dopředu	-11.2996
▁léčba	-11.2996
▁Schneider	-11.2996
▁koncentrací	-11.2996
▁hornin	-11.2996
▁otřes	-11.2996
▁informovat	-11.2996
▁vracejí	-11.2996
▁vyloučit	-11.2996
▁úkor	-11.2997
▁Krkonoších	-11.2997
▁setkat	-11.2997
▁Juli	-11.2997
lákat	-11.2997
▁užívat	-11.2998
▁mikroorganismů	-11.2998
▁zkoušky	-11.2999
▁základnu	-11.2999
očí	-11.2999
▁kancléř	-11.2999
▁chybějící	-11.3
▁Nesmí	-11.3
▁vykazuje	-11.3
▁náročnější	-11.3
▁spánku	-11.3001
▁vydělat	-11.3002
bydlí	-11.3002
▁odškodnění	-11.3002
▁závazků	-11.3002
▁SNS	-11.3003
▁víno	-11.3003
▁odmítnout	-11.3004
▁přeháňky	-11.3004
▁rozhodnuto	-11.3005
▁absurdní	-11.3005
▁hlavě	-11.3006
▁záložník	-11.3007
▁posouzení	-11.3007
ickém	-11.3008
▁nemění	-11.3008
▁vidění	-11.301
▁linek	-11.301
▁Chorvatsko	-11.301
▁rozhodujícím	-11.301
instalovat	-11.301
▁Situace	-11.3011
▁vyšetřovací	-11.3011
▁zájezdy	-11.3011
▁Hrad	-11.3012
▁měřítku	-11.3013
▁varoval	-11.3013
▁mírou	-11.3014
▁ukládat	-11.3015
▁Zemanov	-11.3015
▁vztahuje	-11.3016
▁soch	-11.3016
▁Polsku	-11.3016
▁řádek	-11.3017
▁popsat	-11.3017
▁letoun	-11.3017
▁kartě	-11.3018
▁různá	-11.3021
▁městská	-11.3021
▁myslíte	-11.3021
▁Bójů	-11.3021
▁vybral	-11.3022
▁spokojenosti	-11.3023
▁boku	-11.3024
▁Miloše	-11.3024
▁jádra	-11.3027
▁genů	-11.3028
telné	-11.3028
▁rána	-11.3029
krátko	-11.303
▁Slovinska	-11.303
▁kádru	-11.3032
▁terénu	-11.3032
▁islámské	-11.3035
▁kdybychom	-11.3035
▁matematiky	-11.3036
cem	-11.3036
▁údržbu	-11.3036
▁hovoru	-11.3036
▁tuzemských	-11.3036
▁počítají	-11.3039
▁jakkoli	-11.3041
▁profil	-11.3041
staral	-11.3042
part	-11.3042
▁Vlast	-11.3044
▁hit	-11.3044
▁soukrom	-11.3044
▁pracovním	-11.3045
▁stačilo	-11.3046
▁vyplývající	-11.3046
▁Japonska	-11.3047
▁kanálu	-11.3048
▁zadání	-11.3049
▁partnerem	-11.3049
▁nalezení	-11.305
▁Váš	-11.3051
▁Kole	-11.3051
▁fyziku	-11.3054
▁Kub	-11.3056
▁subjekty	-11.3059
▁ruchu	-11.3063
▁délku	-11.3063
▁radu	-11.3065
▁hranicích	-11.3065
▁účastníky	-11.3066
▁zlata	-11.3066
cal	-11.3067
▁Věr	-11.3067
letěl	-11.3067
yplývá	-11.3069
▁teoretické	-11.307
stával	-11.3073
▁stiskn	-11.3077
pustili	-11.3077
▁řidiči	-11.3078
▁přítele	-11.308
tažením	-11.308
21	-11.308
▁slovník	-11.308
▁příznivé	-11.3081
▁dresu	-11.3082
íček	-11.3085
▁Doba	-11.3086
▁testů	-11.3087
▁volba	-11.3089
▁pevně	-11.3089
ějších	-11.3098
▁kostela	-11.3099
▁standardu	-11.31
▁okresech	-11.31
pouštějí	-11.31
strašně	-11.3101
▁typick	-11.3101
▁chladn	-11.3101
▁vyv	-11.3101
▁řetěz	-11.3105
vedou	-11.3107
ujte	-11.3109
▁postižení	-11.3111
oba	-11.3111
▁odvolal	-11.3111
▁trojic	-11.3111
▁pouh	-11.3112
▁hospodářský	-11.3113
ruh	-11.3114
▁variantu	-11.3115
▁technick	-11.3115
▁úzké	-11.3117
íků	-11.3117
▁bodem	-11.3122
▁znají	-11.3123
zem	-11.3125
▁informovali	-11.3126
hrají	-11.3126
▁výnosu	-11.3127
zích	-11.3129
▁iniciativa	-11.313
▁hlava	-11.3132
dělit	-11.3133
▁stávají	-11.3133
▁rozumné	-11.3135
▁dopisy	-11.3136
▁obsazen	-11.3141
▁bytí	-11.3143
▁členské	-11.3143
BA	-11.3144
dělal	-11.3147
▁rozliš	-11.3148
▁knihu	-11.3149
▁zůstaly	-11.315
▁metodu	-11.3152
▁servisu	-11.3155
způsobují	-11.3156
noví	-11.3156
OP	-11.3158
▁hromadn	-11.3159
▁manžela	-11.316
▁určeno	-11.316
▁hrubé	-11.316
▁linka	-11.3161
éra	-11.3165
cími	-11.3167
▁autobus	-11.3168
skými	-11.3169
▁ukládá	-11.3169
▁srovnatelné	-11.3172
ňoval	-11.3173
▁aktiv	-11.3173
▁Stan	-11.3173
▁číslem	-11.3175
▁opakovat	-11.3177
▁způsobila	-11.318
▁přesvědčeni	-11.318
▁přinesla	-11.3181
▁Řek	-11.3184
▁ryby	-11.3186
▁tiskový	-11.3192
▁velkém	-11.3195
▁pád	-11.3197
▁regul	-11.3198
ria	-11.3199
▁kaly	-11.3201
▁režiséra	-11.3203
▁skok	-11.3206
▁hormon	-11.3207
▁momentáln	-11.321
▁membrán	-11.321
▁časopise	-11.321
drží	-11.3214
▁předvedl	-11.3216
▁cílů	-11.3217
▁domnívám	-11.3218
▁Car	-11.3219
▁stromů	-11.322
▁drahá	-11.3221
▁hradí	-11.3223
lární	-11.3225
kládání	-11.3233
▁sešli	-11.3242
▁cit	-11.3244
jdu	-11.3246
▁jezdil	-11.3253
▁52	-11.3255
hlédl	-11.3256
▁platu	-11.3258
žije	-11.3259
nz	-11.3263
▁Kolek	-11.3264
AD	-11.3265
likvid	-11.3266
bírat	-11.3266
▁jakého	-11.3268
▁manažera	-11.3274
76	-11.3275
▁firmami	-11.3276
vých	-11.3278
▁bytě	-11.3279
▁dřevěný	-11.3284
▁speciálně	-11.3295
lék	-11.3295
▁Jeli	-11.3298
▁životnost	-11.3299
měl	-11.33
▁skryt	-11.3305
▁FIFA	-11.331
▁útvar	-11.3311
▁kurzor	-11.3313
▁řez	-11.3313
ker	-11.3314
▁magnet	-11.3317
▁bohaté	-11.3318
etické	-11.332
▁kapitálový	-11.3323
▁spotřebu	-11.3327
ěné	-11.3327
▁počátk	-11.3328
▁řekli	-11.333
zní	-11.3334
ární	-11.3334
áček	-11.3335
▁samotný	-11.3335
▁příště	-11.3337
▁Jelcinov	-11.334
▁ostrov	-11.3344
▁využije	-11.3345
7,	-11.3346
▁zabýval	-11.3349
▁srovnatelný	-11.3357
▁Test	-11.3357
IL	-11.3359
ZE	-11.3361
loží	-11.3361
▁chovat	-11.3362
▁lidový	-11.3368
řídí	-11.3372
mála	-11.3376
▁placen	-11.3377
▁technologický	-11.3378
nějších	-11.3382
▁zvěř	-11.3392
▁region	-11.3396
▁poločase	-11.3398
býval	-11.34
▁SI	-11.34
▁stali	-11.3413
nin	-11.3414
tisícov	-11.3415
roj	-11.3417
ČSSD	-11.3427
▁92	-11.3428
dání	-11.3429
▁poměrů	-11.3431
▁některého	-11.3433
poslední	-11.3435
▁paliv	-11.3435
ers	-11.3438
především	-11.344
▁zavedl	-11.3443
bil	-11.3445
▁architekt	-11.3446
▁vesnic	-11.3447
▁délk	-11.3449
▁výtvarn	-11.3451
SA	-11.3451
▁reklama	-11.3452
▁cc	-11.3455
ph	-11.3459
▁29.	-11.3465
▁Označ	-11.3468
vl	-11.3469
vající	-11.3469
▁chodu	-11.3471
▁Telecom	-11.3479
▁nejedn	-11.3479
mění	-11.3481
▁přál	-11.3484
▁očekával	-11.3485
iček	-11.3485
prodej	-11.3488
▁podnět	-11.3488
▁Slovan	-11.3488
▁úkon	-11.3489
▁zákoník	-11.349
sed	-11.3492
▁pravém	-11.3492
▁pochopil	-11.3493
▁čist	-11.3499
▁kyselin	-11.3499
▁nabídne	-11.35
jednala	-11.35
▁scénář	-11.3501
▁vezme	-11.3502
▁Cup	-11.3504
těl	-11.3507
▁odjel	-11.3507
▁klima	-11.3507
přes	-11.3508
▁rozhlas	-11.3509
čan	-11.351
▁bývalém	-11.3511
▁ryz	-11.3514
tickou	-11.3515
▁věnuj	-11.3515
bojí	-11.3515
▁Znám	-11.3515
▁kontrol	-11.3516
znamená	-11.3517
▁absolvoval	-11.3519
▁Chomutov	-11.3523
▁chalup	-11.3524
▁pokračují	-11.3524
▁Počítač	-11.3525
FS	-11.3525
▁umožňují	-11.3526
povídá	-11.3528
▁pat	-11.3528
▁uskutečnil	-11.3528
▁účet	-11.3529
▁enzym	-11.3535
▁Republik	-11.3536
▁vlk	-11.3538
pomeňme	-11.3539
vrátit	-11.354
▁násiln	-11.3541
▁Nor	-11.3546
▁veden	-11.3548
látka	-11.3548
▁oblačno	-11.3548
▁zjistí	-11.3549
▁vkus	-11.3549
▁Nejčastěj	-11.3551
▁Olszewsk	-11.3551
▁Bezpečnost	-11.3551
▁Evropou	-11.3551
▁Jupiter	-11.3551
▁Letošní	-11.3551
▁Moderní	-11.3551
▁Naštěstí	-11.3551
▁Obvodní	-11.3551
▁Podívej	-11.3551
▁Stehlík	-11.3551
▁Ukrajina	-11.3551
▁burzy	-11.3551
▁energií	-11.3551
▁imunitní	-11.3551
▁kandidovat	-11.3551
▁krátkodobé	-11.3551
▁náleží	-11.3551
▁následovat	-11.3551
▁odlišné	-11.3551
▁opozicí	-11.3551
▁ozónu	-11.3551
▁podotkl	-11.3551
▁poskytne	-11.3551
▁premiéře	-11.3551
▁překážky	-11.3551
▁seriózní	-11.3551
▁stability	-11.3551
▁televizor	-11.3551
▁totalitní	-11.3551
▁těžší	-11.3551
▁viceprezident	-11.3551
▁vzdělávání	-11.3551
▁výkres	-11.3551
▁výslovně	-11.3551
▁zachránil	-11.3551
▁zemědělci	-11.3551
▁znamení	-11.3551
▁závislá	-11.3551
▁získají	-11.3551
▁Úspěšn	-11.3551
▁úspěšnost	-11.3551
▁Město	-11.3551
▁dostatečné	-11.3551
▁herečka	-11.3551
▁mrtvé	-11.3551
▁položku	-11.3551
▁příroda	-11.3551
▁vyžádá	-11.3551
▁Island	-11.3551
▁chápán	-11.3551
▁laboratorní	-11.3551
▁naučit	-11.3551
▁nutná	-11.3551
▁Hapal	-11.3551
▁MIDI	-11.3551
▁profese	-11.3551
▁výlučn	-11.3551
slat	-11.3551
▁živnostenský	-11.3551
▁kubismu	-11.3551
▁charitativní	-11.3551
▁vystupoval	-11.3551
▁ČSAD	-11.3551
▁leccos	-11.3551
▁diváci	-11.3551
▁Sedm	-11.3551
▁druzí	-11.3551
▁koncentraci	-11.3551
▁vyjít	-11.3551
▁česky	-11.3552
▁chápe	-11.3552
▁nesměl	-11.3552
▁cítil	-11.3552
▁studené	-11.3552
▁filtr	-11.3552
▁kopané	-11.3552
▁slyší	-11.3552
▁obdrží	-11.3552
▁úder	-11.3552
▁Spolu	-11.3552
▁balení	-11.3553
▁zvyklí	-11.3553
▁kámen	-11.3553
▁písma	-11.3553
▁síni	-11.3553
▁dostupný	-11.3553
▁rozumět	-11.3553
▁trůn	-11.3553
▁Obyvatel	-11.3554
▁Soutěž	-11.3554
▁publikace	-11.3554
▁vzorků	-11.3554
▁Potvrdil	-11.3555
▁sbírky	-11.3555
▁prázdninách	-11.3555
▁zanikl	-11.3555
▁Švýcarska	-11.3556
účtování	-11.3556
▁branku	-11.3558
▁Vaše	-11.3558
hel	-11.3558
▁zdůvodnil	-11.3559
▁náhodně	-11.3559
▁přihlásil	-11.356
▁FC	-11.3562
▁přerušení	-11.3562
▁biologie	-11.3562
▁výrobou	-11.3562
▁výměník	-11.3563
aných	-11.3563
▁porušování	-11.3564
▁Dukly	-11.3564
▁připravují	-11.3564
▁tendenci	-11.3564
▁vysílání	-11.3566
▁Rumunsko	-11.3567
▁1950	-11.3568
▁expozice	-11.3568
▁levné	-11.3568
▁přečetl	-11.3568
▁sídla	-11.3568
▁udává	-11.3568
vní	-11.3569
▁armádní	-11.3569
▁kompletní	-11.3569
▁pravomocí	-11.357
▁Maďarska	-11.357
▁drobných	-11.357
▁politikou	-11.357
▁provozovat	-11.3571
▁osobám	-11.3571
▁odjezd	-11.3572
▁prodejna	-11.3572
▁řádky	-11.3574
▁stěží	-11.3574
nechávají	-11.3574
AG	-11.3575
▁drav	-11.3575
▁Politick	-11.3576
▁alternativní	-11.3576
▁vyrovnání	-11.3576
▁izraelské	-11.3577
jednali	-11.3578
▁sídlí	-11.3578
▁Příklad	-11.3579
▁zasáhnout	-11.3579
▁zajímavá	-11.358
▁léto	-11.3581
▁Vložit	-11.3582
▁nasazení	-11.3584
▁necelé	-11.3585
▁potřebujete	-11.3586
▁infekce	-11.3586
▁kraje	-11.3586
▁výměny	-11.3586
▁příslušníky	-11.3586
▁56	-11.3587
▁Vojenské	-11.3587
▁scénu	-11.3587
▁psaní	-11.3588
▁Žena	-11.3589
▁jmenoval	-11.3591
▁zajímá	-11.3591
soudit	-11.3591
▁Tvrdí	-11.3593
▁zbytku	-11.3593
▁nevidí	-11.3594
▁hrub	-11.3595
▁rodině	-11.3595
▁textové	-11.3596
▁odborů	-11.3597
race	-11.3599
▁dorazil	-11.36
▁tvorba	-11.36
▁semen	-11.36
▁uplatňují	-11.36
▁nemocného	-11.3601
▁provozování	-11.3601
▁ToolBooku	-11.3602
▁dohodli	-11.3604
▁kláštera	-11.3605
▁charakterizuj	-11.3606
▁sdělit	-11.3607
▁hradě	-11.3607
▁42	-11.3609
▁Star	-11.3609
▁obvinil	-11.3609
▁neznámé	-11.3609
▁získávání	-11.361
▁analýza	-11.3611
▁výhodou	-11.3612
▁spojených	-11.3612
▁slavného	-11.3613
▁elektron	-11.3613
▁uzavřené	-11.3615
▁mořské	-11.3616
▁rozhlasu	-11.3621
ptal	-11.3622
▁utekl	-11.3623
▁poradil	-11.3624
▁příkazem	-11.3624
▁vraždy	-11.3625
▁Buď	-11.3626
▁veletrhu	-11.3626
▁Víme	-11.3626
▁Optic	-11.3626
0.000	-11.3627
▁pozná	-11.3628
▁grafiky	-11.3628
▁Bro	-11.3629
▁ruch	-11.3629
▁zvukových	-11.363
▁pivovarů	-11.363
▁prezidentovi	-11.3631
▁nech	-11.3632
▁hladiny	-11.3633
▁zbývá	-11.3633
ED	-11.3634
▁výchovy	-11.3634
▁anglického	-11.3636
▁Husa	-11.3636
padnout	-11.3638
▁osobu	-11.3639
tlačit	-11.3639
▁vyrovnaný	-11.3639
▁poskytnutí	-11.364
▁nešťastn	-11.3643
nili	-11.3643
▁očích	-11.3643
▁dokonalé	-11.3645
▁předčasné	-11.3646
▁zásahy	-11.3652
▁Ostravsk	-11.3653
▁opustil	-11.3653
▁zařazeny	-11.3654
▁uživatelům	-11.3655
▁přenesen	-11.3656
▁přímý	-11.3657
▁požádali	-11.3659
▁kruhu	-11.366
▁platnosti	-11.3661
▁radní	-11.3664
▁Izraelem	-11.3666
▁stromu	-11.3669
▁obsadili	-11.367
▁zdravý	-11.3671
▁vzkaz	-11.3675
▁aneb	-11.3676
ero	-11.3681
otisk	-11.3681
▁70.	-11.3681
▁proměnil	-11.3682
▁takzvané	-11.3683
▁cel	-11.3684
▁nakupovat	-11.3686
▁zásoby	-11.3689
▁Novém	-11.3692
příč	-11.3697
▁realizovat	-11.3698
▁naproti	-11.3701
▁Výzkum	-11.3703
▁genu	-11.3704
▁vyjadřují	-11.3704
zemní	-11.3708
▁vítězk	-11.3713
▁gólu	-11.3713
▁opačném	-11.3714
▁dopise	-11.3717
▁bio	-11.3717
▁narazí	-11.3718
▁mozkové	-11.3719
▁přístupem	-11.3721
jištěn	-11.3721
▁Carl	-11.3723
▁východu	-11.3724
▁převeden	-11.3724
▁poledne	-11.3727
▁širok	-11.3727
▁průkaz	-11.3728
▁Chart	-11.3731
▁plánované	-11.3731
▁OLE	-11.3734
učili	-11.3736
71	-11.3736
▁obyčejné	-11.3737
▁úrok	-11.3738
▁dole	-11.374
tická	-11.3741
▁jemu	-11.3741
▁Horní	-11.3742
▁ukázk	-11.3743
▁bojoval	-11.3744
▁zvítězila	-11.3746
▁Uveden	-11.3749
▁zadržen	-11.375
▁rozšířen	-11.375
▁komunistický	-11.3752
▁Dag	-11.3756
▁čekání	-11.3758
▁vznikne	-11.3759
stru	-11.3759
koupí	-11.3761
ČNÍ	-11.3761
▁dodala	-11.3763
▁Don	-11.3763
▁nezískal	-11.3765
▁částice	-11.3768
▁pilot	-11.3769
▁soukromým	-11.377
▁poz	-11.377
▁kdež	-11.377
▁náboženské	-11.3772
▁autory	-11.3773
▁osmé	-11.3775
▁domova	-11.3776
▁závěry	-11.3776
▁Mas	-11.378
▁ing	-11.3783
▁klimatické	-11.3785
▁kritické	-11.3786
▁190	-11.379
▁připravila	-11.379
▁snížila	-11.3792
▁hloubk	-11.3797
▁kapitoly	-11.3801
▁náhle	-11.3803
▁majitelem	-11.3803
▁věřit	-11.3808
▁softwarový	-11.3813
▁skončily	-11.3814
▁Jean	-11.3814
▁střet	-11.3815
▁Čechy	-11.382
▁očekávané	-11.383
vice	-11.3832
▁velkoobchod	-11.3839
▁předpokládal	-11.384
▁bezpečnostních	-11.384
▁speciálních	-11.3841
▁zajímavý	-11.3845
▁časové	-11.3847
▁omezené	-11.3849
▁známa	-11.3851
▁Čtyři	-11.3857
▁Lib	-11.3859
ářské	-11.3859
▁etický	-11.386
lské	-11.386
enou	-11.387
▁mladík	-11.387
tika	-11.3875
▁plic	-11.3875
▁31	-11.3875
išť	-11.3877
▁štít	-11.3882
▁ekologický	-11.3883
ících	-11.3887
▁říkám	-11.3888
▁daří	-11.3889
▁Ře	-11.389
▁samé	-11.389
▁chyba	-11.3891
▁talent	-11.3899
▁vědom	-11.3901
▁bolesti	-11.3904
▁zájm	-11.3905
sídl	-11.391
▁důkladně	-11.3916
▁prach	-11.3917
ečná	-11.3917
▁vyvolá	-11.3918
389	-11.3919
▁pokutu	-11.3924
nda	-11.3925
▁Dal	-11.3933
▁hrůz	-11.3934
palestinsk	-11.3936
izovat	-11.3941
▁Lit	-11.3942
▁komentáře	-11.3942
▁středním	-11.3944
▁vyloučen	-11.3946
▁oblíbený	-11.3949
▁An	-11.395
ézt	-11.3951
▁zaměstnancům	-11.3951
▁účastník	-11.3956
▁znal	-11.3956
▁vlastníků	-11.3957
▁pachatele	-11.396
▁dohodnut	-11.3961
▁podpoře	-11.3961
▁chorvatský	-11.3966
▁zvaný	-11.3969
psat	-11.3969
▁dozvěděl	-11.3971
▁Vesmír	-11.3972
▁osmnáct	-11.3974
dávat	-11.3975
▁příjemný	-11.3977
▁americkým	-11.3977
čené	-11.3979
▁hlás	-11.3984
užit	-11.3985
▁žalob	-11.3995
▁poslancům	-11.3995
▁slovu	-11.3997
▁tělesn	-11.4003
▁110	-11.4004
▁popř	-11.4005
▁dávn	-11.4006
▁letecký	-11.4009
ivost	-11.401
▁profesionál	-11.4011
▁prohlásila	-11.4011
bře	-11.4013
▁takzvaný	-11.4015
▁zlé	-11.4017
▁sever	-11.4018
líbil	-11.4024
SP	-11.4025
ŘE	-11.4026
3.	-11.4027
▁vazeb	-11.4027
▁běžným	-11.4027
▁rizikový	-11.4029
▁tvor	-11.4035
▁očí	-11.4038
vázal	-11.4039
▁náměstk	-11.4042
▁souvislost	-11.4042
▁výzkumné	-11.4047
▁měnov	-11.4047
▁zajištěn	-11.4049
▁disciplín	-11.4049
▁společník	-11.4049
▁černý	-11.4053
▁figur	-11.4054
drželi	-11.4055
▁povolen	-11.4056
▁jezer	-11.4056
▁Pozor	-11.4058
▁Stran	-11.4058
▁Kongres	-11.4059
▁kamion	-11.4063
▁kolegů	-11.4065
▁časový	-11.4065
▁muzeu	-11.4066
▁závěrečné	-11.4067
▁přístav	-11.407
▁zvětš	-11.4072
lic	-11.4073
▁převoz	-11.4073
▁koncern	-11.4074
▁hypotéz	-11.4074
▁pojistn	-11.4076
▁vteřin	-11.4077
▁odráž	-11.4078
▁nabízen	-11.4079
▁lodi	-11.4082
▁prokurátor	-11.4082
stane	-11.4085
▁společným	-11.4086
▁zpěvák	-11.4086
rozměr	-11.4086
▁šed	-11.4087
▁Moc	-11.4088
▁dělník	-11.4089
▁uzná	-11.4091
▁mládež	-11.4094
OST	-11.4094
▁Lá	-11.4095
▁biskup	-11.4097
▁počítačem	-11.4098
▁leasing	-11.41
▁uměle	-11.41
▁podepsán	-11.4101
KDU	-11.4102
▁potvrzen	-11.4102
▁minutu	-11.4103
▁nepr	-11.4104
▁jater	-11.4105
slovní	-11.4107
35	-11.4107
▁vyrovnané	-11.411
▁nátlak	-11.4111
▁Charles	-11.4111
▁Mnichov	-11.4112
▁překvapen	-11.4113
kromě	-11.4115
▁dnem	-11.4115
záběr	-11.4115
▁nemocný	-11.4118
▁hol	-11.412
iletá	-11.412
▁předkládá	-11.412
▁mm	-11.4121
▁dialog	-11.4123
▁družstevní	-11.4125
▁požádá	-11.4127
▁zaplatil	-11.4129
▁spojeno	-11.413
▁sedmé	-11.4131
▁nepotřebuje	-11.4132
německou	-11.4133
▁neroz	-11.4134
zrcadl	-11.4135
▁krystal	-11.4137
▁tunel	-11.4138
ředstavitelé	-11.4139
doporučují	-11.4139
▁1981	-11.4139
▁Eduard	-11.4139
▁Městě	-11.4139
▁Poštovní	-11.4139
▁Rozhovor	-11.4139
▁Svorada	-11.4139
▁Výběr	-11.4139
▁Vědci	-11.4139
▁bázi	-11.4139
▁displej	-11.4139
▁doprovázen	-11.4139
▁instance	-11.4139
▁inzerát	-11.4139
▁konfiguraci	-11.4139
▁mechanismy	-11.4139
▁ministerstvem	-11.4139
▁mužstvu	-11.4139
▁nejlevnější	-11.4139
▁nejvhodnější	-11.4139
▁ovlivňova	-11.4139
▁označují	-11.4139
▁očekávají	-11.4139
▁pohromadě	-11.4139
▁potvrdit	-11.4139
▁protagonist	-11.4139
▁prvotní	-11.4139
▁složku	-11.4139
▁sluchátka	-11.4139
▁stabilitu	-11.4139
▁svědků	-11.4139
▁vyjadřova	-11.4139
▁výsledcích	-11.4139
▁zaměstnává	-11.4139
▁zbraň	-11.4139
▁závazek	-11.4139
▁závislé	-11.4139
režie	-11.4139
▁dráhu	-11.4139
▁odvahu	-11.4139
▁sazby	-11.4139
▁jedinec	-11.4139
▁lidstva	-11.4139
▁otravy	-11.4139
▁sladk	-11.4139
▁sérii	-11.4139
▁vazbě	-11.4139
▁vyjednávání	-11.4139
▁Gross	-11.4139
▁Reuter	-11.4139
▁profesí	-11.4139
▁slalom	-11.4139
▁uplatnil	-11.4139
▁prohlašuje	-11.4139
▁kolaps	-11.4139
▁postačí	-11.4139
▁Pořadatel	-11.4139
▁Radovan	-11.4139
▁partie	-11.4139
▁počty	-11.4139
▁vpravo	-11.4139
▁finance	-11.4139
▁kombinací	-11.4139
▁Pentium	-11.4139
▁léčbě	-11.4139
▁jarní	-11.4139
▁smečka	-11.4139
▁rozvržení	-11.4139
▁doplnil	-11.4139
▁ekvivalent	-11.4139
▁zaměřuje	-11.4139
▁sníží	-11.414
▁pouštní	-11.414
▁ohlas	-11.414
▁sportovce	-11.414
▁generaci	-11.414
▁ekonomickou	-11.414
▁nedostatkem	-11.414
▁výhrady	-11.414
▁Vilém	-11.414
▁konverz	-11.414
▁Baker	-11.414
▁filozofii	-11.414
▁Uvažuje	-11.414
▁derby	-11.414
▁výměr	-11.414
▁nezvykl	-11.414
▁1998	-11.414
▁cvičení	-11.414
▁spoření	-11.414
▁SNR	-11.414
▁studii	-11.414
▁Hráč	-11.414
▁pravdy	-11.414
▁pravice	-11.4141
▁správnou	-11.4141
▁Běloruska	-11.4141
▁čelit	-11.4141
▁jednotlivců	-11.4141
▁členění	-11.4141
▁Winter	-11.4142
▁ISO	-11.4142
▁lodí	-11.4142
▁překonat	-11.4142
▁památky	-11.4142
▁článků	-11.4143
▁nákladech	-11.4143
KDS	-11.4143
▁švýcarské	-11.4143
▁sbírek	-11.4143
▁kampaň	-11.4144
▁tvrdit	-11.4144
▁dálkové	-11.4144
▁zachránit	-11.4144
▁vyhleda	-11.4144
▁strojírenství	-11.4144
▁zastupitelstvo	-11.4144
▁podmínkami	-11.4144
▁celky	-11.4145
▁poplatků	-11.4145
▁pracovišti	-11.4145
nešní	-11.4145
▁pití	-11.4146
▁Ford	-11.4146
▁ušetřit	-11.4146
▁základny	-11.4146
▁vydrží	-11.4146
IP	-11.4146
▁plus	-11.4147
▁vzdělávací	-11.4147
▁přijímat	-11.4147
▁komentoval	-11.4147
▁hluboký	-11.4147
▁2:1	-11.4147
▁Provoz	-11.4148
▁organismů	-11.4148
▁Polskem	-11.4148
▁branky	-11.4149
▁Kolín	-11.4149
▁nazval	-11.4149
▁tenkrát	-11.415
▁oteplení	-11.415
▁domku	-11.415
▁ojediněle	-11.415
▁pomáhat	-11.4151
▁okresu	-11.4151
▁nepřijatelné	-11.4151
▁Palác	-11.4151
▁alternativy	-11.4152
▁vybrán	-11.4152
▁pozorovatelů	-11.4152
opakovaně	-11.4154
▁prosazuje	-11.4154
▁scéně	-11.4154
▁trase	-11.4154
▁odcházejí	-11.4154
▁silami	-11.4155
▁pětinu	-11.4155
▁perspektivní	-11.4155
▁obří	-11.4156
▁kliniky	-11.4156
▁skupinách	-11.4157
▁přísně	-11.4157
▁záměrně	-11.4157
▁jednotný	-11.4158
▁pozdní	-11.4158
▁hranicí	-11.4159
▁Švýcar	-11.4159
▁anketě	-11.416
▁etapy	-11.4161
▁ledové	-11.4161
▁odluk	-11.4162
▁obchodech	-11.4162
▁zárukou	-11.4162
▁domácností	-11.4163
▁přibývá	-11.4164
▁vyznačen	-11.4164
▁vidíte	-11.4164
▁Air	-11.4164
▁mrtvých	-11.4164
▁Mil	-11.4165
▁slavné	-11.4165
▁koordinac	-11.4165
▁povahu	-11.4167
▁Rozhodl	-11.4168
▁objektiv	-11.4169
▁skutečnou	-11.417
▁slavný	-11.417
▁stranách	-11.417
▁zmenšen	-11.4171
▁komunismus	-11.4173
▁publikací	-11.4173
▁jazyků	-11.4174
▁pes	-11.4174
▁NT	-11.4174
▁opravit	-11.4176
▁problematiky	-11.4176
stihnout	-11.4177
▁využívající	-11.4177
píší	-11.4178
▁prodejce	-11.4178
mýšlí	-11.4178
▁cukru	-11.418
▁stínu	-11.4181
▁ideologick	-11.4182
▁Nejsem	-11.4182
▁MOV	-11.4182
▁přibylo	-11.4183
jíždějí	-11.4185
▁odměnu	-11.4185
▁konfliktu	-11.4185
▁zkratk	-11.4186
▁nadšen	-11.4186
▁Thomas	-11.4187
▁reálná	-11.4187
▁montáž	-11.4187
▁Žádný	-11.4189
▁zeleni	-11.4189
▁slabé	-11.419
▁pochybnosti	-11.419
▁těsné	-11.4191
▁vaku	-11.4191
▁Boj	-11.4191
▁pokoj	-11.4191
▁neviděl	-11.4193
▁západu	-11.4193
▁podávání	-11.4195
▁odpady	-11.4195
▁správě	-11.4196
▁hromada	-11.4197
▁dialogové	-11.4198
budovat	-11.4198
▁pobočk	-11.4199
ung	-11.4201
▁rodinou	-11.4206
▁dávat	-11.4206
▁vhodných	-11.4207
▁prochází	-11.4208
▁samostatnost	-11.4211
▁spolehlivě	-11.4215
▁maličkost	-11.4215
▁hub	-11.4215
▁slevy	-11.4216
▁milión	-11.4216
▁Sol	-11.4216
byl	-11.4217
▁Španělsko	-11.4217
▁historického	-11.4218
▁jmenování	-11.4219
▁(5	-11.422
▁polského	-11.4221
▁skleníkový	-11.4222
bírají	-11.4222
▁prázdniny	-11.4223
▁Kazachstánu	-11.4223
▁otevřenou	-11.4224
▁77	-11.4225
▁stavy	-11.4225
▁skoku	-11.4225
▁mostu	-11.4227
▁dlužníka	-11.4228
▁znamenala	-11.4228
▁zajímavých	-11.4229
▁kapacitu	-11.423
▁Přibyl	-11.4231
▁předloh	-11.4231
▁zařazení	-11.4233
▁britských	-11.4234
▁osmnácti	-11.4236
ingu	-11.424
▁procentní	-11.4243
▁mezer	-11.4245
▁postav	-11.4247
▁vklad	-11.4249
▁azyl	-11.425
▁1991.	-11.4251
▁začínal	-11.4253
▁Severoatlantick	-11.4256
program	-11.4256
▁desítká	-11.4259
▁zájemcům	-11.426
▁suroviny	-11.426
▁oprávnění	-11.426
▁vybaveny	-11.4262
▁časopis	-11.4262
▁hokejové	-11.4262
▁smyslem	-11.4264
▁záznamu	-11.4266
▁čekal	-11.4266
▁hospodářských	-11.4267
▁levný	-11.4268
▁tepelné	-11.427
▁účelu	-11.4272
▁překvapením	-11.4274
▁zahájena	-11.4275
▁pozval	-11.4276
▁závodníků	-11.4276
▁panel	-11.4277
▁ja	-11.4278
▁přesvědč	-11.4279
▁podpisu	-11.4279
▁Geo	-11.4282
▁poznal	-11.4285
▁najdou	-11.4287
rp	-11.4288
▁případem	-11.4291
▁automobilu	-11.4293
▁neumí	-11.4294
▁určitým	-11.4294
▁vynesl	-11.4294
▁devatenáct	-11.4297
▁novináře	-11.4297
▁potraviny	-11.4299
▁vyšším	-11.4299
▁polský	-11.4301
▁vzniklo	-11.4302
běhne	-11.4303
stoupit	-11.4303
▁pravý	-11.4303
75	-11.4304
kají	-11.4308
▁kandidáta	-11.431
▁vznikal	-11.4315
▁součásti	-11.4319
▁cenami	-11.4321
▁historik	-11.4323
▁pokračovala	-11.4323
▁technologické	-11.4328
▁místním	-11.4328
▁vývojový	-11.433
▁jist	-11.4331
▁vyvoláva	-11.4334
▁vlna	-11.4336
▁vrátili	-11.4337
▁chlad	-11.4339
▁manažery	-11.4339
jo	-11.4339
týdenní	-11.4339
EC	-11.4341
istický	-11.4341
▁mask	-11.4342
▁průvodce	-11.4342
▁cenné	-11.4348
▁Norsk	-11.435
1.	-11.4358
kraji	-11.4361
▁hlasováním	-11.4361
platné	-11.4362
▁Sen	-11.4366
▁textů	-11.4367
▁světl	-11.4368
▁Brněnsk	-11.4369
▁daného	-11.4375
▁převrat	-11.4378
tovat	-11.4385
87	-11.4388
hoře	-11.439
▁240	-11.4391
vir	-11.4391
mořsk	-11.4391
▁tituly	-11.4394
▁vzdálen	-11.4396
měrně	-11.4398
dělení	-11.4401
▁základu	-11.4401
▁britský	-11.4403
▁povrchov	-11.4406
plynul	-11.4407
leva	-11.4407
▁91	-11.4407
obdržela	-11.4411
▁podnikateli	-11.4411
▁1)	-11.4417
▁atomov	-11.4423
▁Ročn	-11.4424
▁vědec	-11.4426
▁jakéhokoli	-11.4428
ica	-11.4432
▁světem	-11.4434
stávat	-11.4436
▁nabízený	-11.4436
▁zařízením	-11.4436
▁činy	-11.4437
▁Kur	-11.4438
▁řídit	-11.4438
▁čtvrtin	-11.4443
▁palác	-11.4444
trž	-11.4444
▁povrchové	-11.4445
▁nizozemsk	-11.4448
▁přibyl	-11.4453
tání	-11.4456
▁Hr	-11.4458
▁nadměrn	-11.4459
▁naučil	-11.446
ručně	-11.4469
▁zápasem	-11.4469
▁elektro	-11.4469
ŽE	-11.4471
stavení	-11.4471
▁Plán	-11.4478
kého	-11.4479
▁známou	-11.4481
▁poloviční	-11.4482
▁neštěstí	-11.4494
▁aktivac	-11.4497
▁směr	-11.45
▁jejímu	-11.4501
▁třetin	-11.4502
▁olympiád	-11.4502
▁oddělen	-11.4507
▁čínské	-11.4507
▁psycholog	-11.4508
▁úraz	-11.4515
▁prováděn	-11.4517
▁neobvyklé	-11.4518
▁MU	-11.452
7%	-11.4524
▁Spíš	-11.4525
▁průběžn	-11.4525
▁formul	-11.4529
▁předcházel	-11.4534
rel	-11.4537
▁Nemá	-11.4538
▁rozv	-11.4541
▁žánr	-11.4543
▁nud	-11.4544
▁stranické	-11.4544
▁pěkný	-11.4545
▁zvolený	-11.4548
▁doplněn	-11.4549
jevit	-11.4553
▁symbolick	-11.4556
▁hvězda	-11.4559
▁troj	-11.4561
▁pokryt	-11.4562
▁ligové	-11.4563
▁fa	-11.4564
▁vyplněn	-11.4565
▁Rakousk	-11.4567
▁Král	-11.4568
▁bit	-11.4569
▁kart	-11.4571
▁jednotn	-11.4571
řek	-11.4571
▁přirozeným	-11.4571
▁Závod	-11.4573
LED	-11.4576
▁přesvědčil	-11.4577
▁nepříjemný	-11.4582
▁koalic	-11.4583
▁míče	-11.4584
hne	-11.4585
▁smích	-11.4586
▁žádným	-11.4586
▁pedagog	-11.4587
▁úsek	-11.459
▁přidělen	-11.4593
kých	-11.4593
▁váh	-11.4594
▁historick	-11.4595
▁Velký	-11.4597
▁mladý	-11.4598
▁automat	-11.4604
▁občanům	-11.4606
▁fakult	-11.4606
▁žlut	-11.4606
lčí	-11.4612
57	-11.4612
anti	-11.4621
▁Ter	-11.4623
▁samospráv	-11.4625
jedná	-11.4625
▁Trh	-11.463
▁Obsah	-11.4632
▁dostaly	-11.4632
▁inspektor	-11.4635
▁čte	-11.4636
▁slovensk	-11.4636
▁občansk	-11.4638
▁výtečn	-11.4641
▁děkan	-11.4641
▁národním	-11.4643
ikonu	-11.4644
▁úvod	-11.4645
▁hráčům	-11.4647
▁Občansk	-11.4654
▁spojit	-11.4654
▁Zd	-11.4655
▁bosen	-11.4655
▁tiskov	-11.4656
pozn	-11.4657
▁odmítnut	-11.4658
okres	-11.4662
▁parametr	-11.4663
▁sledoval	-11.4663
▁inženýr	-11.4664
hodinové	-11.4664
uskutečnila	-11.4669
▁finančním	-11.467
MF	-11.4673
67	-11.4675
▁bojovn	-11.4675
▁nesmysl	-11.4683
▁zažil	-11.4683
▁dveří	-11.4688
▁KON	-11.4689
▁kategorií	-11.469
lidov	-11.4691
▁byznys	-11.4691
mentálně	-11.4691
▁EuroTel	-11.4692
▁obřad	-11.4692
kání	-11.4692
▁velko	-11.4696
▁požadoval	-11.4696
▁návštěvnost	-11.4696
hraniční	-11.4698
▁remíz	-11.47
▁záloh	-11.4702
▁Ostravar	-11.4702
▁Histori	-11.4704
▁vystupuj	-11.4704
▁duši	-11.4705
▁Mlad	-11.4705
▁vidím	-11.4705
▁krev	-11.4706
▁sláv	-11.4706
▁Žid	-11.4708
krácen	-11.4709
▁dobrého	-11.4714
▁prů	-11.4715
▁hmotnost	-11.4715
▁triumf	-11.4716
třeba	-11.4717
tiky	-11.472
▁deficit	-11.4722
▁dřev	-11.4722
▁přesahuj	-11.4722
▁využívají	-11.4724
▁Lac	-11.4725
▁dvor	-11.4725
▁vánoc	-11.4726
▁množ	-11.4728
▁uvolněn	-11.4729
▁román	-11.4731
▁elektrick	-11.4731
▁smrteln	-11.4732
bíhají	-11.4732
tických	-11.4733
▁vlivu	-11.4733
▁krut	-11.4734
íš	-11.4735
▁vyřazen	-11.4735
ht	-11.4736
▁sam	-11.4739
▁Výrobc	-11.4739
▁ukončen	-11.4741
▁vazba	-11.4744
▁dívá	-11.4745
▁obnovit	-11.4747
▁centimetr	-11.4749
vesel	-11.4749
▁Thajsk	-11.475
konalo	-11.4751
sadit	-11.4757
▁krále	-11.4759
▁dramat	-11.476
▁podporují	-11.4761
hlédne	-11.4761
▁loď	-11.4762
▁risk	-11.4762
▁Vždy	-11.4763
▁účinně	-11.4763
míří	-11.4764
▁Tchaj	-11.4764
▁Apple	-11.4764
▁Barcelony	-11.4764
▁Budinský	-11.4764
▁Liverpool	-11.4764
▁Lobkowicz	-11.4764
▁Moskvy	-11.4764
▁Opět	-11.4764
▁Stráský	-11.4764
▁TNF	-11.4764
▁Větší	-11.4764
▁angličtiny	-11.4764
▁atribut	-11.4764
▁bydliště	-11.4764
▁databázový	-11.4764
▁dosaženo	-11.4764
▁dětství	-11.4764
▁epidemie	-11.4764
▁evoluce	-11.4764
▁extremist	-11.4764
▁intenzivní	-11.4764
▁jménu	-11.4764
▁kosmické	-11.4764
▁lhůtě	-11.4764
▁lůžek	-11.4764
▁nabízel	-11.4764
▁nabízet	-11.4764
▁nekončí	-11.4764
▁nelíbí	-11.4764
▁nesmějí	-11.4764
▁pohledávky	-11.4764
▁polštář	-11.4764
▁počínání	-11.4764
▁pronájmu	-11.4764
▁redakční	-11.4764
▁ropovod	-11.4764
▁rozšiřování	-11.4764
▁seznámil	-11.4764
▁skrývá	-11.4764
▁svědectví	-11.4764
▁tlačítek	-11.4764
▁vztazích	-11.4764
▁výdělečn	-11.4764
▁výzvu	-11.4764
▁zdůrazňuje	-11.4764
▁ÚSES	-11.4764
▁Haagu	-11.4764
▁Luboš	-11.4764
▁Schumacher	-11.4764
▁Vánoční	-11.4764
▁mrtvol	-11.4764
▁prodavač	-11.4764
▁profesní	-11.4764
▁přiznat	-11.4764
▁spekulací	-11.4764
▁plakát	-11.4764
▁uváděl	-11.4764
▁Vánoce	-11.4764
▁pojmy	-11.4764
tahuje	-11.4764
▁pokouší	-11.4764
▁Easy	-11.4764
▁demisi	-11.4764
▁pryč	-11.4764
▁spektrum	-11.4764
atlantick	-11.4764
týkat	-11.4764
▁komplikace	-11.4764
▁mutace	-11.4764
▁bezespor	-11.4764
▁nevadí	-11.4764
▁praxí	-11.4764
▁zastupování	-11.4764
▁Kyjev	-11.4764
▁inteligentní	-11.4764
▁něčím	-11.4764
▁vyrobil	-11.4764
▁Myslíte	-11.4764
▁nejmladší	-11.4764
▁Neznám	-11.4764
▁ledovce	-11.4764
▁usiloval	-11.4764
▁Group	-11.4765
▁bydlet	-11.4765
▁bát	-11.4765
▁zastupitelství	-11.4765
▁pohlaví	-11.4765
▁interpretace	-11.4765
▁mezisklad	-11.4765
▁teplé	-11.4765
▁ocas	-11.4765
týkal	-11.4765
▁komunikací	-11.4765
▁neodpovídá	-11.4765
▁reprezentuje	-11.4765
▁slyšel	-11.4765
pravdě	-11.4765
▁léčby	-11.4765
▁levněji	-11.4765
▁strážníci	-11.4765
▁stolní	-11.4765
▁trápí	-11.4765
▁veterán	-11.4765
▁Olg	-11.4765
▁někam	-11.4765
▁nezajímá	-11.4765
▁PŘED	-11.4765
▁ČSTK	-11.4765
▁norem	-11.4765
▁Thun	-11.4765
▁vyčleněn	-11.4765
▁Berger	-11.4765
▁námitky	-11.4765
▁určí	-11.4765
▁sousedství	-11.4766
▁stoprocentní	-11.4766
▁HDP	-11.4766
▁sumy	-11.4766
KDH	-11.4766
▁Izraele	-11.4766
▁střechy	-11.4766
▁pozitivně	-11.4766
▁Prohlásil	-11.4767
▁chlap	-11.4767
▁úředníci	-11.4767
▁dílčí	-11.4767
▁Nemůže	-11.4767
▁zkoušku	-11.4767
▁teplý	-11.4767
▁kraj	-11.4768
▁kinematografie	-11.4768
rozuměl	-11.4768
▁přestávce	-11.4768
▁hluk	-11.4768
▁datum	-11.4768
▁novinkou	-11.4769
▁Libor	-11.4769
▁selekčn	-11.4769
▁NOV	-11.4769
▁prodejců	-11.4769
▁Neměl	-11.4769
▁švýcarský	-11.4769
▁spekulace	-11.477
▁účelům	-11.477
▁Grafová	-11.477
▁omezování	-11.477
▁sídlo	-11.4771
▁povinné	-11.4771
▁Pardubice	-11.4772
▁rozměrů	-11.4772
▁hektarů	-11.4772
▁Tatra	-11.4772
▁přenést	-11.4772
▁vykázal	-11.4773
▁efektivnosti	-11.4774
▁Původní	-11.4774
▁posuzování	-11.4774
taž	-11.4775
▁socialistické	-11.4775
▁Postupně	-11.4775
▁dějinách	-11.4775
▁450	-11.4775
▁myslet	-11.4775
▁přírodním	-11.4776
▁poškodil	-11.4776
▁10%	-11.4777
▁trik	-11.4777
▁sestra	-11.4777
▁Alma	-11.4777
čn	-11.4778
▁ohrozit	-11.4778
▁filozofické	-11.4778
▁plot	-11.478
▁učební	-11.478
▁uznává	-11.4781
▁disponuje	-11.4782
▁Zpočátku	-11.4783
▁zapsán	-11.4783
spěje	-11.4783
▁kompresi	-11.4784
▁považoval	-11.4784
▁hygienické	-11.4784
▁186	-11.4784
cová	-11.4784
▁úsměvem	-11.4784
▁předpokládají	-11.4785
▁LID	-11.4786
▁Dukla	-11.4787
▁Římě	-11.4788
▁odhaduje	-11.4789
nášejí	-11.4789
▁svazek	-11.4789
sáhnout	-11.4789
▁motocyklů	-11.4789
▁zvířete	-11.4789
▁Určitě	-11.479
▁spuštění	-11.4791
▁badatelé	-11.4791
ota	-11.4791
▁domluv	-11.4792
▁zvon	-11.4792
▁herci	-11.4793
▁dálnice	-11.4793
▁bazénu	-11.4794
▁Londýna	-11.4795
▁invalidní	-11.4795
▁minulou	-11.4796
pír	-11.4796
▁špičkových	-11.4796
▁rozum	-11.4796
LOV	-11.4797
▁ostrově	-11.4797
▁vyplácení	-11.4797
▁prázdné	-11.4798
▁uložen	-11.4799
▁fotbalisty	-11.4799
▁kritiky	-11.48
▁odpad	-11.4803
▁Listin	-11.4804
skop	-11.4804
▁sond	-11.4804
▁posádky	-11.4807
▁výuky	-11.4808
▁vlastník	-11.4808
▁nahradí	-11.4809
▁OK	-11.481
▁kouř	-11.481
▁zrodil	-11.4811
▁dáno	-11.4811
▁vyhlášky	-11.4811
▁sporů	-11.4812
▁převodu	-11.4812
šp	-11.4812
▁Kremlu	-11.4812
▁azbestu	-11.4812
▁sněmovna	-11.4813
▁zvané	-11.4815
▁schránky	-11.4815
▁zakázku	-11.4816
▁klepnutím	-11.4816
▁iniciativy	-11.4816
▁Těm	-11.4816
▁Paříže	-11.4819
▁zakázal	-11.482
▁dech	-11.482
oví	-11.4821
▁prac	-11.4822
▁doplnění	-11.4822
▁zásobník	-11.4822
▁ekonomickým	-11.4822
▁pořádně	-11.4823
▁příkladu	-11.4823
▁problémech	-11.4824
▁Pravda	-11.4825
▁akcionáři	-11.4825
▁doprovodu	-11.4826
▁pružn	-11.4826
96	-11.4827
▁učitelé	-11.4828
▁nevhodné	-11.4828
jmenovaný	-11.4829
▁povrchem	-11.4829
▁vytvořený	-11.483
▁vteřiny	-11.4831
▁odpadu	-11.4832
▁Benda	-11.4833
▁vidíme	-11.4836
▁zvol	-11.4837
▁olympiádu	-11.4837
▁Koup	-11.4837
▁dialogu	-11.4839
▁tunelu	-11.484
▁geografick	-11.484
▁Nizozemska	-11.484
tratil	-11.4841
▁hostin	-11.4843
▁paktu	-11.4843
▁les	-11.4845
▁zbožím	-11.4845
▁složitost	-11.4846
▁Sex	-11.4847
▁lese	-11.4848
▁příspěvk	-11.4849
▁volném	-11.4852
▁stanovil	-11.4852
▁List	-11.4853
▁okamžité	-11.4853
▁dolaru	-11.4854
▁etnick	-11.4854
▁jízdu	-11.4854
▁slevu	-11.4856
▁klad	-11.4856
▁poplatníků	-11.4856
Vesmír	-11.4856
▁pru	-11.4857
▁předmětu	-11.4859
čila	-11.486
▁zaručen	-11.486
▁systémech	-11.4862
▁údaji	-11.4862
▁prodávají	-11.4864
▁mzdové	-11.4864
▁zakladatel	-11.4865
▁procesory	-11.4865
▁plzeňské	-11.4866
▁nákladné	-11.4867
▁Nova	-11.4868
▁Med	-11.4868
slouží	-11.4868
▁korunu	-11.4869
▁celostátní	-11.4869
▁používané	-11.4869
▁náměstka	-11.4869
vládne	-11.4871
▁silnici	-11.4871
▁geolog	-11.4877
▁zaujím	-11.4878
▁právním	-11.4879
čné	-11.4879
▁choroby	-11.4879
▁Radnic	-11.488
▁vrah	-11.4881
▁sortimentu	-11.4882
▁otázkami	-11.4882
▁monopolní	-11.4883
▁koná	-11.4883
▁útvarů	-11.4885
▁zemřelo	-11.4886
▁tváře	-11.4886
přineslo	-11.4888
▁vyhrazen	-11.4889
zaměstnan	-11.4891
▁pomocník	-11.4893
▁pacienty	-11.4894
▁ukázaly	-11.4896
▁fyzik	-11.4897
▁užití	-11.4898
▁přežil	-11.4899
sazení	-11.4901
přestává	-11.4902
▁Ivo	-11.4904
škodí	-11.4905
▁omezeným	-11.4907
počtu	-11.4912
bov	-11.4913
▁Tito	-11.4914
▁hodí	-11.4916
▁zvolí	-11.4917
▁věřím	-11.4918
Pro	-11.4919
▁Václavské	-11.492
▁Web	-11.4922
▁vysílač	-11.4924
▁RAM	-11.4924
USA	-11.4925
▁Pen	-11.4925
jte	-11.493
jeden	-11.493
▁oddíl	-11.4931
▁vzali	-11.4931
▁Die	-11.4934
pul	-11.4935
▁leteck	-11.4936
jistá	-11.4937
▁národa	-11.4937
▁odběratele	-11.4943
13	-11.4945
▁Švéd	-11.4946
▁soutěžích	-11.4947
▁provede	-11.4948
▁zúčastněný	-11.495
▁Přím	-11.4951
▁Dole	-11.4953
▁porazili	-11.4955
HA	-11.4955
▁Tisk	-11.4956
▁proviz	-11.4956
▁zůstali	-11.4959
▁zbytečný	-11.4959
▁největšího	-11.4968
▁oprávněné	-11.4969
▁dnešním	-11.4969
bla	-11.4972
▁doufám	-11.4976
▁neobyčejn	-11.4978
▁dokázala	-11.4981
▁příkazu	-11.4981
▁lev	-11.4981
▁příklady	-11.4983
▁slovenského	-11.4986
jov	-11.4986
▁podstat	-11.4986
pera	-11.499
▁kritizoval	-11.4992
vát	-11.4994
▁ptát	-11.4994
▁převyšuj	-11.4995
▁tvůrc	-11.5003
antní	-11.5004
▁skladb	-11.5006
tové	-11.5008
snad	-11.5009
▁zastávk	-11.5009
▁vyvážen	-11.5011
▁Američanů	-11.5013
znal	-11.5013
▁matematické	-11.5015
elná	-11.5016
▁stálý	-11.5016
▁Hus	-11.5024
▁dramatické	-11.5024
▁místopředsedy	-11.5024
▁útoků	-11.5025
▁souhlasil	-11.5025
▁činitel	-11.5026
▁vložené	-11.5027
▁hory	-11.5031
▁automobilové	-11.5034
▁rozdílné	-11.5034
▁tradičních	-11.5039
kových	-11.5041
stavovat	-11.5042
krás	-11.5044
▁6,	-11.5055
▁tkání	-11.5055
▁způsobí	-11.5055
hrnul	-11.5056
▁deviz	-11.506
▁vlastníka	-11.5061
▁nebýval	-11.5061
tvořily	-11.5062
▁náboženský	-11.5064
▁varianta	-11.5068
▁dlužník	-11.507
stran	-11.5073
▁72	-11.5079
▁příjemně	-11.5085
▁postupuje	-11.5088
▁rozumí	-11.5095
stupující	-11.51
řad	-11.5101
živí	-11.5107
▁rekordní	-11.5111
ash	-11.5113
trhl	-11.5115
nově	-11.5118
ativní	-11.5125
svědčil	-11.5126
▁nejlepšími	-11.5129
áty	-11.5129
▁dobro	-11.5135
▁skutečným	-11.5137
▁pomohla	-11.5139
▁prokázán	-11.514
▁evoluční	-11.5144
dáte	-11.5145
▁světle	-11.5148
▁AC	-11.5151
▁síťové	-11.5152
▁kout	-11.5155
rý	-11.5155
▁demokrat	-11.5169
pouštět	-11.5169
▁resort	-11.5175
▁stručn	-11.5187
▁hodině	-11.519
alba	-11.5191
▁soustav	-11.5193
ER	-11.5198
▁Žádn	-11.5198
▁vhodný	-11.5204
▁(2	-11.5205
řez	-11.5205
▁použitím	-11.5207
36	-11.5208
▁doufá	-11.521
▁malém	-11.5212
▁aspekt	-11.5217
▁stimul	-11.5217
▁Obchod	-11.5218
▁párů	-11.5221
▁uvědomil	-11.5223
▁Kan	-11.5225
▁uživatelské	-11.5225
vědčí	-11.5228
bez	-11.5231
▁bytový	-11.5236
třel	-11.5237
▁opačné	-11.5237
ánek	-11.5243
▁obran	-11.5243
▁položen	-11.5243
vydržel	-11.5246
▁Vznikl	-11.5248
▁vyjadřuj	-11.5249
ovice	-11.525
▁důchod	-11.5252
obyčejně	-11.5263
▁politickým	-11.5264
▁postoupil	-11.5265
6.	-11.5266
▁jede	-11.5277
stupovat	-11.5285
▁široký	-11.5288
▁nepříjemn	-11.5303
▁přistoupil	-11.5307
podivu	-11.5307
▁Vysok	-11.5307
rej	-11.5318
▁dán	-11.5319
▁cítím	-11.5327
▁přírodovědeck	-11.5328
obr	-11.5331
▁vyvinul	-11.5331
▁vzrostl	-11.5333
ičku	-11.5334
▁obchodník	-11.5336
▁znalost	-11.5337
▁kontrast	-11.5339
rně	-11.534
▁konstatova	-11.5341
▁Atlant	-11.5341
evropský	-11.5341
▁leckd	-11.5345
▁krásný	-11.5347
▁astronom	-11.5349
▁strážník	-11.5351
atřicet	-11.5352
▁pocházejí	-11.5354
▁laboratoř	-11.5354
▁ohně	-11.5354
▁čtvereční	-11.5355
▁klobouk	-11.5356
▁tratí	-11.5356
▁násilí	-11.5356
▁design	-11.5357
▁kodex	-11.5358
▁ideál	-11.5359
▁Word	-11.536
▁autorit	-11.536
hodinový	-11.5361
▁svatb	-11.5361
▁cement	-11.5363
▁výhodný	-11.5366
▁připomínk	-11.5367
▁rytíř	-11.537
▁Morav	-11.5371
▁uplatňuj	-11.5372
hlížel	-11.5373
▁předák	-11.5376
RS	-11.5378
štění	-11.5378
▁závislost	-11.5378
▁trvalý	-11.538
▁jakoukoli	-11.5384
▁Rakušan	-11.5387
▁Každé	-11.5388
▁použije	-11.5388
▁infekc	-11.5389
▁kluk	-11.5393
▁vzrůst	-11.5393
rovnání	-11.5394
▁uzavřený	-11.5394
▁William	-11.5395
▁Eli	-11.5395
klep	-11.5397
krývají	-11.5399
▁nazvaný	-11.5399
▁označován	-11.5401
▁pozván	-11.5402
▁komfort	-11.5402
▁elektrod	-11.5402
▁fenomén	-11.5403
▁Kraj	-11.5404
EP	-11.5405
▁stálo	-11.5406
▁Určit	-11.5407
čítat	-11.5409
▁fyzick	-11.5409
▁Janov	-11.5411
▁penzi	-11.5413
▁měřit	-11.5414
▁sediment	-11.5415
▁Kolumbi	-11.5419
▁zjednodušen	-11.542
▁zajímavost	-11.542
vážet	-11.5425
▁uplatňova	-11.5427
▁Jenom	-11.5429
▁nevznik	-11.5429
▁KSČ	-11.5429
▁bezpečně	-11.5431
JPEG	-11.5431
▁1983	-11.5431
▁Austrálie	-11.5431
▁Ludvík	-11.5431
▁Mitterrand	-11.5431
▁Návrat	-11.5431
▁Pistol	-11.5431
▁Vešker	-11.5431
▁WWW	-11.5431
▁bankovnictví	-11.5431
▁definice	-11.5431
▁deklaraci	-11.5431
▁federaci	-11.5431
▁fungování	-11.5431
▁hardwarov	-11.5431
▁infarkt	-11.5431
▁interiér	-11.5431
▁kampaně	-11.5431
▁konfigurace	-11.5431
▁konkurovat	-11.5431
▁literatuře	-11.5431
▁odpovědět	-11.5431
▁pojišťovnou	-11.5431
▁populaci	-11.5431
▁problematice	-11.5431
▁prozradil	-11.5431
▁předpovědi	-11.5431
▁přerozdělování	-11.5431
▁rekreaci	-11.5431
▁rubrice	-11.5431
▁symplektick	-11.5431
▁tiskáren	-11.5431
▁trénovat	-11.5431
▁vypráví	-11.5431
▁vzbudil	-11.5431
▁zapomenout	-11.5431
▁zaručit	-11.5431
▁zákulisí	-11.5431
▁špatnou	-11.5431
přízeň	-11.5431
▁Právo	-11.5431
▁důležitější	-11.5431
▁nukleární	-11.5431
▁plošný	-11.5431
▁předvánoční	-11.5431
▁reagují	-11.5431
▁stráví	-11.5431
▁vláken	-11.5431
▁východoevropský	-11.5431
▁účinné	-11.5431
▁Ctrl	-11.5431
▁Francií	-11.5431
▁Oldřich	-11.5431
▁praktik	-11.5431
▁ujistil	-11.5431
▁zastupuje	-11.5431
▁Kurzy	-11.5431
▁ustavující	-11.5431
▁značku	-11.5431
▁Četrans	-11.5431
▁elementární	-11.5431
▁jednodušší	-11.5431
▁povolební	-11.5431
▁přípustn	-11.5431
▁rozdělí	-11.5431
▁mikrofon	-11.5431
▁nabídek	-11.5431
▁taxonomie	-11.5431
▁vrstva	-11.5431
▁multi	-11.5431
▁popředí	-11.5431
▁úložiště	-11.5431
▁desek	-11.5431
▁ovládací	-11.5431
▁Pivovar	-11.5431
▁uplatňován	-11.5431
▁rozvíjet	-11.5431
▁lázní	-11.5431
▁rozsáhlejší	-11.5431
▁tolerance	-11.5431
▁léčbu	-11.5431
▁učiní	-11.5431
▁poušti	-11.5431
▁realizace	-11.5431
▁komunikační	-11.5431
▁FBIS	-11.5431
▁firmách	-11.5432
▁zánět	-11.5432
▁Soulu	-11.5432
▁vyžadovat	-11.5432
▁šipk	-11.5432
ford	-11.5432
▁Moravia	-11.5432
▁bankrot	-11.5432
▁zabránil	-11.5432
▁češtiny	-11.5432
▁fází	-11.5432
▁poptávku	-11.5432
▁dotaci	-11.5432
▁Setkání	-11.5432
▁komunit	-11.5432
▁distribuční	-11.5432
▁robot	-11.5432
▁Značn	-11.5432
▁sníh	-11.5432
▁1976	-11.5432
▁Nechci	-11.5432
▁spotřeba	-11.5432
▁holub	-11.5432
▁fakticky	-11.5432
▁faul	-11.5432
▁nominaci	-11.5432
▁toxické	-11.5432
▁kameny	-11.5433
▁Vzá	-11.5433
▁pestr	-11.5433
▁Cítí	-11.5433
▁vyslovit	-11.5433
▁publikaci	-11.5433
▁vyprávěl	-11.5433
▁plaz	-11.5433
▁ČSD	-11.5433
▁líčí	-11.5433
▁obchodovat	-11.5433
▁vysloužil	-11.5434
▁podobnou	-11.5434
▁vynutil	-11.5434
▁všední	-11.5434
▁bál	-11.5434
▁Data	-11.5435
chybějí	-11.5435
▁produkcí	-11.5435
▁vystavuje	-11.5436
▁stád	-11.5436
▁dvoudenní	-11.5436
▁mezistátní	-11.5437
▁Maďarskem	-11.5437
▁Informace	-11.5437
▁novotvary	-11.5438
▁umělci	-11.5438
▁mediální	-11.5438
▁hepatocytů	-11.5438
▁přijatelná	-11.5438
▁volající	-11.5438
▁zajišťující	-11.5439
▁vydávat	-11.5439
▁cestách	-11.5439
▁seskupení	-11.5439
▁zimy	-11.5439
▁kardinál	-11.544
▁připraví	-11.544
▁desetkrát	-11.544
▁konsensus	-11.5441
▁hospodaří	-11.5441
▁odsoudil	-11.5441
▁výšky	-11.5441
▁nestátní	-11.5441
▁palubě	-11.5441
▁Kladně	-11.5441
▁spektra	-11.5441
▁významnější	-11.5441
▁vlasy	-11.5442
▁tendence	-11.5442
▁ředitelství	-11.5442
▁předloží	-11.5443
▁vyhodnocení	-11.5444
▁pozoruhodné	-11.5445
▁altruismus	-11.5445
▁vysílací	-11.5446
▁cokoli	-11.5446
▁zvířecí	-11.5446
▁mlhy	-11.5446
▁konání	-11.5446
▁distributor	-11.5447
▁nouze	-11.5447
▁desetin	-11.5447
▁krajině	-11.5447
▁jednotlivce	-11.5449
▁ekonomikou	-11.5449
▁pomáhají	-11.545
ousek	-11.545
▁komentátor	-11.545
▁Vstup	-11.5451
▁jistotou	-11.5451
▁pořádek	-11.5452
▁zatížení	-11.5452
▁pokrýt	-11.5452
▁vyhrát	-11.5452
▁řádku	-11.5453
▁hudbu	-11.5454
▁nástupce	-11.5454
▁válečný	-11.5454
▁oceánické	-11.5454
▁Číně	-11.5455
▁pásmu	-11.5455
▁různě	-11.5455
▁prokázat	-11.5456
▁trasy	-11.5456
▁zeď	-11.5457
▁dosáhne	-11.5457
▁Šlo	-11.5457
▁evropskou	-11.5457
▁modelování	-11.5458
▁pozorovatelé	-11.5459
▁sestaven	-11.5459
▁analýze	-11.5459
▁faktorem	-11.5459
▁řetězce	-11.5459
▁ránu	-11.5459
▁předkol	-11.546
▁sumu	-11.5461
▁vědce	-11.5462
▁ekonomiku	-11.5464
▁přesností	-11.5464
▁vybojoval	-11.5465
▁autobusem	-11.5465
▁zkušen	-11.5467
▁soukromí	-11.5467
▁dodavatelů	-11.5467
▁startovat	-11.5467
▁kurzů	-11.5467
▁bránil	-11.5467
jížděl	-11.5468
kontroluje	-11.5468
▁dřevěné	-11.5469
▁vyloučeno	-11.5469
▁uchazeč	-11.5472
▁vyřazení	-11.5472
▁nuly	-11.5472
▁směřující	-11.5472
ismem	-11.5474
icí	-11.5474
▁podepsání	-11.5475
▁zmínil	-11.5475
▁uvítal	-11.5476
▁motorem	-11.5476
ovitých	-11.5476
▁dopisů	-11.5477
▁dodávat	-11.5477
▁pokladny	-11.5477
▁virus	-11.5477
▁Domnívám	-11.5477
▁porod	-11.5479
▁středoevropské	-11.5479
▁zvykem	-11.5479
▁hormonů	-11.548
▁Lidový	-11.548
▁technickou	-11.5481
▁návštěvníky	-11.5482
▁přeprav	-11.5482
▁61	-11.5482
▁kalendářní	-11.5482
▁listiny	-11.5483
▁Chebu	-11.5483
▁nedokáže	-11.5484
▁středověku	-11.5485
▁Var	-11.5487
▁rozpočtový	-11.5487
▁úhradu	-11.5488
▁zastává	-11.5489
▁Bratinka	-11.5489
▁Alžběta	-11.5489
▁kulturu	-11.5489
▁Syn	-11.549
▁slavnosti	-11.549
▁diváky	-11.5491
▁kanály	-11.5491
▁dopadl	-11.5491
▁větru	-11.5493
▁marketingu	-11.5494
▁etapa	-11.5494
17	-11.5494
▁účinků	-11.5494
díval	-11.5495
▁telefonů	-11.5495
▁Ger	-11.5495
▁Saúdsk	-11.5496
▁vyloučení	-11.5498
▁táhn	-11.5499
▁badatel	-11.5499
▁citeln	-11.5499
▁přispívají	-11.5503
▁disciplíny	-11.5503
▁odstupné	-11.5504
▁dozvěděli	-11.5507
▁staro	-11.5507
▁230	-11.5508
▁délky	-11.5508
▁hosté	-11.5509
▁opakuje	-11.5511
▁přístavu	-11.5512
▁Francouzský	-11.5512
▁nepod	-11.5513
▁postaví	-11.5513
▁dospělých	-11.5515
▁odvezl	-11.5516
▁následné	-11.5517
▁zločiny	-11.5517
▁autobusové	-11.5518
▁stoupla	-11.5518
▁útvaru	-11.5518
▁vybrali	-11.5519
věří	-11.5519
▁zodpovězen	-11.5519
hodná	-11.5519
ess	-11.552
▁Anna	-11.5521
▁dluhy	-11.5522
▁aparátu	-11.5522
▁nositel	-11.5523
▁šťastný	-11.5525
▁návratnost	-11.5527
▁Historick	-11.5527
▁pořádání	-11.5528
▁vzrostla	-11.5532
▁městem	-11.5533
▁vědecky	-11.5533
▁aplikacemi	-11.5533
▁nevěděli	-11.5534
▁ledu	-11.5538
▁horké	-11.5539
▁nastane	-11.554
▁svěřil	-11.5541
▁hladinu	-11.5542
▁proteinu	-11.5543
▁katalogu	-11.5543
▁katastrofy	-11.5544
▁černého	-11.5546
▁samotného	-11.5547
▁liga	-11.5548
▁Možnosti	-11.5549
▁zvolení	-11.555
▁možnostech	-11.555
▁Neu	-11.5551
▁vyhledá	-11.5552
▁tématu	-11.5553
▁ostrova	-11.5553
▁nahoře	-11.5554
▁nejbližším	-11.5555
▁Hilla	-11.5556
▁titulem	-11.5557
▁Park	-11.5558
zanedbateln	-11.5563
▁přísné	-11.5563
▁klesla	-11.5565
▁chaty	-11.5565
▁Fakt	-11.5566
▁úspěšných	-11.5566
▁vysokým	-11.5566
▁druhých	-11.5566
víz	-11.5566
▁investici	-11.5567
▁odklad	-11.5569
▁řešil	-11.5571
▁nemáte	-11.5571
▁Sever	-11.5572
▁nazvané	-11.5572
▁obchodníky	-11.5572
▁nezávislosti	-11.5574
▁signály	-11.5574
▁Perské	-11.5574
▁kurzy	-11.5575
▁Muži	-11.5575
▁pohybů	-11.5579
▁objevilo	-11.5579
kově	-11.5582
▁rezervy	-11.5583
▁dramatick	-11.5583
▁tréninku	-11.5585
▁radí	-11.5585
▁přip	-11.5587
panuje	-11.5587
▁Dne	-11.5587
▁zaměstnavateli	-11.559
▁děd	-11.5595
▁Gen	-11.5598
▁psa	-11.56
▁zobraz	-11.56
▁editoru	-11.5601
▁představila	-11.5603
▁dovnitř	-11.5604
▁dobrém	-11.5606
▁góly	-11.5606
munist	-11.5607
▁Pal	-11.5612
hořel	-11.5612
▁Dán	-11.5613
▁rock	-11.5614
▁nechtěli	-11.5615
▁udělala	-11.5615
rot	-11.5617
▁jedinečn	-11.5618
▁odporu	-11.5618
▁Prof	-11.562
▁kanceláři	-11.5621
▁nepřímo	-11.5623
ván	-11.5624
▁založili	-11.5625
▁kursu	-11.5628
▁dotazy	-11.5629
▁statistick	-11.5629
▁hrd	-11.5632
▁vítězem	-11.5634
▁vyjádřen	-11.5635
uad	-11.5636
▁podzimu	-11.5637
▁požádala	-11.5639
▁filmař	-11.5642
▁přítel	-11.5645
▁stěn	-11.5648
atrně	-11.5648
▁umělý	-11.5649
▁uši	-11.5649
▁Americké	-11.5651
▁off	-11.5651
▁dotazu	-11.5654
▁hromadné	-11.5656
▁kapacita	-11.5659
▁známy	-11.5662
graf	-11.5666
▁sbír	-11.5667
▁sub	-11.5669
▁odstoupil	-11.567
97	-11.567
▁volání	-11.5671
▁zápasech	-11.5672
dával	-11.5672
▁bitv	-11.5672
▁vlastníky	-11.5673
▁osobním	-11.5674
▁zabezpeč	-11.5677
děláme	-11.5678
skému	-11.568
▁nedělním	-11.5682
▁zub	-11.5684
pokládat	-11.5686
▁upravené	-11.5688
▁nabídla	-11.569
psaný	-11.569
trpěl	-11.5693
izované	-11.5694
▁Žen	-11.5694
méno	-11.5697
▁Černé	-11.5697
příště	-11.5698
▁samém	-11.5699
UM	-11.5702
▁jasný	-11.5703
▁nacházejí	-11.5704
▁zajímav	-11.5706
▁dokonalý	-11.5712
▁prostý	-11.5712
nej	-11.5713
▁královské	-11.5718
▁logik	-11.5721
▁generálním	-11.5723
nar	-11.5723
▁Počítá	-11.5723
kupuje	-11.5723
▁českému	-11.5724
▁českými	-11.5724
večer	-11.5724
▁majetkové	-11.5724
▁Způsob	-11.5725
▁časy	-11.5729
čkách	-11.5732
▁podrob	-11.5733
čištění	-11.5738
▁Jejím	-11.574
▁vložil	-11.5743
▁cizím	-11.5746
▁krátkém	-11.5752
počítat	-11.5752
▁disky	-11.5754
který	-11.5754
▁kamarád	-11.5755
bytová	-11.5755
▁poradenské	-11.5763
▁obecný	-11.5768
▁nařídil	-11.5773
NSK	-11.5779
▁představa	-11.578
visí	-11.578
▁jakosti	-11.5781
▁knihovn	-11.5783
ávání	-11.5785
▁chud	-11.5786
▁dosáhli	-11.5789
▁obcích	-11.579
▁stres	-11.5793
▁Hodn	-11.5799
obec	-11.5802
▁šetřit	-11.5804
▁faktor	-11.5804
ding	-11.5805
▁prah	-11.5811
▁pravým	-11.5812
▁nedělá	-11.5812
▁vytvořené	-11.5813
▁vyroben	-11.5815
▁polární	-11.5815
sit	-11.5815
▁maso	-11.5816
▁vypracoval	-11.5819
▁Softwar	-11.5819
▁jednáním	-11.5822
▁Casimir	-11.5823
▁Bab	-11.5825
▁předků	-11.5827
▁uvolni	-11.5829
▁měnil	-11.5831
▁náhradník	-11.5835
▁Borise	-11.5842
▁logický	-11.5843
▁budoucím	-11.5843
▁starších	-11.5845
zkoumat	-11.5845
▁moderního	-11.5846
kova	-11.5849
▁hodnotit	-11.585
▁veliká	-11.5853
hru	-11.5853
hlédnout	-11.5864
▁chyt	-11.5865
▁nabízené	-11.5866
sadili	-11.5866
zdrav	-11.587
▁příznivc	-11.5873
▁kapitol	-11.5874
členný	-11.5876
▁mužem	-11.5877
▁Har	-11.5879
▁Pel	-11.5881
▁osobou	-11.5881
▁dávky	-11.5888
▁omyl	-11.5893
▁4000	-11.5896
▁velitele	-11.5897
▁prodával	-11.59
▁trávi	-11.59
▁překonal	-11.5908
▁sluch	-11.591
▁Mladiče	-11.5911
▁Kos	-11.5912
ME	-11.5915
▁sobotním	-11.5916
▁zřetelně	-11.5917
kování	-11.5917
▁Výstav	-11.5919
▁slušný	-11.592
▁dostával	-11.592
drobnější	-11.5924
▁Ken	-11.5925
1%	-11.5928
▁špatný	-11.5932
staly	-11.5933
▁Podpor	-11.5936
▁říkal	-11.594
▁Las	-11.5944
▁dodá	-11.5945
ocel	-11.5946
káže	-11.595
▁kanál	-11.5952
▁Druh	-11.5954
▁foto	-11.5955
▁Kanad	-11.5955
▁podrobně	-11.5958
▁Bre	-11.5958
▁poškozen	-11.5961
▁udělen	-11.5962
▁divák	-11.5964
▁doprovod	-11.5971
▁socialist	-11.5973
▁statistik	-11.5979
▁zmizel	-11.5982
rová	-11.5983
▁písmen	-11.5985
znamenal	-11.5988
▁proveden	-11.5991
▁94	-11.5993
▁splněn	-11.5994
▁Daně	-11.5997
▁proměnliv	-11.6005
1972	-11.6008
▁výplat	-11.6009
▁kříže	-11.6009
▁strašn	-11.6009
konaly	-11.601
▁problémům	-11.6013
poskytla	-11.6016
jednává	-11.6016
▁ovlivnil	-11.6018
JE	-11.6019
▁kapel	-11.6019
▁žádají	-11.602
▁Bob	-11.602
ůbec	-11.6021
▁kosti	-11.6021
▁Hill	-11.6022
▁pout	-11.6023
▁poražen	-11.6024
▁obrovsk	-11.6024
▁racionální	-11.6029
▁pane	-11.6034
▁Real	-11.6037
▁poplatník	-11.6041
▁Lendl	-11.6043
▁popularit	-11.6044
▁zveřejnil	-11.6045
bitový	-11.6046
▁domácnost	-11.6047
daná	-11.6048
▁nemovitost	-11.6052
▁pozic	-11.6053
▁televizním	-11.606
▁charakterizova	-11.6061
▁svazk	-11.6064
▁žádného	-11.6064
▁41	-11.6065
▁bývalým	-11.6066
▁vězni	-11.6067
vlas	-11.6068
malý	-11.6069
▁občanský	-11.607
▁politickém	-11.607
▁myš	-11.6073
▁chaos	-11.6074
▁něčem	-11.6074
▁53	-11.6075
střílel	-11.6078
▁poslání	-11.6078
SKO	-11.608
▁interval	-11.608
▁myslel	-11.608
▁ovládá	-11.608
▁šesté	-11.608
▁spravedlnost	-11.6081
▁odběratelů	-11.6082
▁uzavře	-11.6085
▁chrání	-11.6086
SM	-11.6087
nské	-11.6087
▁verzí	-11.6089
▁ženské	-11.6089
vodně	-11.6091
gramů	-11.6092
▁poskytován	-11.6093
▁propojen	-11.6093
NU	-11.6095
▁zklamán	-11.6096
▁tržb	-11.6099
▁TV	-11.6101
▁zatčen	-11.6102
▁nemocné	-11.6102
▁naplněn	-11.6103
▁obezit	-11.6106
plyn	-11.6106
isty	-11.6107
▁honorář	-11.6108
▁bilanc	-11.6109
▁trhů	-11.6109
90	-11.6109
▁kamer	-11.6109
▁Víc	-11.611
▁komet	-11.6111
▁Míst	-11.6113
▁touží	-11.6117
▁doporučen	-11.6117
▁způsobeno	-11.6119
▁zvyšují	-11.6119
▁odvet	-11.612
▁oblib	-11.6121
▁fundamentalist	-11.6126
▁mechanick	-11.6129
▁kilogram	-11.613
▁prodávající	-11.613
▁Mistr	-11.6134
▁doprav	-11.6137
hrával	-11.6139
rozhodoval	-11.6139
▁obdobím	-11.6139
árek	-11.614
▁vycházejí	-11.6142
▁lacin	-11.6142
▁učit	-11.6143
▁Dlouho	-11.6145
▁velvyslanec	-11.6145
▁Hospodářsk	-11.6145
▁Reichel	-11.6145
▁SPIRIT	-11.6145
▁brožur	-11.6145
▁komisař	-11.6145
▁milisekund	-11.6145
▁Akademie	-11.6145
▁Albertville	-11.6145
▁Bratislavy	-11.6145
▁Delphi	-11.6145
▁Dennett	-11.6145
▁Digital	-11.6145
▁General	-11.6145
▁Netanjahu	-11.6145
▁Němce	-11.6145
▁Princip	-11.6145
▁Pálffy	-11.6145
▁TWA	-11.6145
▁Teplice	-11.6145
▁Vynikající	-11.6145
▁databáze	-11.6145
▁databázi	-11.6145
▁dveřmi	-11.6145
▁emitent	-11.6145
▁havárii	-11.6145
▁informuje	-11.6145
▁inzulín	-11.6145
▁kanalizací	-11.6145
▁katalyzátor	-11.6145
▁komedie	-11.6145
▁komodit	-11.6145
▁kompetencí	-11.6145
▁kultuře	-11.6145
▁lidstvo	-11.6145
▁nechybí	-11.6145
▁nesrovnateln	-11.6145
▁nosorožců	-11.6145
▁obyvatelstvo	-11.6145
▁odpolední	-11.6145
▁olomoucké	-11.6145
▁omezit	-11.6145
▁pohodlné	-11.6145
▁pojišťoven	-11.6145
▁pojišťovně	-11.6145
▁portfeje	-11.6145
▁poštovní	-11.6145
▁přeplněn	-11.6145
▁přísluší	-11.6145
▁raketoplán	-11.6145
▁sféře	-11.6145
▁smířit	-11.6145
▁splátek	-11.6145
▁těhotenství	-11.6145
▁vrtulník	-11.6145
▁zahájit	-11.6145
▁zaručuje	-11.6145
▁zdůraznit	-11.6145
▁zneužívání	-11.6145
▁zopakoval	-11.6145
▁zpracovává	-11.6145
▁záruční	-11.6145
▁účinnou	-11.6145
▁Černomyrdin	-11.6145
▁železné	-11.6145
▁SGI	-11.6145
▁Zajímal	-11.6145
▁lehký	-11.6145
▁odstavec	-11.6145
▁svrchované	-11.6145
▁James	-11.6145
▁Kadlec	-11.6145
▁loupež	-11.6145
▁podepsat	-11.6145
▁dávek	-11.6145
▁nejblíže	-11.6145
▁nikomu	-11.6145
▁někomu	-11.6145
▁přetížen	-11.6145
▁Mlýn	-11.6145
▁Prahou	-11.6145
▁netrpěliv	-11.6145
▁odhalit	-11.6145
▁prováděl	-11.6145
▁poznámky	-11.6145
▁mutací	-11.6145
▁Automatick	-11.6145
▁vybudoval	-11.6145
▁Fuchs	-11.6145
▁PŘI	-11.6145
▁něčeho	-11.6145
▁pořizovací	-11.6145
▁umírněn	-11.6145
LSNS	-11.6145
▁Bohuslav	-11.6145
▁legendární	-11.6145
▁Louis	-11.6145
▁Zpráv	-11.6145
▁Front	-11.6145
▁ceremoniál	-11.6145
▁chystají	-11.6145
▁formálně	-11.6145
▁hokejistů	-11.6145
▁FMV	-11.6145
▁mocenské	-11.6145
▁dědeček	-11.6145
▁Opava	-11.6145
▁lákav	-11.6145
▁nedaleké	-11.6145
▁kapsy	-11.6145
▁Samotn	-11.6145
▁implantát	-11.6145
▁fotografií	-11.6145
▁chleba	-11.6146
▁nazvat	-11.6146
hánějí	-11.6146
▁Kouba	-11.6146
▁diktátor	-11.6146
▁Účastníci	-11.6146
▁stromeček	-11.6146
▁zmizí	-11.6146
▁písmo	-11.6146
▁oblouk	-11.6146
▁vyhořelé	-11.6146
▁paměť	-11.6146
▁registrační	-11.6146
▁1979	-11.6146
▁Hledá	-11.6146
▁usedl	-11.6146
▁štědr	-11.6146
▁podporoval	-11.6146
▁nepodaří	-11.6146
▁transport	-11.6146
▁pojmu	-11.6146
▁ležel	-11.6146
▁stimulaci	-11.6146
▁Zápas	-11.6146
▁pískov	-11.6146
▁Španělsku	-11.6146
▁pátku	-11.6146
▁málokdo	-11.6146
▁ultra	-11.6146
▁Přenos	-11.6146
▁účinnější	-11.6146
▁nikam	-11.6146
▁odezv	-11.6146
▁vejce	-11.6146
▁zakázek	-11.6146
▁jinam	-11.6146
▁Následující	-11.6146
kryt	-11.6146
▁vyprš	-11.6146
▁zády	-11.6147
▁1970	-11.6147
▁umělců	-11.6147
▁nikde	-11.6147
▁Suková	-11.6147
▁zranil	-11.6147
▁inteligence	-11.6147
▁střelec	-11.6147
▁hraček	-11.6147
▁starat	-11.6148
▁posílit	-11.6148
▁Jaw	-11.6148
▁stanovisku	-11.6148
▁Stef	-11.6148
▁Kováč	-11.6148
▁Obavy	-11.6148
vracení	-11.6148
▁třídenní	-11.6148
▁KGB	-11.6148
zdobí	-11.6148
▁koncept	-11.6148
▁vyzkoušet	-11.6148
▁dovednost	-11.6148
▁sněmu	-11.6148
▁vyhledávání	-11.6149
entní	-11.6149
▁simul	-11.6149
▁Jágr	-11.6149
▁manželkou	-11.6149
▁odnětí	-11.6149
▁lékařství	-11.6149
▁Československý	-11.6149
▁zasvěcen	-11.6149
▁železnice	-11.6149
▁palet	-11.615
▁deště	-11.615
▁příloh	-11.615
▁zelené	-11.615
▁Snah	-11.615
▁Ježek	-11.615
▁berou	-11.615
▁okně	-11.6151
▁Dostál	-11.6151
▁bohatší	-11.6151
▁Indián	-11.6151
▁přenáší	-11.6151
▁topení	-11.6151
▁řadič	-11.6151
▁deska	-11.6152
▁výsad	-11.6152
▁stadiu	-11.6152
▁neznají	-11.6152
přát	-11.6152
▁články	-11.6152
▁překonání	-11.6153
▁kolegové	-11.6153
▁kouření	-11.6154
▁Kovohut	-11.6154
▁terč	-11.6154
▁nejsme	-11.6154
extrémně	-11.6155
▁oběhové	-11.6155
▁ordinace	-11.6155
▁zkoumání	-11.6155
▁jasná	-11.6155
▁odstoupení	-11.6155
▁vyrazil	-11.6156
▁konstantní	-11.6156
▁spolupracuje	-11.6156
▁organismy	-11.6157
▁dostání	-11.6157
▁France	-11.6157
▁602	-11.6158
▁šancí	-11.6158
▁lahví	-11.6158
▁rozměry	-11.6159
▁říční	-11.6159
▁Januš	-11.6159
▁kopií	-11.6159
▁novinky	-11.616
▁stěžuje	-11.616
formulovat	-11.616
▁tekutin	-11.616
▁oběť	-11.616
▁křesťanské	-11.616
▁radikálně	-11.6161
▁sešla	-11.6161
▁Dvou	-11.6161
▁Čína	-11.6162
žili	-11.6162
▁stáj	-11.6163
▁rozsáhlou	-11.6163
▁nechut	-11.6163
▁sloučení	-11.6164
čínsk	-11.6164
▁závazku	-11.6164
▁adaptace	-11.6164
▁nedají	-11.6164
▁cla	-11.6164
▁nehraje	-11.6164
▁zařadit	-11.6164
kdy	-11.6164
▁známky	-11.6165
▁výměně	-11.6165
▁srovnateln	-11.6166
▁regionů	-11.6166
▁příznaky	-11.6166
▁vzdálený	-11.6167
▁Student	-11.6167
▁ČESK	-11.6167
▁půlnoci	-11.6167
▁odletěl	-11.6167
▁dobrovolně	-11.6167
▁skrz	-11.6168
▁stížností	-11.6168
▁zájezdů	-11.6168
▁záchranu	-11.6168
▁teroristický	-11.6169
▁představovat	-11.6169
31	-11.617
▁odhalení	-11.617
▁Švédsko	-11.617
▁případném	-11.6171
atřicetilet	-11.6171
▁Open	-11.6171
▁Alp	-11.6171
▁způsobilosti	-11.6172
▁ropy	-11.6172
▁dodržovat	-11.6173
▁pozorovatel	-11.6173
▁výměnou	-11.6174
▁pitné	-11.6174
▁etapu	-11.6175
▁stručně	-11.6176
▁neuvažuje	-11.6176
▁ponechal	-11.6176
▁basketbalist	-11.6176
▁drát	-11.6177
▁teoreticky	-11.6178
▁bodech	-11.6178
▁činitelé	-11.6178
▁funkcionářů	-11.6178
ázev	-11.6178
▁Místopředsed	-11.6178
▁Mnichově	-11.6179
▁hudba	-11.6179
▁Clintonová	-11.6179
▁kolena	-11.618
▁dopravou	-11.6181
▁věcech	-11.6182
▁prodejen	-11.6182
▁honoráře	-11.6183
▁Střední	-11.6183
▁Rakousko	-11.6183
▁svatého	-11.6184
▁pětatřicet	-11.6184
▁čtyřlet	-11.6184
▁publikum	-11.6184
tát	-11.6185
▁předpokladů	-11.6185
▁schopný	-11.6186
▁plánuje	-11.6187
▁pojmem	-11.6187
▁porážky	-11.6188
▁Chorvatsku	-11.6188
▁vídeňské	-11.6189
▁vlastnostmi	-11.6189
▁dostanete	-11.6189
▁psací	-11.6189
▁ukazatel	-11.619
▁zdálo	-11.619
▁větě	-11.6191
reform	-11.6191
▁provádění	-11.6191
▁znakem	-11.6191
▁mřížky	-11.6192
▁zhoršil	-11.6192
▁rakouských	-11.6193
▁drsn	-11.6193
▁působnost	-11.6193
▁soukromá	-11.6194
▁náhrada	-11.6194
▁spořitelny	-11.6194
▁lokality	-11.6195
▁zklamání	-11.6195
▁tématem	-11.6195
▁neshody	-11.6195
▁Bonnu	-11.6195
▁pleti	-11.6196
▁nervové	-11.6197
▁kostr	-11.6198
▁dovedl	-11.6198
IE	-11.6198
▁zpožděním	-11.6198
▁kůry	-11.6199
ovského	-11.6199
▁zakládání	-11.6199
▁hrací	-11.62
luje	-11.62
▁Výborný	-11.6201
smluvně	-11.6202
▁rohu	-11.6202
▁symbolem	-11.6202
lle	-11.6202
▁had	-11.6203
átory	-11.6203
▁Adam	-11.6206
▁sedmnácti	-11.6208
dík	-11.6209
▁Kanady	-11.6209
▁buněčné	-11.621
▁teplotou	-11.621
▁popsal	-11.621
▁jednorázové	-11.6212
▁hezké	-11.6212
▁uloženy	-11.6214
▁směsi	-11.6215
▁nepříznivý	-11.6217
zemědělská	-11.6218
▁kostele	-11.6219
▁thajské	-11.6219
▁činitelů	-11.622
▁ostré	-11.622
▁organismus	-11.622
vážil	-11.622
▁skladby	-11.6221
▁většinový	-11.6223
▁Strany	-11.6223
▁finálové	-11.6223
▁programech	-11.6223
▁paláci	-11.6223
▁popel	-11.6224
▁Západní	-11.6224
▁lidskou	-11.6225
▁přesněji	-11.6226
▁gólem	-11.6227
▁čtverečních	-11.6227
▁kyseliny	-11.6228
▁srbské	-11.6228
▁přestupu	-11.6229
▁hormony	-11.623
▁umožnilo	-11.623
▁pochopili	-11.6231
▁Brod	-11.6232
▁diskety	-11.6233
ňovat	-11.6233
▁modré	-11.6234
▁Červen	-11.6236
▁POD	-11.6236
▁kolegům	-11.6237
▁viditeln	-11.6238
▁autobusu	-11.624
▁zajišťoval	-11.624
▁skoky	-11.624
▁bere	-11.6243
ografie	-11.6245
▁Jelcinovi	-11.6251
▁Řím	-11.6251
▁ceníku	-11.6252
▁Voj	-11.6254
500	-11.6255
▁použito	-11.6255
▁zmizela	-11.6255
▁dluhu	-11.6256
▁startem	-11.6257
▁kontaktů	-11.6258
▁podob	-11.6259
▁okolnosti	-11.6261
dána	-11.6261
konkurenceschopn	-11.6263
▁nemůžete	-11.6263
▁kdybych	-11.6263
▁zachován	-11.6264
▁výměna	-11.6265
▁oslavil	-11.6265
▁teplotu	-11.6267
▁částech	-11.6268
▁navázal	-11.627
mět	-11.6274
▁odhadů	-11.6275
▁kancelářské	-11.6277
▁Vysoké	-11.6277
eme	-11.628
▁boty	-11.628
▁Západoevropsk	-11.6281
ladit	-11.6282
▁Map	-11.6282
92	-11.6283
▁záznamy	-11.6284
▁klientům	-11.6287
▁měnící	-11.6287
▁Firmy	-11.629
▁hrobu	-11.629
▁vníma	-11.6292
▁čerstvé	-11.6293
▁pokusili	-11.6295
▁útoky	-11.6297
▁kamenné	-11.6297
▁třídu	-11.6299
▁Obsahuj	-11.6299
▁Bulharsk	-11.63
▁nastává	-11.6301
▁novinka	-11.6302
▁mimořádného	-11.6303
▁oxid	-11.6304
▁vynález	-11.6305
hradil	-11.6306
socialistický	-11.6309
▁investory	-11.6312
▁hrdina	-11.6312
pracovala	-11.6318
▁olympijském	-11.6318
▁dohodnuté	-11.6319
▁vkládání	-11.6321
▁dobrým	-11.6322
▁trendy	-11.6323
▁příznivý	-11.6324
placení	-11.6325
▁peče	-11.6326
▁kulturním	-11.6327
psání	-11.633
rah	-11.6335
▁zúčastnili	-11.6336
LET	-11.6336
▁vyřešil	-11.6338
▁hmotné	-11.6338
▁projevů	-11.6341
▁účastí	-11.6341
▁ČT	-11.6344
▁Skutečn	-11.6344
▁Začátk	-11.6345
▁zřídka	-11.6346
▁poločas	-11.6347
▁manželů	-11.6352
▁Ul	-11.6357
čov	-11.6357
▁připravili	-11.6358
▁nároku	-11.6359
▁kapaliny	-11.636
▁provedené	-11.636
93	-11.6362
slyš	-11.6365
▁dopisu	-11.6365
což	-11.6368
▁objektem	-11.6369
▁akciový	-11.637
▁tyči	-11.6371
▁desetiletích	-11.6371
ručí	-11.6371
pisuje	-11.6372
vojí	-11.6376
▁zněl	-11.6376
▁lékařského	-11.6378
▁oboustrann	-11.6382
▁černo	-11.6384
vané	-11.6385
▁předností	-11.6385
▁tich	-11.6386
mus	-11.6388
▁trestu	-11.6393
sáhl	-11.6393
▁1:	-11.6394
rodil	-11.6394
terak	-11.6396
▁59	-11.6396
četné	-11.6397
tex	-11.6402
▁3,	-11.6406
▁Národního	-11.6407
▁zničen	-11.6407
▁vhodným	-11.6409
▁podnikem	-11.6412
▁nástrojem	-11.6414
▁motorový	-11.6415
▁listopad	-11.6416
bylo	-11.642
▁chybou	-11.6421
▁Karlov	-11.6422
▁Mont	-11.6422
▁ministry	-11.6424
jela	-11.6425
▁potvrdily	-11.6428
▁atletické	-11.6429
▁odp	-11.643
▁VE	-11.6431
78	-11.6432
▁různ	-11.6433
▁Gorbačova	-11.6434
CK	-11.6436
▁uvolnil	-11.6437
▁známého	-11.6437
▁úrokové	-11.6438
▁divákům	-11.6438
▁Nemám	-11.6439
▁úvěru	-11.6439
▁studentům	-11.6441
▁dáma	-11.6447
končit	-11.6448
▁zobrazen	-11.6448
▁vypadl	-11.6449
álních	-11.6449
pec	-11.6449
▁zasáhl	-11.6452
▁přechodné	-11.6453
▁Zájemc	-11.6453
▁Evropan	-11.6455
▁váhy	-11.6456
míněn	-11.6456
▁sovětsk	-11.6458
ničím	-11.6459
tkání	-11.6461
ovku	-11.647
▁chladné	-11.6471
▁dělit	-11.6472
▁odvod	-11.6476
yp	-11.6478
▁specifický	-11.648
▁jakýkoli	-11.6483
▁pevn	-11.6486
▁van	-11.6489
▁Hal	-11.6493
▁lékařům	-11.6496
▁čestné	-11.6498
imochodem	-11.65
▁majiteli	-11.6506
▁otazník	-11.6506
LN	-11.6511
víme	-11.6511
▁snížením	-11.6511
▁zodpovědn	-11.6512
gan	-11.6513
▁ucho	-11.6514
▁En	-11.6515
▁životem	-11.6519
ura	-11.652
▁stavem	-11.6521
▁červený	-11.6526
▁starým	-11.654
▁prezidentské	-11.6544
▁sociálním	-11.6545
▁poctiv	-11.6548
▁tenisový	-11.6548
▁Bub	-11.6549
▁vstoupí	-11.6551
▁přesnost	-11.6553
▁slavn	-11.6555
členné	-11.6556
střih	-11.6557
line	-11.6558
jan	-11.6559
▁technik	-11.6561
▁panu	-11.6564
▁výtvarný	-11.6564
▁brzd	-11.6567
wi	-11.6568
▁kolečk	-11.6571
jedna	-11.6572
rovnávání	-11.6573
▁zdokonal	-11.6578
▁závazný	-11.6581
▁stán	-11.6584
▁iniciativ	-11.6585
▁zlat	-11.6585
▁nekonečn	-11.6591
nucen	-11.6594
eně	-11.6595
ukázky	-11.6597
▁Výkon	-11.6599
▁pouč	-11.66
▁cenový	-11.6601
▁slavnost	-11.6603
svit	-11.6613
▁meziroční	-11.6614
▁Kol	-11.662
▁zvukový	-11.6624
47	-11.6628
▁očekávaný	-11.663
▁vůdc	-11.6633
▁nasazen	-11.6635
▁pětadvacet	-11.6637
▁schopné	-11.6638
▁centrál	-11.6639
nesla	-11.6642
▁pouhým	-11.6643
▁tepeln	-11.6653
▁1300	-11.6654
▁maxim	-11.666
soudí	-11.6663
které	-11.6671
▁známost	-11.6673
vládnout	-11.6675
▁vítězstvím	-11.6677
hodné	-11.6678
▁Lys	-11.6681
▁Dynam	-11.6685
▁chodil	-11.6686
▁úrokový	-11.669
▁Nebude	-11.6691
▁Dohod	-11.6692
▁plánovaný	-11.6695
označí	-11.6698
▁zisky	-11.6699
▁JAK	-11.6702
▁neprav	-11.6703
▁manipul	-11.6705
platila	-11.671
▁bra	-11.6711
▁pozorně	-11.6714
▁kated	-11.672
▁vracel	-11.6723
▁obrace	-11.6726
1992	-11.6728
▁Spart	-11.6728
▁Či	-11.673
▁Škod	-11.6735
ámek	-11.6736
▁Krkonoš	-11.6738
držet	-11.6741
▁čtvrti	-11.6741
▁hrubý	-11.6742
▁akcionáře	-11.6743
▁dovážen	-11.6747
▁statistický	-11.6747
▁fotbale	-11.6749
▁mateřsk	-11.6752
▁dvojic	-11.6754
▁skutečn	-11.6755
kazuje	-11.6755
▁popisu	-11.6755
▁lékařem	-11.6755
▁adapt	-11.6756
95	-11.6757
▁odpovědný	-11.6764
▁mála	-11.6765
▁odhadu	-11.6766
▁severním	-11.677
▁zemní	-11.6771
nových	-11.6771
▁neomezen	-11.6773
▁závad	-11.6778
▁zbyl	-11.6779
povídat	-11.6779
▁detail	-11.6779
▁západ	-11.6782
▁reálném	-11.6784
tvoří	-11.6785
cházející	-11.6788
▁penězi	-11.679
▁průhledn	-11.6791
▁ptá	-11.6791
loha	-11.6792
▁předpis	-11.6792
▁výdaj	-11.6793
▁nepřátel	-11.6793
▁Nedo	-11.6797
▁Pokus	-11.6798
▁chemick	-11.6803
▁vymezi	-11.6805
▁minul	-11.6805
▁9000	-11.6805
▁Ekonomick	-11.6807
▁úlev	-11.6813
14	-11.6815
▁nestačil	-11.6816
▁tramvaj	-11.6818
▁obrazovk	-11.682
▁otevřeno	-11.682
▁Ann	-11.6821
lech	-11.6822
▁šampionát	-11.683
▁diskusí	-11.6836
▁strav	-11.6838
▁dosahují	-11.6839
▁neúspěch	-11.6841
▁tribunál	-11.6842
▁nálad	-11.6842
▁atentát	-11.6843
▁náprav	-11.6843
▁ToolBook	-11.6844
▁Senát	-11.6845
▁orientac	-11.685
ALE	-11.6851
▁schránk	-11.6852
▁nepřítel	-11.6854
plácet	-11.6854
▁penzion	-11.6855
▁marketing	-11.6857
▁neexistují	-11.6858
▁požadovan	-11.6858
čkem	-11.6859
▁lesk	-11.686
▁pochybnost	-11.6861
rušit	-11.6862
▁zahrad	-11.6866
▁náročn	-11.6867
▁kytar	-11.6871
úpln	-11.6873
▁nádob	-11.6873
▁Zásad	-11.6875
AC	-11.6875
▁soustředěn	-11.6876
▁Lan	-11.6877
▁interak	-11.6878
▁připomínají	-11.6879
▁městečk	-11.6881
DU	-11.6881
▁vytvářen	-11.6881
▁patent	-11.6883
vým	-11.6884
čátek	-11.6885
▁kořen	-11.6885
▁39	-11.6886
▁rozprav	-11.6887
▁meteorolog	-11.6887
▁anket	-11.6888
▁totemismu	-11.689
▁Motor	-11.689
▁osvobozen	-11.6893
▁třem	-11.6896
▁větr	-11.6897
▁jeskyn	-11.6897
▁senát	-11.6897
▁tabulátor	-11.6898
▁archív	-11.6898
dávání	-11.6898
▁výrobním	-11.69
radioaktivní	-11.6901
ěsíční	-11.6901
izaci	-11.6902
efektivnost	-11.6903
▁odstín	-11.6905
krýt	-11.6907
▁muzik	-11.6909
▁prospěšn	-11.6911
▁Sport	-11.6912
▁Budějovic	-11.6913
▁efektivně	-11.6914
▁projevují	-11.6914
neobsahuje	-11.6914
restrukturalizac	-11.6914
soustředil	-11.6914
vyskytuje	-11.6914
▁Australan	-11.6914
▁Chvalovský	-11.6914
▁Dlouhý	-11.6914
▁Frýdku	-11.6914
▁Gretzky	-11.6914
▁Holbrooke	-11.6914
▁Klient	-11.6914
▁Kravčuk	-11.6914
▁Management	-11.6914
▁Margaret	-11.6914
▁Marseille	-11.6914
▁MicroStation	-11.6914
▁Oxfordu	-11.6914
▁Očekává	-11.6914
▁Parlament	-11.6914
▁Pospíšil	-11.6914
▁Rangers	-11.6914
▁Sládka	-11.6914
▁Zeitung	-11.6914
▁analytik	-11.6914
▁antropogenní	-11.6914
▁báječn	-11.6914
▁cyklů	-11.6914
▁definován	-11.6914
▁delikt	-11.6914
▁disident	-11.6914
▁dodávku	-11.6914
▁dominantní	-11.6914
▁domnívat	-11.6914
▁doporučit	-11.6914
▁elektrárna	-11.6914
▁epizod	-11.6914
▁fanoušci	-11.6914
▁fázové	-11.6914
▁havárie	-11.6914
▁hájit	-11.6914
▁hřbet	-11.6914
▁instalační	-11.6914
▁izolační	-11.6914
▁kariéry	-11.6914
▁křesla	-11.6914
▁legální	-11.6914
▁libovolné	-11.6914
▁lístku	-11.6914
▁manažeři	-11.6914
▁navštívit	-11.6914
▁nejčastější	-11.6914
▁nervozit	-11.6914
▁náznak	-11.6914
▁odcházel	-11.6914
▁perfektní	-11.6914
▁poliklinik	-11.6914
▁portrét	-11.6914
▁poselství	-11.6914
▁posuzoval	-11.6914
▁připomínal	-11.6914
▁příchozí	-11.6914
▁službách	-11.6914
▁stránkách	-11.6914
▁studijní	-11.6914
▁středisek	-11.6914
▁substantiv	-11.6914
▁tabák	-11.6914
▁tiskárnu	-11.6914
▁trolejbus	-11.6914
▁turistiky	-11.6914
▁uspokojit	-11.6914
▁ušlechtil	-11.6914
▁veterinární	-11.6914
▁vyrobit	-11.6914
▁výchozí	-11.6914
▁výcvik	-11.6914
▁všelijak	-11.6914
▁zlepšování	-11.6914
▁zvážit	-11.6914
▁zásuvk	-11.6914
▁čtvrtletně	-11.6914
▁Silvestr	-11.6914
▁barokní	-11.6914
▁hesla	-11.6914
▁knihkupectví	-11.6914
▁nepůjde	-11.6914
▁názvy	-11.6914
▁odhodlán	-11.6914
▁politici	-11.6914
▁prezentován	-11.6914
▁recese	-11.6914
▁rovnou	-11.6914
▁roztříštěn	-11.6914
▁srovnávat	-11.6914
▁vizuální	-11.6914
▁vyřeší	-11.6914
▁úklid	-11.6914
▁útlum	-11.6914
pište	-11.6914
▁Příprav	-11.6914
▁chápou	-11.6914
▁investoři	-11.6914
▁licenci	-11.6914
▁nebytový	-11.6914
▁netuší	-11.6914
▁podmínku	-11.6914
▁prověrk	-11.6914
▁přijede	-11.6914
▁sváteční	-11.6914
▁vůdčí	-11.6914
▁OpenScript	-11.6914
▁afrických	-11.6914
▁delegací	-11.6914
▁certifikace	-11.6914
▁položek	-11.6914
▁provází	-11.6914
▁sazba	-11.6914
▁vypovězen	-11.6914
▁Belgičan	-11.6915
▁Pechar	-11.6915
▁Snímek	-11.6915
▁laskav	-11.6915
▁dráze	-11.6915
▁krizí	-11.6915
▁mléko	-11.6915
▁návaznost	-11.6915
▁Francis	-11.6915
▁smíšený	-11.6915
▁Štěpán	-11.6915
▁postranní	-11.6915
▁Pravidl	-11.6915
▁ideologie	-11.6915
▁šperk	-11.6915
▁Údaj	-11.6915
▁obrátí	-11.6915
▁podporovan	-11.6915
▁reprezentovat	-11.6915
▁juniorů	-11.6915
▁odrůd	-11.6915
▁poezie	-11.6915
▁motýl	-11.6915
▁reprezentaci	-11.6915
▁iluze	-11.6915
▁emisí	-11.6915
▁mléka	-11.6915
▁biologii	-11.6915
▁prostředkem	-11.6915
▁stránka	-11.6915
▁útěk	-11.6915
▁letadel	-11.6915
▁akutní	-11.6915
▁nepochopil	-11.6915
▁Nynější	-11.6915
▁udělil	-11.6915
▁rámec	-11.6915
▁vztek	-11.6915
▁masa	-11.6915
▁nevyhnul	-11.6915
▁Trnav	-11.6915
▁Obvykl	-11.6915
▁profesi	-11.6915
▁hladovku	-11.6915
▁látku	-11.6915
▁říkat	-11.6915
▁láska	-11.6915
▁zaměstnanosti	-11.6915
▁dárek	-11.6915
▁důchodců	-11.6915
▁aukcí	-11.6915
▁spolkové	-11.6916
▁Příčin	-11.6916
▁rozpočtů	-11.6916
abilní	-11.6916
▁výpis	-11.6916
▁gard	-11.6916
▁Plzně	-11.6916
tlačil	-11.6916
▁Boston	-11.6916
▁Zlatý	-11.6916
▁Hrál	-11.6916
▁zdražení	-11.6916
▁vyvíjet	-11.6916
bajt	-11.6916
▁zpravodajství	-11.6916
▁polohách	-11.6916
▁Hotel	-11.6917
▁motivace	-11.6917
▁schvalování	-11.6917
▁ekologie	-11.6917
▁Nováček	-11.6917
interpretaci	-11.6917
▁Botan	-11.6917
▁právnick	-11.6917
▁média	-11.6917
věřuje	-11.6917
▁poučení	-11.6917
▁krouž	-11.6917
▁Japonci	-11.6917
▁záchod	-11.6917
▁zátěž	-11.6917
▁lidech	-11.6918
▁Řadič	-11.6918
▁pátrání	-11.6918
▁památku	-11.6918
▁unikl	-11.6918
▁utrpení	-11.6918
▁síle	-11.6918
▁CAD	-11.6918
▁silnicích	-11.6918
▁Kontrol	-11.6918
▁jezdce	-11.6918
▁upravuje	-11.6918
▁stanoviska	-11.6919
▁třicátých	-11.6919
▁shoda	-11.6919
soustřeďuje	-11.6919
▁vyhnul	-11.6919
▁odehráv	-11.6919
opádn	-11.692
▁linie	-11.692
▁pasáž	-11.692
▁odcizi	-11.692
ovaném	-11.692
▁psí	-11.6921
▁Jenomže	-11.6921
▁Sportovní	-11.6921
obtížnější	-11.6921
▁směrech	-11.6921
▁zpracovávat	-11.6921
▁Čísl	-11.6921
▁setkávají	-11.6921
▁představen	-11.6922
▁regionech	-11.6922
▁říše	-11.6922
▁IPS	-11.6922
▁fronta	-11.6922
▁propag	-11.6922
▁kdykoli	-11.6923
▁soustavně	-11.6923
▁akční	-11.6923
▁přizpůsobení	-11.6923
▁důchodce	-11.6923
▁prosazují	-11.6924
▁Zabývá	-11.6924
▁láh	-11.6924
▁smyslupln	-11.6925
▁naučí	-11.6925
▁statisíce	-11.6925
▁intelektuální	-11.6925
dokonalejší	-11.6926
▁nerozhodn	-11.6926
▁mrzí	-11.6926
▁vzdát	-11.6926
▁Nastavení	-11.6927
▁iniciátor	-11.6927
▁jihovýchodní	-11.6927
Místku	-11.6927
▁radioaktivních	-11.6928
▁plynule	-11.6928
nických	-11.6929
▁nevěří	-11.6929
▁západoevropský	-11.6929
▁hudbou	-11.6929
▁oceli	-11.6929
▁suché	-11.693
▁zjistíme	-11.693
▁Stráž	-11.693
▁parkování	-11.693
▁Podíl	-11.6931
▁stoupl	-11.6931
▁lukrativní	-11.6931
▁Olympi	-11.6931
▁obdobně	-11.6931
▁BF	-11.6931
▁Pár	-11.6931
▁měrou	-11.6932
▁suma	-11.6932
rochu	-11.6932
▁Jihlavě	-11.6934
▁Záhřebu	-11.6935
bývající	-11.6935
▁středně	-11.6935
▁slabě	-11.6935
▁stoly	-11.6935
▁bitů	-11.6935
▁formace	-11.6936
mnohých	-11.6936
▁Made	-11.6937
▁Informoval	-11.6937
▁krátk	-11.6938
▁zkrácení	-11.6938
▁nedokáž	-11.6938
▁spalování	-11.6938
▁biologických	-11.6938
▁organizátor	-11.6939
▁zachytit	-11.694
▁Helen	-11.694
▁horizontu	-11.694
▁Hel	-11.6941
ENÍ	-11.6941
▁ujal	-11.6942
▁objednávky	-11.6943
▁pohraniční	-11.6944
▁brány	-11.6944
▁Skutečně	-11.6944
▁procesech	-11.6945
▁dokladů	-11.6945
256	-11.6946
▁soukromník	-11.6946
▁odběru	-11.6946
▁Čern	-11.6947
▁židovské	-11.6947
▁Úpravy	-11.6948
▁postihnout	-11.6948
levo	-11.6949
▁Stalin	-11.6949
▁konečn	-11.6949
▁funkcionáři	-11.6949
▁neskončil	-11.695
▁pokutou	-11.695
▁posunu	-11.695
▁prohlédnout	-11.695
ručením	-11.6951
▁gymnáziu	-11.6952
▁stejnojmenné	-11.6953
▁modifikac	-11.6953
▁Alda	-11.6953
▁silná	-11.6953
▁korekce	-11.6953
mínil	-11.6954
▁příčku	-11.6954
▁dokazuje	-11.6955
▁fungující	-11.6955
▁vykonává	-11.6956
▁úřadech	-11.6956
hraj	-11.6956
▁kapitole	-11.6956
▁cokoliv	-11.6956
▁pokračující	-11.6957
▁výborně	-11.6957
▁zpěvačka	-11.6957
▁podporující	-11.6957
▁jízdě	-11.6958
▁shodli	-11.6958
▁Angličané	-11.6958
▁čekalo	-11.6958
▁učitelů	-11.6958
▁policista	-11.6959
dražit	-11.6959
▁poškozený	-11.696
▁Skutečnost	-11.696
▁špičky	-11.696
pravdivost	-11.6961
▁zjednodušení	-11.6962
▁psychologické	-11.6963
▁zpracovat	-11.6964
▁službami	-11.6964
▁nechceme	-11.6965
▁vlastnické	-11.6965
▁vhodnější	-11.6965
cestovat	-11.6966
▁islámský	-11.6967
▁polní	-11.6967
▁zemím	-11.6967
▁Diana	-11.6967
▁domech	-11.6967
▁Nabídky	-11.6968
▁Zvláště	-11.6968
▁šaty	-11.6968
▁obdrželi	-11.6969
▁správní	-11.697
▁dani	-11.6971
▁dálnici	-11.6972
▁úroků	-11.6973
▁zbraněmi	-11.6973
▁Turecka	-11.6974
▁schůzka	-11.6975
▁písní	-11.6975
▁analýzu	-11.6976
▁poslanecký	-11.6976
▁tuší	-11.6976
▁nalezli	-11.6977
▁Kraus	-11.6977
▁odborové	-11.6978
▁velení	-11.6979
▁správa	-11.6979
▁dně	-11.698
▁přátelé	-11.698
▁koncertů	-11.698
▁vyhlášku	-11.6981
▁nutností	-11.6983
▁Žije	-11.6984
▁přepravy	-11.6985
▁tisícovk	-11.6987
▁Lam	-11.6988
▁nezávisle	-11.6988
▁nepočítal	-11.6989
▁Čeká	-11.6989
▁vzrostly	-11.699
tice	-11.6991
▁výplatu	-11.6992
▁soli	-11.6994
▁vinou	-11.6995
▁odkladu	-11.6996
▁programování	-11.6996
[...]
