<unk>	0
<s>	0
</s>	0
<doc>	0
</doc>	0
<head>	0
</head>	0
<phr>	0
</phr>	0
▁	-1.70512
,	-3.23086
.	-3.37851
▁a	-4.28341
▁v	-4.3927
▁se	-4.4789
▁na	-4.62012
a	-4.71068
ch	-4.92901
▁je	-4.99768
m	-5.02422
u	-5.09105
i	-5.10365
ho	-5.12516
y	-5.17618
▁"	-5.18059
▁že	-5.25063
▁z	-5.31314
▁s	-5.36989
▁o	-5.54428
▁do	-5.57693
ou	-5.59749
e	-5.6818
á	-5.69099
▁-	-5.76076
▁pro	-5.7815
o	-5.82509
▁za	-5.88406
▁k	-5.92464
▁i	-5.92693
í	-5.93984
é	-5.95359
▁to	-5.95698
ě	-5.98415
▁ve	-5.99394
▁(	-6.00136
em	-6.04172
▁V	-6.05327
▁po	-6.06991
▁by	-6.08544
to	-6.1208
s	-6.12175
▁ale	-6.17977
>	-6.19615
▁si	-6.26607
ž	-6.36504
▁jsou	-6.37276
mi	-6.37654
t	-6.3813
▁jako	-6.40678
▁které	-6.4231
▁od	-6.48955
▁však	-6.50149
▁:	-6.5265
)	-6.5354
ých	-6.553
▁tak	-6.56668
▁při	-6.58053
ý	-6.60927
▁který	-6.62108
ů	-6.68569
▁nebo	-6.70551
▁jeho	-6.71175
▁bude	-6.72094
?	-6.74456
▁ne	-6.77895
▁jen	-6.77937
▁než	-6.86308
ní	-6.87289
▁má	-6.8845
x	-6.92271
▁už	-6.93624
▁aby	-6.94109
▁byl	-6.95992
▁Na	-6.96527
▁A	-6.97221
me	-6.97391
▁jejich	-6.97978
▁jak	-6.99238
▁jsem	-6.993
▁až	-6.99384
▁být	-6.99535
▁před	-7.00508
▁S	-7.01836
▁Po	-7.03311
▁která	-7.04108
▁také	-7.04682
▁jsme	-7.07978
▁ze	-7.08787
▁<	-7.09117
▁podle	-7.0934
te	-7.10798
▁Je	-7.15908
▁Z	-7.19377
▁co	-7.20027
▁není	-7.21088
mu	-7.2118
▁bylo	-7.24382
▁mezi	-7.25373
▁ani	-7.25482
▁či	-7.27597
▁ještě	-7.27665
▁své	-7.28272
▁když	-7.29393
▁již	-7.2984
▁může	-7.30108
▁byla	-7.32061
ce	-7.32547
▁toho	-7.34873
kud	-7.36218
▁P	-7.36276
▁let	-7.37098
/	-7.38339
▁O	-7.38786
▁korun	-7.39423
▁pak	-7.42365
l	-7.44257
ně	-7.44544
▁další	-7.44561
▁kteří	-7.45083
▁tím	-7.45364
▁K	-7.46307
▁té	-7.46504
ého	-7.47533
).	-7.47861
▁kde	-7.49831
▁roku	-7.51366
▁více	-7.51608
▁tedy	-7.51835
▁první	-7.52085
▁nich	-7.56225
v	-7.56958
ka	-7.58128
ové	-7.58947
▁To	-7.60587
▁bez	-7.61432
▁mají	-7.61711
že	-7.6212
),	-7.63155
▁tu	-7.64588
k	-7.64861
▁roce	-7.65728
▁pouze	-7.66129
▁li	-7.66206
▁musí	-7.6658
▁tom	-7.67229
▁kdy	-7.67912
▁tomu	-7.6893
-	-7.7121
▁ke	-7.71523
▁proto	-7.71664
▁budou	-7.73473
▁třeba	-7.74257
z	-7.7438
ek	-7.74521
▁pod	-7.74898
▁protože	-7.75143
▁totiž	-7.75886
▁vy	-7.76116
▁lze	-7.78338
▁nás	-7.78403
▁proti	-7.79585
ky	-7.80333
li	-7.8174
▁byly	-7.82374
▁měl	-7.82843
▁I	-7.82908
▁velmi	-7.83346
ech	-7.83353
▁její	-7.83482
▁zatím	-7.84141
▁poslední	-7.84242
▁asi	-7.84712
▁Za	-7.85562
▁ty	-7.86686
▁Podl	-7.87131
▁řekl	-7.87868
▁včera	-7.88637
▁nad	-7.88659
▁M	-7.89732
ová	-7.89753
ým	-7.90616
d	-7.91043
▁D	-7.92203
na	-7.92489
▁dnes	-7.93295
▁firmy	-7.94041
▁především	-7.96404
▁dva	-7.96905
p	-7.97228
▁vlastní	-7.9807
▁případě	-7.98893
ná	-7.99
cí	-7.99578
▁'	-7.9977
▁například	-8.00537
▁tisíc	-8.0065
▁Pro	-8.00699
r	-8.00921
la	-8.01411
▁všech	-8.0206
ku	-8.0218
▁Ne	-8.03241
▁přes	-8.0346
▁rok	-8.03468
▁nyní	-8.03683
▁době	-8.03853
▁nám	-8.05264
▁mít	-8.05376
ci	-8.06014
▁ji	-8.07016
▁J	-8.07542
né	-8.07653
▁U	-8.08383
▁lidí	-8.08664
▁jim	-8.08686
▁společnosti	-8.08733
▁tři	-8.08866
▁mohou	-8.08965
▁práce	-8.09087
▁stále	-8.10194
▁těchto	-8.10291
▁ovšem	-8.10431
n	-8.10582
▁všechny	-8.10733
▁Při	-8.11533
▁zda	-8.11827
ovat	-8.12594
▁jeden	-8.13222
jí	-8.13599
▁několik	-8.13919
co	-8.14219
▁kterou	-8.1489
▁Ve	-8.14929
▁což	-8.15626
▁tento	-8.17553
▁procent	-8.18454
▁něm	-8.19491
▁možné	-8.19883
▁Do	-8.19897
▁jde	-8.20062
...	-8.20102
▁Ale	-8.21609
▁nové	-8.21928
▁dalších	-8.21932
▁České	-8.2281
▁dvou	-8.22917
cela	-8.22954
nou	-8.23133
právě	-8.23327
▁měla	-8.23996
▁ČR	-8.24449
ových	-8.25112
▁Jak	-8.25156
ň	-8.25205
▁Praze	-8.25228
it	-8.25365
j	-8.25469
▁N	-8.25657
▁naše	-8.25851
téměř	-8.2605
▁zejména	-8.2624
▁svou	-8.26651
▁strany	-8.28658
ovi	-8.29499
▁Proto	-8.29537
▁jednání	-8.29952
▁T	-8.29972
ování	-8.30664
▁sice	-8.30953
▁zařízení	-8.31103
▁letech	-8.3126
▁pře	-8.31426
▁kdo	-8.3168
▁základní	-8.3267
▁svého	-8.32844
▁prostředí	-8.33042
▁dvě	-8.33669
▁svých	-8.33723
▁Kdy	-8.33933
uje	-8.34156
▁nejen	-8.35132
▁jiné	-8.35859
▁větší	-8.36091
▁naši	-8.37016
▁světa	-8.37885
▁tomto	-8.37907
▁možnost	-8.38145
▁místo	-8.38254
▁Co	-8.39109
▁nic	-8.39765
▁každý	-8.40168
▁000	-8.40268
ách	-8.40421
▁Tak	-8.40973
▁R	-8.41411
ost	-8.41433
▁druhé	-8.41626
▁milionů	-8.41691
▁něco	-8.42927
▁vlády	-8.42945
▁svým	-8.43122
ům	-8.43239
▁zde	-8.44044
▁stát	-8.44222
▁část	-8.44467
▁mu	-8.44652
▁stejně	-8.44906
š	-8.45484
▁ceny	-8.46323
▁uvedl	-8.46551
▁%	-8.46922
▁zákona	-8.47056
▁kolem	-8.47298
▁H	-8.48275
lo	-8.49128
ři	-8.49425
▁oblasti	-8.49497
▁B	-8.49572
▁Od	-8.49818
▁dobře	-8.50046
▁příliš	-8.50363
▁tam	-8.50855
▁říká	-8.5099
či	-8.51022
▁dosud	-8.51035
▁svůj	-8.5105
▁byli	-8.51154
▁2	-8.51172
▁některých	-8.51461
č	-8.51463
en	-8.51497
▁země	-8.51558
ými	-8.51564
▁práci	-8.51713
▁některé	-8.51846
ný	-8.5204
▁systém	-8.5205
ze	-8.52357
▁patří	-8.53024
▁zboží	-8.53122
▁vůbec	-8.53144
▁1	-8.53418
b	-8.54522
▁vždy	-8.55385
spo	-8.5542
▁neboť	-8.55621
▁opět	-8.55644
▁zemí	-8.56674
▁jež	-8.56978
▁C	-8.58154
▁firma	-8.58599
▁nejsou	-8.5915
▁10	-8.59191
▁sociální	-8.59593
cích	-8.59605
▁často	-8.59733
▁období	-8.59951
▁systému	-8.60162
▁pracovní	-8.60186
▁finanční	-8.61041
▁dokonce	-8.6149
▁jste	-8.61742
▁den	-8.61771
▁několika	-8.6222
▁nej	-8.6224
▁měli	-8.6235
▁USA	-8.62412
▁sám	-8.62625
▁Js	-8.62969
▁Kč	-8.63487
▁lidé	-8.64046
▁celé	-8.64074
▁L	-8.64099
il	-8.64813
▁níž	-8.65342
▁rovněž	-8.65582
▁střední	-8.65605
během	-8.65871
▁trhu	-8.66027
ští	-8.6629
ovou	-8.66341
▁vyšší	-8.66878
▁nimi	-8.67009
ské	-8.67021
▁přímo	-8.67273
▁doby	-8.67557
c	-8.67704
včetně	-8.67955
vůli	-8.67976
▁části	-8.68323
▁situace	-8.68356
▁takže	-8.68675
▁zahraničí	-8.69164
▁státní	-8.69232
zřejmě	-8.69386
▁3	-8.69977
▁vše	-8.70146
ných	-8.70613
▁informace	-8.70617
▁méně	-8.70686
tato	-8.70744
at	-8.71584
▁Evropy	-8.72045
▁peníze	-8.7205
▁mohl	-8.72263
▁roz	-8.7251
▁např	-8.72634
▁vám	-8.7288
▁Zatím	-8.72895
▁znamená	-8.7297
▁pět	-8.72989
▁počet	-8.73226
▁chce	-8.73236
▁něj	-8.73305
▁nebude	-8.73552
▁víc	-8.73612
▁způsobem	-8.73934
▁takové	-8.74115
▁společnost	-8.74669
▁spíše	-8.74759
▁republiky	-8.74778
A	-8.74948
al	-8.7501
ám	-8.75218
▁hodin	-8.753
ový	-8.75348
▁nemá	-8.75584
▁dále	-8.75698
▁velký	-8.75713
▁ten	-8.76301
▁navíc	-8.7631
▁přitom	-8.76331
▁dobu	-8.76385
▁mě	-8.76733
▁čas	-8.76876
▁První	-8.77177
▁vlastně	-8.77189
▁problémy	-8.77195
ře	-8.77315
si	-8.77551
▁jednoho	-8.77588
▁české	-8.7779
▁sebe	-8.77793
ém	-8.77824
le	-8.77981
▁naopak	-8.78069
▁Jan	-8.78306
▁zákon	-8.78581
osti	-8.79169
▁r	-8.79376
▁čtyři	-8.7942
▁obchodní	-8.79479
▁Ty	-8.79976
▁města	-8.80075
st	-8.80092
S	-8.80093
▁zájem	-8.80201
▁letošní	-8.80299
▁skutečně	-8.80359
g	-8.80437
ne	-8.80789
▁straně	-8.8095
▁životní	-8.81107
▁vláda	-8.81109
▁největší	-8.81195
▁ministr	-8.81203
▁jej	-8.81219
▁znovu	-8.81263
ta	-8.81454
▁většinou	-8.81579
▁zahraniční	-8.81606
▁5	-8.8161
▁jednotlivý	-8.81728
▁mnoho	-8.82057
▁zhruba	-8.82087
▁současné	-8.82373
ují	-8.82395
▁ředitel	-8.82446
▁řešení	-8.8269
▁řízení	-8.83217
▁prezident	-8.83384
ny	-8.8375
▁jiných	-8.83931
▁Jiří	-8.84007
no	-8.84283
▁nelze	-8.84507
ami	-8.84557
▁celý	-8.84667
▁bych	-8.85081
▁snad	-8.85274
▁1992	-8.85335
▁platí	-8.85387
▁20	-8.85793
▁začal	-8.8588
▁letos	-8.85936
▁smlouvy	-8.86387
▁dolarů	-8.86396
▁rozhodnutí	-8.86701
▁území	-8.87167
▁tzv	-8.87412
▁velké	-8.87472
▁jedné	-8.87543
▁mimo	-8.87701
▁půl	-8.88011
ra	-8.88277
▁pomocí	-8.8838
ly	-8.88601
▁množství	-8.88803
▁činnosti	-8.88889
ni	-8.893
▁naší	-8.89761
ť	-8.90027
▁roky	-8.90179
▁Přesto	-8.90396
▁vás	-8.90417
▁člověk	-8.90585
▁zase	-8.90676
▁světě	-8.91035
D	-8.91251
▁různých	-8.9135
M	-8.91762
▁státu	-8.91795
▁jednou	-8.92143
▁hlavní	-8.92208
▁G	-8.92214
▁později	-8.92233
je	-8.9274
▁můžete	-8.92769
▁programu	-8.92943
▁ČSFR	-8.93548
▁člověka	-8.93765
ův	-8.93811
▁podniku	-8.94282
▁vedení	-8.94353
▁Evropě	-8.94412
▁skupiny	-8.94676
▁program	-8.94822
▁století	-8.94948
▁věci	-8.95231
▁1.	-8.95387
▁služby	-8.95462
▁dost	-8.95851
▁dlouho	-8.96001
▁domácí	-8.9614
▁Václav	-8.96189
▁málo	-8.96354
▁mělo	-8.96395
▁jinak	-8.96524
▁deset	-8.96579
▁činnost	-8.96726
po	-8.9678
▁obou	-8.96932
▁zároveň	-8.9723
▁prý	-8.9725
▁situaci	-8.97595
▁tří	-8.97941
ově	-8.98281
▁prohlásil	-8.98341
T	-8.98516
▁Před	-8.98561
▁snímku	-8.98681
▁náklady	-8.98712
▁nových	-8.98782
in	-8.98876
▁trh	-8.99032
▁možná	-8.99158
▁přesto	-8.99238
▁tvrdí	-8.99389
▁Petr	-8.99512
kou	-8.99607
▁cenu	-8.99657
f	-8.99659
▁rozdíl	-8.99698
▁měly	-8.9997
▁nemůže	-9.00151
▁problém	-9.00206
▁máme	-9.00245
▁jaké	-9.00342
▁návrh	-9.00367
▁mohli	-9.00565
▁děti	-9.00883
se	-9.00914
er	-9.00995
ích	-9.01138
▁firem	-9.01606
▁prvním	-9.01959
▁získat	-9.02003
▁spolu	-9.02085
▁toto	-9.02281
▁Praha	-9.02319
▁států	-9.0244
▁těch	-9.02995
h	-9.03018
▁majetku	-9.03146
▁nakonec	-9.03193
▁šest	-9.03236
▁všechno	-9.03253
▁Byl	-9.03473
▁funkce	-9.03526
▁stojí	-9.03667
▁nikdy	-9.03709
▁lety	-9.03898
▁bývalé	-9.0396
▁svém	-9.03975
▁místě	-9.04011
▁4	-9.04316
▁výši	-9.04388
K	-9.04897
R	-9.0508
▁proč	-9.05106
▁1993	-9.05395
▁CD	-9.05428
▁americké	-9.05713
▁vody	-9.05796
▁možnosti	-9.06041
▁svět	-9.06117
▁konce	-9.0642
▁stavu	-9.06637
N	-9.0666
▁30	-9.06813
▁nového	-9.06858
▁dnešní	-9.06911
▁život	-9.06944
▁dříve	-9.06968
▁100	-9.07021
▁Prahy	-9.07207
▁sobotu	-9.07234
▁třetí	-9.07259
▁jedna	-9.07716
▁nutné	-9.07802
▁mezinárodní	-9.08214
el	-9.08252
▁pěti	-9.08467
▁nebyl	-9.08468
▁parlamentu	-9.0871
▁lepší	-9.08934
U	-9.0911
▁místní	-9.09125
▁předseda	-9.09318
▁bychom	-9.09756
▁Tento	-9.09811
ří	-9.10032
▁zemi	-9.10177
▁stav	-9.1019
▁ministerstva	-9.10219
▁F	-9.10455
▁týden	-9.10511
▁přece	-9.1098
▁Tato	-9.11012
▁Není	-9.1116
▁policie	-9.1145
▁podniků	-9.11494
▁poté	-9.11516
▁všichni	-9.1166
▁samozřejmě	-9.11816
▁můžeme	-9.12043
lu	-9.12045
▁rychle	-9.12053
▁nikdo	-9.12072
▁Další	-9.121
▁15	-9.12379
nebo	-9.12512
▁hlavně	-9.12698
▁nový	-9.129
by	-9.12906
I	-9.12935
▁moc	-9.13105
▁osob	-9.13113
▁českých	-9.13119
▁prezidenta	-9.13253
▁něho	-9.13278
▁poměrně	-9.13304
▁50	-9.13354
▁věcí	-9.13491
vá	-9.1351
▁Ten	-9.13874
▁sdružení	-9.13966
▁dvěma	-9.13986
trochu	-9.14026
▁Jana	-9.14594
▁Kromě	-9.14595
▁stran	-9.14617
ného	-9.15006
bychom	-9.15149
or	-9.15154
jich	-9.15221
▁SSSR	-9.15236
ste	-9.15553
▁Mezi	-9.1588
▁organizace	-9.16344
▁dobré	-9.16401
▁Jako	-9.16482
▁kdyby	-9.16483
▁informací	-9.16501
L	-9.16513
▁Jestli	-9.16531
▁komise	-9.16531
▁podmínky	-9.16531
▁sobě	-9.16531
▁někdy	-9.16532
an	-9.16571
▁základě	-9.17276
▁p	-9.17466
▁Evropské	-9.17495
ným	-9.17529
▁zemích	-9.17857
▁došlo	-9.17956
▁jí	-9.18148
▁čím	-9.18219
▁výroby	-9.18232
ský	-9.18259
▁kromě	-9.18513
▁většina	-9.18729
▁způsob	-9.1902
▁místa	-9.19088
▁pan	-9.1925
▁určité	-9.19451
▁ostatní	-9.19572
▁postup	-9.19615
▁hned	-9.19844
▁nejlepší	-9.20169
▁života	-9.20173
▁vedoucí	-9.20467
▁de	-9.20581
ry	-9.20587
▁jedno	-9.20624
▁Má	-9.20678
dním	-9.20876
▁ním	-9.21045
▁pohled	-9.21072
▁rozpočtu	-9.212
▁právní	-9.21208
čí	-9.21208
▁hry	-9.21306
▁cena	-9.21829
▁tehdy	-9.21884
ř	-9.21899
▁druhý	-9.2192
▁jistě	-9.2192
▁východní	-9.21955
▁jich	-9.22114
▁malé	-9.2215
▁mnoha	-9.22285
ec	-9.22534
▁teď	-9.22575
▁milionu	-9.22713
▁prohlášení	-9.22743
▁E	-9.22779
▁nebylo	-9.22919
▁dál	-9.23127
▁prosince	-9.23267
▁prostředky	-9.23269
▁stejné	-9.23288
▁času	-9.2353
▁vývoj	-9.23569
▁poprvé	-9.23659
▁podíl	-9.23786
▁unie	-9.23967
ji	-9.23985
ská	-9.24132
▁40	-9.2427
▁Vy	-9.24318
▁spolupráci	-9.24671
▁jenž	-9.24677
▁výsledky	-9.24681
▁teprve	-9.24692
▁jedn	-9.24886
B	-9.24941
ova	-9.2509
▁dodal	-9.25354
▁výrazně	-9.25422
▁žádné	-9.25462
▁nějak	-9.25517
ají	-9.25835
▁večer	-9.25992
▁prakticky	-9.26128
▁ob	-9.26356
▁tvoří	-9.26429
▁kterým	-9.26457
▁ti	-9.26471
▁procenta	-9.26537
▁potom	-9.26698
ského	-9.26792
▁hlediska	-9.26813
▁prostřednictví	-9.26813
▁utkání	-9.26838
▁čtyř	-9.27053
▁vysoké	-9.2741
▁ministra	-9.27482
▁republice	-9.27538
▁celou	-9.27636
▁velice	-9.27646
▁200	-9.27669
on	-9.27848
▁6	-9.27971
▁ODS	-9.28027
▁osm	-9.28166
▁někdo	-9.28269
▁daně	-9.28286
mohlo	-9.28392
vě	-9.28573
▁mnoh	-9.28679
tu	-9.28712
▁vliv	-9.28872
▁prostor	-9.28976
▁dispozici	-9.29014
▁souvislosti	-9.29078
díky	-9.29103
▁pár	-9.29139
kem	-9.29173
▁řadu	-9.29346
▁typu	-9.29354
V	-9.29714
▁opatření	-9.29744
▁akce	-9.29764
mohla	-9.29864
▁minut	-9.29913
▁já	-9.29948
hle	-9.30126
O	-9.30133
▁změny	-9.30207
če	-9.30334
▁stal	-9.30336
▁obyvatel	-9.30379
▁rámci	-9.30491
▁ledna	-9.30496
ového	-9.3059
▁mne	-9.30675
ru	-9.30782
▁sebou	-9.30859
pl	-9.30869
▁původní	-9.30876
▁budeme	-9.31018
▁doma	-9.31043
▁nejméně	-9.31251
▁menší	-9.31273
▁podařilo	-9.31297
▁státy	-9.31845
▁roli	-9.32007
▁premiér	-9.32067
▁různé	-9.3207
▁čs	-9.32274
▁vů	-9.32341
▁vítězství	-9.3235
P	-9.32403
▁obě	-9.32439
▁vnitřní	-9.32713
▁Ta	-9.32748
▁Například	-9.32763
▁podnikání	-9.32785
ko	-9.32884
us	-9.33134
▁1990	-9.33146
▁výše	-9.3334
ující	-9.33475
▁opravdu	-9.33534
▁Jde	-9.33549
▁zdravotní	-9.33676
2	-9.33701
oval	-9.34154
▁západní	-9.34258
▁tolik	-9.34269
▁smlouvu	-9.34308
▁náš	-9.34324
▁miliónů	-9.34324
▁prostě	-9.34386
▁peněz	-9.34451
▁minulý	-9.34463
▁nedávno	-9.34467
ním	-9.34471
lá	-9.34697
▁dne	-9.34852
▁názor	-9.34946
▁Jen	-9.34958
▁funkci	-9.35088
▁Dnes	-9.3512
▁zvýšení	-9.35197
▁právo	-9.35287
▁služeb	-9.35364
nu	-9.35404
▁loni	-9.35428
ím	-9.35587
9	-9.35862
▁měsíců	-9.35976
▁středu	-9.36064
▁Kdo	-9.36352
▁žádný	-9.36361
ější	-9.36499
▁dnech	-9.36609
▁chtějí	-9.3667
▁koaliční	-9.3667
▁ministerstvo	-9.3667
ro	-9.36701
▁politické	-9.36977
▁nižší	-9.37335
▁metrů	-9.37502
▁postupně	-9.37539
▁jiného	-9.37559
proti	-9.3762
▁úřadu	-9.37628
▁rady	-9.37661
▁Windows	-9.3775
▁zahraničních	-9.37947
▁podnik	-9.37989
▁svazu	-9.38307
▁miliard	-9.38565
ti	-9.38578
▁získal	-9.38628
va	-9.38648
▁ta	-9.38771
C	-9.38975
1	-9.39295
▁členů	-9.3931
▁šesti	-9.39528
▁trenér	-9.39709
za	-9.39716
▁číslo	-9.39915
▁Š	-9.40151
▁podobně	-9.40577
▁podporu	-9.40681
ských	-9.40703
▁klubu	-9.40794
▁nadále	-9.40796
▁Bude	-9.40819
▁25	-9.41097
▁význam	-9.41309
▁1991	-9.41378
▁počtu	-9.41398
▁8	-9.41461
da	-9.41484
▁osobní	-9.4164
▁Pak	-9.41659
hl	-9.41688
▁pomoc	-9.41917
ba	-9.42025
ení	-9.42077
▁týmu	-9.42103
ků	-9.42116
▁podniky	-9.42158
▁ročně	-9.42225
▁malý	-9.42318
▁přibližn	-9.4233
▁Většin	-9.42409
▁hospodářství	-9.42409
▁nabídky	-9.42409
▁lépe	-9.4241
mž	-9.42426
ší	-9.42475
nost	-9.42513
▁okolí	-9.426
▁Ani	-9.42626
▁MS	-9.42632
▁pojištění	-9.4264
▁každ	-9.42955
▁Zde	-9.43087
▁společenství	-9.43099
▁kam	-9.43205
▁podstatně	-9.43242
▁umožňuje	-9.43257
▁jenom	-9.43292
▁vede	-9.43334
▁hodně	-9.43355
▁přesně	-9.43478
od	-9.43549
▁fondu	-9.43701
▁růst	-9.4374
▁slova	-9.43862
▁chování	-9.43863
▁dostal	-9.43877
Dr	-9.43929
▁dat	-9.43944
▁musíme	-9.43985
▁výkon	-9.44008
▁1994	-9.44039
▁začíná	-9.44111
▁říci	-9.4412
▁případech	-9.44143
▁novou	-9.44144
▁městě	-9.44227
▁banky	-9.44415
▁nejvyšší	-9.44478
▁cen	-9.44531
▁řada	-9.44693
▁pomoci	-9.44744
▁možností	-9.44879
▁oddělení	-9.45018
▁sto	-9.4512
▁vedle	-9.45186
▁českého	-9.4529
▁obvykle	-9.45363
▁nebyla	-9.45383
du	-9.45488
ty	-9.45555
▁kterém	-9.4568
▁otázku	-9.45843
▁zdá	-9.45862
▁politiky	-9.45888
▁celkové	-9.45962
▁průběhu	-9.46038
▁W	-9.46139
ov	-9.46233
▁soud	-9.46353
▁deseti	-9.46396
▁miliardy	-9.46454
jší	-9.46669
Á	-9.46674
▁nabízí	-9.4672
▁nemají	-9.46735
▁ulici	-9.46777
▁zdrojů	-9.46828
▁nemusí	-9.47016
▁považuje	-9.4711
▁Už	-9.47458
▁chvíli	-9.47605
▁otázky	-9.47605
▁úrovni	-9.47605
▁celkem	-9.47606
▁Česká	-9.47608
▁skutečnost	-9.47625
▁pracovníků	-9.47888
▁moci	-9.47944
▁hrát	-9.47997
▁pražské	-9.48121
▁platit	-9.48262
▁názoru	-9.48295
▁dosavadní	-9.48498
▁takto	-9.48504
▁dohody	-9.48618
▁postavení	-9.48624
▁jednom	-9.4866
▁objektů	-9.48674
▁zástupce	-9.48721
ních	-9.48842
▁provoz	-9.48864
▁zisk	-9.49041
ať	-9.49326
▁7	-9.49328
▁dětí	-9.49399
▁energie	-9.49399
▁NATO	-9.494
▁snaží	-9.49566
▁změn	-9.4968
▁působí	-9.49742
3	-9.49855
▁společností	-9.49963
▁12	-9.49998
▁cestu	-9.50126
▁sítě	-9.5013
▁takový	-9.50185
▁finále	-9.50308
▁tržní	-9.50317
▁objekt	-9.50345
▁18	-9.50351
▁listopadu	-9.50352
▁představuje	-9.50359
▁kterých	-9.5041
▁setkání	-9.5047
▁bývalý	-9.50478
▁měsíce	-9.50507
▁přístup	-9.50524
▁sama	-9.50531
▁my	-9.50658
▁sedm	-9.50874
▁světové	-9.50994
▁Klaus	-9.50995
▁jejím	-9.51021
▁každé	-9.51095
▁prostředků	-9.51226
▁čtvrtek	-9.51236
▁Ještě	-9.51254
▁Tím	-9.51266
▁oba	-9.51297
▁současně	-9.51349
▁řadě	-9.51404
▁obchodního	-9.51534
4	-9.51618
▁zdroje	-9.51687
▁hráčů	-9.51688
▁národní	-9.51692
▁příští	-9.51725
▁textu	-9.51842
▁volební	-9.51865
ání	-9.52079
ri	-9.52095
▁nikoli	-9.52106
▁Navíc	-9.52151
▁Nyní	-9.52154
▁produkce	-9.52157
▁OSN	-9.52159
▁výrobky	-9.5217
▁atd	-9.5218
řitom	-9.52223
▁neděli	-9.52249
▁skutečnosti	-9.52785
▁dá	-9.52954
▁Josef	-9.53086
▁zasedání	-9.53091
▁poně	-9.53097
▁kvalitní	-9.53107
▁musel	-9.53127
E	-9.53136
▁muset	-9.53141
▁sami	-9.53323
▁výrobků	-9.53347
▁všem	-9.53362
▁výboru	-9.53496
▁Se	-9.53825
ému	-9.53907
▁uvádí	-9.53966
▁začátku	-9.54038
▁srovnání	-9.5408
▁přiče	-9.54207
▁akcií	-9.54238
▁hodnoty	-9.54255
▁součástí	-9.54282
▁mluvčí	-9.54373
▁obchodu	-9.54378
ční	-9.54379
▁školy	-9.5447
▁jiný	-9.54472
▁prezentace	-9.54561
▁nepo	-9.54617
ěte	-9.54701
▁tým	-9.54742
▁společné	-9.54883
▁teorie	-9.54982
▁privatizace	-9.54982
▁jasné	-9.55018
▁apod	-9.55097
re	-9.55185
▁zvláštní	-9.55226
▁mistrovství	-9.55255
nější	-9.55283
ha	-9.55311
▁2.	-9.55402
▁text	-9.55405
▁těm	-9.55433
▁problémů	-9.55486
▁provozu	-9.55555
▁generální	-9.55559
▁objektu	-9.5562
▁olympijské	-9.55929
▁dopravy	-9.55975
▁domů	-9.56002
▁1989	-9.56043
▁jednotlivé	-9.56126
▁Ze	-9.56195
▁buď	-9.56231
▁poslanců	-9.56245
▁kterého	-9.56299
▁telefonní	-9.56482
▁slov	-9.56577
▁zdravotnictví	-9.56914
▁Někter	-9.56917
▁umění	-9.56935
▁chtěl	-9.56958
▁našem	-9.57001
▁dalším	-9.57167
▁ME	-9.57183
es	-9.57191
▁údaje	-9.57213
▁Bylo	-9.57416
▁kolik	-9.57517
▁práva	-9.57665
▁podobě	-9.57925
▁kultury	-9.57961
▁ostatních	-9.57972
lí	-9.57974
▁plně	-9.57994
▁investice	-9.58005
▁noci	-9.58077
▁sil	-9.58098
krát	-9.58163
▁skupina	-9.5827
ma	-9.58303
▁státního	-9.58394
▁celého	-9.58454
např	-9.58584
▁nevy	-9.5867
▁hlavním	-9.58755
▁11	-9.58797
▁pracovat	-9.58839
▁zájmu	-9.5895
▁společně	-9.58973
▁Proč	-9.58978
▁přednost	-9.59026
▁předem	-9.59085
▁soutěže	-9.59103
▁strana	-9.59107
▁smrti	-9.59173
▁občanů	-9.59274
▁úřad	-9.59332
▁č	-9.59372
▁kole	-9.59466
▁Toto	-9.59469
▁tisíce	-9.5956
ovým	-9.59579
▁politických	-9.59943
▁dává	-9.60058
▁federální	-9.60347
▁míst	-9.60369
▁jméno	-9.60449
prve	-9.60877
▁Stejn	-9.60896
▁zdraví	-9.60902
▁vytvoření	-9.60972
▁důvodů	-9.60996
▁her	-9.61008
▁lidi	-9.61023
▁Ivan	-9.61077
▁nejvíce	-9.61082
et	-9.61154
tě	-9.61234
▁snímek	-9.61244
▁čeká	-9.61527
▁soudu	-9.61602
▁moderní	-9.61805
▁vybavení	-9.61875
▁Jaroslav	-9.61915
▁velkou	-9.62015
▁vzhledem	-9.62016
▁mužů	-9.62122
však	-9.62207
▁konkrétní	-9.62278
ar	-9.62286
▁hráči	-9.62327
▁vod	-9.62328
▁list	-9.6236
▁hnutí	-9.6241
▁dr	-9.62531
▁počítače	-9.62559
▁otázka	-9.62765
▁okolo	-9.62949
▁hodiny	-9.63273
▁60	-9.63434
▁mám	-9.63601
▁ekonomické	-9.6364
▁spíš	-9.63646
▁16	-9.63979
▁náměstí	-9.63988
▁zástupci	-9.6399
▁rukou	-9.63991
▁někteří	-9.63991
▁září	-9.63991
▁Země	-9.63995
▁obsahuje	-9.64014
▁zaměstnání	-9.64019
▁koncem	-9.64104
▁kilometrů	-9.64141
▁24	-9.64149
▁věku	-9.64157
▁oboru	-9.64232
▁mohly	-9.64353
▁vládní	-9.64375
▁nějaké	-9.64468
▁veřejné	-9.64777
▁St	-9.64825
▁výsledek	-9.6504
▁cestovní	-9.6504
Z	-9.65098
▁přišel	-9.65113
svoji	-9.65131
▁snadno	-9.65151
▁druhů	-9.65154
▁zkušenosti	-9.65271
▁hospodářské	-9.65376
lé	-9.6552
▁těžko	-9.65608
▁Kčs	-9.65642
▁cizí	-9.65657
▁objekty	-9.65699
▁dvacet	-9.65758
▁Pavel	-9.6605
▁Může	-9.66105
▁dnů	-9.66106
▁podmínek	-9.66107
▁nebudou	-9.66115
▁koalice	-9.66165
os	-9.66356
▁existuje	-9.66467
▁zaměstnanců	-9.6651
▁loňské	-9.66546
▁smyslu	-9.66594
▁český	-9.66699
▁zůstává	-9.66705
tr	-9.66734
▁celkov	-9.66787
▁každého	-9.66878
▁dobrý	-9.66991
▁úroveň	-9.67179
▁tady	-9.67189
0	-9.67271
▁minulosti	-9.67323
▁Podobn	-9.67332
pravidla	-9.67372
ační	-9.6748
▁dal	-9.67687
ve	-9.67871
▁spojení	-9.68016
▁případně	-9.68121
▁pátek	-9.68266
▁praxi	-9.68267
▁poslanci	-9.68268
▁určitě	-9.68408
▁Každý	-9.68409
▁jediný	-9.68487
▁Já	-9.68733
▁pozornost	-9.68755
tí	-9.68787
▁rychlost	-9.68809
▁případ	-9.68812
▁bývá	-9.69076
▁Jelcin	-9.69174
▁Brně	-9.69199
▁důležité	-9.69365
▁vidět	-9.69365
▁šanci	-9.69366
▁konci	-9.69377
▁kvality	-9.69401
▁doba	-9.69401
bu	-9.69475
▁14	-9.69663
▁možno	-9.69829
▁věc	-9.69954
▁použití	-9.69956
000	-9.69972
▁druhém	-9.69999
▁prvního	-9.70224
5	-9.70287
▁síly	-9.70479
▁volbách	-9.70482
▁července	-9.70484
▁dny	-9.70492
▁skupin	-9.70533
▁zápas	-9.70567
▁změnit	-9.70601
▁odpovídá	-9.70649
▁knihy	-9.70695
▁zpět	-9.707
▁Německa	-9.70828
▁film	-9.71139
▁nikoliv	-9.71169
▁členy	-9.71268
▁nebezpečí	-9.71307
▁Český	-9.71365
▁nákladů	-9.71633
▁podstatě	-9.71642
▁ruské	-9.71657
▁chyb	-9.71661
▁rozvoj	-9.71729
▁vztah	-9.71931
▁tisku	-9.71941
▁činí	-9.72041
▁stačí	-9.72459
▁tepla	-9.72739
▁úplně	-9.72742
▁výrobu	-9.72773
▁představitelé	-9.7282
▁investiční	-9.72841
▁Ministerstv	-9.72877
▁druhou	-9.73033
ství	-9.73181
▁domu	-9.7319
▁podobné	-9.73291
▁práv	-9.73327
▁techniky	-9.7342
▁výzkum	-9.73668
▁Již	-9.73684
▁delší	-9.73728
▁podnikatele	-9.73762
▁pracuje	-9.7393
▁údajn	-9.73936
▁celá	-9.73971
▁volby	-9.74025
▁míry	-9.74046
ví	-9.74069
ši	-9.74085
▁krok	-9.7416
▁zprávy	-9.74211
val	-9.74288
▁rád	-9.74339
ter	-9.74427
▁vznikl	-9.74553
▁voleb	-9.74573
▁též	-9.74695
▁fond	-9.74722
▁dělat	-9.74755
▁šéf	-9.7498
▁daleko	-9.75045
▁stavební	-9.75051
▁dvakrát	-9.75089
▁vytvořit	-9.75117
▁návrhu	-9.75163
▁televizní	-9.75246
▁chcete	-9.75284
▁účast	-9.75307
▁bytů	-9.75317
▁vlastnosti	-9.75321
▁polovin	-9.75337
▁světový	-9.75519
ovali	-9.75541
▁fotbalové	-9.75589
skoro	-9.75612
tra	-9.75672
▁parlament	-9.75801
skou	-9.75961
▁klub	-9.75994
▁obsah	-9.76019
ká	-9.76066
▁léta	-9.76176
▁financí	-9.76225
▁konečně	-9.76263
▁každém	-9.76474
kr	-9.76631
▁jít	-9.7676
▁žen	-9.76914
▁muž	-9.76963
▁bod	-9.77018
ck	-9.77059
▁13	-9.7729
▁běžné	-9.77329
zhledem	-9.77354
▁federace	-9.77415
▁použít	-9.77415
▁firmě	-9.77423
▁Jeden	-9.77427
▁Všechny	-9.77466
▁současnosti	-9.77486
▁evropských	-9.77531
▁počítá	-9.77615
▁bodů	-9.7762
▁průmyslu	-9.77629
▁Nej	-9.77675
ila	-9.77813
▁Německu	-9.77822
▁tun	-9.77903
vláště	-9.78081
▁ženy	-9.78215
▁80	-9.78351
▁fakt	-9.78371
de	-9.78504
▁osoby	-9.78515
▁jaký	-9.78518
▁pravděpodobně	-9.78606
▁Společenství	-9.7862
▁Vladimír	-9.7862
▁nejlépe	-9.78621
▁Právě	-9.78622
▁Bez	-9.78626
▁Běh	-9.78637
▁zbraní	-9.78642
▁rozhodující	-9.7865
ili	-9.78687
▁objeví	-9.78731
▁ředitele	-9.78854
ROM	-9.7888
▁Firma	-9.78953
vi	-9.78971
▁Zeman	-9.7901
▁původně	-9.79047
▁cílem	-9.7906
▁model	-9.79071
▁amerických	-9.79105
▁projekt	-9.79188
▁schopn	-9.79272
▁škol	-9.79305
▁následující	-9.79421
▁prostoru	-9.79622
▁udělat	-9.79853
▁sněmovny	-9.79893
▁vhodné	-9.8
is	-9.80005
▁kulturní	-9.80103
ců	-9.80291
značně	-9.80311
▁olympijský	-9.80324
▁dlouhé	-9.80529
▁byt	-9.80567
▁republik	-9.80576
▁zisku	-9.80672
▁těmi	-9.80678
▁lékaře	-9.8068
▁růstu	-9.80716
▁důvod	-9.80766
▁technologie	-9.80886
▁patrně	-9.8107
▁brzy	-9.81074
▁informační	-9.81074
▁čísla	-9.81074
▁hovoří	-9.81089
▁obrany	-9.81119
▁SR	-9.81247
▁rokem	-9.81268
▁ústavu	-9.81312
▁počítač	-9.81362
▁ES	-9.81507
▁veřejnosti	-9.81586
▁vědecké	-9.81695
ované	-9.81824
▁pravda	-9.81845
▁obraz	-9.81862
▁Ti	-9.82125
raději	-9.82318
▁jinde	-9.82324
▁většinu	-9.82324
▁péče	-9.82324
▁začne	-9.82328
▁dovolenou	-9.82367
▁vládě	-9.82383
▁vzájemn	-9.82414
▁data	-9.82474
ovy	-9.82479
▁prací	-9.82498
▁denně	-9.82526
▁čem	-9.82593
▁úspěch	-9.82629
▁stala	-9.82647
▁slovo	-9.8273
▁takovou	-9.82773
▁jisté	-9.82835
▁výrobce	-9.82914
dí	-9.82988
▁vědět	-9.83096
▁17	-9.83104
▁národního	-9.83143
▁nejbližší	-9.83429
▁aplikace	-9.83521
let	-9.83561
▁pozadí	-9.8359
▁pokračovat	-9.83596
▁sluneční	-9.8363
▁potřebné	-9.83931
▁typ	-9.84088
▁stalo	-9.84131
▁procesu	-9.84162
▁určen	-9.84219
▁zranění	-9.84223
ické	-9.84321
▁látky	-9.84624
▁budoucí	-9.84653
▁dosáhl	-9.84708
▁nebyly	-9.848
▁UEFA	-9.84872
▁demokracie	-9.84872
▁označil	-9.84872
▁televizi	-9.84872
▁Havel	-9.84873
▁nijak	-9.84877
▁okamžitě	-9.84881
▁nemohou	-9.84884
▁zabývá	-9.84952
6	-9.84959
▁Spojený	-9.84979
▁Jedno	-9.85031
▁míru	-9.85064
▁naprosto	-9.85135
▁starší	-9.85148
▁cesty	-9.85153
▁plné	-9.85219
▁bezpečnosti	-9.85246
▁Nové	-9.85386
▁vzniku	-9.85407
ob	-9.85478
▁body	-9.85503
▁zpracování	-9.85553
▁dát	-9.85761
íky	-9.85786
▁ukazuje	-9.85888
▁Pře	-9.85978
▁trvá	-9.86072
▁řečeno	-9.86172
▁majetek	-9.86172
▁počasí	-9.86173
tá	-9.86175
viz	-9.86176
▁členové	-9.86213
▁Miloš	-9.86302
▁vládu	-9.86318
▁potřeby	-9.86371
dr	-9.86371
▁kanceláře	-9.86375
▁ČSSD	-9.86479
ice	-9.86485
▁zákony	-9.86553
▁lékaři	-9.86691
▁řady	-9.86739
mj	-9.86791
▁vyhrál	-9.86791
▁rozšíření	-9.86852
▁systémů	-9.86936
▁Ko	-9.87008
▁Nový	-9.87185
▁on	-9.87188
▁svaz	-9.87256
man	-9.87389
▁Měl	-9.87435
▁vojenské	-9.87441
▁hranice	-9.87463
▁vývoje	-9.87469
▁názvem	-9.87487
▁rozhodně	-9.87488
▁příjmy	-9.87506
▁2000	-9.87508
▁ekonomiky	-9.87537
▁dosáhnout	-9.87559
▁lidem	-9.87565
▁lidský	-9.87584
▁téma	-9.87603
▁požadavky	-9.8765
▁podobný	-9.87652
▁Slovensku	-9.87665
▁nějaký	-9.87667
▁prodej	-9.87742
nosti	-9.8781
▁500	-9.87848
▁smysl	-9.87946
třech	-9.88063
dl	-9.88316
▁počátku	-9.88359
▁přístupu	-9.88369
▁Ma	-9.88449
dnu	-9.88477
▁řekla	-9.88707
▁dokáže	-9.88808
▁televize	-9.8882
▁ligy	-9.88821
▁výběr	-9.88922
▁jednak	-9.88929
▁Státní	-9.88935
ali	-9.8896
▁konference	-9.88986
▁mechaniky	-9.89012
▁hlavního	-9.89055
▁třicet	-9.89125
▁300	-9.89145
nutí	-9.89238
▁roční	-9.89284
▁celém	-9.89345
▁Čech	-9.89383
▁pole	-9.89425
▁výsledků	-9.89492
▁společného	-9.89697
br	-9.89746
▁prodeje	-9.89839
▁nová	-9.90114
▁parlamentní	-9.90131
▁vnitra	-9.90172
▁velká	-9.90173
▁Prezident	-9.90175
▁poskytuje	-9.90175
▁Československu	-9.90193
00	-9.90252
še	-9.90275
▁nechal	-9.90299
▁škody	-9.90339
brž	-9.90346
▁Tu	-9.9045
w	-9.90484
▁druhá	-9.90491
▁rychlostí	-9.90502
▁Velké	-9.90634
▁závěru	-9.90687
▁souboru	-9.90733
▁druhu	-9.9074
▁proces	-9.90782
sti	-9.90864
▁řad	-9.9087
▁PowerPoint	-9.90928
▁výrobní	-9.90936
▁termín	-9.90939
▁závod	-9.91047
ev	-9.91082
▁70	-9.91087
děl	-9.91113
▁dní	-9.91125
▁skončil	-9.91149
▁majitel	-9.91151
▁zákonů	-9.91303
▁dostat	-9.91382
▁druhého	-9.91535
▁zemědělství	-9.91541
▁látek	-9.91542
▁najít	-9.91551
▁měsících	-9.91556
▁Čechách	-9.91566
▁desítky	-9.91573
▁Atlantě	-9.91582
▁dopravní	-9.91584
▁správy	-9.91604
▁vodní	-9.91688
▁zákoníku	-9.9169
▁vydání	-9.91703
▁osmi	-9.91703
▁jinou	-9.91718
▁město	-9.91758
▁měsíc	-9.91827
▁výběru	-9.92163
CH	-9.92182
▁takového	-9.92362
nout	-9.92446
▁výbor	-9.92457
▁rozhodl	-9.9253
▁rada	-9.92586
▁ni	-9.9266
▁dvaceti	-9.92849
▁Francie	-9.9293
▁schopen	-9.9293
▁nabídku	-9.9293
▁ustanovení	-9.92931
▁snímků	-9.92931
▁uplatnění	-9.92985
▁ráno	-9.9301
▁evropské	-9.93095
▁státech	-9.93115
▁začali	-9.9329
aci	-9.93301
dávají	-9.93431
▁změna	-9.93445
8	-9.93463
▁přijde	-9.9348
▁soukromé	-9.93644
▁hodnocení	-9.93662
▁disk	-9.93934
Í	-9.94139
▁oblast	-9.94153
▁seznamu	-9.94205
▁nim	-9.9426
▁stanice	-9.94311
▁těžké	-9.94339
▁využít	-9.94339
▁rozpočet	-9.94345
▁hodlá	-9.94345
▁školství	-9.94345
▁působení	-9.94357
▁zajistit	-9.94361
▁přijetí	-9.94373
▁tentokrát	-9.94381
▁oficiální	-9.94386
▁převážně	-9.94417
▁částky	-9.94523
▁pořadí	-9.94536
▁vysokou	-9.94543
▁okamžiku	-9.94545
▁dalšího	-9.9455
▁Takže	-9.94568
▁jiná	-9.94571
▁pokus	-9.94631
▁chybí	-9.94672
▁vyplývá	-9.94676
▁minulé	-9.94763
▁obchod	-9.95082
▁využití	-9.95123
dy	-9.95163
▁chtěli	-9.95219
▁Přes	-9.95352
▁názory	-9.95369
▁odmítl	-9.95373
▁obrat	-9.95378
▁nesmí	-9.95592
▁čele	-9.95631
▁Její	-9.95635
▁stane	-9.95688
▁předpokládá	-9.95693
▁spolupráce	-9.95767
▁nejrůznější	-9.95768
▁Mezinárodní	-9.95775
▁směrem	-9.95823
▁místech	-9.95827
▁povolení	-9.95835
▁údajů	-9.95839
▁neza	-9.95932
▁cestou	-9.95974
▁nejde	-9.95983
▁němu	-9.96013
▁Cen	-9.96031
▁máte	-9.96143
▁bohužel	-9.96257
▁družstva	-9.96257
ostí	-9.96335
▁onemocnění	-9.96517
▁výzkumu	-9.96527
▁systémy	-9.9673
ol	-9.96766
tím	-9.96782
▁uvedla	-9.96832
F	-9.96929
▁potřebuje	-9.96955
ed	-9.97123
▁odborné	-9.97171
▁jestli	-9.97182
▁ohledu	-9.97187
▁pondělí	-9.97216
▁prezentaci	-9.97216
▁jednat	-9.97223
▁druh	-9.97237
▁armády	-9.97264
▁pravidelně	-9.9727
▁vyslovil	-9.97282
▁předtím	-9.97308
▁smluvní	-9.97362
▁vznik	-9.97495
▁vědy	-9.97589
▁případů	-9.97616
▁veřejnost	-9.97802
▁dodává	-9.97946
▁vztahy	-9.97949
▁tiskové	-9.97991
▁konkurence	-9.98161
▁změnu	-9.98196
▁nedo	-9.98291
▁taková	-9.98343
▁ceně	-9.98402
do	-9.98425
▁podnikatel	-9.98506
▁soubor	-9.98519
▁dostane	-9.98562
▁nez	-9.98591
▁konferenci	-9.98687
▁podmínkách	-9.98687
▁úrovně	-9.98687
▁spoust	-9.98689
▁radnice	-9.98689
▁června	-9.9869
▁příjmů	-9.98692
▁Poslední	-9.98696
NÍ	-9.98709
▁výjimkou	-9.98732
▁politiku	-9.98769
▁částku	-9.98842
▁rodiny	-9.98895
▁získá	-9.98925
▁směru	-9.98992
▁severní	-9.99011
▁důležitý	-9.99126
▁HIV	-9.99191
▁padesát	-9.99204
▁neměl	-9.99328
▁vztahu	-9.99426
▁policejní	-9.99561
▁podnikatelů	-9.99637
▁museli	-9.99657
▁jakým	-9.99665
▁speciální	-9.99685
▁Naše	-9.99703
▁hráče	-9.99809
▁pokles	-9.99881
▁Mám	-9.99903
str	-10.0002
▁volné	-10.001
▁řešit	-10.0015
▁války	-10.0018
▁většině	-10.0018
▁účetnictví	-10.0018
▁vstup	-10.0018
▁Současn	-10.0018
▁moře	-10.002
▁jednoznačně	-10.0028
▁aliance	-10.0029
vr	-10.0035
▁aktivity	-10.0046
▁žádn	-10.0048
▁%.	-10.0049
▁hráč	-10.0051
▁skupině	-10.0052
▁trestní	-10.0056
▁hodnotu	-10.0057
H	-10.0058
▁19	-10.0061
▁povinnost	-10.0064
▁Ke	-10.0074
▁lékař	-10.0079
▁vánoční	-10.008
▁nově	-10.0091
▁polovinu	-10.0096
▁Jedna	-10.0098
▁přírodní	-10.0105
▁hraje	-10.0111
▁bezpečnostní	-10.0112
▁Václava	-10.0119
▁Aby	-10.012
▁90	-10.0121
▁Rusko	-10.0125
čky	-10.0151
id	-10.0168
▁většiny	-10.0169
▁začít	-10.017
▁politice	-10.017
▁vždycky	-10.017
▁pořádku	-10.0172
▁ODA	-10.0174
▁nemocnice	-10.0177
pro	-10.0178
▁Jenže	-10.0179
▁individuální	-10.0181
▁třemi	-10.0182
▁centra	-10.0182
▁pracovníci	-10.0183
▁univerzity	-10.0183
▁předsedy	-10.02
▁Německo	-10.0204
▁LN	-10.0205
▁budoucnosti	-10.0221
▁německé	-10.0227
▁koupit	-10.0229
▁životě	-10.0235
▁týká	-10.0239
▁paní	-10.024
vý	-10.024
▁akci	-10.0244
▁člen	-10.0248
▁Kdyby	-10.0255
▁snížení	-10.0266
kách	-10.0277
ovala	-10.0278
▁čase	-10.0284
▁předchozí	-10.0304
▁AIDS	-10.0323
▁Británie	-10.0323
▁srpna	-10.0323
▁obyvatelstva	-10.0323
lou	-10.0325
▁Možná	-10.0327
▁hlasů	-10.033
▁Vždyť	-10.0331
▁jím	-10.0337
▁plyn	-10.0337
▁objevil	-10.0341
▁důsledku	-10.0345
▁nes	-10.0348
▁složení	-10.0351
▁Cel	-10.0351
▁miliony	-10.0353
ák	-10.036
▁35	-10.0364
▁Č	-10.0373
▁takových	-10.0375
▁vzdělání	-10.0377
vol	-10.038
▁22	-10.0386
▁vaše	-10.0406
▁úřady	-10.0412
▁400	-10.0425
ran	-10.0426
▁Li	-10.0428
▁výkonu	-10.0433
ároveň	-10.0439
▁banka	-10.0442
▁státních	-10.0453
▁projektu	-10.0462
▁místopředsed	-10.0465
▁používá	-10.047
▁očekávat	-10.048
▁silniční	-10.048
▁buněk	-10.048
vnitř	-10.048
▁zdalek	-10.0482
▁připraven	-10.0484
▁příštím	-10.0484
▁kvalitu	-10.0485
ovaných	-10.0487
▁uspořádání	-10.049
▁dochází	-10.0494
▁Martin	-10.0496
▁myslím	-10.0498
▁průměru	-10.0504
▁auto	-10.0508
▁počítačů	-10.0513
▁chceme	-10.0516
▁premiéra	-10.0527
▁jiným	-10.0535
▁New	-10.0537
▁Pan	-10.0539
pe	-10.0542
▁povinnosti	-10.0544
▁John	-10.0548
▁jejího	-10.0561
pa	-10.0562
▁funkcí	-10.0563
▁hudební	-10.0566
▁demokratické	-10.0568
▁muži	-10.0572
▁obcí	-10.0576
▁La	-10.0586
▁technické	-10.059
▁měsíční	-10.0601
▁konec	-10.0604
▁verze	-10.0605
▁OS	-10.0607
▁částí	-10.0612
▁piva	-10.0637
ace	-10.0638
▁zřejmé	-10.0638
▁přírody	-10.0638
▁Karel	-10.0639
▁marek	-10.0639
▁název	-10.064
▁článku	-10.064
▁síť	-10.064
ant	-10.0641
▁úvahu	-10.0642
▁občas	-10.0644
▁vyžaduje	-10.065
▁jaderné	-10.065
▁okresní	-10.0651
▁odborníků	-10.0652
▁programy	-10.0653
▁závěr	-10.0654
▁agentury	-10.0655
▁Oba	-10.0658
▁privatizaci	-10.0658
▁bank	-10.0672
budete	-10.0683
▁150	-10.0685
▁kolo	-10.0695
▁budu	-10.0705
▁hlavních	-10.0706
▁kola	-10.0707
▁Mar	-10.0708
op	-10.0713
▁mění	-10.0713
▁sovětské	-10.072
▁příštího	-10.0743
▁relativn	-10.0745
pr	-10.0746
▁set	-10.076
▁vývoji	-10.0777
▁poslanec	-10.078
▁jména	-10.08
▁věnovat	-10.08
▁historii	-10.08
▁válce	-10.08
▁vaší	-10.0802
▁politika	-10.0813
▁vyjádřil	-10.0815
▁Myslím	-10.0817
▁zákaz	-10.0821
▁vývoz	-10.0832
▁hotelu	-10.0837
▁stroje	-10.0838
▁režimu	-10.0838
▁změně	-10.0852
▁sta	-10.086
▁druhy	-10.0863
▁Škoda	-10.0866
▁programů	-10.0873
G	-10.0878
▁Miroslav	-10.0891
▁výrobců	-10.0895
▁daňové	-10.0902
▁Společnost	-10.0906
uto	-10.0911
▁titul	-10.0913
▁soutěž	-10.0915
▁nákup	-10.0917
▁aktivní	-10.0924
▁bytu	-10.0934
▁stranu	-10.0958
▁neu	-10.096
ěkteří	-10.0963
▁považován	-10.0964
▁Základní	-10.0969
▁smlouva	-10.097
▁mechanika	-10.0982
▁pocit	-10.0982
▁typů	-10.0993
▁hranici	-10.0999
▁družstev	-10.0999
▁jednoduché	-10.1001
▁abych	-10.1003
▁zůstane	-10.1011
▁roste	-10.1013
▁Stál	-10.1019
▁1995	-10.1019
▁řád	-10.1021
▁veškeré	-10.1022
▁21	-10.1027
▁skutečné	-10.1029
méně	-10.1029
▁autor	-10.1036
▁typy	-10.1039
fi	-10.1045
▁potvrdil	-10.1058
▁počítat	-10.1064
▁zákazníků	-10.1073
▁lékařů	-10.1076
▁dob	-10.1088
▁podnikatelské	-10.1099
▁Pod	-10.1106
▁svému	-10.1107
▁jakou	-10.1107
▁Hlavní	-10.1119
▁Ú	-10.1123
▁My	-10.1127
▁kláves	-10.113
▁úterý	-10.113
▁Lidé	-10.113
▁Letos	-10.113
▁šance	-10.113
▁lednu	-10.1131
▁někdejší	-10.1131
vy	-10.1132
▁globální	-10.1132
▁ruce	-10.1133
▁jestliže	-10.1136
▁dům	-10.1137
▁profesionální	-10.1139
ing	-10.1145
▁získala	-10.1146
▁hledání	-10.1152
▁vrátit	-10.1157
▁oblastí	-10.1162
▁kapitálu	-10.1165
▁značné	-10.1169
nými	-10.1175
ovací	-10.1181
▁devět	-10.1186
rt	-10.1193
▁problémem	-10.1204
řka	-10.1228
▁stejný	-10.1233
▁uvedené	-10.1237
rad	-10.1239
▁tvrzení	-10.1241
▁4.	-10.1244
▁re	-10.1256
ček	-10.1261
▁vznikla	-10.1263
len	-10.1277
▁soutěži	-10.128
▁třetím	-10.1281
ga	-10.1288
▁připravuje	-10.1291
▁Chce	-10.1295
▁včerejší	-10.1295
▁časem	-10.1296
▁Zákon	-10.1299
▁používat	-10.13
▁verzi	-10.13
▁potíže	-10.13
▁vystoupení	-10.13
▁tabulky	-10.1301
▁mzdy	-10.1302
▁nejdříve	-10.1304
▁shromáždění	-10.1304
▁známé	-10.1307
▁zvlášť	-10.1308
▁3.	-10.131
▁novým	-10.1313
▁odpověď	-10.1315
▁nedá	-10.1315
▁někter	-10.1315
▁rozdělení	-10.1316
/2	-10.1318
▁najednou	-10.132
án	-10.132
▁poměr	-10.1321
inak	-10.1337
gr	-10.1338
▁označení	-10.1342
▁vztahů	-10.1342
▁zprávu	-10.1351
▁členství	-10.1359
▁liší	-10.1362
▁sportovní	-10.1363
▁Re	-10.1371
▁soudí	-10.138
▁silné	-10.1382
▁počítači	-10.1382
nit	-10.1385
▁existují	-10.1387
ic	-10.1394
▁dané	-10.1415
▁centru	-10.1416
ejte	-10.143
▁oznámil	-10.1431
▁tlačítko	-10.1434
▁96	-10.1438
▁nechce	-10.1456
dostatečně	-10.146
▁hospodaření	-10.1472
▁zaměstnanci	-10.1472
▁Nicméně	-10.1472
▁výrobci	-10.1472
▁odpadů	-10.1474
▁plán	-10.1477
▁pozici	-10.1486
▁soukromých	-10.1487
▁odpovídající	-10.1489
▁dvanáct	-10.1491
▁soudní	-10.1492
▁respekt	-10.1494
▁Československa	-10.1498
▁pohybu	-10.1505
▁díla	-10.1514
▁MB	-10.1534
▁poměru	-10.1534
▁občanské	-10.1536
▁disku	-10.1545
▁vnější	-10.1548
▁Národní	-10.1548
▁velikost	-10.1559
▁sedmi	-10.1561
▁schopnost	-10.1567
▁týdne	-10.1574
dostala	-10.1581
▁NA	-10.1596
▁zajímavé	-10.1598
▁pojistné	-10.1601
▁získali	-10.1602
▁Že	-10.1608
▁spočívá	-10.1612
▁Františ	-10.162
▁měnit	-10.1628
SK	-10.1637
▁zaplatí	-10.1638
▁Sb	-10.1641
▁Dále	-10.1648
▁prvků	-10.1648
▁Pohár	-10.1649
▁mil	-10.1649
▁DNA	-10.1649
▁firmu	-10.165
▁mozku	-10.1652
▁půdě	-10.1653
▁mnozí	-10.1655
▁letošním	-10.1656
▁přechod	-10.1662
zn	-10.1663
▁poháru	-10.167
▁teploty	-10.1671
▁Nová	-10.1673
▁zemědělské	-10.1676
▁metody	-10.1682
ící	-10.1684
▁pořád	-10.1685
▁neví	-10.1686
ul	-10.1698
▁ochranu	-10.17
▁zvolen	-10.1704
▁stanoven	-10.1708
▁nárok	-10.1712
▁Největší	-10.1717
▁nepro	-10.1718
rovna	-10.172
▁napsal	-10.1726
▁Ba	-10.1733
▁zemřel	-10.1735
▁účasti	-10.1738
kové	-10.1744
▁hrozí	-10.1747
▁tradiční	-10.1752
▁posledním	-10.1752
▁republika	-10.1756
▁tajemství	-10.1757
▁základ	-10.1761
▁žije	-10.1763
▁poznání	-10.1763
▁budoucnost	-10.1766
▁23	-10.177
▁hledat	-10.1786
▁Vše	-10.1789
hal	-10.1792
▁materiál	-10.1794
▁pohledu	-10.1807
alo	-10.181
▁zůstat	-10.1821
▁déle	-10.1822
▁natolik	-10.1826
▁rodiče	-10.1826
▁podpory	-10.1826
▁tudíž	-10.1826
▁reprezentace	-10.1826
▁zdůraznil	-10.1826
▁výrobě	-10.1829
▁částečně	-10.1829
▁Poté	-10.1833
▁snah	-10.1833
jící	-10.1833
▁karty	-10.1835
▁vzájemné	-10.1836
▁centrální	-10.1838
▁vytváření	-10.184
▁významné	-10.184
▁dílo	-10.1841
▁vlastností	-10.1841
▁Existuj	-10.1848
▁dalšími	-10.1849
▁Československo	-10.185
▁zavedení	-10.1853
▁slouží	-10.1854
▁dávno	-10.1863
ální	-10.1866
▁jaderný	-10.187
▁musím	-10.1873
▁hra	-10.1879
▁aplikací	-10.1889
▁výroba	-10.1896
▁obrazu	-10.1914
▁důvodu	-10.1915
▁těžký	-10.192
ník	-10.1921
▁záležitost	-10.1923
▁lidské	-10.1927
▁0	-10.1937
▁úřadů	-10.1961
▁slovenské	-10.1961
▁leží	-10.1969
▁riziko	-10.1972
▁společný	-10.1975
ována	-10.199
ver	-10.1995
vo	-10.1995
▁včas	-10.1996
▁brněnské	-10.2001
▁připojištění	-10.2008
▁pomalu	-10.2008
▁kvalifikaci	-10.2008
▁neexistuje	-10.2008
▁česká	-10.2008
▁připomíná	-10.2009
▁mně	-10.201
▁odpoledne	-10.2011
▁oblastech	-10.2013
▁Dva	-10.2016
▁svědčí	-10.2021
▁Tři	-10.2023
▁materiálů	-10.2026
um	-10.2027
▁odboru	-10.2031
▁teplo	-10.2033
ací	-10.2034
▁dohodu	-10.2035
▁ztráty	-10.2035
▁mnohé	-10.204
▁Slovenska	-10.2044
hr	-10.2051
▁potřeba	-10.2092
▁poloviny	-10.2097
▁Musí	-10.2109
▁patnáct	-10.2117
▁přístroje	-10.2119
▁nabízejí	-10.2122
ován	-10.2123
▁nutno	-10.2128
▁zásadní	-10.2129
▁loňském	-10.2132
▁zahájení	-10.2139
▁Ústav	-10.2154
▁nejvíc	-10.2159
▁představ	-10.216
▁měst	-10.2168
▁tajemník	-10.2169
▁Roz	-10.2173
▁příklad	-10.2174
▁programové	-10.2179
▁končí	-10.2181
nice	-10.2183
▁vánoce	-10.2185
▁Itálie	-10.2193
▁Ovšem	-10.2193
▁stránce	-10.2193
▁praxe	-10.2193
▁minimální	-10.2193
▁desítek	-10.2193
▁vybrat	-10.2195
▁nicméně	-10.2196
▁Ministr	-10.2196
▁Ostravě	-10.2196
▁neustále	-10.2196
▁očekává	-10.2203
▁vyjádření	-10.2203
▁soustavy	-10.2204
▁dodnes	-10.2208
čtí	-10.221
▁problému	-10.2212
ního	-10.2212
▁rozhovoru	-10.2219
▁zvířat	-10.2226
▁technický	-10.2227
▁určitou	-10.2229
▁staré	-10.2232
▁ústavní	-10.2232
▁takovém	-10.2233
▁standardní	-10.2238
▁vzor	-10.2243
▁italské	-10.2257
▁vývozu	-10.2263
▁řádu	-10.2263
▁efekt	-10.2264
▁žena	-10.2267
▁závodu	-10.2276
J	-10.2285
▁molekul	-10.2285
vin	-10.2292
▁km	-10.2294
▁čisté	-10.2302
kami	-10.2306
▁boj	-10.2323
▁dělá	-10.2329
▁mimořádn	-10.2331
▁Někd	-10.2345
▁filmu	-10.2348
pra	-10.2348
▁současn	-10.2356
▁znám	-10.2373
▁Všichni	-10.2382
▁náměstek	-10.2382
▁špatně	-10.2382
▁Naopak	-10.2382
▁Snad	-10.2382
▁jediná	-10.2382
▁odborníci	-10.2382
▁poptávky	-10.2382
▁zaměstnance	-10.2382
▁okna	-10.2382
▁poslance	-10.2383
▁KSČM	-10.2384
▁potřebují	-10.2384
▁vychází	-10.2385
▁stovky	-10.2389
▁měření	-10.239
▁nemohl	-10.2391
▁těsně	-10.2394
▁produktů	-10.2394
ané	-10.2397
nik	-10.2401
▁start	-10.2404
▁liber	-10.2407
▁záležitostí	-10.241
▁zrušení	-10.2411
▁automaticky	-10.2414
▁vzduchu	-10.2414
▁19.	-10.2419
▁rozsahu	-10.2421
▁samo	-10.2428
tud	-10.2432
ková	-10.2434
▁současný	-10.2452
▁neměli	-10.2459
▁manažer	-10.2462
▁přesvědčen	-10.2467
ovými	-10.2468
▁oni	-10.2472
též	-10.2473
▁úspěchu	-10.2474
▁činností	-10.2477
▁zákonem	-10.2487
del	-10.249
▁koncentrace	-10.2493
▁9	-10.2495
▁pravé	-10.2497
▁jedná	-10.2508
▁12.	-10.2509
▁diváků	-10.251
▁studentů	-10.2512
▁příslušné	-10.2525
mého	-10.2547
tní	-10.2558
▁Velk	-10.2564
▁rozvoje	-10.2564
▁rozhodne	-10.2565
▁nepři	-10.2566
▁Každ	-10.2572
▁paměti	-10.2574
▁Ředitel	-10.2574
▁historie	-10.2574
▁věnoval	-10.2574
▁bydlení	-10.2574
▁pojetí	-10.2574
▁investovat	-10.2576
▁dodávky	-10.2576
bavit	-10.2576
▁krátce	-10.2576
▁pohybuje	-10.2577
▁návrhy	-10.258
▁lidmi	-10.2581
▁šampionátu	-10.2589
▁dostává	-10.2589
▁normální	-10.2592
▁mladé	-10.2593
▁domě	-10.2594
▁daň	-10.26
▁provedení	-10.26
▁úvěr	-10.2617
▁muže	-10.262
▁cesta	-10.2622
čet	-10.2626
▁Zdá	-10.2627
▁obecní	-10.2628
▁čtení	-10.2634
▁materiálu	-10.264
▁domácím	-10.2642
▁podepsal	-10.2647
ad	-10.2655
▁určit	-10.2663
▁vést	-10.2664
▁Evropsk	-10.2667
7	-10.2671
▁rychlosti	-10.2682
▁jinými	-10.2689
ot	-10.2698
▁prospěch	-10.2705
▁vítěz	-10.2726
▁Čí	-10.273
▁Evropa	-10.2733
šel	-10.2734
▁daní	-10.2735
ur	-10.2744
▁koncert	-10.275
sta	-10.2755
ily	-10.2759
▁Br	-10.276
▁Především	-10.277
▁Richard	-10.277
▁snížit	-10.277
▁umožní	-10.277
▁úsilí	-10.277
▁minimálně	-10.277
▁míře	-10.277
▁doslova	-10.277
▁měsíčně	-10.277
▁pravdu	-10.277
▁Češi	-10.2771
▁Spojené	-10.2771
▁studie	-10.2772
▁celek	-10.2773
▁zvýšit	-10.2774
▁policistů	-10.2774
HO	-10.2777
▁zobrazení	-10.2779
▁myší	-10.2781
▁tvorbu	-10.2781
▁okolností	-10.2783
▁malá	-10.2783
▁obecně	-10.2784
▁mistrů	-10.2788
▁pozice	-10.2788
▁cestě	-10.2789
▁odpadní	-10.2791
▁elektrárny	-10.2795
▁akcie	-10.2795
▁třídy	-10.2802
lze	-10.2805
▁různým	-10.2808
▁povrchu	-10.2808
▁nemoci	-10.2812
▁festivalu	-10.2813
▁žádná	-10.2816
▁žádném	-10.283
ina	-10.2835
▁seznam	-10.2838
▁snímky	-10.2839
▁domácích	-10.2844
▁centrum	-10.2846
bal	-10.285
▁poklesu	-10.2851
▁vzniká	-10.2851
▁hodinu	-10.2852
RA	-10.2852
pis	-10.2853
▁PowerPointu	-10.2859
▁nechat	-10.2859
▁jediné	-10.2869
▁skupinu	-10.2879
▁cm	-10.288
▁známo	-10.2886
▁správně	-10.2892
▁ú	-10.2895
▁znát	-10.2901
▁dějin	-10.2911
▁FS	-10.2913
▁polovina	-10.2921
▁Federální	-10.2935
▁zpráv	-10.2939
▁Tam	-10.2946
▁zahájil	-10.2946
směs	-10.2951
▁Program	-10.2964
▁uveden	-10.2968
▁Samozřejmě	-10.297
▁divadla	-10.297
▁pojišťovny	-10.297
▁rozhodování	-10.297
▁ČNR	-10.297
▁nabídka	-10.297
▁širší	-10.297
▁půjde	-10.297
▁konkurenční	-10.2972
▁tvář	-10.2972
▁nebyli	-10.2973
▁hospodářsk	-10.2975
▁přední	-10.2976
cen	-10.2977
▁myšlení	-10.298
▁půdy	-10.2984
▁armáda	-10.2984
▁představení	-10.2986
▁sdělení	-10.2989
▁b	-10.2996
▁nezávislých	-10.2997
▁výdaje	-10.3005
▁podnikatelé	-10.3006
▁vrátil	-10.3011
▁námi	-10.3011
▁rekord	-10.3016
bor	-10.3018
▁úpravy	-10.3018
▁zákazníky	-10.3019
▁postoj	-10.3025
▁vysokých	-10.3028
fr	-10.3029
ovaný	-10.3035
var	-10.3037
▁britské	-10.3043
▁Ob	-10.3052
▁rádi	-10.3053
▁myslí	-10.3064
▁existence	-10.3066
▁výraz	-10.3073
▁ochran	-10.3075
▁ba	-10.3075
▁letní	-10.3082
▁váš	-10.3091
▁organizací	-10.3099
jak	-10.31
▁hlasování	-10.3109
▁zpráva	-10.311
▁paragraf	-10.3115
ovu	-10.3119
▁II	-10.3124
▁17.	-10.3129
▁maximáln	-10.313
▁voda	-10.3145
▁pořad	-10.3151
▁Slovensko	-10.3163
▁uvedený	-10.3169
▁Němci	-10.3174
▁církve	-10.3174
▁nízké	-10.3174
▁odmítá	-10.3174
▁týdny	-10.3174
▁zapotřebí	-10.3174
▁usnesení	-10.3174
▁Teď	-10.3174
▁privatizační	-10.3174
▁létě	-10.3175
▁StB	-10.3176
▁prodejní	-10.3183
▁správné	-10.3184
▁úkol	-10.3186
▁zájmy	-10.3187
▁děje	-10.3188
▁automobilů	-10.3188
▁mluví	-10.3189
ič	-10.3195
▁obce	-10.3195
eprve	-10.3197
▁příslušný	-10.3197
▁porušení	-10.3198
▁mladých	-10.3199
▁původu	-10.32
▁důsledky	-10.3201
▁stejn	-10.3204
▁přišla	-10.3209
lit	-10.3217
▁Internetu	-10.3219
▁ruský	-10.3219
▁souhlas	-10.3222
▁autorů	-10.3222
▁žijící	-10.3222
▁Ano	-10.3223
ovaly	-10.3227
ském	-10.3232
▁trest	-10.3233
▁představy	-10.3237
▁občan	-10.3241
▁velikosti	-10.3246
▁1988	-10.3246
▁lidského	-10.3247
▁reprezentant	-10.3247
▁částka	-10.3257
▁německého	-10.3257
▁Sovětské	-10.3259
▁smrt	-10.3283
▁řídí	-10.3283
▁Ku	-10.3286
▁barevné	-10.3286
▁vůle	-10.3296
▁bezpečnost	-10.3297
▁rozhodla	-10.3307
th	-10.3313
▁zmíněné	-10.332
▁pacientů	-10.3322
▁vědomí	-10.3323
▁byty	-10.3329
▁běžný	-10.3348
▁plat	-10.3351
▁pozitivní	-10.3351
▁Asi	-10.3352
▁vlastním	-10.3358
ber	-10.3363
▁vyspělý	-10.3367
▁papír	-10.3379
hn	-10.3381
▁zdejší	-10.3381
▁Moskvě	-10.3383
▁Třetí	-10.3383
▁vynikající	-10.3383
▁štěstí	-10.3383
▁Francii	-10.3383
▁ihned	-10.3383
▁populace	-10.3383
▁spotřební	-10.3383
▁mužstva	-10.3383
▁mluvit	-10.3383
▁Pomuku	-10.3383
▁obětí	-10.3384
▁firmou	-10.3385
▁zvyšuje	-10.3385
▁těla	-10.3388
▁dovolené	-10.3391
▁Proti	-10.3392
▁Více	-10.3394
▁obavy	-10.3394
▁úmrtnosti	-10.3395
▁zastoupení	-10.3397
▁nemocnici	-10.3398
▁Ro	-10.3402
▁Avšak	-10.3403
▁Předseda	-10.3412
ík	-10.3416
▁Jižní	-10.342
▁lesní	-10.3426
▁Druhý	-10.343
▁pracovník	-10.343
hu	-10.3436
▁příprav	-10.3437
▁ročníku	-10.3443
▁míč	-10.3447
▁příkaz	-10.3449
▁německých	-10.3457
▁Milan	-10.3457
▁Česko	-10.3459
▁tamní	-10.3469
▁výhradn	-10.3483
▁všeho	-10.3484
▁kroky	-10.3487
CE	-10.3491
▁objem	-10.3494
▁vidí	-10.3498
ned	-10.3505
▁molekuly	-10.3519
▁osmdesát	-10.3521
▁snaha	-10.3523
▁tisk	-10.3528
▁horší	-10.3528
▁studiu	-10.3529
▁zdroj	-10.3531
▁největším	-10.3534
▁600	-10.3535
▁určitý	-10.3537
něk	-10.3542
▁představují	-10.3549
▁příštích	-10.3549
▁osud	-10.355
▁přichází	-10.355
▁placení	-10.355
vést	-10.3554
▁účastní	-10.3555
ským	-10.3556
ovo	-10.3557
▁postupu	-10.3559
▁pražském	-10.3577
EL	-10.3578
▁pa	-10.358
▁lékařské	-10.3585
ú	-10.3587
▁budoucnu	-10.3595
▁civilní	-10.3595
▁konkurenci	-10.3595
▁nakladatelství	-10.3595
▁sledovat	-10.3595
▁transformace	-10.3595
▁zabránit	-10.3595
▁úmrtí	-10.3595
▁Slavie	-10.3595
▁souvisí	-10.3595
▁tehdejší	-10.3595
▁jedinou	-10.3596
▁operace	-10.3596
▁zlepšení	-10.3596
▁PCB	-10.3596
▁výsledkem	-10.3597
▁příjmu	-10.3599
▁rozhodnout	-10.36
▁doktor	-10.36
▁formou	-10.3601
▁Vedle	-10.3601
▁funkční	-10.3601
▁Vláda	-10.3603
▁zbytečné	-10.3604
▁zaplatit	-10.3605
▁výhodné	-10.3608
▁koruny	-10.3616
▁nákladní	-10.3619
▁prodat	-10.3622
▁financování	-10.3625
sk	-10.3626
Sc	-10.3629
▁americký	-10.3631
▁účely	-10.3631
▁povinností	-10.3634
▁partnery	-10.3641
▁produktu	-10.3642
▁noviny	-10.3643
▁starých	-10.3647
ita	-10.3648
▁příležitosti	-10.3651
▁řeči	-10.3658
▁celkový	-10.3671
▁pracovníky	-10.3678
▁velkým	-10.3679
EM	-10.3681
▁napětí	-10.3693
▁pražsk	-10.3701
▁zápasy	-10.3705
▁všechn	-10.3706
▁zápasu	-10.3713
▁rychlé	-10.3718
▁řeč	-10.3719
▁neměla	-10.3725
▁kontrolu	-10.3729
rak	-10.3731
jet	-10.3742
ží	-10.3745
▁dostali	-10.375
▁uzavření	-10.3752
▁stál	-10.376
▁německý	-10.376
▁telefon	-10.3763
▁sv	-10.3768
▁jasně	-10.3773
čka	-10.3786
▁zůstal	-10.3793
tal	-10.3797
▁někde	-10.3811
▁Ostatně	-10.3813
▁Sdružení	-10.3813
▁rekreační	-10.3813
▁krize	-10.3813
▁červnu	-10.3813
sko	-10.3814
▁udržet	-10.3815
▁přiznání	-10.3815
▁sítí	-10.3817
▁porovnání	-10.3818
▁místnosti	-10.3821
▁Kde	-10.3822
▁prodávat	-10.3823
nk	-10.3826
▁Moravy	-10.3827
▁znalosti	-10.3828
▁všemi	-10.383
▁trenéra	-10.3831
▁strojů	-10.3833
▁začátkem	-10.3834
▁hodnotě	-10.3836
▁rozporu	-10.3838
▁lesy	-10.384
▁Washingtonu	-10.3841
pana	-10.3843
▁zimní	-10.3846
▁turnaje	-10.3859
ive	-10.3865
▁dotaz	-10.3866
pat	-10.387
▁Ačkoli	-10.387
▁vedením	-10.3875
▁hodnota	-10.3876
▁radost	-10.3877
▁nemáme	-10.388
▁hvězd	-10.388
dali	-10.3881
▁hod	-10.3888
▁operační	-10.3894
ig	-10.3896
▁Pr	-10.3898
▁Ruska	-10.3899
▁nynější	-10.39
▁export	-10.3905
ujeme	-10.3912
SE	-10.3913
▁omezení	-10.3913
mile	-10.3918
šlo	-10.3918
▁dokument	-10.3919
▁případné	-10.3921
▁cenný	-10.3923
pětí	-10.3925
▁spojené	-10.393
bou	-10.3931
▁případu	-10.3934
▁místy	-10.3938
▁On	-10.3944
▁použit	-10.3946
osud	-10.3947
▁slovy	-10.3951
▁Zá	-10.3957
▁jednotky	-10.3957
▁spor	-10.396
▁voličů	-10.3967
▁pražského	-10.3969
ilo	-10.3969
▁součást	-10.3971
▁poškození	-10.3973
▁záleží	-10.3987
▁přináší	-10.3988
▁obrázek	-10.3992
▁pravidla	-10.3995
ster	-10.4002
▁výskyt	-10.4016
čení	-10.4022
kupní	-10.4024
▁dítě	-10.4025
▁druhým	-10.4031
▁Bratislavě	-10.4035
▁Návrh	-10.4035
▁nabídnout	-10.4035
▁otázce	-10.4035
▁týdnů	-10.4035
▁uskuteční	-10.4035
▁dovolit	-10.4035
▁podpora	-10.4035
▁péči	-10.4035
▁okno	-10.4035
▁nedostatek	-10.4035
▁nepodařilo	-10.4035
▁kategorie	-10.4036
▁Brno	-10.4037
▁Nakonec	-10.4037
▁Nebo	-10.4038
▁prvky	-10.4038
▁připravit	-10.4038
▁návštěvě	-10.4038
▁buňky	-10.404
▁stará	-10.4041
▁pobyt	-10.4044
▁Podnik	-10.4045
▁jaterní	-10.4046
▁soupeře	-10.4047
Š	-10.4049
▁malou	-10.4052
▁domácnosti	-10.4054
▁dojde	-10.4055
▁osobně	-10.4056
▁denní	-10.4059
ač	-10.406
▁nena	-10.4061
▁barev	-10.4064
▁získání	-10.4066
▁Tomáš	-10.4068
▁provést	-10.4068
▁porazil	-10.4068
▁věd	-10.4069
musela	-10.4071
▁nezaměstnanosti	-10.4074
▁stanici	-10.4075
ven	-10.4087
▁šlo	-10.4088
OV	-10.4099
▁úspor	-10.41
as	-10.41
▁tlak	-10.4106
▁partnera	-10.4109
▁vstupu	-10.4109
▁nese	-10.4112
▁stroj	-10.4116
▁3000	-10.4127
▁filmů	-10.4129
▁charakter	-10.4131
▁nájemné	-10.4133
▁odst	-10.4138
iny	-10.4145
▁případy	-10.4151
▁Dr	-10.4153
▁státním	-10.4153
▁jaká	-10.4157
ických	-10.4162
▁stává	-10.4165
raz	-10.4173
▁začalo	-10.4174
▁škola	-10.418
▁odpověděl	-10.4184
▁regionální	-10.4186
níci	-10.4186
▁ministrů	-10.4221
▁Ch	-10.4226
▁modelu	-10.4228
sku	-10.4236
▁profesor	-10.4237
▁neod	-10.4243
▁západních	-10.4248
éměř	-10.4256
▁ochot	-10.4258
▁Místo	-10.426
▁Slunce	-10.4262
▁funguje	-10.4262
▁otázek	-10.4262
▁pojišťovna	-10.4262
▁rozhodovat	-10.4262
▁stáří	-10.4262
▁dlouhodobé	-10.4262
▁letadla	-10.4262
▁molekulární	-10.4262
▁operaci	-10.4262
▁žádá	-10.4262
▁aktuální	-10.4263
▁SRN	-10.4264
▁vyšetřování	-10.4265
▁oficiálně	-10.4265
▁vystudoval	-10.4266
▁formě	-10.4266
▁vypadá	-10.4266
▁sezóně	-10.4267
▁Brna	-10.4268
▁čtenář	-10.4268
▁vytvoří	-10.4269
▁rozdíly	-10.4271
▁fakultě	-10.4271
▁Evropský	-10.4274
▁UK	-10.4275
▁dobrou	-10.4279
▁komory	-10.4282
▁fakulty	-10.4283
▁zjištění	-10.4283
▁návštěvníků	-10.4283
▁otevření	-10.429
▁struktury	-10.429
▁vyberte	-10.4291
▁úspěšně	-10.4293
▁víkendu	-10.4294
▁ano	-10.4298
▁členem	-10.4298
▁cíle	-10.43
▁jezdí	-10.4301
vou	-10.4305
▁začaly	-10.4306
nil	-10.4312
▁hrál	-10.4313
▁jižní	-10.4315
▁mé	-10.4316
ala	-10.4322
▁nájemného	-10.4324
▁pobytu	-10.4325
▁takovým	-10.4327
▁dohoda	-10.4338
▁ostatně	-10.4341
▁obyvatelé	-10.4343
▁akcí	-10.4349
▁obr	-10.436
▁klubů	-10.4368
▁prodeji	-10.4372
▁obsahu	-10.4376
rod	-10.4378
▁docela	-10.4379
▁princip	-10.4384
▁ex	-10.4389
▁ročník	-10.4393
koliv	-10.4396
cházet	-10.4399
▁příležitost	-10.4402
▁snížil	-10.4404
▁čtvrté	-10.4405
▁styl	-10.4405
▁účastníků	-10.4433
▁odpovědnost	-10.4436
▁prostory	-10.4441
ovaná	-10.4441
ouze	-10.4445
▁zůstávají	-10.4446
▁tvar	-10.4453
▁zjistit	-10.4462
▁církev	-10.4462
▁ona	-10.4478
▁hře	-10.449
ovém	-10.4491
▁pořadatel	-10.4491
▁jiném	-10.4492
▁významný	-10.4492
▁nejlepším	-10.4495
Č	-10.4495
▁Anglie	-10.4495
▁nestačí	-10.4495
▁Nejvyšší	-10.4495
▁Polici	-10.4495
▁příspěvek	-10.4495
▁přinejmenším	-10.4495
▁mladší	-10.4495
▁přijít	-10.4495
▁Stačí	-10.4495
▁dráhy	-10.4495
▁organizační	-10.4497
▁vozů	-10.4497
▁poznatky	-10.4497
▁policisté	-10.4498
▁vlastnictví	-10.4499
▁levnější	-10.4499
▁zabezpečení	-10.45
▁přijmout	-10.45
▁Králové	-10.4501
▁Bosně	-10.4501
▁americk	-10.4503
▁předpisů	-10.4503
▁uznání	-10.4505
▁obrazovky	-10.4505
▁tvorby	-10.4507
▁komplexní	-10.4508
▁hodinách	-10.4508
ném	-10.451
▁podobu	-10.4513
▁fyziky	-10.4514
▁ryb	-10.4521
▁The	-10.4525
▁předsedou	-10.4526
▁Olomouci	-10.4528
▁léky	-10.453
▁starosti	-10.4534
▁českou	-10.4534
▁hodnot	-10.4534
▁plochy	-10.4536
▁Američan	-10.4542
▁zákazník	-10.4543
▁vytváří	-10.4548
▁mnohd	-10.4549
▁pacienta	-10.455
▁ekonomických	-10.4551
▁zvýšil	-10.4553
▁Hor	-10.4564
▁stejném	-10.4564
▁zápasů	-10.4566
▁úspěšné	-10.457
▁zemské	-10.457
ODS	-10.4573
▁nejčastěji	-10.4576
▁auta	-10.4577
▁16.	-10.4579
▁nejdůležitější	-10.4583
hy	-10.4584
▁Bo	-10.4587
▁vrátí	-10.459
▁pochopitelně	-10.459
ej	-10.4591
vzdor	-10.4593
▁vojensk	-10.4597
▁Obě	-10.4605
▁rodinné	-10.4612
dat	-10.4618
▁ministrem	-10.462
▁Mo	-10.4623
▁fotbal	-10.4623
he	-10.4624
▁připravil	-10.4625
ář	-10.4626
▁chodí	-10.4631
▁spokojen	-10.4632
▁podzim	-10.4642
▁SE	-10.466
▁potravin	-10.466
▁městské	-10.466
▁technologií	-10.4662
▁významu	-10.4665
▁úprav	-10.4668
▁f	-10.4669
blíž	-10.4674
ovalo	-10.4687
▁prodává	-10.4687
KA	-10.47
:	-10.47
▁vedl	-10.4703
▁18.	-10.4703
▁kancelář	-10.4705
▁video	-10.4707
▁kon	-10.4711
▁průmyslový	-10.4723
▁Anglii	-10.4733
▁NHL	-10.4733
▁asociace	-10.4733
▁chvíle	-10.4733
▁duchovní	-10.4733
▁jménem	-10.4733
▁medaile	-10.4733
▁mužstvo	-10.4733
▁navzájem	-10.4733
▁odpovědi	-10.4733
▁využívat	-10.4733
▁článek	-10.4733
▁dětem	-10.4733
▁Jaromír	-10.4733
▁ČEZ	-10.4733
▁Microsoft	-10.4733
▁zástupců	-10.4733
▁Chtěl	-10.4733
▁požadavek	-10.4733
▁okolní	-10.4733
▁výpočetní	-10.4739
▁zabývat	-10.4739
▁třikrát	-10.474
▁Te	-10.4744
▁Dvě	-10.4746
▁28	-10.4747
▁trhy	-10.4751
▁výstavby	-10.4751
▁týkající	-10.4758
▁uzavřít	-10.4763
▁umístění	-10.4768
▁dopis	-10.4772
EN	-10.4773
▁Takové	-10.4775
▁praktické	-10.4775
▁osobnosti	-10.4778
▁špatné	-10.478
▁samostatné	-10.478
▁používání	-10.4782
▁obsahující	-10.4784
▁stanovení	-10.4785
▁Profitu	-10.4789
▁fondů	-10.4789
▁popis	-10.479
▁tenis	-10.4791
mat	-10.4796
▁přijal	-10.4797
▁Rusk	-10.48
▁průměrn	-10.4802
čin	-10.481
▁mistra	-10.4811
vé	-10.4815
▁francouzské	-10.4816
▁veřejně	-10.4816
▁ekologické	-10.4827
▁úvodní	-10.4829
rn	-10.4829
▁odvětví	-10.4829
▁projev	-10.4831
▁svá	-10.4833
▁jednoduchý	-10.4836
▁obratu	-10.4836
▁generál	-10.4852
▁prezidentem	-10.4858
▁počítačové	-10.4864
▁120	-10.4867
stavit	-10.4869
▁daňový	-10.4872
ete	-10.4881
▁soupeř	-10.4888
ický	-10.4888
▁žádost	-10.4889
▁školní	-10.4892
▁ko	-10.4894
▁skončila	-10.4896
▁250	-10.4897
and	-10.4898
▁vyhrála	-10.4898
▁minulém	-10.4902
der	-10.4903
▁sdělil	-10.4903
▁chemické	-10.4926
hled	-10.493
▁něž	-10.4946
▁turnaj	-10.4946
▁způsobu	-10.4947
dle	-10.4955
▁organismu	-10.4958
▁PRO	-10.4962
▁Stát	-10.4965
▁kolegy	-10.4971
up	-10.4972
▁ministři	-10.4977
▁považuji	-10.4977
▁vysoká	-10.4977
▁organizaci	-10.4977
▁Michal	-10.4977
▁chtít	-10.4977
▁generace	-10.4977
▁územní	-10.4977
▁studia	-10.4977
▁volně	-10.4978
▁vyplatí	-10.4979
▁souladu	-10.4979
▁neznamená	-10.498
▁nastoupil	-10.4981
▁Karlovy	-10.4986
▁související	-10.4987
▁zajištění	-10.4987
▁lesů	-10.4988
▁Polska	-10.4988
▁nástrojů	-10.4988
sp	-10.4992
▁panelu	-10.4996
kov	-10.4997
áš	-10.5
▁časopisu	-10.5001
▁kdysi	-10.5005
▁odborných	-10.5006
▁silně	-10.5006
▁občané	-10.5008
▁nejspíš	-10.501
▁RN	-10.5011
▁opravy	-10.5016
▁sekundu	-10.5021
▁ústavy	-10.5021
▁ví	-10.5023
▁přenosu	-10.5024
▁nemělo	-10.5026
▁10.	-10.5027
▁možných	-10.5027
▁ačkoli	-10.5029
▁skončilo	-10.503
▁čekají	-10.5037
▁Slovenské	-10.5039
▁Poslaneck	-10.504
nt	-10.5043
vu	-10.5044
▁předložil	-10.5045
▁ochrany	-10.5045
nic	-10.5047
▁Obchodní	-10.5047
▁reprezentační	-10.5053
▁dají	-10.5054
▁přechodu	-10.5063
▁gól	-10.5063
▁dostalo	-10.5064
▁novém	-10.5066
▁příčin	-10.5066
▁titulu	-10.507
▁zákazníka	-10.507
▁zato	-10.5073
muž	-10.5078
▁dobou	-10.5082
▁projekty	-10.5093
▁hodnotí	-10.5097
▁stanoví	-10.5101
▁Lu	-10.5101
▁kapalin	-10.5102
▁trval	-10.5109
▁brankář	-10.5112
▁pří	-10.5118
▁jimi	-10.5122
▁čemu	-10.5129
▁reálné	-10.514
▁přicházejí	-10.5141
▁desetiletí	-10.5155
▁turistů	-10.5159
▁zápase	-10.5162
▁Da	-10.5165
▁představitelů	-10.5166
▁politického	-10.5167
▁Americk	-10.5176
▁kurs	-10.5179
▁bytové	-10.5181
▁modelů	-10.5182
▁čeho	-10.5186
▁píše	-10.5186
▁Ho	-10.5198
▁regionu	-10.5201
há	-10.5202
nov	-10.5202
▁míní	-10.5202
▁grafické	-10.5206
▁schopnosti	-10.5214
ická	-10.5214
▁dokonale	-10.5217
▁hledá	-10.5219
▁Plzeň	-10.5221
▁atmosféře	-10.5227
▁delegace	-10.5227
▁inflace	-10.5227
▁penzijní	-10.5227
▁přírodě	-10.5227
▁službu	-10.5227
▁politická	-10.5227
▁květnu	-10.5227
▁brát	-10.5227
▁poptávka	-10.5227
▁vysvětlení	-10.5228
▁stupně	-10.5228
▁považují	-10.5228
▁mínění	-10.5229
▁stanovisko	-10.5229
▁vysvětlit	-10.5231
▁podaří	-10.5232
▁kvalita	-10.5232
▁dosahuje	-10.5234
lin	-10.5235
▁dřívější	-10.5235
▁Nejvíce	-10.5235
▁neo	-10.5236
▁prosadit	-10.5238
▁představit	-10.5239
▁léků	-10.524
▁role	-10.524
▁Chceme	-10.5241
▁znaků	-10.5242
▁pl	-10.5249
▁myši	-10.525
▁ukázalo	-10.5251
▁zkušeností	-10.5251
ovněž	-10.5252
▁slovenských	-10.5253
▁orgánů	-10.5255
▁přípravě	-10.5257
▁33	-10.5258
▁trvale	-10.5258
▁francouzský	-10.5258
▁nebezpečné	-10.5261
▁ukazují	-10.5261
▁zbytek	-10.5262
▁odchodu	-10.5265
▁existenci	-10.5267
▁Čs	-10.5268
▁De	-10.5278
▁Tad	-10.528
▁kanceláří	-10.5284
ště	-10.5287
▁místem	-10.5288
▁Gorbačov	-10.5294
▁materiály	-10.5307
▁všude	-10.5314
ment	-10.5317
▁výstava	-10.5319
mar	-10.5322
▁vysoký	-10.5324
▁Bi	-10.5326
▁vodou	-10.533
▁změní	-10.5331
▁režim	-10.5335
CI	-10.5336
▁kniha	-10.5337
orku	-10.5343
pravděpodobností	-10.5343
▁32	-10.5346
▁novin	-10.5352
▁PO	-10.5354
per	-10.5354
▁pracoval	-10.5355
ale	-10.5356
▁představu	-10.5361
▁cenou	-10.5362
▁názorů	-10.5363
▁vědecký	-10.5364
▁Tr	-10.5372
plav	-10.5372
lík	-10.5375
▁závodě	-10.5381
▁domnívá	-10.539
▁pracují	-10.5395
▁Pavl	-10.5397
▁podnikové	-10.5409
▁dřív	-10.5411
▁čtenáře	-10.5412
▁dojem	-10.5414
▁střed	-10.5415
ČSL	-10.5421
▁zúčastnil	-10.5421
▁výklad	-10.5433
▁Nad	-10.5434
▁vzal	-10.5444
▁způsoby	-10.5445
▁osobních	-10.5453
▁zbraně	-10.5465
ici	-10.5475
▁vážně	-10.5482
▁Výsledk	-10.5483
▁dlouhá	-10.5483
▁koncepce	-10.5483
▁naděje	-10.5483
▁telekomunikační	-10.5483
▁závisí	-10.5483
▁blízké	-10.5484
▁unii	-10.5484
▁rozšířit	-10.5484
▁vysvětluje	-10.5484
▁tiskárny	-10.5486
▁naději	-10.5486
▁předpokládat	-10.5487
▁žebříčku	-10.5487
▁vysoce	-10.5487
▁externí	-10.549
▁můj	-10.549
▁barvy	-10.5492
▁návštěvu	-10.5493
▁umožňující	-10.5493
▁Sparty	-10.5493
▁složky	-10.5493
▁muzea	-10.5494
té	-10.5494
▁45	-10.5495
LI	-10.5495
▁dvojice	-10.5496
▁uvést	-10.5497
▁Ostrava	-10.5497
▁čtyřech	-10.5498
projevuje	-10.55
▁neznámý	-10.55
▁podal	-10.5501
▁Nikdo	-10.5504
▁prodal	-10.5507
▁milióny	-10.5509
▁hrají	-10.5513
AN	-10.5524
▁totéž	-10.5524
▁akciové	-10.5525
▁agentura	-10.5527
nem	-10.5528
▁nemůžeme	-10.5529
▁záměr	-10.5532
▁budovy	-10.5534
▁čtyřmi	-10.5547
▁studium	-10.5564
▁nároky	-10.5567
▁nabídce	-10.5572
▁tajné	-10.5577
▁podání	-10.5584
▁politický	-10.5588
▁800	-10.5596
▁listu	-10.5597
▁20.	-10.5598
▁čísle	-10.5601
▁podstatné	-10.5606
▁vědci	-10.5607
▁zásob	-10.5609
▁dění	-10.5614
▁noční	-10.5614
▁post	-10.562
▁trend	-10.5624
▁vrchol	-10.5629
vádí	-10.5631
▁chod	-10.5631
▁obor	-10.5635
▁zásad	-10.5635
▁Ná	-10.5639
ak	-10.5639
▁stranou	-10.5642
▁Cena	-10.5647
▁vydal	-10.5649
▁návrat	-10.5652
kovi	-10.5654
▁bodu	-10.5655
▁dvanácti	-10.5655
▁nabídl	-10.5656
▁trestný	-10.5659
stoupí	-10.5659
▁Jedin	-10.5661
▁světového	-10.5665
▁systémem	-10.567
▁Nebyl	-10.5673
▁finančn	-10.5676
▁Profit	-10.5686
▁věří	-10.569
ejména	-10.5692
ovány	-10.5695
▁cest	-10.5697
zu	-10.5706
▁obchodním	-10.5712
ard	-10.572
▁negativní	-10.5729
▁Itálii	-10.5746
▁podívat	-10.5746
▁povinen	-10.5746
▁Miloslav	-10.5746
▁Jugoslávii	-10.5746
▁říct	-10.5747
▁najevo	-10.5747
▁Peter	-10.5747
▁obligace	-10.5748
▁vybírat	-10.5749
▁fax	-10.575
▁vojáků	-10.5751
▁pivo	-10.5751
▁peněžní	-10.5752
ovaného	-10.5752
▁snižování	-10.5753
▁Moravě	-10.5754
▁hlavu	-10.5755
▁kusů	-10.5756
▁skončení	-10.5757
▁předmětem	-10.5757
▁kartu	-10.5761
▁povolání	-10.5765
▁cyklus	-10.5766
▁hotel	-10.5767
▁čin	-10.5768
▁odvolání	-10.5768
▁přání	-10.5772
▁úvěrů	-10.5775
▁japonské	-10.5775
ký	-10.5776
▁Pa	-10.5777
▁dílem	-10.5781
▁vedou	-10.5781
▁vlny	-10.5784
▁národů	-10.5784
▁celku	-10.5791
▁složen	-10.5793
▁výstavy	-10.5798
▁důvodem	-10.5799
▁škole	-10.5803
▁některým	-10.5806
▁Ha	-10.5811
▁starosta	-10.5811
▁jakých	-10.5816
▁blok	-10.5816
form	-10.5818
▁přípravy	-10.5818
▁přehled	-10.5824
▁Dalším	-10.5825
▁Počet	-10.5828
▁fotbalový	-10.5832
▁Ruské	-10.5836
▁Ar	-10.5842
▁nákupu	-10.5846
▁českým	-10.5848
▁fyzické	-10.5848
▁tvrdé	-10.5855
▁upozornil	-10.5859
ast	-10.586
nické	-10.586
▁důkaz	-10.5866
▁posun	-10.587
gu	-10.5873
▁jakékoli	-10.5882
▁Znamen	-10.5887
▁Kolik	-10.5892
▁devíti	-10.5902
60	-10.5904
▁jistý	-10.5906
▁umístěn	-10.5911
▁bloku	-10.592
▁PC	-10.5924
ené	-10.5926
jíž	-10.5936
▁partner	-10.5939
▁George	-10.5943
▁schopna	-10.5943
▁institucí	-10.5946
▁volný	-10.595
▁založen	-10.5952
▁pouhý	-10.5955
▁Lékař	-10.5955
▁informoval	-10.5956
▁odbyt	-10.5956
onu	-10.5963
▁jasno	-10.5964
▁přímé	-10.5967
▁hotov	-10.5972
▁aut	-10.5975
LA	-10.5981
,5	-10.5986
iště	-10.5986
▁požaduje	-10.5987
▁Např	-10.5988
▁průběh	-10.5989
▁bankovní	-10.5999
nozí	-10.6006
▁postaven	-10.6008
▁nepře	-10.6012
▁Řad	-10.6016
▁Univerzit	-10.6017
▁existovat	-10.6017
▁informaci	-10.6017
▁obtížné	-10.6017
▁prezentací	-10.6017
▁ubytování	-10.6017
▁vyjádřit	-10.6017
▁vytvářet	-10.6017
▁února	-10.6017
▁optimální	-10.6017
▁Bójové	-10.6018
▁partnerů	-10.6018
▁hrách	-10.6018
▁jednotek	-10.6019
▁rychleji	-10.6021
▁ztrácí	-10.6022
▁československé	-10.6023
▁tradice	-10.6023
▁nadace	-10.6024
▁zítra	-10.6025
▁závodech	-10.6025
▁hlavy	-10.6025
▁brání	-10.6025
▁objevuje	-10.6026
▁správu	-10.603
▁politiků	-10.603
▁kontroly	-10.603
▁ústřední	-10.6033
▁střediska	-10.6033
▁dohodě	-10.6033
▁obvinění	-10.6034
▁boje	-10.6035
▁předpisy	-10.6037
▁kalů	-10.6037
▁vesnici	-10.6042
▁zdánlivě	-10.6054
▁slavnostní	-10.6054
▁souborů	-10.6055
▁vzdálenosti	-10.606
▁drží	-10.6063
▁rizika	-10.6067
▁Svoboda	-10.6067
▁sále	-10.6071
▁Vlastní	-10.6074
▁návratu	-10.608
▁nucen	-10.6089
▁oči	-10.609
▁udělá	-10.6097
▁mistr	-10.6101
▁správný	-10.611
▁vysloven	-10.6112
▁ideální	-10.6112
▁nástroj	-10.6115
▁sobotní	-10.6116
▁klepn	-10.6123
počátku	-10.6123
▁závodů	-10.6124
ke	-10.613
▁ozbrojený	-10.6134
▁ostatními	-10.6142
▁důvody	-10.6144
▁konstatoval	-10.6144
případě	-10.6144
▁signálu	-10.6157
▁syn	-10.6158
▁domov	-10.6162
▁dostávají	-10.6173
▁býval	-10.6178
▁zkušenost	-10.6184
▁Autor	-10.6191
▁jazyk	-10.6194
gen	-10.6198
cké	-10.6202
tem	-10.6202
▁vznikají	-10.6203
▁vybraný	-10.6206
▁určené	-10.6217
▁odpor	-10.622
▁vědců	-10.6225
▁čtyřicet	-10.6233
▁přispěl	-10.6233
▁řeší	-10.6235
▁komunikace	-10.6237
▁státě	-10.6241
▁dětské	-10.6245
ten	-10.6247
▁sportu	-10.6256
lek	-10.626
▁obrátil	-10.6262
najdete	-10.6264
▁In	-10.6266
▁příjem	-10.6275
▁mohu	-10.6291
nést	-10.6291
▁chráněn	-10.6293
▁demokracii	-10.6294
▁jednoduše	-10.6294
▁nádraží	-10.6294
▁otázkou	-10.6294
▁ovzduší	-10.6294
▁vyrábí	-10.6294
▁častěji	-10.6294
▁obnoven	-10.6294
▁knize	-10.6294
▁obligací	-10.6294
▁čísel	-10.6294
▁věnován	-10.6294
▁vážné	-10.6295
▁dohodnout	-10.6295
▁samostatný	-10.6295
▁záření	-10.6295
▁pracoviště	-10.6296
▁oblečení	-10.6296
▁několikrát	-10.6296
▁vyvolal	-10.6297
▁pobřeží	-10.6298
▁žít	-10.6298
▁kvalitě	-10.6299
▁dopravě	-10.6299
▁uprostřed	-10.6299
▁komunistické	-10.6299
▁opoziční	-10.6302
▁hlas	-10.6302
▁blízkosti	-10.6303
▁běžně	-10.6304
▁nepochybn	-10.6304
▁příchod	-10.6304
▁ovládání	-10.6305
▁připadá	-10.6308
▁Rakousku	-10.6308
▁odstranit	-10.6312
pen	-10.6313
▁novináři	-10.6314
▁Pražské	-10.6317
▁nejlepších	-10.6317
▁určený	-10.632
▁obrazů	-10.6322
sky	-10.6325
▁výpravy	-10.6326
▁servis	-10.6327
▁znaky	-10.6328
▁železniční	-10.633
▁Taková	-10.633
▁testu	-10.6331
▁Internet	-10.6332
▁historický	-10.6332
port	-10.6336
▁klimatický	-10.6336
▁působit	-10.6337
▁viděli	-10.634
IN	-10.6342
▁uzavřel	-10.6354
▁předsed	-10.636
▁mezinárodních	-10.6362
▁velkého	-10.6363
▁metoda	-10.6363
mluv	-10.6366
tel	-10.6368
▁rodinný	-10.637
▁Rusku	-10.637
▁forma	-10.6372
▁úvěry	-10.6377
▁sport	-10.6382
▁5.	-10.6384
▁Bar	-10.6385
▁pohyb	-10.6386
86	-10.639
nul	-10.6402
▁určitých	-10.6413
▁investor	-10.6413
▁dopravu	-10.6413
▁27	-10.6416
▁měsíci	-10.6419
▁termínu	-10.6421
▁klid	-10.6422
▁Musím	-10.6423
▁fondy	-10.6433
▁plánu	-10.6435
▁sídle	-10.6438
▁festival	-10.6444
▁str	-10.645
▁společn	-10.6451
▁částic	-10.6455
nici	-10.6465
▁doprava	-10.647
▁strach	-10.6473
▁vodu	-10.6481
▁večerní	-10.6482
řídit	-10.6492
▁prohrál	-10.6494
Ž	-10.6497
▁vytvořil	-10.6503
▁větším	-10.6503
▁účetní	-10.6514
▁používají	-10.6516
▁metod	-10.6517
▁široké	-10.652
▁zlato	-10.6521
▁postižené	-10.6524
▁pohybují	-10.6525
▁pomůže	-10.6527
▁65	-10.6537
▁zvítězil	-10.6538
pol	-10.6541
vod	-10.6542
▁nemusel	-10.6546
est	-10.6546
▁software	-10.6547
▁mysli	-10.6551
▁převzal	-10.6558
▁Major	-10.6561
▁hranic	-10.6562
▁komerční	-10.6563
▁ulice	-10.6572
▁Americe	-10.658
▁dopoledne	-10.658
▁ministerstvu	-10.658
▁nejrychleji	-10.658
▁reakce	-10.658
▁rekonstrukci	-10.658
▁rozhoduje	-10.658
▁strategie	-10.658
▁srdce	-10.658
▁policii	-10.658
▁dveře	-10.658
▁partneři	-10.658
▁Klub	-10.658
▁vzít	-10.658
▁penze	-10.658
▁trvat	-10.658
▁vězení	-10.6581
▁psát	-10.6581
▁čekat	-10.6581
▁dubna	-10.6581
▁jaře	-10.6581
▁dotací	-10.6581
▁politickou	-10.6581
▁považovat	-10.6582
▁Trenér	-10.6583
▁zachovat	-10.6584
▁poskytnout	-10.6584
▁krve	-10.6584
▁knih	-10.6585
▁stavby	-10.6586
▁ukončení	-10.6586
▁obsahovat	-10.6587
ju	-10.659
▁provádět	-10.659
▁začínají	-10.6591
▁narození	-10.6592
▁Havla	-10.6593
▁areálu	-10.6594
▁obci	-10.6594
▁kapitál	-10.66
▁připojení	-10.6603
▁událostí	-10.6603
▁schválení	-10.6606
▁Mnoho	-10.6608
▁severu	-10.6609
▁deník	-10.661
▁postavit	-10.661
▁sovětských	-10.6612
▁průmyslové	-10.6614
▁orgány	-10.6615
▁zastavit	-10.6615
▁příkladem	-10.6618
▁výkonné	-10.6618
▁kontakty	-10.6619
▁horní	-10.6619
▁výhody	-10.6622
▁objektivní	-10.6623
▁kabinetu	-10.6626
▁přišli	-10.6627
▁managementu	-10.6633
▁události	-10.6633
ine	-10.6634
▁zjistili	-10.6637
▁útoku	-10.6638
▁cosi	-10.6638
▁hlasy	-10.6639
▁produkty	-10.6639
▁rodina	-10.6644
▁režisér	-10.6644
šli	-10.6646
▁přesvědčení	-10.6651
▁principy	-10.6652
▁kol	-10.6654
▁vojenský	-10.6654
▁maximální	-10.6655
▁třiceti	-10.6658
▁občany	-10.666
▁vyhlásil	-10.6662
▁samostatně	-10.6666
▁souhlasu	-10.6667
▁elektrické	-10.6668
▁budov	-10.6671
DE	-10.6672
ké	-10.6674
▁planet	-10.6676
▁vyrábět	-10.668
▁sloužit	-10.6685
▁znamenat	-10.6688
▁pozor	-10.6689
▁pečlivě	-10.669
▁soubory	-10.6693
▁vašeho	-10.6693
▁využívá	-10.6694
padá	-10.6699
▁produkt	-10.6704
▁55	-10.6707
▁rozhodli	-10.6707
▁dělí	-10.6708
▁Rada	-10.6711
▁stejným	-10.6713
▁kal	-10.6715
▁setkal	-10.6716
▁obrovské	-10.6718
▁kluby	-10.6721
▁jedenáct	-10.6723
ěji	-10.6726
▁oznámila	-10.6731
▁zásadně	-10.6732
▁průměrné	-10.6736
▁jakém	-10.6736
▁předpoklad	-10.6741
ST	-10.6742
vat	-10.6746
▁víme	-10.6748
▁člena	-10.6749
▁změnil	-10.6752
ska	-10.6754
▁umí	-10.6755
▁Rad	-10.6755
▁výstav	-10.6763
▁1000	-10.6764
ění	-10.6766
▁vrací	-10.6767
▁techniku	-10.6769
▁sociálního	-10.6771
▁projevil	-10.6772
▁ode	-10.6772
tky	-10.6773
▁totem	-10.6775
▁přenosov	-10.6775
▁vyzval	-10.6784
▁přiznal	-10.6785
▁rozsah	-10.6787
ovský	-10.6793
▁zmíněný	-10.6819
ang	-10.682
▁založil	-10.6822
▁nechtěl	-10.6826
▁postupy	-10.6828
▁Če	-10.683
IS	-10.6836
▁zaměstnavatele	-10.6838
▁nástroje	-10.6844
čili	-10.6847
▁cyklu	-10.6852
půjč	-10.6859
▁rostou	-10.686
▁obec	-10.6861
▁Německ	-10.6866
▁povinn	-10.6868
▁milion	-10.6869
příliš	-10.6871
▁Stanislav	-10.6874
▁března	-10.6874
▁rozmezí	-10.6874
▁zahrnuje	-10.6874
▁geometrie	-10.6874
▁sotva	-10.6874
▁klesá	-10.6874
▁rakouské	-10.6874
▁čtvrtletí	-10.6874
▁zahynul	-10.6875
▁využil	-10.6875
▁formu	-10.6875
▁téhož	-10.6877
OH	-10.6877
▁diskusi	-10.6878
inu	-10.6878
▁snižuje	-10.6878
▁dlouhý	-10.6878
▁výsledku	-10.6879
▁poradce	-10.6879
▁morální	-10.688
▁zajišťuje	-10.688
▁účinky	-10.688
▁školách	-10.688
▁c	-10.6881
▁kovů	-10.6881
▁opozice	-10.6882
▁třídě	-10.6883
▁formy	-10.6885
▁pravomoci	-10.6886
▁zvýší	-10.6888
▁dovoz	-10.6889
▁činit	-10.6889
▁zachování	-10.6893
▁kandidátů	-10.69
▁Tehd	-10.6902
▁přestal	-10.6906
▁miliónu	-10.6906
▁duchu	-10.6909
▁provádí	-10.691
ud	-10.6911
dostanou	-10.6911
▁kupónov	-10.6912
▁volbu	-10.6913
▁pravidel	-10.6919
▁příčinou	-10.692
▁formátu	-10.6922
▁představiteli	-10.6923
zen	-10.6927
▁hor	-10.6939
▁Zemi	-10.6942
▁pražských	-10.6958
▁papíru	-10.6961
aj	-10.6968
ca	-10.6969
▁nemoc	-10.6975
▁adres	-10.6976
▁producent	-10.698
▁plnění	-10.6983
▁děl	-10.6983
cím	-10.6992
▁obchody	-10.6995
▁Občanské	-10.6997
▁zaměstnavatel	-10.6998
▁přinesl	-10.6999
▁Boris	-10.7001
▁vzpomíná	-10.7004
son	-10.7007
▁modely	-10.7015
stav	-10.7022
▁chyby	-10.7027
▁kurz	-10.7029
▁ztratil	-10.7034
psal	-10.7035
▁rozhodčí	-10.7039
▁záznamník	-10.7042
▁poskytl	-10.7049
nka	-10.7049
▁věda	-10.7051
▁odhad	-10.7053
▁Ka	-10.7054
▁následujících	-10.7055
▁daném	-10.7056
▁startu	-10.706
▁filmové	-10.7062
▁příslušn	-10.7068
▁krátké	-10.7082
ll	-10.7083
▁vysvětlil	-10.7083
▁Michael	-10.7087
OS	-10.7089
▁našel	-10.7093
▁průzkum	-10.7102
▁Popper	-10.7103
▁15.	-10.7103
▁klasický	-10.7107
▁Zájem	-10.7109
▁jediným	-10.7116
▁spisovatel	-10.7127
▁nezávislé	-10.7132
30	-10.7133
kl	-10.7147
▁CO	-10.7147
▁Mnoh	-10.7148
▁pojištěn	-10.7148
▁koní	-10.7149
ion	-10.715
▁di	-10.715
▁chtěla	-10.7151
▁vstoupil	-10.7151
▁nedávné	-10.7153
▁soutěží	-10.7158
▁služba	-10.7159
jedou	-10.7163
ana	-10.7167
▁reakci	-10.7168
▁uvažuje	-10.7171
▁test	-10.7175
▁divadlo	-10.7177
▁důvěru	-10.7177
▁kyslíku	-10.7177
▁označit	-10.7177
▁počtem	-10.7177
▁prognóz	-10.7177
▁prosinci	-10.7177
▁vazby	-10.7177
▁vozidel	-10.7177
▁vězňů	-10.7177
▁zvyšování	-10.7177
▁Práce	-10.7177
▁digitální	-10.7177
▁pokračování	-10.7177
▁definitivně	-10.7177
▁nikoho	-10.7177
▁Býval	-10.7177
▁výročí	-10.7177
▁svoje	-10.7178
▁barevný	-10.7178
▁Člen	-10.7178
▁hluboké	-10.7179
▁poradit	-10.7179
▁myšlenky	-10.7179
▁Jaké	-10.7181
▁října	-10.7182
▁oběti	-10.7182
▁hřišti	-10.7182
▁sexuální	-10.7184
▁navrhuje	-10.7184
▁Otázka	-10.7184
▁neplatí	-10.7184
▁mírně	-10.7185
▁sestav	-10.7185
▁výdajů	-10.7186
▁rozšířil	-10.7187
▁Třeba	-10.7188
▁majitele	-10.7188
▁začátek	-10.7188
▁anti	-10.7189
▁poplatky	-10.7189
▁sezóny	-10.7191
▁boji	-10.7191
▁krajiny	-10.7192
▁pokuty	-10.7192
zemědělských	-10.7193
uji	-10.7193
▁mechanismus	-10.7194
▁tuzemsku	-10.7194
▁podpis	-10.7195
▁dílů	-10.7195
▁zrušit	-10.7197
▁Rakouska	-10.7199
▁Uvedl	-10.72
▁Československé	-10.7201
▁super	-10.7201
▁Ra	-10.7201
▁východě	-10.7202
▁třetiny	-10.7205
▁reklamy	-10.7205
▁koncertu	-10.7206
▁Hlavním	-10.7208
čátkem	-10.7208
▁příležitostí	-10.7213
▁vědí	-10.7215
▁transformaci	-10.7216
dané	-10.7218
▁svobody	-10.7218
▁zůstalo	-10.7219
▁nastavení	-10.722
▁Al	-10.7225
▁činil	-10.7225
▁výborů	-10.7225
▁schopností	-10.7226
▁přítomnosti	-10.7226
▁útok	-10.7231
▁Světové	-10.7233
▁majitelé	-10.7237
▁představitele	-10.7237
▁objevují	-10.7239
▁obsahují	-10.7244
▁spojen	-10.7245
▁ukázal	-10.7253
▁stylu	-10.726
dob	-10.7265
▁českém	-10.7266
stup	-10.7268
▁nesouhlasí	-10.7269
▁oprávněn	-10.7272
▁stud	-10.7272
▁starý	-10.7274
▁náhradní	-10.7277
▁záležitosti	-10.7281
▁prv	-10.7283
▁1992.	-10.7296
▁tisíci	-10.7303
▁zjistil	-10.7304
▁postavil	-10.7309
▁ekonomický	-10.732
▁exportu	-10.7324
žen	-10.7325
▁známý	-10.7327
▁východ	-10.7335
pel	-10.7336
▁výrobních	-10.7343
rů	-10.7348
▁textový	-10.7361
NÁ	-10.7362
ben	-10.7365
▁sousední	-10.7367
nění	-10.7369
▁Obecn	-10.7376
▁tr	-10.7377
▁necelý	-10.7383
▁výkony	-10.7384
▁filmový	-10.7388
▁obrovský	-10.7392
▁dosáhla	-10.7393
▁6.	-10.7396
▁11.	-10.7397
▁firemní	-10.7397
▁primátor	-10.7401
▁padesáti	-10.7406
▁Úřadu	-10.7406
▁atraktivní	-10.7412
▁nejnovější	-10.7413
tur	-10.7416
▁státem	-10.7417
▁společenské	-10.7418
▁zdravotního	-10.7421
▁rodičů	-10.7422
▁fotbalistů	-10.7422
▁povrch	-10.7424
▁učinil	-10.7425
▁26	-10.7426
▁klasické	-10.7429
▁Muž	-10.7435
▁výnos	-10.7435
▁Izrael	-10.7443
ler	-10.7445
▁ostatním	-10.7447
▁silný	-10.7449
kyně	-10.7452
▁důraz	-10.7459
iz	-10.7471
▁dětský	-10.7476
OU	-10.7476
▁najde	-10.748
▁menších	-10.7484
tek	-10.7485
▁cíl	-10.7488
▁Euro	-10.7489
rop	-10.7489
▁Evropu	-10.749
▁Premiér	-10.749
▁Systém	-10.749
▁kilobajtů	-10.749
▁lehce	-10.749
▁potvrzuje	-10.749
▁režii	-10.749
▁sjednocení	-10.749
▁smlouvě	-10.749
▁tabulce	-10.749
▁teorií	-10.749
▁tvořit	-10.749
▁zdarma	-10.749
▁účinek	-10.749
▁schůze	-10.749
▁podezření	-10.749
▁spotřeby	-10.749
▁střetnutí	-10.749
▁bránit	-10.749
▁nedokázal	-10.749
▁GSM	-10.749
▁definitivní	-10.749
▁celků	-10.7491
▁Inter	-10.7491
▁nejenom	-10.7492
▁diskuse	-10.7492
▁absolutní	-10.7492
▁sklad	-10.7492
▁("	-10.7493
▁vaši	-10.7493
▁předložit	-10.7494
▁vším	-10.7495
▁dolní	-10.7496
▁akademie	-10.7496
▁hrad	-10.7497
▁ovoce	-10.7497
▁zastupitelstva	-10.7497
▁kódování	-10.7498
▁vyvolává	-10.7499
▁zahraničním	-10.75
▁kontrolní	-10.7501
▁Severní	-10.7503
▁ústav	-10.7503
▁Druhá	-10.7505
▁Staroměstské	-10.7505
▁dostatek	-10.7507
▁Jednání	-10.7507
▁Dodal	-10.751
▁náhodou	-10.7512
▁Sparta	-10.7513
▁zdravé	-10.7515
▁účtu	-10.7515
▁výstavě	-10.7517
▁závislosti	-10.7518
▁objev	-10.752
▁fakultu	-10.7521
▁veřejných	-10.7521
jev	-10.7527
▁zvěře	-10.7527
▁škodu	-10.7532
▁nahradil	-10.7533
▁produkci	-10.7533
▁základem	-10.7533
kám	-10.7534
▁teplota	-10.7536
▁Změn	-10.7538
▁ukončil	-10.754
ble	-10.7541
▁přenos	-10.7553
▁vlastnost	-10.7555
▁Ústavní	-10.7557
▁graf	-10.7558
▁nesmírn	-10.7559
▁vyžádal	-10.7559
▁příčiny	-10.7563
íme	-10.7564
ner	-10.7564
11	-10.7568
▁zdravotnické	-10.7569
kládají	-10.757
▁principu	-10.7574
mot	-10.7577
▁pevné	-10.7578
▁sporu	-10.7579
▁koupí	-10.7581
▁trenérem	-10.7584
▁způsobil	-10.7595
▁označen	-10.7601
▁Novák	-10.7613
▁31.	-10.7614
▁Němec	-10.7618
▁týdnech	-10.7623
▁Bra	-10.7624
▁trestné	-10.7628
▁SP	-10.763
kol	-10.7634
▁mnou	-10.7635
▁Fr	-10.7638
ohledem	-10.7639
▁staví	-10.7648
▁grafický	-10.765
▁Jedn	-10.7655
▁jiní	-10.7655
▁podobného	-10.7659
▁znění	-10.7667
▁resp	-10.767
▁Ru	-10.7671
padají	-10.7674
íte	-10.7675
vají	-10.7679
oje	-10.7682
zí	-10.7686
edení	-10.7686
▁nápad	-10.7691
kon	-10.7693
leté	-10.7694
▁formát	-10.7698
ór	-10.771
▁pokračoval	-10.7721
oč	-10.7724
nec	-10.7731
▁Firm	-10.7733
▁variant	-10.7736
▁situací	-10.7737
ír	-10.7741
▁rozhraní	-10.7743
▁Vývoj	-10.7748
▁Jelcina	-10.775
▁Paul	-10.7751
jako	-10.7757
▁narodil	-10.7759
▁bezprostředn	-10.776
▁nezávislost	-10.7761
zv	-10.7764
▁odsouzen	-10.7764
ge	-10.7773
▁plno	-10.7774
kli	-10.7777
▁vlně	-10.778
▁pravděpodobnost	-10.7781
▁jmenován	-10.7791
den	-10.7796
▁poskytují	-10.7803
▁životním	-10.7808
hlav	-10.781
▁Viktor	-10.7812
jedině	-10.7812
▁Poslanc	-10.7812
▁chystá	-10.7812
▁dražší	-10.7812
▁krizi	-10.7812
▁nemohu	-10.7812
▁podporovat	-10.7812
▁přispět	-10.7812
▁sportovců	-10.7812
▁vyřešit	-10.7812
▁Člověk	-10.7812
▁Osobn	-10.7812
▁skončí	-10.7812
▁turisty	-10.7812
▁nejnižší	-10.7812
▁sněhu	-10.7812
▁dohromady	-10.7812
▁mld	-10.7812
▁obilí	-10.7813
▁dobrá	-10.7813
▁snažit	-10.7813
▁atmosféry	-10.7813
▁vybudovat	-10.7813
▁vypadat	-10.7813
▁přesvědčit	-10.7814
▁Hradci	-10.7814
▁pokračuje	-10.7815
▁klidně	-10.7815
▁zbytečně	-10.7816
▁ruky	-10.7816
▁poznamenal	-10.7816
▁připojit	-10.7817
▁užívání	-10.7817
▁vedlejší	-10.7817
▁zhodnocení	-10.7817
▁porozumění	-10.7818
▁tvorbě	-10.782
▁všeobecně	-10.782
▁třetího	-10.7821
▁Kon	-10.7821
▁síti	-10.7821
▁Bruselu	-10.7822
▁pás	-10.7823
▁obsazení	-10.7824
▁srážek	-10.7824
▁rovině	-10.7826
▁ploch	-10.7826
▁přinést	-10.7829
▁vesnice	-10.783
▁spolupracovníků	-10.783
▁důchodu	-10.7832
▁analýzy	-10.7833
▁Chorvatska	-10.7835
▁Le	-10.7836
▁Mohl	-10.7836
▁Senátu	-10.7838
▁opustit	-10.7844
▁dovozu	-10.7844
▁fyzický	-10.7845
▁autobusy	-10.7845
▁kolektivní	-10.7846
▁bílé	-10.7849
▁Američané	-10.7849
NA	-10.7853
▁silnice	-10.7854
▁získan	-10.7858
▁jednotliv	-10.7858
▁dodat	-10.7861
▁zájemce	-10.7864
▁nachází	-10.7869
▁výkonný	-10.7878
▁drobné	-10.788
▁nepříjemné	-10.7881
▁grafu	-10.7882
mír	-10.7882
▁Karla	-10.7886
▁požadované	-10.7886
▁Zahraničn	-10.7894
▁městský	-10.7897
▁nevím	-10.7899
▁volných	-10.7902
▁tlaku	-10.7904
▁objemu	-10.7907
▁pas	-10.7908
▁NE	-10.7908
hi	-10.791
▁přivedl	-10.791
▁dalo	-10.7911
ele	-10.7916
▁menšin	-10.792
▁projektů	-10.7925
koupit	-10.7927
▁Svět	-10.7927
▁cítí	-10.7928
▁130	-10.7945
▁struktura	-10.7945
▁průměrný	-10.7946
▁personální	-10.7949
be	-10.7954
▁hran	-10.7959
▁Takový	-10.796
▁San	-10.7962
▁přijat	-10.7963
▁vedla	-10.7977
▁1,5	-10.7985
▁nástup	-10.7996
▁sekretář	-10.7997
lem	-10.8
leč	-10.8001
▁prof	-10.8002
▁hůře	-10.8012
▁kvantov	-10.8021
▁konečný	-10.8022
▁Rus	-10.8024
koli	-10.8026
▁hledají	-10.8028
▁vědě	-10.8033
▁členský	-10.8035
▁událost	-10.8035
▁bratr	-10.8036
▁Konečn	-10.8039
▁investic	-10.8044
▁prosadil	-10.8051
▁neboli	-10.8058
▁nutnost	-10.8059
▁otevřené	-10.8059
▁osobnost	-10.8062
▁editor	-10.8069
▁potenciál	-10.8072
▁management	-10.8084
▁výrazný	-10.8089
▁rad	-10.809
▁aminokyselin	-10.8092
▁turistický	-10.8093
▁překvapení	-10.8094
▁Di	-10.8101
kla	-10.8107
din	-10.8109
un	-10.8117
▁vstříc	-10.8122
▁surovin	-10.8123
▁značný	-10.8125
ér	-10.8129
py	-10.8134
▁ný	-10.8144
▁metropoli	-10.8146
▁teorii	-10.8146
▁tradičně	-10.8146
▁únoru	-10.8146
▁Peníze	-10.8146
▁reakcí	-10.8146
▁výpověď	-10.8146
▁Zástupc	-10.8146
▁dosažení	-10.8146
▁likvidace	-10.8146
▁Mluvčí	-10.8146
▁restauraci	-10.8146
▁Rozdíl	-10.8146
▁nejpozději	-10.8146
▁nechtějí	-10.8146
▁jmění	-10.8146
▁dotace	-10.8146
▁Rudolf	-10.8146
▁operací	-10.8146
▁dojít	-10.8147
▁dělají	-10.8147
▁kategorii	-10.8147
▁reformy	-10.8148
▁výhodnější	-10.8148
▁mezd	-10.8148
▁OH	-10.8149
▁elektráren	-10.815
▁realitní	-10.815
▁podporuje	-10.8152
▁sněmovně	-10.8152
▁břehu	-10.8153
▁městech	-10.8154
▁udržení	-10.8155
▁přijdou	-10.8156
▁Tour	-10.8158
▁časopisů	-10.8159
▁vína	-10.8159
▁34	-10.816
ij	-10.816
▁jednoduchá	-10.8161
▁sezónu	-10.8162
▁pochází	-10.8162
▁Mir	-10.8162
▁uložení	-10.8163
▁stíhání	-10.8171
▁hru	-10.8179
▁Bush	-10.818
▁hledal	-10.818
letý	-10.8182
▁vystaven	-10.8182
▁průmysl	-10.8183
▁žádostí	-10.8183
dla	-10.8185
▁otevřena	-10.8185
▁Paříži	-10.8188
▁pochopení	-10.8188
▁odborníky	-10.8189
▁obvodní	-10.8189
▁hmoty	-10.819
táhnout	-10.8192
▁svobodu	-10.8194
▁zní	-10.8201
▁založení	-10.8207
▁Kr	-10.821
▁světov	-10.8214
bar	-10.8215
▁domy	-10.8223
ier	-10.8224
▁záměru	-10.8226
85	-10.8226
▁JE	-10.8228
▁škoda	-10.823
▁žádosti	-10.823
lib	-10.8238
ón	-10.8239
▁omezen	-10.8244
▁ukázala	-10.8244
▁vešker	-10.8248
▁platy	-10.8249
▁záznam	-10.825
▁dělení	-10.8251
▁nemohli	-10.8255
lat	-10.8258
▁provozní	-10.8268
▁ztráta	-10.8269
▁souhlasí	-10.827
▁dokázal	-10.8271
▁mimořádné	-10.8272
ct	-10.8277
▁činu	-10.8277
nedávn	-10.8278
▁letecké	-10.8283
▁zákazníkům	-10.8284
▁upraven	-10.8285
rou	-10.8289
▁využívání	-10.8295
▁trénink	-10.83
▁Důležit	-10.8301
něte	-10.8301
běhu	-10.8304
▁řídící	-10.8308
▁schválil	-10.8308
▁dokumentu	-10.831
▁zvýšené	-10.8311
5%	-10.8317
▁šedesát	-10.832
zo	-10.8326
▁čtvrtý	-10.8326
▁umožnil	-10.8334
▁požádal	-10.8337
▁složitější	-10.8348
▁týmy	-10.8351
ření	-10.8352
▁každému	-10.8356
▁vývojové	-10.8358
▁95	-10.8359
▁mladí	-10.8359
▁Čas	-10.8362
▁mluvčího	-10.8364
▁server	-10.8365
▁oprav	-10.8366
▁dala	-10.8366
▁vydává	-10.8369
▁lékařsk	-10.8377
▁těles	-10.8381
▁Jaká	-10.8382
▁zvýšen	-10.8384
▁patřil	-10.8387
ren	-10.8392
▁stanic	-10.8396
▁platnost	-10.8402
▁zařazen	-10.8403
▁pražský	-10.8404
▁host	-10.8406
▁šéfa	-10.8408
▁společensk	-10.8411
▁uskutečnit	-10.8413
▁adresu	-10.8414
▁úrovní	-10.8414
▁muse	-10.8419
▁příběh	-10.842
▁noc	-10.8429
▁nezaměstnanost	-10.843
ačnou	-10.843
▁založené	-10.843
▁Soud	-10.8431
▁značn	-10.8431
▁klade	-10.8434
▁snažil	-10.8435
oučástí	-10.8439
▁metr	-10.844
▁diplomat	-10.8444
▁uspořáda	-10.8445
▁klíč	-10.8447
▁skla	-10.8447
▁postupné	-10.8447
'	-10.8454
▁plný	-10.8457
▁poskytovat	-10.8459
▁obecné	-10.8469
KO	-10.8469
▁navštívil	-10.847
▁živé	-10.847
▁hlad	-10.847
▁Bu	-10.8473
▁podnikatelský	-10.8481
▁pokusil	-10.8485
▁Malé	-10.8487
▁Ameriky	-10.8491
▁Bohužel	-10.8491
▁SCSI	-10.8491
▁chránit	-10.8491
▁energii	-10.8491
▁kapitán	-10.8491
▁mládí	-10.8491
▁názvu	-10.8491
▁přirozené	-10.8491
▁koncepci	-10.8491
▁Včera	-10.8491
▁čtvrtfinále	-10.8491
▁Nedávn	-10.8491
▁ekonomicky	-10.8491
▁Plzni	-10.8491
▁stabilní	-10.8491
▁investování	-10.8491
▁nejvýznamnější	-10.8491
▁Ladislav	-10.8491
▁Policisté	-10.8491
▁trzích	-10.8491
▁blízko	-10.8491
▁rámeček	-10.8491
▁výrobek	-10.8491
▁zimě	-10.8492
▁síla	-10.8493
▁obrázky	-10.8493
▁uznal	-10.8494
▁konat	-10.8494
▁tělo	-10.8494
▁kritérií	-10.8495
▁chodit	-10.8495
▁Tentokrát	-10.8495
▁Londýně	-10.8495
▁použil	-10.8495
hodil	-10.8496
▁bojovat	-10.8496
▁David	-10.8497
▁hlavou	-10.8498
▁úvahy	-10.8498
▁Pomoc	-10.8499
▁Afriky	-10.85
▁hudby	-10.85
▁lokální	-10.85
▁odstavce	-10.8501
▁parametrů	-10.8501
▁umělecký	-10.8501
▁tradici	-10.8503
▁originální	-10.8503
▁1,	-10.8503
▁právnické	-10.8503
▁způsobuje	-10.8505
san	-10.8505
▁schůzky	-10.8506
▁povede	-10.8506
▁zbývající	-10.8506
▁požadují	-10.8507
▁bosenský	-10.8507
▁scény	-10.8508
▁faktorů	-10.8508
▁vesmíru	-10.8509
ir	-10.8509
▁nezbytné	-10.8511
▁Děti	-10.8513
▁živ	-10.8513
▁úroky	-10.8514
▁vlasti	-10.8516
▁zájemci	-10.8516
▁spravedlnosti	-10.852
▁uživatele	-10.852
fo	-10.8521
▁třetinu	-10.8525
▁zad	-10.8525
▁nalézt	-10.8528
▁Dobr	-10.853
▁úkolem	-10.8532
▁nemocných	-10.8535
▁los	-10.8536
▁okruhu	-10.8537
▁drahé	-10.8539
▁světovou	-10.8544
▁dokumentů	-10.8544
▁starosty	-10.8545
▁způsobené	-10.8545
▁paliva	-10.8546
▁Lidové	-10.8548
▁Vznik	-10.8552
▁představí	-10.8553
▁Klause	-10.8555
▁hradu	-10.8559
▁blíže	-10.8561
▁udržel	-10.8562
▁vybrané	-10.8564
▁podat	-10.8564
▁aktivit	-10.8565
▁úkolů	-10.8567
▁klidu	-10.8567
▁zásady	-10.8567
▁sekund	-10.857
▁herec	-10.8573
▁celní	-10.8574
▁přijel	-10.8581
ismu	-10.8587
▁map	-10.8588
▁uvedení	-10.8589
▁výkonem	-10.859
▁pouhé	-10.8591
▁jeví	-10.8599
▁dalšímu	-10.86
▁sklon	-10.8603
▁patnácti	-10.8605
▁držet	-10.8606
ností	-10.8608
▁hovořil	-10.8611
▁rozdělen	-10.8621
▁zásah	-10.8624
▁otevřel	-10.8627
▁paláce	-10.863
vnějších	-10.8631
▁umělé	-10.8635
▁zůstala	-10.8635
jde	-10.8636
▁odkud	-10.8653
šly	-10.8655
▁lustrační	-10.8662
▁biologické	-10.8668
▁školu	-10.8668
▁filmy	-10.8672
LE	-10.8673
▁neb	-10.8678
▁platný	-10.8689
▁skutečný	-10.8694
ováno	-10.8695
▁zahraničními	-10.8696
▁Britsk	-10.8703
rem	-10.8705
tp	-10.8708
▁pevný	-10.871
▁9.	-10.8715
▁ono	-10.8719
▁důsled	-10.8726
▁objevit	-10.8731
▁chemický	-10.8735
▁zlom	-10.8736
▁30.	-10.8745
▁nalezen	-10.8757
▁potřebný	-10.8761
▁ochotni	-10.8765
men	-10.8768
ává	-10.877
▁plynu	-10.8772
ab	-10.8775
▁možný	-10.8776
▁kus	-10.8777
▁svědomí	-10.8779
▁parku	-10.8781
nd	-10.8781
▁návod	-10.8782
▁vzduch	-10.8786
TO	-10.8786
▁automobil	-10.8788
▁dítěte	-10.8791
▁čtvrt	-10.8797
▁Sa	-10.8799
▁loňský	-10.8802
▁exportní	-10.8807
▁společenský	-10.8807
▁podílu	-10.881
▁číst	-10.8819
bytek	-10.8828
vz	-10.883
dal	-10.8834
kul	-10.8837
▁přínos	-10.884
▁působící	-10.8843
▁Auto	-10.8845
ODA	-10.8848
▁Alexandr	-10.8848
▁Barceloně	-10.8848
▁Británii	-10.8848
▁březnu	-10.8848
▁déšť	-10.8848
▁fázi	-10.8848
▁instalaci	-10.8848
▁normy	-10.8848
▁ploše	-10.8848
▁pomáhá	-10.8848
▁požádat	-10.8848
▁pravidlo	-10.8848
▁tlačítka	-10.8848
▁tlačítkem	-10.8848
▁týdně	-10.8848
▁umožnit	-10.8848
▁vrstvy	-10.8848
▁divize	-10.8848
▁kratší	-10.8848
▁těžce	-10.8848
▁likvidaci	-10.8848
▁značky	-10.8848
▁podmínkou	-10.8848
▁někoho	-10.8848
▁populární	-10.8848
▁pololetí	-10.8848
▁Robert	-10.8848
▁doposud	-10.8848
▁příslušníci	-10.8848
▁ekonomice	-10.8848
▁komisi	-10.8848
▁následek	-10.8848
▁klimatu	-10.8848
▁červenci	-10.8849
▁pozdější	-10.8849
▁Soubor	-10.8849
▁desky	-10.8849
▁IFOR	-10.8849
▁uvažovat	-10.8849
▁ukázat	-10.885
▁kvalifikace	-10.885
▁horách	-10.8851
▁Generální	-10.8852
▁Hodnot	-10.8852
▁multimediální	-10.8853
▁Novotná	-10.8853
▁právnických	-10.8855
▁zajímat	-10.8855
▁vzorky	-10.8856
▁vyšel	-10.8856
▁obvyklé	-10.8857
▁vozy	-10.8857
kož	-10.8857
▁letiště	-10.8858
▁cenách	-10.8859
▁výstavbě	-10.886
▁barvu	-10.886
▁motiv	-10.8863
stoupil	-10.8864
▁pojem	-10.8864
▁chyběl	-10.8865
▁Lon	-10.8865
▁parametry	-10.8866
▁pozorování	-10.8866
▁potvrzení	-10.8867
▁ukáže	-10.8868
▁důchodové	-10.8869
slov	-10.887
▁standard	-10.887
▁JU	-10.8871
eb	-10.8871
lep	-10.8871
rán	-10.8871
▁Atlanty	-10.8872
▁ohrožení	-10.8872
sad	-10.8872
▁účelem	-10.8874
▁srážky	-10.8874
ený	-10.8875
▁koně	-10.8878
▁plynů	-10.8879
▁příspěvky	-10.888
▁%)	-10.888
▁španělské	-10.888
▁úvodu	-10.8883
▁věnuje	-10.8885
▁lidsk	-10.8886
▁dvojí	-10.8886
▁muzeum	-10.8888
▁mezinárodním	-10.8888
▁očekávání	-10.8891
▁Svazu	-10.8892
▁příjemné	-10.8893
▁přírodovědecké	-10.8897
▁sektoru	-10.8898
▁studenti	-10.8899
▁styku	-10.8901
▁řeky	-10.8904
▁Vý	-10.8904
▁potenciální	-10.8905
▁ztrátu	-10.8906
rat	-10.8907
▁obchodů	-10.8908
▁napsat	-10.8909
▁kontrola	-10.8912
▁varianty	-10.8913
▁probíh	-10.8913
▁třetina	-10.8915
▁nahradit	-10.892
AL	-10.8921
▁průzkumu	-10.8921
▁tajný	-10.8922
▁ekonomika	-10.8929
▁cíli	-10.8931
LO	-10.8932
áři	-10.8933
▁Karadžič	-10.8934
▁trvalé	-10.8939
▁spokojeni	-10.8941
TE	-10.8946
ujících	-10.8956
▁Velm	-10.8957
▁jediného	-10.8959
▁změnila	-10.8962
▁starost	-10.8965
▁zjevn	-10.8968
íka	-10.8968
▁pořádá	-10.8973
10	-10.8974
▁založena	-10.8977
▁výrazné	-10.8978
▁černé	-10.8982
dit	-10.8984
ok	-10.8987
▁osoba	-10.8989
▁Často	-10.899
skutk	-10.899
▁Ca	-10.8994
▁zaveden	-10.8995
▁určitém	-10.9005
▁předložen	-10.901
nek	-10.9016
▁specializované	-10.902
dis	-10.9022
bl	-10.9022
▁navrhl	-10.9024
▁nějakým	-10.9027
▁Ž	-10.9034
▁signál	-10.9037
▁udělal	-10.9038
▁chorvatské	-10.9039
▁Celk	-10.9042
▁rychlý	-10.9043
▁85	-10.9043
kor	-10.9052
▁představitel	-10.9052
▁Martina	-10.9057
▁důsledně	-10.9063
ismus	-10.9068
▁Cíle	-10.907
národních	-10.9071
ó	-10.9071
▁šel	-10.9074
▁menším	-10.9074
▁účel	-10.9081
tit	-10.9088
▁společném	-10.9091
▁italský	-10.9106
▁tvořen	-10.9106
80	-10.9107
▁telefonu	-10.9115
▁75	-10.9115
▁předal	-10.9121
▁česko	-10.9127
▁čtrnáct	-10.9131
▁Vlk	-10.9132
▁Několik	-10.9141
▁36	-10.9144
nese	-10.9146
wa	-10.9148
▁zájemců	-10.9155
▁devadesát	-10.9156
▁koupi	-10.9159
▁kupující	-10.9159
▁čtyřiceti	-10.916
▁pověst	-10.9165
tů	-10.9168
▁zásluh	-10.9171
▁akt	-10.9174
nictví	-10.9174
▁přesun	-10.9183
▁vedoucího	-10.9183
▁Výbor	-10.9187
▁náskok	-10.9193
▁rostlin	-10.9194
▁Byli	-10.9194
▁dar	-10.9201
▁Společn	-10.9206
št	-10.9207
vali	-10.9217
▁duše	-10.9218
▁Koaliční	-10.9218
▁Ukrajiny	-10.9218
▁Zvláštní	-10.9218
▁burze	-10.9218
▁církví	-10.9218
▁ovlivňuje	-10.9218
▁patrné	-10.9218
▁upozorňuje	-10.9218
▁určuje	-10.9218
▁usilovat	-10.9218
▁šetření	-10.9218
▁naznačil	-10.9218
▁náboženství	-10.9218
▁příliv	-10.9218
▁sdělovací	-10.9218
▁podporou	-10.9218
▁držitel	-10.9218
▁fáze	-10.9218
▁galerie	-10.9218
nutně	-10.9218
vázat	-10.9218
▁integraci	-10.9218
▁Formát	-10.9218
▁filozofie	-10.9218
▁hutní	-10.9218
▁zámku	-10.9218
▁svátky	-10.9218
▁1997	-10.9218
▁slabší	-10.9219
▁manželství	-10.9219
▁nehodlá	-10.9219
▁myšlenkou	-10.9219
▁nízko	-10.9219
Ú	-10.9219
▁přežití	-10.9219
▁sílu	-10.9219
▁vzestup	-10.9219
▁obnovu	-10.9219
▁srdeční	-10.9219
▁obrázků	-10.9219
▁podnicích	-10.922
▁myšlenku	-10.922
▁Původně	-10.922
▁Komis	-10.922
▁hřiště	-10.9221
▁šíření	-10.9221
▁plod	-10.9221
oři	-10.9221
▁odhadnout	-10.9222
▁testování	-10.9222
▁pronájem	-10.9223
▁mírové	-10.9223
pil	-10.9224
voz	-10.9224
▁potíží	-10.9225
▁Nejde	-10.9225
▁prosazovat	-10.9226
▁Nikd	-10.9226
▁doporučení	-10.9227
▁sledování	-10.9227
▁úředníků	-10.9228
▁silnější	-10.9228
▁přístrojů	-10.9229
▁karta	-10.923
▁přestup	-10.923
▁posoudit	-10.923
▁Labem	-10.9232
ňování	-10.9232
▁přinese	-10.9232
▁znamenalo	-10.9234
▁zákazníci	-10.9235
▁soustředění	-10.9236
▁úlohu	-10.9236
▁jistotu	-10.9236
▁tvrdě	-10.9236
▁Dan	-10.9237
▁následky	-10.9239
▁přehlídky	-10.924
vyšších	-10.9241
▁příslušníků	-10.9245
▁vládou	-10.9245
▁soudce	-10.9247
nové	-10.9247
▁stanovit	-10.9249
▁Naši	-10.9249
▁ostře	-10.9251
▁začínající	-10.9251
▁nedaleko	-10.9252
▁válka	-10.9254
táhne	-10.9256
▁experti	-10.926
▁Platí	-10.9263
▁Eva	-10.9266
▁rozsáhlé	-10.9267
▁rostoucí	-10.9268
▁hotelů	-10.9269
▁46	-10.927
▁výbuchu	-10.9272
▁viděl	-10.9272
▁zápisu	-10.9275
▁díly	-10.9276
▁náročné	-10.9276
pas	-10.9278
▁7.	-10.9279
▁papírů	-10.9281
▁lidové	-10.9282
▁14.	-10.9284
▁pouště	-10.9284
ičtí	-10.9284
▁All	-10.9285
▁Sv	-10.9287
▁technika	-10.9289
▁mimořádný	-10.929
▁Mi	-10.929
▁předpoklady	-10.9292
▁vložit	-10.9293
▁samotné	-10.9294
▁výstavu	-10.9296
▁procento	-10.9297
kolik	-10.9299
▁národ	-10.9304
▁vrcholu	-10.9305
▁vím	-10.9306
▁sociálně	-10.9308
▁Cest	-10.931
▁americkém	-10.9311
▁týmem	-10.9315
▁fotbalu	-10.9316
▁protest	-10.9316
▁spory	-10.9317
▁moravsk	-10.932
▁Výhod	-10.932
▁ziskem	-10.932
▁měnové	-10.9325
kar	-10.9326
▁Malý	-10.9332
▁vstupní	-10.9335
▁světlo	-10.9337
▁snahy	-10.9339
▁rozlišení	-10.9347
▁pacient	-10.9348
▁IBM	-10.9349
▁našim	-10.9349
nechává	-10.9349
▁zákazu	-10.9361
▁připraveni	-10.9365
▁naposledy	-10.9366
▁technického	-10.9368
▁významn	-10.9371
▁osobě	-10.9375
▁hrála	-10.9378
▁tuzemské	-10.9383
▁chová	-10.9385
pře	-10.9388
▁taneční	-10.9394
▁programem	-10.9396
iletý	-10.94
▁tříd	-10.9402
izace	-10.9404
▁vzdálené	-10.9404
▁krátký	-10.9406
▁republiku	-10.9407
star	-10.9411
sil	-10.9411
▁ztrát	-10.9413
▁školení	-10.9419
▁8.	-10.942
▁Pří	-10.9428
▁oxidu	-10.9433
▁kulturních	-10.9446
▁trvalo	-10.9447
pak	-10.9448
TI	-10.9452
▁dospěl	-10.946
▁výhod	-10.9464
▁nedělní	-10.9464
▁Nejs	-10.9466
50	-10.9467
▁slep	-10.9471
▁pán	-10.9477
ik	-10.9478
▁obsadil	-10.9479
▁trati	-10.9487
▁úspěšný	-10.9489
▁určena	-10.949
věřil	-10.9502
▁Oznámil	-10.951
▁typické	-10.9511
▁180	-10.9512
běhl	-10.9513
▁přítomnost	-10.9514
denní	-10.9516
▁vzdálenost	-10.9522
lid	-10.9528
▁základním	-10.953
▁soused	-10.9531
▁praktický	-10.9531
▁fanoušků	-10.9534
ováním	-10.9535
bere	-10.9535
usi	-10.9538
▁podstatný	-10.9542
▁Možnost	-10.9543
▁Problém	-10.9543
▁poskytnut	-10.9545
▁zabývají	-10.9546
▁kabinet	-10.9546
▁sortiment	-10.9551
▁bran	-10.9553
vad	-10.9554
▁Pět	-10.9555
▁1987	-10.9556
nášet	-10.956
▁malého	-10.9562
cího	-10.9565
RU	-10.9572
▁snížen	-10.9575
▁zvolil	-10.9576
par	-10.9587
▁zvíře	-10.9587
▁připomněl	-10.9588
▁poli	-10.9591
volat	-10.9592
▁poznat	-10.9593
tře	-10.9595
▁jádro	-10.9595
fu	-10.9597
ejme	-10.9599
▁symbol	-10.9599
go	-10.9601
▁zvukové	-10.9602
▁Bejbl	-10.9603
▁Vedoucí	-10.9603
▁dodatečně	-10.9603
▁důležitá	-10.9603
▁franků	-10.9603
▁instalace	-10.9603
▁konstrukce	-10.9603
▁pohledávek	-10.9603
▁redakce	-10.9603
▁stupňů	-10.9603
▁upozornit	-10.9603
▁pojmů	-10.9603
▁přežít	-10.9603
▁DPH	-10.9603
▁jedince	-10.9603
▁kvalifikační	-10.9603
▁restaurace	-10.9603
▁Řešení	-10.9603
▁Prostě	-10.9603
▁1984	-10.9603
▁sněhov	-10.9603
▁formální	-10.9603
▁stovek	-10.9603
▁1968	-10.9603
▁nohy	-10.9603
▁1986	-10.9603
▁nejmenší	-10.9603
▁vyšetření	-10.9603
▁Tedy	-10.9603
▁poznatků	-10.9603
▁inspekce	-10.9604
▁spolupracovat	-10.9604
▁nápis	-10.9604
▁května	-10.9604
▁legislativní	-10.9604
▁marně	-10.9604
▁majetkem	-10.9605
▁Bill	-10.9605
▁chápat	-10.9606
▁podzemní	-10.9606
▁Belgie	-10.9606
▁ruku	-10.9606
▁III	-10.9606
▁manželka	-10.9607
▁upravit	-10.9607
▁vyvolat	-10.9608
▁platební	-10.961
▁užitek	-10.961
▁DEM	-10.961
▁Potom	-10.961
▁uměl	-10.9612
▁odstranění	-10.9613
▁potřeb	-10.9613
▁elektřiny	-10.9615
▁žáků	-10.9616
▁rozložení	-10.9616
▁návštěvy	-10.9616
▁Celkov	-10.9616
▁volbami	-10.9617
▁Nejen	-10.9618
▁oznámení	-10.9618
▁Lux	-10.9619
▁bilance	-10.9621
▁polohy	-10.9622
▁jevů	-10.9623
▁Sovětský	-10.9625
TA	-10.9625
▁29	-10.9625
▁Japonsku	-10.9627
▁půdu	-10.9632
▁linky	-10.9633
▁měny	-10.9633
▁výstavbu	-10.9634
▁osobností	-10.9635
▁Německem	-10.9636
▁Nejdřív	-10.9637
▁oceánu	-10.9638
▁většího	-10.9638
▁pra	-10.964
▁Výstava	-10.964
▁koalici	-10.964
týká	-10.9643
▁ostrovy	-10.9643
▁demokratů	-10.9646
▁utrpěl	-10.9648
aly	-10.9648
▁týdeník	-10.9648
▁38	-10.9649
▁složité	-10.965
▁hrubého	-10.965
▁kapacity	-10.965
▁obvodu	-10.9653
▁orgánu	-10.9653
▁vedlo	-10.9658
▁oborů	-10.9658
▁monitoru	-10.9661
▁okrese	-10.9662
▁potřebu	-10.9663
▁Jedná	-10.9664
kat	-10.9664
▁bezprostřední	-10.9667
▁stejná	-10.9669
▁výběrem	-10.9674
dařilo	-10.9676
▁Rady	-10.9678
▁metru	-10.9681
▁strom	-10.9681
fe	-10.969
ovky	-10.969
▁Průměrn	-10.969
▁slib	-10.9693
▁nájemce	-10.9693
▁nájemní	-10.9696
▁pachatel	-10.9698
▁hvězdy	-10.9703
▁dokumenty	-10.9704
▁uplynulý	-10.9715
▁systematick	-10.9715
▁primátora	-10.9715
▁polo	-10.9721
▁skutečností	-10.9722
ající	-10.9726
▁základy	-10.9729
▁fotbalových	-10.973
▁plány	-10.9733
▁Asociac	-10.9735
▁nastavit	-10.9736
čern	-10.9737
▁Jediný	-10.9737
▁skupinou	-10.9738
▁konkrétně	-10.974
▁vůdce	-10.9741
▁učitel	-10.9742
▁vzniknou	-10.9743
▁25.	-10.9745
▁kom	-10.9747
▁mechanik	-10.9749
▁zjištěn	-10.9749
▁připustil	-10.976
▁Jaký	-10.9765
▁sportovních	-10.9772
▁běh	-10.9772
▁rodin	-10.9773
▁limit	-10.9775
▁koho	-10.9775
▁evropského	-10.9777
▁reagoval	-10.9779
▁šedesáti	-10.9779
padlo	-10.9783
▁poslanecké	-10.9783
▁zná	-10.9784
▁Bílé	-10.9786
▁současném	-10.9789
▁mořský	-10.9795
▁prozatím	-10.9797
tak	-10.9802
▁výš	-10.9814
▁rozvoji	-10.9817
oň	-10.9827
▁připravena	-10.9828
▁listy	-10.9828
▁3,5	-10.9829
▁Aleš	-10.9842
čku	-10.9843
▁konečné	-10.9846
▁fotbalov	-10.9848
▁chci	-10.9848
▁prvé	-10.9856
▁bohat	-10.9858
▁potřeboval	-10.9858
ony	-10.9863
▁specializovan	-10.9864
držení	-10.9874
▁třináct	-10.988
elné	-10.9881
hodnou	-10.9881
tav	-10.9886
nci	-10.9886
han	-10.989
▁Obdobn	-10.989
▁jmen	-10.9898
▁silnic	-10.9905
▁minuty	-10.9909
▁zpravodaj	-10.9911
%	-10.9913
▁právník	-10.9915
▁von	-10.9916
▁podklad	-10.9918
▁Be	-10.9919
▁německá	-10.9922
▁modul	-10.9924
▁zdravotnický	-10.9932
▁těší	-10.9932
▁Zajímav	-10.9933
▁zájmů	-10.9937
▁čistý	-10.9938
▁Ján	-10.9939
▁zápis	-10.9941
▁hluboko	-10.9942
▁rozvod	-10.9943
▁divadelní	-10.9945
▁klientů	-10.9947
▁původním	-10.9954
▁vstupné	-10.9972
šti	-10.9972
▁vz	-10.9977
▁Mechanik	-10.9981
▁")	-10.9983
▁13.	-10.9987
▁všeobecné	-10.9989
▁hlubo	-10.999
bě	-10.9991
▁doporučuje	-10.9993
▁věděl	-10.9994
▁zaznamenal	-10.9996
▁domnívají	-11.0003
▁hovořit	-11.0003
▁naštěstí	-11.0003
▁nevědí	-11.0003
▁převzít	-11.0003
▁uplatnit	-11.0003
▁zázemí	-11.0003
▁Domácí	-11.0003
▁Musel	-11.0003
▁Poborský	-11.0003
▁odlišný	-11.0003
▁učinit	-11.0003
▁Sociální	-11.0003
▁pokoušel	-11.0003
▁sněžení	-11.0003
▁slyšet	-11.0003
▁škál	-11.0003
▁forem	-11.0003
▁prodlení	-11.0003
▁Slavii	-11.0003
▁nejrychlejší	-11.0003
▁stránek	-11.0003
▁dlouhodobý	-11.0003
▁firmám	-11.0003
▁dubnu	-11.0003
▁obrazovce	-11.0003
▁studií	-11.0003
▁radikální	-11.0003
▁přizpůsobit	-11.0003
▁občanství	-11.0004
▁označuje	-11.0004
▁postoje	-11.0005
▁efektivní	-11.0005
▁posuzovat	-11.0005
▁koupil	-11.0005
▁fronty	-11.0005
▁podílejí	-11.0005
▁Číny	-11.0006
▁obrázku	-11.0006
ama	-11.0006
▁stavbu	-11.0007
▁Okresní	-11.0008
▁každodenní	-11.0008
▁pomohl	-11.0009
▁rejstříku	-11.0012
▁podnikat	-11.0012
▁Všechno	-11.0012
▁kritéria	-11.0012
▁pracovnice	-11.0012
▁písemně	-11.0013
▁znalostí	-11.0015
▁Roman	-11.0015
▁poslal	-11.0017
▁dobách	-11.0017
▁zbrojní	-11.0017
▁bot	-11.0017
▁zraněn	-11.0018
▁demokraté	-11.0019
▁regulace	-11.0019
▁osvobození	-11.0019
▁náhradu	-11.002
▁předmětů	-11.002
▁módní	-11.0021
▁výjimky	-11.0021
▁rysy	-11.0022
▁Druhou	-11.0024
▁Kalvoda	-11.0024
▁Wimbledonu	-11.0024
▁Čechů	-11.0025
▁summitu	-11.0027
▁teplotě	-11.0027
▁následn	-11.0028
▁ukládání	-11.0028
▁vůz	-11.0028
▁tvaru	-11.0029
▁redaktor	-11.003
▁včerejším	-11.003
▁návštěva	-11.0032
▁Karlový	-11.0033
▁obchodníci	-11.0033
▁vstoupit	-11.0033
▁orientaci	-11.0034
▁(1	-11.0034
▁Organiza	-11.0036
▁nemovitosti	-11.0037
▁průměr	-11.0037
nky	-11.0038
rob	-11.004
▁resortu	-11.004
hrát	-11.0041
▁bojů	-11.0041
▁předměty	-11.0042
▁ztrátou	-11.0043
tion	-11.0045
▁jednalo	-11.0046
▁min	-11.0046
▁mo	-11.0049
▁věty	-11.005
▁Francouz	-11.0051
▁vybírá	-11.0051
▁odbory	-11.0051
▁kandidáty	-11.0052
▁divu	-11.0055
▁sboru	-11.0056
▁špičkové	-11.0056
▁48	-11.0057
▁představil	-11.0058
▁zvuku	-11.006
▁sjezdu	-11.0061
čela	-11.0062
▁prodloužení	-11.0064
▁mapy	-11.0069
▁světla	-11.007
IT	-11.0072
bel	-11.0072
▁konto	-11.0073
▁snažili	-11.0075
▁planety	-11.0083
og	-11.0088
▁bývají	-11.0089
▁důkazy	-11.009
▁Pražského	-11.0096
▁sestavení	-11.01
▁nezávisl	-11.0102
▁úspory	-11.0106
▁charakteru	-11.0114
▁vln	-11.0114
▁úkoly	-11.0117
▁ochotn	-11.0119
kovou	-11.0119
▁Karl	-11.0123
▁Michaela	-11.0124
▁celkovém	-11.0124
▁olympijsk	-11.0128
▁metra	-11.0128
konala	-11.0131
▁známých	-11.0132
▁naším	-11.014
▁ovlivňují	-11.0144
▁vracet	-11.0144
▁některý	-11.0154
▁předvolební	-11.0156
ickou	-11.0158
▁par	-11.0163
rna	-11.0164
▁drah	-11.0166
áhy	-11.0172
▁uživatel	-11.0173
▁klient	-11.0174
▁ClipArt	-11.0177
▁gen	-11.0179
▁Moskva	-11.0188
rát	-11.0188
▁nebezpečný	-11.019
▁německém	-11.0191
▁daný	-11.0192
▁objeven	-11.0194
▁bolest	-11.0194
set	-11.0195
▁uvedeno	-11.0196
▁evropském	-11.0198
▁předchozích	-11.0199
cky	-11.0199
▁skládá	-11.0203
pt	-11.0203
▁jevy	-11.0205
loni	-11.0207
▁Podnikatel	-11.0209
▁maďarský	-11.0218
▁výrok	-11.0219
▁schválen	-11.022
▁700	-11.0224
▁vybaven	-11.0224
▁češt	-11.0226
▁výkonů	-11.0228
ros	-11.0228
▁autora	-11.0229
rušení	-11.0233
Severoatlantické	-11.0234
▁pracovníka	-11.0236
cházelo	-11.0243
▁podílí	-11.0244
daly	-11.0244
▁typický	-11.0246
▁páté	-11.0248
bývají	-11.0255
▁vydat	-11.0257
▁vámi	-11.0262
▁vystoupil	-11.0267
▁okamžik	-11.0269
▁služební	-11.0271
▁reálný	-11.0274
▁kuponov	-11.0279
▁demokratick	-11.028
části	-11.0281
▁Les	-11.0287
▁monitor	-11.0292
▁výstup	-11.0295
▁styk	-11.0296
▁Dá	-11.0299
▁procesor	-11.0312
▁díl	-11.0313
cker	-11.0315
▁podnikatelsk	-11.0317
▁statistické	-11.0317
nvestiční	-11.0325
plat	-11.0327
▁okolnost	-11.0331
schválila	-11.0337
▁neutrální	-11.034
▁obyvatele	-11.0345
W	-11.0348
▁Němců	-11.035
íci	-11.0351
▁Novotný	-11.0352
▁Pražský	-11.0353
▁oleje	-11.0353
▁Než	-11.0356
▁magistrát	-11.0358
▁vysoko	-11.0358
▁mlýn	-11.0359
cký	-11.0361
▁uživatelů	-11.0365
MI	-11.0367
▁čtenářů	-11.0373
▁reprezentantů	-11.0374
ON	-11.0374
▁svobod	-11.0386
být	-11.0387
▁Sovětském	-11.0392
rám	-11.0393
bývá	-11.0394
▁hlásí	-11.0396
▁mechanismu	-11.0397
ral	-11.0398
ona	-11.0399
▁Nevím	-11.04
▁instituce	-11.04
▁23.	-11.04
▁vyvíj	-11.0401
▁Šest	-11.0402
▁Jin	-11.0412
olog	-11.0413
▁Část	-11.0414
▁slíbil	-11.0415
▁Olomouc	-11.0415
88	-11.0416
MO	-11.0418
stupují	-11.0418
▁statut	-11.0419
▁Lebeď	-11.0419
▁Pithart	-11.0419
▁Srbů	-11.0419
▁bližší	-11.0419
▁církvi	-11.0419
▁konferencí	-11.0419
▁nízká	-11.0419
▁odpovědí	-11.0419
▁ovlivněn	-11.0419
▁reagovat	-11.0419
▁schůzi	-11.0419
▁softwaru	-11.0419
▁strategii	-11.0419
▁zpátky	-11.0419
▁zálivu	-11.0419
▁CADKON	-11.0419
▁zazněl	-11.0419
▁Šéf	-11.0419
▁žádoucí	-11.0419
▁Mencl	-11.0419
▁nárůst	-11.0419
▁technologii	-11.0419
▁dědictví	-11.0419
▁stůl	-11.0419
▁Vídni	-11.0419
▁kombinaci	-11.0419
▁nábytku	-11.0419
▁zařadil	-11.0419
▁britsk	-11.0419
▁Praktick	-11.0419
▁navrhnout	-11.0419
▁komunikaci	-11.0419
▁vrchní	-11.042
▁Mazda	-11.042
▁maximum	-11.042
▁délce	-11.042
▁nastat	-11.042
▁bance	-11.042
▁týdenní	-11.042
▁otec	-11.0421
▁živočichů	-11.0421
▁zvolit	-11.0421
▁Finanční	-11.0421
▁kreslení	-11.0422
▁odejít	-11.0422
ger	-11.0423
▁říjnu	-11.0423
▁dokáží	-11.0423
▁krajan	-11.0424
▁pohybovat	-11.0424
▁nejvýše	-11.0425
▁nezaměstnaných	-11.0425
▁Chci	-11.0425
▁okresů	-11.0425
▁komunální	-11.0425
▁Polsko	-11.0426
▁uzavírá	-11.0426
▁Brazílie	-11.0426
▁odmítají	-11.0427
▁kilogramů	-11.0427
▁uložit	-11.0427
▁respektovat	-11.0427
▁obchodování	-11.0427
▁Stručně	-11.0427
▁dočasně	-11.0427
▁pochopit	-11.0427
▁fyzikální	-11.0427
▁ponechat	-11.0428
▁vkladů	-11.0428
▁splatnosti	-11.0429
15	-11.043
▁Moh	-11.043
▁anglické	-11.0431
▁splnit	-11.0432
▁kontrole	-11.0432
▁Nic	-11.0434
▁Spor	-11.0434
▁levé	-11.0438
▁zakázky	-11.044
▁energetické	-11.044
▁zaplacení	-11.0445
▁64	-11.0446
▁jistou	-11.0446
▁zastavení	-11.0447
▁poskytování	-11.0448
▁vozidla	-11.0448
▁potřebujeme	-11.0449
▁postižených	-11.0449
▁řidič	-11.0449
zb	-11.0449
▁kongresu	-11.045
▁Rozhodn	-11.045
▁schématu	-11.0451
▁titulů	-11.0452
▁dokončení	-11.0454
▁KB	-11.0454
▁dosti	-11.0456
▁vyhlášení	-11.0463
▁počítačový	-11.0463
▁padesátých	-11.0464
▁pádu	-11.0464
▁Kniha	-11.0464
▁projeví	-11.0466
▁trpí	-11.0468
▁účinnosti	-11.0468
▁dohod	-11.0469
▁hale	-11.0471
▁katolické	-11.0471
▁listů	-11.0472
▁Intergraph	-11.0473
▁vzá	-11.0477
▁praví	-11.0477
▁vyhlášen	-11.0477
▁valné	-11.0477
nová	-11.048
▁Stav	-11.048
▁snaz	-11.0484
▁rodinu	-11.0484
nému	-11.0488
pochyby	-11.0489
▁student	-11.0493
▁nápady	-11.0495
▁specifické	-11.0495
ány	-11.0495
▁dokázali	-11.0496
▁recept	-11.0496
daných	-11.0496
▁řešením	-11.0498
▁lidu	-11.0501
▁Stal	-11.0502
▁Ben	-11.0504
▁21.	-11.0505
nes	-11.0505
▁niž	-11.0506
při	-11.0506
▁představoval	-11.0506
▁každým	-11.0508
▁předpokladu	-11.0509
▁jakož	-11.051
▁hotely	-11.0511
▁kontakt	-11.0512
▁témat	-11.0513
▁zabývající	-11.0521
▁kruh	-11.0522
▁čtenáři	-11.0533
▁vědu	-11.0538
fer	-11.0539
▁pr	-11.054
▁růstem	-11.0542
▁brankáře	-11.0545
▁reprezentanti	-11.0545
▁míra	-11.0545
dra	-11.0546
▁spotřebitele	-11.0548
▁určení	-11.0551
▁past	-11.0554
▁pravidelné	-11.0557
▁jazyka	-11.0558
▁osudu	-11.0563
▁Volb	-11.0563
▁vznikající	-11.0566
▁zůstanou	-11.0567
▁našli	-11.0568
▁Jistě	-11.0568
▁církevní	-11.0568
ista	-11.0572
asi	-11.0574
▁vyp	-11.0575
▁Prvním	-11.0576
▁přijala	-11.0579
▁objevily	-11.0579
▁neměly	-11.0585
▁Sun	-11.0588
▁obtížně	-11.0592
▁pokusy	-11.0593
▁roze	-11.0593
▁jest	-11.0594
▁odmítli	-11.0602
▁poruch	-11.0604
▁nemám	-11.0609
▁stála	-11.0614
▁společných	-11.0615
inter	-11.0616
▁údaj	-11.0618
▁taky	-11.0624
▁podřízen	-11.0627
▁zvukov	-11.0628
▁zvířata	-11.0629
▁zvýšila	-11.0637
▁výbuch	-11.0637
▁stejných	-11.0638
▁výchov	-11.0639
▁rezerv	-11.0641
▁zeměmi	-11.0645
jdou	-11.0652
kin	-11.0659
▁manžel	-11.066
▁Johna	-11.0663
▁věk	-11.0668
ide	-11.0669
▁advokát	-11.0674
▁hráčem	-11.068
MA	-11.068
klád	-11.0683
▁zvuk	-11.0686
▁návrhů	-11.0689
▁víkend	-11.0689
▁uplynul	-11.069
▁rozsáhlý	-11.069
25	-11.0693
▁odpovídal	-11.0693
▁známe	-11.07
▁Ros	-11.0704
▁podílel	-11.0705
▁přidal	-11.0707
lci	-11.0708
▁rozhovor	-11.071
▁tváří	-11.0711
▁závodní	-11.0711
▁katalog	-11.0719
▁tou	-11.0719
▁Jac	-11.0721
▁únik	-11.0724
▁úmysl	-11.0724
▁vládních	-11.0727
▁úz	-11.0727
hlížet	-11.0732
▁zahájen	-11.0735
jezd	-11.0738
her	-11.0738
▁66	-11.0739
▁modern	-11.074
▁Zemana	-11.0742
▁císaře	-11.0745
átor	-11.0747
▁ST	-11.0748
najdeme	-11.0748
▁závažný	-11.0753
klad	-11.0762
▁Chyb	-11.0762
▁Let	-11.0764
▁beze	-11.0765
▁premiéru	-11.0767
▁odchod	-11.0768
▁sjezd	-11.0769
▁uvede	-11.077
▁jmenuje	-11.0771
ologie	-11.0775
▁hrdin	-11.0775
▁členům	-11.0776
▁agent	-11.078
celku	-11.0783
▁cestující	-11.0784
▁moment	-11.0785
▁sedí	-11.0786
▁schéma	-11.0789
▁Mark	-11.079
▁požadovaný	-11.0791
▁oblačnost	-11.0791
▁umělecké	-11.0792
▁nevěděl	-11.0792
▁novinářů	-11.0793
▁dividend	-11.0796
▁dres	-11.0796
▁existující	-11.0797
▁Rok	-11.0797
▁žijí	-11.0799
▁obsažen	-11.0799
▁49	-11.081
▁hmot	-11.0811
▁zdravotním	-11.0813
▁nižších	-11.0817
▁pokládá	-11.0819
▁dle	-11.0819
▁provedl	-11.082
▁získává	-11.082
kryje	-11.082
▁zaujal	-11.0822
▁konkrétním	-11.0824
▁posílen	-11.0825
ller	-11.0827
▁Divadl	-11.0828
20	-11.0832
▁pohyboval	-11.0835
▁stisk	-11.084
▁zaměřen	-11.0841
volání	-11.0842
▁Pracovní	-11.0845
▁Fotbal	-11.0845
hodlají	-11.0845
▁stupni	-11.0847
přijeli	-11.0847
▁vytvořen	-11.0851
▁překvapivě	-11.0851
▁zrušil	-11.0851
ůj	-11.0852
▁pozdě	-11.0852
▁říkají	-11.0852
▁Nedvěd	-11.0854
▁Ostatní	-11.0854
▁Tigrid	-11.0854
▁charakteristik	-11.0854
▁cizince	-11.0854
▁divadle	-11.0854
▁kompetence	-11.0854
▁konstatuje	-11.0854
▁metropole	-11.0854
▁nejmodernější	-11.0854
▁polojasno	-11.0854
▁požadovat	-11.0854
▁semifinále	-11.0854
▁složek	-11.0854
▁strategií	-11.0854
▁vyhovuje	-11.0854
▁údolí	-11.0854
▁šablon	-11.0854
▁Majitel	-11.0854
▁nejznámější	-11.0854
▁otevřít	-11.0854
▁počínaj	-11.0854
▁Komerčn	-11.0854
▁představenstva	-11.0854
▁Jugoslávie	-11.0854
▁galerii	-11.0854
▁NDR	-11.0854
▁poplatek	-11.0854
▁ekonomická	-11.0854
▁fotografie	-11.0854
▁nejhorší	-11.0854
▁přijme	-11.0854
▁Začal	-11.0854
▁radnici	-11.0855
▁jezdit	-11.0855
▁Marie	-11.0855
▁logické	-11.0855
▁bohatství	-11.0855
▁dešti	-11.0855
▁udržuje	-11.0855
▁Ruml	-11.0855
ovské	-11.0855
▁Mimo	-11.0855
▁nedostatku	-11.0855
▁literární	-11.0855
▁uvědomit	-11.0856
▁vyrovnat	-11.0856
▁drog	-11.0856
▁podobná	-11.0856
▁neděle	-11.0856
▁vyhnout	-11.0856
les	-11.0857
▁peset	-11.0857
▁Dříve	-11.0857
▁přelom	-11.0858
▁stránky	-11.0858
▁předcházející	-11.0858
▁novinách	-11.0858
▁podílet	-11.0859
▁prodejny	-11.0859
▁centimetrů	-11.0859
▁vyjde	-11.086
▁armádě	-11.0861
▁Africe	-11.0861
▁fotbalisté	-11.0861
▁oborech	-11.0861
▁položky	-11.0862
▁změnám	-11.0863
▁závazky	-11.0863
▁uvádějí	-11.0864
▁Maďarsku	-11.0864
▁počkat	-11.0864
▁kvalitou	-11.0864
▁tabulka	-11.0866
▁plánování	-11.0867
▁vozu	-11.0868
▁trenérů	-11.0868
▁nemovitostí	-11.087
▁zkušební	-11.0871
▁dodržování	-11.0871
▁Dopravní	-11.0871
▁seriálu	-11.0875
▁mládeže	-11.0875
▁novely	-11.0877
▁řekne	-11.0877
▁svěřen	-11.0878
vedl	-11.0878
▁tvarů	-11.0878
▁vojáci	-11.0878
▁menu	-11.0879
▁ocenění	-11.0879
▁přidat	-11.0879
▁zubní	-11.0879
▁výměnu	-11.0881
▁dolů	-11.0882
▁okresy	-11.0883
▁ředitelem	-11.0885
▁referendum	-11.0885
▁Budou	-11.0886
▁Excelu	-11.0886
▁přijatelné	-11.0887
▁tvrdil	-11.0888
▁1994.	-11.0892
▁zřízení	-11.0892
▁šestnáct	-11.0893
▁budově	-11.0893
▁Františk	-11.0894
▁potravinářské	-11.0895
▁vedoucích	-11.0896
▁hmotnosti	-11.0897
▁hráli	-11.0898
▁básník	-11.09
▁Par	-11.0902
▁volí	-11.0906
▁přístroj	-11.0907
ckých	-11.0909
▁odborn	-11.0909
▁hlubší	-11.091
▁Demokratick	-11.091
▁vystřídal	-11.091
▁olej	-11.091
▁Cha	-11.0911
▁nominální	-11.0912
▁stadiónu	-11.0914
▁studenty	-11.0914
▁materiálem	-11.0915
ráží	-11.0915
▁magistrátu	-11.0919
▁podzimní	-11.092
▁výhodu	-11.0923
▁Ital	-11.0923
▁procesoru	-11.0923
▁aktivitu	-11.0932
▁sestavy	-11.0938
▁obchodníků	-11.0939
▁lesa	-11.094
▁zdát	-11.0944
▁Potřebuje	-11.0944
▁Ad	-11.0948
▁krokem	-11.0948
kládá	-11.0949
▁Clinton	-11.095
▁plyne	-11.095
▁člověku	-11.0951
▁energetický	-11.0951
▁záměry	-11.0952
šit	-11.0953
▁ranní	-11.0955
▁přehledu	-11.0956
▁strávil	-11.0957
▁Vol	-11.0958
▁projevy	-11.0959
▁odbor	-11.0959
▁jedenácti	-11.0964
MU	-11.0964
▁jugoslávské	-11.0966
▁úpravu	-11.0968
▁odpovědnosti	-11.0973
▁snadné	-11.0974
▁čínský	-11.0975
▁rozpočtové	-11.0976
▁plocha	-11.0977
▁odešl	-11.0985
IST	-11.0993
▁vloni	-11.0994
▁vytvořila	-11.0995
▁muselo	-11.0998
▁stávající	-11.1
▁starého	-11.1002
▁testy	-11.1003
▁syna	-11.1005
▁podpořit	-11.1008
elný	-11.1016
▁proměn	-11.1016
▁datové	-11.1017
▁rozhodnutím	-11.1018
jat	-11.1019
▁zvýšily	-11.102
▁alkohol	-11.1021
▁objevili	-11.1032
rovná	-11.1033
▁způsoben	-11.1034
▁Han	-11.1034
▁přírodního	-11.1034
▁stoupá	-11.1036
▁klasick	-11.1039
▁závody	-11.1041
▁teplot	-11.1041
▁procesy	-11.1044
novými	-11.1045
▁kup	-11.1049
pustí	-11.1049
70	-11.105
▁platné	-11.105
▁přátel	-11.105
out	-11.1056
▁vědeck	-11.1059
▁obrazy	-11.106
▁Du	-11.1061
▁velitel	-11.1062
▁Své	-11.1063
▁hloub	-11.1068
▁správce	-11.1074
▁západním	-11.1075
▁28.	-11.1082
▁ikon	-11.1084
▁ZA	-11.1088
▁kroku	-11.1093
▁výtvarné	-11.1095
▁otevře	-11.11
▁5000	-11.1106
▁nezbytn	-11.111
▁působil	-11.1117
▁významným	-11.1119
▁známá	-11.1122
▁texty	-11.1123
▁odborník	-11.1125
▁kg	-11.113
▁pokyn	-11.1131
▁per	-11.1132
▁čtrnácti	-11.114
plňuje	-11.1144
leb	-11.1146
▁předchozím	-11.1147
▁Slovensk	-11.1155
▁nedostal	-11.1159
RO	-11.116
▁prodejem	-11.1161
▁grafick	-11.1162
▁jednáních	-11.1169
▁anglický	-11.1177
▁konkrétních	-11.1177
▁51	-11.1178
▁souhrn	-11.1178
▁způsobů	-11.1179
▁prožil	-11.118
čních	-11.1184
,4	-11.1187
▁fakta	-11.1188
▁struktur	-11.1188
▁zmíněn	-11.1189
▁potřebn	-11.119
▁SV	-11.119
▁svazové	-11.1192
šení	-11.1201
▁evropským	-11.1205
▁řek	-11.1209
▁náročný	-11.1209
▁prav	-11.121
van	-11.1218
▁Kohl	-11.1222
▁47	-11.1222
▁minulost	-11.1222
TU	-11.1224
▁druhému	-11.1226
puštěn	-11.1229
▁Me	-11.1229
▁zpětn	-11.1229
▁reáln	-11.1232
▁prezidentský	-11.1234
▁výlet	-11.1235
▁podvod	-11.1237
▁Št	-11.1238
▁volebním	-11.1238
net	-11.1241
váží	-11.1243
bud	-11.1245
▁Fond	-11.1246
▁stadión	-11.1247
▁okruh	-11.1247
▁raket	-11.1248
ď	-11.1252
▁vyskytují	-11.1255
▁sedmdesát	-11.1255
▁uspořádal	-11.1258
▁grafik	-11.1262
▁svobodné	-11.1266
▁zaměření	-11.1266
89	-11.1268
▁mikro	-11.1269
řazen	-11.1271
▁stole	-11.1275
klo	-11.128
▁každoročn	-11.1281
▁debat	-11.1281
▁vrstev	-11.1291
▁myšlenka	-11.1293
▁polské	-11.1293
▁in	-11.1302
▁stíhán	-11.1304
▁zpěv	-11.1306
▁přím	-11.1307
losování	-11.1307
▁Grand	-11.1309
▁Armád	-11.1309
▁1982	-11.1309
▁Dienstbier	-11.1309
▁Dosavadní	-11.1309
▁Fischer	-11.1309
▁Siemens	-11.1309
▁družstvo	-11.1309
▁družstvu	-11.1309
▁inflaci	-11.1309
▁konstrukcí	-11.1309
▁naznačuje	-11.1309
▁normálně	-11.1309
▁regenerace	-11.1309
▁rekonstrukce	-11.1309
▁rozšiřuje	-11.1309
▁seznámit	-11.1309
▁shodují	-11.1309
▁skupenství	-11.1309
▁službě	-11.1309
▁vstupenek	-11.1309
▁zúčastnit	-11.1309
▁Štědrý	-11.1309
▁Bavor	-11.1309
▁Poldi	-11.1309
▁nabídkou	-11.1309
▁uznat	-11.1309
▁žádat	-11.1309
▁Manžel	-11.1309
▁geometrii	-11.1309
▁dodávek	-11.1309
▁Dušan	-11.1309
▁Náklady	-11.1309
▁integrace	-11.1309
▁salát	-11.1309
▁Slavia	-11.1309
▁rozmístěn	-11.1309
▁posléze	-11.1309
▁směřuje	-11.1309
▁rámečku	-11.1309
▁spoléha	-11.1309
▁transformační	-11.1309
▁regulační	-11.1309
▁Rozhodnutí	-11.1309
▁nedošlo	-11.131
▁turné	-11.131
▁duševní	-11.131
▁podrobnosti	-11.131
▁napaden	-11.131
▁jindy	-11.131
▁Varech	-11.131
▁ÚV	-11.131
▁slunce	-11.131
▁památek	-11.131
▁přejít	-11.131
▁usiluje	-11.131
▁atmosféra	-11.1311
:3	-11.1311
ukce	-11.1311
▁informován	-11.1311
▁pravděpodobné	-11.1311
▁přiznává	-11.1311
▁Bělohradský	-11.1312
▁Milán	-11.1312
▁Správ	-11.1312
▁park	-11.1312
▁probíhal	-11.1313
▁stránku	-11.1313
▁Těžko	-11.1314
▁matka	-11.1314
▁kůže	-11.1315
▁souhlasit	-11.1315
▁sedimentů	-11.1315
▁literatury	-11.1316
▁dokázat	-11.1316
▁zajistí	-11.1317
▁středisko	-11.1318
▁Nadace	-11.1318
▁plná	-11.1319
▁Skupina	-11.1319
▁nejsem	-11.1319
▁spojů	-11.132
▁kdykoliv	-11.1322
▁pěkně	-11.1322
enství	-11.1323
▁velvyslanectví	-11.1324
▁sedmdesátých	-11.1324
ckner	-11.1324
▁sféry	-11.1324
▁armádu	-11.1325
▁moři	-11.1326
▁upozornění	-11.1326
▁zveřejnění	-11.1327
▁smluv	-11.1327
▁univerzitě	-11.1328
▁olympiádě	-11.1328
▁středisku	-11.1328
▁slibuje	-11.1328
▁šedesátých	-11.1329
▁zaslouží	-11.1329
▁švédské	-11.1329
▁zbytky	-11.1329
▁závažné	-11.133
▁kandidát	-11.1331
▁nešlo	-11.1332
▁fotbalista	-11.1333
▁množstvím	-11.1333
▁senátní	-11.1334
▁záruky	-11.1335
▁horské	-11.1336
▁interní	-11.1337
▁postupovat	-11.1337
▁luxusní	-11.1338
▁uživatelé	-11.1338
▁dostaneme	-11.134
▁ohrožen	-11.1341
dává	-11.1341
▁činů	-11.1344
▁samy	-11.1344
▁spojuje	-11.1348
▁faktory	-11.1348
▁Fotbalist	-11.1349
▁zuby	-11.135
▁popisuje	-11.135
▁olympiády	-11.1351
▁mise	-11.1352
▁příspěvku	-11.1352
▁rozhovorů	-11.1353
▁zásadě	-11.1354
▁výstavní	-11.1355
ivé	-11.1355
▁argumenty	-11.1357
▁zodpovědnost	-11.1357
▁náhlé	-11.1358
▁tlakem	-11.136
▁proudu	-11.1361
▁hrou	-11.1364
▁stopy	-11.1365
například	-11.1365
▁vládnoucí	-11.1367
▁zprávě	-11.1368
▁automobilový	-11.1369
▁dividendy	-11.137
▁měří	-11.137
▁metodou	-11.1371
▁Úřad	-11.1371
▁alkoholu	-11.1372
lín	-11.1372
▁klienty	-11.1373
▁hus	-11.1374
▁mateřské	-11.1375
▁doklady	-11.1378
ičky	-11.1379
▁škod	-11.1379
▁spol	-11.138
▁přijímá	-11.1381
▁pacienti	-11.1383
▁složitý	-11.1384
▁Asie	-11.1387
▁dotazník	-11.1388
▁silným	-11.139
▁klíčové	-11.1391
▁počítačov	-11.1392
ckého	-11.1393
▁výnosy	-11.1393
▁Změny	-11.1393
▁nastala	-11.1394
▁překlad	-11.1394
▁nutnosti	-11.1395
▁převážn	-11.1395
▁úspěchem	-11.1399
▁strategické	-11.1401
▁Svobod	-11.1402
▁stě	-11.1402
řídil	-11.1409
▁obory	-11.1412
▁Lékaři	-11.1414
▁prohráli	-11.1423
▁tělesné	-11.1425
▁ing	-11.143
40	-11.1431
▁městského	-11.1434
▁slovem	-11.1434
AR	-11.1435
▁lék	-11.1436
▁tvrdý	-11.1441
▁červené	-11.1444
▁přípravu	-11.1445
▁trvání	-11.1445
▁přirozený	-11.1454
▁republikou	-11.1454
▁podepsali	-11.1455
▁kapacit	-11.1457
▁efektu	-11.1462
▁manažerské	-11.1465
▁Hol	-11.1466
▁příslušného	-11.1466
▁podlehl	-11.1469
▁Mečiar	-11.1469
▁minutě	-11.1471
▁Nejlepší	-11.1473
▁pojistného	-11.1476
▁zahájením	-11.1478
▁připraveny	-11.148
▁pracující	-11.1481
▁tenisové	-11.1485
nesou	-11.1485
áci	-11.1486
CD	-11.1489
▁daních	-11.149
▁pochyb	-11.1491
▁závěrečném	-11.1492
▁nadcházející	-11.1495
▁souboj	-11.15
IC	-11.1501
▁zdi	-11.1512
▁kontrolovat	-11.1515
▁závodník	-11.1516
▁návrhem	-11.1516
▁Vítěz	-11.1518
▁značná	-11.1519
brat	-11.152
▁kont	-11.152
▁úspěchy	-11.1523
splnění	-11.1533
▁red	-11.1536
▁garant	-11.1537
▁toku	-11.1545
▁žil	-11.155
kázal	-11.1553
▁jinému	-11.1567
▁volb	-11.1568
AV	-11.157
▁led	-11.1573
tají	-11.1574
▁kroků	-11.1578
▁takovému	-11.1579
▁poradensk	-11.158
stal	-11.1582
▁orgán	-11.1582
▁dluh	-11.1584
▁2,	-11.1585
platí	-11.1585
▁Případ	-11.1585
▁pohár	-11.1586
▁známým	-11.1586
▁ekonomického	-11.1586
▁nejúspěšnější	-11.1587
pustit	-11.1592
▁ekologick	-11.1595
▁Kor	-11.1598
ues	-11.1599
razit	-11.16
▁doklad	-11.1604
oji	-11.1608
▁nemohla	-11.1609
▁obvod	-11.1617
▁př	-11.1619
▁malým	-11.1624
▁1996	-11.1626
▁260	-11.1636
šek	-11.1636
▁původ	-11.1643
ton	-11.1644
▁užit	-11.1644
▁motor	-11.1647
▁znak	-11.1648
▁sehrál	-11.1651
▁důsledk	-11.1652
▁rychlejší	-11.1655
▁Nemoh	-11.1656
▁kapitálové	-11.1658
▁Karadžiče	-11.1658
▁Poslanec	-11.1661
▁zas	-11.1663
▁zvláštním	-11.1664
dní	-11.167
▁Tomu	-11.167
▁Postup	-11.1671
▁důvěry	-11.1671
▁úprava	-11.1672
▁dvoj	-11.1674
▁nějakém	-11.1675
▁aktivita	-11.1681
▁personál	-11.1687
▁Srbsk	-11.1691
áme	-11.1694
▁experiment	-11.1694
▁pat	-11.1696
▁dosavadních	-11.1698
▁útočník	-11.1699
bírá	-11.17
▁majitelů	-11.17
mor	-11.1701
▁plném	-11.1702
▁všemu	-11.1712
▁900	-11.1713
▁jakými	-11.1714
▁humor	-11.1715
▁získaný	-11.1718
▁sbor	-11.1718
▁Chip	-11.1721
▁pokrok	-11.1721
▁fin	-11.1723
▁Washington	-11.1723
▁rozpad	-11.1726
▁balík	-11.1736
KU	-11.1736
▁logicky	-11.1737
▁uvedli	-11.1738
▁Mí	-11.1738
itel	-11.1742
▁odkaz	-11.1743
▁užívá	-11.1744
hruba	-11.1745
▁svobodný	-11.1746
lka	-11.175
▁div	-11.1751
▁komu	-11.1752
▁trvající	-11.1756
▁zaměstnanec	-11.1758
chází	-11.1759
▁Věřím	-11.1763
▁dokončen	-11.1767
▁Hra	-11.1774
ždyť	-11.1777
nejvýš	-11.1779
▁současným	-11.1784
▁Zálež	-11.1784
▁kop	-11.1784
▁ubytovací	-11.1785
▁Jindřich	-11.1785
▁Michail	-11.1785
▁aplikaci	-11.1785
▁důležitou	-11.1785
▁kanalizace	-11.1785
▁kariéru	-11.1785
▁komunistů	-11.1785
▁lehké	-11.1785
▁obrátit	-11.1785
▁ovlivnit	-11.1785
▁přirozeně	-11.1785
▁přírodu	-11.1785
▁referenda	-11.1785
▁snižovat	-11.1785
▁stupeň	-11.1785
▁svědky	-11.1785
▁administrativní	-11.1785
▁válku	-11.1785
▁Boyle	-11.1785
▁budoucna	-11.1785
▁podmínkám	-11.1785
▁zneužití	-11.1785
▁týče	-11.1785
▁zbaven	-11.1785
▁Kreslení	-11.1785
▁antropologie	-11.1785
▁fosilní	-11.1785
▁kombinace	-11.1785
▁hokejisté	-11.1785
▁přivezl	-11.1785
▁zkrátka	-11.1785
▁dívat	-11.1785
▁češtině	-11.1785
▁prapor	-11.1785
▁příjezd	-11.1785
▁stavět	-11.1785
▁nezmění	-11.1785
▁staletí	-11.1785
▁nezbývá	-11.1785
▁Optima	-11.1785
▁nohou	-11.1785
▁ocenil	-11.1786
▁Zdeňk	-11.1786
▁Minul	-11.1786
▁1980	-11.1786
▁psů	-11.1786
▁ligový	-11.1786
▁výpovědi	-11.1787
▁matky	-11.1787
▁Říká	-11.1787
▁Příští	-11.1787
▁Konec	-11.1787
▁jídla	-11.1787
▁vítr	-11.1788
▁varování	-11.1788
▁kontrakt	-11.1788
▁vyměnit	-11.1789
konců	-11.1789
▁solidní	-11.1789
▁Karpov	-11.179
▁hlasovat	-11.179
▁setkáváme	-11.179
▁převést	-11.1791
ána	-11.1791
▁stavba	-11.1791
▁ráj	-11.1792
▁etapě	-11.1792
▁chybět	-11.1792
▁Atlantiku	-11.1793
▁Belgii	-11.1793
▁kontinentu	-11.1793
▁Španělska	-11.1793
▁znečištění	-11.1793
▁vystoupí	-11.1794
▁EU	-11.1794
▁liberální	-11.1794
▁smečky	-11.1796
▁jednal	-11.1797
▁výraznější	-11.1797
▁detailní	-11.1799
oprvé	-11.1799
▁Říman	-11.18
▁vojáky	-11.1801
▁knížky	-11.1801
▁stačil	-11.1801
▁dostupné	-11.1802
▁mzda	-11.1802
▁vítěze	-11.1803
▁povahy	-11.1803
▁expertů	-11.1804
▁kanálů	-11.1804
▁částkou	-11.1804
▁zvládnout	-11.1806
▁tržby	-11.1806
▁učení	-11.1808
▁vybudování	-11.1808
▁podobným	-11.1809
▁chuť	-11.1809
▁uvolnění	-11.181
▁Paříž	-11.1811
▁oken	-11.1813
▁sloužil	-11.1813
▁akciov	-11.1814
▁získáva	-11.1815
umět	-11.1815
▁Bank	-11.1817
▁uzavřena	-11.182
▁Mag	-11.182
▁kořeny	-11.182
▁starostí	-11.1821
▁sektor	-11.1821
▁subjektů	-11.1822
▁čistě	-11.1822
▁Blízké	-11.1822
▁krevní	-11.1822
▁Ri	-11.1823
▁KDU	-11.1824
▁kapacitou	-11.1824
▁volbou	-11.1825
▁uchazečů	-11.1826
▁prestižní	-11.1827
▁rizik	-11.1827
▁vašem	-11.1828
▁nemocí	-11.1829
▁obhájce	-11.1829
▁krajní	-11.183
▁nápln	-11.183
▁Voda	-11.1832
▁2,5	-11.1833
▁vyšla	-11.1833
▁úseku	-11.1833
▁příznivců	-11.1836
▁Maďarsko	-11.1837
▁play	-11.1837
▁přesný	-11.1837
▁Vesmíru	-11.1844
▁průměrně	-11.1846
▁okraji	-11.1849
▁požár	-11.1849
▁spoj	-11.185
▁strukturu	-11.185
▁učí	-11.1854
tisknout	-11.1857
▁Mel	-11.1857
▁krásné	-11.186
ens	-11.186
▁šok	-11.186
▁mechaniku	-11.1861
▁Host	-11.1868
▁zásahu	-11.187
▁kompromis	-11.187
▁Bla	-11.1874
▁obchodě	-11.1874
stává	-11.1874
▁hosty	-11.1875
19	-11.1876
▁stavbě	-11.1876
▁vlastními	-11.1877
▁Ste	-11.188
▁právem	-11.1889
▁Den	-11.1889
▁manažerů	-11.189
▁vytvořili	-11.1891
Ř	-11.1892
▁nastal	-11.1894
▁brněnsk	-11.1895
▁zadní	-11.1898
▁projevu	-11.1898
▁Výrob	-11.1899
álně	-11.1901
▁elektronické	-11.1903
▁Vesel	-11.1904
razí	-11.1905
▁tvary	-11.1906
ena	-11.1906
▁turnaji	-11.1907
šování	-11.1908
▁fyzika	-11.1908
▁německým	-11.1909
▁přijali	-11.1909
▁páteční	-11.1911
ška	-11.1912
▁vedly	-11.1918
▁záznamové	-11.1918
dáme	-11.1922
▁dějiny	-11.1927
elů	-11.1927
ráže	-11.1927
▁350	-11.193
▁ztratila	-11.1931
af	-11.1932
▁Husov	-11.1936
hraje	-11.1941
▁Masarykov	-11.1944
stávají	-11.1945
▁relativní	-11.195
▁rud	-11.195
▁poměry	-11.195
místo	-11.1952
▁veškerý	-11.1954
▁HZDS	-11.1955
▁politicky	-11.1956
▁0,	-11.1956
tor	-11.1958
vede	-11.196
▁vydala	-11.1961
▁22.	-11.1971
▁uváděn	-11.1977
▁vodě	-11.1981
tedy	-11.1982
▁zabit	-11.1983
▁hotové	-11.1984
▁maďarské	-11.1987
pos	-11.1991
▁občana	-11.1997
▁jednotlivým	-11.2
▁čištění	-11.2001
dnes	-11.2004
▁děj	-11.2004
řejmě	-11.2005
▁Výš	-11.2005
▁předání	-11.2011
bíhá	-11.2011
▁vítězů	-11.2013
▁arabské	-11.2016
▁automatické	-11.2023
▁postih	-11.2024
▁přesné	-11.2024
▁asistent	-11.203
▁Staré	-11.2031
dejme	-11.2036
▁kontaktu	-11.2037
▁DO	-11.2044
▁náhod	-11.2046
▁atomové	-11.2051
▁potvrdila	-11.2052
nů	-11.2053
bíd	-11.2054
▁zlaté	-11.2062
▁jednotné	-11.2062
pot	-11.2065
▁dával	-11.2065
▁témata	-11.2065
▁obyčejný	-11.2066
▁stanovené	-11.2075
▁oslav	-11.2078
▁historické	-11.2079
▁jdou	-11.2082
řádně	-11.2084
▁Ci	-11.2084
pustil	-11.2088
trh	-11.2092
▁významně	-11.2092
▁1500	-11.2097
,8	-11.2097
▁cenové	-11.21
▁kritický	-11.2102
▁narazil	-11.2114
▁mís	-11.2116
▁elektronický	-11.2118
age	-11.2127
▁spotřebitel	-11.2129
▁položil	-11.2131
bude	-11.2132
▁jejími	-11.2133
▁lov	-11.2134
▁týmů	-11.2136
▁Izraelsk	-11.2136
▁ledový	-11.2152
lení	-11.2152
hav	-11.2152
▁následujícím	-11.2155
▁kolech	-11.216
jedno	-11.2166
▁budova	-11.2166
▁moravské	-11.2168
▁jugoslávsk	-11.2171
ork	-11.2173
▁tábor	-11.2173
▁kolektiv	-11.2174
▁vět	-11.2178
▁image	-11.2183
VA	-11.2185
▁ráda	-11.219
▁Týr	-11.219
▁ocitl	-11.2191
▁úplné	-11.2193
▁klesl	-11.2194
▁urychlen	-11.2194
▁vzhled	-11.2195
▁obdobné	-11.2195
NI	-11.2196
▁výprav	-11.2201
▁sportovním	-11.2203
▁Pražsk	-11.2208
▁opravu	-11.2208
▁mandát	-11.2208
▁vývojem	-11.2209
▁pouští	-11.2211
hradit	-11.2211
▁zemědělců	-11.2217
▁akcionářů	-11.2217
▁otevřený	-11.2219
▁fotoaparát	-11.2219
▁předběžn	-11.222
▁zdanění	-11.222
▁Kazachstán	-11.2222
▁horský	-11.2223
▁Svaz	-11.2223
nce	-11.2224
▁Dom	-11.2225
ug	-11.223
▁týkají	-11.2233
pálen	-11.2234
▁mluvil	-11.2234
▁vzniklé	-11.2234
▁nejlepšího	-11.2236
▁spodní	-11.2237
▁intenzit	-11.2239
kombin	-11.224
▁chybu	-11.2242
▁blíží	-11.2247
skočil	-11.2249
▁odpovídají	-11.225
ins	-11.2251
▁Dokon	-11.2252
▁jih	-11.2257
▁arabský	-11.2258
▁Bratislava	-11.2258
myšlen	-11.2259
▁hrálo	-11.2261
▁medaili	-11.2264
▁klíče	-11.2266
nutit	-11.2271
▁výkonnost	-11.2275
▁král	-11.2277
čně	-11.2278
▁tmav	-11.2279
icky	-11.2279
era	-11.2281
▁dlouhodobě	-11.2283
olicejní	-11.2284
ng	-11.2285
▁Výjimk	-11.2285
▁Výsledek	-11.2285
▁Wembley	-11.2285
▁cizinců	-11.2285
▁definovat	-11.2285
▁dětmi	-11.2285
▁intenzivně	-11.2285
▁komisí	-11.2285
▁lhůty	-11.2285
▁mobilní	-11.2285
▁nabídnut	-11.2285
▁otázkách	-11.2285
▁připomenout	-11.2285
▁revoluce	-11.2285
▁sankce	-11.2285
▁srpnu	-11.2285
▁série	-11.2285
▁umístit	-11.2285
▁upozorňují	-11.2285
▁veřejnou	-11.2285
▁zdravotně	-11.2285
▁Komora	-11.2285
▁Názor	-11.2285
▁humanitární	-11.2285
▁pozemků	-11.2285
▁pátý	-11.2285
▁stačit	-11.2285
▁Ústí	-11.2285
▁řekněme	-11.2285
▁týdnu	-11.2285
▁užitečné	-11.2285
▁vyhověl	-11.2285
▁Prahu	-11.2285
▁obránce	-11.2285
▁projednávání	-11.2285
▁shluk	-11.2285
▁turisté	-11.2285
▁tvůrčí	-11.2285
▁zachoval	-11.2285
▁království	-11.2285
▁nebrání	-11.2285
▁zážitek	-11.2285
▁vykonávat	-11.2285
▁modernizaci	-11.2285
▁sportovci	-11.2285
▁uhličitého	-11.2285
▁zaslal	-11.2285
▁Bohemia	-11.2285
▁kostým	-11.2285
▁realizaci	-11.2285
▁evidenci	-11.2285
▁karet	-11.2285
▁1948	-11.2285
▁minimum	-11.2285
▁proběhla	-11.2285
▁emise	-11.2285
▁HGF	-11.2285
▁převzetí	-11.2285
▁zajistil	-11.2286
▁cítit	-11.2286
▁léčení	-11.2286
▁dvojnásobek	-11.2286
▁experimentální	-11.2286
▁půjčky	-11.2286
▁atmosféru	-11.2286
▁videa	-11.2286
▁nepatří	-11.2287
▁rozdělit	-11.2287
▁Chang	-11.2287
vedli	-11.2287
▁ČZ	-11.2287
▁očima	-11.2287
▁ošetření	-11.2288
▁Ukázal	-11.2288
▁ušetří	-11.2289
▁venku	-11.2289
▁nahoru	-11.2289
▁potřebovat	-11.2289
▁prosím	-11.2289
▁nechci	-11.2289
▁sponzor	-11.2289
▁tabulku	-11.2289
▁letišti	-11.229
▁dovoluje	-11.229
▁Poborského	-11.229
▁čelní	-11.2291
▁anonymní	-11.2291
▁poukaz	-11.2291
dělování	-11.2292
▁potravy	-11.2292
▁Mostaru	-11.2293
▁přestane	-11.2293
▁sleduje	-11.2294
tažení	-11.2295
▁vycházet	-11.2296
▁světu	-11.2296
▁výrobku	-11.2296
▁ostrovů	-11.2296
▁Pojišťovna	-11.2297
▁prvek	-11.2297
▁centrem	-11.2297
▁stěžují	-11.2298
▁průmyslov	-11.23
▁policisty	-11.2301
▁odměny	-11.2302
▁prostorách	-11.2302
ick	-11.2302
▁plnit	-11.2303
▁Důvodem	-11.2303
▁architektury	-11.2304
▁voliči	-11.2307
▁národnostní	-11.2309
▁prodejně	-11.2309
▁volit	-11.231
▁technikou	-11.231
▁Doufám	-11.2312
▁reklamní	-11.2313
▁užitku	-11.2314
▁Mac	-11.2315
▁problematiku	-11.2316
▁99	-11.2316
▁Met	-11.2317
▁Švédsku	-11.2317
▁kontrolou	-11.2317
▁stížnosti	-11.2318
▁semináře	-11.2318
danou	-11.2319
▁Lig	-11.2319
ického	-11.2321
▁opravě	-11.2322
▁podoby	-11.2322
▁způsobit	-11.2323
▁Smlouva	-11.2324
68	-11.2324
▁sehnat	-11.2325
▁změnách	-11.2325
▁novela	-11.2326
▁mírový	-11.2326
▁komunismu	-11.2327
▁Olomouce	-11.2328
▁vlastníkem	-11.2329
▁Film	-11.2329
▁šíří	-11.2332
▁dělníků	-11.2337
▁vybere	-11.2338
▁stráž	-11.2338
▁biologick	-11.234
▁chladu	-11.234
mer	-11.2346
▁vstupuje	-11.2346
tito	-11.2346
volal	-11.2348
▁požadavkům	-11.2349
znamenat	-11.235
▁rozpadu	-11.2351
▁rozhovory	-11.2353
▁kruhy	-11.2354
▁ústavů	-11.2356
▁úmyslu	-11.2357
▁stromy	-11.236
▁rodné	-11.2361
▁elektrický	-11.2361
eny	-11.2361
▁přišly	-11.2361
▁125	-11.2362
▁rostliny	-11.2363
▁hlasu	-11.2364
▁novinářům	-11.2364
▁Tým	-11.2365
▁pre	-11.2367
hodit	-11.2369
▁lize	-11.2369
▁pracujících	-11.2369
▁ducha	-11.2372
▁obranné	-11.2375
▁nevíme	-11.2375
▁udělali	-11.2376
▁vzdal	-11.2376
▁hovořili	-11.2378
▁potenciálu	-11.238
▁geny	-11.238
▁plochu	-11.2382
▁komora	-11.2383
▁Nobelov	-11.2383
▁dopad	-11.2385
vádějí	-11.2388
▁stříbrné	-11.2388
▁procesů	-11.2388
vil	-11.2389
píše	-11.2389
▁klubem	-11.2391
▁mistry	-11.2393
PS	-11.2393
číst	-11.2393
▁rozhodlo	-11.2395
▁deníku	-11.2396
▁SD	-11.2396
▁26.	-11.2398
pir	-11.24
▁ostravské	-11.2401
▁Bor	-11.2401
▁index	-11.2407
▁Or	-11.2408
óz	-11.2408
▁výkladu	-11.2409
▁27.	-11.241
vání	-11.2411
▁šestnácti	-11.2414
▁vycházel	-11.2414
▁věta	-11.2416
▁skvělé	-11.2418
padla	-11.2419
▁telefony	-11.2422
▁mm	-11.2422
▁papíry	-11.2425
▁kovy	-11.2426
▁Nez	-11.2427
▁případný	-11.2428
▁Mé	-11.2429
▁El	-11.2429
▁činila	-11.2438
zení	-11.2438
▁24.	-11.2443
▁soupeřů	-11.2443
▁efekty	-11.2443
▁procenty	-11.2463
3,	-11.2464
▁jednoznačný	-11.2465
▁zvyšovat	-11.2465
▁LDS	-11.2465
▁MHz	-11.2465
▁pocity	-11.2465
▁Řekl	-11.2467
▁dělal	-11.2469
ani	-11.247
▁pověřen	-11.2473
▁stávají	-11.2482
▁Kdybych	-11.2483
▁zvyk	-11.2484
▁závěrečný	-11.2485
▁zákonu	-11.2488
,6	-11.249
98	-11.2499
dni	-11.2503
rit	-11.2504
▁postižen	-11.2508
▁vážný	-11.2511
poloviční	-11.2515
res	-11.2517
ŘÍ	-11.2521
yl	-11.2523
kovat	-11.2523
▁podnikatelům	-11.2524
▁nutný	-11.2528
▁vyhráli	-11.253
▁Světov	-11.2534
▁budoucího	-11.2539
jasn	-11.2539
dají	-11.2544
▁tvůrce	-11.2546
▁Ši	-11.2548
ívají	-11.2555
▁Japonsko	-11.2561
▁rusk	-11.2564
procentní	-11.2565
jednat	-11.2565
▁tvrd	-11.2566
▁katolick	-11.2567
▁kilometr	-11.2567
▁Egypt	-11.2571
72	-11.2572
▁nežádoucí	-11.2572
▁pozornosti	-11.2577
ávat	-11.2577
▁bo	-11.258
▁Plat	-11.258
bil	-11.2582
▁výběrové	-11.2582
▁chemie	-11.2584
▁Večer	-11.2584
▁Text	-11.2584
▁postupů	-11.2588
▁podruhé	-11.2591
▁zákoně	-11.2591
cení	-11.2595
▁oper	-11.2596
▁soupeři	-11.2597
▁CS	-11.2598
▁Konce	-11.2602
▁zásilk	-11.2604
▁Ot	-11.2609
▁37	-11.261
▁vtip	-11.2612
▁rod	-11.2612
projevilo	-11.2613
▁odmítla	-11.2613
▁agentur	-11.2624
▁obává	-11.2625
čil	-11.2628
ill	-11.2628
ust	-11.2628
jel	-11.2629
počet	-11.2632
▁napadl	-11.2637
ička	-11.2637
ep	-11.2641
▁Západ	-11.2647
měř	-11.2647
▁zastavil	-11.265
UJE	-11.265
zákon	-11.2651
▁komplex	-11.2653
▁úst	-11.2656
▁disket	-11.2657
▁rozpor	-11.2662
ja	-11.2663
tvo	-11.2667
▁vlád	-11.2667
▁kap	-11.2668
▁stálé	-11.2669
▁of	-11.2669
▁gigant	-11.267
▁hrob	-11.2674
teče	-11.2675
▁konzervativní	-11.2675
▁mém	-11.2677
▁dostih	-11.2679
▁duch	-11.268
▁Projekt	-11.2683
počítá	-11.2689
▁stolu	-11.2692
▁43	-11.2692
▁prodá	-11.2693
▁čistíren	-11.2698
▁Všeobecn	-11.2698
▁Zlín	-11.27
stu	-11.2701
▁běžn	-11.2708
▁vojsk	-11.2716
▁Kam	-11.272
▁budování	-11.272
VI	-11.2721
náší	-11.2729
▁Pe	-11.2731
▁Mon	-11.2737
padal	-11.2737
▁nejvyšších	-11.2737
▁h	-11.274
▁požadavků	-11.2744
▁Miloše	-11.2745
▁nezná	-11.2746
▁vydá	-11.2747
▁aparát	-11.2748
▁Rád	-11.2749
▁brambor	-11.275
▁účinnost	-11.275
▁císař	-11.2751
▁komponent	-11.2751
▁cigaret	-11.2751
▁dodavatele	-11.2755
▁radu	-11.2756
▁Zda	-11.2757
▁Rozhod	-11.2758
rst	-11.2763
▁investorů	-11.2764
▁vyžadují	-11.2766
▁okraj	-11.2766
brán	-11.277
▁jednorázov	-11.2772
▁následuj	-11.2775
▁seminář	-11.2777
▁Zemanov	-11.2783
▁Angličan	-11.2784
▁Zjuganov	-11.2785
US	-11.2785
▁vytvářejí	-11.2789
alternativ	-11.2792
▁malíř	-11.2797
▁kondom	-11.2798
▁Kole	-11.2799
▁otevírá	-11.28
▁stop	-11.28
▁smí	-11.28
▁Graf	-11.2803
▁prud	-11.2803
bin	-11.281
▁Jednotliv	-11.2811
▁Náměst	-11.2811
▁Weizs	-11.2811
▁cizinci	-11.2811
▁cizině	-11.2811
▁deklarace	-11.2811
▁komunisté	-11.2811
▁letadlo	-11.2811
▁lístky	-11.2811
▁medailí	-11.2811
▁ministerstev	-11.2811
▁nemožné	-11.2811
▁nečekaně	-11.2811
▁opozici	-11.2811
▁redakci	-11.2811
▁restituční	-11.2811
▁stadia	-11.2811
▁struktuře	-11.2811
▁uspokojení	-11.2811
▁válkou	-11.2811
▁výkyvy	-11.2811
▁zlepšit	-11.2811
▁zúčastní	-11.2811
▁kmitočt	-11.2811
▁ovládat	-11.2811
▁potrvá	-11.2811
▁Benešov	-11.2811
▁pozemky	-11.2811
▁Lubomír	-11.2811
▁jídlo	-11.2811
▁licence	-11.2811
▁jedinci	-11.2811
▁umístil	-11.2811
▁Antonín	-11.2811
▁vyrábějí	-11.2811
▁nebudu	-11.2811
▁návštěvníci	-11.2811
▁odvozen	-11.2811
▁ČSAV	-11.2811
▁kůži	-11.2811
▁nejsilnější	-11.2811
▁Mazdy	-11.2811
▁Něco	-11.2811
▁dopředu	-11.2811
▁koncentrací	-11.2811
▁USD	-11.2811
▁Maastrichtu	-11.2811
▁informovat	-11.2811
▁léčba	-11.2811
▁Schneider	-11.2812
▁úkor	-11.2812
▁Krkonoších	-11.2812
▁vracejí	-11.2812
▁tisíciletí	-11.2812
▁vyloučit	-11.2812
▁nahrazen	-11.2812
▁stiskn	-11.2812
▁setkat	-11.2812
▁rozhodujícím	-11.2812
▁minerální	-11.2813
▁zkoušky	-11.2813
▁mikroorganismů	-11.2814
▁užívat	-11.2814
▁základnu	-11.2814
▁technick	-11.2814
▁vydělat	-11.2814
▁vykazuje	-11.2814
▁tempo	-11.2814
▁připojen	-11.2815
▁kancléř	-11.2815
▁zahájí	-11.2815
▁odmítnout	-11.2815
▁odpovědn	-11.2815
▁náročnější	-11.2815
▁spánku	-11.2816
▁čáry	-11.2817
▁závazků	-11.2817
▁nestalo	-11.2817
▁odškodnění	-11.2817
▁oživení	-11.2818
▁SNS	-11.2818
▁svatební	-11.2818
▁Hrad	-11.2819
▁hlavě	-11.2819
▁přeháňky	-11.2819
▁vyšetřovací	-11.2819
▁víno	-11.2819
▁absurdní	-11.282
▁pracovním	-11.2821
▁ukládat	-11.2821
▁Los	-11.2821
▁linek	-11.2821
hnal	-11.2822
▁posouzení	-11.2823
▁doplnit	-11.2823
▁nemění	-11.2823
▁Chorvatsko	-11.2824
▁kartě	-11.2824
▁vidění	-11.2824
▁chybějící	-11.2825
▁varoval	-11.2825
▁Situace	-11.2825
▁vybral	-11.2825
▁zájezdy	-11.2826
▁řádek	-11.2826
▁měřítku	-11.2827
žijí	-11.2828
krytí	-11.2828
▁vztahuje	-11.2828
▁Polsku	-11.2828
▁různá	-11.2828
▁výpočet	-11.2829
▁tiskárna	-11.283
▁údržbu	-11.283
▁letoun	-11.2831
▁popsat	-11.2832
▁genů	-11.2833
▁Bójů	-11.2834
▁spokojenosti	-11.2835
▁myslíte	-11.2836
▁boku	-11.2836
▁typick	-11.2836
▁městská	-11.2836
▁rána	-11.2837
2.	-11.2839
▁Věr	-11.2839
▁jádra	-11.2841
▁izraelský	-11.2843
▁Slovinska	-11.2843
▁kádru	-11.2843
▁terénu	-11.2843
▁stačilo	-11.2844
▁hovoru	-11.2845
dů	-11.2845
▁rozhodnuto	-11.2847
yplývá	-11.2848
▁matematiky	-11.2848
▁subjekty	-11.2851
▁kdybychom	-11.2852
▁zadání	-11.2852
jeli	-11.2853
▁tuzemských	-11.2853
▁Gr	-11.2853
▁islámské	-11.2854
dpověď	-11.2854
▁vyplývající	-11.2856
▁fyziku	-11.2858
▁kanálu	-11.2858
▁partnerem	-11.286
▁Japonska	-11.2861
▁znají	-11.2862
▁mírou	-11.2862
▁nalezení	-11.2863
lis	-11.2863
▁rozumné	-11.2865
letěl	-11.2866
▁ruchu	-11.2871
▁délku	-11.2871
▁zlata	-11.2875
▁účastníky	-11.2876
▁Váš	-11.2876
▁slovník	-11.2879
▁hranicích	-11.288
▁Doba	-11.2881
▁teoretické	-11.2884
▁kostela	-11.2887
▁dresu	-11.2887
▁příznivé	-11.2889
▁řidiči	-11.2889
jímá	-11.2892
▁140	-11.2894
▁volba	-11.2897
▁Ex	-11.2897
▁testů	-11.2897
▁plní	-11.2897
▁pevně	-11.2903
▁standardu	-11.2904
ějších	-11.2904
▁trojic	-11.2904
tah	-11.2909
▁opakovat	-11.291
strašně	-11.2911
▁okresech	-11.2915
▁variantu	-11.2916
▁výnosu	-11.2917
▁hospodářský	-11.2921
ině	-11.2922
▁manžela	-11.2924
▁bodem	-11.2926
▁knihu	-11.2927
▁metodu	-11.2928
mana	-11.2929
▁směn	-11.2929
▁iniciativa	-11.293
áno	-11.2931
▁odvolal	-11.2931
▁Fin	-11.2932
▁vyšetřovatel	-11.2932
▁servisu	-11.2932
▁informovali	-11.2934
dom	-11.2934
polí	-11.2937
▁velkém	-11.2939
jal	-11.2942
▁dopisy	-11.2942
▁zabýval	-11.2943
kládání	-11.2944
▁ryby	-11.2945
▁členské	-11.2946
▁Ří	-11.2947
▁číslem	-11.2949
▁tiskový	-11.2953
▁zůstaly	-11.2955
▁linka	-11.2956
▁hradí	-11.2966
hla	-11.2967
▁hrubé	-11.2969
▁kaly	-11.297
▁prázdnin	-11.297
▁srovnatelné	-11.2975
▁Řek	-11.2976
▁bytí	-11.2979
▁režiséra	-11.2979
měnit	-11.2981
▁přinesla	-11.2981
▁způsobila	-11.2983
▁Fran	-11.2984
▁přesvědčeni	-11.2986
▁mal	-11.2988
▁platu	-11.299
jdu	-11.2992
▁kód	-11.2994
mysl	-11.2997
▁přítomn	-11.3002
▁domnívám	-11.3007
▁drahá	-11.3014
▁řekli	-11.3019
▁stromů	-11.302
▁porad	-11.3024
EK	-11.3026
▁časopise	-11.3031
stál	-11.3031
▁Seznam	-11.3036
▁řetěz	-11.304
▁Car	-11.3042
▁jakého	-11.3044
▁předvedl	-11.3047
▁Prodej	-11.305
▁ukládá	-11.3052
IL	-11.3053
▁sešli	-11.3053
▁bytě	-11.3055
▁membrán	-11.3061
▁manažera	-11.3066
▁Jeli	-11.3068
▁drobn	-11.3075
▁Sta	-11.3078
▁výtvarn	-11.3079
▁firmami	-11.3081
▁hormon	-11.3082
▁jezdil	-11.3087
rok	-11.3095
▁92	-11.3097
dělit	-11.31
▁bohaté	-11.31
▁rozliš	-11.3105
▁pouh	-11.3106
tou	-11.3112
▁speciálně	-11.3113
▁využije	-11.3121
21	-11.3122
▁argument	-11.3124
▁FIFA	-11.3127
▁věřit	-11.3127
▁skryt	-11.3127
▁kurzor	-11.3129
drží	-11.3135
▁chovat	-11.3135
▁tělesn	-11.3149
▁útvar	-11.3149
ďte	-11.3153
▁příště	-11.3153
▁zvěř	-11.3154
▁vys	-11.3159
▁asp	-11.3166
▁dřevěný	-11.3166
▁nechá	-11.3167
▁znal	-11.3168
▁Test	-11.3169
mění	-11.317
zní	-11.317
▁Win	-11.3171
▁protein	-11.3174
isté	-11.3175
▁ostrov	-11.3177
▁stali	-11.3178
▁kapitálový	-11.3182
áček	-11.3182
▁vázán	-11.3185
▁určeno	-11.3186
▁semen	-11.3187
etické	-11.3187
har	-11.3187
ujícího	-11.3188
loží	-11.3198
▁srovnatelný	-11.3199
▁52	-11.3202
▁podpořil	-11.3203
▁Kolek	-11.3206
▁poločase	-11.3213
▁odjel	-11.322
▁hal	-11.3221
▁hladin	-11.3224
▁region	-11.3228
▁29.	-11.3231
ČSSD	-11.3233
jen	-11.3235
poslední	-11.324
▁autobus	-11.3242
ence	-11.3244
především	-11.3245
▁Označ	-11.3246
prázdn	-11.3249
▁délk	-11.3252
jednala	-11.3254
▁paliv	-11.326
▁chodu	-11.3262
NC	-11.3268
▁Nor	-11.3271
▁některého	-11.3272
▁monopol	-11.3273
rád	-11.3275
▁zavedl	-11.3275
árně	-11.3277
▁neznám	-11.3279
▁nesouhlas	-11.3282
▁počítají	-11.3283
▁sedmnáct	-11.3285
▁Klepn	-11.3291
žení	-11.3291
▁vlk	-11.3294
▁blesk	-11.3299
76	-11.3302
▁Telecom	-11.3303
▁přál	-11.3304
letí	-11.3307
▁Nesmí	-11.3307
cal	-11.3308
▁pravém	-11.3308
▁vyrovnal	-11.3308
▁podnět	-11.3308
▁úkon	-11.3309
AM	-11.3309
▁zákoník	-11.3312
▁pochopil	-11.3312
▁sousedů	-11.3314
▁pís	-11.3314
▁vezme	-11.3314
▁kyselin	-11.3314
přes	-11.3317
▁cc	-11.3319
▁nabídne	-11.332
▁scénář	-11.3322
▁biologie	-11.3325
řídí	-11.3325
▁pohádk	-11.3327
▁klima	-11.3327
ers	-11.3328
▁Znám	-11.3328
▁Wales	-11.3331
▁věnuj	-11.3332
▁lidový	-11.3333
▁absolvoval	-11.3336
▁Chomutov	-11.334
▁pokračují	-11.3343
▁Republik	-11.3343
▁umožňují	-11.3345
▁účet	-11.3348
kový	-11.335
dostatečnou	-11.3354
▁enzym	-11.3354
▁krvi	-11.3355
utí	-11.3355
▁Dal	-11.336
▁osobu	-11.3361
▁zjistí	-11.3364
allye	-11.3364
▁oblačno	-11.3365
▁Nejčastěj	-11.3367
▁Bezpečnost	-11.3367
▁Evropou	-11.3367
▁Jupiter	-11.3367
▁Letošní	-11.3367
▁Moderní	-11.3367
▁Město	-11.3367
▁Naštěstí	-11.3367
▁Podívej	-11.3367
▁Stehlík	-11.3367
▁Ukrajina	-11.3367
▁burzy	-11.3367
▁dostatečné	-11.3367
▁energií	-11.3367
▁imunitní	-11.3367
▁krátkodobé	-11.3367
▁náleží	-11.3367
▁odlišné	-11.3367
▁opozicí	-11.3367
▁ozónu	-11.3367
▁podotkl	-11.3367
▁poskytne	-11.3367
▁překážky	-11.3367
▁seriózní	-11.3367
▁stability	-11.3367
▁totalitní	-11.3367
▁těžší	-11.3367
▁viceprezident	-11.3367
▁vzdělávání	-11.3367
▁výslovně	-11.3367
▁zachránil	-11.3367
▁zemědělci	-11.3367
▁znamení	-11.3367
▁závislá	-11.3367
▁získají	-11.3367
▁úspěšnost	-11.3367
▁nutná	-11.3367
▁položku	-11.3367
▁příroda	-11.3367
▁vyžádá	-11.3367
▁MIDI	-11.3367
▁naučit	-11.3367
▁živnostenský	-11.3367
▁profese	-11.3367
▁výlučn	-11.3367
▁charitativní	-11.3367
▁chápán	-11.3367
▁ČSAD	-11.3367
▁Obvodní	-11.3367
▁koncentraci	-11.3367
▁herečka	-11.3367
▁leccos	-11.3367
▁Olszewsk	-11.3367
▁diváci	-11.3367
▁vyjít	-11.3367
▁druzí	-11.3367
▁nesměl	-11.3367
▁následovat	-11.3367
▁česky	-11.3367
▁Spolu	-11.3367
▁zvyklí	-11.3368
ES	-11.3368
▁obdrží	-11.3368
▁kámen	-11.3368
▁písma	-11.3368
▁síni	-11.3368
▁Úspěšn	-11.3368
▁rozumět	-11.3369
▁Obyvatel	-11.3369
▁vzorků	-11.3369
▁prázdninách	-11.3369
▁bio	-11.337
▁zadržen	-11.337
▁publikace	-11.337
▁Potvrdil	-11.337
▁sbírky	-11.337
▁Soutěž	-11.337
▁Švýcarska	-11.337
▁kopané	-11.3371
účtování	-11.3371
▁balení	-11.3372
▁branku	-11.3372
▁cítil	-11.3372
▁spotřebu	-11.3373
▁náhodně	-11.3373
▁Vaše	-11.3374
▁ran	-11.3374
▁FC	-11.3375
▁přihlásil	-11.3375
▁expozice	-11.3376
▁jakkoli	-11.3377
▁přerušení	-11.3377
▁barva	-11.3377
▁infekce	-11.3377
▁nejedn	-11.3378
▁levné	-11.3378
▁studené	-11.3378
▁Představ	-11.3378
▁výrobou	-11.3378
▁Dukly	-11.3379
▁připravují	-11.3379
▁tendenci	-11.3379
▁porušování	-11.338
▁udává	-11.338
▁vysílání	-11.338
▁sídla	-11.338
▁zdůvodnil	-11.3381
▁armádní	-11.3381
▁osmé	-11.3381
▁Podstatn	-11.3381
▁Rumunsko	-11.3381
▁řádky	-11.3381
▁přečetl	-11.3382
▁nasazení	-11.3383
▁prodejna	-11.3383
▁kompletní	-11.3383
▁osobám	-11.3384
▁Žena	-11.3384
▁provozovat	-11.3384
▁pravomocí	-11.3384
▁Maďarska	-11.3385
end	-11.3385
▁neznámé	-11.3386
▁politikou	-11.3386
ovce	-11.3387
▁izraelské	-11.3387
▁odjezd	-11.3387
▁vyrovnání	-11.3388
▁stěží	-11.3388
▁Vložit	-11.3388
▁léto	-11.3389
▁předčasné	-11.3389
▁Příklad	-11.3389
▁sídlí	-11.3389
▁alternativní	-11.339
nechávají	-11.339
▁textové	-11.3391
▁zbytku	-11.3391
▁zasáhnout	-11.3392
▁opustil	-11.3392
▁vystupoval	-11.3394
▁zajímavá	-11.3395
▁IV	-11.3395
padne	-11.3395
pokoj	-11.3397
▁kraje	-11.3397
▁zajímá	-11.3397
▁drobných	-11.3398
▁scénu	-11.3398
▁výměny	-11.3399
▁dorazil	-11.34
▁necelé	-11.34
▁příslušníky	-11.34
art	-11.34
▁psaní	-11.34
▁jmenoval	-11.34
▁potřebujete	-11.3401
▁klíčový	-11.3402
▁tip	-11.3402
▁Vojenské	-11.3402
▁odborů	-11.3402
▁Tvrdí	-11.3403
▁rodině	-11.3403
▁oceněn	-11.3404
ston	-11.3406
▁vraždy	-11.3406
▁Optic	-11.3407
▁bývalém	-11.341
▁ruch	-11.3412
▁ToolBooku	-11.3412
▁jemu	-11.3412
▁nepr	-11.3412
▁tvorba	-11.3412
▁dokonalé	-11.3413
▁hradě	-11.3413
▁uplatňují	-11.3413
PT	-11.3414
▁nevidí	-11.3414
▁dohodli	-11.3415
bírat	-11.3416
▁nemocného	-11.3416
ených	-11.3416
▁kláštera	-11.3417
▁technologický	-11.3417
padnout	-11.3418
▁provozování	-11.3418
▁veletrhu	-11.3419
▁rozhlasu	-11.342
▁obvinil	-11.342
▁získávání	-11.3421
▁sdělit	-11.3421
▁analýza	-11.3423
▁mořské	-11.3423
▁Španěl	-11.3424
▁Husa	-11.3425
▁nakupovat	-11.3426
▁hladiny	-11.3426
▁pozná	-11.3427
▁zvukových	-11.3428
▁spojených	-11.3429
▁slavného	-11.3429
▁zbývá	-11.3431
▁příkazem	-11.3433
SA	-11.3433
příč	-11.3437
▁grafiky	-11.3438
▁kandidovat	-11.3439
▁premiéře	-11.3439
▁prezidentovi	-11.344
▁Víme	-11.344
BA	-11.3441
tlačit	-11.3442
sty	-11.3443
▁realizovat	-11.3444
▁výchovy	-11.3444
▁laboratorní	-11.3444
▁vyv	-11.3447
▁očích	-11.3448
▁kruhu	-11.3449
▁poskytnutí	-11.3451
▁anglického	-11.3452
▁vyrovnaný	-11.3454
nete	-11.3456
▁stromu	-11.3456
▁42	-11.3457
▁radní	-11.3457
▁placen	-11.3458
▁vyh	-11.3458
▁chorob	-11.3458
▁obsadili	-11.3459
▁zásahy	-11.346
▁uživatelům	-11.3461
▁zařazeny	-11.3462
▁pivovarů	-11.3466
▁požádali	-11.3469
▁platnosti	-11.347
▁Izraelem	-11.3471
▁zdravý	-11.3471
lic	-11.3473
▁mír	-11.3474
▁východu	-11.3481
▁cel	-11.3482
▁takzvané	-11.3485
▁proměnil	-11.3488
▁zásoby	-11.349
▁31	-11.3491
▁70.	-11.3496
▁uzavřené	-11.3497
▁mozkové	-11.3497
▁obviněn	-11.35
▁říkám	-11.3503
▁Novém	-11.3506
▁přímý	-11.3509
▁gólu	-11.351
ěné	-11.351
▁dopise	-11.3512
jmout	-11.3514
▁OLE	-11.3514
▁vyjadřují	-11.3516
,7	-11.3516
myslí	-11.3517
▁Carl	-11.352
▁přístupem	-11.3521
▁naproti	-11.3524
▁plánované	-11.3525
▁mozkov	-11.3525
▁bojoval	-11.3525
▁projednáva	-11.3529
▁Chart	-11.3529
▁opačném	-11.3534
▁kdež	-11.3535
▁Dag	-11.3536
▁dodala	-11.3543
▁poledne	-11.3547
▁zvítězila	-11.3547
▁komunistický	-11.3549
tická	-11.3553
▁čekání	-11.3553
▁domova	-11.3554
▁nep	-11.356
▁Spíš	-11.3561
▁částice	-11.3565
▁povrchov	-11.3567
▁Ni	-11.3568
▁hrub	-11.3569
▁autory	-11.3572
▁vznikne	-11.3574
▁Lib	-11.3574
▁závěry	-11.3574
▁kritické	-11.3575
▁soukromým	-11.3577
eček	-11.3578
NO	-11.3579
hel	-11.3587
▁klimatické	-11.3588
▁dostupný	-11.3589
▁připravila	-11.3589
▁krav	-11.359
▁omezené	-11.3591
▁snížila	-11.3591
▁majitelem	-11.3596
▁Er	-11.3598
rab	-11.3599
▁plic	-11.36
▁nezískal	-11.3601
ávají	-11.3603
▁cit	-11.3603
▁kapitoly	-11.3604
▁pla	-11.3605
ino	-11.3607
▁obyčejné	-11.361
padl	-11.3611
▁daří	-11.3615
▁Čechy	-11.3615
▁aneb	-11.3615
▁skončily	-11.3616
▁očekávané	-11.3616
▁Jean	-11.3623
▁štít	-11.3636
▁skalní	-11.3638
▁časové	-11.3639
▁známa	-11.3642
nili	-11.3643
slat	-11.3645
▁softwarový	-11.3647
▁pachatele	-11.365
▁středním	-11.365
▁bezpečnostních	-11.3652
▁pilot	-11.3653
▁speciálních	-11.3654
▁pokutu	-11.3668
▁mladík	-11.3672
ézt	-11.3673
389	-11.3676
▁předpokládal	-11.368
▁komentáře	-11.3682
▁křiv	-11.3682
▁bolesti	-11.3683
▁zločin	-11.3689
FS	-11.3691
▁samé	-11.3691
▁Hr	-11.3692
▁začínal	-11.3692
▁dávat	-11.3697
▁rakovin	-11.3699
nova	-11.37
▁popř	-11.3702
palestinsk	-11.3703
před	-11.3703
tický	-11.3704
▁etický	-11.3705
▁čtvrteční	-11.3711
▁zlé	-11.3716
jednali	-11.3717
▁širok	-11.3719
ika	-11.3721
▁nabízen	-11.3727
▁zaměstnancům	-11.3728
▁výzkumné	-11.3732
▁odráž	-11.3734
▁vědom	-11.3735
lap	-11.374
kům	-11.3742
▁prohlásila	-11.3748
tažením	-11.375
▁důkladně	-11.3755
▁zajímavý	-11.3761
ohledně	-11.3761
▁Moc	-11.3762
▁účastník	-11.3763
▁Čtyři	-11.3763
▁slovu	-11.3764
ějším	-11.3766
ola	-11.3766
▁poslancům	-11.3768
land	-11.377
▁vyloučen	-11.3774
novu	-11.3775
▁Výzkum	-11.3776
▁americkým	-11.3777
▁sedmé	-11.3777
ker	-11.3779
▁předmět	-11.3785
▁vyvolá	-11.3785
psat	-11.379
67	-11.379
▁osmnáct	-11.3792
▁rizikový	-11.3793
▁prost	-11.3794
▁nájem	-11.3795
▁talent	-11.3797
▁dozvěděl	-11.3798
ňoval	-11.3801
▁zvaný	-11.3801
▁zahrnut	-11.3802
▁ozdob	-11.3803
▁Vesmír	-11.3804
ED	-11.3805
íček	-11.3805
▁průkaz	-11.3806
▁dávn	-11.3806
▁dohodnut	-11.3811
▁časový	-11.3812
▁Krát	-11.3815
▁Mil	-11.3816
šť	-11.3819
▁běžným	-11.3819
▁výhodou	-11.3824
líbil	-11.3827
ung	-11.3828
▁šla	-11.3828
▁staveb	-11.3829
▁sklo	-11.3834
▁Uveden	-11.3835
▁110	-11.3836
mark	-11.3844
▁procentní	-11.3845
▁Boj	-11.3849
▁minutu	-11.3851
▁mini	-11.3853
nějších	-11.3855
▁počítačem	-11.3859
▁takzvaný	-11.386
▁Sedm	-11.3862
▁dnem	-11.3866
▁závěrečné	-11.3867
lární	-11.3871
žije	-11.3872
dělení	-11.3872
▁Rozhodl	-11.3873
▁MU	-11.3873
▁jezer	-11.3874
▁Stran	-11.3876
koro	-11.3877
▁nejstarší	-11.3877
▁tón	-11.3878
▁společným	-11.3879
eta	-11.3879
▁královn	-11.388
▁Pozor	-11.3881
cvič	-11.3882
▁generací	-11.3884
▁černý	-11.3885
zích	-11.3887
▁kolegů	-11.3887
▁odraz	-11.3889
▁kamion	-11.389
▁doporučil	-11.389
▁neuspěl	-11.3893
▁převoz	-11.3894
oba	-11.3895
▁vteřin	-11.3897
▁propojení	-11.3898
▁podpoře	-11.3898
▁ekologický	-11.3898
▁letecký	-11.3899
▁družstevní	-11.3905
▁muzeu	-11.3906
▁lodi	-11.3906
▁dělník	-11.3907
▁Per	-11.3908
▁zpěvák	-11.3908
KDU	-11.391
▁uměle	-11.391
▁Mal	-11.3911
kromě	-11.3915
níky	-11.3917
▁obdiv	-11.3918
slovní	-11.3918
▁přišl	-11.3919
▁podepsán	-11.3919
▁vyrovnané	-11.392
▁biskup	-11.392
▁dav	-11.3921
▁jater	-11.3925
▁nátlak	-11.3929
▁překvapen	-11.3929
▁nemocný	-11.3929
▁chlad	-11.3939
▁souvislost	-11.394
▁Tur	-11.3942
IP	-11.3943
▁Předpokládá	-11.3944
▁stavy	-11.3945
▁Don	-11.3945
pad	-11.3947
▁leasing	-11.3947
▁nepotřebuje	-11.3948
▁přenesen	-11.395
dol	-11.395
ph	-11.3951
zrcadl	-11.3951
▁Peck	-11.3953
▁krystal	-11.3953
ředstavitelé	-11.3954
▁1981	-11.3955
▁Eduard	-11.3955
▁Městě	-11.3955
▁Poštovní	-11.3955
▁Rozhovor	-11.3955
▁Svorada	-11.3955
▁Výběr	-11.3955
▁Vědci	-11.3955
▁bázi	-11.3955
▁displej	-11.3955
▁instance	-11.3955
▁konfiguraci	-11.3955
▁mechanismy	-11.3955
▁ministerstvem	-11.3955
▁mužstvu	-11.3955
▁nejvhodnější	-11.3955
▁ovlivňova	-11.3955
▁očekávají	-11.3955
▁pohromadě	-11.3955
▁prvotní	-11.3955
▁sazby	-11.3955
▁složku	-11.3955
▁sluchátka	-11.3955
▁svědků	-11.3955
▁vazbě	-11.3955
▁vyjadřova	-11.3955
▁výsledcích	-11.3955
▁zbraň	-11.3955
▁závazek	-11.3955
▁závislé	-11.3955
▁Reuter	-11.3955
▁dráhu	-11.3955
▁jedinec	-11.3955
▁odvahu	-11.3955
▁otravy	-11.3955
▁sérii	-11.3955
▁uplatnil	-11.3955
▁vyjednávání	-11.3955
▁kolaps	-11.3955
▁postačí	-11.3955
▁počty	-11.3955
▁Pořadatel	-11.3955
▁Radovan	-11.3955
▁prohlašuje	-11.3955
▁nejlevnější	-11.3955
▁partie	-11.3955
▁vpravo	-11.3955
▁lidstva	-11.3955
▁léčbě	-11.3955
▁stabilitu	-11.3955
▁kombinací	-11.3955
▁finance	-11.3955
▁jarní	-11.3955
▁doplnil	-11.3955
▁ekonomickou	-11.3955
▁sníží	-11.3955
▁zaměřuje	-11.3955
▁rozvržení	-11.3955
▁smečka	-11.3955
▁ohlas	-11.3955
▁generaci	-11.3955
▁sportovce	-11.3955
▁výměr	-11.3955
▁pouštní	-11.3955
▁filozofii	-11.3955
▁výhrady	-11.3955
▁Vilém	-11.3955
▁vklad	-11.3955
▁Baker	-11.3955
▁derby	-11.3955
▁pravdy	-11.3956
▁spoření	-11.3956
▁cvičení	-11.3956
▁1998	-11.3956
▁studii	-11.3956
▁SNR	-11.3956
▁pravice	-11.3956
▁čelit	-11.3956
▁nedostatkem	-11.3956
▁jednotlivců	-11.3956
▁správnou	-11.3956
▁Winter	-11.3957
▁lodí	-11.3957
▁památky	-11.3957
▁ISO	-11.3957
▁článků	-11.3958
▁potvrdit	-11.3958
▁překonat	-11.3958
part	-11.3958
▁nákladech	-11.3958
▁ušetřit	-11.3958
KDS	-11.3958
▁členění	-11.3958
▁sbírek	-11.3959
nešní	-11.3959
▁pití	-11.3959
▁plus	-11.3959
▁poplatků	-11.3959
▁celky	-11.3959
▁kampaň	-11.3959
▁komentoval	-11.3959
▁zachránit	-11.396
▁strojírenství	-11.396
▁podmínkami	-11.396
▁základny	-11.396
▁nazval	-11.396
▁vydrží	-11.396
▁Provoz	-11.396
ité	-11.396
▁vybrán	-11.3961
▁označují	-11.3961
▁pracovišti	-11.3961
▁přijímat	-11.3961
▁vzdělávací	-11.3961
▁proud	-11.3961
▁pozorovatelů	-11.3961
▁branky	-11.3962
▁Polskem	-11.3962
▁Škol	-11.3962
▁OD	-11.3963
▁předkládá	-11.3963
▁Kolín	-11.3963
▁2:1	-11.3963
▁organismů	-11.3963
▁domku	-11.3963
▁Hráč	-11.3963
▁zastupitelstvo	-11.3964
▁Palác	-11.3965
▁tenkrát	-11.3965
▁ojediněle	-11.3965
▁oteplení	-11.3965
německou	-11.3965
▁obří	-11.3966
▁pomáhat	-11.3966
▁alternativy	-11.3967
▁zaplatil	-11.3967
▁silami	-11.3967
▁pětinu	-11.3967
▁skupinách	-11.3969
▁tunel	-11.3969
▁scéně	-11.3969
▁trase	-11.3969
▁záměrně	-11.3969
▁Běloruska	-11.3969
▁prosazuje	-11.3969
opakovaně	-11.397
▁nepřijatelné	-11.3971
▁kliniky	-11.3971
▁přísně	-11.3971
▁pozdní	-11.3971
▁hranicí	-11.3971
▁slavné	-11.3972
▁odluk	-11.3972
▁ledové	-11.3972
▁obchodech	-11.3973
▁přibývá	-11.3974
▁Air	-11.3974
▁anketě	-11.3975
▁etapy	-11.3975
▁MOV	-11.3975
▁koordinac	-11.3976
▁odměnu	-11.3976
▁domácností	-11.3977
▁zárukou	-11.3978
▁Kar	-11.3978
▁pes	-11.3979
▁stranách	-11.3979
▁vidíte	-11.3979
▁povahu	-11.398
▁jazyků	-11.3983
▁jednotn	-11.3983
▁cukru	-11.3984
▁audio	-11.3984
ša	-11.3984
▁publikací	-11.3985
rel	-11.3985
▁nadšen	-11.3985
▁stínu	-11.3985
▁komunismus	-11.3986
▁skutečnou	-11.3986
noví	-11.3986
▁prodejce	-11.3987
▁motocykl	-11.3988
▁NT	-11.3988
berg	-11.3988
▁využívající	-11.3988
▁opravit	-11.3989
▁problematiky	-11.3989
▁91	-11.399
rum	-11.3992
stihnout	-11.3992
▁odpady	-11.3993
▁správě	-11.3993
▁Nejsem	-11.3994
▁přibylo	-11.3995
▁konfliktu	-11.3996
▁Thomas	-11.3996
▁okresu	-11.3997
▁pojistn	-11.3997
▁slabé	-11.3998
▁tvor	-11.4
▁Žádný	-11.4001
▁dialogové	-11.4001
▁prochází	-11.4002
▁hromada	-11.4002
▁56	-11.4003
▁západu	-11.4003
▁pochybnosti	-11.4003
▁reálná	-11.4003
▁hub	-11.4004
▁Ročn	-11.4004
▁dialog	-11.4004
▁podávání	-11.4007
▁slevy	-11.4012
▁neviděl	-11.4012
▁rodinou	-11.4013
▁slavný	-11.4013
▁mostu	-11.4014
▁skoku	-11.4015
▁pravý	-11.4016
▁Mc	-11.4016
▁prázdniny	-11.402
▁dlužníka	-11.402
▁les	-11.4022
▁dole	-11.4022
bírají	-11.4023
▁vhodných	-11.4023
▁milión	-11.4026
▁spolehlivě	-11.4028
ruší	-11.4028
▁jmenování	-11.4028
▁Kazachstánu	-11.4029
▁skleníkový	-11.403
▁zaměstnává	-11.4032
▁Pentium	-11.4032
▁spis	-11.4034
platit	-11.4035
▁znamenala	-11.4035
▁kapacitu	-11.4035
▁otevřenou	-11.4035
▁historického	-11.4035
▁Španělsko	-11.4036
▁nehod	-11.4038
▁propadl	-11.4039
▁vybaveny	-11.4039
▁osmnácti	-11.404
▁montáž	-11.4041
▁levný	-11.4042
▁polského	-11.4044
▁zařazení	-11.4044
▁perspektivní	-11.4045
▁zajímavých	-11.4045
▁britských	-11.405
▁desítká	-11.4052
jem	-11.4053
▁oprávnění	-11.4055
▁občansk	-11.4057
stické	-11.4057
▁automobilu	-11.4057
▁vazeb	-11.4058
▁suroviny	-11.4059
dávat	-11.4059
▁hokejové	-11.4063
▁zájemcům	-11.4064
▁záznamu	-11.4064
▁účelu	-11.4066
hne	-11.4067
▁pozval	-11.4068
▁smyslem	-11.4068
▁kandidáta	-11.4072
sté	-11.4072
▁tepelné	-11.4073
▁zkratk	-11.4073
▁vyšším	-11.4075
▁závodníků	-11.4075
cími	-11.4077
▁překvapením	-11.4077
▁podpisu	-11.4078
▁zahájena	-11.4081
▁Svat	-11.4081
▁místním	-11.4082
▁najdou	-11.4084
▁hospodářských	-11.4084
▁zařízením	-11.4084
▁vlak	-11.4088
▁časopis	-11.409
▁případem	-11.409
▁vlna	-11.4091
▁určitým	-11.4094
▁postav	-11.4098
▁novináře	-11.4099
píší	-11.4101
▁tiskov	-11.4102
▁potraviny	-11.4103
▁pu	-11.4108
▁spojeno	-11.4108
12	-11.4112
▁těsné	-11.4114
▁čekal	-11.4117
SP	-11.4118
▁1991.	-11.4119
▁cenné	-11.4124
▁součásti	-11.4125
▁korunu	-11.4125
▁pokračovala	-11.4125
▁pěst	-11.4126
▁poznal	-11.4126
▁cenami	-11.4128
und	-11.4128
▁vynesl	-11.4128
tivní	-11.4131
▁technologické	-11.4133
kládat	-11.4134
▁vzdálen	-11.4136
▁jist	-11.4137
▁manažery	-11.4138
▁textů	-11.4138
▁azyl	-11.4139
▁vrátili	-11.4141
▁Sen	-11.4143
▁devatenáct	-11.4153
▁naučil	-11.4153
dem	-11.4153
▁hrůz	-11.4154
▁hlasováním	-11.4155
istů	-11.4156
ica	-11.4157
▁vzniklo	-11.416
ČNÍ	-11.4161
▁průvodce	-11.4165
drželi	-11.4165
▁základu	-11.4167
▁tvrdit	-11.4168
dění	-11.4171
▁Ford	-11.4173
▁reklam	-11.4174
▁tituly	-11.4174
▁Val	-11.4182
pozn	-11.4186
měrně	-11.4192
▁mrtvých	-11.4195
▁daného	-11.4203
stávat	-11.4206
▁světem	-11.4207
obdržela	-11.4209
▁(2	-11.4209
▁podnikateli	-11.421
mořsk	-11.421
▁1)	-11.4212
níku	-11.4213
▁řídit	-11.4214
ložili	-11.4214
▁slev	-11.4216
▁britský	-11.4221
▁činy	-11.4222
jevit	-11.4223
▁otřes	-11.4224
▁povrchové	-11.4228
metr	-11.4228
7%	-11.4235
▁aktivac	-11.424
ručně	-11.4243
byl	-11.4243
▁přibyl	-11.4245
▁Trh	-11.4247
▁genu	-11.4253
▁zápasem	-11.4254
▁Ře	-11.4255
▁jejímu	-11.4256
ovaným	-11.4258
▁jakéhokoli	-11.4258
▁nud	-11.4259
▁studoval	-11.4261
▁historick	-11.4263
▁Bro	-11.4265
▁povolen	-11.4266
▁lékáren	-11.4266
▁palác	-11.4267
▁atomov	-11.4267
éra	-11.4269
▁známou	-11.427
▁neumí	-11.4271
▁nepříjemný	-11.4277
▁nadměrn	-11.4283
▁Lá	-11.4288
likvid	-11.4288
▁regul	-11.4291
pustili	-11.4292
▁stranické	-11.4294
ečná	-11.43
▁poloviční	-11.43
▁240	-11.4302
jedná	-11.4305
ickým	-11.4306
▁vědec	-11.4312
▁čínské	-11.4315
▁fotograf	-11.4319
uskutečnila	-11.4322
▁neštěstí	-11.4328
▁sloup	-11.4332
▁Ter	-11.4334
▁olympiád	-11.434
▁žlut	-11.4341
▁třetin	-11.4342
hý	-11.4342
▁žádným	-11.4347
▁váh	-11.4347
▁univerzit	-11.435
▁vyplněn	-11.4353
▁Král	-11.4354
▁prováděn	-11.4356
bral	-11.4363
▁finančním	-11.4364
▁průběžn	-11.4364
▁veden	-11.4365
▁rytm	-11.4365
▁pěkný	-11.4366
▁Severoatlantick	-11.4367
▁symbolick	-11.4369
▁ligové	-11.4375
▁občanům	-11.4375
▁psycholog	-11.4377
▁přirozeným	-11.4382
rez	-11.4388
ikonu	-11.4389
▁hvězda	-11.4389
▁míče	-11.4398
▁Velký	-11.4405
▁koalic	-11.4409
▁hráčům	-11.4411
▁pokryt	-11.4412
ováni	-11.4414
▁dostaly	-11.4414
▁zastoupen	-11.442
▁mladý	-11.4422
▁úsek	-11.4424
▁rovin	-11.4428
▁dosah	-11.4433
▁národním	-11.4433
▁fakult	-11.4435
▁Výrobc	-11.4441
nský	-11.4444
skými	-11.4445
▁očí	-11.4448
▁kouř	-11.4448
▁elektro	-11.4449
▁pedagog	-11.4451
▁nabízený	-11.4452
▁sever	-11.4453
▁výtečn	-11.4462
▁slovensk	-11.4463
▁dech	-11.4464
▁Lac	-11.4467
▁Závod	-11.4469
CA	-11.4473
▁Nemá	-11.4474
ologické	-11.4474
▁děkan	-11.4475
▁vlivu	-11.4475
▁Občansk	-11.4476
▁úvod	-11.4476
▁top	-11.4481
▁spojit	-11.4485
▁sledoval	-11.4485
▁vyhleda	-11.4486
▁prestiž	-11.4487
▁ja	-11.4489
bře	-11.449
▁bi	-11.4499
▁vidím	-11.4502
VÍ	-11.4502
▁Objekt	-11.4503
▁přidělen	-11.4504
mentálně	-11.4504
▁dveří	-11.4504
▁kategorií	-11.4506
▁nesmysl	-11.4507
▁jedinců	-11.4508
▁prů	-11.4509
▁byznys	-11.4515
▁požadoval	-11.4515
▁návštěvnost	-11.4516
▁EuroTel	-11.4516
MF	-11.4516
▁velko	-11.4517
▁bílkovin	-11.4518
▁zákrok	-11.4519
▁vystupuj	-11.4519
▁72	-11.452
▁dvojnásobn	-11.4521
nos	-11.4522
▁kostel	-11.4523
▁zbožím	-11.4524
▁Ostravar	-11.4524
▁Žid	-11.4528
▁Histori	-11.4529
▁Juli	-11.4529
konalo	-11.4529
▁duši	-11.4529
mála	-11.453
▁povinné	-11.453
▁krev	-11.4531
▁osnov	-11.4532
▁hmotnost	-11.4533
peptid	-11.4536
▁zničení	-11.4539
▁triumf	-11.454
vesel	-11.454
▁vánoc	-11.4544
▁přesahuj	-11.4544
▁elektrick	-11.4544
▁využívají	-11.4545
▁množ	-11.4545
▁dobrého	-11.4546
▁uvolněn	-11.4546
▁setká	-11.4548
96	-11.4549
▁román	-11.455
▁krále	-11.4555
▁zázrak	-11.4556
ingu	-11.4559
▁obnovit	-11.4561
▁vazba	-11.4561
ht	-11.4561
▁řez	-11.4562
▁KON	-11.4562
▁dívá	-11.4562
▁zvol	-11.4565
▁odmítnut	-11.4568
OP	-11.4575
tahuje	-11.4575
▁loď	-11.4576
▁podporují	-11.4577
▁Vždy	-11.4579
▁účinně	-11.4579
▁Trans	-11.458
▁Tchaj	-11.458
▁Apple	-11.458
▁Barcelony	-11.458
▁Budinský	-11.458
▁Lobkowicz	-11.458
▁Moskvy	-11.458
▁Opět	-11.458
▁Stráský	-11.458
▁TNF	-11.458
▁Vánoční	-11.458
▁Větší	-11.458
▁angličtiny	-11.458
▁atribut	-11.458
▁bydliště	-11.458
▁dosaženo	-11.458
▁dětství	-11.458
▁evoluce	-11.458
▁jménu	-11.458
▁kosmické	-11.458
▁lhůtě	-11.458
▁lůžek	-11.458
▁mrtvol	-11.458
▁nabízet	-11.458
▁nekončí	-11.458
▁nesmějí	-11.458
▁pohledávky	-11.458
▁počínání	-11.458
▁pronájmu	-11.458
▁redakční	-11.458
▁rozšiřování	-11.458
▁skrývá	-11.458
▁svědectví	-11.458
▁tlačítek	-11.458
▁vztazích	-11.458
▁výzvu	-11.458
▁zdůrazňuje	-11.458
▁ÚSES	-11.458
▁epidemie	-11.458
▁intenzivní	-11.458
▁plakát	-11.458
▁přiznat	-11.458
▁pojmy	-11.458
▁pokouší	-11.458
▁demisi	-11.458
▁pryč	-11.458
▁Easy	-11.458
týkat	-11.458
▁komplikace	-11.458
▁nevadí	-11.458
▁mutace	-11.458
▁něčím	-11.458
▁praxí	-11.458
▁vyrobil	-11.458
▁inteligentní	-11.458
▁usiloval	-11.458
▁bezespor	-11.458
▁nejmladší	-11.458
▁Group	-11.458
▁bydlet	-11.458
▁ledovce	-11.458
▁slyšel	-11.458
▁neodpovídá	-11.458
▁ocas	-11.458
▁pohlaví	-11.458
▁komunikací	-11.458
▁mezisklad	-11.458
▁trápí	-11.458
▁reprezentuje	-11.458
▁položen	-11.458
▁stolní	-11.458
pravdě	-11.458
▁bát	-11.458
▁léčby	-11.458
▁teplé	-11.458
▁levněji	-11.458
▁norem	-11.458
▁nezajímá	-11.4581
▁určí	-11.4581
▁někam	-11.4581
▁veterán	-11.4581
▁námitky	-11.4581
▁ČSTK	-11.4581
▁vyčleněn	-11.4581
▁sousedství	-11.4581
▁HDP	-11.4581
▁stoprocentní	-11.4581
▁pozitivně	-11.4581
▁strážníci	-11.4581
▁střechy	-11.4582
▁nelíbí	-11.4582
▁dílčí	-11.4582
▁zkoušku	-11.4582
▁Myslíte	-11.4582
▁úředníci	-11.4582
▁přestávce	-11.4582
▁sumy	-11.4582
▁teplý	-11.4582
rozuměl	-11.4582
▁Prohlásil	-11.4582
▁Nemůže	-11.4582
▁Libor	-11.4583
▁prodejců	-11.4583
▁novinkou	-11.4583
▁Neměl	-11.4583
▁kinematografie	-11.4583
▁Vánoce	-11.4584
▁Izraele	-11.4584
▁účelům	-11.4584
▁švýcarský	-11.4584
▁Luboš	-11.4584
▁Grafová	-11.4584
▁sídlo	-11.4585
▁Radnic	-11.4585
▁zastupování	-11.4585
▁spekulace	-11.4585
▁Tatra	-11.4586
▁NOV	-11.4586
▁přenést	-11.4586
▁omezování	-11.4586
▁hektarů	-11.4586
ectví	-11.4586
▁datum	-11.4587
▁Haagu	-11.4587
▁filozofické	-11.4587
▁vykázal	-11.4587
▁Pardubice	-11.4587
tika	-11.4587
▁Postupně	-11.4588
▁dějinách	-11.4588
▁Původní	-11.4588
▁sestra	-11.4588
▁zastupitelství	-11.4589
▁Olg	-11.4589
▁Berger	-11.4589
▁posuzování	-11.459
▁Cup	-11.459
▁badatelé	-11.4591
▁uznává	-11.4591
▁Alma	-11.4591
▁10%	-11.4592
▁motocyklů	-11.4593
▁ohrozit	-11.4593
▁považoval	-11.4594
▁plot	-11.4594
▁učební	-11.4595
▁přírodním	-11.4595
▁smrtí	-11.4595
▁odhaduje	-11.4595
▁spektrum	-11.4595
▁poklesl	-11.4596
▁předpokládají	-11.4597
▁disponuje	-11.4597
třeba	-11.4597
▁invalidní	-11.4597
▁Římě	-11.4598
▁zvon	-11.4598
▁kompresi	-11.4598
▁úsměvem	-11.4598
▁Zpočátku	-11.4598
▁vyplácení	-11.4599
▁hygienické	-11.46
▁Dukla	-11.4601
▁fotbalisty	-11.4602
▁herci	-11.4602
▁svazek	-11.4602
▁uváděl	-11.4603
▁zvířete	-11.4603
▁Určitě	-11.4604
ota	-11.4605
▁spuštění	-11.4605
▁OK	-11.4605
▁Neznám	-11.4606
▁bazénu	-11.4606
▁myslet	-11.4607
▁dálnice	-11.4607
▁prázdné	-11.4607
▁rozměrů	-11.4608
▁Londýna	-11.4608
▁schránky	-11.4609
▁příkladu	-11.461
▁ostrově	-11.4611
▁nevhodné	-11.4611
▁špičkových	-11.4612
▁neobyčejn	-11.4612
▁kritiky	-11.4612
▁450	-11.4612
▁zakázku	-11.4614
▁minulou	-11.4614
▁Nizozemska	-11.4616
▁sporů	-11.4617
měl	-11.4618
▁dáno	-11.4619
▁posádky	-11.462
▁výuky	-11.462
▁leteck	-11.462
▁převodu	-11.4622
▁nahradí	-11.4622
▁azbestu	-11.4623
▁Kremlu	-11.4623
▁vyhlášky	-11.4623
▁učitelé	-11.4623
▁jízdu	-11.4623
▁odpadu	-11.4623
▁Pravda	-11.4624
▁zrodil	-11.4624
▁sněmovna	-11.4624
▁zásobník	-11.4625
▁efektivnosti	-11.4626
▁Paříže	-11.4627
▁iniciativy	-11.4628
▁klepnutím	-11.4629
▁zvané	-11.463
▁problémech	-11.463
▁povrchem	-11.463
▁stanovil	-11.4631
▁doprovodu	-11.4631
▁Těm	-11.4632
▁zakázal	-11.4632
▁Her	-11.4633
▁pořádně	-11.4634
Ile	-11.4634
▁etnick	-11.4635
▁Václavské	-11.4636
▁doplnění	-11.4636
hodinové	-11.4637
▁lese	-11.4637
▁paktu	-11.4637
▁ekonomickým	-11.4638
přineslo	-11.4639
▁dolaru	-11.4639
nc	-11.464
▁formul	-11.4641
▁List	-11.4642
▁akcionáři	-11.4642
▁vteřiny	-11.4642
▁Benda	-11.4643
▁olympiádu	-11.4644
▁geografick	-11.4645
▁slevu	-11.4645
▁choroby	-11.4645
▁Koup	-11.4646
▁dialogu	-11.4646
▁tunelu	-11.4647
▁vidíme	-11.4647
▁předmětu	-11.4648
▁právním	-11.4649
▁slabý	-11.4649
▁RAM	-11.465
▁Sex	-11.4651
▁složitost	-11.4652
▁opak	-11.4655
▁výhodn	-11.4657
▁náměstka	-11.4657
▁systémech	-11.4661
▁profesní	-11.4662
▁interpretace	-11.4662
▁poplatníků	-11.4663
▁vytvořený	-11.4663
Vesmír	-11.4664
vládne	-11.4665
▁mzdové	-11.4666
▁volném	-11.4667
▁zaujím	-11.4669
▁nákladné	-11.4669
▁údaji	-11.4672
▁plzeňské	-11.4675
▁procesory	-11.4675
přestává	-11.4676
▁používané	-11.4676
▁převyšuj	-11.4676
▁Nova	-11.4678
▁pacienty	-11.4678
▁přežil	-11.4678
▁vyhrazen	-11.468
▁silnici	-11.4681
▁pomocník	-11.4682
▁sortimentu	-11.4684
▁koná	-11.4684
▁celostátní	-11.4685
▁prodávají	-11.4686
▁ceník	-11.4687
▁útvarů	-11.4688
trhl	-11.4691
▁zemřelo	-11.4692
▁otázkami	-11.4693
▁tváře	-11.4695
▁Ivo	-11.4699
▁ukázaly	-11.4702
▁Tito	-11.4702
▁doplněn	-11.4703
gel	-11.4703
slouží	-11.4705
▁bohatý	-11.4708
hlédne	-11.4711
▁omezeným	-11.4712
▁pád	-11.4714
▁hodí	-11.4715
▁věřím	-11.4717
▁vlastník	-11.4718
počtu	-11.4718
Pro	-11.4721
oma	-11.4723
boj	-11.4726
staly	-11.4728
▁Dole	-11.4729
pera	-11.4729
USA	-11.473
▁národa	-11.4734
▁Přím	-11.4736
▁seznámil	-11.4736
▁vzali	-11.4737
vel	-11.4738
ash	-11.474
jeden	-11.4741
▁příspěvk	-11.4742
▁oprávněné	-11.4743
▁soutěžích	-11.4743
.12.	-11.4745
jistá	-11.4748
ložit	-11.475
▁dokázala	-11.4753
3.	-11.4755
poví	-11.4755
tové	-11.4757
▁odběratele	-11.4758
▁porazili	-11.4759
▁zůstali	-11.4763
iner	-11.4768
▁most	-11.477
▁vesnic	-11.4771
▁příkazu	-11.4771
▁ekonom	-11.4773
▁Američanů	-11.4774
věřit	-11.478
▁doufám	-11.4781
▁příklady	-11.4783
▁zbytečný	-11.4783
▁soukrom	-11.4788
▁rozdílné	-11.479
▁prováze	-11.4793
rot	-11.4796
▁zúčastněný	-11.48
tvořily	-11.4805
▁provede	-11.4806
▁největšího	-11.4806
▁slovenského	-11.4807
▁chladn	-11.4807
▁ptát	-11.4808
▁komor	-11.4811
▁hory	-11.4811
▁komentář	-11.4812
▁útoků	-11.4813
▁postupuje	-11.4817
cházejí	-11.4818
▁fyzick	-11.4821
▁místopředsedy	-11.4821
▁příjemně	-11.4822
nda	-11.4823
▁trans	-11.4823
▁matematické	-11.4824
▁Kub	-11.4824
živí	-11.4825
▁kritizoval	-11.4825
▁dramatické	-11.4825
▁Tisk	-11.4825
▁činitel	-11.4826
▁rekordní	-11.4826
▁jede	-11.4827
▁tvůrc	-11.4829
HA	-11.483
▁Fo	-11.4831
▁vložené	-11.4831
stupující	-11.4832
kého	-11.4837
▁vlastníka	-11.4844
šky	-11.485
▁tradičních	-11.4851
▁způsobí	-11.4852
▁varianta	-11.4854
▁oddíl	-11.4856
▁koš	-11.4857
ářské	-11.4859
▁tkání	-11.4861
ičtější	-11.4868
tiky	-11.4883
▁kout	-11.4885
▁Uvažuje	-11.4885
rý	-11.4887
krás	-11.4889
bývalo	-11.4906
▁dnešním	-11.4909
▁rozhlas	-11.4911
▁hr	-11.4913
▁směr	-11.4914
alba	-11.4924
sáhnout	-11.4925
neme	-11.4928
▁deviz	-11.4928
▁nejlepšími	-11.4928
▁kvalifikovan	-11.4938
▁skutečným	-11.4939
▁resort	-11.494
▁pomohla	-11.4941
▁zvolený	-11.4945
▁Stan	-11.4948
▁Janov	-11.4949
▁Žádn	-11.4949
▁evoluční	-11.4954
▁síťové	-11.4956
pouštět	-11.4958
▁kraj	-11.4959
▁No	-11.4962
svědčil	-11.4968
dáte	-11.4974
▁van	-11.4975
▁hodině	-11.4976
▁uživatelské	-11.4982
▁použitím	-11.4983
▁párů	-11.4984
26	-11.4993
▁cítím	-11.4996
▁Vznikl	-11.4996
nově	-11.4998
▁ČS	-11.4999
▁6,	-11.5
▁kmen	-11.5001
▁nebe	-11.5002
ární	-11.5008
▁AC	-11.5008
▁podstat	-11.5008
vir	-11.5015
500	-11.5015
▁vhodný	-11.5021
▁naprosté	-11.5026
▁náboženský	-11.5034
▁doufá	-11.5036
sídl	-11.5037
▁oceán	-11.5042
▁Lab	-11.5047
řad	-11.5047
▁opačné	-11.5049
▁uvědomil	-11.5051
▁Obchod	-11.5053
▁Počítač	-11.5055
▁trávi	-11.5065
ovanou	-11.5066
▁politickým	-11.5067
▁vyjadřuj	-11.5074
▁demokrat	-11.5075
▁dopadl	-11.5077
rp	-11.5078
▁bytový	-11.5082
▁válečný	-11.5087
ičku	-11.5094
▁dán	-11.5095
▁obchodník	-11.5101
▁dolar	-11.5105
▁pochod	-11.5106
skal	-11.5108
▁Fa	-11.5108
▁ztracen	-11.5112
podivu	-11.5114
jo	-11.5114
▁výhodný	-11.5115
▁specifik	-11.5117
▁certifikát	-11.5117
▁publikován	-11.5121
▁používal	-11.5122
▁Argentin	-11.5127
níků	-11.5128
75	-11.513
▁jednot	-11.513
▁priorit	-11.5133
▁Vysok	-11.5135
UM	-11.5138
▁postoupil	-11.5139
násob	-11.514
▁prokázal	-11.514
▁přev	-11.5143
razil	-11.5144
vrácení	-11.5145
▁malém	-11.5146
▁vyřešen	-11.5149
▁vzrostl	-11.5151
▁násiln	-11.5152
▁přírodovědeck	-11.5154
▁vyvinul	-11.5154
▁kabel	-11.5156
lech	-11.5157
▁šetřit	-11.5158
▁přistoupil	-11.5158
řez	-11.516
valy	-11.5161
▁Každé	-11.5163
▁veletrh	-11.517
▁čtvereční	-11.5172
▁tratí	-11.5172
▁chirurg	-11.5172
▁pocházejí	-11.5173
▁chat	-11.5173
▁186	-11.5174
▁laboratoř	-11.5174
děk	-11.5176
▁ohně	-11.5177
▁násilí	-11.5179
▁Intel	-11.5181
▁kodex	-11.5182
▁leckd	-11.5182
17	-11.5183
▁Word	-11.5183
▁skener	-11.5184
▁připomínk	-11.5187
▁předák	-11.5191
▁rytíř	-11.5193
▁závislost	-11.5197
▁elektrod	-11.5198
▁77	-11.5198
▁hostů	-11.5199
AG	-11.52
▁Závěr	-11.5203
▁autorit	-11.5205
▁přítele	-11.5206
▁bomb	-11.5206
▁Důvod	-11.5208
▁prostý	-11.5208
štění	-11.5209
▁vzrůst	-11.521
▁následné	-11.5211
▁konstatova	-11.5214
íš	-11.5216
obyčejně	-11.5218
▁označován	-11.5218
▁norma	-11.5219
▁pozván	-11.5219
▁Bur	-11.5221
▁posil	-11.5221
▁fenomén	-11.5221
▁komfort	-11.5222
▁Určit	-11.5223
▁měřit	-11.5228
▁stálo	-11.5229
sadit	-11.5229
▁volání	-11.5232
▁nádor	-11.5232
▁zajímavost	-11.5232
lákat	-11.5232
pomeňme	-11.5237
ačtyřicet	-11.5238
lék	-11.5243
▁Hapal	-11.5244
▁Jenom	-11.5244
▁hornin	-11.5244
ŘE	-11.5245
▁strážník	-11.5245
▁nevznik	-11.5245
▁Kolumbi	-11.5245
▁bezpečně	-11.5246
▁Vzá	-11.5246
▁obchodovat	-11.5246
▁KSČ	-11.5246
▁plošný	-11.5247
▁1983	-11.5247
▁Austrálie	-11.5247
▁Ludvík	-11.5247
▁Návrat	-11.5247
▁Oldřich	-11.5247
▁Pistol	-11.5247
▁Právo	-11.5247
▁Vešker	-11.5247
▁WWW	-11.5247
▁definice	-11.5247
▁deklaraci	-11.5247
▁důležitější	-11.5247
▁federaci	-11.5247
▁fungování	-11.5247
▁hardwarov	-11.5247
▁infarkt	-11.5247
▁kampaně	-11.5247
▁konfigurace	-11.5247
▁konkurovat	-11.5247
▁literatuře	-11.5247
▁nukleární	-11.5247
▁odpovědět	-11.5247
▁pojišťovnou	-11.5247
▁populaci	-11.5247
▁problematice	-11.5247
▁předpovědi	-11.5247
▁přerozdělování	-11.5247
▁rekreaci	-11.5247
▁rubrice	-11.5247
▁tiskáren	-11.5247
▁trénovat	-11.5247
▁vypráví	-11.5247
▁východoevropský	-11.5247
▁zapomenout	-11.5247
▁zaručit	-11.5247
▁zákulisí	-11.5247
▁špatnou	-11.5247
přízeň	-11.5247
▁Ctrl	-11.5247
▁Francií	-11.5247
▁bankovnictví	-11.5247
▁ujistil	-11.5247
▁vláken	-11.5247
▁účinné	-11.5247
▁Kurzy	-11.5247
▁praktik	-11.5247
▁zastupuje	-11.5247
▁ustavující	-11.5247
▁značku	-11.5247
▁Četrans	-11.5247
▁povolební	-11.5247
atlantick	-11.5247
▁nabídek	-11.5247
▁stráví	-11.5247
▁elementární	-11.5247
▁jednodušší	-11.5247
▁ovládací	-11.5247
▁popředí	-11.5247
▁taxonomie	-11.5247
▁vrstva	-11.5247
▁uplatňován	-11.5247
▁úložiště	-11.5247
▁desek	-11.5247
▁realizace	-11.5247
ford	-11.5247
▁Pivovar	-11.5247
▁rozvíjet	-11.5247
▁lázní	-11.5247
▁multi	-11.5247
▁poušti	-11.5247
▁rozsáhlejší	-11.5247
▁léčbu	-11.5247
▁učiní	-11.5247
▁tolerance	-11.5247
▁komunikační	-11.5247
▁Moravia	-11.5247
▁firmách	-11.5247
▁FBIS	-11.5247
▁češtiny	-11.5247
▁dotaci	-11.5247
▁vyžadovat	-11.5247
▁poptávku	-11.5247
▁zánět	-11.5247
▁sníh	-11.5247
▁spotřeba	-11.5247
▁Značn	-11.5247
▁fakticky	-11.5247
▁distribuční	-11.5247
▁robot	-11.5248
▁líčí	-11.5248
▁kameny	-11.5248
▁vyprávěl	-11.5248
▁Data	-11.5248
▁vyslovit	-11.5248
▁ČSD	-11.5248
▁1976	-11.5248
▁publikaci	-11.5248
telné	-11.5248
▁Setkání	-11.5248
▁Cítí	-11.5249
▁vystavuje	-11.5249
▁vysloužil	-11.5249
1.	-11.5249
▁podobnou	-11.5249
▁vynutil	-11.5249
▁všední	-11.5249
▁Nechci	-11.525
▁předvánoční	-11.525
▁produkcí	-11.525
▁hospodaří	-11.5251
▁bál	-11.5251
▁dvoudenní	-11.5251
▁spektra	-11.5252
▁volající	-11.5252
▁vydávat	-11.5252
▁mezistátní	-11.5252
▁vlasy	-11.5252
▁umělci	-11.5252
▁Maďarskem	-11.5252
▁připraví	-11.5253
▁hepatocytů	-11.5253
▁Informace	-11.5253
▁novotvary	-11.5253
▁mediální	-11.5253
▁cestách	-11.5253
▁zajišťující	-11.5253
▁odsoudil	-11.5253
▁symplektick	-11.5253
▁přijatelná	-11.5254
▁vysílací	-11.5254
▁výšky	-11.5254
▁zimy	-11.5254
lle	-11.5254
▁seskupení	-11.5255
▁nominaci	-11.5255
▁konsensus	-11.5255
▁významnější	-11.5256
▁kardinál	-11.5256
▁ředitelství	-11.5256
▁nestátní	-11.5256
▁desetkrát	-11.5256
▁sestaven	-11.5256
▁uzavřený	-11.5256
▁prokázat	-11.5256
▁palubě	-11.5257
▁Kladně	-11.5257
▁reagují	-11.5257
▁tendence	-11.5257
▁oceánické	-11.5257
▁cokoli	-11.5258
▁nazvaný	-11.5258
▁nouze	-11.5258
▁Soulu	-11.5258
▁předloží	-11.5258
díval	-11.5258
▁vyhrát	-11.5259
▁vyhodnocení	-11.5259
▁dosáhne	-11.5259
▁pozoruhodné	-11.5259
ousek	-11.5259
▁zvířecí	-11.5259
áním	-11.526
▁zeď	-11.526
▁rozdělí	-11.526
▁konání	-11.5261
▁mlhy	-11.5261
▁řádku	-11.5261
▁skok	-11.5262
▁distributor	-11.5262
▁jednotlivce	-11.5262
▁zmínil	-11.5262
▁různě	-11.5263
▁pozorovatelé	-11.5263
▁pokrýt	-11.5263
▁pásmu	-11.5264
▁komentátor	-11.5264
▁ekonomikou	-11.5265
▁pořádek	-11.5265
▁zatížení	-11.5265
▁řetězce	-11.5265
▁Šlo	-11.5266
▁altruismus	-11.5266
▁krajině	-11.5266
▁hudbu	-11.5267
▁ránu	-11.5267
▁nástupce	-11.5267
▁katastrofy	-11.5267
▁jistotou	-11.5267
▁Číně	-11.5268
kých	-11.5269
▁toxické	-11.5269
kají	-11.5269
▁trasy	-11.527
▁vědce	-11.527
▁modelování	-11.5271
▁dramatick	-11.5272
▁faktorem	-11.5272
▁evropskou	-11.5273
▁analýze	-11.5273
▁sumu	-11.5273
▁vyřazení	-11.5273
▁liga	-11.5274
roj	-11.5274
▁startovat	-11.5274
▁nuly	-11.5275
▁soukromí	-11.5275
▁kurzů	-11.5275
▁ekonomiku	-11.5276
▁autobusem	-11.5276
▁vybojoval	-11.5277
▁přesností	-11.5278
▁uplatňuj	-11.5278
▁vzbudil	-11.5279
▁zvykem	-11.5279
▁dodavatelů	-11.5281
▁vyloučeno	-11.5282
▁motorem	-11.5282
▁směřující	-11.5283
▁dopisů	-11.5283
klep	-11.5283
▁Sol	-11.5284
ovitých	-11.5284
▁opakuje	-11.5285
▁dřevěné	-11.5286
▁dodávat	-11.5287
▁telefonů	-11.5287
▁inspektor	-11.5287
▁podepsání	-11.5288
▁hormonů	-11.5289
▁pokladny	-11.5289
▁uvítal	-11.529
▁Domnívám	-11.5291
▁Syn	-11.5291
▁kalendářní	-11.5291
▁Rakušan	-11.5292
▁účinků	-11.5292
▁Chebu	-11.5292
▁virus	-11.5293
▁návštěvníky	-11.5294
nského	-11.5294
▁středoevropské	-11.5294
▁středověku	-11.5294
▁listiny	-11.5294
▁nedokáže	-11.5295
▁úhradu	-11.5297
▁Francouzský	-11.5297
▁technickou	-11.5298
▁uchazeč	-11.5298
▁jakoukoli	-11.5298
▁kulturu	-11.5298
icí	-11.5299
▁zastává	-11.5299
▁větru	-11.5299
far	-11.53
▁Alžběta	-11.53
▁Bratinka	-11.5301
▁přístavu	-11.5301
▁disciplíny	-11.5301
▁Anna	-11.5302
▁marketingu	-11.5302
▁diváky	-11.5302
vážet	-11.5302
▁slavnosti	-11.5302
▁etapa	-11.5303
▁kanály	-11.5303
▁Saúdsk	-11.5303
ptal	-11.5305
▁přispívají	-11.5307
▁chaty	-11.5308
▁vyloučení	-11.531
▁hosté	-11.5311
▁dospělých	-11.5311
▁postaví	-11.5312
57	-11.5313
▁zločiny	-11.5314
tovat	-11.5318
▁dozvěděli	-11.5318
▁délky	-11.5319
▁nastane	-11.5321
▁230	-11.5321
▁použije	-11.5324
▁proteinu	-11.5324
▁útvaru	-11.5324
▁hladinu	-11.5324
0.000	-11.5325
▁autobusové	-11.5326
▁odvezl	-11.5326
▁stoupla	-11.5327
▁Historick	-11.5327
▁aparátu	-11.5327
anti	-11.5328
▁vybrali	-11.5329
▁stimul	-11.533
▁dluhy	-11.533
▁návratnost	-11.5332
▁pořádání	-11.5334
▁šťastný	-11.5334
▁nejbližším	-11.5334
▁nevýhod	-11.5335
▁rezervy	-11.5338
▁městem	-11.5338
▁hromadné	-11.5339
▁svěřil	-11.5339
▁Perské	-11.5339
▁vědecky	-11.5339
▁nahoře	-11.534
▁ledu	-11.534
obr	-11.534
▁vzrostla	-11.5341
▁zodpovězen	-11.5341
▁nevěděli	-11.5344
▁aplikacemi	-11.5345
▁katalogu	-11.5345
▁možnostech	-11.5347
▁horké	-11.5349
řek	-11.5352
▁sub	-11.5352
▁tématu	-11.5352
▁titulem	-11.5352
▁zvolení	-11.5353
▁Ber	-11.5354
hodná	-11.5354
yp	-11.5356
▁šesté	-11.5357
▁Možnosti	-11.5358
▁přísné	-11.536
▁ostrova	-11.536
▁zabránil	-11.5362
▁počáteční	-11.5362
▁Hilla	-11.5362
▁samotného	-11.5365
▁černého	-11.5365
▁vysokým	-11.5366
▁královské	-11.5367
▁klesla	-11.5371
▁tréninku	-11.5371
▁Fakt	-11.5371
35	-11.5372
kan	-11.5372
▁Dne	-11.5372
▁obchodníky	-11.5373
▁nepřímo	-11.5374
▁nazvané	-11.5375
▁investici	-11.5375
▁editoru	-11.5376
atrně	-11.5377
▁druhých	-11.5377
▁vložil	-11.5377
▁radí	-11.5378
▁kurzy	-11.5379
▁úspěšných	-11.538
nder	-11.538
ících	-11.5381
▁nezávislosti	-11.5381
CO	-11.5382
▁objevilo	-11.5382
36	-11.5382
▁Muži	-11.5383
▁bitv	-11.5383
▁nemáte	-11.5384
▁pohybů	-11.5385
▁pokoj	-11.5386
▁odporu	-11.5387
▁Americké	-11.5387
pokládat	-11.5388
▁zaměstnavateli	-11.5389
▁porod	-11.539
▁nechtěli	-11.5392
▁off	-11.5392
vané	-11.5393
6.	-11.5393
▁krátk	-11.5394
▁logický	-11.5396
užit	-11.5401
▁dokonalý	-11.5405
▁představila	-11.5406
bili	-11.5409
▁góly	-11.5409
ria	-11.5411
munist	-11.5413
▁hrd	-11.5413
▁Chorvat	-11.5416
▁rozpočtový	-11.5416
▁udělala	-11.5418
▁dovnitř	-11.5419
▁kursu	-11.542
▁založili	-11.5422
▁dobrém	-11.5423
▁děd	-11.5425
▁kanceláři	-11.5425
▁zub	-11.5426
držel	-11.5426
▁podzimu	-11.5429
▁vítězem	-11.5429
▁dotazy	-11.543
▁bere	-11.5436
▁osobním	-11.5437
▁požádala	-11.5441
▁dotazu	-11.5443
▁jednáním	-11.5443
71	-11.5446
▁kapacita	-11.5451
tických	-11.5454
▁vyjádřen	-11.5454
▁vlastníky	-11.5457
▁známy	-11.5459
▁časy	-11.5463
▁reklama	-11.5468
▁nacházejí	-11.5475
▁upravené	-11.5476
ujte	-11.5477
▁zápasech	-11.548
vice	-11.548
▁Černé	-11.5483
▁náhle	-11.5487
▁nabídla	-11.5487
stával	-11.5489
prostřed	-11.5492
▁odstoupil	-11.5494
▁nedělním	-11.5495
por	-11.5498
▁umělý	-11.55
▁dramat	-11.5504
▁jasný	-11.5509
příště	-11.5512
▁českému	-11.5517
▁samém	-11.552
▁trvalý	-11.5523
▁staro	-11.5525
▁českými	-11.5525
▁jakosti	-11.5527
▁předků	-11.5529
lské	-11.553
jmenovaný	-11.5531
který	-11.5532
▁majetkové	-11.5532
počítat	-11.5534
pin	-11.5536
▁Horní	-11.5536
▁nech	-11.5536
▁disky	-11.5536
▁Jejím	-11.5541
▁poradenské	-11.5545
▁zemní	-11.5546
oucí	-11.5546
▁Počítá	-11.555
▁strop	-11.555
večer	-11.5551
▁statistick	-11.5553
▁Las	-11.5554
▁zřetelně	-11.5557
▁Způsob	-11.5559
▁ač	-11.5561
▁cizím	-11.5563
▁krátkém	-11.5564
▁představa	-11.5565
vědčí	-11.5565
▁Pel	-11.5567
▁zobraz	-11.5571
▁psa	-11.5572
▁opačný	-11.5573
▁sbír	-11.5575
EC	-11.5575
▁41	-11.5576
bytová	-11.5583
▁dosáhli	-11.5584
▁vytvořené	-11.5586
▁náhradník	-11.5596
▁prah	-11.5596
▁obcích	-11.5596
▁pravým	-11.5597
▁Turist	-11.5599
tle	-11.5601
▁vypracoval	-11.5602
▁signály	-11.5603
▁generálním	-11.5616
▁Hodn	-11.5616
▁nedělá	-11.5621
▁velitele	-11.5624
▁lid	-11.5624
▁rock	-11.5625
iček	-11.5626
▁polární	-11.5631
▁William	-11.5634
čan	-11.5635
poskytla	-11.5636
▁vzájemný	-11.5638
▁přírodověd	-11.5638
▁Dán	-11.5638
▁budoucím	-11.5638
▁Casimir	-11.5638
▁obecný	-11.5639
▁knihovn	-11.5639
▁poškozen	-11.5642
▁proveden	-11.5647
▁příznivc	-11.5647
▁mužem	-11.5649
▁naléhav	-11.5652
▁zajímav	-11.5652
visí	-11.5652
▁dávky	-11.5653
▁Borise	-11.5654
▁starších	-11.5655
▁nabízené	-11.5655
▁pomáhají	-11.566
▁Softwar	-11.5662
▁faktor	-11.5663
▁přesněji	-11.5664
▁hodnotit	-11.5665
hlédnout	-11.567
▁měnil	-11.5672
▁moderního	-11.5672
▁uvolni	-11.5674
▁překonal	-11.5675
▁osobou	-11.5688
▁Odbor	-11.5695
▁žádají	-11.5698
jížděl	-11.5704
OST	-11.5713
▁podrobně	-11.5715
▁sobotním	-11.5717
AC	-11.5718
▁vypracova	-11.5721
▁maso	-11.5725
▁4000	-11.5727
▁hlás	-11.573
▁dodá	-11.5732
▁zabezpeč	-11.5732
▁kosti	-11.5733
▁Mladiče	-11.5734
▁slušný	-11.5735
▁omyl	-11.5735
▁zřízen	-11.5744
▁špatný	-11.5745
býval	-11.5745
▁expert	-11.5748
▁troj	-11.5749
čištění	-11.5756
90	-11.5757
▁fyzik	-11.5764
▁pane	-11.5766
▁Bob	-11.5766
▁problémům	-11.5768
▁popsán	-11.5768
▁kanál	-11.5769
▁říkal	-11.5769
▁filozof	-11.577
▁ideologick	-11.5771
▁Druh	-11.5771
káže	-11.5773
7,	-11.5777
vých	-11.5777
konaly	-11.5779
87	-11.5792
▁divák	-11.5794
▁chyba	-11.5795
▁nos	-11.58
▁produktivit	-11.58
▁statistik	-11.5806
▁prodával	-11.5806
▁obdobím	-11.5808
▁zmizel	-11.581
▁přip	-11.5814
luje	-11.5816
1972	-11.582
▁písmen	-11.5824
▁klad	-11.5824
▁uzná	-11.5824
▁kříže	-11.5825
▁bývalým	-11.5825
▁žalob	-11.5827
jednává	-11.5827
▁strašn	-11.5831
AD	-11.5831
ůbec	-11.5835
▁automat	-11.5835
cem	-11.5836
▁kapel	-11.5836
▁televizním	-11.5837
▁výplat	-11.5837
▁rozbor	-11.5839
▁trhů	-11.5841
▁Obsahuj	-11.5841
taž	-11.5842
▁racionální	-11.5843
zem	-11.5843
bitový	-11.5844
▁ovlivnil	-11.5844
třel	-11.5846
▁obrovsk	-11.5847
▁Ken	-11.5851
těl	-11.5857
▁charakterizova	-11.5859
▁Dvořák	-11.5863
▁Lendl	-11.5866
▁Hill	-11.5866
▁zveřejnil	-11.5867
▁potrestán	-11.5867
▁domácnost	-11.5868
▁veřejný	-11.5868
▁spoluhráč	-11.5869
▁poplatník	-11.5871
▁pozic	-11.5872
bla	-11.5872
▁nemovitost	-11.5873
▁disciplín	-11.5873
▁udělen	-11.5873
▁ženské	-11.5874
▁těle	-11.5883
DA	-11.5883
IE	-11.5885
▁1950	-11.5886
▁myš	-11.5888
čínsk	-11.5894
▁žádného	-11.5894
▁podobnost	-11.5896
▁chaos	-11.5897
▁něčem	-11.5898
▁rozumí	-11.5898
▁spravedlnost	-11.59
▁poslání	-11.5901
▁interval	-11.5901
▁odběratelů	-11.5902
▁TV	-11.5905
▁verzí	-11.5906
▁nemocné	-11.5906
▁odcházejí	-11.5906
▁Ul	-11.5909
▁kostele	-11.591
▁poskytován	-11.5911
LET	-11.5916
kládal	-11.5917
▁zkrácen	-11.5918
▁zatčen	-11.5919
▁přestupu	-11.5919
▁mládež	-11.592
bydlí	-11.592
▁diplomatické	-11.592
platné	-11.5923
▁Pal	-11.5924
▁honorář	-11.5925
▁bilanc	-11.5926
▁touží	-11.5927
▁postižení	-11.5927
▁Víc	-11.5927
▁Míst	-11.5931
▁oblib	-11.5936
jov	-11.5936
▁prodávající	-11.5937
▁zvyšují	-11.5939
▁odvet	-11.594
zoval	-11.5941
hradil	-11.5942
▁chrání	-11.5946
▁skript	-11.5947
hrával	-11.5948
▁hit	-11.5948
▁kilogram	-11.5948
▁had	-11.5948
▁chápe	-11.5951
▁Mistr	-11.5951
▁Buď	-11.5952
kdy	-11.5952
rozhodoval	-11.5955
▁vycházejí	-11.5956
pit	-11.5957
▁vyprš	-11.5959
▁učit	-11.596
▁Gross	-11.596
▁velvyslanec	-11.5961
▁Delphi	-11.5961
▁Reichel	-11.5961
▁brožur	-11.5961
▁inzulín	-11.5961
▁kanalizací	-11.5961
▁odpolední	-11.5961
▁pojišťovně	-11.5961
▁poštovní	-11.5961
▁zpracovává	-11.5961
▁Akademie	-11.5961
▁Albertville	-11.5961
▁Bratislavy	-11.5961
▁Digital	-11.5961
▁General	-11.5961
▁Hospodářsk	-11.5961
▁Netanjahu	-11.5961
▁Němce	-11.5961
▁Princip	-11.5961
▁Pálffy	-11.5961
▁SGI	-11.5961
▁SPIRIT	-11.5961
▁TWA	-11.5961
▁Teplice	-11.5961
▁Vynikající	-11.5961
▁databáze	-11.5961
▁databázi	-11.5961
▁dveřmi	-11.5961
▁havárii	-11.5961
▁komedie	-11.5961
▁komisař	-11.5961
▁kompetencí	-11.5961
▁lidstvo	-11.5961
▁milisekund	-11.5961
▁nechybí	-11.5961
▁nesrovnateln	-11.5961
▁nosorožců	-11.5961
▁obyvatelstvo	-11.5961
▁odstavec	-11.5961
▁omezit	-11.5961
▁pohodlné	-11.5961
▁pojišťoven	-11.5961
▁portfeje	-11.5961
▁přísluší	-11.5961
▁sféře	-11.5961
▁splátek	-11.5961
▁těhotenství	-11.5961
▁vrtulník	-11.5961
▁zahájit	-11.5961
▁zaručuje	-11.5961
▁zopakoval	-11.5961
▁záruční	-11.5961
▁účinnou	-11.5961
▁Černomyrdin	-11.5961
▁železné	-11.5961
▁Kadlec	-11.5961
▁Zajímal	-11.5961
▁kultuře	-11.5961
▁loupež	-11.5961
▁přetížen	-11.5961
▁James	-11.5961
▁někomu	-11.5961
▁odhalit	-11.5961
▁podepsat	-11.5961
▁Prahou	-11.5961
▁nikomu	-11.5961
▁vybudoval	-11.5961
▁Bohuslav	-11.5961
▁poznámky	-11.5961
▁mutací	-11.5961
▁Front	-11.5961
▁Fuchs	-11.5961
▁Louis	-11.5961
▁něčeho	-11.5961
▁Automatick	-11.5961
▁chystají	-11.5961
▁formálně	-11.5961
▁lehký	-11.5961
▁Zpráv	-11.5961
▁mocenské	-11.5961
▁pořizovací	-11.5961
LSNS	-11.5961
▁hokejistů	-11.5961
▁ceremoniál	-11.5961
▁FMV	-11.5961
▁informuje	-11.5961
▁legendární	-11.5961
▁zdůraznit	-11.5961
▁dědeček	-11.5961
hánějí	-11.5961
▁nazvat	-11.5961
▁Samotn	-11.5961
▁kapsy	-11.5961
▁fotografií	-11.5961
▁zmizí	-11.5961
▁chleba	-11.5961
▁Kouba	-11.5961
▁srovnateln	-11.5961
▁stromeček	-11.5961
▁písmo	-11.5961
▁Účastníci	-11.5961
▁Hledá	-11.5961
▁katalyzátor	-11.5961
▁registrační	-11.5961
▁dovednost	-11.5961
▁nepodaří	-11.5961
▁dávek	-11.5961
▁pátku	-11.5961
▁paměť	-11.5961
▁1979	-11.5961
▁podporoval	-11.5961
▁pojmu	-11.5961
▁stimulaci	-11.5961
▁posílit	-11.5961
▁Zápas	-11.5961
▁Přenos	-11.5962
▁jinam	-11.5962
▁vejce	-11.5962
▁zády	-11.5962
▁Následující	-11.5962
▁účinnější	-11.5962
▁1970	-11.5962
▁nikam	-11.5962
▁zakázek	-11.5962
▁umělců	-11.5962
▁zranil	-11.5962
▁nikde	-11.5962
▁ležel	-11.5962
▁svrchované	-11.5962
▁Suková	-11.5962
▁starat	-11.5963
▁hraček	-11.5963
SM	-11.5963
▁inteligence	-11.5963
▁zneužívání	-11.5963
▁Jaw	-11.5963
▁Obavy	-11.5963
▁stanovisku	-11.5963
▁manželkou	-11.5963
▁koncept	-11.5963
▁třídenní	-11.5963
▁palet	-11.5963
▁vyzkoušet	-11.5963
▁zelené	-11.5964
▁Jágr	-11.5964
▁málokdo	-11.5964
▁KGB	-11.5964
▁lékařství	-11.5964
▁Snah	-11.5964
▁vyhledávání	-11.5964
▁okně	-11.5964
▁stadiu	-11.5964
▁přenáší	-11.5964
▁deště	-11.5964
▁Dostál	-11.5965
▁odnětí	-11.5965
▁topení	-11.5965
▁železnice	-11.5965
▁deska	-11.5965
▁Ježek	-11.5965
▁terč	-11.5966
▁bohatší	-11.5966
▁řadič	-11.5966
▁výsad	-11.5966
▁vyrazil	-11.5966
▁vězni	-11.5967
▁neznají	-11.5967
▁články	-11.5967
▁smířit	-11.5967
▁berou	-11.5967
ázev	-11.5967
▁odstoupení	-11.5967
▁tekutin	-11.5967
▁nejsme	-11.5968
▁kolegové	-11.5968
▁překonání	-11.5968
▁oběhové	-11.5969
▁dobrovolně	-11.5969
extrémně	-11.5969
▁jasná	-11.5969
▁Španělsku	-11.597
bez	-11.597
▁France	-11.597
▁konstantní	-11.597
▁zkoumání	-11.597
▁hol	-11.597
▁nejblíže	-11.597
▁ordinace	-11.597
▁spolupracuje	-11.5972
▁stáj	-11.5972
▁602	-11.5972
▁organismy	-11.5972
▁stěžuje	-11.5972
▁dostání	-11.5972
▁šancí	-11.5972
▁lahví	-11.5973
▁novinky	-11.5973
formulovat	-11.5974
děláme	-11.5974
▁Dvou	-11.5974
▁kopií	-11.5974
▁uzavře	-11.5974
▁ponechal	-11.5974
▁Čína	-11.5975
▁skrz	-11.5975
▁nechut	-11.5975
▁Open	-11.5976
▁zařadit	-11.5976
▁drát	-11.5977
▁známky	-11.5977
▁závazku	-11.5977
učili	-11.5978
▁regionů	-11.5978
▁radikálně	-11.5978
▁dopravou	-11.5978
▁nedají	-11.5978
▁sloučení	-11.5979
▁nehraje	-11.5979
▁Student	-11.5979
▁představovat	-11.5979
▁neshody	-11.5979
▁rozsáhlou	-11.598
▁výměně	-11.598
▁sněmu	-11.598
▁ČESK	-11.5981
▁spořitelny	-11.5981
▁příznaky	-11.5981
▁Střední	-11.5981
▁působnost	-11.5981
▁záchranu	-11.5981
▁zájezdů	-11.5981
▁půlnoci	-11.5982
▁stručně	-11.5982
▁stížností	-11.5982
▁cla	-11.5982
▁odletěl	-11.5983
▁Mnichově	-11.5983
▁adaptace	-11.5984
▁odhalení	-11.5985
▁způsobilosti	-11.5986
▁sešla	-11.5986
▁olomoucké	-11.5986
▁pitné	-11.5986
▁kůry	-11.5987
▁pětatřicet	-11.5987
▁ropy	-11.5987
▁etapu	-11.5987
▁křesťanské	-11.5988
▁bodech	-11.5988
▁dodržovat	-11.5989
▁Československý	-11.5989
▁výměnou	-11.5989
▁věcech	-11.599
▁prodejen	-11.599
išť	-11.599
▁funkcionářů	-11.599
▁Kanady	-11.5991
▁zklamání	-11.5991
▁činitelé	-11.5991
▁pleti	-11.5992
▁hudba	-11.5992
▁předpokladů	-11.5993
▁Clintonová	-11.5993
▁Bonnu	-11.5994
▁teoreticky	-11.5994
▁prokurátor	-11.5994
▁porážky	-11.5994
▁plánuje	-11.5995
▁publikum	-11.5996
▁honoráře	-11.5997
▁psací	-11.5997
▁kolena	-11.5997
▁Chorvatsku	-11.5997
▁Místopředsed	-11.5998
▁vídeňské	-11.5998
▁uloženy	-11.5999
▁pojmem	-11.5999
▁znakem	-11.5999
▁nervové	-11.5999
▁zdálo	-11.6
▁svatého	-11.6
▁soukromá	-11.6001
jte	-11.6001
▁dovedl	-11.6001
▁prováděl	-11.6002
▁větě	-11.6002
▁uši	-11.6002
▁mřížky	-11.6003
▁hrací	-11.6003
▁vlastnostmi	-11.6003
▁navázal	-11.6003
▁Gen	-11.6004
▁dostanete	-11.6004
▁provádění	-11.6004
▁Adam	-11.6005
otisk	-11.6005
▁tématem	-11.6005
97	-11.6006
▁náhrada	-11.6007
▁lokality	-11.6007
▁hromadn	-11.6007
dána	-11.6007
▁symbolem	-11.6007
▁rakouských	-11.6008
▁skladby	-11.6009
▁ukazatel	-11.6009
▁zpožděním	-11.6009
▁Výborný	-11.601
▁rohu	-11.6011
soudit	-11.6011
▁přeplněn	-11.6011
smluvně	-11.6011
▁zakládání	-11.6013
▁politickém	-11.6013
▁nařídil	-11.6014
▁schopný	-11.6014
▁61	-11.6015
hodinový	-11.6015
▁rozměry	-11.6018
▁popsal	-11.602
▁hezké	-11.6021
▁jednorázové	-11.6021
▁popel	-11.6022
▁vel	-11.6022
▁programech	-11.6022
▁oslavil	-11.6023
▁buněčné	-11.6024
▁umožnilo	-11.6026
▁teplotou	-11.6026
▁nedaleké	-11.6027
▁Západní	-11.6028
▁ostré	-11.6028
▁činitelů	-11.6028
▁organismus	-11.6029
▁slavn	-11.6029
zemědělská	-11.603
▁skoky	-11.6031
▁směsi	-11.6031
stru	-11.6033
▁Strany	-11.6033
plyn	-11.6033
▁většinový	-11.6034
▁paláci	-11.6034
▁vydělal	-11.6034
▁thajské	-11.6035
▁gólem	-11.6035
▁ceníku	-11.6035
▁netrpěliv	-11.6036
čila	-11.6037
▁Jelcinovi	-11.6037
▁kyseliny	-11.6037
▁POD	-11.6038
▁hormony	-11.6038
▁sedmnácti	-11.604
▁autobusu	-11.6041
▁modré	-11.6042
▁pochopili	-11.6042
▁čtverečních	-11.6042
▁lidskou	-11.6043
▁diskety	-11.6043
▁zajišťoval	-11.6043
▁kolegům	-11.6044
rodil	-11.6045
▁odhadů	-11.6046
▁hrobu	-11.6048
taj	-11.605
▁Map	-11.6052
čel	-11.6052
LOV	-11.6055
▁Dennett	-11.6056
▁Mont	-11.6058
▁dluhu	-11.6058
▁startem	-11.6058
▁srbské	-11.6058
▁kontaktů	-11.6061
▁částech	-11.6061
▁použito	-11.6062
▁zmizela	-11.6063
racovníci	-11.6066
▁teplotu	-11.6068
▁Kovohut	-11.6068
▁kancelářské	-11.6068
▁boty	-11.6069
▁kdybych	-11.607
▁okolnosti	-11.607
▁Rakousko	-11.6074
▁momentáln	-11.6075
▁případném	-11.6076
▁nemůžete	-11.6077
▁Švédsko	-11.6079
▁Prof	-11.6079
▁Vysoké	-11.6079
▁prach	-11.608
▁Západoevropsk	-11.608
▁Real	-11.6081
▁občanský	-11.6082
▁měnící	-11.6086
▁záznamy	-11.6086
▁nepříznivý	-11.6086
▁způsobeno	-11.6088
▁klientům	-11.6089
▁profil	-11.609
áni	-11.609
▁3,	-11.6091
▁odp	-11.6091
▁dáma	-11.6091
šl	-11.6093
▁třídu	-11.6094
▁čerstvé	-11.6094
▁Firmy	-11.6095
▁olympijském	-11.6095
▁kamenné	-11.6096
▁manželů	-11.61
▁výměna	-11.6101
▁útoky	-11.6101
▁pokusili	-11.6103
▁novinka	-11.6103
což	-11.6103
▁VE	-11.6103
▁pozorně	-11.6104
▁dobrým	-11.6104
▁Nemám	-11.6105
vát	-11.6106
▁převeden	-11.6109
▁nastává	-11.6112
▁hmotné	-11.6113
▁investory	-11.6113
▁dohodnuté	-11.6114
▁hrdina	-11.6115
▁narazí	-11.6115
▁vzdálený	-11.6117
▁pop	-11.6118
▁mimořádného	-11.6119
▁Man	-11.6123
▁čist	-11.6123
▁kulturním	-11.6125
▁Skutečn	-11.6126
▁trendy	-11.6127
▁Zájemc	-11.6127
▁schopné	-11.6129
antní	-11.6131
▁projevů	-11.6132
▁účastí	-11.6133
▁nároku	-11.6135
▁kapaliny	-11.6136
vojí	-11.6138
▁zúčastnili	-11.614
▁vkládání	-11.6142
▁vyhořelé	-11.6145
▁příznivý	-11.6146
▁zněl	-11.615
▁doprovod	-11.6151
▁proviz	-11.6151
▁dopisu	-11.6155
▁provedené	-11.6155
▁Kol	-11.6161
▁trestu	-11.6161
▁připravili	-11.6162
ručí	-11.6162
▁ministry	-11.6163
▁objektem	-11.6164
▁poločas	-11.6164
▁zřídka	-11.6166
▁Zd	-11.6167
▁loňsk	-11.6172
▁sovětsk	-11.6173
▁vypadl	-11.6178
▁desetiletích	-11.6184
▁předností	-11.6186
▁chladné	-11.6187
▁podnikem	-11.6191
▁lékařského	-11.6195
▁nástrojem	-11.6198
končit	-11.6198
RS	-11.6198
▁úvěru	-11.6199
dová	-11.6199
▁Neu	-11.62
dík	-11.6205
▁chemick	-11.6207
▁náměstk	-11.6209
▁zbyl	-11.6209
▁úrokové	-11.6211
▁tyči	-11.6213
terak	-11.6217
▁chybou	-11.622
▁vhodným	-11.6221
▁nesporn	-11.6221
počíta	-11.6221
▁uvolnil	-11.6223
▁potvrdily	-11.6224
▁divákům	-11.6225
▁studentům	-11.6227
▁splněn	-11.6228
▁vynález	-11.6229
▁Národního	-11.623
▁Gorbačova	-11.6232
trž	-11.6239
▁stanov	-11.6239
▁Geo	-11.624
ničím	-11.6242
▁Star	-11.6245
▁samot	-11.6246
▁závazný	-11.6246
skočit	-11.6248
▁sociálním	-11.6252
▁53	-11.6252
▁známého	-11.6258
▁dělit	-11.6261
▁váhy	-11.6264
▁vyřešil	-11.6265
ŽE	-11.6267
pracovala	-11.6268
daná	-11.6274
▁životem	-11.6275
▁lékařům	-11.6275
▁stavem	-11.6278
▁mála	-11.6285
▁motorový	-11.6289
▁prezidentské	-11.629
tkání	-11.629
▁snížením	-11.6292
▁tich	-11.6293
▁zasáhl	-11.6299
▁akciový	-11.6301
▁majiteli	-11.6302
▁přítel	-11.6305
▁zobrazen	-11.6307
▁Začátk	-11.6307
kupuje	-11.6307
▁Plán	-11.6315
▁přesnost	-11.6318
ong	-11.632
imochodem	-11.632
tice	-11.6321
sáhl	-11.6324
kání	-11.6326
▁vstoupí	-11.6327
▁účinný	-11.6327
▁cenový	-11.6335
▁pevn	-11.6335
▁zodpovědn	-11.6336
▁oboustrann	-11.6339
▁figur	-11.6345
lip	-11.6347
▁sam	-11.635
▁panu	-11.6352
▁starým	-11.6353
14	-11.636
pek	-11.6364
48	-11.6366
▁cenov	-11.6366
▁tráv	-11.6367
krátko	-11.6369
▁odhadu	-11.6374
▁vysla	-11.6375
▁specifický	-11.6379
▁Schumacher	-11.6382
▁užití	-11.6385
1,	-11.6386
▁podmíněn	-11.6386
povídat	-11.6386
▁Moj	-11.6389
míněn	-11.6391
▁zlat	-11.6393
▁Har	-11.6395
▁myslel	-11.6396
▁tenisový	-11.6397
▁pouč	-11.6398
svit	-11.6398
bylo	-11.6399
▁subjekt	-11.6401
ozi	-11.6402
střih	-11.6408
▁jakýkoli	-11.6409
▁technik	-11.6409
▁ucho	-11.6411
▁brzd	-11.6413
▁Kos	-11.6418
▁vítězstvím	-11.6421
▁Politick	-11.6424
▁As	-11.6425
▁pouhým	-11.6426
▁zanikl	-11.6432
▁tepeln	-11.6436
▁iniciativ	-11.6437
▁oxid	-11.6437
▁nekonečn	-11.6439
▁známost	-11.6439
▁SI	-11.6443
▁popisu	-11.6449
▁znamenal	-11.6451
▁zisky	-11.6451
▁59	-11.6454
▁nasazen	-11.6454
▁vůdc	-11.6456
▁pětadvacet	-11.6459
▁Kan	-11.6472
▁1300	-11.6475
▁skutečn	-11.6476
▁matematick	-11.648
▁nepod	-11.6481
▁Lys	-11.6483
▁držel	-11.6486
▁Nebude	-11.6489
▁chodil	-11.6492
▁lékařem	-11.6497
izovat	-11.6499
▁tah	-11.65
hem	-11.6506
ško	-11.6511
▁plánovaný	-11.6515
▁úrokový	-11.6516
▁meziroční	-11.6526
▁poz	-11.6526
kova	-11.6531
▁nález	-11.6531
▁JAK	-11.6531
znamená	-11.6542
▁minul	-11.6543
rušit	-11.6548
45	-11.6549
▁statistický	-11.655
▁posunu	-11.6552
▁vracel	-11.6555
▁fotbale	-11.6555
▁čtvrti	-11.6556
▁odpovědný	-11.6557
▁přístav	-11.6563
skop	-11.6565
▁extremist	-11.6566
▁kated	-11.6566
▁štáb	-11.6566
▁penězi	-11.6568
▁akcionáře	-11.657
▁vymezi	-11.6577
▁dvojic	-11.6577
PI	-11.658
stran	-11.6582
93	-11.6585
které	-11.6585
loha	-11.6587
▁Tri	-11.6588
krývají	-11.6591
▁severním	-11.6593
▁samotný	-11.6594
▁úzké	-11.6597
▁opor	-11.66
prodej	-11.6601
vrátit	-11.6603
▁reálném	-11.6609
▁západ	-11.6611
▁slavnost	-11.6611
▁neomezen	-11.6612
▁výdaj	-11.6613
▁zemím	-11.6615
▁předpis	-11.6616
1%	-11.6616
▁Pokus	-11.6617
členný	-11.6618
instalovat	-11.6621
▁živý	-11.6622
▁spolupracovník	-11.6624
▁Ekonomick	-11.6625
▁nepřátel	-11.6627
sit	-11.6629
▁měnov	-11.663
▁9000	-11.663
OR	-11.6633
díl	-11.6633
▁Pre	-11.6635
▁očekával	-11.6635
▁bit	-11.664
lová	-11.6644
▁ptá	-11.6644
▁orchestr	-11.6651
▁diskusí	-11.6653
▁Ev	-11.6653
▁otevřeno	-11.6655
DI	-11.6655
▁šampionát	-11.6656
▁požádá	-11.6657
▁Ga	-11.6658
▁výtvarný	-11.6663
▁Island	-11.6663
▁televizor	-11.6663
▁dosahují	-11.6664
▁design	-11.6665
▁neúspěch	-11.6665
▁požadovan	-11.6665
▁trůn	-11.6666
▁tribunál	-11.6666
▁ToolBook	-11.6668
▁nepřítel	-11.6668
▁Senát	-11.6669
▁Jelcinov	-11.6669
▁orientac	-11.6669
▁podoba	-11.6669
▁94	-11.6669
▁panel	-11.6669
▁filtr	-11.6669
▁koncern	-11.6672
▁penzion	-11.6674
▁životnost	-11.6676
▁pochybnost	-11.6679
▁záložník	-11.6679
▁příjemný	-11.668
▁poradil	-11.6681
▁vkus	-11.6682
▁neexistují	-11.6683
levo	-11.6684
▁výměník	-11.6684
soudí	-11.6685
▁hrubý	-11.6686
▁výrobním	-11.6686
platila	-11.6688
graf	-11.6688
▁kytar	-11.669
▁cílů	-11.6692
▁Zásad	-11.6692
▁soustředěn	-11.6693
▁třem	-11.6696
▁stoupl	-11.6696
▁kořen	-11.6696
hraj	-11.6699
LU	-11.67
▁atentát	-11.67
čátek	-11.6701
▁rozprav	-11.6703
▁Sport	-11.6704
▁anket	-11.6704
▁úder	-11.6705
▁totemismu	-11.6708
▁Motor	-11.6708
▁kubismu	-11.6709
▁meteorolog	-11.671
▁osvobozen	-11.6711
▁interak	-11.6711
▁risk	-11.6712
▁odehráv	-11.6713
▁protagonist	-11.6716
▁tabulátor	-11.6717
árek	-11.6718
ěsíční	-11.6718
▁poměrů	-11.6718
▁ekvivalent	-11.6719
vní	-11.6719
mus	-11.672
▁právnick	-11.6721
▁plaz	-11.6724
eme	-11.6725
▁hlava	-11.6726
▁marketing	-11.6727
▁PŘED	-11.6728
▁porušil	-11.6728
rochu	-11.6729
vyskytuje	-11.673
▁Australan	-11.673
▁Chvalovský	-11.673
▁Gretzky	-11.673
▁Holbrooke	-11.673
▁Kravčuk	-11.673
▁Margaret	-11.673
▁Marseille	-11.673
▁MicroStation	-11.673
▁Oxfordu	-11.673
▁Parlament	-11.673
▁Pospíšil	-11.673
▁Rangers	-11.673
▁Sládka	-11.673
▁Zeitung	-11.673
▁analytik	-11.673
▁antropogenní	-11.673
▁barokní	-11.673
▁cyklů	-11.673
▁disident	-11.673
▁dodávku	-11.673
▁dominantní	-11.673
▁domnívat	-11.673
▁doporučit	-11.673
▁elektrárna	-11.673
▁epizod	-11.673
▁fanoušci	-11.673
▁havárie	-11.673
▁hájit	-11.673
▁instalační	-11.673
▁izolační	-11.673
▁kariéry	-11.673
▁křesla	-11.673
▁libovolné	-11.673
▁lístku	-11.673
▁manažeři	-11.673
▁navštívit	-11.673
▁nejčastější	-11.673
▁nervozit	-11.673
▁odcházel	-11.673
▁poliklinik	-11.673
▁portrét	-11.673
▁posuzoval	-11.673
▁prezentován	-11.673
▁připomínal	-11.673
▁příchozí	-11.673
▁službách	-11.673
▁studijní	-11.673
▁středisek	-11.673
▁tabák	-11.673
▁turistiky	-11.673
▁ušlechtil	-11.673
▁vyrobit	-11.673
▁výchozí	-11.673
▁výcvik	-11.673
▁vůdčí	-11.673
▁zlepšování	-11.673
▁zvážit	-11.673
▁úklid	-11.673
▁čtvrtletně	-11.673
▁Klient	-11.673
▁Příprav	-11.673
▁chápou	-11.673
▁delegací	-11.673
▁delikt	-11.673
▁fázové	-11.673
▁hesla	-11.673
▁hřbet	-11.673
▁knihkupectví	-11.673
▁náznak	-11.673
▁názvy	-11.673
▁odhodlán	-11.673
▁přijede	-11.673
▁recese	-11.673
▁rovnou	-11.673
▁vizuální	-11.673
▁vyřeší	-11.673
▁afrických	-11.673
▁certifikace	-11.673
▁investoři	-11.673
▁licenci	-11.673
▁nebytový	-11.673
▁položek	-11.673
▁sváteční	-11.673
▁vypovězen	-11.673
▁sazba	-11.673
▁laskav	-11.673
▁Pechar	-11.673
▁Snímek	-11.673
▁krizí	-11.673
▁mléko	-11.673
▁dráze	-11.673
▁nepůjde	-11.673
▁podporovan	-11.673
▁Pravidl	-11.673
▁návaznost	-11.673
▁postranní	-11.673
▁smíšený	-11.673
▁trolejbus	-11.673
▁perfektní	-11.673
▁Údaj	-11.673
▁Štěpán	-11.673
▁ideologie	-11.673
▁odrůd	-11.673
▁poezie	-11.673
▁emisí	-11.673
▁iluze	-11.673
▁reprezentaci	-11.673
▁vztek	-11.673
▁reprezentovat	-11.673
▁mléka	-11.673
▁obrátí	-11.673
▁udělil	-11.673
▁projevují	-11.673
▁masa	-11.673
▁letadel	-11.673
▁biologii	-11.673
▁akutní	-11.673
▁Obvykl	-11.673
▁nevyhnul	-11.673
▁látku	-11.673
▁stránkách	-11.673
▁rámec	-11.673
▁Nynější	-11.673
▁říkat	-11.6731
▁důchodců	-11.6731
▁láska	-11.6731
▁podmínku	-11.6731
▁hladovku	-11.6731
▁zaměstnanosti	-11.6731
▁Příčin	-11.6731
▁dárek	-11.6731
▁spolkové	-11.6731
▁holub	-11.6731
▁prostředkem	-11.6731
interpretaci	-11.6731
▁výpis	-11.6731
▁motivace	-11.6731
▁Hotel	-11.6731
▁rozpočtů	-11.6731
▁zpravodajství	-11.6731
▁Zlatý	-11.6731
▁poselství	-11.6731
▁Plzně	-11.6731
▁vyvíjet	-11.6732
▁polohách	-11.6732
▁politici	-11.6732
▁Hrál	-11.6732
věřuje	-11.6732
▁zdražení	-11.6732
▁ekologie	-11.6732
▁profesi	-11.6732
▁žili	-11.6732
▁Nováček	-11.6732
▁památku	-11.6732
▁uspokojit	-11.6732
▁poučení	-11.6732
▁Japonci	-11.6732
▁legální	-11.6733
▁média	-11.6733
▁lukrativní	-11.6733
▁síle	-11.6733
▁vyhnul	-11.6733
▁Řadič	-11.6733
▁představen	-11.6733
▁Boston	-11.6733
▁Kontrol	-11.6733
▁Frýdku	-11.6733
▁zátěž	-11.6733
▁juniorů	-11.6733
▁shoda	-11.6733
▁veterinární	-11.6733
▁utrpení	-11.6733
▁jezdce	-11.6733
▁silnicích	-11.6734
▁stanoviska	-11.6734
▁provází	-11.6734
▁linie	-11.6734
▁třicátých	-11.6734
opádn	-11.6735
▁soustavně	-11.6735
▁psí	-11.6735
▁důchodce	-11.6735
▁Sportovní	-11.6736
▁Čísl	-11.6736
▁směrech	-11.6736
▁odcizi	-11.6736
▁kdykoli	-11.6736
▁Jenomže	-11.6736
obtížnější	-11.6736
▁regionech	-11.6736
▁říše	-11.6736
▁zpracovávat	-11.6737
▁setkávají	-11.6737
▁IPS	-11.6737
▁Zabývá	-11.6737
▁akční	-11.6737
▁upravuje	-11.6737
▁naučí	-11.6738
▁fronta	-11.6738
▁lidech	-11.6738
přát	-11.6738
▁suma	-11.6738
▁schvalování	-11.6738
▁tiskárnu	-11.6738
▁přizpůsobení	-11.6738
▁Jihlavě	-11.6738
▁náročn	-11.6739
▁měrou	-11.6739
▁plynule	-11.6739
▁oceli	-11.6739
▁prosazují	-11.6739
▁Nastavení	-11.674
▁Podíl	-11.674
▁intelektuální	-11.674
nucen	-11.6741
▁smyslupln	-11.6741
▁Hel	-11.6741
▁vzdát	-11.6741
▁mrzí	-11.6741
▁statisíce	-11.6741
Místku	-11.6741
▁nevěří	-11.6741
▁suché	-11.6742
▁jihovýchodní	-11.6742
▁parkování	-11.6742
▁BF	-11.6742
▁srovnávat	-11.6743
▁bitů	-11.6743
▁západoevropský	-11.6743
▁vyznačen	-11.6743
ivost	-11.6744
▁zjistíme	-11.6744
▁hudbou	-11.6745
dávání	-11.6745
▁obdobně	-11.6745
▁stoly	-11.6746
▁Olympi	-11.6746
▁brány	-11.6746
▁příčku	-11.6746
▁ujal	-11.6747
▁Záhřebu	-11.6748
▁zpracovat	-11.6748
▁slabě	-11.6748
▁Informoval	-11.6749
▁Turecka	-11.6749
▁středně	-11.6749
▁formace	-11.675
▁Rud	-11.675
▁soukromník	-11.6751
▁Made	-11.6751
▁vykonává	-11.6751
▁Helen	-11.6752
▁dokladů	-11.6752
▁jízdě	-11.6753
▁horizontu	-11.6753
▁Dlouhý	-11.6753
▁korekce	-11.6754
▁LID	-11.6754
▁biologických	-11.6755
▁zachytit	-11.6755
▁procesech	-11.6755
▁domluv	-11.6756
▁pokutou	-11.6756
▁učitelů	-11.6756
▁objednávky	-11.6757
▁pru	-11.6757
▁židovské	-11.6758
▁odběru	-11.6758
soustřeďuje	-11.6758
▁stránka	-11.6758
lů	-11.6759
▁Skutečně	-11.6759
▁spalování	-11.676
256	-11.6761
▁kapitole	-11.6761
▁Úpravy	-11.6761
▁zjednodušení	-11.6761
▁polní	-11.6762
▁Stalin	-11.6762
▁funkcionáři	-11.6763
▁postihnout	-11.6763
ura	-11.6764
restrukturalizac	-11.6764
▁stejnojmenné	-11.6764
▁úřadech	-11.6764
▁výborně	-11.6765
▁obal	-11.6765
▁fungující	-11.6765
▁konečn	-11.6765
▁Alda	-11.6765
▁úroků	-11.6766
▁cokoliv	-11.6766
▁prohlédnout	-11.6766
▁šaty	-11.6766
ručením	-11.6766
▁dokazuje	-11.6767
▁pokračující	-11.6767
▁písní	-11.6768
dražit	-11.6768
▁nedokáž	-11.6769
▁čekalo	-11.677
▁zpěvačka	-11.677
▁špičky	-11.677
▁Skutečnost	-11.677
▁Angličané	-11.677
▁policista	-11.6771
▁shodli	-11.6771
čené	-11.6771
▁psychologické	-11.6771
▁rozumu	-11.6774
▁podporující	-11.6774
dokonalejší	-11.6774
▁domech	-11.6775
▁předcházel	-11.6776
▁nechceme	-11.6776
▁přepravy	-11.6776
▁organizátor	-11.6777
▁službami	-11.6778
ALE	-11.6778
▁přátelé	-11.6778
▁dně	-11.6778
▁velení	-11.6779
▁Diana	-11.6779
▁odměna	-11.6779
▁správní	-11.6779
▁vlastnické	-11.6779
▁Nabídky	-11.678
▁jízdy	-11.6781
▁obdrželi	-11.6782
▁silná	-11.6782
▁výstavb	-11.6782
▁koncertů	-11.6783
▁Zvláště	-11.6783
▁vhodnější	-11.6784
▁dálnici	-11.6784
▁analýzu	-11.6784
▁Mlad	-11.6785
▁schůzka	-11.6786
▁jednoduch	-11.6786
▁zbraněmi	-11.6786
▁charakterizuj	-11.6787
▁soch	-11.6788
▁vyhlášku	-11.6788
▁odborové	-11.6788
▁správa	-11.6789
▁úrazu	-11.6789
mnohých	-11.6789
▁nalezli	-11.679
▁poct	-11.679
▁křivka	-11.6791
▁odkladu	-11.6792
▁vinou	-11.6792
▁soli	-11.6792
spal	-11.6792
▁vražd	-11.6793
▁ústavem	-11.6793
▁Žije	-11.6793
▁scházejí	-11.6793
▁Čeká	-11.6793
▁pravou	-11.6794
▁radioaktivních	-11.6794
▁nutností	-11.6796
▁neznáme	-11.6796
▁Popov	-11.6797
▁Sam	-11.6797
▁tenistk	-11.6798
▁samozřejmé	-11.6799
▁žalobu	-11.6799
▁výplatu	-11.6799
▁prachu	-11.6799
▁nezávisle	-11.68
▁vzrostly	-11.68
▁utekl	-11.68
▁programování	-11.6803
▁používali	-11.6803
▁Čern	-11.6804
▁posláním	-11.6804
▁váhu	-11.6805
▁zkrácení	-11.6806
▁příspěvků	-11.6806
▁postavy	-11.6807
▁rakoviny	-11.6808
▁sledovali	-11.6808
▁Cupu	-11.6808
▁nezávislý	-11.6808
▁muzik	-11.6809
▁kapitola	-11.6809
▁zima	-11.681
▁rezervní	-11.681
▁reklamu	-11.6811
▁nepočítal	-11.6811
▁poznali	-11.6811
▁úkony	-11.6813
▁rumunské	-11.6813
▁Technické	-11.6813
▁změnilo	-11.6816
▁polský	-11.6817
stein	-11.6817
▁obviněni	-11.6817
vážil	-11.6817
▁hostin	-11.6818
▁podob	-11.6818
▁dostával	-11.6819
dělal	-11.682
stály	-11.682
▁natočil	-11.682
▁písemné	-11.682
▁technicky	-11.6821
▁zveřejněné	-11.6822
▁vlků	-11.6822
▁Obsah	-11.6823
▁adrese	-11.6824
▁kategoriích	-11.6824
▁přeci	-11.6826
▁vysílač	-11.6826
▁neznámého	-11.6827
▁kriminální	-11.6827
▁dani	-11.6827
▁dařilo	-11.6829
▁způsobilo	-11.683
▁128	-11.6832
▁požáru	-11.6832
▁větu	-11.6832
ER	-11.6833
▁Švýcar	-11.6833
hru	-11.6833
▁International	-11.6833
▁Management	-11.6833
▁Fil	-11.6833
▁báječn	-11.6835
ima	-11.6835
▁pátrání	-11.6836
▁Argentina	-11.6837
▁prokázala	-11.6838
▁převezme	-11.6838
▁pravá	-11.6838
▁zemědělcům	-11.6839
očí	-11.6841
▁bojuje	-11.6842
▁An	-11.6844
▁Hovořil	-11.6844
▁efektivně	-11.6846
▁prázdný	-11.6847
▁Podnikatelské	-11.6847
▁Min	-11.6847
▁44	-11.6847
▁limity	-11.6849
HP	-11.6849
▁tvrdili	-11.685
▁Mohu	-11.6851
▁Rudé	-11.6851
OLE	-11.6852
▁Dobrý	-11.6852
▁vlnu	-11.6852
hlédl	-11.6854
▁wimbledonské	-11.6855
vedou	-11.6855
▁prošel	-11.6857
nekonečně	-11.6859
▁nizozemské	-11.6859
▁vysokými	-11.6859
volnou	-11.686
▁příbuzných	-11.6861
▁islámský	-11.6861
▁provedena	-11.6861
▁politickými	-11.6863
▁lekto	-11.6864
▁devadesáti	-11.6864
▁vstupem	-11.6864
▁procentech	-11.6871
▁rodu	-11.6873
▁We	-11.6874
▁doprovázen	-11.6878
▁obecného	-11.688
▁nástupu	-11.688
▁podobá	-11.6881
▁stranick	-11.6882
▁zaměřený	-11.6883
▁útočníka	-11.6883
▁ploché	-11.6884
▁Ram	-11.6885
▁odnesl	-11.6888
▁základů	-11.6889
▁vypadal	-11.6893
▁tráví	-11.6893
▁rozhodčího	-11.6894
▁Fed	-11.6895
▁vytvořena	-11.6895
▁elektronick	-11.6895
▁Slovan	-11.6896
▁Spolkové	-11.6896
▁kurzu	-11.6896
▁strojní	-11.6898
▁Chyba	-11.6898
vým	-11.6899
▁odklad	-11.69
▁vkládat	-11.69
cová	-11.6901
▁strav	-11.6904
▁kanadské	-11.6904
jela	-11.6905
▁Morav	-11.6905
▁jednotný	-11.6905
hrají	-11.6906
▁strachu	-11.6907
pust	-11.6907
▁přebírá	-11.6909
▁uskutečnil	-11.6911
čov	-11.6912
▁vloží	-11.6914
▁záměrů	-11.6915
▁situacích	-11.6916
▁hrud	-11.6917
▁nebudeme	-11.692
▁kursy	-11.692
▁šetří	-11.6921
▁obličeje	-11.6922
ložil	-11.6923
▁důkladné	-11.6923
▁disků	-11.6929
▁pracovali	-11.6929
▁větr	-11.6929
▁chybné	-11.693
▁Zvýšen	-11.693
▁zaměřené	-11.6931
▁univerzitní	-11.6932
▁příčinu	-11.6933
▁čtvrtka	-11.6934
▁ROK	-11.6936
▁Vytvořen	-11.6936
▁textem	-11.6938
▁nebezpečím	-11.694
▁ženu	-11.694
▁Žen	-11.6942
▁následoval	-11.6946
▁specifick	-11.6948
▁nedávn	-11.6949
íků	-11.6954
▁telekomunikací	-11.6954
▁pružn	-11.6955
TON	-11.6956
▁Roy	-11.6957
▁spravedlivé	-11.6958
▁Dlouho	-11.6958
▁soudem	-11.6959
▁proslulé	-11.6963
▁večera	-11.6964
▁zdroji	-11.6965
potřebě	-11.6965
▁oblíbené	-11.6965
▁seznamy	-11.6967
▁účastníkům	-11.6967
zaměstnan	-11.6968
▁turistick	-11.6968
▁denním	-11.6969
▁váží	-11.6969
▁Mart	-11.6969
▁kazet	-11.6972
▁sudetský	-11.6972
▁dospělé	-11.6974
dání	-11.6976
▁oblastní	-11.6978
▁centrál	-11.6978
cestovat	-11.6979
▁připomínají	-11.6979
▁strategický	-11.698
▁patent	-11.6981
▁vyzvala	-11.6981
▁dodávají	-11.6984
▁přicházel	-11.6986
▁funkcemi	-11.6988
zvlášt	-11.6988
▁běže	-11.6988
▁Brněnsk	-11.699
▁Ir	-11.6991
▁Českomoravské	-11.6995
získaly	-11.6996
▁pacientům	-11.6996
lona	-11.6997
dent	-11.6999
▁řadí	-11.7
▁ryz	-11.7002
▁Budu	-11.7005
▁švýcarské	-11.7021
▁vrcholový	-11.7024
▁sloučenin	-11.7026
▁organizacích	-11.7028
▁dneška	-11.7029
▁učitele	-11.7029
▁Bab	-11.7031
▁poh	-11.7031
▁sdělila	-11.7033
▁Gorbačovov	-11.7034
▁svalové	-11.7035
▁SPR	-11.7035
▁vzácné	-11.7036
▁Společnosti	-11.7041
▁přímým	-11.7041
dotýká	-11.7045
▁zničil	-11.7045
kových	-11.7048
▁jižním	-11.7049
▁Siln	-11.705
▁zpracoval	-11.705
▁ministerský	-11.7053
▁trošk	-11.7057
▁všeobecném	-11.7061
▁faktu	-11.7062
▁jevu	-11.7063
nášejí	-11.7068
▁Pohled	-11.7073
▁mírov	-11.7078
▁teoretický	-11.7082
▁rozměr	-11.7085
▁mez	-11.7095
▁odstup	-11.7096
▁vrátila	-11.7097
▁Ph	-11.7097
▁rozdílem	-11.7098
▁vyvinut	-11.71
▁rozumný	-11.71
▁En	-11.7101
LN	-11.7104
▁naplněn	-11.7115
lob	-11.7116
enou	-11.7118
konkurenceschopn	-11.7119
EP	-11.712
▁muslimské	-11.7123
47	-11.7125
▁přispíva	-11.7141
▁půd	-11.7146
▁Toho	-11.715
▁příhod	-11.7152
▁stáli	-11.7161
nz	-11.7161
▁rozpadl	-11.7164
▁kultura	-11.7165
▁mužské	-11.7166
nin	-11.7168
▁kultur	-11.7169
▁ohlásil	-11.7175
▁DOS	-11.718
▁zakladatel	-11.718
▁zavře	-11.7184
▁počátk	-11.7189
▁pokusů	-11.719
▁možnou	-11.719
▁vítězné	-11.7194
▁pohraniční	-11.72
▁CAD	-11.72
▁veliká	-11.7203
▁založený	-11.7204
▁vaku	-11.7205
▁nesl	-11.7205
▁Cagiva	-11.7209
▁finančními	-11.721
▁lepším	-11.7213
▁Mitterrand	-11.7216
▁ovladač	-11.7216
▁Což	-11.7217
▁Finsko	-11.7218
▁včerejšk	-11.7219
▁velkoobchod	-11.7219
6,5	-11.7222
▁potu	-11.7223
▁dlužník	-11.7226
▁nabit	-11.7228
▁patřičn	-11.723
JE	-11.7231
▁fa	-11.7242
▁úspěchů	-11.7242
▁třídní	-11.7245
▁letním	-11.7249
▁výhoda	-11.7253
%.	-11.7259
▁Eli	-11.726
▁odběratel	-11.7261
▁hrazen	-11.7262
▁potravinářský	-11.7263
▁kupovat	-11.7266
▁oblíbený	-11.7269
▁dobro	-11.7273
▁kraji	-11.7278
▁soudy	-11.7278
▁žádal	-11.7281
ovku	-11.7285
▁světl	-11.7286
▁devatenácti	-11.7287
7,5	-11.7288
▁zvětš	-11.7288
▁autorské	-11.7289
dával	-11.729
ávání	-11.7292
▁zapomenut	-11.7293
▁uhlí	-11.7293
▁úraz	-11.7293
věří	-11.7294
zdrav	-11.7295
▁Dohod	-11.7301
vající	-11.7302
▁rozšířen	-11.7304
▁sovět	-11.7306
atel	-11.7306
▁přijímán	-11.731
▁léčebný	-11.7312
▁Kepler	-11.7314
▁zvýšený	-11.7315
kazuje	-11.7317
▁nejvyšším	-11.7319
▁psychiatr	-11.732
▁obměn	-11.733
▁Park	-11.7334
▁jednací	-11.7336
nejdůležitějších	-11.7336
▁Valn	-11.7337
▁dálkové	-11.7342
▁desáté	-11.7343
▁Atlant	-11.7346
▁sovětský	-11.7347
▁profesionál	-11.7351
potřeb	-11.7354
kování	-11.7354
▁miliardu	-11.7361
▁Van	-11.7362
ance	-11.7365
22	-11.7365
▁Giovanni	-11.7366
▁používaný	-11.7369
MW	-11.737
▁divok	-11.7371
▁zveřejněn	-11.7371
▁Poně	-11.7371
▁CP	-11.7372
rozuměj	-11.7373
▁žlutý	-11.7375
▁matematik	-11.738
ini	-11.7382
▁páry	-11.7382
▁Dudajev	-11.7383
▁RE	-11.7384
▁magnetické	-11.7385
33	-11.739
▁Nov	-11.739
▁KD	-11.7397
▁doporučují	-11.7402
▁zákonné	-11.7402
▁režie	-11.7406
▁přidružen	-11.7408
▁160	-11.7411
▁vydáván	-11.7412
čkem	-11.7415
pracovat	-11.7416
▁nalezl	-11.7418
▁choval	-11.7419
pír	-11.7419
▁sval	-11.7419
▁návštěvník	-11.7428
▁elektron	-11.7429
▁uvědom	-11.7437
vala	-11.7438
▁Mnichov	-11.7439
▁úhrad	-11.744
▁vlast	-11.7442
četné	-11.7443
▁úrokov	-11.7443
▁čte	-11.7447
IA	-11.7447
sadili	-11.7449
▁kosmický	-11.7451
▁Pravděpodobn	-11.7453
▁(18	-11.7455
hoře	-11.7456
▁Novým	-11.7458
nových	-11.7462
▁Fir	-11.7463
▁nemocnic	-11.7467
▁svazový	-11.7468
▁zlepšil	-11.7469
▁Knih	-11.747
▁met	-11.747
▁obřad	-11.7471
▁vyhlášk	-11.7472
▁hlasoval	-11.7472
▁úrok	-11.7476
rní	-11.7477
úpln	-11.7478
▁Podpor	-11.7479
▁Slovák	-11.748
dlouho	-11.748
▁vládním	-11.748
▁SN	-11.7483
▁profesí	-11.7484
▁otevřen	-11.7485
wan	-11.7487
uad	-11.7488
▁přijaté	-11.7489
▁žadatel	-11.7491
▁vyplývají	-11.7492
▁označí	-11.7493
stavení	-11.7494
▁potvrzen	-11.7495
▁slalom	-11.7496
▁inzerát	-11.7497
elice	-11.7497
▁mrtvé	-11.7498
může	-11.7499
▁ničem	-11.75
▁kongres	-11.7501
▁stoupenc	-11.7501
▁neschopnost	-11.7501
▁Excel	-11.7501
pracuje	-11.7504
▁příslušnost	-11.7506
▁Rom	-11.7507
▁Kovo	-11.7508
▁penzi	-11.7511
▁protokol	-11.7511
▁poslanecký	-11.7512
vodně	-11.7512
▁nosič	-11.7512
▁Mas	-11.7514
tzv	-11.7517
44	-11.7518
▁součin	-11.752
▁Zkus	-11.752
▁pamatuje	-11.752
▁neobvyklé	-11.752
běhne	-11.7523
▁zeleni	-11.7523
chlazení	-11.7523
▁databázový	-11.7525
▁fungují	-11.7525
▁světovým	-11.7526
▁kluk	-11.7526
▁probíhají	-11.7528
▁společenstv	-11.7529
▁uplatněn	-11.7529
▁schémat	-11.753
▁horko	-11.753
▁Gra	-11.753
pálil	-11.7531
▁obezit	-11.7531
▁ohrožuj	-11.7531
▁vyznačuj	-11.7532
▁příbuzné	-11.7533
100	-11.7533
▁Středisk	-11.7534
▁abeced	-11.7536
▁postihl	-11.7536
pravděpodobnosti	-11.7538
▁úsměv	-11.7539
▁náboženské	-11.7539
▁válečné	-11.7546
▁sediment	-11.7546
▁vlastníků	-11.7546
erie	-11.7548
▁Rychl	-11.7548
▁socialismu	-11.7548
▁prezidentov	-11.7549
▁polštář	-11.7549
▁rozhodnou	-11.755
▁světle	-11.7551
blížení	-11.7552
▁zkoumá	-11.7553
OJ	-11.7555
▁řešil	-11.7558
▁prodavač	-11.7559
▁Honecker	-11.7561
▁možným	-11.7561
FOR	-11.7563
▁Starost	-11.7563
▁uniká	-11.7563
▁intelektuál	-11.7563
▁Kovařík	-11.7563
▁MPEG	-11.7563
▁Nazarbajev	-11.7563
▁Vladislav	-11.7563
▁nejjednodušší	-11.7563
▁státoprávní	-11.7563
konvenční	-11.7563
trénoval	-11.7563
▁Agassi	-11.7563
▁Amerika	-11.7563
▁Galerie	-11.7563
▁Grimaux	-11.7563
▁Kredba	-11.7563
▁Lepší	-11.7563
▁Nejdůležitější	-11.7563
▁Palestinců	-11.7563
▁Podmínkou	-11.7563
▁Později	-11.7563
▁Přibliž	-11.7563
▁Suchopár	-11.7563
▁United	-11.7563
▁Vltavy	-11.7563
▁besedy	-11.7563
▁celoživotní	-11.7563
▁civilizace	-11.7563
▁dálniční	-11.7563
▁dívky	-11.7563
▁fanoušky	-11.7563
▁fungovat	-11.7563
▁heslem	-11.7563
▁impuls	-11.7563
▁interview	-11.7563
▁kampani	-11.7563
▁konfrontace	-11.7563
▁kontinuit	-11.7563
▁kritizuj	-11.7563
▁ledovců	-11.7563
▁licenční	-11.7563
▁můstku	-11.7563
▁nalézá	-11.7563
▁neobejde	-11.7563
▁nepřál	-11.7563
▁nečekané	-11.7563
▁nářadí	-11.7563
▁omezuje	-11.7563
▁onemocněl	-11.7563
▁otázkám	-11.7563
▁paprsky	-11.7563
▁pochlubit	-11.7563
▁pokaždé	-11.7563
▁poskytoval	-11.7563
▁prezentovat	-11.7563
▁problematické	-11.7563
▁předchůdce	-11.7563
▁půjdou	-11.7563
▁restituce	-11.7563
▁schůzce	-11.7563
▁spolehnout	-11.7563
▁televizí	-11.7563
▁usilovně	-11.7563
▁uskupení	-11.7563
▁videozáznam	-11.7563
▁vytvářel	-11.7563
▁zdůrazňují	-11.7563
▁zeptat	-11.7563
▁zveřejnit	-11.7563
▁Úspěch	-11.7563
▁Čtenář	-11.7563
▁špatná	-11.7563
▁štafet	-11.7563
▁Ženevě	-11.7563
OECD	-11.7563
▁Kambodž	-11.7563
▁Komory	-11.7563
▁doporučí	-11.7563
▁facto	-11.7563
▁nevyloučil	-11.7563
▁připouští	-11.7563
Science	-11.7563
▁Pokles	-11.7563
▁Začíná	-11.7563
▁omezil	-11.7563
▁organizované	-11.7563
▁policií	-11.7563
▁užitečný	-11.7563
▁Oblast	-11.7563
▁elektroniky	-11.7563
▁komplikuje	-11.7563
▁středeční	-11.7563
▁uprchlíků	-11.7563
▁financovat	-11.7563
▁skládky	-11.7563
▁vážnou	-11.7563
▁senzor	-11.7564
▁Růst	-11.7564
▁faul	-11.7564
▁sídliště	-11.7564
▁tržeb	-11.7564
▁večeři	-11.7564
▁lékárny	-11.7564
▁uvolní	-11.7564
▁potvrzují	-11.7564
▁lidovců	-11.7564
▁nemluvě	-11.7564
▁příslušenství	-11.7564
▁Ústřední	-11.7564
▁železa	-11.7564
▁značek	-11.7564
▁Basikov	-11.7564
▁Rabac	-11.7564
▁mozek	-11.7564
▁pečuj	-11.7564
▁přiblížil	-11.7564
▁střelbě	-11.7564
▁novoroční	-11.7564
▁emisní	-11.7564
▁zajímají	-11.7564
▁stěžoval	-11.7564
▁stříbra	-11.7564
▁Írán	-11.7564
▁statutární	-11.7564
▁Pakosta	-11.7564
▁zákonitě	-11.7564
▁Trestn	-11.7564
▁charit	-11.7564
▁zkuste	-11.7564
▁podvojné	-11.7564
▁ztratí	-11.7564
▁renomovan	-11.7564
▁rentabilit	-11.7564
▁svrchovaný	-11.7564
▁necítí	-11.7564
▁modernizace	-11.7564
▁obejít	-11.7564
▁papež	-11.7564
▁manipulaci	-11.7564
▁předpokládané	-11.7564
▁vybudován	-11.7564
▁rakve	-11.7564
▁mívá	-11.7564
▁unikátní	-11.7564
[...]
