<unk>	0
<s>	0
</s>	0
<doc>	0
</doc>	0
<head>	0
</head>	0
<phr>	0
</phr>	0
▁	-1.78648
,	-3.49245
.	-3.62058
u	-4.2492
a	-4.42377
i	-4.42936
m	-4.54573
▁a	-4.57671
▁v	-4.58855
y	-4.62205
▁se	-4.72007
▁na	-4.77407
ch	-4.99105
▁s	-5.22424
s	-5.22618
o	-5.24097
▁je	-5.25143
á	-5.267
▁z	-5.27517
í	-5.32762
e	-5.34333
ho	-5.38367
t	-5.3899
▁"	-5.44588
▁že	-5.50138
ů	-5.57835
é	-5.58876
▁do	-5.58876
▁po	-5.59013
ě	-5.62515
▁o	-5.63442
ž	-5.67881
▁za	-5.67997
em	-5.69594
▁pro	-5.72583
ou	-5.73559
z	-5.73877
d	-5.83779
l	-5.97513
to	-5.98041
v	-6.01568
▁-	-6.02767
ní	-6.03251
▁k	-6.0446
▁V	-6.04994
k	-6.09013
ně	-6.09994
p	-6.12374
ý	-6.15307
r	-6.18761
▁ve	-6.19262
mi	-6.19793
▁to	-6.20077
▁od	-6.23003
▁(	-6.23513
▁vy	-6.28265
ce	-6.31141
b	-6.31152
▁S	-6.32003
▁při	-6.32762
▁by	-6.33589
na	-6.34005
▁ne	-6.36127
li	-6.44481
▁ale	-6.45212
>	-6.4637
č	-6.47129
la	-6.48227
st	-6.48785
ých	-6.52052
ná	-6.53222
le	-6.53383
te	-6.54007
me	-6.54643
ka	-6.56029
▁si	-6.56388
ku	-6.56684
né	-6.58534
j	-6.59603
it	-6.60181
ci	-6.60539
n	-6.61031
▁jako	-6.62957
▁jsou	-6.63912
lo	-6.6763
š	-6.67978
▁které	-6.69033
c	-6.71266
h	-6.72837
x	-6.74874
)	-6.75342
▁však	-6.76829
▁Po	-6.7683
ové	-6.78955
▁tak	-6.80364
ky	-6.80777
▁:	-6.81715
uje	-6.83104
▁před	-6.84909
▁A	-6.88259
▁který	-6.88349
en	-6.93477
▁nebo	-6.95013
▁jeho	-6.97249
in	-6.97418
ře	-6.97977
ovat	-6.98006
▁bude	-6.98231
mu	-6.98489
ého	-6.99157
ni	-6.99559
f	-7.00528
g	-7.0089
?	-7.00924
no	-7.01459
▁Z	-7.0212
▁pře	-7.02168
vá	-7.03694
ek	-7.0411
▁jen	-7.04432
▁O	-7.05286
al	-7.07832
ro	-7.08026
nou	-7.08167
ze	-7.08577
ří	-7.08821
po	-7.09289
ru	-7.09556
▁K	-7.10176
▁Na	-7.10256
ný	-7.10436
ta	-7.10876
▁má	-7.12618
▁než	-7.13048
ech	-7.13809
▁už	-7.14307
▁jak	-7.14609
▁aby	-7.1716
ti	-7.18036
jí	-7.19655
il	-7.20611
že	-7.20687
ko	-7.207
ra	-7.20812
ování	-7.21062
▁P	-7.21067
▁byl	-7.23225
cí	-7.23443
vě	-7.2361
▁jejich	-7.24717
▁být	-7.25982
▁jsem	-7.26056
va	-7.27074
pl	-7.2731
ová	-7.28632
▁Je	-7.2911
▁až	-7.29277
ne	-7.30731
▁která	-7.30766
▁také	-7.31547
▁pod	-7.33519
or	-7.33623
▁podle	-7.3423
ných	-7.34415
▁jsme	-7.34733
ma	-7.3512
ř	-7.36086
lu	-7.37362
el	-7.39808
on	-7.4073
▁let	-7.40733
ým	-7.41861
▁roz	-7.42185
▁ob	-7.42249
▁co	-7.42428
▁mezi	-7.44303
ují	-7.44327
če	-7.44885
▁ze	-7.46302
ské	-7.46563
lá	-7.4781
▁není	-7.48477
ov	-7.48529
da	-7.48645
kou	-7.48691
S	-7.48834
▁Ne	-7.48854
ba	-7.49598
čí	-7.49906
▁své	-7.50526
▁již	-7.50602
D	-7.50801
ny	-7.5094
▁ani	-7.51048
je	-7.51297
▁bylo	-7.51621
vý	-7.52547
tu	-7.52597
vol	-7.52765
ách	-7.5353
▁D	-7.53645
▁či	-7.54109
▁ještě	-7.54177
▁M	-7.5445
ových	-7.55428
▁J	-7.55518
ň	-7.56216
▁když	-7.56283
děl	-7.56354
▁H	-7.57778
▁může	-7.5797
ři	-7.582
ost	-7.58375
▁korun	-7.588
ním	-7.59663
▁byla	-7.59744
kud	-7.61013
▁toho	-7.61142
at	-7.61334
ví	-7.62248
▁U	-7.62316
tě	-7.62318
/	-7.62724
▁bez	-7.64312
▁Do	-7.64467
▁To	-7.64722
ri	-7.64737
ům	-7.65385
tr	-7.65717
).	-7.66121
se	-7.66155
nu	-7.66333
er	-7.66387
▁další	-7.66848
▁B	-7.67993
▁pak	-7.68325
ty	-7.68715
ků	-7.69572
▁té	-7.70294
ly	-7.71326
▁kteří	-7.71839
▁kde	-7.72343
an	-7.72442
ha	-7.72641
▁tím	-7.73531
kr	-7.73536
1	-7.74882
▁více	-7.75622
P	-7.75752
ace	-7.76177
re	-7.77945
ší	-7.78152
▁tedy	-7.78152
de	-7.78538
▁první	-7.78559
vi	-7.78675
▁roku	-7.78681
▁F	-7.79278
ve	-7.80284
▁I	-7.81107
lí	-7.81207
▁G	-7.8135
cích	-7.81507
),	-7.8198
ného	-7.8237
▁nej	-7.82594
▁Za	-7.83061
hr	-7.83177
▁nich	-7.83189
nost	-7.83339
pe	-7.83553
▁nad	-7.83713
by	-7.84061
oval	-7.84337
ovi	-7.84345
▁ú	-7.84602
▁Pro	-7.84815
▁musí	-7.85511
od	-7.86052
▁kdy	-7.86693
ká	-7.87055
▁proti	-7.87073
2	-7.87689
▁mají	-7.87814
ních	-7.88022
ém	-7.88142
M	-7.91627
nější	-7.91676
I	-7.91694
6	-7.92312
ží	-7.92312
▁roce	-7.92551
▁pouze	-7.92783
ový	-7.92876
-	-7.93047
T	-7.9319
▁T	-7.94704
hl	-7.94769
▁tom	-7.95433
▁kon	-7.95497
bu	-7.95826
▁re	-7.95954
▁proto	-7.96056
či	-7.96083
▁budou	-7.96267
tra	-7.96389
▁tomu	-7.96556
▁de	-7.96687
▁C	-7.96851
▁ke	-7.97053
še	-7.97737
▁tu	-7.97957
▁vlastní	-7.98376
ry	-7.98473
ového	-7.98705
▁L	-7.98871
ení	-7.99004
▁Ko	-7.99229
pr	-7.99486
4	-7.99737
▁poslední	-8.00003
si	-8.00451
▁třeba	-8.00591
9	-8.00649
is	-8.00723
tá	-8.00767
ální	-8.00864
5	-8.0088
kon	-8.00942
du	-8.01299
ských	-8.01472
▁protože	-8.01929
tí	-8.02306
▁přes	-8.02336
ot	-8.026
▁totiž	-8.02643
▁lze	-8.03715
▁nás	-8.0407
aci	-8.04232
▁Š	-8.04278
▁Při	-8.04527
ovou	-8.05802
co	-8.06098
N	-8.06159
kem	-8.06272
▁19	-8.06715
▁asi	-8.06802
stup	-8.07028
ská	-8.07174
osti	-8.07311
▁její	-8.07567
us	-8.07579
ným	-8.07876
ově	-8.08143
pra	-8.08147
val	-8.08163
stav	-8.08376
▁li	-8.08388
C	-8.08454
lé	-8.08513
dy	-8.08576
7	-8.0859
B	-8.08638
0	-8.09451
▁ji	-8.09995
▁velmi	-8.10108
dí	-8.10209
vod	-8.10209
▁byly	-8.10361
3	-8.10632
▁zatím	-8.10701
▁měl	-8.10815
▁řekl	-8.10994
za	-8.1119
zí	-8.11443
ši	-8.13385
pa	-8.13446
str	-8.14012
▁nám	-8.14088
hu	-8.14162
et	-8.14343
ické	-8.14392
▁Ve	-8.14573
ční	-8.14767
vat	-8.14779
V	-8.14824
▁dva	-8.14954
vo	-8.14966
ující	-8.15161
vy	-8.15203
▁E	-8.15301
▁včera	-8.15394
▁tisíc	-8.1585
án	-8.15904
ců	-8.15928
bě	-8.16775
▁3	-8.17096
dr	-8.17144
ol	-8.17423
ský	-8.17476
ami	-8.17528
lou	-8.18393
R	-8.18558
ur	-8.19087
ím	-8.19295
ar	-8.19416
▁dnes	-8.1953
▁všech	-8.19576
▁pří	-8.19834
nosti	-8.20148
▁firmy	-8.20794
▁něm	-8.22146
K	-8.23044
▁především	-8.23099
ích	-8.23596
O	-8.23723
▁Jak	-8.24126
ili	-8.24485
ter	-8.24821
os	-8.25441
▁případě	-8.25656
▁dvou	-8.25918
ání	-8.26173
sti	-8.26315
▁'	-8.26446
▁například	-8.26504
▁Co	-8.26684
▁rok	-8.27214
8	-8.27376
ila	-8.27849
▁procent	-8.27935
ec	-8.28183
ček	-8.28719
▁mít	-8.28775
spo	-8.28887
▁jim	-8.28921
vr	-8.28988
A	-8.29021
ského	-8.29071
ám	-8.29651
ního	-8.30057
▁době	-8.30111
▁tři	-8.30359
▁nyní	-8.30521
ji	-8.30892
▁zda	-8.31153
per	-8.33156
právě	-8.3319
▁ty	-8.33227
w	-8.34278
rod	-8.34447
▁Ma	-8.34505
ob	-8.35278
ací	-8.35382
▁představ	-8.35398
▁mohou	-8.35404
▁lidí	-8.35508
ť	-8.35759
▁nez	-8.35826
▁jeden	-8.35842
▁práce	-8.35843
▁společnosti	-8.35862
fi	-8.36341
ými	-8.36413
▁stále	-8.36457
há	-8.36602
té	-8.3666
▁těchto	-8.37062
ství	-8.37089
▁ovšem	-8.37187
U	-8.37193
▁všechny	-8.37479
ova	-8.37902
▁mě	-8.38081
nout	-8.38208
▁Podl	-8.3821
dob	-8.3825
cela	-8.3942
▁několik	-8.39557
▁nové	-8.40119
...	-8.40341
▁Ale	-8.40539
▁Tak	-8.41104
▁W	-8.41212
▁4	-8.41347
man	-8.41415
E	-8.41537
▁kterou	-8.41566
▁což	-8.42339
sp	-8.42438
itel	-8.42765
sta	-8.42962
▁větší	-8.43244
br	-8.43493
▁R	-8.43594
klad	-8.44
ští	-8.44349
▁tento	-8.44374
▁Od	-8.44804
L	-8.45002
es	-8.45542
mat	-8.45592
pat	-8.46016
ační	-8.46178
rad	-8.46345
▁jiné	-8.46395
cen	-8.46624
▁možné	-8.4664
ven	-8.46695
▁jednání	-8.46714
nik	-8.46747
ované	-8.46787
▁zákon	-8.47104
vedl	-8.47582
▁stát	-8.47733
▁České	-8.4788
▁dalších	-8.48674
ič	-8.48739
▁Mo	-8.48873
▁Bo	-8.49024
ají	-8.49161
plat	-8.49286
▁Vy	-8.49778
ovali	-8.49814
▁svět	-8.49917
▁Se	-8.50162
Z	-8.50227
▁10	-8.50679
Á	-8.5121
▁ČR	-8.51227
form	-8.51285
žen	-8.51391
▁naše	-8.51398
▁měla	-8.51421
ář	-8.51421
▁kdo	-8.51486
▁N	-8.51636
▁Praze	-8.51985
ú	-8.51992
nit	-8.52076
ice	-8.52479
▁nevy	-8.52523
▁zejména	-8.52576
▁Ch	-8.52802
téměř	-8.52981
pis	-8.53054
op	-8.53359
▁zařízení	-8.5338
▁základní	-8.5364
▁svou	-8.53655
▁neu	-8.5371
sk	-8.53712
▁část	-8.54043
lit	-8.54073
▁mu	-8.541
ing	-8.54266
▁nepo	-8.54887
▁výkon	-8.54921
do	-8.55031
▁Ta	-8.55393
▁Proto	-8.5545
ovala	-8.55605
▁strany	-8.5605
▁systém	-8.56364
ga	-8.56421
▁program	-8.56439
▁pa	-8.5654
▁možnost	-8.56565
ník	-8.56577
hled	-8.57245
▁prostředí	-8.57394
▁naši	-8.57431
F	-8.57792
▁letech	-8.5819
▁země	-8.58256
let	-8.58271
▁%	-8.58307
ali	-8.58333
▁Te	-8.58604
▁čas	-8.58658
▁jde	-8.58717
▁dvě	-8.59135
▁Kdy	-8.59141
▁sice	-8.59263
▁svého	-8.59273
▁nedo	-8.59422
ant	-8.59423
kov	-8.59567
▁každý	-8.60005
sko	-8.60289
▁svých	-8.6046
hy	-8.61124
▁tam	-8.61281
stal	-8.61719
▁nejen	-8.61793
sku	-8.62226
▁místo	-8.625
▁postup	-8.63201
▁osob	-8.6386
▁mo	-8.63927
▁obchodní	-8.64223
čka	-8.64271
▁uvedl	-8.6446
▁vše	-8.64638
dní	-8.64713
▁tomto	-8.6475
:	-8.64766
be	-8.64855
▁světa	-8.65002
ge	-8.65064
▁5	-8.65109
▁Ro	-8.65118
▁zde	-8.65972
▁prezident	-8.66298
ste	-8.66508
▁Ob	-8.66585
▁druhé	-8.66784
jde	-8.66828
ik	-8.67141
čin	-8.67174
▁způsob	-8.67179
skou	-8.67283
▁ministr	-8.67634
men	-8.6788
rn	-8.67962
▁Mi	-8.68376
▁milionů	-8.68503
▁hodin	-8.68621
00	-8.68655
vní	-8.693
▁sociální	-8.69669
▁něco	-8.6974
▁svým	-8.69868
▁vlády	-8.69908
▁nes	-8.70084
▁Re	-8.70242
ed	-8.70605
▁sto	-8.7083
▁Pa	-8.7087
ver	-8.70916
▁000	-8.70956
as	-8.71099
▁škol	-8.7115
▁stejně	-8.71371
▁říká	-8.71618
ev	-8.71698
rů	-8.71734
nov	-8.71765
▁závod	-8.72156
up	-8.72167
▁nic	-8.72548
▁pracovní	-8.72553
▁některé	-8.72957
gr	-8.72986
▁kolem	-8.73043
zn	-8.73669
▁ceny	-8.74031
▁zboží	-8.74461
▁stran	-8.74742
▁zákona	-8.74752
ovým	-8.75385
▁Č	-8.75391
▁Jan	-8.75421
zen	-8.75595
ad	-8.75625
%	-8.75633
▁pět	-8.75816
▁opět	-8.76112
▁oblasti	-8.76461
rt	-8.76478
▁začal	-8.76651
▁pan	-8.76747
▁části	-8.76825
▁dobře	-8.76917
▁příliš	-8.76954
nice	-8.77004
▁patří	-8.77135
▁finanční	-8.77617
▁několika	-8.77637
ější	-8.77694
▁svůj	-8.77789
▁dosud	-8.77816
▁Pr	-8.77943
▁návrh	-8.78051
álně	-8.78163
▁některých	-8.78169
ment	-8.78357
▁práci	-8.7847
▁firma	-8.7881
ovací	-8.78883
▁zemí	-8.78969
nění	-8.79289
kl	-8.79383
▁domácí	-8.79498
mluv	-8.79575
▁6	-8.7958
Í	-8.79621
nes	-8.79725
▁vůbec	-8.7984
▁Le	-8.80381
olog	-8.80561
▁film	-8.80666
▁vždy	-8.80845
rán	-8.80922
sky	-8.80938
kové	-8.81015
▁půl	-8.81242
id	-8.81363
ických	-8.81389
▁období	-8.81583
ilo	-8.81756
▁byli	-8.81969
▁stav	-8.82286
por	-8.82313
▁neboť	-8.82444
ském	-8.82484
ován	-8.8257
▁výstav	-8.82626
▁největší	-8.82643
▁státní	-8.82701
▁ex	-8.8292
▁ten	-8.82924
▁zájem	-8.8297
ber	-8.83244
čet	-8.83766
▁zahraniční	-8.83785
tní	-8.83843
▁letošní	-8.84074
▁velký	-8.84078
▁sebe	-8.84192
▁obraz	-8.84258
ném	-8.84371
krát	-8.84444
▁Al	-8.84531
▁2	-8.84735
▁spolu	-8.85176
▁české	-8.85227
▁chyb	-8.8525
▁bo	-8.85402
▁rozdíl	-8.8555
▁nejsou	-8.85897
▁cen	-8.86158
▁sta	-8.86185
měř	-8.86199
bou	-8.86222
▁často	-8.86233
▁byt	-8.86245
▁Kr	-8.86288
▁1	-8.86458
▁vyšší	-8.86531
Č	-8.8655
▁projekt	-8.86634
▁střední	-8.86866
▁velké	-8.87002
▁nemá	-8.87058
▁dá	-8.87076
▁Pří	-8.87117
▁neza	-8.87274
ák	-8.8729
potřeb	-8.87547
pro	-8.87654
ic	-8.87771
nými	-8.87812
rat	-8.87863
▁20	-8.87914
G	-8.87931
▁hor	-8.88023
▁dokonce	-8.8812
▁USA	-8.8813
ck	-8.88137
▁systému	-8.88205
▁čtyř	-8.88279
▁Ú	-8.88279
▁Má	-8.88353
▁jste	-8.88525
▁jedn	-8.88759
▁věd	-8.88821
dat	-8.88922
nil	-8.88981
▁In	-8.89113
▁společnost	-8.89124
▁přímo	-8.89158
▁vz	-8.89234
iště	-8.89254
dal	-8.89268
tur	-8.89343
▁Před	-8.89483
▁nejlepší	-8.89631
jší	-8.8968
▁di	-8.89869
▁Ty	-8.89944
▁kom	-8.90164
▁sám	-8.90281
▁prodej	-8.90299
stoupil	-8.90399
ig	-8.90446
▁čtyři	-8.90609
▁měli	-8.90649
▁jež	-8.90668
▁třetí	-8.90805
▁lidé	-8.90825
▁Kč	-8.90837
dl	-8.90842
▁problém	-8.90865
jezd	-8.90919
čení	-8.90952
▁celé	-8.91015
▁ředitel	-8.9103
▁nemoc	-8.91147
během	-8.91518
▁počet	-8.91597
▁nebude	-8.91719
rát	-8.91785
iz	-8.91905
▁doby	-8.91934
ovaných	-8.92165
▁slov	-8.92217
▁St	-8.92279
▁1992	-8.92334
▁rovněž	-8.92339
níci	-8.92377
kol	-8.92392
▁snad	-8.92426
▁Js	-8.92528
▁Pod	-8.92536
▁kontrol	-8.92771
▁Ka	-8.92868
les	-8.93097
▁informace	-8.9312
▁níž	-8.93469
tek	-8.93538
▁Ná	-8.93659
var	-8.93683
ul	-8.93689
▁Ho	-8.93708
▁obchod	-8.93722
ran	-8.93812
▁trhu	-8.93847
▁tří	-8.93851
▁První	-8.93935
ér	-8.93948
▁život	-8.9403
▁nimi	-8.94103
▁vám	-8.94182
šel	-8.94308
▁soud	-8.94457
vůli	-8.94461
▁mnoho	-8.94593
metr	-8.94706
včetně	-8.94724
▁den	-8.94758
▁mohl	-8.94765
▁trh	-8.94875
zřejmě	-8.94973
▁vod	-8.94983
▁situace	-8.95112
▁takže	-8.95363
brán	-8.9546
▁model	-8.95531
▁boj	-8.95583
▁obě	-8.95621
ang	-8.95812
▁pohyb	-8.95816
H	-8.95823
▁zápas	-8.95894
▁zahraničí	-8.9592
▁řád	-8.95926
ště	-8.96047
pt	-8.96265
ska	-8.96655
tato	-8.96899
▁případ	-8.96983
▁18	-8.96991
▁podnik	-8.97002
go	-8.97062
▁životní	-8.97462
ložit	-8.97551
▁text	-8.97575
gen	-8.97581
▁méně	-8.97947
ón	-8.98234
vání	-8.98345
▁současné	-8.98711
nutí	-8.98747
ď	-8.9875
▁Evropy	-8.98801
▁peníze	-8.98801
▁vyh	-8.98812
▁řešení	-8.98876
hlav	-8.98965
ická	-8.99095
▁trenér	-8.99219
▁vedení	-8.99556
▁takové	-8.9959
▁např	-8.99647
▁Zatím	-8.99664
▁víc	-8.9969
ovém	-8.99736
▁dohod	-8.99893
▁nový	-9.00091
fe	-9.00322
▁něj	-9.00357
▁jedna	-9.00358
ak	-9.00525
▁dost	-9.00632
dle	-9.00665
▁význam	-9.00751
íme	-9.00828
▁podíl	-9.00836
res	-9.00861
ala	-9.00928
▁způsobem	-9.00963
▁plat	-9.00984
▁chce	-9.01026
▁Nej	-9.01135
kách	-9.01296
▁nemůže	-9.01404
▁člověk	-9.01422
ner	-9.01538
voz	-9.01586
▁Da	-9.01685
bud	-9.0171
▁spíše	-9.01807
▁díl	-9.01907
▁vstup	-9.01914
ač	-9.01921
pad	-9.0199
▁kole	-9.02019
▁Tr	-9.02066
▁15	-9.02155
▁dále	-9.02159
▁republiky	-9.02164
he	-9.0226
▁Vý	-9.02488
jištěn	-9.02628
▁neměl	-9.0273
znal	-9.02783
▁mezinárodní	-9.02804
▁člen	-9.02816
dra	-9.02952
▁navíc	-9.0307
▁přitom	-9.03122
▁rozhodnutí	-9.03149
▁Li	-9.03222
▁12	-9.0348
▁jedno	-9.03482
▁návštěv	-9.03495
rob	-9.03804
▁šest	-9.03873
▁znamená	-9.03928
▁obyvatel	-9.03941
▁dobu	-9.03968
▁vlastně	-9.04021
▁dostal	-9.04145
ková	-9.0417
raz	-9.0422
▁mimo	-9.04418
▁jednotlivý	-9.04418
▁jednoho	-9.04438
▁problémy	-9.04628
▁prostor	-9.04745
ST	-9.04752
▁naopak	-9.04826
▁znovu	-9.04838
▁plán	-9.04869
čky	-9.04936
▁konce	-9.05226
nské	-9.05239
▁množství	-9.05271
ající	-9.05495
bl	-9.05644
nt	-9.05985
ému	-9.06015
ického	-9.06021
viz	-9.06212
▁provoz	-9.06302
▁odbor	-9.06762
▁jaké	-9.06764
▁pohled	-9.06817
mysl	-9.0682
gu	-9.06934
▁míst	-9.07119
▁skutečně	-9.07186
▁obsah	-9.07249
dává	-9.07383
▁Petr	-9.07453
▁města	-9.07464
▁partner	-9.07522
▁naší	-9.07609
and	-9.07657
ten	-9.07671
▁nebyl	-9.07676
▁vyp	-9.07878
▁platí	-9.07966
▁většinou	-9.07977
▁straně	-9.0807
▁určen	-9.08111
▁ostatní	-9.08211
▁základ	-9.08408
▁zhruba	-9.08436
kla	-9.08615
nici	-9.08868
▁1.	-9.08881
▁vývoj	-9.08988
ené	-9.09047
šlo	-9.09068
▁svém	-9.09186
▁dlouho	-9.0935
jem	-9.09464
▁list	-9.09728
▁plyn	-9.09748
ir	-9.1019
▁území	-9.10293
ČS	-9.10476
▁řízení	-9.10548
▁deset	-9.10568
▁tr	-9.10579
▁Jiří	-9.10767
měr	-9.10827
▁jiných	-9.10875
vést	-9.10959
tisk	-9.11019
NÍ	-9.11055
▁čtvrt	-9.11143
▁nelze	-9.11237
▁málo	-9.11238
▁minut	-9.11242
▁celý	-9.11254
▁důvod	-9.11332
fr	-9.11434
vede	-9.11573
▁firem	-9.1171
▁bych	-9.11799
▁Zá	-9.12182
▁skupin	-9.12211
nek	-9.12385
▁zase	-9.12408
nese	-9.12551
▁změn	-9.12573
▁Mar	-9.12634
▁jej	-9.12788
bývá	-9.12814
▁letos	-9.12835
ický	-9.13075
▁smlouvy	-9.13143
▁tzv	-9.13216
▁dolarů	-9.13217
bor	-9.13245
▁vláda	-9.13447
▁nepři	-9.13666
▁vedoucí	-9.13682
ovo	-9.1375
ily	-9.13751
▁moc	-9.13772
inter	-9.1393
hal	-9.14015
▁právní	-9.1408
koli	-9.14125
kul	-9.14247
▁Václav	-9.14367
▁kam	-9.14548
▁jedné	-9.14617
▁mnoh	-9.14743
lin	-9.1485
▁pomocí	-9.1495
ca	-9.14983
▁Rad	-9.1499
▁pěti	-9.15051
▁lepší	-9.15096
▁žádné	-9.15122
▁krok	-9.15257
čil	-9.15264
ud	-9.15355
ovaly	-9.1558
▁druhý	-9.15592
▁metod	-9.15596
▁Byl	-9.15835
nem	-9.1607
▁pražské	-9.16142
▁roky	-9.16145
pol	-9.1619
▁činnosti	-9.16195
nul	-9.16245
▁prohlásil	-9.1625
tů	-9.16418
dů	-9.16462
ává	-9.16563
▁fa	-9.16682
▁neo	-9.1672
aj	-9.16823
ována	-9.16897
▁prav	-9.16988
▁Přesto	-9.17194
▁sil	-9.17434
▁dál	-9.17451
ovaný	-9.1746
RA	-9.17571
▁majitel	-9.17577
▁Další	-9.17577
tře	-9.17605
▁klub	-9.17677
sil	-9.18011
▁znám	-9.18049
▁vás	-9.18118
▁různých	-9.18133
▁obou	-9.18251
▁jednou	-9.18275
▁světě	-9.18293
▁100	-9.18297
ok	-9.18514
▁později	-9.18593
▁Ba	-9.18627
ele	-9.18638
▁americké	-9.18814
▁občan	-9.1895
▁hlavní	-9.19158
▁Gr	-9.19178
▁oba	-9.19269
mír	-9.19294
tor	-9.1935
▁republik	-9.19453
▁chod	-9.19544
▁An	-9.19725
atel	-9.19738
▁západní	-9.19812
▁Lu	-9.1982
bar	-9.19836
▁můžete	-9.19851
▁získal	-9.19974
▁ČSFR	-9.20128
▁zdravotní	-9.20128
▁týden	-9.20129
▁menší	-9.20141
blíž	-9.20233
▁Tento	-9.20367
fo	-9.2043
dom	-9.20463
▁státu	-9.20495
▁30	-9.20609
ujeme	-9.20788
▁polovin	-9.20816
▁člověka	-9.21064
▁Evropě	-9.21167
▁bývalé	-9.2124
▁dr	-9.21285
ren	-9.21389
▁živ	-9.21458
vin	-9.21528
▁já	-9.21673
▁svobod	-9.21691
▁století	-9.21691
▁tým	-9.21783
rop	-9.2179
▁programu	-9.21809
slov	-9.22001
iny	-9.22085
▁služby	-9.22217
▁skupiny	-9.22253
J	-9.22254
▁Pře	-9.22313
vou	-9.22319
▁autor	-9.22326
▁podniku	-9.22477
dit	-9.22515
▁věci	-9.22688
▁činnost	-9.22712
▁hlas	-9.22782
▁11	-9.22817
šení	-9.22865
nský	-9.23084
šti	-9.23246
▁funkce	-9.23278
▁úspěch	-9.23278
▁jinak	-9.23286
▁teplot	-9.2329
▁prý	-9.23403
▁CD	-9.23443
▁16	-9.23452
ster	-9.23501
▁názor	-9.23528
mer	-9.23589
▁led	-9.23612
▁hra	-9.23742
▁rychle	-9.23786
ární	-9.23844
▁účast	-9.23887
▁fakt	-9.23908
pracovat	-9.23965
ící	-9.23975
▁zároveň	-9.24008
▁mělo	-9.24212
pen	-9.2423
▁De	-9.24275
▁situaci	-9.24351
▁kart	-9.24427
▁večer	-9.24547
dvacet	-9.24613
pokoj	-9.2476
▁nových	-9.24849
▁dnešní	-9.24893
žení	-9.24909
▁dobré	-9.24917
▁výhod	-9.25158
kli	-9.25409
▁připraven	-9.25435
▁obr	-9.25435
▁možná	-9.25435
▁snímku	-9.25439
del	-9.25534
tvo	-9.25567
▁nep	-9.25632
▁Ž	-9.25712
len	-9.25729
▁oprav	-9.25867
▁náklady	-9.25882
zo	-9.25927
tem	-9.26017
▁tvrdí	-9.26042
▁materiál	-9.26077
zv	-9.26088
▁projev	-9.26163
▁stojí	-9.26205
▁přesto	-9.26336
▁rodin	-9.26388
vil	-9.26461
▁stejné	-9.26525
nos	-9.26579
▁malé	-9.268
▁prvním	-9.26804
▁správ	-9.26832
▁Me	-9.26953
vali	-9.26965
▁politické	-9.27088
▁titul	-9.27093
der	-9.27107
tivní	-9.27111
▁pořád	-9.27353
ským	-9.27384
ES	-9.2751
▁máme	-9.27546
▁La	-9.27583
ó	-9.27633
▁1993	-9.27638
▁děti	-9.2764
▁Ten	-9.27846
▁podporu	-9.27873
▁test	-9.28139
▁mohli	-9.28147
▁ztrát	-9.28201
▁ochran	-9.28205
▁měly	-9.28245
▁7	-9.2829
▁stud	-9.2838
▁získat	-9.28759
▁Praha	-9.2876
▁místní	-9.28782
▁cenu	-9.28845
ův	-9.2911
▁13	-9.2914
lep	-9.29229
▁Ti	-9.29243
graf	-9.29254
ovány	-9.29467
átor	-9.29558
bychom	-9.29709
▁bod	-9.29742
hn	-9.29796
▁určité	-9.29847
▁17	-9.29883
▁majetku	-9.29892
▁dokument	-9.29893
▁nakonec	-9.29893
▁států	-9.29979
▁osm	-9.30083
▁poměr	-9.30138
▁deseti	-9.30155
▁všechno	-9.30166
▁objev	-9.30182
▁těch	-9.30269
▁toto	-9.30285
▁Ha	-9.30411
▁rozhodl	-9.3047
▁nikdy	-9.30477
alo	-9.30563
ké	-9.30582
den	-9.30896
kor	-9.30952
išť	-9.31332
▁premiér	-9.31416
▁14	-9.31418
kládá	-9.3146
kami	-9.31566
▁25	-9.31584
▁střed	-9.31592
▁skončil	-9.31619
▁výši	-9.31626
▁Ze	-9.3188
jedná	-9.31937
▁podniků	-9.32021
▁porad	-9.32033
▁papír	-9.32214
▁ode	-9.32255
▁pár	-9.32279
▁9	-9.32417
▁fond	-9.32522
000	-9.32668
▁novin	-9.32725
▁souhlas	-9.32782
▁manžel	-9.32784
▁vliv	-9.32892
ance	-9.32899
▁dříve	-9.32917
NA	-9.33021
lem	-9.33214
▁příprav	-9.33377
▁dne	-9.33488
din	-9.33507
počíta	-9.33515
▁nového	-9.33536
nka	-9.33664
nic	-9.33713
CH	-9.3374
Š	-9.33842
▁akci	-9.33863
ici	-9.33943
▁sobotu	-9.33962
▁Prahy	-9.33963
▁vů	-9.33975
▁místě	-9.34023
▁možnosti	-9.34129
ovalo	-9.34208
▁zdá	-9.34219
▁vody	-9.34279
ností	-9.34316
▁nutné	-9.34559
▁lety	-9.34722
▁kdyby	-9.34726
▁stanov	-9.34812
tky	-9.3488
▁osobní	-9.34968
chází	-9.35004
lek	-9.35087
▁Jelcin	-9.35157
zení	-9.35178
▁efekt	-9.35309
ško	-9.35311
80	-9.35325
hle	-9.35333
ňuje	-9.3538
ct	-9.35694
▁post	-9.35707
▁nepře	-9.35784
držel	-9.3579
▁proč	-9.35869
▁starost	-9.35894
▁Cen	-9.36042
▁stavu	-9.36087
▁parlamentu	-9.36101
myšlen	-9.36229
▁zisk	-9.36374
▁účel	-9.36403
ření	-9.3673
lů	-9.36742
▁předseda	-9.36769
lid	-9.36837
▁svaz	-9.36898
▁ministerstva	-9.36975
▁všem	-9.37036
▁zemi	-9.37216
▁bychom	-9.37219
pit	-9.37313
uji	-9.37356
DA	-9.37396
▁telefon	-9.374
py	-9.37418
▁vítěz	-9.37567
ton	-9.3763
▁přece	-9.37689
fer	-9.37731
ence	-9.37797
▁Tato	-9.38187
▁informací	-9.38205
▁organizace	-9.38205
▁všichni	-9.38205
▁policie	-9.38205
▁samozřejmě	-9.3829
▁akce	-9.3833
▁potom	-9.3833
▁přístup	-9.38738
▁spojen	-9.38816
▁pokles	-9.38828
▁nikdo	-9.38835
▁Ku	-9.38848
▁jednot	-9.3886
▁můžeme	-9.39127
▁Rusk	-9.39161
hla	-9.39257
▁Není	-9.39306
▁poté	-9.39353
slav	-9.39416
▁Klaus	-9.39452
isté	-9.39488
▁hlavně	-9.39508
▁trval	-9.3958
▁poměrně	-9.39701
nebo	-9.39747
race	-9.39789
▁Kromě	-9.40081
▁nižší	-9.40081
▁českých	-9.40113
▁zas	-9.40281
▁vět	-9.40361
šli	-9.40415
vu	-9.40478
ivé	-9.40494
kovi	-9.40504
OS	-9.40513
▁věcí	-9.4061
▁sdružení	-9.40713
trochu	-9.40714
zdrav	-9.40717
počítá	-9.4072
šť	-9.40726
▁původní	-9.40766
▁doprav	-9.40768
▁dodal	-9.4077
▁8	-9.40782
▁schopn	-9.40797
▁dvěma	-9.40887
van	-9.40889
stran	-9.40919
ij	-9.40939
▁tvrd	-9.41004
port	-9.41125
▁prezidenta	-9.4134
▁něho	-9.41559
prve	-9.41605
▁příští	-9.41617
▁pu	-9.41783
▁prv	-9.41823
▁Br	-9.41839
▁SSSR	-9.41991
▁sobě	-9.4201
kat	-9.42219
icky	-9.42247
▁vys	-9.4235
▁Jana	-9.4242
prostřed	-9.42425
nc	-9.42467
▁cena	-9.42516
býval	-9.42522
▁200	-9.42527
jev	-9.42537
nci	-9.42581
▁prohlášení	-9.42636
▁Mezi	-9.42668
▁kap	-9.42709
▁50	-9.42935
▁her	-9.42939
▁zákazník	-9.42966
osud	-9.43065
▁podmínky	-9.43286
▁kromě	-9.43286
▁komise	-9.43287
▁Jestli	-9.43288
▁někdy	-9.43289
▁úvěr	-9.43296
stavit	-9.43314
▁Jako	-9.43415
tit	-9.43461
Ž	-9.43462
▁výrazně	-9.43528
ovaná	-9.43572
jící	-9.43598
par	-9.43831
ovy	-9.43859
▁Du	-9.43877
▁zásad	-9.43933
▁šéf	-9.4394
▁posl	-9.4398
OV	-9.44036
▁spoj	-9.44094
izace	-9.44158
ané	-9.44299
dním	-9.44331
▁budov	-9.44336
▁pís	-9.44347
▁základě	-9.44457
▁služeb	-9.44597
▁výroby	-9.44598
▁zemích	-9.4461
▁pre	-9.44794
ard	-9.44967
▁došlo	-9.45148
▁Evropské	-9.45152
jich	-9.45194
▁většina	-9.4526
▁čtenář	-9.4526
▁Morav	-9.45276
▁založen	-9.45354
▁vzor	-9.45436
cké	-9.45567
▁růst	-9.45889
▁čím	-9.45961
nické	-9.45962
ion	-9.46106
▁rád	-9.46201
▁dat	-9.46301
dla	-9.46354
ickou	-9.46414
▁důsled	-9.46452
▁Di	-9.46564
▁samostatn	-9.46597
▁hned	-9.46616
byl	-9.46726
▁Ar	-9.46898
bal	-9.46981
▁práv	-9.47001
▁místa	-9.47037
star	-9.47139
ostí	-9.47146
št	-9.47189
▁1991	-9.47273
▁peněz	-9.47274
▁tvoří	-9.47291
▁nejvyšší	-9.47409
▁host	-9.4751
▁dalším	-9.47544
čku	-9.47549
▁měst	-9.4755
▁miliard	-9.47645
▁šesti	-9.47647
▁pomoc	-9.47661
▁objekt	-9.47737
▁syn	-9.47765
ika	-9.4777
▁mnoha	-9.4779
cký	-9.47797
▁jich	-9.47805
▁vyz	-9.47879
▁soubor	-9.47885
▁výbor	-9.47901
▁tehdy	-9.47953
▁povrch	-9.47962
▁rozpočtu	-9.47965
▁jistě	-9.47968
▁života	-9.48025
▁pokus	-9.48058
▁uměl	-9.48135
▁sedm	-9.48351
19	-9.48416
lat	-9.48456
▁start	-9.48543
▁struktur	-9.48638
▁vysoké	-9.48639
▁bank	-9.4876
▁hry	-9.48918
▁samo	-9.48983
▁nepro	-9.48989
▁nějak	-9.49032
▁muž	-9.49065
▁český	-9.49179
▁dosavadní	-9.49328
▁vyhrál	-9.49328
▁vítězství	-9.49354
▁teď	-9.49369
žije	-9.4957
inu	-9.49586
▁pla	-9.49604
▁takový	-9.49636
▁div	-9.4967
mohlo	-9.49786
▁milionu	-9.49855
▁úřad	-9.49934
▁východní	-9.49965
▁prosince	-9.50022
▁uživatel	-9.50022
▁poprvé	-9.50028
▁ploch	-9.50032
▁prostředky	-9.50043
▁Čí	-9.50109
▁úkol	-9.5011
▁nebylo	-9.50141
▁rychlost	-9.50164
nky	-9.50164
▁Že	-9.50175
▁nena	-9.50222
proti	-9.50223
▁chtěl	-9.50288
▁členů	-9.50351
▁lev	-9.50483
mohla	-9.50486
▁polo	-9.50496
ismus	-9.50566
ismu	-9.50568
▁trest	-9.50591
▁konkrétní	-9.50722
▁unie	-9.50737
díky	-9.50865
▁neod	-9.50879
▁přijat	-9.50913
▁vznik	-9.51025
▁mal	-9.51048
▁40	-9.51097
▁žádný	-9.5123
ide	-9.51381
▁spolupráci	-9.51426
▁výsledky	-9.51426
znamenal	-9.51426
▁opatření	-9.51426
▁zůstal	-9.51432
▁úprav	-9.51432
▁teprve	-9.51453
▁disk	-9.5155
▁spor	-9.51563
▁podnikatel	-9.51572
óz	-9.5159
▁rozvoj	-9.51666
řad	-9.51684
▁Sta	-9.51807
▁malý	-9.51911
nk	-9.52101
oč	-9.52112
▁sezón	-9.52141
pas	-9.52235
▁světové	-9.5259
un	-9.52596
▁kal	-9.52633
dání	-9.52664
▁jejím	-9.52678
zem	-9.52716
▁ODS	-9.52807
▁prakticky	-9.52849
▁1994	-9.52849
ovaného	-9.52885
▁času	-9.52937
▁přenos	-9.52974
▁my	-9.53025
nec	-9.5303
▁vnitřní	-9.53033
▁skutečnost	-9.53204
lení	-9.53324
ke	-9.53427
▁hlediska	-9.53569
▁manažer	-9.53569
▁prostřednictví	-9.5357
▁výběr	-9.53577
vz	-9.53588
▁utkání	-9.53645
▁Tu	-9.5366
▁Roz	-9.53689
SK	-9.53847
▁mil	-9.5387
gan	-9.53898
tal	-9.53933
▁výraz	-9.54043
▁jenž	-9.54102
lék	-9.54158
▁působí	-9.54191
50	-9.54203
▁orgán	-9.54293
▁republice	-9.54293
pravidla	-9.54294
▁velice	-9.54308
▁vývoz	-9.54313
▁stál	-9.54352
▁celou	-9.54424
cím	-9.54442
rit	-9.54492
,5	-9.54535
ovými	-9.54537
stane	-9.5459
koliv	-9.54765
▁24	-9.54813
pustil	-9.54887
▁procenta	-9.54915
▁Kon	-9.54996
▁někdo	-9.55025
▁odhad	-9.55039
▁vzdálen	-9.55105
▁celkové	-9.5533
▁daně	-9.55341
tím	-9.5543
▁tříd	-9.55455
▁Be	-9.55472
▁ministra	-9.55492
▁Ru	-9.55509
▁dispozici	-9.55759
▁následující	-9.55759
▁fakult	-9.5576
▁souvislosti	-9.56106
W	-9.56109
▁auto	-9.56226
klo	-9.5623
▁stanoven	-9.56248
▁kterým	-9.5627
ění	-9.5629
ký	-9.56387
▁musel	-9.56457
plav	-9.56459
▁1990	-9.56499
▁mluvčí	-9.5652
▁typu	-9.56833
▁řadu	-9.57086
▁kvalit	-9.5714
▁čist	-9.57229
▁záměr	-9.57251
▁přechod	-9.57257
▁rámci	-9.5726
▁východ	-9.57321
▁nákup	-9.57361
▁ledna	-9.57496
▁prostě	-9.57596
▁Jen	-9.5778
▁postižen	-9.58006
▁nejméně	-9.58019
▁změny	-9.58044
▁cíl	-9.58105
▁podařilo	-9.58132
ickým	-9.58314
▁Pak	-9.58386
níků	-9.58444
▁proces	-9.58491
▁budeme	-9.58495
▁disku	-9.5851
▁připoj	-9.58695
íte	-9.5871
▁sestav	-9.58739
▁společné	-9.58924
▁mne	-9.5898
▁loni	-9.59053
▁roli	-9.59087
▁sebou	-9.59186
mar	-9.59433
▁Například	-9.59518
▁podnikání	-9.59572
ávají	-9.59657
▁Já	-9.5966
kázal	-9.59688
▁různé	-9.59699
▁automobil	-9.59739
▁tenis	-9.59883
čně	-9.60045
▁armád	-9.60066
▁princip	-9.60235
▁vládní	-9.6024
▁státy	-9.60246
dění	-9.60287
▁minulý	-9.60293
▁opravdu	-9.60341
▁sever	-9.60396
▁výzkum	-9.60397
eb	-9.6041
▁tolik	-9.60475
▁vln	-9.60485
▁výše	-9.60512
▁Jde	-9.60633
▁dostat	-9.60655
▁příklad	-9.60682
▁snah	-9.60709
▁čs	-9.60778
vají	-9.60877
stroj	-9.60898
▁právo	-9.60901
rak	-9.60935
▁funkci	-9.61063
▁miliónů	-9.61063
▁smlouvu	-9.61063
▁snaží	-9.6107
her	-9.61087
▁schopnost	-9.6109
▁nedávno	-9.61111
EN	-9.61137
▁příčin	-9.61176
▁Už	-9.61199
eta	-9.61302
šil	-9.61395
jak	-9.61444
denní	-9.61454
▁náš	-9.61524
▁zákaz	-9.61618
ík	-9.61653
▁volební	-9.61662
AN	-9.61785
▁doma	-9.61811
počátku	-9.61844
▁kandidát	-9.61844
▁termín	-9.61844
▁časopis	-9.61844
▁nárok	-9.61864
▁Dnes	-9.6199
part	-9.62094
jat	-9.62157
▁uveden	-9.62195
rem	-9.62228
▁zvýšení	-9.62241
pracuje	-9.62349
ební	-9.62372
▁národ	-9.62494
▁nájem	-9.62577
▁molekul	-9.62622
▁příležitost	-9.62632
▁okolí	-9.6264
▁ústav	-9.62672
▁věc	-9.62688
jdou	-9.62749
ať	-9.62823
▁Kdo	-9.62904
▁měsíců	-9.63017
▁průměrn	-9.63096
▁ministerstvo	-9.63425
▁zvláštní	-9.63425
▁koaliční	-9.63425
▁chtějí	-9.63426
▁pojištění	-9.6343
násob	-9.63478
▁dnech	-9.63556
▁ukázal	-9.63674
ger	-9.63683
▁prů	-9.63685
▁chování	-9.63935
hi	-9.64026
▁volb	-9.64072
trž	-9.64077
▁klid	-9.6412
pil	-9.64122
ujících	-9.64224
▁Windows	-9.64225
▁hvězd	-9.64225
▁jediný	-9.64244
▁bývalý	-9.64264
▁Zeman	-9.64267
▁Dr	-9.64297
▁předmět	-9.64312
kar	-9.64315
▁jiného	-9.64336
▁přednost	-9.6434
▁metrů	-9.64352
▁hotel	-9.64524
▁léč	-9.64549
▁dosáhl	-9.64554
▁dopis	-9.64584
▁středu	-9.64603
vát	-9.64626
▁úřadu	-9.64665
▁ekonomické	-9.64682
▁slova	-9.6469
antní	-9.6477
čné	-9.64783
padl	-9.64807
▁rady	-9.64829
▁postupně	-9.6485
tel	-9.64861
nictví	-9.64867
▁2.	-9.64884
▁hráčů	-9.6494
ina	-9.64946
▁zahraničních	-9.64954
▁PowerPoint	-9.65032
▁rozhovor	-9.65032
▁zpět	-9.65032
▁národní	-9.65077
▁společenství	-9.65093
▁pevn	-9.65175
▁Bar	-9.65499
▁objevil	-9.65521
stické	-9.65611
nů	-9.65688
▁vztah	-9.65691
dávají	-9.65763
▁podobně	-9.65848
und	-9.65881
▁Čech	-9.65896
▁Če	-9.66091
aly	-9.66346
šek	-9.66392
▁padesát	-9.66434
ena	-9.6659
▁nemusí	-9.66665
▁čeká	-9.66688
▁číslo	-9.66713
stává	-9.66775
▁MS	-9.66787
▁svazu	-9.66804
▁gen	-9.66827
áři	-9.66832
▁dal	-9.66864
▁kancelář	-9.66938
pul	-9.67287
▁Zde	-9.67378
▁neví	-9.67458
▁poslanců	-9.67491
▁přibližn	-9.67491
▁zástupce	-9.67491
▁klient	-9.67492
▁nadále	-9.67496
▁ročně	-9.67507
např	-9.67583
▁pracovníků	-9.67585
▁tržní	-9.67873
▁pacient	-9.6788
▁evropské	-9.67976
▁kulturní	-9.6809
▁Bude	-9.68103
▁obrat	-9.68152
▁odmítl	-9.68324
▁třicet	-9.68345
▁koncert	-9.68366
▁vede	-9.6839
▁vaše	-9.68484
volání	-9.68593
nského	-9.68764
elný	-9.68807
▁užit	-9.68861
▁každ	-9.68892
▁klubu	-9.69031
nějších	-9.69037
son	-9.69075
▁Většin	-9.69164
▁hospodářství	-9.69164
▁jazyk	-9.69164
▁nabídky	-9.69165
▁výrobní	-9.69165
▁hodně	-9.69175
▁lépe	-9.69199
▁podobné	-9.69209
ováním	-9.69408
▁tun	-9.69439
▁střel	-9.69545
▁počtu	-9.69962
▁22	-9.69968
▁umožňuje	-9.70012
puštěn	-9.70026
▁generální	-9.70097
▁podstatně	-9.70133
▁jenom	-9.70176
ených	-9.70226
razil	-9.70231
▁podniky	-9.70365
▁rozum	-9.70452
▁půd	-9.70569
▁jmen	-9.70597
▁týmu	-9.70645
▁přesně	-9.70708
▁počítač	-9.70829
▁70	-9.70843
▁považuje	-9.70867
▁vysoký	-9.70869
▁začíná	-9.70871
nové	-9.70909
▁předsed	-9.70916
▁hrál	-9.70928
▁musíme	-9.70962
▁olympijské	-9.71003
ros	-9.71008
áno	-9.7102
▁případech	-9.71041
▁potvrdil	-9.7107
▁vznikl	-9.71078
▁problémů	-9.71152
▁novou	-9.71165
▁říci	-9.71184
▁uzavře	-9.71214
tovat	-9.71251
▁městě	-9.71328
nému	-9.71408
SE	-9.71559
▁ekonom	-9.71561
hraje	-9.71576
▁Ra	-9.71666
onu	-9.71666
▁důchod	-9.71729
▁velikost	-9.71729
▁obvykle	-9.71729
▁oddělení	-9.71729
▁německý	-9.71738
▁sítě	-9.71755
ávat	-9.71808
íky	-9.71872
pír	-9.71891
▁sami	-9.71939
▁Hrad	-9.71943
▁českého	-9.72003
mor	-9.72022
▁pracovník	-9.72026
před	-9.7208
▁sport	-9.72085
▁fondu	-9.72118
▁banky	-9.7212
▁řada	-9.72165
jasn	-9.72172
30	-9.72296
▁pomoci	-9.72349
▁možností	-9.72408
kryt	-9.72434
▁řeč	-9.72453
▁vedle	-9.72461
▁občanů	-9.72541
▁fotbalist	-9.72558
▁kop	-9.7259
▁otázku	-9.72598
▁výrobků	-9.72598
půjč	-9.72603
▁neznám	-9.72627
▁ME	-9.72759
▁Ani	-9.72781
▁novinář	-9.72917
čních	-9.72924
cem	-9.72948
▁platit	-9.72989
▁průběhu	-9.73059
▁nebyla	-9.73161
cení	-9.73204
▁fotbal	-9.7323
▁politiky	-9.7325
rab	-9.73311
▁jiný	-9.73353
rd	-9.73397
▁stejn	-9.73404
▁nabízí	-9.73475
▁událost	-9.73475
▁vrchol	-9.73476
▁bohat	-9.73479
▁adres	-9.73492
▁export	-9.73497
▁příjem	-9.73533
elné	-9.7362
▁nemají	-9.73659
▁Bu	-9.7372
▁nějaké	-9.73785
▁zdrojů	-9.73822
▁miliardy	-9.73875
▁ryb	-9.73977
▁čem	-9.73992
▁Hol	-9.74098
sídl	-9.74105
▁kterém	-9.74127
vané	-9.74185
ováno	-9.74192
▁fyzik	-9.74212
▁ulici	-9.74224
▁mini	-9.74279
ložil	-9.74323
▁otázky	-9.7436
▁úrovni	-9.7436
▁otázka	-9.7436
▁autobus	-9.74361
▁celkem	-9.74361
▁reprezentant	-9.74361
▁chvíli	-9.74362
▁minulé	-9.74368
▁dotaz	-9.74393
▁Česká	-9.74395
▁klíč	-9.74412
▁takto	-9.7456
▁uvádí	-9.74588
▁slab	-9.74598
▁zájm	-9.74712
▁pozor	-9.74747
▁21	-9.74942
▁mimořádn	-9.75006
th	-9.75049
izaci	-9.75103
▁moderní	-9.75121
▁moci	-9.75158
▁mistrovství	-9.75253
▁předchozí	-9.75253
▁tvar	-9.75456
▁každém	-9.75484
▁postavení	-9.75498
zu	-9.75658
lka	-9.75745
▁objektů	-9.75854
▁potřebuje	-9.7587
▁stejný	-9.75888
▁Ni	-9.75896
▁úst	-9.75906
▁mistr	-9.75925
▁červen	-9.75965
▁lékař	-9.76044
▁znak	-9.76091
▁každé	-9.7612
▁energie	-9.76154
▁potravin	-9.76155
▁NATO	-9.76155
▁dětí	-9.76155
▁sportovní	-9.76156
▁zaměstnanců	-9.76157
▁Miloš	-9.76163
kombin	-9.76209
▁blok	-9.76217
▁výměn	-9.76223
LA	-9.76283
▁jednom	-9.76313
rp	-9.76368
sad	-9.76453
▁osmi	-9.76486
▁Sa	-9.76562
▁kterých	-9.76581
▁jaký	-9.76624
Dr	-9.7664
▁pozornost	-9.7664
plynul	-9.76768
▁názoru	-9.76771
dají	-9.76803
▁60	-9.76982
▁cestu	-9.77013
▁dvanáct	-9.77063
▁finále	-9.77064
▁Ber	-9.77068
▁parlament	-9.77084
měnit	-9.77148
čel	-9.77149
▁počítače	-9.77154
▁knih	-9.77183
leč	-9.77305
▁obor	-9.77308
▁společností	-9.77329
▁dohody	-9.77355
CE	-9.77385
▁listopadu	-9.77429
▁vybavení	-9.77586
▁setkání	-9.77671
roj	-9.77708
▁měsíce	-9.77726
▁měsíc	-9.77758
▁nikoli	-9.77769
měl	-9.77809
▁představuje	-9.77915
▁textu	-9.77946
▁Izrael	-9.77981
▁regul	-9.77982
▁centru	-9.77984
tah	-9.77989
týká	-9.77992
▁prostředků	-9.77994
▁Země	-9.78007
set	-9.7812
▁cizí	-9.78124
▁Ještě	-9.78138
▁čtvrtek	-9.78155
▁Tím	-9.78222
▁současně	-9.78241
▁PO	-9.78242
▁budoucí	-9.78316
▁sama	-9.78341
bil	-9.78361
▁řadě	-9.78398
▁obchodního	-9.78565
padá	-9.7866
sáhl	-9.78728
▁kolik	-9.78729
▁výrobky	-9.78907
šit	-9.78907
▁Navíc	-9.78907
▁OSN	-9.78915
▁Nyní	-9.78917
ěte	-9.78933
KO	-9.78974
vad	-9.79038
▁produkce	-9.79067
▁koupi	-9.79208
▁druhém	-9.79283
▁neděli	-9.79316
zní	-9.79423
▁data	-9.79429
▁(1	-9.79488
IS	-9.79494
▁Cel	-9.7952
▁zdroje	-9.79596
▁hlavním	-9.79611
▁atd	-9.79634
jímá	-9.79667
▁hrát	-9.79778
▁nemohl	-9.79782
▁Josef	-9.79841
▁federální	-9.79841
▁reklam	-9.79844
▁zasedání	-9.79856
▁těles	-9.79863
▁kterého	-9.79877
▁muset	-9.79883
▁sam	-9.79886
▁motor	-9.799
kům	-9.79903
ovce	-9.79919
▁pobyt	-9.79924
▁pra	-9.79936
▁dobrý	-9.79942
▁nebezpečn	-9.79944
▁skupina	-9.79947
lík	-9.7997
▁fin	-9.80038
▁strana	-9.80106
vádí	-9.80168
▁provozu	-9.80286
▁popis	-9.80296
▁skutečnosti	-9.80437
hlásil	-9.80461
ned	-9.80466
jet	-9.80506
kových	-9.80508
▁Pe	-9.80618
rád	-9.80781
▁speciální	-9.80785
▁oznámil	-9.80785
▁prezentace	-9.80785
▁začátku	-9.80785
▁kapacit	-9.80787
▁srovnání	-9.80787
▁spokojen	-9.80789
▁trans	-9.80789
▁třetin	-9.80789
front	-9.8079
▁postoj	-9.80818
▁úrok	-9.80851
▁tlak	-9.80932
▁podrob	-9.80941
ologie	-9.80972
▁smyslu	-9.81146
cházejí	-9.81146
▁součástí	-9.81267
čili	-9.81501
▁hodnoty	-9.81553
jedna	-9.8156
▁použití	-9.81564
▁teorie	-9.81737
▁1989	-9.81737
▁přízniv	-9.81737
▁přírodní	-9.81742
▁poslanec	-9.81744
▁buď	-9.81752
▁privatizace	-9.81752
▁strom	-9.81808
▁apod	-9.81811
▁akcií	-9.81826
▁výboru	-9.81833
▁útok	-9.81888
TA	-9.81931
LE	-9.81999
OR	-9.8205
▁kvalitní	-9.8206
▁jasné	-9.82148
taj	-9.82148
▁kapitál	-9.82221
třech	-9.82309
skal	-9.82321
obec	-9.82449
▁škod	-9.825
ler	-9.82572
▁plně	-9.82616
▁stal	-9.82674
psat	-9.8273
▁Jedno	-9.8278
▁konci	-9.82795
▁ostrov	-9.82882
stál	-9.82979
▁Hor	-9.82993
ejte	-9.82993
▁těm	-9.83026
▁domů	-9.83142
▁závěr	-9.8315
▁dostane	-9.83228
▁bran	-9.83277
ška	-9.83314
▁našem	-9.83351
níky	-9.83393
sed	-9.83414
kraji	-9.83422
▁přesvědčen	-9.83448
rovná	-9.8348
▁jednotlivé	-9.83487
▁možno	-9.83491
▁Američan	-9.83669
▁Někter	-9.83669
▁zdravotnictví	-9.83669
▁veřejné	-9.83669
▁variant	-9.8367
▁umění	-9.83673
▁tuzemsk	-9.83679
▁Martin	-9.83689
▁objektu	-9.83771
▁školy	-9.83774
▁Ivan	-9.83776
▁Star	-9.83787
▁zvolen	-9.83791
▁přiče	-9.83868
▁jiným	-9.84074
drží	-9.84075
▁agent	-9.84125
ozi	-9.8417
▁dopravy	-9.84214
▁student	-9.84355
▁obchodu	-9.84437
LI	-9.84501
▁údaje	-9.84561
▁technik	-9.84646
▁rozhodující	-9.8465
▁respekt	-9.8465
▁gól	-9.8465
▁nebezpečí	-9.84651
▁podobě	-9.84659
▁Pavel	-9.84664
produkt	-9.84711
▁Bylo	-9.84742
▁celého	-9.84848
▁investice	-9.84926
▁Podobn	-9.84937
▁noci	-9.85043
▁nějaký	-9.85047
▁opak	-9.85064
▁státního	-9.85088
▁ostatních	-9.85136
▁kultury	-9.85244
▁řad	-9.85329
RO	-9.85336
▁práva	-9.8543
vláště	-9.85432
užit	-9.85461
▁vzájemn	-9.85531
slyš	-9.85575
▁Ca	-9.85614
▁druh	-9.85639
▁žádost	-9.8564
▁jízd	-9.85665
pětí	-9.85714
▁aktivit	-9.8578
ativní	-9.85809
▁společně	-9.85816
vykl	-9.85849
dis	-9.85889
píše	-9.85957
▁soutěže	-9.86021
▁snadno	-9.86052
▁spojení	-9.86059
▁telefonní	-9.86088
▁nová	-9.86092
▁politických	-9.86098
▁Kar	-9.86159
Ř	-9.8621
plnění	-9.86233
▁typ	-9.8626
▁záznam	-9.8633
ovské	-9.86372
▁smrti	-9.86455
bezpeč	-9.86528
▁televizní	-9.8664
▁jméno	-9.8664
▁fyzick	-9.8664
▁klasick	-9.86657
ins	-9.86679
▁průmysl	-9.86796
▁Proč	-9.8682
cího	-9.86836
díl	-9.86837
▁Toto	-9.86997
ňování	-9.87031
věří	-9.87083
kají	-9.87083
procesor	-9.87194
▁zájmu	-9.87252
▁tisíce	-9.87294
AV	-9.87636
▁předpoklad	-9.8765
▁John	-9.87651
▁Rakousk	-9.87652
svoji	-9.87656
▁snímek	-9.87656
▁hnutí	-9.87699
▁Stejn	-9.87711
▁zdraví	-9.87824
▁Ří	-9.87868
▁vidí	-9.87898
▁nejvíce	-9.87914
▁styl	-9.87946
bytek	-9.87969
▁lidi	-9.88015
▁vytvoření	-9.88128
▁23	-9.88141
IN	-9.88328
▁důvodů	-9.88468
ckého	-9.88489
kám	-9.885
▁dané	-9.88503
▁vzhledem	-9.88556
rovna	-9.88562
▁Jaroslav	-9.8867
▁motiv	-9.88672
▁náročn	-9.88674
AD	-9.8872
▁grafick	-9.88727
▁jisté	-9.88736
▁pás	-9.88762
ovský	-9.88883
ER	-9.88977
▁náhod	-9.89048
psal	-9.89422
▁ročník	-9.89432
▁mužů	-9.89441
ben	-9.89521
bral	-9.89529
faktor	-9.89566
▁plné	-9.8961
▁velkou	-9.89611
▁celkov	-9.89636
▁region	-9.89668
▁signál	-9.89701
▁zvýšil	-9.89702
▁hokej	-9.89702
▁těžko	-9.89704
▁planet	-9.89713
▁okolo	-9.89716
▁umístěn	-9.89738
▁hráči	-9.89738
▁placen	-9.89739
▁předem	-9.89782
řitom	-9.89796
▁podobný	-9.89811
▁daleko	-9.89898
▁pocit	-9.8993
mět	-9.90142
▁spíš	-9.90261
▁slib	-9.90454
však	-9.90685
▁Český	-9.90733
▁Maďar	-9.90743
▁náměstí	-9.90743
▁zaměstnavatel	-9.90743
▁zástupci	-9.90743
▁kontakt	-9.90743
▁přátel	-9.90756
▁někteří	-9.90757
▁delší	-9.90758
▁trvá	-9.90785
▁zaměstnání	-9.908
▁září	-9.90807
▁kilometrů	-9.90857
dali	-9.90889
▁rukou	-9.9091
▁obsahuje	-9.90996
▁zvyk	-9.91052
net	-9.91077
TI	-9.91213
▁pokut	-9.91231
▁hru	-9.91234
▁soudu	-9.91372
▁Ře	-9.91375
▁nástroj	-9.9148
▁Bez	-9.91529
▁Hr	-9.91533
▁Mal	-9.91577
MI	-9.91616
▁dovoz	-9.91694
▁Karlov	-9.91705
▁věku	-9.91771
▁proměn	-9.91784
▁výsledek	-9.91796
▁určitý	-9.91796
cházet	-9.91796
▁cestovní	-9.91797
▁očekává	-9.91809
▁smysl	-9.91812
▁1,	-9.91895
▁zkušenost	-9.91898
▁tvář	-9.91903
▁Spo	-9.91996
▁hodiny	-9.92015
▁ředitele	-9.92169
▁produk	-9.92204
▁obvod	-9.92209
▁druhů	-9.92249
▁přišel	-9.92279
▁koncem	-9.92283
▁mohly	-9.92293
stávají	-9.92327
▁hmot	-9.92393
rez	-9.92417
▁oboru	-9.92429
▁odst	-9.925
▁Slov	-9.92535
▁barev	-9.92557
kovou	-9.92645
▁poně	-9.92647
ávání	-9.92791
atmosfér	-9.92859
▁nejbližší	-9.92859
▁patnáct	-9.92859
▁Olomouc	-9.92859
▁aplikace	-9.92859
▁existuje	-9.92859
▁podmínek	-9.92859
▁symbol	-9.92859
▁nebudou	-9.92861
▁zůstává	-9.92862
▁Může	-9.92863
▁dnů	-9.92931
▁česko	-9.92943
▁zkušenosti	-9.92979
▁jednotliv	-9.92983
▁koalice	-9.93137
CI	-9.93277
▁Kčs	-9.93296
▁olympijský	-9.9332
▁objekty	-9.93345
▁roční	-9.93361
▁rizik	-9.93399
zoval	-9.93413
▁každého	-9.93529
▁hospodářské	-9.93621
pek	-9.93666
EL	-9.93668
▁NE	-9.93815
▁nedostat	-9.93848
▁festival	-9.93935
▁úroveň	-9.93935
▁dospěl	-9.93935
▁Hlavní	-9.93935
▁památ	-9.93936
▁starší	-9.93947
▁výnos	-9.93958
▁stavební	-9.93985
▁způsobil	-9.93997
▁formul	-9.93999
▁tady	-9.94039
▁společný	-9.94047
▁osobnost	-9.941
slovensk	-9.94293
ung	-9.94306
▁minulosti	-9.94351
HO	-9.94406
▁Bud	-9.94491
▁aut	-9.94504
▁případně	-9.94532
ckých	-9.94572
▁Char	-9.94596
▁znalost	-9.94698
▁původ	-9.94705
níku	-9.949
▁prac	-9.94955
ivost	-9.94956
▁poslanci	-9.95022
▁restaur	-9.95022
▁pátek	-9.95022
▁existují	-9.95022
▁rozsah	-9.95023
▁praxi	-9.95025
▁soukrom	-9.95034
▁běžné	-9.95043
▁ekologick	-9.95086
▁Přes	-9.9509
▁Brně	-9.95124
▁Jeden	-9.95171
▁určitě	-9.95247
▁Každý	-9.95265
▁hrad	-9.95497
NI	-9.95583
▁příslušn	-9.95591
▁německé	-9.95654
ble	-9.95662
▁Pan	-9.95729
▁prvního	-9.95827
▁Fr	-9.95853
▁kraj	-9.95905
▁sklad	-9.95923
ovaným	-9.96021
KA	-9.96096
▁důležité	-9.96121
▁vidět	-9.96121
▁šanci	-9.96121
▁rekord	-9.96122
▁příkaz	-9.96128
▁přijal	-9.96169
pustit	-9.96256
boj	-9.9654
▁smí	-9.96577
▁lékaře	-9.96603
▁oblast	-9.96606
▁obrovsk	-9.96618
▁slavn	-9.96827
▁cest	-9.96857
EM	-9.96929
ON	-9.97095
▁zvířat	-9.97232
▁výrobce	-9.97232
▁návrat	-9.97232
▁uvědom	-9.97232
▁Musí	-9.97252
▁síly	-9.97263
▁krajin	-9.97297
▁volbách	-9.97312
▁hráče	-9.97344
▁starý	-9.97359
▁odpovídá	-9.97371
▁nájemné	-9.97374
▁světový	-9.97449
▁stačí	-9.97459
▁července	-9.97466
▁léta	-9.97468
▁komor	-9.97493
▁nikoliv	-9.97552
wa	-9.97566
áni	-9.97589
▁kvality	-9.97592
vající	-9.97617
pel	-9.97646
▁dny	-9.97818
cházející	-9.97866
stru	-9.98071
▁mám	-9.98206
▁Německa	-9.98215
▁elektron	-9.98216
▁změnit	-9.98268
▁hráč	-9.9835
▁týdne	-9.98355
▁hromad	-9.98355
▁zemřel	-9.9836
raději	-9.98374
▁mikro	-9.98396
▁konečn	-9.98403
▁prodeje	-9.98443
▁jediné	-9.9845
▁knihy	-9.9845
▁Nové	-9.98479
▁Slav	-9.98604
pořád	-9.98624
▁voleb	-9.98647
▁podstatě	-9.9867
lib	-9.98686
▁zranění	-9.98863
kový	-9.98882
▁nákladů	-9.98895
▁tisku	-9.9899
▁záležitost	-9.99
AR	-9.9911
ROM	-9.99115
áci	-9.99154
pře	-9.9934
▁Ministerstv	-9.99492
▁analýz	-9.99492
▁oprávněn	-9.99492
▁technologie	-9.99492
▁víkend	-9.99492
▁výrobu	-9.99492
▁vzduch	-9.99493
▁tepla	-9.99498
stoupit	-9.99499
▁představitelé	-9.99499
▁obviněn	-9.99501
▁vrátil	-9.99527
▁úplně	-9.99535
▁investiční	-9.99558
▁dělat	-9.99602
har	-9.99662
▁objem	-9.99685
▁Fran	-9.99708
▁zkouš	-9.99736
▁35	-9.99748
bře	-9.99757
▁členy	-9.99811
▁rozšíření	-9.99818
▁přehled	-9.99871
▁druhou	-9.99875
▁Již	-9.99945
řízení	-10.0017
pád	-10.0023
▁zákazníků	-10.0039
vest	-10.0044
▁jakým	-10.0046
oři	-10.006
▁družstev	-10.0064
▁příspěvk	-10.0064
▁zásob	-10.0064
▁nezbytn	-10.0064
▁park	-10.0064
▁techniky	-10.0065
▁síť	-10.0066
stoupí	-10.0067
▁doba	-10.0075
▁dějin	-10.0087
nický	-10.0094
▁vývoje	-10.0096
▁omezen	-10.0102
▁míry	-10.0102
▁celá	-10.0104
▁technické	-10.0104
volal	-10.0112
▁seznam	-10.0116
▁liber	-10.0118
▁zprávy	-10.0125
▁staré	-10.0129
▁použit	-10.0131
▁čin	-10.0141
▁podnikatele	-10.0146
▁Nad	-10.0152
bili	-10.0154
značně	-10.016
▁činí	-10.0163
▁90	-10.0165
okres	-10.0168
▁pochyb	-10.0169
▁Nový	-10.0173
▁kola	-10.0174
▁scén	-10.0176
▁olympiád	-10.018
▁vytvořit	-10.018
▁kód	-10.0181
▁úspor	-10.0181
▁všeobecn	-10.0181
izovat	-10.0183
▁fotograf	-10.0183
▁studiu	-10.0184
▁uložen	-10.0185
▁dvakrát	-10.019
▁Ústav	-10.019
jedno	-10.02
▁drobn	-10.0205
klád	-10.0205
▁drah	-10.0209
▁volby	-10.0217
▁chcete	-10.0222
▁No	-10.0222
skoro	-10.0224
▁Lib	-10.0237
▁500	-10.0241
▁vlastnosti	-10.0256
istů	-10.0269
může	-10.0273
▁podnikatelů	-10.0288
▁financí	-10.0298
▁Španěl	-10.0298
▁zjistil	-10.0298
kázat	-10.0298
▁Františ	-10.0299
▁Internet	-10.0299
▁neroz	-10.03
▁dítě	-10.0305
▁Kdyby	-10.0314
▁Vol	-10.0315
▁konečně	-10.0336
▁dvaceti	-10.036
▁soupeř	-10.0367
60	-10.0373
▁vzpomín	-10.0374
ovanou	-10.0374
▁bytů	-10.0376
NO	-10.0378
▁pravidel	-10.0395
▁Asi	-10.04
rám	-10.0413
▁SR	-10.0416
▁ruské	-10.0416
▁federace	-10.0417
▁firmě	-10.0417
▁maximáln	-10.0417
▁výsledků	-10.0417
▁zpracování	-10.0417
▁použít	-10.0417
▁Všechny	-10.0417
▁širok	-10.0418
▁Její	-10.0418
▁tradic	-10.0419
▁současnosti	-10.042
▁Rozhod	-10.0422
▁Svět	-10.0423
zhledem	-10.0431
▁evropských	-10.0431
▁jít	-10.045
▁domu	-10.0452
▁včerejší	-10.0457
▁staro	-10.046
▁hranice	-10.0476
▁klima	-10.0484
▁náklad	-10.0487
JE	-10.0487
▁obrany	-10.0491
▁fotbalové	-10.0491
▁probíh	-10.0504
vnitř	-10.0507
▁bodů	-10.0522
dával	-10.0528
▁nerv	-10.0532
▁Společenství	-10.0538
▁Vladimír	-10.0538
▁investor	-10.0538
▁nejlépe	-10.0538
▁Právě	-10.0538
▁zbraní	-10.0538
▁sekund	-10.0538
▁relativn	-10.054
▁bezpečnostní	-10.054
▁Německu	-10.0542
▁vojenské	-10.0545
▁realiz	-10.0545
▁Běh	-10.0546
▁kvalifik	-10.0557
▁pravděpodobně	-10.0562
▁původně	-10.0563
▁Kub	-10.0565
▁návrhu	-10.0565
▁Měl	-10.0574
tav	-10.0574
oma	-10.0581
dělal	-10.0581
▁loňské	-10.0585
▁průmyslu	-10.0589
▁stanic	-10.059
▁Hus	-10.0591
▁cílem	-10.0596
▁míru	-10.0596
▁dokázal	-10.0598
▁amerických	-10.0598
▁Firma	-10.0604
rozměr	-10.0606
▁integr	-10.061
land	-10.0625
ickém	-10.0632
▁někter	-10.0636
bírá	-10.0645
▁hodnot	-10.0646
přes	-10.0652
▁dlouhé	-10.066
▁předpokládá	-10.066
▁objeví	-10.066
▁udělat	-10.066
▁dokáže	-10.066
▁formát	-10.0661
▁patrně	-10.0663
MU	-10.0667
rej	-10.0678
OU	-10.0681
RU	-10.0693
10	-10.0694
▁změnil	-10.0697
DE	-10.0698
▁My	-10.07
sadil	-10.0702
▁charakter	-10.0703
▁silnic	-10.0707
▁Fin	-10.0722
▁sněmovny	-10.0725
▁vhodné	-10.0726
bývají	-10.0733
▁kurz	-10.0748
▁zajímav	-10.0749
▁roze	-10.0756
▁šíř	-10.0774
▁komunik	-10.0779
▁slovo	-10.0781
▁domácnost	-10.0783
▁informační	-10.0783
▁využívá	-10.0783
▁hovoří	-10.0783
▁subjekt	-10.0783
▁čísla	-10.0783
▁využití	-10.0783
▁brzy	-10.0783
▁kanál	-10.0786
▁pozná	-10.0788
▁možný	-10.0792
▁pravda	-10.0798
LO	-10.0807
▁Ke	-10.0823
▁osoby	-10.0829
▁demokrat	-10.084
pak	-10.0868
▁těmi	-10.0874
▁rokem	-10.0879
▁Japonsk	-10.0881
bere	-10.0887
▁veřejnosti	-10.0898
▁dovolenou	-10.0908
▁místopředsed	-10.0908
▁nemohou	-10.0908
▁většinu	-10.0908
▁rezerv	-10.0908
▁schválen	-10.0908
▁jinde	-10.0908
▁podzim	-10.0908
▁péče	-10.0908
▁vědět	-10.0909
▁Profit	-10.0909
nova	-10.0909
▁oceán	-10.091
▁proud	-10.091
▁26	-10.091
▁začne	-10.0912
DO	-10.0925
▁růstu	-10.0927
▁ženy	-10.0931
▁prostoru	-10.0938
▁vládě	-10.0943
▁zisku	-10.0957
dělit	-10.0976
▁lidský	-10.0981
▁národního	-10.0984
▁témat	-10.0986
▁denně	-10.0988
▁kolo	-10.099
ejme	-10.0993
▁takovou	-10.0996
▁Chorvatsk	-10.0998
ista	-10.1
tion	-10.1006
▁Sam	-10.1008
▁ústavu	-10.1011
▁čele	-10.1027
▁Kol	-10.103
▁pokračovat	-10.1035
▁sluneční	-10.1035
▁podepsal	-10.1035
▁pozadí	-10.1035
▁látky	-10.1037
▁posíl	-10.1038
▁2000	-10.104
▁nechce	-10.104
▁kruh	-10.1044
▁veřejnost	-10.1045
hel	-10.1053
ecká	-10.1064
▁vědecké	-10.1064
▁snížení	-10.1066
▁New	-10.1067
▁severní	-10.1076
▁II	-10.1076
▁vytvořil	-10.1077
▁potřebné	-10.108
▁mění	-10.1082
loží	-10.1084
▁dát	-10.1096
▁rada	-10.1099
kan	-10.1106
▁stala	-10.1115
▁současn	-10.1119
ičky	-10.1124
▁Par	-10.1129
▁volné	-10.1131
▁prací	-10.1143
▁účt	-10.1147
▁vlád	-10.1147
ňovat	-10.115
▁důležitý	-10.1163
▁UEFA	-10.1163
▁demokracie	-10.1163
▁hodnocení	-10.1163
▁oficiální	-10.1163
▁televizi	-10.1163
▁označil	-10.1163
▁potenciál	-10.1163
▁naprosto	-10.1163
▁důkaz	-10.1163
▁Spojený	-10.1164
▁Havel	-10.1164
▁kurs	-10.1165
▁nijak	-10.1165
▁zaměřen	-10.1167
kládat	-10.1169
▁cit	-10.1169
▁pojistné	-10.1171
▁okamžitě	-10.1177
▁doplň	-10.1183
▁ukazuje	-10.1183
▁Nez	-10.1188
▁příslušné	-10.1196
▁stalo	-10.1213
bývající	-10.1216
▁300	-10.1229
▁bezpečnosti	-10.1238
hodný	-10.1247
▁Ex	-10.1256
ona	-10.1257
ezi	-10.1259
▁zabývá	-10.1259
▁podstat	-10.1272
klep	-10.1275
bin	-10.1276
▁procesu	-10.1279
▁cesty	-10.128
NÁ	-10.1283
▁majetek	-10.1293
▁počasí	-10.1293
▁šedesát	-10.1293
▁řečeno	-10.1293
▁realit	-10.1294
▁protest	-10.1295
vrátit	-10.1295
dávat	-10.1298
▁novel	-10.1308
tický	-10.1309
▁dokonč	-10.1311
▁nebyly	-10.1316
kovat	-10.1325
▁členové	-10.1327
ovského	-10.133
ěji	-10.1331
▁téma	-10.1335
▁28	-10.1342
▁potřeby	-10.1351
▁vytvořen	-10.1362
mořsk	-10.1366
▁stanice	-10.1367
▁údaj	-10.1379
▁kanceláře	-10.138
▁standard	-10.1398
RE	-10.14
leté	-10.1401
▁body	-10.1403
▁Česko	-10.1404
▁27	-10.1404
demokratick	-10.1418
▁teplo	-10.1423
▁onemocnění	-10.1424
▁požadavky	-10.1424
▁rozhodně	-10.1424
▁příjmy	-10.1424
▁názvem	-10.1424
▁učitel	-10.1424
▁vzniku	-10.1429
▁lidem	-10.1439
▁vládu	-10.144
▁dosáhnout	-10.1442
▁Ben	-10.1453
▁řady	-10.1456
▁získá	-10.1459
běhl	-10.1459
▁politik	-10.146
▁lékaři	-10.1463
▁nehod	-10.1463
▁nezávisl	-10.1477
▁Nová	-10.1477
▁zahájení	-10.149
vel	-10.1491
MA	-10.1494
▁radi	-10.1498
▁ekonomiky	-10.1518
▁systémů	-10.1523
staví	-10.1537
ovu	-10.1538
▁dodává	-10.1539
bla	-10.1546
▁hlavního	-10.1547
▁dvoj	-10.1554
▁Svobod	-10.1558
▁funkcí	-10.1558
▁konference	-10.1558
▁televize	-10.1558
▁Slovensku	-10.1558
▁Dva	-10.1558
▁vánoční	-10.1558
▁policejní	-10.1559
▁Novotn	-10.1559
▁buňk	-10.1559
▁ligy	-10.1559
▁odchod	-10.1559
▁chlad	-10.1573
kládání	-10.1577
▁viděl	-10.1584
▁nejde	-10.1586
rst	-10.1586
▁odborné	-10.1588
▁vztahu	-10.1593
▁právnick	-10.1596
▁Státní	-10.1607
▁celém	-10.1609
▁výš	-10.1612
▁vybaven	-10.1615
▁soutěž	-10.1616
VA	-10.1624
▁Velk	-10.1637
▁mechaniky	-10.1639
▁jednak	-10.164
▁krátk	-10.1643
▁společného	-10.1646
▁jednat	-10.1659
▁odpad	-10.1659
volat	-10.166
▁Prezident	-10.1693
▁dodavatel	-10.1693
▁poskytuje	-10.1693
▁zásah	-10.1693
▁Československu	-10.1693
▁připravil	-10.1693
▁příbuzn	-10.1693
▁nezaměstnanost	-10.1693
▁zločin	-10.1693
▁vnitra	-10.1694
▁velká	-10.1695
▁zákony	-10.1698
vedou	-10.1705
▁troj	-10.1706
▁aktiv	-10.1714
▁Společnost	-10.1714
▁pole	-10.1715
▁nechal	-10.1721
věřil	-10.1734
kyně	-10.1734
▁přístupu	-10.1735
▁sbír	-10.174
▁radost	-10.1745
▁druhá	-10.1764
▁zvuk	-10.1768
▁druhého	-10.1778
▁totem	-10.178
▁rychlostí	-10.1789
mark	-10.1804
▁Velké	-10.1805
▁povinnost	-10.1805
něk	-10.1807
▁Aby	-10.1807
▁map	-10.1815
▁soused	-10.1815
EC	-10.1825
▁Vše	-10.1825
ick	-10.1826
▁posun	-10.1827
▁zobraz	-10.1828
▁řekla	-10.1828
▁Francouz	-10.183
▁Olymp	-10.183
▁kláves	-10.183
▁parametr	-10.183
▁servis	-10.183
▁zemědělství	-10.183
▁Sovětské	-10.183
▁spotřebitel	-10.183
▁Belgi	-10.183
▁zákoníku	-10.183
jedině	-10.1831
▁ohledu	-10.1833
▁látek	-10.1833
▁zaplatí	-10.1833
▁měsících	-10.1834
▁škody	-10.1835
▁desítky	-10.1836
▁najít	-10.1838
▁Čechách	-10.1839
▁zub	-10.1848
▁hotov	-10.1853
▁češt	-10.1859
▁Atlantě	-10.1863
dent	-10.1866
▁lékařů	-10.1872
▁Per	-10.1875
▁hladin	-10.1878
▁Oba	-10.1878
▁vodní	-10.1882
▁myslí	-10.1885
▁parlamentní	-10.1887
▁druhu	-10.1891
▁závěru	-10.1896
brž	-10.1896
sát	-10.1897
▁vydání	-10.1905
▁jinou	-10.191
86	-10.1935
šp	-10.1938
▁město	-10.194
▁takového	-10.1946
▁napsal	-10.1948
odpovědn	-10.1951
znamená	-10.1954
dané	-10.1957
árně	-10.1961
prázdn	-10.1962
▁akt	-10.1967
hem	-10.1968
▁distribu	-10.1969
▁hudební	-10.1969
▁tradiční	-10.1969
▁ustanovení	-10.1969
▁výrobců	-10.1969
▁cyklu	-10.1969
▁schopen	-10.1969
▁uplatnění	-10.1969
▁těžký	-10.1969
▁Francie	-10.1969
▁nabídku	-10.1969
▁Národní	-10.1969
▁snímků	-10.1969
▁pořadatel	-10.1969
▁nápad	-10.1977
▁vlast	-10.1979
▁objektiv	-10.1981
40	-10.1982
▁souboru	-10.1983
▁dalšího	-10.1992
▁Jin	-10.1998
méně	-10.1998
▁současný	-10.2003
▁150	-10.2006
▁nově	-10.2009
▁hranic	-10.2009
pustí	-10.2012
▁státech	-10.2015
řka	-10.2016
ologické	-10.2022
▁ráno	-10.203
▁ulic	-10.2037
▁zvýšen	-10.2038
▁přijde	-10.2052
48	-10.2067
▁zákonů	-10.2075
▁ekonomik	-10.2077
zemní	-10.2078
▁správy	-10.208
věřit	-10.2092
▁výběru	-10.2108
▁míč	-10.2108
OH	-10.2109
▁těžké	-10.2109
▁využít	-10.2109
▁rozpočet	-10.2109
▁expert	-10.211
▁přijetí	-10.211
▁hodlá	-10.211
▁působení	-10.2112
▁odměn	-10.2112
▁řešit	-10.2112
▁Západ	-10.2113
▁Vlast	-10.2116
iletý	-10.2116
▁tentokrát	-10.2118
▁školství	-10.212
▁převážně	-10.2121
▁zajistit	-10.2121
▁loňsk	-10.2129
bíd	-10.2131
▁způsoben	-10.2137
▁Ste	-10.2138
vláda	-10.2147
▁vyplývá	-10.215
▁Kam	-10.2151
▁pořadí	-10.2154
▁Takže	-10.2156
▁daní	-10.2156
šky	-10.2157
telné	-10.2161
▁vysokou	-10.2162
▁nim	-10.2164
▁částky	-10.217
čila	-10.2174
▁Mnoh	-10.2176
▁okamžiku	-10.2181
▁přístroj	-10.2184
▁seznamu	-10.2188
▁domov	-10.2189
▁demokratické	-10.2193
AL	-10.2203
▁smrt	-10.2206
▁takovém	-10.2212
▁uvaž	-10.2212
▁slovenské	-10.2221
▁Slovensk	-10.2227
munist	-10.2242
▁nesmí	-10.2246
▁speciali	-10.225
▁jiná	-10.2251
▁kritéri	-10.2252
▁nepříjemn	-10.2252
▁bohužel	-10.2252
▁družstva	-10.2252
▁nejrůznější	-10.2252
▁spolupráce	-10.2252
▁povolení	-10.2252
dostatečně	-10.2253
▁směrem	-10.2253
▁Mezinárodní	-10.2253
řídil	-10.226
▁Inter	-10.2263
▁místech	-10.2279
▁udělal	-10.2285
▁trestní	-10.2286
▁společensk	-10.2289
▁cestou	-10.2296
▁chybí	-10.2302
▁údajů	-10.2305
▁dopravní	-10.2313
reform	-10.2321
▁začali	-10.2322
▁prost	-10.2322
▁moře	-10.2323
▁ceně	-10.2332
ovky	-10.2337
▁městské	-10.2338
hřeb	-10.2349
▁chtěli	-10.235
▁400	-10.2352
▁Německ	-10.2364
▁názory	-10.2376
ička	-10.2378
▁žádn	-10.2378
▁zdroj	-10.2378
▁reáln	-10.2382
▁obcí	-10.2389
▁jestli	-10.2393
▁překr	-10.2395
▁filozof	-10.2397
▁pondělí	-10.2397
▁prezentaci	-10.2397
vádět	-10.2397
▁průzkum	-10.2397
▁výtvarn	-10.2397
▁uspořáda	-10.2397
trpěl	-10.2397
▁jistot	-10.2397
▁vyslovil	-10.2398
▁devět	-10.2398
▁Paříž	-10.2399
▁odbyt	-10.2401
▁smluvní	-10.2401
▁video	-10.2401
art	-10.2404
▁měsíční	-10.2407
držení	-10.2409
▁Nov	-10.2417
trh	-10.2418
▁Čern	-10.242
▁předtím	-10.242
▁pravidelně	-10.2425
▁dřev	-10.2427
▁typick	-10.2441
▁máte	-10.2442
▁poloh	-10.2455
▁Or	-10.2456
razí	-10.2462
lidov	-10.2467
▁myslím	-10.2472
▁Ri	-10.2474
ičtí	-10.2491
▁odpor	-10.2492
▁obrazovk	-10.2493
děk	-10.2499
▁turnaj	-10.2501
▁styk	-10.2518
▁výzkumu	-10.2523
řídit	-10.2541
▁Poslední	-10.2544
▁konferenci	-10.2544
▁nesouhlas	-10.2544
▁podmínkách	-10.2544
▁pravomoc	-10.2544
▁příjmů	-10.2544
▁úrovně	-10.2544
▁června	-10.2544
▁HIV	-10.2544
▁rostlin	-10.2544
▁obsazen	-10.2544
▁slouží	-10.2544
▁detail	-10.2545
▁radnice	-10.2546
▁spoust	-10.2546
▁směru	-10.2549
▁závěrečn	-10.2552
▁Mlad	-10.2554
▁daň	-10.2556
▁uvedla	-10.2557
▁přesvědč	-10.2558
▁Pavl	-10.2559
▁Zákon	-10.2562
tud	-10.2563
▁výjimkou	-10.2564
▁změna	-10.2564
▁Čas	-10.2565
▁bíl	-10.2566
▁rovin	-10.2566
kář	-10.2569
▁Lab	-10.257
▁vztahy	-10.2577
▁LN	-10.2578
▁podpis	-10.2582
▁armády	-10.2587
ctví	-10.2612
▁případů	-10.2616
tickou	-10.2617
▁taková	-10.2622
▁částku	-10.2625
▁politický	-10.2625
▁mechanika	-10.2628
▁systémy	-10.2638
číst	-10.2642
▁součást	-10.2645
▁různ	-10.2655
▁Atlant	-10.2657
▁Každ	-10.2661
▁jím	-10.2661
▁konkurence	-10.267
▁soukromé	-10.2671
▁daňové	-10.2678
▁optim	-10.2691
▁architekt	-10.2692
▁Největší	-10.2693
▁Současn	-10.2693
▁Washington	-10.2693
▁diplomat	-10.2693
▁účetnictví	-10.2693
▁tvrzení	-10.2694
▁většině	-10.2694
vádějí	-10.2694
▁jedenáct	-10.2694
▁požadovan	-10.2694
▁kapitol	-10.2694
▁války	-10.2694
▁rostou	-10.2694
▁brankář	-10.2695
▁aliance	-10.2695
▁čtyřicet	-10.2696
▁politiku	-10.2706
bran	-10.2706
▁centra	-10.2712
▁Jedin	-10.2715
▁modern	-10.2718
▁Naše	-10.2726
▁jednoznačně	-10.2735
20	-10.2737
razit	-10.2741
izované	-10.2748
▁PRO	-10.2762
▁tiskové	-10.277
kazuje	-10.2771
▁váš	-10.2776
▁museli	-10.278
▁sedmi	-10.2786
▁vydal	-10.2797
▁vědy	-10.2804
75	-10.2804
▁Bur	-10.2805
▁skupině	-10.2809
▁rodiny	-10.2816
▁pražský	-10.2816
▁náhrad	-10.2824
řazen	-10.2825
▁hospod	-10.2828
▁známé	-10.2833
▁spol	-10.2838
▁aktivity	-10.2845
▁změnu	-10.2845
▁Gorbačov	-10.2845
▁většiny	-10.2845
▁Evropa	-10.2845
▁politice	-10.2845
▁vždycky	-10.2845
▁prohrál	-10.2845
▁schéma	-10.2846
▁záruk	-10.2846
▁individuální	-10.2846
pust	-10.2847
▁Nikd	-10.2847
▁začít	-10.2848
▁nemocnice	-10.2851
▁dvojic	-10.2851
▁třemi	-10.2857
▁Jenže	-10.2861
▁odpovědnost	-10.2864
▁obdobn	-10.2865
▁Bra	-10.2866
▁hodnotu	-10.2872
▁leží	-10.2874
▁Jedna	-10.2878
▁dluh	-10.2881
biologick	-10.2887
▁pořádku	-10.2888
▁Německo	-10.2905
▁nutno	-10.2907
▁hlasování	-10.291
▁pracovníci	-10.2911
▁Han	-10.2913
▁Václava	-10.2918
▁dělá	-10.2921
▁diváků	-10.2922
▁proveden	-10.2932
▁zvukov	-10.2936
▁univerzity	-10.294
▁překvap	-10.2942
▁budoucnosti	-10.2946
▁Rusko	-10.295
▁oslav	-10.2956
▁změně	-10.2962
▁známo	-10.2964
míněn	-10.2969
▁životě	-10.2985
▁nepod	-10.2994
▁publika	-10.2999
▁AIDS	-10.2999
▁Británie	-10.2999
▁management	-10.2999
▁vzdělání	-10.2999
▁obyvatelstva	-10.2999
▁srpna	-10.2999
▁Možná	-10.2999
▁zpěv	-10.3
▁Vždyť	-10.3005
▁super	-10.3007
▁nástup	-10.3022
▁předsedy	-10.3023
▁dodá	-10.3024
▁známý	-10.303
▁důsledku	-10.3032
▁konec	-10.3034
▁složení	-10.304
▁studentů	-10.3047
▁přinesl	-10.3048
▁lidské	-10.3059
▁Škoda	-10.3064
▁používá	-10.3066
běžně	-10.3069
rot	-10.3074
▁miliony	-10.3081
▁oči	-10.3082
▁čase	-10.309
▁nutnost	-10.3094
líbil	-10.3095
ároveň	-10.3098
▁přítomnost	-10.3108
▁stroje	-10.3109
▁hlasů	-10.3111
▁polovinu	-10.3111
pir	-10.3111
▁pán	-10.3112
▁Fo	-10.3115
▁jejího	-10.3126
▁běžný	-10.3137
▁katastrof	-10.3155
▁normální	-10.3155
▁připravuje	-10.3155
▁tajemství	-10.3155
▁uspořádání	-10.3155
▁očekávat	-10.3155
hovořil	-10.3155
▁silniční	-10.3155
▁personál	-10.3155
▁název	-10.3155
▁výprav	-10.3156
▁čísle	-10.3156
▁buněk	-10.3156
▁piva	-10.3156
směs	-10.3161
▁prázdnin	-10.3163
▁verze	-10.3165
▁tráv	-10.3169
▁aktivní	-10.3171
▁průměru	-10.3175
▁zdalek	-10.3176
▁takových	-10.3176
▁narozen	-10.3177
▁státních	-10.3178
▁uvedené	-10.318
▁Prav	-10.3181
snad	-10.3185
IT	-10.3192
▁zařazen	-10.3192
▁mnohé	-10.32
▁stop	-10.321
▁chceme	-10.3212
▁úřady	-10.3222
neme	-10.3222
▁americký	-10.3235
▁paní	-10.3248
▁pravděpodobn	-10.325
▁pravé	-10.3253
▁dochází	-10.3256
▁směn	-10.3256
▁poznání	-10.3258
▁počítačů	-10.3261
jmenován	-10.327
▁pracoval	-10.3273
▁přizpůsob	-10.3283
evropský	-10.3289
▁povinnosti	-10.3293
ráže	-10.3295
▁příštím	-10.3309
▁argument	-10.3314
▁vyžaduje	-10.3314
▁zřejmé	-10.3314
▁režisér	-10.3314
▁zpravodaj	-10.3314
▁dialog	-10.3314
▁zůstat	-10.3314
▁pachatel	-10.3314
▁občas	-10.3314
▁agentury	-10.3314
▁přírody	-10.3314
▁trend	-10.3315
▁privatizaci	-10.3316
▁zásadní	-10.3316
▁Úřad	-10.3317
▁marek	-10.3317
▁sdělil	-10.3324
▁Karel	-10.3324
▁vyjádřil	-10.3328
▁článku	-10.3329
procentní	-10.3343
▁vánoce	-10.3346
▁jaderné	-10.3347
▁velko	-10.3353
ňují	-10.3356
ívají	-10.336
▁premiéra	-10.3369
▁hlavních	-10.3372
▁sovětské	-10.3374
▁univerzit	-10.3375
▁Tři	-10.3382
▁odborníků	-10.3385
kládají	-10.3386
▁banka	-10.3387
▁okresní	-10.3406
▁pozitivní	-10.3408
▁jaderný	-10.3417
▁Ostrava	-10.342
elná	-10.3426
▁příštího	-10.3431
▁úvahu	-10.3435
▁ostr	-10.3436
▁částí	-10.3448
▁muži	-10.3449
▁soudní	-10.3455
▁96	-10.3458
▁kvalitu	-10.3462
▁Karl	-10.3467
▁Miroslav	-10.3475
▁Myslím	-10.3475
▁experiment	-10.3475
▁nemovitost	-10.3475
▁organizací	-10.3475
▁perspektiv	-10.3475
▁tlačítko	-10.3475
▁čtrnáct	-10.3475
▁jména	-10.3475
▁zahájil	-10.3475
▁požádal	-10.3475
▁věnovat	-10.3475
▁začínají	-10.3475
▁historii	-10.3475
▁válce	-10.3475
▁rozhlas	-10.3475
▁následn	-10.3476
▁konstru	-10.3482
▁zajímavé	-10.3484
šly	-10.3485
▁roste	-10.3488
ór	-10.3491
▁ztratil	-10.3505
▁vaší	-10.3508
tvrdil	-10.3508
třel	-10.3531
▁obran	-10.3541
▁liší	-10.3555
tická	-10.3559
▁fan	-10.358
▁přeprav	-10.3583
▁kultur	-10.3587
▁režimu	-10.3605
▁mechanik	-10.3612
▁politika	-10.3624
▁soutěži	-10.3627
povídá	-10.363
▁bit	-10.3631
▁přísn	-10.3633
ěkteří	-10.3637
▁druhy	-10.3639
▁jednoduché	-10.3639
▁kabinet	-10.3639
▁nabízejí	-10.3639
▁tajemník	-10.3639
▁závažn	-10.3639
▁1995	-10.3639
▁Někd	-10.3639
▁považován	-10.3639
▁Základní	-10.3639
sloužil	-10.3639
▁snížil	-10.3639
▁špatné	-10.3639
▁zůstane	-10.364
▁hormon	-10.364
▁zvíře	-10.364
▁pivovar	-10.364
▁kolektiv	-10.364
▁doktor	-10.3641
celku	-10.3642
85	-10.3643
lín	-10.3644
▁zimní	-10.3647
istický	-10.3647
▁dopad	-10.3662
úpln	-10.3667
▁smlouva	-10.3669
▁úřadů	-10.3675
koupil	-10.3686
▁volný	-10.3689
▁dar	-10.3692
/2	-10.3698
▁déle	-10.37
skými	-10.3701
▁porazil	-10.3718
▁přestáv	-10.372
▁typů	-10.3726
▁vývoji	-10.3726
▁postih	-10.3735
▁Stál	-10.3737
▁doklad	-10.3738
▁západ	-10.3742
▁nedá	-10.3749
▁psa	-10.3752
▁fotbalový	-10.3757
▁hotelu	-10.377
▁programů	-10.3774
▁hranici	-10.3782
držet	-10.3782
dél	-10.3792
letý	-10.38
▁globální	-10.3806
▁sponzor	-10.3806
▁závazk	-10.3806
legislativ	-10.3806
▁monitor	-10.3806
▁řidič	-10.3806
▁úterý	-10.3806
▁výbuch	-10.3806
▁iniciativ	-10.3806
▁kapalin	-10.3806
▁Lidé	-10.3806
▁Letos	-10.3806
▁akademi	-10.3807
▁někdejší	-10.3807
▁včas	-10.3807
▁cesta	-10.3807
▁černo	-10.3808
▁šance	-10.3812
▁jestliže	-10.3815
▁typy	-10.3815
▁veškeré	-10.3821
▁lednu	-10.3821
▁děd	-10.3829
▁Mark	-10.3834
▁pořad	-10.3845
▁odborník	-10.3849
▁chud	-10.3851
▁MB	-10.3866
▁významný	-10.3869
▁republika	-10.3871
▁hledání	-10.3879
▁oblastí	-10.388
72	-10.388
▁končí	-10.3882
▁riziko	-10.389
▁ruce	-10.3891
▁pacientů	-10.3895
tají	-10.3897
hrát	-10.3903
▁Nebo	-10.391
padal	-10.3913
▁značné	-10.3917
▁soudí	-10.3918
▁podnikatelské	-10.3918
▁anti	-10.3919
▁profesionální	-10.3924
▁skutečné	-10.3931
TO	-10.3932
▁uzná	-10.3942
▁dům	-10.3945
▁muže	-10.3946
▁problémem	-10.3957
▁malá	-10.3958
▁poznat	-10.3965
▁Federální	-10.3975
▁nejdříve	-10.3975
▁používat	-10.3975
▁shromáždění	-10.3975
▁trénink	-10.3975
▁zvlášť	-10.3975
▁Lékař	-10.3975
▁útvar	-10.3975
▁dávno	-10.3975
▁potíže	-10.3976
operační	-10.3976
▁pěkn	-10.3976
▁verzi	-10.3976
▁mzdy	-10.3976
▁najednou	-10.3977
▁Jedn	-10.3979
padají	-10.398
▁zbytečn	-10.3983
▁vystoupení	-10.3983
▁výklad	-10.3983
▁členství	-10.3984
▁palác	-10.3985
SA	-10.3988
▁Zdá	-10.3989
▁úmysl	-10.3991
▁tabulky	-10.3992
▁studie	-10.3992
▁sluš	-10.3994
▁Změn	-10.3995
cvič	-10.3997
▁odpověď	-10.3997
▁rozdělení	-10.4019
▁děje	-10.402
▁získala	-10.4028
budete	-10.4052
▁kapitálu	-10.406
▁označení	-10.4067
▁budu	-10.4069
psané	-10.4072
TE	-10.4074
far	-10.4078
▁Auto	-10.4079
čan	-10.408
▁Chce	-10.408
ečná	-10.4081
▁Her	-10.4083
▁vznikla	-10.4083
▁vztahů	-10.41
▁Har	-10.4102
▁dosah	-10.4106
▁zprávu	-10.4106
▁lékařské	-10.4112
tabulk	-10.4131
▁časem	-10.4133
▁těsně	-10.4135
váží	-10.4139
▁Michael	-10.4148
▁Nicméně	-10.4148
▁primátor	-10.4148
▁umožnil	-10.4148
▁hospodaření	-10.4148
▁katalog	-10.4148
▁paragraf	-10.4148
▁prospěch	-10.4148
▁rozhodne	-10.4148
▁spočívá	-10.4148
▁výrobci	-10.4148
▁Československa	-10.4148
▁domnívá	-10.4148
▁odpovídající	-10.4148
▁císař	-10.4148
▁akcí	-10.4148
▁pozici	-10.4148
▁zaměstnanci	-10.415
ČSL	-10.4156
▁sedmdesát	-10.4167
▁soukromých	-10.4172
chůd	-10.4173
▁nalezen	-10.4174
▁akcie	-10.4183
▁délk	-10.4185
▁král	-10.4195
▁odpadů	-10.4197
▁záznamník	-10.4201
▁počítači	-10.4213
▁písemn	-10.4224
ejít	-10.4229
▁Kor	-10.4238
▁sjezd	-10.426
MO	-10.4261
▁Rus	-10.4261
▁deník	-10.4263
▁určit	-10.4267
ticky	-10.4276
ller	-10.4295
praví	-10.4313
likvid	-10.4322
energetick	-10.4323
izraelsk	-10.4323
▁odběratel	-10.4323
▁odvětví	-10.4323
▁mechanismu	-10.4323
▁uchazeč	-10.4323
▁firmu	-10.4323
▁ohrožen	-10.4323
▁hrozí	-10.4323
▁Tomáš	-10.4323
▁mnozí	-10.4323
▁mozku	-10.4323
▁propag	-10.4324
▁Dále	-10.4325
▁hovor	-10.4326
▁Pohár	-10.4328
▁hledat	-10.433
▁prvků	-10.4339
ismem	-10.434
▁DNA	-10.4341
▁horší	-10.4344
▁bezprostředn	-10.4347
▁britské	-10.4348
▁vyrovná	-10.4349
KU	-10.4357
▁budoucnost	-10.4384
▁Pražské	-10.4387
▁vědomí	-10.4395
▁půdě	-10.4399
▁vědeck	-10.4402
▁vznikají	-10.4417
nesou	-10.4428
▁rozvoje	-10.4441
▁ponech	-10.445
▁poháru	-10.4457
▁silné	-10.4458
brat	-10.4458
▁zemědělské	-10.4474
zaměstnan	-10.4475
▁ruský	-10.4495
▁absolv	-10.4501
znamenat	-10.4502
▁Clinton	-10.4502
▁aplikací	-10.4502
▁problematik	-10.4502
▁upozornil	-10.4502
▁zdůraznil	-10.4502
▁Československo	-10.4502
▁Švédsk	-10.4502
▁natolik	-10.4502
▁výrobě	-10.4502
▁Existuj	-10.4502
▁výroba	-10.4502
▁informoval	-10.4502
▁rodiče	-10.4502
▁nechtěl	-10.4502
▁tudíž	-10.4502
▁podpory	-10.4502
▁bankovní	-10.4502
▁reprezentace	-10.4503
čištění	-10.4504
▁zmíněné	-10.4505
hání	-10.4508
▁částečně	-10.4513
koupí	-10.4514
▁zápase	-10.4514
▁vytváření	-10.4515
▁limit	-10.4516
náší	-10.4521
▁hospodářsk	-10.4525
▁křiv	-10.4527
san	-10.4534
▁režim	-10.4539
▁Plat	-10.4544
▁vlastností	-10.455
▁uzavření	-10.455
▁ochotn	-10.4551
▁platnost	-10.4554
tematick	-10.4555
▁zavedení	-10.456
▁technick	-10.4561
▁případné	-10.4564
▁centrální	-10.4573
▁zpráva	-10.4574
bel	-10.4582
▁Poté	-10.4602
▁účastníků	-10.4622
tických	-10.463
tivně	-10.4635
▁přesun	-10.4637
▁umí	-10.4646
▁neexistuje	-10.4683
▁odpoledne	-10.4683
▁rozhodčí	-10.4683
▁svědčí	-10.4683
▁zjednoduš	-10.4683
▁organismu	-10.4683
▁připojištění	-10.4683
▁konzerv	-10.4683
▁paměti	-10.4684
▁stimul	-10.4684
▁vyhlášen	-10.4684
▁pomalu	-10.4684
povídal	-10.4684
▁vyloučen	-10.4685
▁Americk	-10.4686
▁Milan	-10.4688
▁kvalifikaci	-10.4689
▁připomíná	-10.4691
▁česká	-10.4695
▁oblastech	-10.4697
▁pražsk	-10.4705
IC	-10.4708
▁povinn	-10.4715
▁Lidov	-10.4721
žijí	-10.4725
▁obecně	-10.4735
▁programové	-10.4737
entní	-10.4759
▁nynější	-10.476
▁dílo	-10.4769
▁Bre	-10.4769
▁sněmovn	-10.4769
▁loňském	-10.4776
▁zraněn	-10.4787
skok	-10.4789
▁olej	-10.4797
▁nejvíc	-10.482
lární	-10.4826
▁materiálů	-10.4836
▁Slovenska	-10.4839
▁děj	-10.4846
▁The	-10.4856
▁brněnské	-10.4856
▁koncentr	-10.4866
▁rozliš	-10.4867
▁Itálie	-10.4869
▁KSČM	-10.4869
▁Londýn	-10.4869
▁Ovšem	-10.4869
▁Program	-10.4869
▁konflikt	-10.4869
▁maďarsk	-10.4869
▁spolehliv	-10.4869
▁zveřejněn	-10.4869
▁úspěšně	-10.4869
alternativ	-10.4869
▁výhradn	-10.4869
▁Ministr	-10.4869
▁neustále	-10.4869
▁stránce	-10.4869
▁rychlé	-10.4869
▁minimální	-10.4869
▁desetiletí	-10.4869
hlédnout	-10.4869
▁praxe	-10.4869
▁snažil	-10.4869
▁záchran	-10.4869
Vesmír	-10.4869
▁chorob	-10.4869
▁vysíla	-10.4869
▁dodnes	-10.4869
▁nicméně	-10.4871
▁pouhý	-10.4872
▁vyjádření	-10.4872
▁potřeba	-10.4873
▁regionální	-10.4875
▁činitel	-10.4875
▁paliv	-10.4875
▁úsek	-10.4875
▁desítek	-10.4876
▁duše	-10.4877
▁zdejší	-10.4877
padlo	-10.4882
▁Ital	-10.4885
▁turistick	-10.4886
▁vzájemné	-10.4889
▁vybrat	-10.489
▁Ostravě	-10.4893
▁náhradní	-10.4895
▁vlastnost	-10.4896
▁určitou	-10.4904
kin	-10.491
▁registr	-10.4928
průměr	-10.4933
pravit	-10.4935
▁kup	-10.4946
▁slev	-10.4949
▁soustavy	-10.4954
▁milion	-10.496
▁přístroje	-10.4965
vítá	-10.4986
▁značn	-10.4996
▁zpráv	-10.4998
▁chat	-10.4999
▁významné	-10.5003
▁autorů	-10.502
inak	-10.5033
▁Karadžič	-10.5057
▁Všichni	-10.5057
▁náměstek	-10.5057
▁poptávky	-10.5057
▁profesor	-10.5057
▁teoretick	-10.5057
▁zvítězil	-10.5057
▁zúčastnil	-10.5057
▁jednoduchý	-10.5057
▁špatně	-10.5057
▁Naopak	-10.5057
▁čtení	-10.5058
▁jediná	-10.5058
▁statistick	-10.5058
▁skvěl	-10.5059
▁specializovan	-10.506
▁poslance	-10.506
▁zaměstnance	-10.5061
▁Snad	-10.5061
▁koncentrace	-10.5062
▁kostel	-10.5062
▁potřebují	-10.5062
▁odborníci	-10.5063
▁nabídl	-10.5068
▁měření	-10.5069
▁Výstav	-10.5072
▁atlet	-10.5072
▁produktů	-10.5075
▁okna	-10.5075
ohra	-10.5077
▁mohu	-10.5078
▁29	-10.5083
▁Car	-10.5085
▁zrušení	-10.5089
▁stráž	-10.5091
▁standardní	-10.5095
▁úvah	-10.5107
▁pohár	-10.5109
▁vložen	-10.5113
▁stovky	-10.5114
▁Evropsk	-10.5114
▁Nejs	-10.5121
▁vychází	-10.5122
▁automaticky	-10.5125
stával	-10.5139
▁záležitostí	-10.514
▁škole	-10.5144
▁přestup	-10.5162
ňující	-10.5207
▁lidsk	-10.5224
▁rozpad	-10.5226
▁mírn	-10.5229
▁roh	-10.5231
▁činností	-10.5237
ráží	-10.5244
povídají	-10.5249
▁investovat	-10.525
▁Ředitel	-10.525
▁šestnáct	-10.525
▁historie	-10.525
▁upraven	-10.525
▁mladé	-10.525
▁resort	-10.525
▁zakázk	-10.525
▁anglické	-10.525
▁konzul	-10.525
▁zbraně	-10.525
▁turistů	-10.525
▁ovládá	-10.525
▁bydlení	-10.525
▁pozice	-10.5251
▁věnoval	-10.5251
bavit	-10.5251
▁pojetí	-10.5251
▁získan	-10.5251
▁zápis	-10.5252
▁nechat	-10.5252
▁samotné	-10.5254
▁stíhán	-10.5254
▁lidmi	-10.5263
ekonomický	-10.5263
▁krátce	-10.5266
▁zlom	-10.5275
▁dodávky	-10.5277
▁ZA	-10.5279
ujte	-10.5291
▁soutěží	-10.5299
▁šampionátu	-10.5302
▁pohybuje	-10.5302
soci	-10.5303
▁věnuj	-10.5303
▁hodnota	-10.5314
▁voličů	-10.5323
▁600	-10.5326
▁domě	-10.5327
▁čekají	-10.534
▁vzal	-10.5342
▁lov	-10.5342
▁obecní	-10.5345
▁dostává	-10.5345
▁Soud	-10.5353
▁váh	-10.5357
sion	-10.5358
▁provedení	-10.5366
▁slun	-10.5373
▁omezení	-10.5383
▁výchov	-10.5385
▁investic	-10.539
▁reálné	-10.54
▁nejdůležitější	-10.5413
▁vešker	-10.5428
▁úspěšné	-10.5446
▁Především	-10.5446
▁elektrárny	-10.5446
▁měsíčně	-10.5446
▁sobotní	-10.5446
▁umožní	-10.5446
▁Richard	-10.5446
▁snížit	-10.5446
▁minimálně	-10.5446
▁veřejný	-10.5446
▁zvýšit	-10.5446
▁Spojené	-10.5446
▁úsilí	-10.5446
▁okruh	-10.5446
▁srovnateln	-10.5446
▁kritik	-10.5446
▁seminář	-10.5447
▁snímky	-10.5447
▁doslova	-10.5447
▁setkal	-10.5448
▁sektor	-10.5448
▁míře	-10.5449
▁tvorbu	-10.5449
▁poškození	-10.5449
▁černé	-10.545
▁zobrazení	-10.5451
▁ukončen	-10.5451
spektr	-10.5453
▁Češi	-10.5453
▁různým	-10.5456
▁celek	-10.5457
hodné	-10.546
▁osmdesát	-10.546
▁myší	-10.546
▁pravdu	-10.5461
▁nucen	-10.5461
▁údajn	-10.5464
▁italské	-10.547
▁okolností	-10.5482
▁policistů	-10.5502
▁činil	-10.5503
erie	-10.5503
▁cestě	-10.5512
vir	-10.5513
▁rozvod	-10.5517
▁žádná	-10.5517
▁občanské	-10.5518
▁správně	-10.5527
▁soupeře	-10.5529
oporu	-10.5542
▁cítí	-10.5545
▁znát	-10.5553
působit	-10.5562
▁mistrů	-10.5566
hradí	-10.5571
▁195	-10.5573
▁moravsk	-10.558
▁konstatoval	-10.5584
▁forma	-10.5588
kreslen	-10.5589
▁38	-10.5592
▁Občansk	-10.5593
▁koalic	-10.5595
▁generál	-10.5626
▁PC	-10.5631
▁existence	-10.5646
▁konkurenční	-10.5646
▁matematik	-10.5646
▁pojišťovny	-10.5646
▁rozhodování	-10.5646
▁specifick	-10.5646
▁spolupracovník	-10.5646
▁úspěšný	-10.5646
▁Samozřejmě	-10.5646
▁ČNR	-10.5646
▁výdaje	-10.5646
▁širší	-10.5646
▁schůzk	-10.5646
▁divadla	-10.5646
▁dobrovoln	-10.5646
▁editor	-10.5646
▁půjde	-10.5646
▁výskyt	-10.5646
▁sdělení	-10.5646
▁nabídka	-10.5646
▁Vznik	-10.5647
▁úvodní	-10.5647
▁Řad	-10.5648
▁strach	-10.5654
▁Střed	-10.5657
▁obsadil	-10.5657
hlédn	-10.5657
▁celní	-10.5661
▁úraz	-10.5667
▁Muž	-10.5667
▁nezávislých	-10.5671
▁představení	-10.5682
▁myšlení	-10.5685
▁vzniká	-10.5688
▁vykoná	-10.5699
▁tiskov	-10.5725
▁ústavní	-10.5729
▁bezpečnost	-10.5733
▁obyčejn	-10.5734
ŘE	-10.5738
hladov	-10.5739
▁dodat	-10.5746
▁krásn	-10.5754
▁podnikatelé	-10.5754
▁Proti	-10.5774
ňoval	-10.5775
nder	-10.5782
▁představují	-10.5797
▁postaven	-10.5798
▁ochot	-10.5803
▁společn	-10.5814
státní	-10.5829
▁italsk	-10.5843
▁důstojn	-10.585
▁alkohol	-10.585
▁církve	-10.585
▁koordin	-10.585
▁nábožensk	-10.585
▁přehlídk	-10.585
▁týdny	-10.585
▁1988	-10.585
▁Němci	-10.585
▁odmítá	-10.585
▁usnesení	-10.585
▁úředník	-10.585
▁surovin	-10.585
▁nízké	-10.585
▁porušení	-10.585
▁představitelů	-10.585
▁kolegy	-10.585
▁rozporu	-10.585
▁vražd	-10.5851
▁zapotřebí	-10.5851
▁přišla	-10.5851
▁privatizační	-10.5852
▁mód	-10.5853
▁zbytk	-10.5854
▁Teď	-10.5859
▁létě	-10.5861
▁sluch	-10.5861
▁StB	-10.5867
hradil	-10.587
▁chemické	-10.5872
▁Kur	-10.5884
hradit	-10.5886
▁žijící	-10.5888
▁přímé	-10.589
▁silný	-10.589
▁mladých	-10.5892
cker	-10.5895
▁temp	-10.5905
▁technický	-10.5917
▁výuk	-10.5923
▁lidského	-10.5923
▁Slovensko	-10.5924
hodil	-10.5924
▁vůle	-10.5925
▁založil	-10.5933
▁německého	-10.5937
letěl	-10.5953
▁prodá	-10.5966
padne	-10.5968
kupní	-10.597
▁okraj	-10.598
▁Pražsk	-10.5983
izační	-10.5988
▁automobilů	-10.5998
▁společenské	-10.6005
▁dřív	-10.6013
posled	-10.6014
▁33	-10.6021
▁Kde	-10.6032
▁poškoz	-10.6043
▁mluví	-10.6044
▁Indi	-10.6045
▁Egypt	-10.6058
▁firmou	-10.6058
▁funkční	-10.6058
▁pokračoval	-10.6058
▁spisovatel	-10.6058
▁technologií	-10.6058
▁zvyšuje	-10.6058
▁úmrtnosti	-10.6058
▁Druhý	-10.6058
▁Moskvě	-10.6058
▁technologick	-10.6058
▁třináct	-10.6058
▁vynikající	-10.6058
▁Místo	-10.6058
▁mužstva	-10.6058
▁nabízen	-10.6058
▁populace	-10.6058
▁dětské	-10.6058
▁ihned	-10.6058
▁Třetí	-10.6058
hlásí	-10.6058
ičtější	-10.6058
▁devíti	-10.6058
▁dovolené	-10.6058
▁štěstí	-10.6058
▁Předseda	-10.6058
KDU	-10.6058
▁Francii	-10.6058
▁antropolog	-10.6059
vzdor	-10.6059
▁Pomuku	-10.6059
▁oblačno	-10.6059
▁reprezentační	-10.606
▁Bush	-10.606
▁Boris	-10.606
▁nasazen	-10.606
▁tábor	-10.6061
▁Svaz	-10.6062
objednáv	-10.6063
▁nemocnici	-10.6064
▁částka	-10.6065
▁Více	-10.6067
▁spotřební	-10.6067
▁mluvit	-10.6073
▁bomb	-10.6074
▁obětí	-10.6077
▁pomohl	-10.6078
▁Avšak	-10.608
▁vyrovnan	-10.608
▁daňový	-10.6084
▁šok	-10.6084
dostala	-10.6094
▁špičkov	-10.61
▁mysli	-10.6101
▁zastoupení	-10.611
▁těla	-10.6112
▁podklad	-10.6118
▁přichází	-10.6122
▁stačil	-10.6122
▁Dobr	-10.6155
▁CS	-10.6156
spal	-10.6162
▁odpadní	-10.6171
▁klade	-10.6185
▁Jižní	-10.6195
▁jednoznačn	-10.6214
▁prodává	-10.6229
EK	-10.6231
▁setká	-10.6242
▁dostih	-10.6245
▁elektro	-10.6258
▁financování	-10.6271
▁implant	-10.6271
▁konkurenci	-10.6271
▁magistrát	-10.6271
▁nakladatelství	-10.6271
▁tehdejší	-10.6271
▁transformace	-10.6271
▁výsledkem	-10.6271
▁závislost	-10.6271
▁úmrtí	-10.6271
▁španělsk	-10.6271
▁dlužník	-10.6271
▁sledovat	-10.6271
▁mládež	-10.6271
▁zlepšení	-10.6271
▁rozhodnout	-10.6271
▁negativní	-10.6271
▁budoucnu	-10.6271
▁souvisí	-10.6271
▁příjmu	-10.6271
▁civilní	-10.6271
▁katolick	-10.6271
▁operace	-10.6271
▁zabránit	-10.6271
stěhoval	-10.6271
▁Vláda	-10.6271
▁zaplatit	-10.6271
▁cukr	-10.6272
▁jedinou	-10.6272
▁Slavie	-10.6272
▁svěřen	-10.6273
▁Kanad	-10.6273
▁PCB	-10.6274
▁mladí	-10.6274
izovan	-10.6275
▁Wales	-10.6276
▁střet	-10.6276
▁Zájem	-10.6277
▁překvapení	-10.6277
▁Euro	-10.6278
▁takzvan	-10.6279
▁Vedle	-10.6287
▁vyzval	-10.6302
▁přítel	-10.6302
▁lesní	-10.6309
▁3000	-10.6312
▁Konce	-10.6315
▁formou	-10.6317
▁nechá	-10.6323
▁Lin	-10.6327
▁UK	-10.6331
▁barevné	-10.6333
▁produktu	-10.6336
▁výhodné	-10.6339
▁povinností	-10.6349
árek	-10.6368
▁jezdí	-10.6372
▁stiskn	-10.6372
▁hrají	-10.6383
▁32	-10.6384
ED	-10.6385
▁prodejní	-10.6386
▁soustav	-10.6396
TU	-10.6397
▁celkový	-10.6415
▁krátké	-10.6419
ejména	-10.6431
▁vážně	-10.6451
dařilo	-10.6475
▁zbytečné	-10.6479
▁někde	-10.6488
▁Ostatně	-10.6488
▁Plzeň	-10.6488
▁Sdružení	-10.6488
▁obrázek	-10.6488
▁rekreační	-10.6488
▁červnu	-10.6488
▁astronom	-10.6488
▁služba	-10.6488
▁záleží	-10.6488
▁přiznání	-10.6488
▁následk	-10.6488
▁pozorovatel	-10.6488
▁porovnání	-10.6489
▁účetní	-10.6489
▁vesmír	-10.6489
▁krize	-10.6489
▁navrhl	-10.649
▁výrok	-10.6491
▁sítí	-10.6493
▁Výbor	-10.6494
▁Ačkoli	-10.6497
▁adapt	-10.65
▁místnosti	-10.6502
▁úzk	-10.6509
▁přináší	-10.6511
▁strojů	-10.6511
▁požár	-10.6515
▁zahrad	-10.6519
▁udržet	-10.652
▁začátkem	-10.652
působil	-10.6523
fyzikální	-10.6525
▁jednotky	-10.6534
hodnotí	-10.6535
▁jasně	-10.6538
▁historické	-10.6541
▁účastní	-10.6544
▁Kraj	-10.6546
▁prodávat	-10.6548
▁turnaje	-10.6552
▁hodnotě	-10.6554
ZE	-10.6556
▁nemáme	-10.6578
▁lesy	-10.6588
▁Firm	-10.659
Ú	-10.659
Švýcarsk	-10.6604
hodnou	-10.6606
▁historický	-10.6616
▁americk	-10.6628
ukce	-10.6638
▁nezávislost	-10.6653
▁hlad	-10.6654
běhu	-10.6655
▁správné	-10.6657
▁vědom	-10.6661
logický	-10.6665
▁Bratislavě	-10.6711
▁dividend	-10.6711
▁kategorie	-10.6711
▁kompromis	-10.6711
▁odpověděl	-10.6711
▁otázce	-10.6711
▁rozpočtov	-10.6711
▁stadión	-10.6711
▁týdnů	-10.6711
▁uskuteční	-10.6711
▁administra	-10.6711
▁monopol	-10.6711
▁potvrzen	-10.6711
▁nabídnout	-10.6711
▁Návrh	-10.6711
▁jaterní	-10.6711
▁Nakonec	-10.6711
▁stížnost	-10.6711
▁péči	-10.6711
▁žalob	-10.6711
▁podpora	-10.6711
▁patřil	-10.6711
▁Graf	-10.6711
▁čisté	-10.6712
▁interak	-10.6712
▁dovolit	-10.6712
▁server	-10.6712
▁nepodařilo	-10.6713
nášejí	-10.6716
▁žlut	-10.6718
OVÁ	-10.672
▁okno	-10.6721
▁Podnik	-10.6725
▁nedostatek	-10.6729
▁připravit	-10.6732
nejvýš	-10.6733
rgi	-10.6735
▁zjistit	-10.6741
▁Brno	-10.6743
▁stará	-10.675
▁prvky	-10.6751
VI	-10.6752
▁120	-10.6761
▁nákladní	-10.6762
▁vyvíj	-10.6763
▁věděl	-10.6765
▁tajné	-10.6767
▁vyspělý	-10.6771
▁přítomn	-10.678
▁soust	-10.6782
LU	-10.6785
▁sub	-10.6786
▁získání	-10.6802
soudit	-10.6806
▁církev	-10.6809
▁hledá	-10.6814
▁55	-10.6817
tkání	-10.683
▁hlubo	-10.6831
▁vojenský	-10.6849
71	-10.6864
▁vědecký	-10.6869
▁hře	-10.6871
pálen	-10.6884
▁Evropský	-10.6906
▁okrese	-10.6911
▁desít	-10.6917
▁magnet	-10.6919
IL	-10.692
▁funguje	-10.6938
▁křesťan	-10.6938
▁otevření	-10.6938
▁otázek	-10.6938
▁rozhodovat	-10.6938
▁vyšetřování	-10.6938
▁Slunce	-10.6938
▁advokát	-10.6938
▁existenci	-10.6938
▁pojišťovna	-10.6938
▁poskytnut	-10.6938
▁přání	-10.6938
▁žádá	-10.6938
▁lokalit	-10.6938
▁ostatně	-10.6938
▁vytvoří	-10.6938
▁aktuální	-10.6938
▁zálož	-10.6938
▁operaci	-10.6938
▁vyberte	-10.6938
▁situací	-10.6938
▁legend	-10.6938
▁převzal	-10.6938
▁islám	-10.6938
▁letadla	-10.6938
▁Znamen	-10.6938
▁zůstávají	-10.6938
▁dlouhodobé	-10.6939
▁stáří	-10.6939
▁dobrou	-10.6939
▁molekulární	-10.6941
▁návštěvníků	-10.6942
▁prud	-10.6942
▁SRN	-10.6944
▁pochod	-10.6944
▁protein	-10.6947
▁míní	-10.6948
pozoruhodn	-10.6949
▁vystudoval	-10.695
▁zájemců	-10.6958
▁Obecn	-10.6959
třída	-10.6983
▁příslušný	-10.6988
▁vypadá	-10.6989
▁formě	-10.6992
▁oceněn	-10.7002
▁Brna	-10.7004
▁vojensk	-10.7012
▁tvor	-10.7017
▁potřeboval	-10.7031
▁označen	-10.7046
▁složen	-10.7055
▁srážk	-10.7114
▁příběh	-10.7128
"	-10.715
▁interpret	-10.7151
▁jugoslávsk	-10.717
▁literatur	-10.717
▁Anglie	-10.717
▁George	-10.717
▁Králové	-10.717
▁Nejvyšší	-10.717
▁disciplín	-10.717
▁institucí	-10.717
▁laboratoř	-10.717
▁mladší	-10.717
▁nejčastěji	-10.717
▁organizační	-10.717
▁přinejmenším	-10.717
▁příspěvek	-10.717
▁software	-10.717
▁spravedlnost	-10.717
▁vzrostl	-10.717
▁zabezpečení	-10.717
▁přispěl	-10.717
▁dráhy	-10.717
▁rodičů	-10.717
▁nestačí	-10.717
▁pochopitelně	-10.7171
▁souboj	-10.7171
▁účinnost	-10.7171
▁předpisů	-10.7171
▁přírodovědeck	-10.7171
▁vlastnictví	-10.7171
▁Polici	-10.7172
▁Bosně	-10.7172
▁přijít	-10.7173
▁tvorby	-10.7175
▁úloh	-10.7176
dostanou	-10.7177
▁podobu	-10.7178
▁vrátí	-10.718
▁výplat	-10.7181
▁poruch	-10.7182
▁přicházejí	-10.7183
▁poznatky	-10.7186
▁přijmout	-10.7187
▁ekonomických	-10.7188
▁vědců	-10.7189
▁Stačí	-10.719
pozn	-10.7191
▁zničen	-10.72
▁policisté	-10.7205
▁nemusel	-10.721
▁hodinách	-10.7214
▁vozů	-10.7216
▁250	-10.7222
▁levnější	-10.7225
▁smut	-10.7238
▁uznání	-10.7248
▁léky	-10.7252
rážky	-10.7288
▁ideální	-10.7288
▁komplexní	-10.7291
▁skutečný	-10.7299
▁církevní	-10.7304
▁Stát	-10.733
nedávn	-10.7335
▁chyt	-10.7361
staral	-10.7385
ontrol	-10.7399
▁pojme	-10.7402
▁blízko	-10.7406
▁Anglii	-10.7408
▁Jaromír	-10.7408
▁Microsoft	-10.7408
▁NHL	-10.7408
▁duchovní	-10.7408
▁francouzské	-10.7408
▁inteligen	-10.7408
▁jménem	-10.7408
▁medaile	-10.7408
▁navzájem	-10.7408
▁odpovědi	-10.7408
▁požadavek	-10.7408
▁praktické	-10.7408
▁sortiment	-10.7408
▁tvůrc	-10.7408
▁uzavřít	-10.7408
▁veřejně	-10.7408
▁využívat	-10.7408
▁výpočetní	-10.7408
▁zabývat	-10.7408
▁zástupců	-10.7408
▁ČEZ	-10.7408
▁článek	-10.7408
▁manipul	-10.7408
▁mužstvo	-10.7408
▁asociace	-10.7408
▁měřítk	-10.7409
▁poskytují	-10.7409
▁Major	-10.7409
▁řetěz	-10.7409
▁dětem	-10.7409
▁prestiž	-10.7409
▁dočasn	-10.7409
▁chvíle	-10.7409
▁sfér	-10.7409
▁bolest	-10.741
▁zhorš	-10.7411
▁čekal	-10.7412
▁Chtěl	-10.7412
▁sloup	-10.7417
▁přeměn	-10.7418
▁venkov	-10.7418
▁Odbor	-10.742
▁okolní	-10.742
▁risk	-10.7423
ODS	-10.7423
▁vysvětlit	-10.7425
▁třikrát	-10.7425
▁uvažuje	-10.7432
▁hrob	-10.7432
▁disket	-10.7434
▁výstavby	-10.7437
ěřitel	-10.7438
▁dres	-10.7453
▁týkající	-10.7465
▁vydává	-10.7482
▁nástroje	-10.7488
▁překvapiv	-10.7491
musela	-10.7491
▁obsahující	-10.7495
▁Paul	-10.7502
▁obecné	-10.7539
▁používání	-10.7546
▁pracující	-10.7548
▁zemské	-10.7566
soudil	-10.7582
histor	-10.7584
▁herec	-10.759
▁rozdělen	-10.7591
▁špičk	-10.7609
spraš	-10.7618
▁výjimk	-10.7619
▁pracují	-10.7628
▁pokusil	-10.7631
čátkem	-10.7632
▁Kap	-10.7636
▁účastník	-10.7639
šetřit	-10.7652
▁motocykl	-10.7652
▁organizaci	-10.7652
▁považuji	-10.7652
▁související	-10.7652
▁Důležit	-10.7652
▁Obchodní	-10.7652
▁dlouhý	-10.7652
▁souladu	-10.7652
▁údržb	-10.7652
▁ministři	-10.7652
▁expozi	-10.7652
▁generace	-10.7652
▁kongres	-10.7652
▁socialist	-10.7652
▁vyhlášk	-10.7652
▁vysoká	-10.7652
▁Polska	-10.7653
▁doporučen	-10.7653
▁Potřeb	-10.7653
▁Žádn	-10.7653
▁obrátil	-10.7653
šetří	-10.7653
▁doping	-10.7653
▁chtít	-10.7653
▁Čtyř	-10.7653
▁Michal	-10.7654
▁vyplatí	-10.7654
▁vlajk	-10.7654
▁Možnost	-10.7656
ŘÍ	-10.7656
▁vystaven	-10.7656
▁nejspíš	-10.7656
▁tepeln	-10.7657
▁omyl	-10.7658
▁studia	-10.7659
▁získáva	-10.766
▁územní	-10.766
▁počítačové	-10.7663
▁nedělní	-10.7669
▁ukazují	-10.7676
kupovat	-10.7682
▁předložil	-10.7683
▁neznamená	-10.7685
▁odborných	-10.7688
těsn	-10.769
▁hospodářský	-10.7692
▁Zlín	-10.7698
▁dolar	-10.7699
▁lesů	-10.7707
▁kdysi	-10.7727
▁Představ	-10.773
▁prst	-10.7733
▁nedávné	-10.7736
OLE	-10.7741
skočil	-10.7742
omín	-10.7749
▁průmyslový	-10.776
▁hluboko	-10.7767
▁zahájen	-10.7777
▁uvedený	-10.7789
▁ačkoli	-10.7791
▁souvislost	-10.78
▁značný	-10.7811
tažení	-10.7823
▁některým	-10.7827
▁Poslaneck	-10.7836
▁vydá	-10.7845
▁noční	-10.7855
lezl	-10.7867
článk	-10.788
jmout	-10.7884
▁dokonale	-10.7896
▁atmosféře	-10.7902
▁delegace	-10.7902
▁devadesát	-10.7902
▁dozvěděl	-10.7902
▁elektřin	-10.7902
▁francouzský	-10.7902
▁inflace	-10.7902
▁květnu	-10.7902
▁penzijní	-10.7902
▁poptávka	-10.7902
▁sedmnáct	-10.7902
▁službu	-10.7902
▁Skutečn	-10.7902
▁mandát	-10.7902
▁nejnovější	-10.7902
▁oblíben	-10.7902
▁očekávan	-10.7902
▁badatel	-10.7902
▁vysokoškol	-10.7902
▁všude	-10.7902
▁Viktor	-10.7902
▁považují	-10.7902
▁Nejvíce	-10.7902
▁doprovod	-10.7902
▁soustředěn	-10.7902
▁stanovisko	-10.7902
▁přírodě	-10.7902
▁prosadit	-10.7902
▁politická	-10.7902
▁zábav	-10.7903
▁Popper	-10.7903
▁čísel	-10.7903
▁vyšetřovatel	-10.7903
▁Podnikatel	-10.7904
▁tvořen	-10.7904
▁dřívější	-10.7904
▁dohodnut	-10.7905
▁citliv	-10.7905
▁vysloven	-10.7905
▁vysvětlení	-10.7906
▁rytm	-10.7906
▁velitel	-10.7907
▁podaří	-10.7907
ovněž	-10.7907
▁slovenských	-10.7908
pravděpodobností	-10.791
▁vrací	-10.7914
▁myši	-10.7916
▁mínění	-10.7918
▁výstup	-10.792
▁zlato	-10.7921
▁grafik	-10.7922
▁brát	-10.7923
▁Chceme	-10.7925
▁800	-10.7929
▁sousední	-10.7929
pravují	-10.7934
▁řeší	-10.7936
▁nedostal	-10.7946
▁léků	-10.7947
kazují	-10.7947
▁vysvětlil	-10.7949
▁kamer	-10.7958
▁bilanc	-10.796
▁stupně	-10.796
▁Kolik	-10.7961
▁dosahuje	-10.7964
▁podílel	-10.7965
jedou	-10.7976
▁předložen	-10.7982
▁získává	-10.7992
▁policist	-10.8048
▁potřebný	-10.8051
vlas	-10.8091
▁volič	-10.8094
lezsk	-10.8109
OP	-10.8116
▁přírodověd	-10.8158
hlížet	-10.8159
▁Výsledk	-10.8159
▁atraktivní	-10.8159
▁blízké	-10.8159
▁centimetr	-10.8159
▁milióny	-10.8159
▁požadavků	-10.8159
▁rozšířit	-10.8159
▁telekomunikační	-10.8159
▁tiskárny	-10.8159
▁žebříčku	-10.8159
▁Zajímav	-10.8159
▁montáž	-10.8159
▁Brazíli	-10.8159
▁předpokládat	-10.8159
▁rozhraní	-10.8159
▁složky	-10.8159
▁dlouhá	-10.8159
▁používají	-10.8159
▁chráněn	-10.8159
▁závisí	-10.8159
▁koncepce	-10.8159
▁nabídce	-10.8159
▁Důvod	-10.8159
▁externí	-10.8159
▁zaplacen	-10.8159
▁vysoce	-10.8159
▁naděje	-10.8159
▁Sparty	-10.8159
▁muzea	-10.8161
▁vozidl	-10.8161
▁barvy	-10.8161
▁učinil	-10.8162
▁můj	-10.8163
▁mozkov	-10.8167
▁naději	-10.8167
▁vysvětluje	-10.8168
▁Knih	-10.8171
▁unii	-10.8173
▁umožňující	-10.818
▁Irsk	-10.8185
▁Chyb	-10.8192
▁Nebyl	-10.8198
▁Voj	-10.8217
▁jakékoli	-10.8228
▁hus	-10.824
▁uzavřel	-10.8244
pamatuj	-10.8248
▁šat	-10.8252
▁Stran	-10.8257
▁Novák	-10.8259
▁stín	-10.826
▁Autor	-10.8284
▁komplex	-10.8287
▁finančn	-10.8293
▁divák	-10.8315
▁působ	-10.8315
▁podstatné	-10.8332
večer	-10.8333
prodej	-10.8335
▁britský	-10.8343
elektrick	-10.8359
▁psycholog	-10.8365
▁rodinné	-10.8369
místě	-10.8372
▁okolnost	-10.8376
kládal	-10.8388
▁Nizozemsk	-10.8406
hnal	-10.8411
▁Celkov	-10.8418
▁pivo	-10.8421
▁Itálii	-10.8422
▁Masaryk	-10.8422
▁divadelní	-10.8422
▁inženýr	-10.8422
▁kilogram	-10.8422
▁obligace	-10.8422
▁orientac	-10.8422
▁otevřené	-10.8422
▁pedagog	-10.8422
▁požaduje	-10.8422
▁vojáků	-10.8422
▁vybírat	-10.8422
▁výjimečn	-10.8422
▁Miloslav	-10.8422
▁peněžní	-10.8422
▁snižování	-10.8422
favorit	-10.8422
▁komentář	-10.8422
▁reagoval	-10.8422
▁přirozený	-10.8422
▁rychlý	-10.8422
▁úrovní	-10.8422
▁komplet	-10.8422
▁zjistí	-10.8422
▁odsouzen	-10.8422
▁zkušebn	-10.8422
▁skončení	-10.8422
▁poskytován	-10.8422
▁povinen	-10.8422
▁průkaz	-10.8422
▁nevěděl	-10.8422
▁menšin	-10.8422
▁Jugoslávii	-10.8423
▁absolvent	-10.8423
▁podívat	-10.8423
▁důkladn	-10.8423
▁každodenn	-10.8423
▁odstraněn	-10.8424
▁najevo	-10.8425
dvacetiletý	-10.8425
▁přerušen	-10.8426
korun	-10.8427
▁zaplatil	-10.8428
▁říct	-10.8429
▁Peter	-10.8431
▁zavře	-10.8431
▁jistý	-10.8433
▁plát	-10.8441
wan	-10.845
▁nesmírn	-10.8451
projevuje	-10.8451
▁strav	-10.8457
▁japonské	-10.8484
▁vyhledá	-10.8486
▁stěn	-10.8493
▁mimořádný	-10.8496
▁profesionál	-10.8502
▁pokyn	-10.8503
▁věk	-10.8508
▁polské	-10.8511
▁Fotbal	-10.852
▁hmotnost	-10.854
▁schválil	-10.8561
dávky	-10.8566
příč	-10.8579
ALI	-10.8588
▁podřízen	-10.8613
▁dramatick	-10.864
▁skladb	-10.8641
tisícov	-10.8645
▁zaveden	-10.8651
▁Např	-10.8665
ěsíční	-10.8674
▁průběh	-10.868
▁recept	-10.8692
▁Kazachstán	-10.8692
▁Oznámil	-10.8692
▁Univerzit	-10.8692
▁existovat	-10.8692
▁obtížné	-10.8692
▁prezentací	-10.8692
▁svědomí	-10.8692
▁ubytování	-10.8692
▁vyjádřit	-10.8692
▁vytvářet	-10.8692
▁zdánlivě	-10.8692
▁Několik	-10.8692
▁Problém	-10.8692
▁informaci	-10.8692
▁ztrácí	-10.8692
▁poskytovat	-10.8692
▁stříbrn	-10.8692
▁prodloužen	-10.8692
▁bariér	-10.8692
▁komerční	-10.8692
▁sediment	-10.8692
▁komunismu	-10.8692
▁československé	-10.8692
▁střediska	-10.8692
▁veletrh	-10.8692
▁února	-10.8692
▁junio	-10.8692
▁slavnostní	-10.8693
▁propojen	-10.8693
▁zmizel	-10.8693
záběr	-10.8693
▁zvětš	-10.8693
▁kvantov	-10.8693
▁předpisy	-10.8693
▁Slovinsk	-10.8693
▁pěst	-10.8693
▁vlákn	-10.8694
▁hrdin	-10.8696
▁geolog	-10.8697
▁vybraný	-10.8698
▁optimální	-10.8698
najdete	-10.8699
▁udělá	-10.8699
▁prováděn	-10.87
▁kupující	-10.8701
střelil	-10.8701
▁náskok	-10.8701
▁Bójové	-10.8702
▁komunikace	-10.8702
▁továrn	-10.8703
▁uvolněn	-10.8704
▁zmíněný	-10.8706
▁rychleji	-10.8706
▁zítra	-10.8707
▁hrách	-10.8713
▁bezplatn	-10.8715
▁zvolil	-10.8721
▁sále	-10.8722
▁dálnic	-10.873
▁závodník	-10.8731
▁atomov	-10.8745
▁Ostrav	-10.8749
▁klimatický	-10.8752
važoval	-10.8759
tivnější	-10.8866
sovětsk	-10.8866
▁jasno	-10.8867
▁plno	-10.8869
▁automatick	-10.8871
▁hledají	-10.8883
vlastn	-10.8898
sáhnout	-10.8932
▁mírové	-10.8938
krás	-10.8945
▁kontinent	-10.8952
▁privatiz	-10.896
▁plný	-10.8966
▁ClipArt	-10.897
▁Krkonoš	-10.897
▁basketbal	-10.897
▁demokracii	-10.897
▁fanoušků	-10.897
▁lustrační	-10.897
▁navštívil	-10.897
▁nepochybn	-10.897
▁obligací	-10.897
▁opoziční	-10.897
▁otevřel	-10.897
▁otázkou	-10.897
▁ovzduší	-10.897
▁pracoviště	-10.897
▁prokurátor	-10.897
▁vyrábí	-10.897
▁železniční	-10.897
ačtyřicet	-10.897
▁jednoduše	-10.897
▁nádraží	-10.897
▁osmnáct	-10.897
▁častěji	-10.897
▁pobřeží	-10.897
poloviční	-10.897
▁oblečení	-10.897
▁Rumunsk	-10.897
▁Pracovní	-10.897
▁příchod	-10.897
▁statut	-10.8971
▁odstranit	-10.8971
▁knize	-10.8971
▁věnován	-10.8971
▁knížk	-10.8971
▁záření	-10.8972
▁modul	-10.8972
▁obnoven	-10.8972
ložený	-10.8973
▁blízkosti	-10.8973
▁raket	-10.8974
▁Tehd	-10.8975
▁vážné	-10.8975
▁poradensk	-10.8981
▁scénář	-10.8983
▁říkal	-10.8983
▁písmen	-10.8984
▁přínos	-10.8985
▁dohodnout	-10.8986
▁několikrát	-10.8987
▁Motor	-10.8987
▁Rád	-10.8989
▁chyběl	-10.8991
případě	-10.8993
nutil	-10.8994
▁společník	-10.8994
myslet	-10.8995
▁pramen	-10.9001
▁Pět	-10.9007
▁komunistické	-10.9009
ocel	-10.9015
HA	-10.9023
▁mrav	-10.9047
hodnotit	-10.9052
▁aminokyselin	-10.9061
▁okamžik	-10.9111
▁dělník	-10.9117
▁Škod	-10.9137
atrně	-10.914
ohledem	-10.9148
▁chemický	-10.9148
▁psycho	-10.9167
▁tajný	-10.9212
▁trestný	-10.9247
ografie	-10.925
▁pochopit	-10.9255
▁dopoledne	-10.9256
▁doporučuje	-10.9256
▁ministerstvu	-10.9256
▁nejrychleji	-10.9256
▁partneři	-10.9256
▁poskytnout	-10.9256
▁rekonstrukci	-10.9256
▁spravedliv	-10.9256
▁strategie	-10.9256
▁vyrábět	-10.9256
▁Americe	-10.9256
▁areálu	-10.9256
▁považovat	-10.9256
▁rozhoduje	-10.9256
▁neobvykl	-10.9256
▁mateřsk	-10.9256
▁kompres	-10.9256
atlantick	-10.9256
▁klášte	-10.9256
▁reakce	-10.9256
▁policii	-10.9256
▁Trenér	-10.9256
▁dveře	-10.9256
▁majetkov	-10.9256
▁úhrad	-10.9256
▁dubna	-10.9256
▁taneční	-10.9256
▁politickou	-10.9256
▁Havla	-10.9256
▁sledoval	-10.9256
▁sloužit	-10.9256
▁praktický	-10.9256
týdenní	-10.9256
▁srdce	-10.9256
▁muzik	-10.9257
▁Excel	-10.9257
▁jaře	-10.9257
nášet	-10.9257
▁humor	-10.9258
▁Pozor	-10.9258
▁sovětských	-10.9258
▁Klub	-10.926
▁rozlišení	-10.9262
▁psát	-10.9263
▁penze	-10.9264
▁vězení	-10.9264
krácen	-10.9265
▁vzít	-10.9266
▁zachovat	-10.9268
škodliv	-10.927
▁výlet	-10.927
▁dotací	-10.9272
▁krve	-10.9274
▁Konečn	-10.9274
▁klesl	-10.9275
▁kořen	-10.9296
▁foto	-10.9303
▁Mont	-10.9314
▁elektrické	-10.9324
padesát	-10.9337
▁čekat	-10.9347
▁cestující	-10.9353
▁vším	-10.9364
▁pozitiv	-10.9377
▁zjevn	-10.9396
▁klepn	-10.9416
▁porážk	-10.9424
▁zvlád	-10.9462
▁rozšířen	-10.9465
▁poskytl	-10.9507
ařské	-10.9507
▁odkaz	-10.9527
švédsk	-10.955
▁Stanislav	-10.955
▁Wimbledon	-10.955
▁geometrie	-10.955
▁inspekto	-10.955
▁miliónu	-10.955
▁nepřízniv	-10.955
▁opozice	-10.955
▁producent	-10.955
▁referendu	-10.955
▁výsledku	-10.955
▁zahrnuje	-10.955
▁zásluh	-10.955
▁snižuje	-10.955
▁vstříc	-10.955
zapomněl	-10.955
▁března	-10.955
▁figur	-10.955
▁účinky	-10.955
▁funkcionář	-10.955
▁zahynul	-10.955
▁šťastn	-10.955
▁závazn	-10.955
▁čtvrtletí	-10.955
▁rozmezí	-10.955
▁uprchl	-10.955
▁aparát	-10.955
▁páté	-10.955
▁kupónov	-10.955
▁terorist	-10.955
▁využil	-10.9551
▁zvýší	-10.9551
▁sotva	-10.9551
▁středověk	-10.9551
▁klesá	-10.9551
▁rakouské	-10.9551
▁necelý	-10.9552
▁terén	-10.9552
▁Fond	-10.9552
▁nositel	-10.9552
▁morální	-10.9552
▁knihovn	-10.9553
▁duchu	-10.9553
▁útočník	-10.9554
▁téhož	-10.9556
▁Šest	-10.9556
▁pověst	-10.9557
▁nesmysl	-10.9563
▁diskusi	-10.9566
▁běžn	-10.9596
▁zajímavý	-10.9615
▁vysvětl	-10.9625
vládnout	-10.9627
▁skutečn	-10.9649
▁krajan	-10.9666
skutk	-10.9674
zákon	-10.9688
příliš	-10.9694
▁urychlen	-10.9706
▁vlak	-10.9726
▁minulost	-10.9735
▁filmový	-10.974
logicky	-10.975
off	-10.9767
▁samozřejm	-10.9817
▁Němec	-10.9831
▁ozbrojený	-10.9831
▁reakci	-10.9848
▁Otázka	-10.9853
▁definitivně	-10.9853
▁digitální	-10.9853
▁hygienic	-10.9853
▁jednorázov	-10.9853
▁kyslíku	-10.9853
▁navrhuje	-10.9853
▁otevřený	-10.9853
▁označit	-10.9853
▁pokračování	-10.9853
▁prognóz	-10.9853
▁rozšířil	-10.9853
▁sekretář	-10.9853
▁softwarov	-10.9853
▁statistik	-10.9853
▁transformaci	-10.9853
▁vyjadřuj	-10.9853
▁vězňů	-10.9853
▁začátek	-10.9853
▁zvyšování	-10.9853
▁důvěru	-10.9853
▁gigant	-10.9853
▁hřišti	-10.9853
▁rovnová	-10.9853
▁divadlo	-10.9853
▁předvolební	-10.9853
▁zemědělců	-10.9853
▁infekc	-10.9853
▁sexuální	-10.9853
▁výročí	-10.9853
▁používal	-10.9853
▁tarif	-10.9853
▁prozatím	-10.9853
▁vozidel	-10.9853
▁Československé	-10.9853
vrácení	-10.9853
▁prosinci	-10.9853
▁náměstk	-10.9853
▁vyskytují	-10.9853
▁Třeba	-10.9853
▁dětský	-10.9853
▁zrušit	-10.9853
▁využívají	-10.9853
▁vazby	-10.9853
▁října	-10.9853
▁opačné	-10.9853
▁vteřin	-10.9853
▁Býval	-10.9853
▁ukázk	-10.9853
▁skleník	-10.9853
▁osvět	-10.9853
▁rozsáhlé	-10.9853
▁počtem	-10.9853
▁poplatky	-10.9853
počtů	-10.9853
▁svoje	-10.9853
▁nastavení	-10.9853
▁nikoho	-10.9854
▁Práce	-10.9854
▁obvyklé	-10.9854
▁rakovin	-10.9854
▁Pomoc	-10.9854
▁Východ	-10.9854
▁hluboké	-10.9855
▁Prostě	-10.9855
▁Tvrd	-10.9855
▁staveb	-10.9856
▁uplatňuj	-10.9857
▁přispíva	-10.9857
▁zastavil	-10.9861
▁myšlenky	-10.9863
▁Hill	-10.9863
▁odložen	-10.9864
▁Cest	-10.9867
▁sídle	-10.9868
▁Člen	-10.9879
látka	-10.9891
zemědělských	-10.9901
▁stručn	-10.9904
▁dramat	-10.9915
iletá	-10.9917
▁bratr	-10.9922
končit	-10.9924
▁odešl	-10.9927
příště	-10.9936
▁vydělá	-11.0001
▁důraz	-11.0098
bírají	-11.0133
tratil	-11.0152
▁Bój	-11.0155
▁neprav	-11.0156
▁Angličan	-11.0165
▁Argentin	-11.0165
▁Evropu	-11.0165
▁Mechanik	-11.0165
▁Němců	-11.0165
▁Premiér	-11.0165
▁Staroměstské	-11.0165
▁absolutní	-11.0165
▁definitivní	-11.0165
▁kilobajtů	-11.0165
▁paradox	-11.0165
▁podepsán	-11.0165
▁podezření	-11.0165
▁potvrzuje	-11.0165
▁připomněl	-11.0165
▁systematick	-11.0165
▁tabulce	-11.0165
▁vyžádal	-11.0165
▁zastupitelstva	-11.0165
▁Mečiar	-11.0165
▁Systém	-11.0165
▁sjednocení	-11.0165
▁smlouvě	-11.0165
▁teorií	-11.0165
▁kyselin	-11.0165
▁Vývoj	-11.0165
▁tvořit	-11.0165
▁komplikov	-11.0165
▁účinek	-11.0165
▁GSM	-11.0165
▁pochopil	-11.0165
▁poločas	-11.0165
máhat	-11.0165
▁schůze	-11.0165
▁aspekt	-11.0165
▁režii	-11.0165
▁pohádk	-11.0166
▁Druhá	-11.0166
▁zdarma	-11.0166
▁zrušil	-11.0166
▁lehce	-11.0166
▁celků	-11.0166
▁Jihlav	-11.0166
▁membrán	-11.0166
▁pokrok	-11.0166
▁ukončil	-11.0166
▁čerstv	-11.0166
▁nádor	-11.0166
▁nález	-11.0166
▁špatný	-11.0166
táhne	-11.0167
▁tramvaj	-11.0167
▁střetnutí	-11.0167
▁hustot	-11.0168
▁spotřeby	-11.0171
▁Jednání	-11.0171
▁nejenom	-11.0172
▁pověřen	-11.0173
▁vyřešen	-11.0173
▁nedokázal	-11.0173
▁projednáva	-11.0173
▁termo	-11.0178
▁vězni	-11.0178
▁občansk	-11.0179
▁balík	-11.018
▁kamion	-11.018
▁Cíle	-11.0182
▁Řeck	-11.0208
▁popř	-11.0214
▁sláv	-11.0232
▁dolní	-11.0235
▁lékařsk	-11.0259
▁strážník	-11.0287
▁pokladn	-11.0289
▁přímý	-11.031
▁snaz	-11.0364
▁okamžit	-11.0451
▁analog	-11.0465
▁počítačový	-11.0472
pomeňme	-11.0488
▁Bruselu	-11.0488
▁ToolBook	-11.0488
▁dohromady	-11.0488
▁každoročn	-11.0488
▁nejnižší	-11.0488
▁pokračuje	-11.0488
▁porozumění	-11.0488
▁přispět	-11.0488
▁spořiteln	-11.0488
▁uskutečnit	-11.0488
▁volejbal	-11.0488
▁Člověk	-11.0488
▁demonstra	-11.0488
▁sportovců	-11.0488
▁turisty	-11.0488
▁dražší	-11.0488
▁pokračují	-11.0488
▁Určit	-11.0488
▁snažit	-11.0488
▁Vítěz	-11.0488
▁dynamick	-11.0488
▁nemohu	-11.0488
▁Elektr	-11.0488
▁Poslanc	-11.0488
▁index	-11.0488
▁medaili	-11.0488
▁podporovat	-11.0488
▁vyplývají	-11.0488
▁chystá	-11.0488
▁vyřešit	-11.0488
▁Mnichov	-11.0488
▁krizi	-11.0488
▁vybudovat	-11.0488
sáhne	-11.0488
▁bílkovin	-11.0488
▁vypadat	-11.0488
▁Vysok	-11.0488
▁srážek	-11.0488
▁uvidí	-11.0488
▁Histori	-11.0488
▁Osobn	-11.0488
▁hůře	-11.0488
▁doufá	-11.0488
▁mlýn	-11.0489
▁umělecké	-11.0489
▁skončí	-11.0489
▁kolegů	-11.049
▁přiměřen	-11.049
mítnut	-11.049
▁zhodnocení	-11.049
▁sněhu	-11.0491
▁mzdov	-11.0491
▁dobrá	-11.0491
▁tvorbě	-11.0492
▁vedlejší	-11.0493
▁obilí	-11.0494
▁pouští	-11.0496
▁mld	-11.0496
▁chlap	-11.0501
▁ráz	-11.0502
▁spodní	-11.0504
▁sběr	-11.0506
▁dcer	-11.0509
pana	-11.0511
▁Form	-11.0514
vázal	-11.0517
▁čestn	-11.053
▁mlh	-11.0563
▁stávající	-11.0588
▁Vlk	-11.0599
svědčil	-11.0617
▁evropsk	-11.0639
▁mladý	-11.0752
▁svalov	-11.0781
nvestiční	-11.0802
▁chladn	-11.0803
▁předběžn	-11.0809
▁ideál	-11.0809
▁Mluvčí	-11.0821
▁Rudolf	-11.0821
▁elektráren	-11.0821
▁intenzit	-11.0821
▁jednoduchá	-11.0821
▁metropoli	-11.0821
▁nechtějí	-11.0821
▁nejpozději	-11.0821
▁otevřena	-11.0821
▁pochopení	-11.0821
▁výpověď	-11.0821
▁Pardubic	-11.0821
▁tradičně	-11.0821
▁dosažení	-11.0821
▁obsažen	-11.0821
▁očekával	-11.0821
▁teorii	-11.0821
▁neutrální	-11.0821
▁hrozb	-11.0821
plácet	-11.0821
táhnout	-11.0821
▁složitější	-11.0821
▁jmění	-11.0821
▁vysílá	-11.0821
▁únoru	-11.0821
▁Peníze	-11.0821
▁mechanick	-11.0821
▁Moskva	-11.0821
▁reakcí	-11.0822
▁řídící	-11.0822
▁multi	-11.0822
▁Divadl	-11.0822
▁anket	-11.0822
▁likvidace	-11.0823
▁mezd	-11.0823
▁břehu	-11.0823
▁nevýhod	-11.0823
▁hezk	-11.0824
▁Rozdíl	-11.0824
▁vzácn	-11.0825
▁letecké	-11.0826
▁poplatník	-11.0826
▁Zástupc	-11.0826
▁přesahuj	-11.0827
▁kabel	-11.0827
▁dojít	-11.083
▁úlev	-11.083
▁dotace	-11.083
▁Obdobn	-11.0834
počtu	-11.0838
nutně	-11.0862
visí	-11.0868
▁komunisti	-11.0883
▁množ	-11.0885
národních	-11.0899
▁Zahraničn	-11.0926
▁účinně	-11.0962
▁Bank	-11.1007
hraniční	-11.1024
▁nadšen	-11.1039
atřicet	-11.1042
pomínají	-11.1045
▁tank	-11.1096
oučástí	-11.1103
▁městský	-11.112
dpověď	-11.1121
▁kilometr	-11.1128
▁upozorněn	-11.1166
▁Účast	-11.1166
▁Afriky	-11.1166
▁Ameriky	-11.1166
▁Bohužel	-11.1166
▁Ladislav	-11.1166
▁Nedávn	-11.1166
▁Plzni	-11.1166
▁SCSI	-11.1166
▁Telecom	-11.1166
▁devatenáct	-11.1166
▁energii	-11.1166
▁gymnázi	-11.1166
▁instituce	-11.1166
▁investování	-11.1166
▁konkrétně	-11.1166
▁nejvýznamnější	-11.1166
▁nejúspěšnější	-11.1166
▁plzeňsk	-11.1166
▁strojírensk	-11.1166
▁čtvereční	-11.1166
▁čtvrtfinále	-11.1166
▁nizozemsk	-11.1166
▁rámeček	-11.1166
▁výrobek	-11.1166
▁nalézt	-11.1166
▁podpořil	-11.1166
▁přirozené	-11.1166
▁bosenský	-11.1166
▁hloubk	-11.1166
▁hudby	-11.1166
pouštějí	-11.1166
▁ohrožuj	-11.1166
▁garant	-11.1166
▁kapitán	-11.1166
▁požadují	-11.1166
▁Policisté	-11.1166
▁předčasn	-11.1166
▁lokální	-11.1166
▁chránit	-11.1166
▁ztráce	-11.1166
▁mládí	-11.1166
▁pobočk	-11.1166
▁koncepci	-11.1166
▁názvu	-11.1166
▁trzích	-11.1166
▁David	-11.1167
▁zaujal	-11.1167
▁schránk	-11.1167
▁Všeobecn	-11.1167
▁Včera	-11.1167
máhají	-11.1167
▁klasifik	-11.1167
▁okénk	-11.1167
▁umělecký	-11.1167
▁odstavce	-11.1167
▁léčebn	-11.1167
▁pouhé	-11.1167
▁závad	-11.1168
▁zimě	-11.1168
▁použil	-11.1168
▁vybrané	-11.1168
▁dražb	-11.1169
▁stabilní	-11.1169
▁ekonomicky	-11.1169
▁Chip	-11.117
ight	-11.1173
najdeme	-11.1175
▁věnovan	-11.1175
▁Britsk	-11.1178
▁sklon	-11.1181
▁Nevím	-11.1182
▁kated	-11.1182
mlouva	-11.1196
▁lamp	-11.1205
▁opravdov	-11.1206
▁navazuj	-11.1212
▁Japon	-11.1243
'	-11.1267
ogenní	-11.1287
▁nekonečn	-11.1333
▁chemick	-11.1344
▁relac	-11.1352
▁listopad	-11.1379
stihnout	-11.1406
▁japon	-11.1439
▁kvalifikovan	-11.1461
▁zastoupen	-11.1463
cestoval	-11.1463
▁zkušen	-11.1477
▁stovk	-11.1487
▁poukaz	-11.1495
reprezenta	-11.1517
jíždějí	-11.1523
▁Alexandr	-11.1523
▁Barceloně	-11.1523
▁Británii	-11.1523
▁Bělehrad	-11.1523
▁IFOR	-11.1523
▁Nejlepší	-11.1523
▁Portugalsk	-11.1523
▁chorvatské	-11.1523
▁cigaret	-11.1523
▁honorář	-11.1523
▁multimediální	-11.1523
▁následek	-11.1523
▁podmínkou	-11.1523
▁publikován	-11.1523
▁tlačítka	-11.1523
▁tlačítkem	-11.1523
▁umožnit	-11.1523
palestinsk	-11.1523
▁instalaci	-11.1523
▁muslimsk	-11.1523
▁požádat	-11.1523
▁týdně	-11.1523
▁úsměv	-11.1523
ntelektuál	-11.1523
▁1987	-11.1523
▁Bohemia	-11.1523
▁azbest	-11.1523
▁březnu	-11.1523
▁fázi	-11.1523
▁populární	-11.1523
▁pravidlo	-11.1523
nápověd	-11.1523
▁normy	-11.1523
▁1996	-11.1523
▁bazén	-11.1523
▁pomáhá	-11.1523
▁obdiv	-11.1523
▁Organiza	-11.1523
▁naléhav	-11.1523
▁déšť	-11.1523
▁pololetí	-11.1523
▁vrstvy	-11.1523
▁kratší	-11.1523
▁zklamán	-11.1523
▁příslušníci	-11.1523
▁chalup	-11.1523
▁ploše	-11.1523
spěje	-11.1524
▁Srbsk	-11.1524
▁těžce	-11.1524
▁vyplácen	-11.1524
▁provozovatel	-11.1524
▁kanadsk	-11.1524
▁Věřím	-11.1524
▁doposud	-11.1524
▁Soubor	-11.1524
▁sociálně	-11.1524
▁ukáže	-11.1524
▁zajímat	-11.1524
▁divize	-11.1524
▁Robert	-11.1524
▁norma	-11.1524
▁značky	-11.1524
▁někoho	-11.1524
▁pozdější	-11.1524
▁likvidaci	-11.1524
▁úvodu	-11.1525
▁barvu	-11.1525
▁Část	-11.1525
▁Závěr	-11.1525
▁prodávající	-11.1525
▁ocitl	-11.1526
certifik	-11.1526
▁stoupl	-11.1527
▁nedokáž	-11.1528
▁komisi	-11.1529
▁historik	-11.1529
▁Jenom	-11.1531
▁nutný	-11.1533
▁zeleni	-11.1533
▁debat	-11.1536
psaný	-11.1544
krýt	-11.1565
mínil	-11.1569
abilní	-11.1576
▁britsk	-11.1585
▁masov	-11.1651
▁vánoc	-11.1655
▁historick	-11.1685
bíral	-11.171
▁poledn	-11.1728
yplývá	-11.1799
▁Správ	-11.1819
krývají	-11.1823
▁Společn	-11.1836
▁vyšetřova	-11.1892
Severoatlantické	-11.1894
▁Chomutov	-11.1894
▁Původně	-11.1894
▁Zvláštní	-11.1894
▁akcionářů	-11.1894
▁církví	-11.1894
▁galerie	-11.1894
▁náboženství	-11.1894
▁ovladač	-11.1894
▁ovlivňuje	-11.1894
▁potrestán	-11.1894
▁priorit	-11.1894
▁produktivit	-11.1894
▁prosazovat	-11.1894
▁páteční	-11.1894
▁upozorňuje	-11.1894
▁Ukrajiny	-11.1894
▁deficit	-11.1894
▁nedaleko	-11.1894
▁orchestr	-11.1894
▁srdeční	-11.1894
▁zpracováva	-11.1894
▁specifik	-11.1894
▁hřiště	-11.1894
▁obsluh	-11.1894
▁1997	-11.1894
▁Koaliční	-11.1894
▁posádk	-11.1894
▁sledování	-11.1894
▁šetření	-11.1894
▁IBM	-11.1894
▁naznačil	-11.1894
▁nepřátel	-11.1894
▁určuje	-11.1894
▁Tureck	-11.1894
▁bronz	-11.1894
▁držitel	-11.1894
▁oxidu	-11.1894
▁vrstev	-11.1894
▁dveří	-11.1894
▁burze	-11.1894
▁příznak	-11.1894
▁enzym	-11.1894
▁podnicích	-11.1894
▁usilovat	-11.1894
▁patrné	-11.1894
▁středoevropsk	-11.1894
▁vzrůst	-11.1894
▁podporou	-11.1894
▁Tchaj	-11.1894
▁příslušníků	-11.1894
▁proslul	-11.1894
připravovan	-11.1894
▁Formát	-11.1894
▁sdělovací	-11.1894
▁potíží	-11.1894
▁pronájem	-11.1894
▁Trans	-11.1894
▁fáze	-11.1894
▁kritické	-11.1894
▁příliv	-11.1895
▁filozofie	-11.1895
▁Word	-11.1895
▁královn	-11.1895
▁naposledy	-11.1895
▁zámku	-11.1895
▁lyžař	-11.1895
vázat	-11.1896
▁vzestup	-11.1896
▁Situac	-11.1896
▁modifik	-11.1897
hodlají	-11.1898
▁násilí	-11.1898
▁dlouhodobě	-11.1899
střih	-11.1902
▁těžb	-11.1905
▁Týr	-11.1906
▁Kreml	-11.1906
▁uhlí	-11.1907
▁nevhodn	-11.1907
▁profil	-11.1912
▁obnovu	-11.1915
▁prováze	-11.1916
▁Nizozem	-11.1916
▁vážný	-11.192
cházelo	-11.1922
▁nízko	-11.1924
▁zaměstnanec	-11.1936
jmenovaný	-11.194
hodinové	-11.1943
▁Komis	-11.1949
▁cenný	-11.1973
▁jádro	-11.1979
bíhají	-11.1999
▁nejedn	-11.2011
▁Výhod	-11.2013
▁totožn	-11.2032
nechává	-11.2073
▁centrál	-11.2125
▁vysoko	-11.2134
▁snížen	-11.2187
vesel	-11.221
▁zrušen	-11.2214
▁obtížně	-11.2272
radioaktivní	-11.2278
▁Rakušan	-11.2278
▁Republik	-11.2278
▁Výzkum	-11.2278
▁důležitá	-11.2278
▁fotoaparát	-11.2278
▁inspekce	-11.2278
▁majetkem	-11.2278
▁nezměnil	-11.2278
▁oznámení	-11.2278
▁pohledávek	-11.2278
▁redakce	-11.2278
▁upozornit	-11.2278
▁vyšetření	-11.2278
▁Sovětský	-11.2278
▁Thajsk	-11.2278
▁Vedoucí	-11.2278
▁dodatečně	-11.2278
▁franků	-11.2278
▁instalace	-11.2278
▁května	-11.2278
▁1968	-11.2278
▁1984	-11.2278
▁Nejdřív	-11.2278
▁DPH	-11.2278
▁Průměrn	-11.2278
▁Temelín	-11.2278
▁nejmenší	-11.2278
▁zoufal	-11.2278
▁Bejbl	-11.2278
▁hrubého	-11.2278
▁zakladatel	-11.2278
▁stupňů	-11.2278
▁konstrukce	-11.2278
▁period	-11.2278
▁certifikát	-11.2278
tvrzují	-11.2278
▁pojmů	-11.2278
▁vyvinul	-11.2279
▁zkratk	-11.2279
▁stovek	-11.2279
▁ordinac	-11.2279
▁dvojnásobn	-11.2279
▁audio	-11.2279
▁jedince	-11.2279
▁teplá	-11.2279
▁chápat	-11.2279
▁sehrál	-11.2279
▁Bílé	-11.2279
▁přežít	-11.2279
▁vojsk	-11.228
▁Sokol	-11.228
▁Asociac	-11.228
▁zkoumá	-11.228
▁pružn	-11.228
▁ozdob	-11.2281
▁uváděn	-11.2282
▁vyroben	-11.2282
▁sněhov	-11.2283
▁vázán	-11.2283
▁Plán	-11.2284
▁kuponov	-11.2286
▁něčem	-11.2287
▁zatížen	-11.229
kupuje	-11.229
▁složité	-11.2291
pravicov	-11.2296
▁zlaté	-11.2303
▁doplněn	-11.2304
vyšších	-11.2305
▁ozbrojen	-11.2306
studoval	-11.2361
▁Obča	-11.2386
▁pozván	-11.2389
▁přesvědčiv	-11.2414
▁neshod	-11.2414
▁vystupuj	-11.2416
▁olympijsk	-11.2441
morav	-11.2443
▁charakterizova	-11.2474
▁hydro	-11.2478
psychologick	-11.2485
svědčení	-11.2572
▁rozhodnut	-11.26
▁vzdá	-11.262
▁zřetel	-11.2627
ifikace	-11.2663
▁EuroTel	-11.2678
▁Kalvoda	-11.2678
▁Okresní	-11.2678
▁Sociální	-11.2678
▁brambor	-11.2678
▁energetik	-11.2678
▁firmám	-11.2678
▁hovořit	-11.2678
▁komponent	-11.2678
▁nejrychlejší	-11.2678
▁náležit	-11.2678
▁označuje	-11.2678
▁posuzovat	-11.2678
▁pracovnice	-11.2678
▁publiku	-11.2678
▁převzít	-11.2678
▁redaktor	-11.2678
▁rejstříku	-11.2678
▁velkoobchod	-11.2678
▁zdokonal	-11.2678
zanedbateln	-11.2678
▁celostátní	-11.2678
▁domnívají	-11.2678
▁naštěstí	-11.2678
▁nežádoucí	-11.2678
▁ovlivňují	-11.2678
▁spoluhráč	-11.2678
glaciál	-11.2678
▁kalendář	-11.2678
▁připomínk	-11.2678
▁zázemí	-11.2678
▁Domácí	-11.2678
▁vyhlídk	-11.2678
▁dubnu	-11.2678
▁radikální	-11.2678
▁Poborský	-11.2678
▁Českomoravsk	-11.2678
▁kamarád	-11.2678
▁souhrn	-11.2678
▁uplatnit	-11.2678
▁vyžadují	-11.2678
▁Druhou	-11.2678
▁přál	-11.2678
▁odlišný	-11.2678
▁efektivní	-11.2678
▁osvobození	-11.2678
▁Všechno	-11.2678
▁začínal	-11.2678
▁pokoušel	-11.2678
▁zásilk	-11.2678
▁nevědí	-11.2679
▁viditeln	-11.2679
▁Musel	-11.2679
▁záloh	-11.2679
▁Označ	-11.2679
▁učinit	-11.2679
▁nestačil	-11.2679
▁fungují	-11.2679
▁invalid	-11.2679
▁navržen	-11.2679
▁Zákaz	-11.2679
▁Šéf	-11.2679
▁sněžení	-11.2679
▁forem	-11.268
▁prodlení	-11.268
▁samospráv	-11.268
▁dlouhodobý	-11.268
▁podílejí	-11.2681
▁rysy	-11.2681
biologie	-11.2681
▁ztracen	-11.2681
▁odehráv	-11.2681
přát	-11.2683
žádají	-11.2683
▁škál	-11.2683
▁Objekt	-11.2685
lepnutím	-11.2687
▁Vesel	-11.2692
▁Smlouv	-11.2726
▁viděn	-11.2823
atřicetilet	-11.2824
▁dávk	-11.2899
členné	-11.3016
▁předcházel	-11.3063
oprvé	-11.3094
▁CADKON	-11.3095
mýšlí	-11.3095
rehabilit	-11.3095
▁Finanční	-11.3095
▁Intergraph	-11.3095
▁Lebeď	-11.3095
▁Následuj	-11.3095
▁Pithart	-11.3095
▁Zjuganov	-11.3095
▁bližší	-11.3095
▁církvi	-11.3095
▁diagram	-11.3095
▁fenomén	-11.3095
▁hektar	-11.3095
▁komunální	-11.3095
▁konferencí	-11.3095
▁lázeňsk	-11.3095
▁navrhnout	-11.3095
▁nábytku	-11.3095
▁odmítají	-11.3095
▁odpovědí	-11.3095
▁psychiatr	-11.3095
▁reagovat	-11.3095
▁softwaru	-11.3095
▁strategii	-11.3095
▁technologii	-11.3095
▁triumf	-11.3095
▁ukazatel	-11.3095
▁vytvářejí	-11.3095
▁zpoždění	-11.3095
▁zpátky	-11.3095
▁zálivu	-11.3095
▁zůstanou	-11.3095
▁živočichů	-11.3095
▁žádoucí	-11.3095
▁Alžbět	-11.3095
▁Nejčastěj	-11.3095
▁altruismu	-11.3095
▁dědictví	-11.3095
▁leasing	-11.3095
▁nejstarší	-11.3095
▁nepřetržit	-11.3095
▁neschopnost	-11.3095
▁ovlivněn	-11.3095
▁schůzi	-11.3095
▁uzavírá	-11.3095
▁Srbů	-11.3095
▁asistent	-11.3095
▁atentát	-11.3095
▁otevírá	-11.3095
▁Vídni	-11.3095
▁jazz	-11.3095
▁public	-11.3095
▁nárůst	-11.3095
▁nezaměstnaných	-11.3095
▁říjnu	-11.3095
▁květin	-11.3095
▁dovednost	-11.3095
▁vyvinut	-11.3095
▁Bratink	-11.3095
▁Mencl	-11.3095
▁Praktick	-11.3095
▁splatnosti	-11.3095
štejn	-11.3095
▁zastavení	-11.3095
▁zpomal	-11.3095
▁Mazda	-11.3095
▁vyznačuj	-11.3095
▁nízká	-11.3095
▁podpoře	-11.3095
▁dokáží	-11.3095
zajišťují	-11.3095
▁Polsko	-11.3095
sazování	-11.3095
▁mřížk	-11.3095
jíždí	-11.3096
▁splnit	-11.3096
následuj	-11.3096
▁jistou	-11.3096
▁Andre	-11.3097
podivu	-11.3097
▁přednášk	-11.3097
▁zazněl	-11.3098
▁rozsáhlý	-11.3098
▁Nabídk	-11.3098
▁brzd	-11.3098
▁náprav	-11.3098
▁stůl	-11.3098
▁zařadil	-11.3099
▁zahrnut	-11.3099
▁vyrovnal	-11.3099
▁trpí	-11.3101
▁vrchní	-11.3101
▁ligové	-11.3103
▁Zálež	-11.3104
přijeli	-11.3107
▁Technick	-11.311
▁Bonn	-11.3118
pravdě	-11.3119
▁Prac	-11.314
▁nazýva	-11.3148
jistit	-11.3152
charakterizuj	-11.3153
ower	-11.3278
schválila	-11.3302
▁včerejš	-11.3384
pomíná	-11.3385
▁královsk	-11.3451
stoupení	-11.3474
vládne	-11.3508
▁pozdě	-11.3526
▁individu	-11.3526
prezentuje	-11.3529
▁zúčastněn	-11.353
▁Bratislava	-11.353
▁Casimir	-11.353
▁Demokratick	-11.353
▁Jindřich	-11.353
▁Tigrid	-11.353
▁cizince	-11.353
▁galerii	-11.353
▁hypotéz	-11.353
▁identifik	-11.353
▁kompetence	-11.353
▁konstatuje	-11.353
▁metropole	-11.353
▁mikroorganism	-11.353
▁nejhorší	-11.353
▁nominální	-11.353
▁otevřít	-11.353
▁podpořit	-11.353
▁požadovat	-11.353
▁prohlídk	-11.353
▁představenstva	-11.353
▁přitažliv	-11.353
▁semifinále	-11.353
▁strategií	-11.353
▁udržuje	-11.353
▁vydavatel	-11.353
▁výsledn	-11.353
▁wimbledonsk	-11.353
▁zveřejnil	-11.353
▁šablon	-11.353
▁Počítač	-11.353
▁dodržování	-11.353
▁hlubší	-11.353
▁nejmodernější	-11.353
▁nejznámější	-11.353
▁vojáci	-11.353
▁Africe	-11.353
▁Nedvěd	-11.353
▁charakteristik	-11.353
▁generací	-11.353
▁literární	-11.353
▁polojasno	-11.353
▁požadoval	-11.353
▁reaktor	-11.353
▁žadatel	-11.353
dostatečnou	-11.353
▁NDR	-11.353
▁byznys	-11.353
▁složek	-11.353
▁strávil	-11.353
▁Ostatní	-11.353
▁údolí	-11.353
▁doporučil	-11.353
▁kodex	-11.353
▁stránky	-11.353
▁Majitel	-11.353
▁Podstatn	-11.353
▁vyhovuje	-11.353
▁nátlak	-11.353
▁vystřídal	-11.353
▁divadle	-11.353
▁patřičn	-11.353
střílel	-11.353
▁Dříve	-11.353
▁položky	-11.353
▁nevidí	-11.353
▁rytíř	-11.353
▁čtvrteční	-11.353
▁nízký	-11.353
▁vyrovnat	-11.353
▁Jugoslávie	-11.353
▁logické	-11.353
▁Městsk	-11.353
▁poplatek	-11.353
▁informovan	-11.353
▁počínaj	-11.353
▁stoupá	-11.353
▁Prodej	-11.3531
▁splnil	-11.3531
▁účinku	-11.3531
▁štáb	-11.3531
▁Rychl	-11.3531
▁Komerčn	-11.3531
▁rakouský	-11.3533
▁korekc	-11.3533
▁zaručen	-11.3533
▁ničem	-11.3534
▁nápoj	-11.3536
▁Začal	-11.3537
▁malíř	-11.3544
▁vstupenk	-11.3546
▁odhalen	-11.3546
▁teple	-11.3547
▁Uveden	-11.3548
pochyby	-11.3575
▁Siln	-11.3595
▁optick	-11.3748
▁průběžn	-11.3826
▁vyspěl	-11.386
▁převážn	-11.3949
▁Budějovic	-11.3984
▁Manažer	-11.3984
▁algoritm	-11.3984
FIFA	-11.3984
▁Bulharsk	-11.3984
▁Dienstbier	-11.3984
▁Dosavadní	-11.3984
▁Fischer	-11.3984
▁Manžel	-11.3984
▁Návštěv	-11.3984
▁Siemens	-11.3984
▁Skupina	-11.3984
▁Těžko	-11.3984
▁biskup	-11.3984
▁byrokrat	-11.3984
▁chirurg	-11.3984
▁družstvo	-11.3984
▁družstvu	-11.3984
▁geometrii	-11.3984
▁inflaci	-11.3984
▁naznačuje	-11.3984
▁normálně	-11.3984
▁organizáto	-11.3984
▁označován	-11.3984
▁regenerace	-11.3984
▁rekonstrukce	-11.3984
▁rozšiřuje	-11.3984
▁rámečku	-11.3984
▁seznámit	-11.3984
▁skupenství	-11.3984
▁službě	-11.3984
▁strategické	-11.3984
▁transformační	-11.3984
▁tribunál	-11.3984
▁vyhodnocen	-11.3984
▁zúčastnit	-11.3984
▁Štědrý	-11.3984
▁Kongres	-11.3984
▁design	-11.3984
▁neuspěl	-11.3984
▁velvyslanectví	-11.3984
▁zajistí	-11.3984
▁1982	-11.3984
▁obličej	-11.3984
▁čistíren	-11.3984
▁disponuj	-11.3984
▁přiznává	-11.3984
▁zákrok	-11.3984
▁shodují	-11.3984
▁výživ	-11.3984
▁Červen	-11.3984
následoval	-11.3984
připravoval	-11.3984
▁stránku	-11.3984
▁neomezen	-11.3984
▁Dušan	-11.3984
▁Poldi	-11.3984
▁dodávek	-11.3984
▁posuzován	-11.3984
▁vládnoucí	-11.3984
▁vstupenek	-11.3984
▁nabídkou	-11.3984
▁Armád	-11.3984
▁jindy	-11.3984
▁středisko	-11.3984
▁posléze	-11.3984
▁Náklady	-11.3984
▁informován	-11.3984
▁konstrukcí	-11.3984
▁uznat	-11.3984
▁usiluje	-11.3984
▁zastánc	-11.3985
▁žádat	-11.3985
▁udržova	-11.3985
▁Otevř	-11.3985
▁vazeb	-11.3985
▁Bavor	-11.3985
▁vazba	-11.3985
▁skromn	-11.3985
▁Varech	-11.3985
▁spoléha	-11.3985
▁nabídne	-11.3986
▁salát	-11.3986
▁leckd	-11.3986
▁zodpovědnost	-11.3986
▁hrůz	-11.3986
▁Projekt	-11.3986
▁náhlé	-11.3988
▁rozmístěn	-11.3988
▁nepotřebuje	-11.3988
▁profesi	-11.3989
hrádk	-11.3992
střelen	-11.3993
▁Oprav	-11.3994
▁nezákonn	-11.3997
▁nesporn	-11.3998
▁bojovn	-11.4007
▁brněnsk	-11.4016
Přerov	-11.4048
▁Poslanec	-11.4107
kurzor	-11.4123
▁zatčen	-11.4141
▁Nemoh	-11.4182
▁urychl	-11.4211
zývají	-11.4248
▁Fotbalist	-11.4283
▁násiln	-11.43
schopné	-11.4305
▁důvěry	-11.4414
▁zhodnoc	-11.4457
▁vyráběn	-11.446
▁Blízké	-11.446
▁Ekonomick	-11.446
▁Gabčíkov	-11.446
▁William	-11.446
▁aplikaci	-11.446
▁důležitou	-11.446
▁filharmoni	-11.446
▁kanalizace	-11.446
▁kariéru	-11.446
▁konkurent	-11.446
▁neexistují	-11.446
▁ovlivnit	-11.446
▁podmínkám	-11.446
▁popularit	-11.446
▁přirozeně	-11.446
▁referenda	-11.446
▁výpovědi	-11.446
▁zneužití	-11.446
▁Kreslení	-11.446
▁Předpokládá	-11.446
▁kontrakt	-11.446
▁paralel	-11.446
▁svědky	-11.446
▁ubytovací	-11.446
▁vynález	-11.446
▁zázrak	-11.446
▁předpokládal	-11.446
▁snižovat	-11.446
▁definovan	-11.446
▁nepřítel	-11.446
▁setkáváme	-11.446
▁komunistů	-11.446
▁lehké	-11.446
▁pomůck	-11.446
▁fosilní	-11.446
▁etapě	-11.446
▁Michail	-11.446
▁stupeň	-11.446
▁jedinců	-11.4461
▁rubrik	-11.4461
▁obrátit	-11.4461
zřídka	-11.4461
▁přivezl	-11.4461
▁klobouk	-11.4461
▁nezmění	-11.4461
▁zvyšují	-11.4461
imochodem	-11.4461
▁politicky	-11.4461
▁československý	-11.4461
▁přídav	-11.4461
▁Dynam	-11.4461
▁talent	-11.4461
▁organick	-11.4461
▁staletí	-11.4461
průchod	-11.4461
▁Karpov	-11.4461
▁Lendl	-11.4462
▁výtečn	-11.4462
▁induk	-11.4462
▁Zdeňk	-11.4464
▁genetick	-11.4464
▁rumunsk	-11.4465
▁vytížen	-11.4466
▁kritický	-11.4467
kcionáři	-11.4468
▁Středisk	-11.4468
▁JAK	-11.4469
▁poražen	-11.4471
▁rozprav	-11.4478
zkoušet	-11.4484
▁arabský	-11.4487
▁ligový	-11.4487
rovnávací	-11.4491
▁archeolog	-11.4516
přesněji	-11.4528
▁nápln	-11.4532
jadern	-11.4535
zřetelně	-11.4554
▁světeln	-11.4579
▁zkresl	-11.4618
řejmě	-11.4621
▁hračk	-11.4669
▁týkají	-11.4841
▁převlád	-11.4854
▁řešen	-11.4897
olicejní	-11.4957
▁srozumiteln	-11.496
▁uskutečň	-11.496
▁Doufám	-11.496
▁Výsledek	-11.496
▁Wembley	-11.496
▁anonymní	-11.496
▁cizinců	-11.496
▁definovat	-11.496
▁dvojnásobek	-11.496
▁evidenci	-11.496
▁humanitární	-11.496
▁intenzivně	-11.496
▁komfort	-11.496
▁království	-11.496
▁lhůty	-11.496
▁neúspěch	-11.496
▁otázkách	-11.496
▁ošetření	-11.496
▁podruhé	-11.496
▁počáteční	-11.496
▁převzetí	-11.496
▁připomenout	-11.496
▁tvůrčí	-11.496
▁týdnu	-11.496
▁uhličitého	-11.496
▁upozorňují	-11.496
▁veřejnou	-11.496
▁zvyšovat	-11.496
▁zážitek	-11.496
▁řekněme	-11.496
▁HGF	-11.496
▁PŘED	-11.496
▁Zdravotn	-11.496
▁kriminál	-11.496
▁nabídnut	-11.496
▁pohotovost	-11.496
▁revoluce	-11.496
▁strategický	-11.496
▁zdravotně	-11.496
peptid	-11.496
▁Seznam	-11.496
▁dětmi	-11.496
▁užitečné	-11.496
▁výrobku	-11.496
▁Boleslav	-11.496
▁Poborského	-11.496
▁ostravské	-11.496
▁zajistil	-11.496
neštěstí	-11.496
▁projednávání	-11.496
▁sankce	-11.496
▁zloděj	-11.496
▁sportovci	-11.496
▁Výjimk	-11.496
▁Nobelov	-11.496
▁promítá	-11.496
pouštět	-11.496
▁Havlov	-11.496
▁skener	-11.496
▁série	-11.496
▁umístit	-11.496
▁LDS	-11.496
▁souprav	-11.4961
▁popsán	-11.4961
▁odevzda	-11.4961
▁pátý	-11.4961
pomáhal	-11.4961
▁opačný	-11.4961
▁MHz	-11.4961
▁chemie	-11.4961
▁krystal	-11.4961
▁sleduje	-11.4961
▁kompost	-11.4961
▁mobilní	-11.4961
▁pozemků	-11.4961
▁zhoubn	-11.4961
▁rozvinut	-11.4961
▁stěžují	-11.4961
ografii	-11.4961
▁národnostní	-11.4961
záhad	-11.4961
▁shluk	-11.4962
▁vyhověl	-11.4962
▁Strakoni	-11.4962
▁Úprav	-11.4962
▁obnovit	-11.4963
▁remíz	-11.4964
rozuměj	-11.4986
▁útočn	-11.5008
rychlostní	-11.501
▁Klepn	-11.5018
projevilo	-11.5052
důrazně	-11.5072
▁Chorvat	-11.5109
▁klinick	-11.5231
▁zemědělsk	-11.5266
příkladu	-11.5276
tvořily	-11.531
▁registrac	-11.5317
▁šampionát	-11.5342
▁věčn	-11.5438
▁Weizs	-11.5487
sekretariát	-11.5487
▁Dvořák	-11.5487
▁Lubomír	-11.5487
▁Maastrichtu	-11.5487
▁Schneider	-11.5487
▁Vinohrad	-11.5487
▁bratislavsk	-11.5487
▁cizinci	-11.5487
▁deklarace	-11.5487
▁evoluční	-11.5487
▁institut	-11.5487
▁kancléř	-11.5487
▁kmitočt	-11.5487
▁kytarist	-11.5487
▁medailí	-11.5487
▁ministerstev	-11.5487
▁nemožné	-11.5487
▁opozici	-11.5487
▁oživení	-11.5487
▁portfoli	-11.5487
▁princezn	-11.5487
▁přeháňky	-11.5487
▁redakci	-11.5487
▁restituční	-11.5487
▁struktuře	-11.5487
▁tabulátor	-11.5487
▁tiskárna	-11.5487
▁tisíciletí	-11.5487
▁univerzáln	-11.5487
▁uspokojení	-11.5487
▁uzávěr	-11.5487
▁vyloučit	-11.5487
▁vyrábějí	-11.5487
▁zúčastní	-11.5487
zrcadl	-11.5487
▁Bayern	-11.5487
▁Sarajev	-11.5487
▁lékáren	-11.5487
▁posouzení	-11.5487
▁skript	-11.5487
▁Benešov	-11.5487
▁Náměst	-11.5487
▁cizině	-11.5487
▁komunisté	-11.5487
▁minerální	-11.5487
▁nečekaně	-11.5487
▁oslaben	-11.5487
▁spánku	-11.5487
▁Antonín	-11.5487
▁Jednotliv	-11.5487
▁altruist	-11.5487
▁archív	-11.5487
▁informovat	-11.5487
▁zlepšit	-11.5487
▁nejsilnější	-11.5487
▁nevznik	-11.5487
▁výkyvy	-11.5487
▁ohlášen	-11.5487
▁krádež	-11.5487
▁přidružen	-11.5487
▁zlepšil	-11.5487
▁stadia	-11.5487
německou	-11.5487
▁Libanon	-11.5487
šetřil	-11.5487
▁nahrazen	-11.5487
▁stoupenc	-11.5487
▁lístky	-11.5487
▁družic	-11.5487
▁řemesl	-11.5487
▁zasvěcen	-11.5487
▁preventivn	-11.5487
▁ohrom	-11.5487
▁jedinečn	-11.5487
▁neuvažuj	-11.5487
rozhodoval	-11.5487
▁penalt	-11.5488
strašně	-11.5488
▁momentáln	-11.5488
▁umístil	-11.5488
▁účinný	-11.5489
▁městečk	-11.549
pálil	-11.549
▁hlášen	-11.5491
▁dešťov	-11.5498
▁zakončen	-11.5506
▁převeden	-11.5516
▁oceňuj	-11.5572
▁uskutečnil	-11.5684
▁smrteln	-11.5779
▁kvalitativn	-11.5816
edmdesát	-11.5979
▁umožňují	-11.5996
▁pojistn	-11.6005
populárnější	-11.6042
▁Bierhoff	-11.6042
▁Evropou	-11.6042
▁Jackson	-11.6042
▁Karadžic	-11.6042
▁Litvínov	-11.6042
▁Naštěstí	-11.6042
▁Obyvatel	-11.6042
▁Olszewsk	-11.6042
▁Softwar	-11.6042
▁arcibiskup	-11.6042
▁celosvětov	-11.6042
▁charitativní	-11.6042
▁dirigent	-11.6042
▁energií	-11.6042
▁kandidovat	-11.6042
▁krátkodobé	-11.6042
▁laboratorní	-11.6042
▁leccos	-11.6042
▁londýn	-11.6042
▁neexistoval	-11.6042
▁nešťastn	-11.6042
▁následovat	-11.6042
▁opozicí	-11.6042
▁ovlivnil	-11.6042
▁premiéře	-11.6042
▁prezervativ	-11.6042
▁prokuratur	-11.6042
▁překážky	-11.6042
▁restitucí	-11.6042
▁stability	-11.6042
▁televizor	-11.6042
▁zdůvodnil	-11.6042
▁závislá	-11.6042
▁Úspěšn	-11.6042
▁úspěšnost	-11.6042
▁živnostenský	-11.6042
Standard	-11.6042
ejzajímavější	-11.6042
▁Jupiter	-11.6042
▁Kopřiv	-11.6042
▁Křesťan	-11.6042
▁Letošní	-11.6042
▁Mandler	-11.6042
▁Sněmovn	-11.6042
▁Soutěž	-11.6042
▁Stehlík	-11.6042
▁Vietnam	-11.6042
▁burzy	-11.6042
▁imunitní	-11.6042
▁nahrávk	-11.6042
▁poskytne	-11.6042
▁seriózní	-11.6042
▁totalitní	-11.6042
▁viceprezident	-11.6042
▁vzdělávání	-11.6042
▁Bezpečnost	-11.6042
▁incident	-11.6042
▁kontext	-11.6042
▁socialismu	-11.6042
▁sudetský	-11.6042
▁vyměnil	-11.6042
▁Madrid	-11.6042
▁chorvatský	-11.6042
▁dostatečné	-11.6042
▁ozónu	-11.6042
▁tendenci	-11.6042
▁výslovně	-11.6042
▁zakázán	-11.6042
▁získají	-11.6042
▁Čtvrt	-11.6042
▁podotkl	-11.6042
▁učebnic	-11.6042
▁výkres	-11.6042
škráb	-11.6042
▁Město	-11.6042
▁mrtvé	-11.6042
▁odlišné	-11.6042
▁preferenc	-11.6042
▁záleže	-11.6042
▁Atleti	-11.6042
▁zachránil	-11.6042
▁Podívej	-11.6042
▁abeced	-11.6042
▁Pražan	-11.6042
▁kapitul	-11.6042
▁znamení	-11.6042
▁filtr	-11.6042
▁vyžádá	-11.6042
▁laserov	-11.6042
▁chápán	-11.6042
▁zapsán	-11.6043
▁Vojenské	-11.6043
▁hrozil	-11.6043
tlačit	-11.6043
▁zajímal	-11.6043
▁výlučn	-11.6044
▁převažuj	-11.6044
▁kubismu	-11.6044
▁uplatňova	-11.6045
ampión	-11.6046
▁frakc	-11.6046
▁poctiv	-11.6048
▁úměrn	-11.6067
▁Politick	-11.6073
ždyť	-11.6092
především	-11.6094
poškozené	-11.6097
▁částečn	-11.6141
účtování	-11.6143
▁předsednictv	-11.6185
▁ověřen	-11.6294
▁Švýcar	-11.6319
archeologi	-11.6562
vyjádřen	-11.6619
▁mistrovsk	-11.6626
▁Jugosláv	-11.6629
svobozen	-11.663
▁nesprávn	-11.663
▁vyvrchol	-11.663
egyptsk	-11.663
▁Běloruska	-11.663
▁Jihoafrick	-11.663
▁Manchester	-11.663
▁Pentium	-11.663
▁Poštovní	-11.663
▁Pravděpodobn	-11.663
▁Rozhovor	-11.663
▁Svorada	-11.663
▁Významn	-11.663
▁asteroid	-11.663
▁doprovázen	-11.663
▁ekvivalent	-11.663
▁gramotnost	-11.663
▁hřbitov	-11.663
▁konfiguraci	-11.663
▁mechanismy	-11.663
▁ministerstvem	-11.663
▁mrtvých	-11.663
▁nejlevnější	-11.663
▁nejvhodnější	-11.663
▁nepřijatelné	-11.663
▁organismů	-11.663
▁oteplení	-11.663
▁ovlivňova	-11.663
▁podmínkami	-11.663
▁pohromadě	-11.663
▁potvrdit	-11.663
▁pracovišti	-11.663
▁prohlašuje	-11.663
▁protagonist	-11.663
▁redukci	-11.663
▁sluchátka	-11.663
▁spolupracují	-11.663
▁strojírenství	-11.663
▁ubytovn	-11.663
▁uskutečněn	-11.663
▁vyjadřova	-11.663
▁výhrady	-11.663
▁výsledcích	-11.663
▁zaměstnává	-11.663
▁zvláštnost	-11.663
▁zvýhodněn	-11.663
▁závazek	-11.663
▁závislé	-11.663
▁švýcarské	-11.663
doporučují	-11.663
▁Eduard	-11.663
▁Hrdličk	-11.663
▁Niederl	-11.663
▁Polskem	-11.663
▁displej	-11.663
▁mužstvu	-11.663
▁označují	-11.663
▁stabilitu	-11.663
▁svědků	-11.663
▁vzdělávací	-11.663
▁zachránit	-11.663
▁zbraň	-11.663
▁Městě	-11.663
▁Pořadatel	-11.663
▁generaci	-11.663
▁inzerát	-11.663
▁kampaň	-11.663
▁lidstva	-11.663
▁rozvržení	-11.663
▁Kepler	-11.663
▁instance	-11.663
▁kooperac	-11.663
▁odehrál	-11.663
▁meteorolog	-11.6631
▁zastávk	-11.6631
▁Uvažuje	-11.6631
přihlášk	-11.6631
▁Thomas	-11.6631
▁prokázán	-11.6631
▁profesí	-11.6631
(	-12.7781
<	-12.9604
