<unk>	0
<s>	0
</s>	0
<doc>	0
</doc>	0
<head>	0
</head>	0
<phr>	0
</phr>	0
▁	-1.72531
,	-3.28342
.	-3.43146
▁a	-4.35198
▁v	-4.42786
▁se	-4.5237
a	-4.5847
▁na	-4.64762
m	-4.83805
u	-4.84003
ch	-4.93719
i	-4.97703
y	-5.00564
▁je	-5.0493
ho	-5.2079
▁"	-5.23435
▁že	-5.30257
▁z	-5.31545
▁s	-5.34346
e	-5.54868
▁o	-5.57316
▁do	-5.57836
á	-5.58399
ou	-5.59925
o	-5.63392
▁pro	-5.77488
í	-5.79437
▁-	-5.81526
▁za	-5.82538
é	-5.8268
em	-5.86022
ě	-5.87509
s	-5.88651
▁k	-5.95498
▁po	-5.98807
▁to	-6.00669
▁(	-6.03722
▁ve	-6.04059
▁i	-6.05071
▁V	-6.0583
to	-6.08724
t	-6.13591
▁by	-6.13625
ů	-6.20184
ž	-6.21901
▁ale	-6.23537
>	-6.24995
mi	-6.27163
▁si	-6.32171
ý	-6.36464
▁jsou	-6.42537
▁od	-6.43735
▁jako	-6.45585
▁které	-6.47705
▁při	-6.51906
ých	-6.55216
▁však	-6.55512
)	-6.57102
▁:	-6.58362
▁tak	-6.61764
ní	-6.63067
▁který	-6.67135
▁ne	-6.70304
▁nebo	-6.75394
▁jeho	-6.76321
▁bude	-6.77394
?	-6.79549
▁jen	-6.83036
me	-6.83127
x	-6.86109
▁S	-6.86443
▁než	-6.91261
▁má	-6.93043
▁Po	-6.93518
▁A	-6.93519
z	-6.97091
te	-6.97244
▁už	-6.98324
▁před	-6.98896
▁Na	-6.99096
l	-6.99229
▁aby	-6.99554
▁byl	-7.01201
▁jejich	-7.03356
▁jak	-7.04236
▁jsem	-7.04681
▁být	-7.04918
ce	-7.04994
▁až	-7.05232
ně	-7.06469
▁která	-7.09487
▁také	-7.10027
p	-7.10203
v	-7.10915
▁jsme	-7.13358
▁<	-7.14498
▁podle	-7.14704
mu	-7.16012
▁ze	-7.16253
▁Je	-7.16914
▁Z	-7.18577
▁vy	-7.19579
ka	-7.20132
k	-7.21029
ého	-7.21959
▁co	-7.2627
d	-7.26336
▁není	-7.26546
ové	-7.27653
▁mezi	-7.29718
▁bylo	-7.3002
▁či	-7.31574
▁ani	-7.31672
▁O	-7.3204
r	-7.32193
▁ještě	-7.32714
▁své	-7.32952
▁již	-7.34421
▁když	-7.34792
▁může	-7.35663
▁byla	-7.37703
▁P	-7.38207
▁let	-7.3995
▁toho	-7.40059
kud	-7.41666
li	-7.4325
ky	-7.4332
▁korun	-7.4348
/	-7.43549
▁K	-7.45244
ech	-7.46614
na	-7.46776
▁pak	-7.48002
▁další	-7.49751
).	-7.49946
▁kteří	-7.50464
▁tím	-7.5089
ná	-7.52336
▁té	-7.5292
ci	-7.52957
▁kde	-7.53092
že	-7.53568
▁více	-7.55275
▁To	-7.56125
ým	-7.5658
▁roku	-7.56868
▁první	-7.57004
la	-7.57083
▁tedy	-7.57206
ek	-7.57321
ku	-7.5783
č	-7.58337
▁bez	-7.61141
né	-7.61403
▁nich	-7.61584
cí	-7.65298
▁pod	-7.6575
▁mají	-7.66063
),	-7.66333
▁tu	-7.69587
▁roce	-7.71114
▁pouze	-7.71398
n	-7.71492
▁musí	-7.718
ová	-7.72214
▁tom	-7.72399
-	-7.72818
b	-7.73188
▁kdy	-7.73292
ovat	-7.73923
▁tomu	-7.74519
▁li	-7.75816
▁ke	-7.76759
▁proto	-7.76781
▁Za	-7.76819
▁budou	-7.78414
it	-7.79147
▁třeba	-7.79732
uje	-7.79956
▁Ne	-7.80018
▁protože	-7.80529
▁totiž	-7.81267
▁I	-7.81543
š	-7.81766
▁proti	-7.82394
▁nás	-7.83757
▁lze	-7.83779
ách	-7.84242
▁pře	-7.85182
▁M	-7.86465
nou	-7.867
▁nad	-7.87449
▁byly	-7.8805
▁měl	-7.88069
▁asi	-7.88707
▁velmi	-7.88731
▁poslední	-7.88738
▁její	-7.89104
▁D	-7.89445
▁zatím	-7.89636
lo	-7.90409
j	-7.90683
▁U	-7.91513
▁řekl	-7.93017
c	-7.93359
▁ty	-7.93558
jí	-7.93878
▁včera	-7.94017
ň	-7.94629
▁Podl	-7.94874
▁Pro	-7.95082
le	-7.95233
ovi	-7.96328
ný	-7.97545
st	-7.9761
▁dnes	-7.98679
▁firmy	-7.99419
en	-7.99537
ových	-8.00308
▁dva	-8.00366
ům	-8.01655
▁především	-8.0177
▁přes	-8.02126
ni	-8.02472
ování	-8.02551
▁vlastní	-8.02987
ze	-8.03272
ost	-8.03831
▁případě	-8.04259
▁J	-8.04319
▁tisíc	-8.0451
▁Při	-8.04827
▁'	-8.05148
▁například	-8.05901
▁všech	-8.05912
co	-8.0599
▁Do	-8.06458
il	-8.07473
▁rok	-8.07744
al	-8.08184
▁době	-8.08823
▁nyní	-8.09072
▁nám	-8.09533
▁mít	-8.09905
▁ji	-8.10796
h	-8.12905
▁tři	-8.13376
▁Ve	-8.13669
cích	-8.13884
▁lidí	-8.14047
▁jim	-8.14064
ne	-8.14176
▁společnosti	-8.14186
▁mohou	-8.14387
▁práce	-8.14468
▁stále	-8.15409
▁těchto	-8.15677
▁zda	-8.15691
▁ovšem	-8.15812
▁všechny	-8.16124
ské	-8.16663
▁jeden	-8.16672
▁roz	-8.16682
▁H	-8.16694
in	-8.1791
no	-8.17957
▁několik	-8.18439
f	-8.19797
▁kterou	-8.20191
▁což	-8.20507
ra	-8.20915
▁procent	-8.21064
▁dvou	-8.22419
▁něm	-8.22509
...	-8.22732
▁tento	-8.22953
ře	-8.24836
▁možné	-8.25264
ných	-8.25615
▁jde	-8.2619
▁České	-8.26305
▁Ale	-8.26641
g	-8.26802
ují	-8.26874
▁Jak	-8.27063
▁dalších	-8.27316
právě	-8.27948
▁nové	-8.28116
▁T	-8.2821
cela	-8.28411
▁G	-8.28714
ři	-8.29016
▁měla	-8.29603
▁ČR	-8.29831
▁Praze	-8.30609
po	-8.31185
▁jednání	-8.31442
téměř	-8.31449
▁naše	-8.31555
▁zejména	-8.31611
▁svou	-8.32079
▁Od	-8.323
ta	-8.32425
▁strany	-8.34089
▁Co	-8.34412
▁Proto	-8.34973
▁prostředí	-8.35982
▁kdo	-8.36092
▁nej	-8.36128
▁zařízení	-8.36335
▁sice	-8.36563
▁letech	-8.36695
ří	-8.36802
ovou	-8.37013
ový	-8.37104
at	-8.37487
ými	-8.37628
▁Kdy	-8.37704
ém	-8.37966
▁základní	-8.38045
▁svého	-8.3811
kou	-8.38648
▁dvě	-8.3905
▁svých	-8.39113
el	-8.39119
▁větší	-8.39174
▁možnost	-8.4002
▁B	-8.40174
či	-8.40182
osti	-8.40244
▁nejen	-8.4025
lu	-8.40334
je	-8.41044
▁jiné	-8.41162
▁naši	-8.42517
ro	-8.42518
or	-8.42718
▁světa	-8.42811
▁tomto	-8.43316
spo	-8.43528
▁místo	-8.43665
ko	-8.43934
pl	-8.43944
▁R	-8.44001
▁Tak	-8.44059
on	-8.4429
ny	-8.44431
ami	-8.44482
▁každý	-8.45301
vá	-8.45512
M	-8.45641
▁nic	-8.45962
▁000	-8.46534
vě	-8.46556
▁L	-8.46585
ám	-8.46611
▁milionů	-8.47088
▁druhé	-8.47111
▁část	-8.4713
▁zde	-8.47491
▁něco	-8.48316
▁vlády	-8.48368
ly	-8.48536
▁svým	-8.48538
▁stát	-8.4864
▁mu	-8.48831
▁uvedl	-8.49434
ř	-8.49522
se	-8.49678
▁stejně	-8.50289
▁ceny	-8.51788
ru	-8.52443
▁zákona	-8.52606
▁kolem	-8.52789
S	-8.52846
▁systém	-8.53001
▁C	-8.5337
▁tam	-8.53894
▁2	-8.53918
ově	-8.54047
▁N	-8.54598
▁%	-8.54847
▁oblasti	-8.54912
▁dobře	-8.55443
▁příliš	-8.55729
▁patří	-8.55743
▁země	-8.55913
▁říká	-8.56203
▁dosud	-8.56417
▁svůj	-8.56431
▁byli	-8.56755
▁některých	-8.56841
▁práci	-8.57094
▁některé	-8.57283
si	-8.57414
▁zemí	-8.57449
▁10	-8.57695
▁zboží	-8.5835
▁vůbec	-8.58523
A	-8.58614
T	-8.58722
▁opět	-8.58808
▁1	-8.58961
▁sociální	-8.60148
▁období	-8.60208
▁vždy	-8.60443
ti	-8.6071
us	-8.60944
▁neboť	-8.61009
D	-8.61396
ští	-8.61933
tu	-8.62238
ích	-8.63127
ov	-8.63274
▁jež	-8.63417
▁firma	-8.6395
▁pracovní	-8.64381
▁nejsou	-8.64519
▁několika	-8.64968
▁mě	-8.64989
▁často	-8.65086
▁vyšší	-8.65281
če	-8.65464
▁systému	-8.65779
▁finanční	-8.66225
er	-8.66233
▁3	-8.66635
va	-8.6665
▁dokonce	-8.66744
ného	-8.66775
▁jste	-8.67125
oval	-8.67432
▁den	-8.67628
▁USA	-8.67772
▁měli	-8.67958
čí	-8.68011
da	-8.68028
▁sám	-8.68251
▁Js	-8.68647
▁Kč	-8.68923
děl	-8.68957
lá	-8.69205
▁ob	-8.69382
▁lidé	-8.69415
ového	-8.69518
▁celé	-8.69528
▁Jan	-8.7049
▁střední	-8.70731
během	-8.70843
▁níž	-8.70905
▁rovněž	-8.70963
▁doby	-8.7121
R	-8.71431
▁trhu	-8.71555
ská	-8.71626
▁informace	-8.71745
▁nimi	-8.72403
▁přímo	-8.72544
▁společnost	-8.7268
▁počet	-8.72713
tě	-8.72762
B	-8.72826
ující	-8.72931
vůli	-8.7297
včetně	-8.73337
▁ten	-8.73357
K	-8.73411
L	-8.73718
▁situace	-8.73737
▁části	-8.73784
▁takže	-8.73788
an	-8.73987
▁hodin	-8.74184
▁zahraničí	-8.74545
▁státní	-8.74643
▁Ty	-8.74645
zřejmě	-8.74774
▁zákon	-8.75057
▁čas	-8.75059
▁pět	-8.75435
▁vše	-8.7594
tato	-8.76308
▁mohl	-8.76313
▁F	-8.76563
▁5	-8.76599
nu	-8.76639
▁méně	-8.76987
▁ministr	-8.77291
▁např	-8.77394
▁Evropy	-8.77426
▁peníze	-8.77432
nost	-8.77561
ri	-8.77815
ba	-8.78019
ným	-8.78082
▁Zatím	-8.78279
▁víc	-8.78296
ty	-8.78681
▁něj	-8.78686
▁znamená	-8.78749
▁chce	-8.78786
▁vám	-8.78821
ry	-8.78883
▁nebude	-8.78906
▁způsobem	-8.79302
▁takové	-8.79562
ský	-8.79976
de	-8.80106
▁ředitel	-8.80131
▁spíše	-8.80225
▁republiky	-8.80248
kem	-8.80381
▁nemá	-8.8084
▁velký	-8.81011
ním	-8.81016
▁sebe	-8.81309
▁dále	-8.81349
▁dobu	-8.81491
by	-8.81553
▁navíc	-8.81691
▁přitom	-8.81716
ší	-8.81791
▁čtyři	-8.81886
lí	-8.82178
hl	-8.82256
▁půl	-8.8236
▁První	-8.82362
▁obchodní	-8.82476
▁vlastně	-8.82577
▁problémy	-8.82662
▁jednoho	-8.83002
▁Vy	-8.83043
ť	-8.83141
P	-8.83348
▁naopak	-8.8345
▁prezident	-8.83587
ského	-8.83804
▁české	-8.83898
▁snad	-8.84198
▁řízení	-8.84242
ví	-8.85033
du	-8.85422
▁města	-8.85499
▁zájem	-8.8553
▁letošní	-8.85648
▁skutečně	-8.85738
3	-8.85751
ků	-8.85808
I	-8.86085
ma	-8.86191
▁straně	-8.86355
▁největší	-8.86525
▁znovu	-8.86651
▁mnoho	-8.86661
▁vláda	-8.86866
▁zahraniční	-8.86932
▁většinou	-8.86952
▁jej	-8.86995
▁životní	-8.87085
▁zhruba	-8.87119
od	-8.87173
▁platí	-8.87314
▁jednotlivý	-8.87406
▁20	-8.87748
▁řešení	-8.87941
▁současné	-8.87993
4	-8.88327
C	-8.88408
▁území	-8.88918
V	-8.89153
tr	-8.89223
▁program	-8.89272
▁jiných	-8.89336
▁Jiří	-8.89388
▁mimo	-8.89852
▁nelze	-8.89892
ec	-8.89944
▁celý	-8.90096
▁člověk	-8.90421
▁bych	-8.90575
▁začal	-8.90999
▁1992	-8.9116
▁letos	-8.91342
▁smlouvy	-8.91768
▁dolarů	-8.91792
▁rozhodnutí	-8.91934
ím	-8.92227
ova	-8.92294
ji	-8.92455
▁zase	-8.92612
ha	-8.92643
▁velké	-8.92744
▁tzv	-8.9277
▁jedné	-8.92955
▁tří	-8.92995
za	-8.93108
ův	-8.93251
N	-8.93309
▁lepší	-8.93715
▁pomocí	-8.93793
▁množství	-8.94038
▁život	-8.94345
▁činnosti	-8.94353
▁šest	-8.94831
is	-8.95005
dr	-8.9517
re	-8.95421
▁naší	-8.95505
▁Přesto	-8.95781
▁roky	-8.95856
▁vás	-8.95878
▁světě	-8.96475
▁jednou	-8.96696
▁různých	-8.96722
▁pan	-8.96888
U	-8.97034
▁hlavní	-8.97117
▁Petr	-8.97227
et	-8.97471
▁státu	-8.97479
1	-8.97541
▁později	-8.97605
2	-8.97774
▁můžete	-8.98209
▁programu	-8.98596
kr	-8.9862
▁ČSFR	-8.98754
▁vedení	-8.98798
▁dost	-8.98848
ních	-8.98895
ste	-8.99121
▁1.	-8.9931
▁svět	-8.99337
▁člověka	-8.99342
▁de	-8.99563
▁Evropě	-8.99793
▁podniku	-8.9985
▁Před	-8.99923
▁skupiny	-9.0013
▁E	-9.00255
▁století	-9.00321
▁věci	-9.00716
ských	-9.0072
▁nepo	-9.00814
▁služby	-9.00842
▁rozdíl	-9.00956
▁Václav	-9.01083
▁málo	-9.01138
▁deset	-9.01187
▁dlouho	-9.01235
▁domácí	-9.01553
▁jinak	-9.01906
▁prý	-9.0195
▁činnost	-9.01979
▁mělo	-9.02014
ve	-9.0227
▁zároveň	-9.02614
▁obou	-9.02679
▁situaci	-9.02976
tra	-9.03034
▁trh	-9.03421
vol	-9.03499
▁dnešní	-9.03518
▁prohlásil	-9.03578
▁spolu	-9.03658
Á	-9.0366
▁snímku	-9.04064
▁náklady	-9.04101
Z	-9.04313
hr	-9.04424
▁možná	-9.04595
▁přesto	-9.04685
▁nových	-9.04811
ců	-9.04957
▁návrh	-9.04965
▁prvním	-9.05044
▁problém	-9.05083
ar	-9.05083
▁cenu	-9.05244
▁nevy	-9.05312
▁nemůže	-9.05513
▁stojí	-9.05535
▁měly	-9.05716
▁máme	-9.058
tá	-9.05889
▁tvrdí	-9.05922
ši	-9.06006
▁mohli	-9.06075
▁jaké	-9.06254
▁děti	-9.06264
▁1993	-9.06264
▁firem	-9.06774
val	-9.06906
▁získat	-9.07384
▁Praha	-9.07384
še	-9.07473
ení	-9.07642
ají	-9.07771
▁moc	-9.07937
lé	-9.07958
▁toto	-9.07996
▁států	-9.08023
▁4	-9.08136
▁těch	-9.08475
▁majetku	-9.08517
lou	-9.08537
▁nakonec	-9.08576
▁Byl	-9.08603
▁CD	-9.08625
▁všechno	-9.08678
▁funkce	-9.08887
▁nikdy	-9.0909
vý	-9.09475
nější	-9.09565
▁r	-9.09674
▁Ko	-9.09708
▁výši	-9.09829
▁pěti	-9.09949
▁30	-9.09968
▁lety	-9.0999
▁svém	-9.10032
▁podniků	-9.10071
ob	-9.10313
ká	-9.1048
▁bývalé	-9.10569
▁sto	-9.10594
▁konce	-9.10621
▁proč	-9.10674
▁jedna	-9.10687
▁100	-9.10716
tí	-9.10873
▁místě	-9.11167
▁vody	-9.11317
▁jedno	-9.11533
▁americké	-9.11551
▁možnosti	-9.11644
▁třetí	-9.1202
▁nového	-9.1214
bu	-9.12167
ili	-9.12189
▁stavu	-9.12275
▁dříve	-9.12354
▁Š	-9.12486
▁Prahy	-9.12588
▁dobré	-9.12618
▁sobotu	-9.12638
ější	-9.12789
▁Má	-9.13181
▁nutné	-9.13183
9	-9.13215
ila	-9.13448
▁nebyl	-9.13456
▁15	-9.13538
▁mezinárodní	-9.13572
ol	-9.13815
vi	-9.14093
▁parlamentu	-9.14233
w	-9.14379
▁místní	-9.14562
▁přece	-9.14707
5	-9.14797
▁osob	-9.14814
▁bychom	-9.1482
▁předseda	-9.14823
▁zemi	-9.15155
▁Tento	-9.15204
os	-9.15474
▁ministerstva	-9.156
▁pohled	-9.15605
▁týden	-9.15746
ické	-9.15755
pe	-9.159
▁W	-9.15908
ční	-9.1603
▁Tato	-9.16436
▁Není	-9.16756
▁informací	-9.16831
▁policie	-9.16831
▁všichni	-9.16831
▁organizace	-9.16831
▁poté	-9.16987
ační	-9.16991
▁Další	-9.17193
▁prostor	-9.17194
▁samozřejmě	-9.17204
▁rychle	-9.17429
▁nikdo	-9.17453
▁můžeme	-9.17519
▁malé	-9.17721
O	-9.18013
▁Ten	-9.18034
▁hlavně	-9.18081
▁nový	-9.18091
ální	-9.1813
▁stav	-9.18337
pa	-9.18471
▁českých	-9.18504
nebo	-9.187
▁Kromě	-9.18706
▁poměrně	-9.18828
▁prezidenta	-9.18886
▁něho	-9.18889
▁věcí	-9.18937
ovali	-9.19045
▁obě	-9.19129
▁sdružení	-9.19355
trochu	-9.19356
▁dvěma	-9.19386
▁způsob	-9.19508
let	-9.19596
▁jedn	-9.19946
▁vedoucí	-9.19978
0	-9.19991
▁jí	-9.20258
▁Jana	-9.20374
▁50	-9.20537
▁právní	-9.20601
▁SSSR	-9.20617
▁sobě	-9.20619
dy	-9.207
▁Ta	-9.20882
bychom	-9.20907
jich	-9.20948
▁stran	-9.21093
▁vliv	-9.21119
▁Mezi	-9.21266
▁prohlášení	-9.21273
▁postup	-9.21437
man	-9.21774
▁kdyby	-9.2188
▁Jako	-9.21898
▁komise	-9.21911
▁podmínky	-9.21911
▁Jestli	-9.21911
▁někdy	-9.21913
vr	-9.22197
▁200	-9.22588
▁základě	-9.22694
▁večer	-9.22847
▁já	-9.22894
▁Evropské	-9.23132
▁potom	-9.23208
▁výroby	-9.23265
▁zemích	-9.23303
▁došlo	-9.23501
E	-9.23633
▁čím	-9.23814
▁kromě	-9.23849
▁většina	-9.23885
▁soud	-9.2408
dním	-9.2446
▁místa	-9.2464
▁ostatní	-9.24888
▁Se	-9.24987
▁určité	-9.25075
▁hned	-9.25227
▁6	-9.25322
ované	-9.25373
▁pár	-9.25448
▁nejlepší	-9.25459
▁dál	-9.25522
ží	-9.25837
ovým	-9.25915
▁života	-9.26023
pr	-9.2639
dí	-9.26436
▁tehdy	-9.26579
▁rozpočtu	-9.26582
▁podíl	-9.26718
▁hry	-9.26734
▁miliard	-9.26781
ing	-9.27108
▁druhý	-9.2718
▁mnoha	-9.27237
▁vysoké	-9.27264
▁východní	-9.2741
▁cena	-9.27462
▁tvoří	-9.27469
▁jistě	-9.27499
▁jich	-9.27527
▁osm	-9.27666
▁vývoj	-9.27932
▁teď	-9.2796
▁milionu	-9.28176
mohlo	-9.28262
▁nebylo	-9.28384
▁prosince	-9.28648
▁prostředky	-9.28649
▁poprvé	-9.2865
▁neu	-9.28835
▁dne	-9.28854
▁čtyř	-9.29167
▁času	-9.29297
▁unie	-9.29349
str	-9.29552
▁stejné	-9.29562
▁názor	-9.29585
6	-9.29615
jší	-9.29916
▁spolupráci	-9.30051
▁výsledky	-9.30064
▁teprve	-9.30076
▁opatření	-9.30083
▁jenž	-9.30253
▁nějak	-9.30319
▁výrazně	-9.30813
▁dodal	-9.30845
nosti	-9.30902
▁žádné	-9.31027
dl	-9.31077
▁prakticky	-9.31518
▁vnitřní	-9.31606
▁40	-9.31713
▁politické	-9.31771
▁stal	-9.31788
▁hlediska	-9.32194
▁prostřednictví	-9.32194
▁utkání	-9.32244
▁mnoh	-9.32287
▁zdravotní	-9.32295
▁podnik	-9.32319
▁procenta	-9.32391
00	-9.32419
hle	-9.3272
▁premiér	-9.32839
▁republice	-9.32919
▁velice	-9.33024
▁celou	-9.33074
ter	-9.33136
ému	-9.33219
▁ministra	-9.33221
▁ODS	-9.33292
op	-9.3344
▁někdo	-9.3365
▁daně	-9.33679
▁kterým	-9.33847
pra	-9.33915
▁ti	-9.34109
▁přístup	-9.34302
▁dispozici	-9.34386
▁nižší	-9.34388
▁akce	-9.34406
▁souvislosti	-9.3447
díky	-9.34558
▁provoz	-9.34739
▁řadu	-9.34876
▁typu	-9.3488
ur	-9.34915
▁minut	-9.34972
▁1990	-9.35126
▁peněz	-9.35159
▁Re	-9.35235
stav	-9.35556
▁změny	-9.35684
▁obyvatel	-9.35748
mohla	-9.35754
▁rámci	-9.35873
▁ledna	-9.35889
fi	-9.35976
▁prostě	-9.36012
▁mne	-9.36336
▁původní	-9.36429
▁sebou	-9.36558
ace	-9.36593
▁budeme	-9.36609
▁nejméně	-9.36636
▁podařilo	-9.36722
ck	-9.36772
▁doma	-9.36837
▁dat	-9.36838
▁menší	-9.36996
▁roli	-9.37407
▁státy	-9.3749
▁objekt	-9.37529
▁různé	-9.37578
▁vítězství	-9.3758
▁čs	-9.37666
▁význam	-9.37884
há	-9.37947
▁St	-9.37971
es	-9.38068
skou	-9.38116
▁deseti	-9.38144
▁Například	-9.38144
▁podnikání	-9.38165
▁ním	-9.38194
▁výše	-9.38761
F	-9.38803
▁opravdu	-9.38919
▁Jde	-9.38972
▁šesti	-9.38983
br	-9.39061
▁pomoc	-9.39089
▁právo	-9.39184
▁tolik	-9.39194
▁nez	-9.39226
ství	-9.39399
vy	-9.39512
▁západní	-9.39574
▁smlouvu	-9.39688
▁miliónů	-9.39694
▁nejvyšší	-9.39726
▁náš	-9.39737
▁nedávno	-9.3975
▁minulý	-9.39775
lit	-9.39777
ací	-9.39926
▁trenér	-9.39979
ovala	-9.40023
ven	-9.40346
▁funkci	-9.4047
▁služeb	-9.40476
▁Dnes	-9.40514
▁zvýšení	-9.40599
▁loni	-9.40607
▁Jen	-9.40614
ák	-9.41091
▁okolí	-9.41258
▁Kdo	-9.41309
▁Klaus	-9.41365
▁měsíců	-9.41409
aci	-9.41493
▁chování	-9.41509
▁středu	-9.41554
▁žádný	-9.41601
▁vů	-9.41691
▁kam	-9.41914
▁Pře	-9.41931
▁koaliční	-9.42051
▁ministerstvo	-9.42051
▁chtějí	-9.42051
▁dnech	-9.4208
▁pojištění	-9.42181
▁úřadu	-9.42203
sti	-9.4241
▁růst	-9.42571
▁jiného	-9.42843
▁metrů	-9.42936
▁postupně	-9.42956
▁získal	-9.43052
▁Windows	-9.43126
▁rady	-9.43163
▁text	-9.43168
▁zahraničních	-9.43315
proti	-9.4342
▁zisk	-9.43515
▁společenství	-9.43695
▁dosavadní	-9.43729
rt	-9.43894
▁svazu	-9.43935
nutí	-9.44318
▁malý	-9.44392
▁12	-9.44455
▁členů	-9.44588
▁Pak	-9.44739
ad	-9.44741
▁cen	-9.44761
▁ta	-9.44883
ovací	-9.44915
▁11	-9.45106
krát	-9.45271
▁nemusí	-9.4529
▁číslo	-9.45308
▁Zde	-9.45578
▁pracovníků	-9.4561
▁neza	-9.4562
▁19	-9.45673
▁Ro	-9.45833
▁klubu	-9.45934
▁podobně	-9.46002
▁podporu	-9.4605
len	-9.46051
8	-9.46125
▁zástupce	-9.46126
▁tržní	-9.4617
▁nadále	-9.46205
▁Bude	-9.46288
▁8	-9.46711
▁počtu	-9.46718
▁25	-9.46807
hu	-9.46885
▁osobní	-9.46972
ání	-9.46982
zn	-9.47243
▁1991	-9.47287
▁ročně	-9.47627
▁týmu	-9.47701
▁snaží	-9.47725
▁podniky	-9.47743
▁Většin	-9.4779
▁hospodářství	-9.4779
▁nabídky	-9.4779
▁lépe	-9.47793
▁výkon	-9.47817
▁MS	-9.47929
▁zdá	-9.4801
ali	-9.48186
▁každ	-9.48243
▁dostal	-9.48317
▁Ani	-9.48346
▁přibližn	-9.48398
▁umožňuje	-9.48637
▁podstatně	-9.48641
▁jenom	-9.48697
▁hodně	-9.48912
▁přesně	-9.48947
▁kole	-9.49001
▁fondu	-9.49259
▁slova	-9.4937
▁musíme	-9.49477
▁považuje	-9.49492
▁začíná	-9.49492
▁říci	-9.49523
▁případech	-9.49545
▁novou	-9.4957
▁18	-9.4957
ga	-9.49592
▁1994	-9.49611
▁městě	-9.49625
▁přednost	-9.49815
▁banky	-9.50045
mat	-9.50118
▁řada	-9.50231
▁pomoci	-9.50277
▁obvykle	-9.50354
▁sítě	-9.50358
▁možností	-9.50414
▁oddělení	-9.50451
▁českého	-9.50593
▁vedle	-9.50671
Dr	-9.50757
▁nes	-9.50911
▁nebyla	-9.50963
CH	-9.51045
šlo	-9.51054
▁her	-9.51118
▁otázku	-9.51224
▁výrobků	-9.51227
▁politiky	-9.51276
▁průběhu	-9.51478
ať	-9.51507
gr	-9.51678
ostí	-9.5178
▁kterém	-9.51832
▁16	-9.51946
▁miliardy	-9.52084
▁nabízí	-9.52101
▁nemají	-9.52145
▁ulici	-9.52167
▁zdrojů	-9.52259
▁celkové	-9.52303
▁tým	-9.52394
▁ú	-9.52426
sta	-9.5275
▁vede	-9.528
▁skutečnost	-9.52876
ul	-9.52899
id	-9.52925
▁otázky	-9.52986
▁úrovni	-9.52986
▁chvíli	-9.52986
▁celkem	-9.52989
▁Česká	-9.52992
▁uvádí	-9.53062
ník	-9.53114
▁slov	-9.53125
▁Už	-9.53151
▁Nej	-9.53203
nik	-9.53203
▁cestu	-9.53221
▁změn	-9.53483
▁takto	-9.5354
▁pražské	-9.53591
▁moci	-9.53606
▁výzkum	-9.5367
ik	-9.53712
▁7	-9.53722
▁chyb	-9.53766
▁dá	-9.53859
▁mistrovství	-9.53882
▁názoru	-9.53988
cen	-9.53998
▁postavení	-9.54075
▁dohody	-9.54079
▁textu	-9.54103
H	-9.54177
▁sil	-9.54198
▁objektů	-9.542
▁jednom	-9.54231
zí	-9.54251
▁míst	-9.54322
sp	-9.54433
Í	-9.54523
▁energie	-9.5478
▁dětí	-9.5478
▁NATO	-9.54781
ice	-9.54788
▁jejím	-9.55032
nit	-9.55033
án	-9.55167
▁Ma	-9.55445
▁společností	-9.55482
rad	-9.55487
▁14	-9.55608
▁finále	-9.55689
▁představuje	-9.55771
▁takový	-9.55779
▁listopadu	-9.55784
▁platit	-9.55828
▁působí	-9.55835
▁kterých	-9.55895
▁měsíce	-9.5591
▁sedm	-9.55988
▁setkání	-9.56024
▁sama	-9.56184
▁projekt	-9.56217
▁Ze	-9.56262
▁bývalý	-9.56336
▁každé	-9.56413
▁vybavení	-9.56423
▁obsah	-9.56499
▁nikoli	-9.56529
▁světové	-9.56537
▁my	-9.56583
▁prostředků	-9.56607
▁čtvrtek	-9.56628
▁hrát	-9.56652
▁Ještě	-9.56652
▁Tím	-9.56671
▁současně	-9.5678
▁řadě	-9.56826
▁obchodního	-9.56852
▁hráčů	-9.56973
▁skupina	-9.57006
▁příští	-9.5702
▁zdroje	-9.57079
▁národní	-9.57202
mž	-9.57236
ant	-9.57251
ed	-9.5726
▁nedo	-9.57264
▁volební	-9.57498
▁Navíc	-9.57532
▁Nyní	-9.57535
▁výrobky	-9.57537
▁OSN	-9.5754
▁produkce	-9.57542
▁musel	-9.57593
▁oba	-9.57595
▁atd	-9.57605
▁provozu	-9.57632
▁čeká	-9.57666
▁neděli	-9.57788
▁sami	-9.5779
▁2.	-9.57842
▁vládní	-9.58125
nými	-9.5816
▁skutečnosti	-9.5826
▁Josef	-9.58467
▁federální	-9.58467
▁zasedání	-9.5847
▁dobrý	-9.58496
▁kvalitní	-9.58516
ovy	-9.58533
▁muset	-9.58536
ního	-9.58707
▁všem	-9.58798
▁vod	-9.58831
kové	-9.59013
▁výboru	-9.59042
▁hlavním	-9.5911
▁úřad	-9.59154
▁přiče	-9.5924
▁začátku	-9.59452
ú	-9.59459
▁srovnání	-9.59484
▁součástí	-9.597
▁akcií	-9.59713
▁poně	-9.59762
▁jiný	-9.59762
▁hodnoty	-9.59796
▁mluvčí	-9.59803
pro	-9.59863
▁prezentace	-9.5993
bal	-9.60069
▁školy	-9.60069
▁teorie	-9.60362
▁privatizace	-9.60363
▁apod	-9.60368
▁obchodu	-9.60412
ském	-9.60417
ován	-9.60431
▁jasné	-9.60432
▁škol	-9.60531
do	-9.60556
▁zvláštní	-9.60575
▁kterého	-9.60592
▁společné	-9.6062
sk	-9.60668
▁problémů	-9.60855
▁těm	-9.60941
▁ME	-9.60987
čin	-9.60993
▁Le	-9.61134
▁Ch	-9.61165
hal	-9.61225
nout	-9.61226
rn	-9.61265
▁generální	-9.61285
▁Země	-9.61336
▁objektu	-9.61357
▁dopravy	-9.61414
▁plně	-9.61439
▁domů	-9.61443
▁poslanců	-9.61478
▁olympijské	-9.61516
▁1989	-9.61518
▁Tr	-9.61548
as	-9.61561
▁jednotlivé	-9.61594
▁buď	-9.61624
▁případ	-9.61688
řitom	-9.61698
ot	-9.61747
▁chtěl	-9.61758
prve	-9.61871
▁našem	-9.62094
▁telefonní	-9.62125
▁možno	-9.62253
▁ekonomické	-9.62272
sku	-9.62292
▁veřejné	-9.62295
▁zdravotnictví	-9.62295
▁Někter	-9.62297
▁kolik	-9.62302
▁umění	-9.62318
000	-9.62415
▁údaje	-9.62619
▁re	-9.6267
▁věc	-9.62761
ič	-9.62883
vat	-9.62897
▁Bylo	-9.62912
ran	-9.63192
▁práva	-9.63273
▁Pavel	-9.63277
▁Podobn	-9.633
▁podobě	-9.63314
▁ostatních	-9.63354
▁investice	-9.63427
▁dalším	-9.63481
▁kultury	-9.63535
▁noci	-9.63557
▁Jelcin	-9.63559
▁24	-9.6362
▁spojení	-9.63635
▁státního	-9.63668
▁celého	-9.63721
▁obraz	-9.63851
▁ex	-9.63905
čky	-9.63958
ily	-9.63962
viz	-9.6409
7	-9.64091
▁nepři	-9.64126
▁Ivan	-9.64296
např	-9.64349
ěte	-9.6435
▁společně	-9.64364
▁zájmu	-9.64399
čka	-9.64446
pat	-9.64484
▁soutěže	-9.64516
▁Proč	-9.64538
▁snadno	-9.64554
▁občanů	-9.64558
▁smrti	-9.64601
▁strana	-9.64707
▁Ti	-9.64718
▁republik	-9.64978
ver	-9.65091
▁Toto	-9.65112
▁dr	-9.65135
▁vzájemn	-9.65164
▁dává	-9.65165
▁tisíce	-9.65206
▁jméno	-9.65266
▁politických	-9.65345
▁předem	-9.65419
ilo	-9.65432
▁13	-9.65775
▁klub	-9.65813
bor	-9.65853
iny	-9.66141
▁Stejn	-9.6628
▁hnutí	-9.66282
▁snímek	-9.66283
▁zdraví	-9.66294
▁lidi	-9.66332
▁vytvoření	-9.6637
up	-9.66432
▁důvodů	-9.66442
▁nejvíce	-9.66489
▁pracovat	-9.66785
▁list	-9.66786
del	-9.66857
▁Ba	-9.66872
▁práv	-9.66876
▁moderní	-9.66938
▁Jaroslav	-9.67296
zen	-9.67361
▁vzhledem	-9.6739
▁vztah	-9.67428
▁velkou	-9.67459
▁soudu	-9.67484
▁Český	-9.67574
▁mužů	-9.67624
▁konkrétní	-9.67719
▁jisté	-9.67724
▁připraven	-9.67836
▁počítače	-9.67842
mysl	-9.67877
▁hráči	-9.67884
však	-9.67976
▁světový	-9.68018
▁otázka	-9.68125
▁těžko	-9.68327
▁okolo	-9.68328
ící	-9.68416
▁skupin	-9.68567
▁daleko	-9.68649
▁film	-9.68663
nice	-9.68879
dob	-9.68885
▁spíš	-9.68983
▁hodiny	-9.69018
J	-9.69062
vo	-9.69228
▁bank	-9.69298
svoji	-9.69322
▁náměstí	-9.69368
▁delší	-9.69371
▁někteří	-9.69374
▁zástupci	-9.69375
▁září	-9.69378
▁rukou	-9.69382
▁zaměstnání	-9.69404
▁obsahuje	-9.69425
▁kilometrů	-9.69426
▁parlament	-9.6964
▁oboru	-9.69695
▁věku	-9.69698
▁koncem	-9.69756
▁60	-9.6976
▁Ú	-9.69823
▁Pa	-9.69925
▁mohly	-9.70023
▁výsledek	-9.70421
▁cestovní	-9.70421
▁přišel	-9.70558
▁nepro	-9.70584
▁druhů	-9.70618
▁zkušenosti	-9.70731
▁model	-9.70961
▁celkov	-9.7102
▁zpět	-9.71069
▁nějaké	-9.71072
▁cizí	-9.71082
ovaných	-9.71135
čení	-9.71151
▁Kčs	-9.71191
▁hospodářské	-9.71194
▁objekty	-9.71356
▁existuje	-9.71485
▁nebudou	-9.71485
▁zůstává	-9.71485
▁Může	-9.71486
▁podmínek	-9.71488
▁dnů	-9.71493
▁olympijský	-9.71557
▁mám	-9.71579
▁koalice	-9.71589
▁Roz	-9.71626
▁stavební	-9.71697
▁zaměstnanců	-9.71743
ud	-9.71747
ována	-9.7185
▁český	-9.71918
▁prodej	-9.7192
▁bod	-9.71981
▁řád	-9.72101
▁smyslu	-9.72122
▁šéf	-9.72219
▁každého	-9.72225
▁Ob	-9.72325
▁běžné	-9.72356
▁efekt	-9.72532
▁úroveň	-9.7256
▁rozvoj	-9.72563
▁tady	-9.72583
▁tun	-9.72682
▁minulosti	-9.72725
▁termín	-9.72848
▁fond	-9.72875
pravidla	-9.72982
▁Br	-9.73343
▁dvacet	-9.73354
▁loňské	-9.7346
▁případně	-9.73486
▁Mar	-9.73554
▁plyn	-9.73578
ic	-9.73626
▁pátek	-9.73647
▁praxi	-9.73648
▁poslanci	-9.7365
▁rychlost	-9.73683
kách	-9.73687
ář	-9.73719
▁Já	-9.73765
▁jediný	-9.73767
▁určitě	-9.73806
▁Každý	-9.73823
▁účast	-9.73824
▁Ná	-9.73972
per	-9.74009
▁pozornost	-9.74051
ač	-9.74156
fr	-9.74171
▁Brně	-9.74271
▁bývá	-9.74416
mluv	-9.74625
ber	-9.7463
gen	-9.74654
nt	-9.74661
▁důležité	-9.74746
▁vidět	-9.74746
▁šanci	-9.74748
▁konci	-9.74776
▁kvality	-9.74812
íky	-9.75125
▁použití	-9.75218
▁prvního	-9.75224
▁zápas	-9.75389
▁pokus	-9.75475
vod	-9.75514
▁muž	-9.75518
▁doba	-9.75527
▁krok	-9.75543
ických	-9.75558
▁druhém	-9.75715
▁síly	-9.75863
▁volbách	-9.75867
▁výrobce	-9.75869
▁července	-9.75876
ina	-9.75879
▁dny	-9.75904
▁nikoliv	-9.75959
▁odpovídá	-9.76033
▁změnit	-9.76037
nov	-9.76102
▁knihy	-9.76179
▁Německa	-9.76269
hy	-9.76303
▁členy	-9.76357
šel	-9.76529
▁nebezpečí	-9.76543
▁svaz	-9.76679
Š	-9.76995
▁nákladů	-9.7703
▁podstatě	-9.77064
▁zranění	-9.77185
▁speciální	-9.77377
ROM	-9.77392
▁Pan	-9.77556
▁tisku	-9.77588
▁stačí	-9.77799
ev	-9.7787
▁ruské	-9.7787
▁činí	-9.77914
▁Ministerstv	-9.78117
▁technologie	-9.78117
▁tepla	-9.78118
▁úplně	-9.78124
▁výrobu	-9.78203
▁představitelé	-9.78212
▁rozšíření	-9.78225
▁investiční	-9.78231
▁Bez	-9.78249
▁techniky	-9.78265
▁druhou	-9.78445
▁Nový	-9.78506
jící	-9.78619
▁počítá	-9.78661
RA	-9.78711
▁podobné	-9.78726
▁Již	-9.78982
▁Bo	-9.79047
vin	-9.7905
▁dal	-9.79072
▁pří	-9.79075
▁podnikatele	-9.79187
▁domu	-9.79274
▁míry	-9.7935
▁celá	-9.79406
▁volby	-9.79433
▁fakt	-9.79463
▁pracuje	-9.79481
ček	-9.79558
▁léta	-9.79603
▁nákup	-9.79614
▁voleb	-9.79626
▁zprávy	-9.7966
▁výrobní	-9.79821
té	-9.79986
▁vznikl	-9.8008
▁vstup	-9.80153
▁polovin	-9.80279
▁vzor	-9.80331
▁Jedno	-9.80442
▁dvakrát	-9.80477
▁televizní	-9.8049
▁vytvořit	-9.80494
ujeme	-9.80585
▁chcete	-9.80699
▁bo	-9.80764
▁vlastnosti	-9.80787
▁bytů	-9.80872
▁17	-9.80907
kov	-9.80925
▁návrhu	-9.80941
ický	-9.8115
skoro	-9.81167
▁též	-9.81291
nem	-9.81376
vláště	-9.81488
▁údajn	-9.81512
▁výběr	-9.81531
10	-9.81563
▁financí	-9.81606
▁konečně	-9.81673
▁fotbalové	-9.81725
▁typ	-9.81747
▁každém	-9.8186
▁SR	-9.81915
pis	-9.81974
▁byt	-9.82112
▁vyhrál	-9.82327
▁jít	-9.82355
▁schopn	-9.82444
▁dělat	-9.82476
▁lidský	-9.82728
zhledem	-9.82775
▁federace	-9.82796
▁firmě	-9.82796
▁použít	-9.82796
▁výsledků	-9.82818
▁Jeden	-9.82821
▁evropských	-9.82836
▁Všechny	-9.82857
▁současnosti	-9.82884
▁zpracování	-9.82891
ovány	-9.82934
▁hranice	-9.83004
▁průmyslu	-9.83127
▁Německu	-9.83136
▁bodů	-9.83139
▁obchod	-9.83194
▁rád	-9.83206
▁hráč	-9.83264
▁vojenské	-9.83283
▁Kr	-9.83419
▁Pod	-9.8348
ig	-9.83637
▁Zeman	-9.83747
and	-9.83854
G	-9.83923
kon	-9.83956
▁rozhodující	-9.83979
▁Společenství	-9.84001
▁Vladimír	-9.84001
▁Právě	-9.84001
▁zbraní	-9.84002
▁nejlépe	-9.84002
▁pravděpodobně	-9.84014
▁původně	-9.84023
▁Běh	-9.84025
▁počítač	-9.84071
▁osoby	-9.84145
▁objeví	-9.84202
ovém	-9.84218
▁ředitele	-9.84293
▁Firma	-9.84386
▁ženy	-9.84464
▁amerických	-9.84485
▁cílem	-9.84544
jet	-9.84564
ovými	-9.84578
ík	-9.84614
třech	-9.84686
tur	-9.84775
▁následující	-9.84781
▁jaký	-9.84899
vede	-9.84943
pokoj	-9.84978
▁dlouhé	-9.85221
▁udělat	-9.85257
▁sněmovny	-9.85284
sky	-9.85293
▁dokáže	-9.85299
▁vhodné	-9.85441
▁prostoru	-9.85552
▁kulturní	-9.85586
ném	-9.85657
▁důvod	-9.85721
značně	-9.85789
ge	-9.85825
bou	-9.85883
bl	-9.85934
▁lékaře	-9.8599
hled	-9.86061
▁80	-9.86138
▁Lu	-9.86153
▁těmi	-9.86262
▁dvaceti	-9.86309
▁zisku	-9.86434
▁růstu	-9.86439
▁patrně	-9.86448
▁informační	-9.86455
▁čísla	-9.86455
▁brzy	-9.86455
▁pravda	-9.86463
▁hovoří	-9.86467
▁Miloš	-9.86539
▁mil	-9.86553
ct	-9.86567
▁využití	-9.86579
hn	-9.86628
▁obrany	-9.86665
raz	-9.8669
:	-9.8674
ner	-9.86868
▁ústavu	-9.86927
▁roční	-9.86941
▁rokem	-9.86982
▁vodní	-9.87044
▁veřejnosti	-9.87126
▁závod	-9.87127
▁vědecké	-9.87264
▁úspěch	-9.87422
be	-9.87505
čet	-9.87672
raději	-9.87701
▁většinu	-9.87705
▁jinde	-9.87705
▁péče	-9.87705
▁začne	-9.87718
▁nemohou	-9.8772
▁dovolenou	-9.8776
▁vědět	-9.87788
▁vládě	-9.87833
▁La	-9.87905
▁denně	-9.88
var	-9.88052
▁čem	-9.88138
▁prací	-9.88195
▁Li	-9.88211
▁slovo	-9.88279
▁data	-9.88299
▁takovou	-9.88322
▁Ke	-9.88381
▁stala	-9.88412
▁národního	-9.88463
▁Mo	-9.88473
stup	-9.88546
▁nejbližší	-9.88668
kla	-9.88708
▁Pr	-9.88818
▁aplikace	-9.88875
▁pokračovat	-9.88971
▁pozadí	-9.88971
▁látky	-9.88974
▁sluneční	-9.89072
▁rada	-9.89203
nka	-9.89319
▁akci	-9.89325
NÍ	-9.89358
▁Zá	-9.89424
ment	-9.89465
▁stanoven	-9.89467
dávají	-9.89493
▁řad	-9.89503
▁starší	-9.89505
nd	-9.89524
▁potřebné	-9.89549
▁veřejnost	-9.89561
▁stalo	-9.89697
▁procesu	-9.89719
tah	-9.89821
▁ES	-9.89861
▁dosáhl	-9.8992
kl	-9.89937
▁osmi	-9.90015
▁plat	-9.90148
nil	-9.90216
▁UEFA	-9.90253
▁demokracie	-9.90253
▁důležitý	-9.90253
▁oficiální	-9.90253
▁označil	-9.90253
▁televizi	-9.90253
▁Spojený	-9.90253
▁Havel	-9.90255
▁nijak	-9.90257
▁okamžitě	-9.90279
▁hodnocení	-9.90288
▁ukazuje	-9.90288
▁výbor	-9.90321
▁míru	-9.90363
tře	-9.90374
▁zabývá	-9.90401
▁nebyly	-9.90413
▁plné	-9.90583
▁určen	-9.90628
▁cesty	-9.90637
▁bezpečnosti	-9.90682
▁naprosto	-9.90708
▁Tu	-9.90748
žen	-9.90835
▁pocit	-9.90885
▁vzniku	-9.90959
▁oblast	-9.91013
sko	-9.91041
▁body	-9.91098
▁žen	-9.91101
▁odmítl	-9.91111
rát	-9.91141
▁dát	-9.91183
▁odborné	-9.91238
▁autor	-9.91375
▁trvá	-9.9144
▁2000	-9.91514
▁majetek	-9.91552
▁řečeno	-9.91552
▁počasí	-9.91553
▁členové	-9.91612
▁budoucí	-9.91677
▁stanice	-9.91737
▁ČSSD	-9.91769
▁kanceláře	-9.91788
ovaly	-9.91792
▁Nové	-9.91832
▁potřeby	-9.91838
▁vládu	-9.91924
nese	-9.91933
▁téma	-9.92041
▁500	-9.92223
▁lékaři	-9.92225
▁druh	-9.92279
▁řady	-9.92296
▁disk	-9.92312
dle	-9.92363
▁respekt	-9.92416
▁zákony	-9.92437
he	-9.92672
bě	-9.92732
▁systémů	-9.92742
ené	-9.92761
▁vývoje	-9.92798
▁Měl	-9.92799
▁názvem	-9.92867
▁onemocnění	-9.92867
▁požadavky	-9.92867
▁příjmy	-9.92867
▁rozhodně	-9.9287
ben	-9.92871
▁nějaký	-9.92886
▁pole	-9.929
▁lidem	-9.92925
▁ekonomiky	-9.92928
▁dosáhnout	-9.92957
▁22	-9.93042
▁Vý	-9.93113
▁podobný	-9.93113
▁300	-9.93114
alo	-9.93114
▁Cen	-9.93152
▁Slovensku	-9.93155
ster	-9.93192
▁Martin	-9.93195
mj	-9.93447
▁Že	-9.93487
▁neo	-9.9349
▁třicet	-9.935
▁trest	-9.93517
▁Ka	-9.93556
%	-9.93624
▁smysl	-9.93627
▁počátku	-9.93664
▁nová	-9.93789
klad	-9.93951
▁lékař	-9.94067
cházet	-9.94133
▁konference	-9.94201
▁televize	-9.94201
▁vánoční	-9.94201
▁titul	-9.94203
▁ligy	-9.94203
▁policejní	-9.94205
▁dostat	-9.94215
▁funkcí	-9.94223
▁přístupu	-9.9429
▁hlavního	-9.94324
tím	-9.94331
▁Ha	-9.94366
▁Státní	-9.94369
▁jednak	-9.94384
▁nepře	-9.94537
▁mechaniky	-9.9455
▁celém	-9.94689
▁koncert	-9.94752
les	-9.94771
▁Čech	-9.94802
▁proces	-9.94936
▁společného	-9.95015
slov	-9.95043
▁soubor	-9.9513
▁řekla	-9.95137
▁trestní	-9.95207
▁prodeje	-9.95208
▁kolo	-9.95459
▁Sa	-9.95473
▁poskytuje	-9.95552
▁Československu	-9.95552
▁vnitra	-9.95554
▁Prezident	-9.95555
▁velká	-9.95557
▁Al	-9.95689
▁nechal	-9.95812
▁škody	-9.95834
▁Ho	-9.95855
▁Aby	-9.95869
▁21	-9.95871
▁70	-9.95885
▁parlamentní	-9.959
brž	-9.95908
▁rychlostí	-9.95936
▁druhá	-9.95945
kami	-9.95959
▁radost	-9.96089
▁PowerPoint	-9.96124
▁Velké	-9.96178
▁majitel	-9.96212
▁skončil	-9.96215
▁závěru	-9.96234
▁souboru	-9.9635
▁druhu	-9.96373
ovalo	-9.96408
▁obrat	-9.96472
letý	-9.96544
vou	-9.96658
▁druhého	-9.96735
▁získá	-9.96741
rovna	-9.96806
▁zemědělství	-9.96922
▁látek	-9.96925
▁desítky	-9.96929
▁najít	-9.96938
▁měsících	-9.96942
▁Čechách	-9.96965
▁měsíc	-9.96986
▁Atlantě	-9.96991
▁správy	-9.97
méně	-9.97059
▁dopravní	-9.97075
▁vydání	-9.97096
▁zákoníku	-9.97116
▁jinou	-9.9719
▁město	-9.97195
▁zákonů	-9.97261
▁plán	-9.97275
▁povinnost	-9.97321
▁čele	-9.97412
▁vývoz	-9.97504
cké	-9.97566
▁napsal	-9.97569
▁rozhodl	-9.97612
dnu	-9.97628
rod	-9.9769
W	-9.97699
nos	-9.97784
▁takového	-9.97821
▁výběru	-9.97848
▁jednat	-9.98215
▁Cel	-9.98231
sil	-9.98234
▁poměr	-9.98242
▁zemřel	-9.98264
▁schopen	-9.98311
▁Francie	-9.98311
▁nabídku	-9.98311
▁ustanovení	-9.98311
▁výrobců	-9.98312
▁snímků	-9.98314
níci	-9.98318
tem	-9.98333
▁hudební	-9.9836
▁uplatnění	-9.98376
▁evropské	-9.98381
▁New	-9.98405
▁nim	-9.98424
▁síť	-9.98428
▁přijde	-9.98432
iště	-9.98459
▁ráno	-9.98485
▁státech	-9.9858
nk	-9.98607
▁oznámil	-9.98685
▁začali	-9.98934
olog	-9.99027
koli	-9.99065
ková	-9.99181
▁ceně	-9.99246
tek	-9.99292
▁dalšího	-9.99393
▁soukromé	-9.9942
▁přechod	-9.9946
▁hráče	-9.99672
ovaný	-9.9968
▁těžké	-9.99719
▁využít	-9.99719
▁přijetí	-9.99721
▁působení	-9.99722
▁řešit	-9.99723
▁školství	-9.99731
▁hodlá	-9.99732
▁rozpočet	-9.99733
▁zajistit	-9.99761
▁tentokrát	-9.99766
▁změna	-9.99806
▁převážně	-9.99806
▁pořadí	-9.99949
▁Takže	-9.99978
▁vysokou	-9.99986
▁částky	-9.99995
▁vyplývá	-10.0004
▁jiná	-10.0011
▁okamžiku	-10.0011
zo	-10.0018
▁chybí	-10.002
▁mo	-10.0031
▁živ	-10.0034
voz	-10.0038
ským	-10.004
▁90	-10.0042
▁seznam	-10.0057
▁telefon	-10.006
▁dní	-10.0062
SK	-10.0062
▁seznamu	-10.0063
▁základ	-10.0064
▁vztahu	-10.0067
▁minulé	-10.0071
▁chtěli	-10.0073
ten	-10.0089
▁nesmí	-10.0092
▁potřebuje	-10.0096
▁Přes	-10.0098
nul	-10.01
▁předpokládá	-10.0106
▁názory	-10.0108
▁Její	-10.011
▁spolupráce	-10.0115
▁družstva	-10.0115
▁nejrůznější	-10.0115
▁Mezinárodní	-10.0116
▁vítěz	-10.0118
▁povolení	-10.0123
▁místech	-10.0124
▁údajů	-10.0126
▁směrem	-10.0132
▁nejde	-10.0133
▁cestou	-10.0138
iz	-10.0142
▁%.	-10.016
▁bohužel	-10.0163
rů	-10.017
▁máte	-10.018
▁dodává	-10.0182
inu	-10.019
▁pokles	-10.0203
▁vznik	-10.0204
▁myslím	-10.0211
uji	-10.0223
▁podnikatel	-10.023
vedl	-10.0236
▁výzkumu	-10.0243
ak	-10.0247
van	-10.0253
▁jestli	-10.0257
▁pondělí	-10.026
▁prezentaci	-10.026
▁ohledu	-10.0262
▁armády	-10.0265
▁vyslovil	-10.0266
▁pravidelně	-10.0267
▁měsíční	-10.0267
ická	-10.0269
▁systémy	-10.0269
▁předtím	-10.027
▁smluvní	-10.0275
▁nově	-10.0278
lek	-10.0287
port	-10.029
▁uvedla	-10.0294
▁němu	-10.0297
stoupil	-10.0301
ala	-10.0314
ele	-10.0316
▁vědy	-10.0318
▁stane	-10.0319
▁případů	-10.0325
plav	-10.0329
dal	-10.0335
▁post	-10.0336
mor	-10.0352
▁vztahy	-10.0355
▁daňové	-10.0361
tel	-10.0367
tní	-10.037
▁teplo	-10.0374
▁auto	-10.0376
rán	-10.0384
▁mechanika	-10.0385
Č	-10.0386
▁změnu	-10.039
form	-10.0391
ovo	-10.0392
▁dostane	-10.0396
▁taková	-10.0398
▁HIV	-10.0407
▁konferenci	-10.0407
▁podmínkách	-10.0407
▁příjmů	-10.0407
▁úrovně	-10.0407
▁radnice	-10.0407
▁spoust	-10.0407
▁června	-10.0407
▁Poslední	-10.0408
▁pořád	-10.0411
▁tiskové	-10.0415
▁výjimkou	-10.0415
▁politiku	-10.0417
▁částku	-10.0432
▁neměl	-10.0432
▁rodiny	-10.0437
▁dvanáct	-10.0441
▁Č	-10.0448
▁blok	-10.0449
uto	-10.0457
▁padesát	-10.0458
▁severní	-10.046
pil	-10.0465
▁De	-10.0478
▁neod	-10.0483
tky	-10.0484
▁velikost	-10.0491
▁podnikatelů	-10.0495
▁směru	-10.05
▁papír	-10.0507
dali	-10.0515
▁konkurence	-10.0515
▁museli	-10.052
▁úvěr	-10.0527
▁současn	-10.0534
▁Naše	-10.0535
▁člen	-10.0536
itel	-10.0539
▁zásad	-10.054
ion	-10.0541
▁Jedna	-10.0545
▁ba	-10.0552
▁Současn	-10.0556
▁většině	-10.0556
▁války	-10.0556
▁účetnictví	-10.0556
▁aliance	-10.0556
▁Největší	-10.0556
▁tvrzení	-10.0557
▁moře	-10.0562
ej	-10.0573
▁jednoznačně	-10.0573
▁žádn	-10.0576
▁jakým	-10.0585
▁pa	-10.059
▁volné	-10.0595
▁skupině	-10.0597
▁zvířat	-10.0603
▁aktivity	-10.0607
▁mimořádn	-10.0613
▁uvedené	-10.0618
řídit	-10.0626
▁hodnotu	-10.0628
▁Vše	-10.063
th	-10.0636
▁přírodní	-10.0647
▁Rusko	-10.0651
▁hraje	-10.0654
▁polovinu	-10.0659
▁bezpečnostní	-10.0659
▁kola	-10.0661
HO	-10.0663
▁poslanec	-10.0682
son	-10.0688
OV	-10.069
▁Václava	-10.0697
▁ODA	-10.0701
▁nechce	-10.0701
rád	-10.0703
▁kláves	-10.0707
▁většiny	-10.0708
▁politice	-10.0708
ška	-10.0708
▁začít	-10.0708
▁vždycky	-10.0708
▁pořádku	-10.0713
▁nemocnice	-10.0716
▁soudní	-10.0716
▁Jenže	-10.0718
▁individuální	-10.0722
▁centra	-10.0723
ejte	-10.0725
▁třemi	-10.0725
▁In	-10.0725
▁Německo	-10.0727
▁pracovníci	-10.073
▁LN	-10.0739
▁předsedy	-10.0745
▁univerzity	-10.0749
▁čase	-10.0758
▁400	-10.0759
nici	-10.0761
šli	-10.0762
▁budoucnosti	-10.0767
▁Hor	-10.0776
▁německé	-10.0778
▁sportovní	-10.079
nic	-10.079
▁snížení	-10.0791
▁životě	-10.0795
▁Kdyby	-10.0795
řka	-10.0813
▁paní	-10.0819
▁hlas	-10.0824
jev	-10.0849
▁lidské	-10.0851
▁jím	-10.0856
▁nutno	-10.0857
▁znám	-10.086
▁AIDS	-10.0861
▁Británie	-10.0861
▁vzdělání	-10.0861
▁srpna	-10.0861
▁obyvatelstva	-10.0862
▁Zákon	-10.0863
ovaného	-10.0866
▁Možná	-10.0866
kládá	-10.0869
▁Vždyť	-10.0869
▁objevil	-10.0872
▁hlasů	-10.0882
cím	-10.0882
vnitř	-10.0884
▁důsledku	-10.0889
▁předchozí	-10.0903
▁mnohé	-10.0903
▁demokratické	-10.0904
▁miliony	-10.0904
▁složení	-10.091
▁zásadní	-10.0912
CE	-10.0931
ard	-10.0932
▁takových	-10.0938
mar	-10.0962
▁týká	-10.0965
ároveň	-10.0966
▁přijat	-10.0967
▁úřady	-10.0972
▁používá	-10.0978
▁místopředsed	-10.098
▁trval	-10.098
▁vaše	-10.0981
▁Dr	-10.099
▁státních	-10.0994
Ž	-10.0996
▁výkonu	-10.1007
▁očekávat	-10.1018
▁připravuje	-10.1018
▁silniční	-10.1018
▁buněk	-10.1018
▁tajemství	-10.1018
▁název	-10.1018
▁zaplatí	-10.1019
▁verze	-10.1019
▁hra	-10.1021
▁zdalek	-10.1023
▁kvalitu	-10.1029
▁uspořádání	-10.103
▁Mám	-10.1032
ště	-10.1034
▁poznání	-10.1036
▁piva	-10.1038
▁koupit	-10.104
▁příštím	-10.1046
▁dochází	-10.1049
▁35	-10.105
▁jejího	-10.1057
▁chceme	-10.106
▁průměru	-10.1061
▁závěr	-10.1068
▁počítačů	-10.1068
▁John	-10.1072
▁banka	-10.1079
▁projektu	-10.1081
▁zajímavé	-10.1085
▁aktivní	-10.109
▁jiným	-10.1093
▁povinnosti	-10.1098
▁premiéra	-10.1112
▁disku	-10.1115
▁150	-10.1125
▁technické	-10.1134
▁muži	-10.1135
▁obcí	-10.1135
ající	-10.1146
py	-10.1146
▁stroje	-10.1148
kovi	-10.1159
▁konec	-10.116
▁příklad	-10.117
▁Ku	-10.1173
▁Oba	-10.1174
▁devět	-10.1174
▁částí	-10.1176
▁občas	-10.1176
▁přírody	-10.1176
▁zřejmé	-10.1176
▁privatizaci	-10.1177
▁marek	-10.1177
▁článku	-10.1178
▁zůstat	-10.1178
▁Karel	-10.1178
vu	-10.1179
▁úvahu	-10.1181
▁okresní	-10.1182
EL	-10.1182
▁pozitivní	-10.1184
▁vyžaduje	-10.1187
▁jaderné	-10.1188
▁dokument	-10.1193
▁vánoce	-10.1194
ovaná	-10.1199
▁odborníků	-10.1202
▁agentury	-10.1204
▁mění	-10.1206
▁programové	-10.1209
der	-10.1212
▁sovětské	-10.1214
▁jaderný	-10.1225
jdou	-10.1231
fer	-10.1239
▁hlavních	-10.1246
▁programy	-10.1248
bud	-10.1254
▁relativn	-10.1271
▁příštího	-10.1273
▁ryb	-10.1274
nů	-10.1291
▁zákaz	-10.1307
▁vyjádřil	-10.1312
▁těžký	-10.1317
▁kop	-10.1328
▁vývoji	-10.1337
▁dotaz	-10.1338
▁jména	-10.1338
▁věnovat	-10.1338
▁historii	-10.1338
▁válce	-10.1338
▁Myslím	-10.1339
▁roste	-10.134
▁soutěž	-10.1342
▁republika	-10.1343
▁úkol	-10.1343
▁vaší	-10.1344
▁4.	-10.1352
▁politika	-10.1352
▁liší	-10.1358
▁Škoda	-10.1359
▁manažer	-10.1363
koliv	-10.1365
▁změně	-10.1369
▁hodnot	-10.137
ici	-10.1371
št	-10.1407
▁režimu	-10.1409
▁hotelu	-10.1412
ó	-10.1417
▁druhy	-10.1421
vad	-10.1426
▁Miroslav	-10.1427
budete	-10.1435
▁výraz	-10.1436
▁Společnost	-10.1437
▁úřadů	-10.1449
▁programů	-10.1457
▁tlačítko	-10.1463
▁budu	-10.1463
▁start	-10.1464
▁Da	-10.1468
vádí	-10.1473
▁družstev	-10.1477
gu	-10.1491
▁řeč	-10.1496
ěkteří	-10.1501
▁jednoduché	-10.1502
▁považován	-10.1502
▁zůstane	-10.1502
▁nabízejí	-10.1502
▁1995	-10.1502
▁Někd	-10.1502
▁tajemník	-10.1503
▁smlouva	-10.1508
▁Základní	-10.1509
▁Stál	-10.151
▁OS	-10.1512
▁3.	-10.1516
▁příslušné	-10.1517
jak	-10.1521
▁déle	-10.1522
cký	-10.1525
▁hvězd	-10.1535
ska	-10.1536
▁sta	-10.1538
▁doktor	-10.1538
her	-10.1539
▁hranici	-10.1541
▁abych	-10.1546
▁stranu	-10.1548
▁typů	-10.1548
▁rekord	-10.1554
▁potvrdil	-10.1555
ujících	-10.1556
▁bytu	-10.1556
▁samo	-10.1568
aj	-10.1577
▁veškeré	-10.1578
lin	-10.1578
pen	-10.1582
▁skutečné	-10.1584
▁normální	-10.1586
▁typy	-10.1601
EN	-10.1601
▁styl	-10.1602
▁zákazníků	-10.1605
▁lékařů	-10.1611
▁Hlavní	-10.1649
mír	-10.1652
▁spojen	-10.1659
▁úterý	-10.1668
▁Lidé	-10.1668
▁reprezentant	-10.1668
▁včas	-10.1668
▁Letos	-10.1669
▁někdejší	-10.1669
▁šance	-10.1669
▁lednu	-10.167
▁zvolen	-10.167
▁končí	-10.167
▁globální	-10.1671
▁23	-10.1672
▁jestliže	-10.1675
isté	-10.1675
▁ruce	-10.1677
fo	-10.1677
▁podnikatelské	-10.1687
▁dům	-10.1687
▁malá	-10.1688
▁96	-10.1691
ér	-10.1691
▁dělá	-10.1699
▁hledání	-10.17
jde	-10.1705
▁stejný	-10.1707
▁oblastí	-10.1708
▁profesionální	-10.1708
▁svému	-10.1709
▁získala	-10.1713
▁značné	-10.1716
▁dob	-10.1717
▁kapitálu	-10.1726
▁neví	-10.1728
▁postoj	-10.1735
kor	-10.1742
blíž	-10.1743
SE	-10.1749
tal	-10.1752
▁nena	-10.1755
▁problémem	-10.1757
▁molekul	-10.1767
men	-10.1783
▁existují	-10.1801
▁soutěži	-10.1806
▁tisk	-10.1816
▁My	-10.1816
LA	-10.182
šit	-10.1822
▁vznikla	-10.1823
ký	-10.1828
▁Pavl	-10.1837
▁Federální	-10.1838
▁používat	-10.1838
▁mzdy	-10.1838
▁verzi	-10.1838
▁potíže	-10.1838
▁najednou	-10.1838
▁členství	-10.1839
▁vystoupení	-10.1839
▁tabulky	-10.1839
▁třetím	-10.184
▁včerejší	-10.184
▁studie	-10.1841
▁Chce	-10.1842
▁ruský	-10.1842
▁nejdříve	-10.1842
/2	-10.1843
▁někter	-10.1843
▁shromáždění	-10.1843
▁zvlášť	-10.1846
▁Ž	-10.1846
▁nedá	-10.1847
▁odpověď	-10.1853
▁novým	-10.1856
▁vrátit	-10.1866
▁rozdělení	-10.1866
ive	-10.1872
▁akcí	-10.1875
ané	-10.1876
▁známé	-10.1877
▁časem	-10.1877
▁liber	-10.1884
▁sedmi	-10.1889
▁označení	-10.1891
ovu	-10.1891
▁MB	-10.1903
▁vztahů	-10.1904
▁zprávu	-10.1906
▁akcie	-10.1908
▁ode	-10.1912
▁daň	-10.1929
▁věd	-10.1931
▁počítači	-10.1936
▁centru	-10.1943
též	-10.1945
▁silné	-10.195
▁riziko	-10.1958
átor	-10.1962
▁set	-10.1965
▁motiv	-10.1974
▁počítat	-10.1983
▁dávno	-10.1984
nění	-10.1993
dostatečně	-10.1997
TA	-10.2003
▁soudí	-10.2003
▁hotel	-10.2008
▁prospěch	-10.201
▁Československa	-10.201
▁rozhodne	-10.201
▁hospodaření	-10.201
▁paragraf	-10.201
▁Nicméně	-10.201
▁zaměstnanci	-10.2011
▁výrobci	-10.2011
▁Františ	-10.2014
sad	-10.2016
un	-10.2019
▁spočívá	-10.202
▁odpadů	-10.2021
▁soukromých	-10.2026
▁pozici	-10.2027
▁Tři	-10.203
▁posledním	-10.2031
dla	-10.2031
▁odpovídající	-10.2034
dostala	-10.2037
▁nárok	-10.2037
ón	-10.2039
▁kon	-10.2041
▁12.	-10.2043
▁pohybu	-10.2061
▁Nová	-10.2064
▁Česko	-10.2071
▁britské	-10.2072
▁příkaz	-10.2075
▁díla	-10.2083
ler	-10.2083
▁Národní	-10.2087
▁schopnost	-10.209
nické	-10.2096
▁objem	-10.2107
▁poměru	-10.2109
▁týdne	-10.2112
▁podepsal	-10.2115
▁patnáct	-10.2121
dat	-10.2122
▁rozvoje	-10.2126
▁Sb	-10.2135
pustit	-10.2144
▁pojistné	-10.2147
▁očekává	-10.2148
▁získali	-10.216
ď	-10.2163
▁občanské	-10.2177
▁sklad	-10.2177
▁firmu	-10.2186
▁hrozí	-10.2186
▁odvětví	-10.2186
▁Tomáš	-10.2186
▁Pohár	-10.2186
▁hledat	-10.2186
▁horší	-10.2187
▁Dále	-10.2187
▁prvků	-10.2188
▁DNA	-10.2188
▁mozku	-10.2191
ST	-10.2192
▁mnozí	-10.2195
▁půdě	-10.2199
kat	-10.22
▁letošním	-10.2209
▁uzavření	-10.2209
▁vnější	-10.221
▁teploty	-10.2215
▁vědomí	-10.2221
▁zemědělské	-10.2224
▁Asi	-10.2229
▁poháru	-10.2231
▁Američan	-10.2243
▁metody	-10.2244
íte	-10.2244
▁představ	-10.225
▁ochranu	-10.2259
star	-10.2266
▁materiál	-10.2267
▁občan	-10.2275
▁tradiční	-10.2289
▁pás	-10.2293
▁budoucnost	-10.2295
▁účasti	-10.2298
▁dovoz	-10.2311
▁Velk	-10.2312
lem	-10.2317
▁Čí	-10.2324
▁slouží	-10.2336
▁snah	-10.2341
ismus	-10.2341
▁pre	-10.236
▁měnit	-10.236
ang	-10.236
▁Existuj	-10.2364
▁aplikací	-10.2364
▁natolik	-10.2364
▁upozornil	-10.2364
▁zdůraznil	-10.2364
▁Československo	-10.2364
▁rodiče	-10.2364
▁bankovní	-10.2364
▁podpory	-10.2364
▁tudíž	-10.2364
▁pořadatel	-10.2364
▁reprezentace	-10.2364
▁voda	-10.2368
▁výrobě	-10.2369
▁částečně	-10.2373
▁vytváření	-10.2373
▁PO	-10.2376
▁Zdá	-10.2377
▁žije	-10.2379
▁Poté	-10.2381
▁výroba	-10.2382
▁Dva	-10.2385
▁vlastností	-10.2386
▁centrální	-10.2388
▁zpráva	-10.2389
▁dílo	-10.2391
▁karty	-10.2393
nky	-10.2398
▁zavedení	-10.24
▁pohledu	-10.2418
ke	-10.242
kli	-10.2425
▁dalšími	-10.2435
tud	-10.2436
▁akt	-10.2441
▁záležitost	-10.2449
▁významné	-10.2451
▁jakou	-10.2454
▁režim	-10.2467
30	-10.2476
▁leží	-10.2477
tor	-10.2478
▁důvodu	-10.2481
ivé	-10.2483
▁zmíněné	-10.2487
▁0	-10.2488
▁odhad	-10.2489
▁dané	-10.2493
▁slovenské	-10.2496
inak	-10.2498
▁společný	-10.2501
▁přehled	-10.2508
▁obrazu	-10.2509
▁měst	-10.2511
▁stud	-10.2514
nec	-10.2522
▁Fr	-10.254
▁str	-10.2541
▁Bi	-10.2541
▁založen	-10.2542
▁neexistuje	-10.2546
▁paměti	-10.2546
▁připojištění	-10.2546
▁pomalu	-10.2546
▁kvalifikaci	-10.2546
▁česká	-10.2547
▁odpoledne	-10.2549
▁připomíná	-10.2551
▁nynější	-10.2552
▁oblastech	-10.2554
rak	-10.2556
▁svědčí	-10.256
▁protest	-10.2562
padá	-10.2564
▁vzájemné	-10.2565
▁Musí	-10.2565
▁materiálů	-10.2574
▁budov	-10.2576
▁Ar	-10.2584
▁odboru	-10.2587
ok	-10.2589
▁musím	-10.2592
▁dohodu	-10.2595
▁Slovenska	-10.2597
▁ztráty	-10.2598
▁brněnské	-10.2602
▁Me	-10.2607
net	-10.263
pětí	-10.2639
▁stroj	-10.2642
▁ko	-10.2644
bar	-10.2652
▁poloviny	-10.2653
▁loňském	-10.266
▁Ústav	-10.2662
▁zahájení	-10.2667
▁rádi	-10.2669
▁potřeba	-10.2673
▁technický	-10.2674
ováno	-10.2687
▁nejvíc	-10.2692
šť	-10.2694
ita	-10.27
▁přístroje	-10.2701
▁NA	-10.2702
▁mně	-10.2705
▁autorů	-10.2706
IN	-10.2708
kul	-10.271
ir	-10.2721
ený	-10.2722
▁Itálie	-10.2731
▁Ovšem	-10.2731
▁Program	-10.2731
▁stránce	-10.2731
▁minimální	-10.2731
▁rychlé	-10.2731
▁praxe	-10.2731
▁regionální	-10.2732
▁desítek	-10.2732
▁domov	-10.2732
▁vyjádření	-10.2734
▁nicméně	-10.2734
▁Ostravě	-10.2734
▁Ministr	-10.2736
▁vybrat	-10.2736
▁zdejší	-10.2737
▁neustále	-10.2738
▁ročník	-10.2743
bere	-10.2743
▁dodnes	-10.2746
držel	-10.275
est	-10.2754
▁určitou	-10.2768
▁soustavy	-10.2772
▁rozhovoru	-10.2773
ké	-10.2773
▁příprav	-10.2777
▁výhradn	-10.2779
▁standardní	-10.2786
▁osud	-10.2791
▁staré	-10.2797
cího	-10.2813
▁problému	-10.2814
▁italské	-10.2817
▁souhlas	-10.2823
▁Rad	-10.2823
▁takovém	-10.2826
▁ústavní	-10.2828
20	-10.2832
▁váš	-10.2834
▁vývozu	-10.2839
▁závodu	-10.285
▁důkaz	-10.2852
plat	-10.2855
▁host	-10.2857
lze	-10.2858
AN	-10.2869
ca	-10.287
▁řádu	-10.2873
▁planet	-10.288
▁omezen	-10.2881
mile	-10.2883
ává	-10.2891
▁úspor	-10.2891
▁Ra	-10.2896
▁nemohl	-10.2899
pol	-10.2915
IS	-10.2917
▁KSČM	-10.2918
▁profesor	-10.292
▁Všichni	-10.292
▁jednoduchý	-10.292
▁náměstek	-10.292
▁špatně	-10.292
▁Naopak	-10.292
▁Snad	-10.292
▁jediná	-10.292
▁odborníci	-10.292
▁zaměstnance	-10.2921
▁poptávky	-10.2921
▁poslance	-10.2921
▁okna	-10.2921
▁těsně	-10.2922
▁potřebují	-10.2923
▁Han	-10.2923
▁koncentrace	-10.2925
ložit	-10.2929
▁automaticky	-10.2929
▁měření	-10.2932
▁vychází	-10.2932
▁spokojen	-10.2936
▁produktů	-10.2938
tion	-10.2939
▁stovky	-10.2942
bral	-10.2944
▁Evropa	-10.2944
▁pán	-10.2947
▁filmu	-10.295
▁záležitostí	-10.2952
▁vzduchu	-10.2962
▁zrušení	-10.2962
▁graf	-10.2963
▁chod	-10.2966
▁ochran	-10.2969
▁rozsahu	-10.2979
▁přesvědčen	-10.2993
▁neměli	-10.3009
▁soupeře	-10.3015
▁hodnota	-10.3016
ger	-10.3017
▁činností	-10.3031
▁diváků	-10.3039
▁úspěchu	-10.3041
▁čisté	-10.3042
▁studentů	-10.3043
▁daní	-10.305
▁zákonem	-10.3058
tit	-10.3059
▁přátel	-10.3071
▁záměr	-10.3072
zu	-10.3073
▁Každ	-10.3078
jat	-10.308
▁NE	-10.308
▁oslav	-10.3083
ral	-10.3085
▁Ředitel	-10.3112
▁historie	-10.3112
▁bydlení	-10.3112
▁věnoval	-10.3112
▁pojetí	-10.3113
▁investovat	-10.3114
▁lidmi	-10.3115
▁krátce	-10.3116
bavit	-10.3116
leté	-10.3117
▁pohybuje	-10.3118
go	-10.3119
▁současný	-10.3125
▁dodávky	-10.3125
▁19.	-10.313
▁dostává	-10.3131
▁standard	-10.3134
▁voličů	-10.314
▁domě	-10.314
▁šampionátu	-10.3141
▁určit	-10.3143
dává	-10.3145
ění	-10.3148
▁pracovník	-10.3148
san	-10.3151
▁žena	-10.3156
▁návrhy	-10.3156
▁pobyt	-10.3159
▁pravé	-10.3159
▁provedení	-10.3161
▁muže	-10.3163
▁omezení	-10.3163
▁domácím	-10.3168
den	-10.3169
nek	-10.3169
▁vést	-10.3169
▁cesta	-10.3181
▁tlak	-10.3182
▁Te	-10.3183
▁obecní	-10.319
▁přenos	-10.3193
▁materiálu	-10.3199
▁různým	-10.3209
▁mladé	-10.322
brán	-10.3223
▁rychlosti	-10.3236
▁jinými	-10.3245
▁jedná	-10.3257
▁opak	-10.3258
▁nájemné	-10.326
▁Evropsk	-10.3277
▁nejdůležitější	-10.3281
▁oni	-10.3292
▁čtení	-10.3293
▁zpráv	-10.3304
▁úspěšné	-10.3308
▁Především	-10.3308
▁Richard	-10.3308
▁Spojené	-10.3308
▁elektrárny	-10.3308
▁minimálně	-10.3308
▁snížit	-10.3308
▁umožní	-10.3308
▁úsilí	-10.3308
▁zvýšit	-10.3308
▁míře	-10.3309
▁měsíčně	-10.3309
▁setkal	-10.3309
▁doslova	-10.3309
▁pravdu	-10.3309
▁Češi	-10.3309
▁snímky	-10.331
▁zákazník	-10.3311
▁celek	-10.3314
▁policistů	-10.3314
▁pozice	-10.3315
vé	-10.3319
▁myší	-10.3322
▁obecně	-10.3322
▁tvorbu	-10.3322
▁okolností	-10.3323
▁zobrazení	-10.3324
▁poškození	-10.3325
▁vybaven	-10.3325
▁sestav	-10.3327
▁cestě	-10.3333
▁mistrů	-10.3335
▁žádném	-10.3335
▁zvýšil	-10.3336
▁aut	-10.3339
▁žádná	-10.3358
stoupí	-10.3363
▁třídy	-10.3364
▁nemoci	-10.3372
▁festivalu	-10.3374
▁konstatoval	-10.3378
stal	-10.338
▁zvyk	-10.3381
▁povrchu	-10.3381
▁domácích	-10.3382
din	-10.339
▁vzniká	-10.3391
šti	-10.3391
▁čtenář	-10.3392
▁nechat	-10.3396
▁barev	-10.3397
▁Bar	-10.34
▁centrum	-10.34
něk	-10.3402
▁odpadní	-10.3403
▁sdělil	-10.3404
▁součást	-10.341
▁poklesu	-10.3418
▁hospodářsk	-10.3421
▁PowerPointu	-10.3424
ickou	-10.3426
▁správně	-10.3428
▁Ot	-10.3431
▁vrátil	-10.3432
▁známo	-10.3436
▁dějin	-10.3437
▁zjistil	-10.3439
▁nastoupil	-10.3441
▁tvář	-10.3442
▁boj	-10.3445
▁jediné	-10.3457
fe	-10.3459
▁skupinu	-10.346
▁cm	-10.3464
▁znát	-10.3468
▁map	-10.3468
▁FS	-10.3468
▁zahájil	-10.3469
▁prv	-10.3469
zv	-10.3471
EM	-10.3474
▁způsobil	-10.3476
▁17.	-10.3481
▁polovina	-10.3483
▁oprav	-10.3484
▁dítě	-10.3486
osud	-10.3492
směs	-10.3496
▁městské	-10.3499
▁hodinu	-10.3501
▁uvedený	-10.3503
▁mé	-10.3507
▁objev	-10.3507
▁Samozřejmě	-10.3508
▁divadla	-10.3508
▁pojišťovny	-10.3508
▁rozhodování	-10.3508
▁ČNR	-10.3508
▁širší	-10.3508
▁výskyt	-10.3508
▁půjde	-10.3508
▁nabídka	-10.3508
▁konkurenční	-10.351
▁myšlení	-10.3516
▁nezávislých	-10.352
▁armáda	-10.3525
▁sdělení	-10.3526
▁představení	-10.3528
▁Proti	-10.3529
KA	-10.3535
▁úvodní	-10.3536
▁PRO	-10.3536
hla	-10.3537
MA	-10.3538
▁nebyli	-10.354
▁export	-10.3544
▁půdy	-10.3544
▁výdaje	-10.3544
▁jaká	-10.3544
▁podnikatelé	-10.355
▁kom	-10.3554
ena	-10.3555
▁Tam	-10.3561
▁princip	-10.3562
▁vysokých	-10.3566
▁těles	-10.3568
▁úpravy	-10.3574
▁zákazníky	-10.3577
▁kal	-10.3579
▁chemické	-10.3581
▁špatné	-10.3586
▁pís	-10.3592
▁existence	-10.3594
▁prodejní	-10.3607
▁metod	-10.361
▁hře	-10.3613
▁vidí	-10.3614
▁celní	-10.3624
ckých	-10.3634
▁hlasování	-10.3635
▁organizací	-10.3637
álně	-10.3638
▁daňový	-10.3639
▁trend	-10.3644
ned	-10.3644
▁stejn	-10.3648
▁generál	-10.3659
▁Nebo	-10.3663
▁myslí	-10.3669
▁zimní	-10.3671
▁smrt	-10.3674
▁maximáln	-10.3675
šek	-10.3687
▁námi	-10.369
▁pořad	-10.3692
▁vědecký	-10.3697
▁Slovensko	-10.3699
ností	-10.37
půjč	-10.3707
▁Němci	-10.3712
▁církve	-10.3712
▁nízké	-10.3712
▁týdny	-10.3712
▁odmítá	-10.3712
▁zapotřebí	-10.3712
▁usnesení	-10.3712
▁přišla	-10.3713
▁Teď	-10.3713
▁privatizační	-10.3713
▁1988	-10.3713
▁létě	-10.3713
▁stál	-10.3715
▁postaven	-10.3715
▁StB	-10.3717
▁II	-10.3719
▁vůle	-10.3724
▁správné	-10.3729
▁zájmy	-10.3736
▁děje	-10.3737
▁Ru	-10.3737
▁vyz	-10.3741
▁Kde	-10.3742
▁porušení	-10.3744
▁důsledky	-10.3745
▁automobilů	-10.3746
▁původu	-10.3747
▁úprav	-10.3754
▁příslušný	-10.3754
▁rozporu	-10.3755
▁mluví	-10.3757
▁mladých	-10.3763
▁obce	-10.3765
▁představitelů	-10.3766
oč	-10.3769
▁Internetu	-10.3771
mého	-10.3775
▁nucen	-10.3776
▁německých	-10.3782
▁žijící	-10.3785
lík	-10.3788
▁německého	-10.3789
▁ústav	-10.3789
vil	-10.3789
▁lidského	-10.3791
▁představy	-10.3791
▁signál	-10.3795
▁velikosti	-10.3809
psal	-10.3814
▁bezpečnost	-10.3814
▁Ano	-10.3821
▁běžný	-10.3821
▁částka	-10.3821
ika	-10.3825
▁Sovětské	-10.3828
▁nástroj	-10.3831
▁metr	-10.3831
dra	-10.3832
▁výstav	-10.3839
čtí	-10.384
▁hran	-10.3849
▁pacientů	-10.3854
▁Du	-10.3857
▁9	-10.3858
▁kol	-10.3862
▁rozhodla	-10.3866
▁odbyt	-10.3867
vz	-10.3875
▁barevné	-10.3888
hodil	-10.3888
chází	-10.389
ani	-10.3891
▁střed	-10.3903
▁on	-10.3912
▁účastní	-10.3912
kupní	-10.3913
▁18.	-10.3915
▁střel	-10.3916
▁škola	-10.3917
▁Moskvě	-10.3921
▁Třetí	-10.3921
▁firmou	-10.3921
▁populace	-10.3921
▁třináct	-10.3921
▁vynikající	-10.3921
▁štěstí	-10.3921
▁Francii	-10.3921
▁ihned	-10.3921
▁technologií	-10.3921
▁mužstva	-10.3921
▁spotřební	-10.3921
vzdor	-10.3921
▁reprezentační	-10.3921
▁Pomuku	-10.3922
▁mluvit	-10.3922
ČSL	-10.3922
▁obětí	-10.3925
▁Milan	-10.3925
▁funkční	-10.3926
▁zvyšuje	-10.3927
par	-10.3929
▁dovolené	-10.393
▁Více	-10.3934
▁úmrtnosti	-10.3935
▁přichází	-10.3936
▁těla	-10.3936
▁nemocnici	-10.3938
▁Avšak	-10.3941
19	-10.3942
▁uveden	-10.3946
▁byty	-10.3947
▁zastoupení	-10.3948
▁povrch	-10.395
▁lesní	-10.3953
▁řeči	-10.3954
▁obavy	-10.3954
▁Předseda	-10.3962
▁km	-10.3967
▁zdroj	-10.3968
▁Jižní	-10.3974
elný	-10.3975
▁tr	-10.3975
▁Druhý	-10.3977
▁míč	-10.3985
▁tenis	-10.3996
▁čtvrt	-10.3998
▁všeho	-10.3998
▁vlastním	-10.4001
dané	-10.4003
▁molekuly	-10.4005
▁sv	-10.4007
▁ročníku	-10.402
▁pochyb	-10.4024
▁totem	-10.4029
▁20.	-10.4032
▁příležitost	-10.4033
▁kroky	-10.4049
▁studiu	-10.4054
▁potravin	-10.4056
ismu	-10.4056
▁představují	-10.4063
▁turnaj	-10.4066
▁určitý	-10.4071
▁Kar	-10.4075
nesou	-10.4077
▁školní	-10.4078
▁pražsk	-10.4078
tů	-10.4081
▁řídí	-10.4085
▁příštích	-10.4088
▁snaha	-10.409
▁oprávněn	-10.4092
▁hod	-10.4096
MU	-10.4097
óz	-10.4103
▁28	-10.4105
▁ochot	-10.4106
myšlen	-10.411
nské	-10.411
▁pražském	-10.411
▁největším	-10.4118
dávat	-10.4127
▁konkurenci	-10.4133
▁nakladatelství	-10.4133
▁negativní	-10.4133
▁sledovat	-10.4133
▁tehdejší	-10.4133
▁transformace	-10.4133
▁zlepšení	-10.4133
▁úmrtí	-10.4133
▁budoucnu	-10.4133
▁civilní	-10.4133
▁příjmu	-10.4133
▁zabránit	-10.4133
▁Slavie	-10.4133
▁souvisí	-10.4134
▁jedinou	-10.4134
▁Wales	-10.4134
▁operace	-10.4134
▁vyspělý	-10.4135
▁postupu	-10.4135
▁PCB	-10.4135
▁výsledkem	-10.4135
▁Inter	-10.4136
▁financování	-10.4136
vání	-10.4138
▁Vedle	-10.4138
▁rozhodnout	-10.4139
▁formou	-10.4143
▁Vláda	-10.4144
▁lékařské	-10.4144
klo	-10.4146
▁zaplatit	-10.4152
▁výhodné	-10.4155
▁celkový	-10.4156
▁charakter	-10.4157
▁tamní	-10.4161
▁americký	-10.4162
▁zbytečné	-10.4165
▁kód	-10.4166
▁osmdesát	-10.4167
▁prodat	-10.4173
CI	-10.4173
▁jazyk	-10.4182
▁povinností	-10.4182
▁přijal	-10.4184
▁nákladní	-10.4185
▁600	-10.4186
▁starých	-10.4187
▁partnery	-10.4188
cení	-10.4191
▁noviny	-10.4191
▁účely	-10.4191
▁produktu	-10.4193
▁letní	-10.4201
▁postižen	-10.4202
▁příležitosti	-10.4204
▁Obě	-10.4205
▁německý	-10.4215
▁Di	-10.4215
ast	-10.4215
▁vydal	-10.422
▁Soud	-10.4223
▁prodává	-10.4223
▁vys	-10.4234
▁pracovníky	-10.4244
▁napětí	-10.4248
před	-10.4248
▁obr	-10.425
▁velkým	-10.4262
▁zápasy	-10.4265
ovský	-10.4279
▁kapalin	-10.4281
▁neměla	-10.4283
▁záznamník	-10.4285
▁Pří	-10.4286
▁zápasu	-10.4288
▁zůstal	-10.429
▁projev	-10.4299
15	-10.4299
lep	-10.4302
fu	-10.4307
vést	-10.4308
,5	-10.4311
▁dostali	-10.4314
ouze	-10.4315
▁pachatel	-10.4317
▁formát	-10.4319
tivní	-10.4322
▁automobil	-10.4326
▁popis	-10.4334
▁placení	-10.4336
hrát	-10.4336
ární	-10.4337
pře	-10.4344
ěji	-10.4348
▁turnaje	-10.4348
▁někde	-10.4351
▁Ostatně	-10.4351
▁Sdružení	-10.4351
▁rekreační	-10.4351
▁krize	-10.4351
▁navrhl	-10.4351
▁červnu	-10.4351
▁sítí	-10.4351
▁místnosti	-10.4353
▁přiznání	-10.4354
▁Ačkoli	-10.4355
▁odpor	-10.4355
▁3000	-10.4356
▁jednotky	-10.4357
▁udržet	-10.4358
▁porovnání	-10.4359
▁obrázek	-10.4359
▁Be	-10.4361
zení	-10.4363
▁přináší	-10.4364
▁lesy	-10.437
rovná	-10.4371
▁začátkem	-10.4375
▁znalosti	-10.4375
▁účetní	-10.4377
▁jasně	-10.4378
ju	-10.4379
sloužil	-10.4379
▁prodávat	-10.4383
RO	-10.4384
▁koruny	-10.4384
padlo	-10.4387
▁strojů	-10.4387
▁Washingtonu	-10.4387
▁hodnotě	-10.4389
▁Moravy	-10.4393
▁dopis	-10.4398
píše	-10.4399
▁všemi	-10.4399
▁přední	-10.4405
▁výrok	-10.4405
▁spor	-10.4406
▁nemoc	-10.4407
▁kontrolu	-10.4409
▁dar	-10.4416
▁trenéra	-10.4419
ováním	-10.4421
▁použit	-10.4423
rat	-10.4425
▁věří	-10.4427
▁nemáme	-10.4428
▁32	-10.4442
▁operační	-10.4446
▁Ruska	-10.4449
▁odst	-10.4452
▁něž	-10.4454
▁partnerů	-10.446
▁sport	-10.4462
lat	-10.4463
kám	-10.4465
pak	-10.4468
▁33	-10.4473
▁umístěn	-10.4477
▁vedením	-10.4478
▁dojde	-10.4483
▁pravidla	-10.4486
▁di	-10.4491
▁čísle	-10.4491
▁pražského	-10.4496
▁modelů	-10.4497
rem	-10.4504
▁perspektiv	-10.4511
▁porazil	-10.4515
▁místy	-10.4517
▁býval	-10.452
▁záleží	-10.4522
▁případné	-10.4523
atel	-10.4524
řez	-10.4526
zemní	-10.4526
▁případu	-10.4532
▁Če	-10.4538
▁slovy	-10.4541
jedno	-10.456
KO	-10.4569
čku	-10.4572
▁Bratislavě	-10.4573
▁Návrh	-10.4573
▁kompromis	-10.4573
▁otázce	-10.4573
▁týdnů	-10.4573
▁uskuteční	-10.4573
▁nabídnout	-10.4573
▁péči	-10.4573
▁podpora	-10.4573
▁dovolit	-10.4573
▁server	-10.4573
▁okno	-10.4574
▁kategorie	-10.4574
▁nedostatek	-10.4574
▁nepodařilo	-10.4574
▁Man	-10.4575
▁Nakonec	-10.4575
▁Brno	-10.4579
▁připravit	-10.4579
▁prvky	-10.458
musela	-10.458
▁Hrad	-10.458
▁tajné	-10.4581
▁přiznal	-10.4581
▁zjistit	-10.4584
▁návštěvě	-10.4584
▁stará	-10.4585
▁Podnik	-10.4589
▁jaterní	-10.4591
▁UK	-10.4595
▁gól	-10.4597
▁buňky	-10.4598
▁hledá	-10.4598
▁vrchol	-10.4598
▁malou	-10.4599
▁domácnosti	-10.4602
▁osobně	-10.4605
▁provést	-10.4606
utí	-10.4606
▁spojené	-10.4612
▁investor	-10.4614
▁získání	-10.4614
▁nezaměstnanosti	-10.4618
▁stanici	-10.4619
▁druhým	-10.4619
▁Izrael	-10.4628
▁vojenský	-10.4635
▁Evropský	-10.4639
TO	-10.4644
klep	-10.4644
▁kapitál	-10.4646
sty	-10.4657
▁partnera	-10.466
▁adres	-10.4672
eprve	-10.4677
pana	-10.4679
boj	-10.4681
zní	-10.4684
▁pracoval	-10.4696
▁režisér	-10.4696
▁jedenáct	-10.4698
▁Pe	-10.4701
▁filmů	-10.4713
nové	-10.4714
▁manžel	-10.4718
▁led	-10.4718
▁trénink	-10.4719
▁přicházejí	-10.4722
LI	-10.4729
▁prohrál	-10.473
▁případy	-10.4731
onu	-10.4736
pel	-10.4743
▁začalo	-10.4744
tak	-10.4744
▁Dom	-10.4747
▁odpověděl	-10.4748
▁dřív	-10.475
▁ano	-10.4752
▁vstupu	-10.4754
▁umožnil	-10.4763
▁státním	-10.4765
RU	-10.4766
icky	-10.4777
▁změní	-10.4779
čili	-10.4784
▁prodal	-10.4786
▁jezdí	-10.4787
▁západních	-10.4787
▁cest	-10.4792
▁oficiálně	-10.4798
▁úspěšně	-10.4799
▁video	-10.4799
▁Slunce	-10.48
▁existenci	-10.48
▁funguje	-10.48
▁ostatně	-10.48
▁otázek	-10.48
▁pojišťovna	-10.48
▁rozhodovat	-10.48
▁stáří	-10.48
▁letadla	-10.48
▁dlouhodobé	-10.48
▁žádá	-10.4801
▁molekulární	-10.4801
▁operaci	-10.4801
▁vystudoval	-10.4802
▁aktuální	-10.4802
▁přání	-10.4802
éměř	-10.4803
▁vytvoří	-10.4803
▁SRN	-10.4803
▁vyšetřování	-10.4803
▁Místo	-10.4804
▁formě	-10.4808
▁Fa	-10.481
▁fakultě	-10.4811
▁vypadá	-10.4811
pek	-10.4811
▁Brna	-10.4814
▁sezóně	-10.4815
▁par	-10.4818
▁hrál	-10.4821
▁fakulty	-10.4825
ale	-10.4826
▁Rus	-10.4827
▁vyberte	-10.4827
▁příjem	-10.4829
▁návštěvníků	-10.4829
▁zjištění	-10.483
vali	-10.4831
▁dobrou	-10.4833
dařilo	-10.4834
▁stává	-10.4839
▁komory	-10.4841
▁otevření	-10.4841
▁cenný	-10.4842
▁struktury	-10.4843
lib	-10.4843
▁The	-10.4844
▁modelu	-10.4844
▁členem	-10.4845
slav	-10.4845
OS	-10.4846
▁ministrů	-10.4851
muž	-10.4852
▁cíle	-10.4858
▁víkendu	-10.4859
▁fotbal	-10.4863
▁čeho	-10.4863
▁rozdíly	-10.4866
▁nájemného	-10.4867
▁postižené	-10.487
▁východ	-10.4875
por	-10.4876
jíž	-10.4879
dit	-10.4881
▁soupeř	-10.4882
▁hotov	-10.4883
NÁ	-10.4884
▁svá	-10.4884
▁dokázal	-10.4886
▁americk	-10.4892
▁obyvatelé	-10.4893
▁pobytu	-10.4895
▁stejném	-10.4895
▁začaly	-10.4896
ide	-10.4897
ených	-10.4898
vir	-10.4904
rou	-10.4907
▁On	-10.4912
▁docela	-10.4917
AD	-10.492
▁změnil	-10.4925
▁snížil	-10.4929
▁dohoda	-10.4932
áři	-10.4932
▁církev	-10.4941
▁tvar	-10.4948
▁brankář	-10.4948
▁prodeji	-10.4956
ros	-10.4958
▁účastníků	-10.4964
▁klubů	-10.4967
▁knih	-10.4967
▁odpovědnost	-10.4968
▁takovým	-10.4968
▁zůstávají	-10.4981
ren	-10.4983
▁obsahu	-10.4994
měr	-10.4994
pustil	-10.4995
▁kandidát	-10.501
▁vyh	-10.5012
▁podal	-10.5014
▁nehod	-10.502
nce	-10.5024
▁Anglie	-10.5033
▁Nejvyšší	-10.5033
▁institucí	-10.5033
▁software	-10.5033
▁nestačí	-10.5033
▁přispěl	-10.5033
▁příspěvek	-10.5033
▁Polici	-10.5033
▁vlastnictví	-10.5033
▁přinejmenším	-10.5033
▁přijít	-10.5033
▁dráhy	-10.5034
▁mladší	-10.5034
▁Stačí	-10.5034
▁poruch	-10.5034
▁vědců	-10.5035
▁vrátí	-10.5035
▁organizační	-10.5036
▁poznatky	-10.5036
▁policisté	-10.5037
nes	-10.5038
▁zabezpečení	-10.5038
padl	-10.504
▁Bosně	-10.504
▁vozů	-10.5042
▁levnější	-10.5042
▁Králové	-10.5043
Sc	-10.5044
▁přijmout	-10.5044
▁Nez	-10.5044
▁uznání	-10.5046
▁tvorby	-10.5047
nci	-10.5047
▁předpisů	-10.5052
▁prostory	-10.5053
▁hodinách	-10.5057
▁podobu	-10.5059
▁pra	-10.5063
▁nejlepším	-10.5064
▁ideální	-10.5064
▁předsedou	-10.5065
▁komplexní	-10.5065
▁fyziky	-10.5067
▁Olomouci	-10.5072
▁významný	-10.5073
▁George	-10.5073
▁obrazovky	-10.5074
11	-10.5077
▁postih	-10.5079
▁Jin	-10.5082
▁vytváří	-10.5082
▁českou	-10.5086
▁léky	-10.509
▁ekonomických	-10.509
▁starosti	-10.5094
▁plochy	-10.51
▁čtvrté	-10.5103
▁denní	-10.5106
▁vojensk	-10.5108
▁nejčastěji	-10.5112
▁nemusel	-10.5114
▁pochopitelně	-10.5118
▁pacienta	-10.5126
▁syn	-10.5126
▁jiném	-10.5132
▁zápasů	-10.5133
▁servis	-10.5134
▁připravil	-10.5136
eny	-10.5145
▁podzim	-10.5146
▁zemské	-10.5147
DE	-10.5148
▁oči	-10.5148
ODS	-10.515
▁kancelář	-10.515
▁uměl	-10.5156
mer	-10.5156
kům	-10.5156
▁pu	-10.5158
▁ztrát	-10.516
▁zkušenost	-10.5165
▁vz	-10.5166
▁auta	-10.5166
▁vyp	-10.5168
počítá	-10.5168
hi	-10.5168
▁nápad	-10.5169
▁zásob	-10.5172
▁zaměstnavatel	-10.5175
čil	-10.518
▁ploch	-10.5185
ton	-10.5186
▁chodí	-10.5187
▁festival	-10.5191
▁sekund	-10.5192
▁rodinné	-10.5196
nedávn	-10.5196
ovské	-10.5196
▁ministrem	-10.5198
▁16.	-10.5204
zem	-10.5207
▁rozhodčí	-10.5213
LE	-10.5214
▁slib	-10.5218
puštěn	-10.5228
▁jižní	-10.5234
▁náhradní	-10.5238
stavit	-10.524
▁Or	-10.5252
ier	-10.5254
lid	-10.5254
▁27	-10.5254
▁Nad	-10.5255
ij	-10.5264
▁Anglii	-10.5271
▁Major	-10.5271
▁Microsoft	-10.5271
▁NHL	-10.5271
▁asociace	-10.5271
▁duchovní	-10.5271
▁jménem	-10.5271
▁medaile	-10.5271
▁mužstvo	-10.5271
▁navzájem	-10.5271
▁odpovědi	-10.5271
▁uzavřít	-10.5271
▁veřejně	-10.5271
▁využívat	-10.5271
▁článek	-10.5271
▁chvíle	-10.5271
▁dětem	-10.5271
▁Jaromír	-10.5271
▁ČEZ	-10.5271
▁požadavek	-10.5271
▁zástupců	-10.5271
▁okolní	-10.5272
▁Chtěl	-10.5272
▁sponzor	-10.5273
▁zabývat	-10.5277
▁významu	-10.5278
▁výpočetní	-10.5279
AR	-10.5279
▁třikrát	-10.528
▁pohyb	-10.5281
▁ulice	-10.5286
▁záznam	-10.5291
▁hmot	-10.5292
▁výstavby	-10.5293
hlav	-10.5301
▁oper	-10.5302
▁Dvě	-10.5303
TE	-10.5305
▁týkající	-10.531
šl	-10.5317
▁umístění	-10.5317
▁osobnosti	-10.5325
íme	-10.533
▁Takové	-10.5331
▁používání	-10.5331
▁praktické	-10.5332
▁Bra	-10.5341
▁trhy	-10.5344
▁Profitu	-10.5344
eb	-10.5345
▁nese	-10.5346
▁Jedin	-10.5347
▁stanovení	-10.5352
▁francouzské	-10.5352
▁PC	-10.5354
▁45	-10.5354
řídil	-10.5356
▁zato	-10.5356
▁fondů	-10.5357
▁obsahující	-10.5362
▁mistra	-10.5363
▁nezbytn	-10.5369
kyně	-10.5372
▁kapitol	-10.5372
▁samostatné	-10.5373
▁kruh	-10.5379
▁mnohd	-10.5381
▁milion	-10.5381
yl	-10.5381
▁250	-10.5381
▁směr	-10.5383
▁čekají	-10.54
ír	-10.5401
▁obratu	-10.5412
▁(1	-10.5413
▁minulém	-10.5413
▁žádost	-10.5413
▁obchodním	-10.5414
▁120	-10.5416
slovensk	-10.5424
ruší	-10.5425
▁prezidentem	-10.543
▁široké	-10.5431
▁ekologické	-10.5432
▁průzkum	-10.5435
▁ztratil	-10.5437
IT	-10.545
▁počítačové	-10.5452
šil	-10.5452
▁skončila	-10.5453
▁dvanácti	-10.5458
▁způsobu	-10.5462
▁Bu	-10.5466
▁útok	-10.5471
▁rozdělen	-10.5476
▁vyhrála	-10.5481
▁organismu	-10.5486
ete	-10.5489
86	-10.5489
80	-10.5489
ckého	-10.5491
▁plný	-10.5492
kol	-10.5495
▁Stát	-10.5495
▁nechtěl	-10.5502
▁ačkoli	-10.5503
▁kolegy	-10.5506
věřit	-10.5507
▁dlouhý	-10.5515
▁ministři	-10.5515
▁považuji	-10.5515
▁souladu	-10.5515
▁vysoká	-10.5515
▁organizaci	-10.5515
▁obrátil	-10.5515
▁Michal	-10.5515
▁chtít	-10.5515
▁generace	-10.5515
▁nejspíš	-10.5516
▁studia	-10.5516
▁územní	-10.5516
▁vyplatí	-10.552
▁ukazují	-10.552
▁neznamená	-10.5521
▁hor	-10.5521
▁volně	-10.5521
kryt	-10.5521
▁jednotliv	-10.5524
▁lesů	-10.5525
▁aktivit	-10.5525
skočil	-10.5525
pád	-10.5526
▁styk	-10.5526
bel	-10.5527
▁Polska	-10.5529
▁vystoupil	-10.5529
▁související	-10.5531
▁noční	-10.5535
volal	-10.5538
▁nástrojů	-10.5539
▁silně	-10.5542
▁odborných	-10.5544
▁časopisu	-10.5547
▁Karlovy	-10.5549
▁kdysi	-10.555
▁zajištění	-10.5554
▁občané	-10.5556
age	-10.556
▁možných	-10.5565
▁průmyslový	-10.5568
▁panelu	-10.5569
▁ukázal	-10.5573
60	-10.5573
▁příčin	-10.5573
▁nemělo	-10.5575
▁Sv	-10.5575
▁nedávné	-10.5576
▁skončilo	-10.558
▁bran	-10.5581
rit	-10.5587
ór	-10.5587
▁Obchodní	-10.5589
▁kurs	-10.5592
▁Plzeň	-10.5592
▁ústavy	-10.5595
▁opravy	-10.5597
▁sekundu	-10.5597
▁Fo	-10.5598
▁Poslaneck	-10.56
▁ochrany	-10.5602
▁předložil	-10.5606
▁anti	-10.5609
▁Slovenské	-10.561
▁přenosu	-10.5612
ony	-10.5617
▁schopnosti	-10.5618
kovou	-10.5619
▁sever	-10.5621
▁dostalo	-10.5623
ření	-10.5637
▁Americk	-10.5639
▁zákazníka	-10.5643
▁třiceti	-10.5644
▁politický	-10.5646
▁stanoví	-10.5654
▁RN	-10.5655
▁přechodu	-10.5656
nský	-10.5657
▁SE	-10.566
▁Ad	-10.5662
▁titulu	-10.5662
▁dobou	-10.5668
▁univerzit	-10.5668
▁Novák	-10.5673
▁10.	-10.5675
ine	-10.5675
▁turistů	-10.5682
▁třídě	-10.5688
▁desetiletí	-10.569
▁zápase	-10.5696
▁podpis	-10.5696
▁forma	-10.5698
▁projekty	-10.5698
▁hodnotí	-10.5703
▁politického	-10.571
▁výnos	-10.5711
▁reálné	-10.5714
▁kap	-10.5723
▁čemu	-10.5729
▁novém	-10.573
volání	-10.5734
▁pojištěn	-10.5735
▁míní	-10.5736
▁regionu	-10.5743
▁průměrn	-10.5745
mark	-10.5745
▁pracují	-10.5746
koupit	-10.5747
mot	-10.5747
pt	-10.5756
▁kvalita	-10.5757
▁porad	-10.5759
▁atmosféře	-10.5765
▁delegace	-10.5765
▁francouzský	-10.5765
▁inflace	-10.5765
▁přírodě	-10.5765
▁službu	-10.5765
▁všude	-10.5765
▁nejnovější	-10.5765
▁penzijní	-10.5765
▁považují	-10.5765
▁politická	-10.5765
▁květnu	-10.5765
▁stanovisko	-10.5766
▁vysvětlení	-10.5766
▁brát	-10.5766
▁poptávka	-10.5766
▁vrací	-10.5767
▁mínění	-10.5767
▁řeší	-10.5768
▁stupně	-10.5768
▁vysvětlit	-10.577
▁dokonale	-10.577
▁Nejvíce	-10.5774
▁přeprav	-10.5777
▁dřívější	-10.5777
72	-10.5777
▁umí	-10.5778
▁představit	-10.5778
▁vysvětlil	-10.5778
▁prosadit	-10.5781
▁Chceme	-10.5782
▁podaří	-10.5783
▁dosahuje	-10.5784
▁Gorbačov	-10.5787
▁znaků	-10.5789
▁léků	-10.5792
▁myši	-10.5793
▁jimi	-10.5796
▁uživatel	-10.5797
▁zkušeností	-10.5798
▁slovenských	-10.58
▁ukázalo	-10.5802
▁přípravě	-10.5803
ovněž	-10.5804
bili	-10.5805
▁kultur	-10.5806
nést	-10.5812
▁orgánů	-10.5812
▁zbytek	-10.5814
▁role	-10.582
▁proud	-10.582
▁odchodu	-10.582
▁Čs	-10.5821
ického	-10.5823
▁nesouhlasí	-10.5824
▁trvale	-10.5825
▁všechn	-10.5834
▁bytové	-10.5838
▁kanceláří	-10.5839
lů	-10.5842
▁dají	-10.5843
▁vysoký	-10.5845
▁místem	-10.5847
▁závodě	-10.5847
▁obvod	-10.5848
▁Rusk	-10.5849
▁novin	-10.5853
ňuje	-10.5861
▁materiály	-10.5861
▁mimořádný	-10.5864
▁společenské	-10.5864
▁800	-10.5885
▁vodou	-10.5885
▁vydává	-10.5887
nského	-10.5888
▁nebezpečné	-10.5897
▁koupil	-10.5901
▁vlastnost	-10.5902
pravděpodobností	-10.5904
▁San	-10.5907
▁domnívá	-10.591
▁mechanik	-10.5911
▁deník	-10.5912
wa	-10.5915
▁grafické	-10.5917
▁výstava	-10.5919
▁pevné	-10.5924
▁cenou	-10.5926
▁čin	-10.5926
náší	-10.593
▁kniha	-10.5931
▁dospěl	-10.5936
▁klid	-10.5939
▁aktiv	-10.594
▁výklad	-10.5941
▁rozsah	-10.5942
▁Ostrava	-10.5944
▁obor	-10.5946
▁dojem	-10.5949
▁zúčastnil	-10.595
▁představu	-10.5954
▁Představ	-10.5954
▁pozor	-10.5956
▁názorů	-10.5972
▁čtenáře	-10.5977
orku	-10.5977
▁přestup	-10.5989
▁Mal	-10.5992
▁osobních	-10.5994
▁zbraně	-10.6001
▁vzal	-10.6004
AM	-10.6004
▁společensk	-10.6013
▁CO	-10.6014
▁pacient	-10.6017
kar	-10.6018
▁vážně	-10.602
▁Výsledk	-10.6021
▁atraktivní	-10.6021
▁dlouhá	-10.6021
▁rozhraní	-10.6021
▁telekomunikační	-10.6021
▁tiskárny	-10.6021
▁chráněn	-10.6021
▁koncepce	-10.6021
▁používají	-10.6021
▁nabídce	-10.6021
▁naděje	-10.6021
▁závisí	-10.6021
▁učinil	-10.6022
▁blízké	-10.6022
▁muzea	-10.6022
▁rozšířit	-10.6022
▁žebříčku	-10.6022
váží	-10.6022
▁unii	-10.6023
▁vysvětluje	-10.6023
▁předpokládat	-10.6025
▁vysoce	-10.6026
▁naději	-10.6026
▁Kor	-10.6027
▁milióny	-10.6028
▁externí	-10.6031
▁můj	-10.6031
▁složky	-10.6032
▁umožňující	-10.6036
out	-10.6037
▁způsoby	-10.6037
▁uvést	-10.6038
▁barvy	-10.604
▁dvojice	-10.6042
▁čtyřech	-10.6044
▁Sparty	-10.6044
▁Nikdo	-10.6046
▁zaměstnavatele	-10.6049
pálen	-10.6051
▁Autor	-10.6052
projevuje	-10.6053
▁návštěvu	-10.6058
▁fotbalistů	-10.6061
▁totéž	-10.6065
▁nemůžeme	-10.6074
▁podnikové	-10.6077
▁akciové	-10.6079
▁agentura	-10.6091
▁test	-10.6094
ona	-10.6094
▁čtyřmi	-10.6095
▁podání	-10.6097
▁kurz	-10.6106
▁budovy	-10.6117
▁studium	-10.6119
vítá	-10.6122
▁nároky	-10.6123
▁devíti	-10.6132
▁mini	-10.6137
taj	-10.6137
▁vědci	-10.6142
▁Kolik	-10.6147
něte	-10.6147
jedou	-10.6148
NA	-10.6148
▁návrat	-10.6156
▁nebe	-10.6156
ug	-10.6156
hnal	-10.6162
▁úst	-10.6166
▁JE	-10.6175
zb	-10.6179
▁stranou	-10.6182
▁nabídl	-10.6183
▁mysli	-10.6184
▁podstatné	-10.6184
▁listu	-10.6185
ány	-10.6186
▁proměn	-10.6186
▁světového	-10.6194
▁finančn	-10.6197
▁teplota	-10.6198
▁vln	-10.6207
▁Profit	-10.6207
jem	-10.6209
▁chorob	-10.6216
▁filmový	-10.6217
LO	-10.6223
ejména	-10.6225
▁Tad	-10.6227
▁Cena	-10.6228
▁partner	-10.6233
▁neznámý	-10.6237
50	-10.6242
ES	-10.6243
▁past	-10.6246
▁větším	-10.6254
gel	-10.6256
▁systémem	-10.6256
▁Vol	-10.6258
▁spisovatel	-10.6264
bývá	-10.6265
▁trestný	-10.6271
áš	-10.6272
▁jakékoli	-10.6274
bytek	-10.6279
han	-10.6284
▁Itálii	-10.6284
▁Miloslav	-10.6284
▁obligace	-10.6284
▁snižování	-10.6284
▁úrovní	-10.6284
▁menšin	-10.6284
▁odsouzen	-10.6284
▁povinen	-10.6284
▁podívat	-10.6284
▁Jugoslávii	-10.6285
▁najevo	-10.6285
▁říct	-10.6285
▁Peter	-10.6286
▁požaduje	-10.6288
▁vybírat	-10.6289
▁skončení	-10.6291
▁vojáků	-10.6291
▁fax	-10.6291
▁chemický	-10.6291
▁Ši	-10.6292
▁peněžní	-10.6293
čné	-10.6298
▁bodu	-10.6298
▁pivo	-10.6299
▁hlavu	-10.63
AL	-10.6301
▁předmětem	-10.6301
▁divadelní	-10.6301
▁pokyn	-10.6302
ickým	-10.6304
▁kusů	-10.6305
▁Počet	-10.6306
▁Moravě	-10.6306
▁celku	-10.6307
▁cyklus	-10.631
▁povolání	-10.6316
▁odvolání	-10.6317
▁Nebyl	-10.6317
▁Francouz	-10.6319
▁tříd	-10.632
▁japonské	-10.6321
▁patřil	-10.6324
▁nesmírn	-10.6328
▁pouhý	-10.6329
▁limit	-10.633
▁ona	-10.6331
pul	-10.6332
▁podřízen	-10.6332
▁následn	-10.6335
▁kartu	-10.6335
▁úvěrů	-10.6339
▁dílem	-10.6345
klád	-10.6346
▁některým	-10.6346
▁důvodem	-10.6348
▁posun	-10.635
▁dopad	-10.6351
▁účel	-10.6351
▁národů	-10.6353
▁vlny	-10.6354
▁složen	-10.6366
▁škole	-10.6368
▁výstavy	-10.6371
▁26	-10.6372
▁přípravy	-10.638
▁zločin	-10.6381
▁starosta	-10.6385
cc	-10.6387
▁Den	-10.6391
▁fotbalový	-10.6391
▁jakých	-10.6396
ZE	-10.6397
▁Dalším	-10.6397
▁Ruské	-10.6402
▁dostih	-10.6403
▁Znamen	-10.6405
▁ekonom	-10.6405
žení	-10.6407
áci	-10.641
▁českým	-10.6414
▁upraven	-10.6417
▁hrají	-10.6417
og	-10.6417
▁otevřené	-10.642
▁Ri	-10.6421
ráží	-10.6424
pad	-10.6424
aly	-10.6428
při	-10.6436
níků	-10.644
▁horní	-10.6447
▁Ca	-10.6454
▁Západ	-10.6455
potřeb	-10.6455
▁nástup	-10.6462
ista	-10.6463
▁nákupu	-10.6469
▁tvrdé	-10.647
▁pražský	-10.6473
▁úraz	-10.6475
▁Bush	-10.6481
RE	-10.6483
▁informoval	-10.6484
▁Lékař	-10.6484
▁profesionál	-10.649
▁stanov	-10.6492
▁55	-10.6494
▁kus	-10.6501
▁hrad	-10.6501
▁volný	-10.6508
DA	-10.6508
▁jistý	-10.6511
▁mistr	-10.6513
▁schopna	-10.6517
▁průběh	-10.6519
▁zajištěn	-10.6528
▁rovin	-10.6528
▁fyzické	-10.6532
▁jasno	-10.6534
▁Např	-10.6535
▁přímé	-10.6537
▁vlád	-10.6543
rok	-10.6544
nozí	-10.6549
▁Řad	-10.6554
▁Univerzit	-10.6555
▁existovat	-10.6555
▁informaci	-10.6555
▁obtížné	-10.6555
▁prezentací	-10.6555
▁svědomí	-10.6555
▁vyjádřit	-10.6555
▁vytvářet	-10.6555
▁ztrácí	-10.6555
▁února	-10.6555
▁bariér	-10.6555
▁ubytování	-10.6555
▁optimální	-10.6555
▁vybraný	-10.6556
▁zítra	-10.6556
▁továrn	-10.6557
▁Bójové	-10.6557
▁zdánlivě	-10.6558
▁hrách	-10.6558
bíd	-10.6559
▁rychleji	-10.6561
▁symbol	-10.6561
▁právník	-10.6561
▁starost	-10.6561
▁jednotek	-10.6562
▁tradice	-10.6562
▁československé	-10.6563
▁kupující	-10.6564
▁podvod	-10.6567
▁závodech	-10.6568
▁hlavy	-10.6569
▁nadace	-10.6571
▁schválil	-10.6572
▁správu	-10.6573
▁politiků	-10.6573
▁střediska	-10.6573
▁ústřední	-10.6576
▁objevuje	-10.6577
▁obvinění	-10.6577
▁správný	-10.658
▁dohodě	-10.658
▁klíč	-10.6581
▁boje	-10.6581
▁brání	-10.6581
▁dostávají	-10.6582
▁kontroly	-10.6588
▁vesnici	-10.6589
TI	-10.6589
▁narodil	-10.6591
▁předpisy	-10.6591
ble	-10.6592
ins	-10.6594
▁kalů	-10.66
▁slavnostní	-10.6604
▁Sun	-10.6604
▁zaveden	-10.6609
▁rizika	-10.6613
▁souborů	-10.6617
razí	-10.6618
▁vzdálenosti	-10.6618
▁Svoboda	-10.6619
▁Vlastní	-10.6621
▁sále	-10.6622
▁Hra	-10.6622
▁soutěží	-10.6625
běhl	-10.6632
▁návratu	-10.6638
▁Změn	-10.6641
▁udělá	-10.6647
▁vysloven	-10.665
▁sobotní	-10.665
nová	-10.665
▁Fin	-10.6651
▁vedou	-10.6656
▁signálu	-10.666
▁spotřebitel	-10.6666
▁částic	-10.6673
▁spis	-10.668
kin	-10.6681
čních	-10.6681
▁vznikají	-10.6687
▁pomohl	-10.6692
MO	-10.6696
áme	-10.6697
▁ostatními	-10.6697
kládají	-10.6697
počátku	-10.6699
▁Ber	-10.6699
▁důvody	-10.6706
▁drží	-10.6708
land	-10.671
▁závodů	-10.6715
▁Lib	-10.6719
▁investic	-10.6719
případě	-10.6722
▁stop	-10.6723
▁rezerv	-10.6723
▁předsed	-10.6726
▁jednot	-10.6737
dní	-10.6738
ujte	-10.6741
najdete	-10.6743
ologie	-10.6746
▁Internet	-10.6753
věřil	-10.6755
▁dění	-10.6758
▁čtyřicet	-10.6763
▁určený	-10.6763
▁chud	-10.6764
▁komunikace	-10.6768
▁pas	-10.6769
▁hlad	-10.6771
měř	-10.6774
iletý	-10.6784
▁mírové	-10.6786
▁černé	-10.679
▁dětské	-10.6791
▁určené	-10.6792
držení	-10.6798
▁státě	-10.6808
▁ozbrojený	-10.681
▁prav	-10.681
▁bloku	-10.6816
▁díl	-10.6822
▁Ital	-10.6824
▁Mi	-10.6825
pust	-10.6828
tav	-10.6828
▁mohu	-10.6829
▁demokracii	-10.6832
▁fanoušků	-10.6832
▁jednoduše	-10.6832
▁navštívil	-10.6832
▁nepochybn	-10.6832
▁nádraží	-10.6832
▁obligací	-10.6832
▁otázkou	-10.6832
▁ovzduší	-10.6832
▁pracoviště	-10.6832
▁vyrábí	-10.6832
▁častěji	-10.6832
▁železniční	-10.6832
▁Pracovní	-10.6833
▁Tehd	-10.6833
▁odstranit	-10.6833
▁obnoven	-10.6833
▁modul	-10.6833
▁knize	-10.6833
▁čísel	-10.6833
▁věnován	-10.6833
▁záření	-10.6833
▁lustrační	-10.6833
▁vážné	-10.6833
▁dohodnout	-10.6833
▁říkal	-10.6833
▁blízkosti	-10.6833
▁přínos	-10.6834
▁písmen	-10.6834
▁chyběl	-10.6836
▁oblečení	-10.6836
▁pobřeží	-10.6837
▁několikrát	-10.6839
▁komunistické	-10.6839
▁kvalitě	-10.684
▁uprostřed	-10.684
▁opoziční	-10.684
▁vyvolal	-10.6842
poloviční	-10.6844
▁dopravě	-10.6844
▁ovládání	-10.6845
▁lov	-10.6846
▁průmysl	-10.6848
▁pomůže	-10.6849
▁žít	-10.6849
▁argument	-10.6851
▁klimatický	-10.6854
▁sportu	-10.6854
vala	-10.6855
▁připadá	-10.6856
▁nejlepších	-10.6856
▁novináři	-10.6856
násob	-10.6857
▁příchod	-10.6863
nc	-10.6865
bil	-10.6866
▁cítí	-10.6871
▁tajný	-10.6873
▁noc	-10.6874
▁rad	-10.6874
▁velkého	-10.6874
▁znaky	-10.6877
▁Taková	-10.6877
▁Pražské	-10.6877
▁večerní	-10.6882
▁výpravy	-10.6885
▁obrazů	-10.689
▁působit	-10.6897
▁Rakousku	-10.69
▁viděli	-10.69
▁mezinárodních	-10.6901
▁klade	-10.6903
▁dopravu	-10.6917
▁rodinný	-10.6919
vel	-10.6928
▁Rusku	-10.693
▁souhlasí	-10.693
▁sloup	-10.694
▁společn	-10.6945
▁testu	-10.6948
▁Kon	-10.695
▁určitých	-10.6951
▁udělal	-10.6951
▁metoda	-10.6955
40	-10.6958
▁úvěry	-10.696
myslet	-10.6967
▁zásah	-10.6968
▁strach	-10.6973
▁měsíci	-10.6975
25	-10.698
▁hru	-10.6983
▁událost	-10.6997
ola	-10.7
▁samostatný	-10.7004
▁fondy	-10.701
ovaným	-10.7011
trh	-10.7019
▁využívá	-10.7021
▁motor	-10.7022
▁doprava	-10.703
▁pohybují	-10.7033
▁formu	-10.7033
▁pravidel	-10.7034
▁schválen	-10.7035
▁editor	-10.7036
▁realit	-10.7037
▁okamžik	-10.7039
▁vědom	-10.7039
▁termínu	-10.7041
šly	-10.7042
▁převzal	-10.7043
▁úspěšný	-10.7044
MI	-10.7046
dem	-10.705
▁zlato	-10.705
OU	-10.7051
▁uzavřel	-10.7052
▁vytvořil	-10.7053
▁zvítězil	-10.7054
▁Muž	-10.7056
▁1000	-10.7069
▁historický	-10.7072
▁začínají	-10.7078
ša	-10.7078
řazen	-10.7081
děk	-10.7082
▁národ	-10.7085
▁píše	-10.7085
▁advokát	-10.7086
▁Musím	-10.7088
▁komerční	-10.7089
▁vedl	-10.7092
dělit	-10.7094
▁průměr	-10.7094
Ř	-10.7098
▁aminokyselin	-10.7101
ohledem	-10.7101
▁31.	-10.7103
vají	-10.7106
šení	-10.7111
▁5.	-10.7116
oři	-10.7117
izace	-10.7117
▁Viktor	-10.7118
▁Americe	-10.7118
▁dopoledne	-10.7118
▁dveře	-10.7118
▁ministerstvu	-10.7118
▁nejrychleji	-10.7118
▁považovat	-10.7118
▁reakce	-10.7118
▁rekonstrukci	-10.7118
▁rozhoduje	-10.7118
▁strategie	-10.7118
▁Trenér	-10.7118
▁sloužit	-10.7118
▁vyrábět	-10.7118
▁policii	-10.7118
▁srdce	-10.7118
▁partneři	-10.7118
▁Klub	-10.7119
▁psát	-10.7119
▁areálu	-10.7119
▁vězení	-10.7119
▁rozlišení	-10.7119
▁vzít	-10.7119
▁penze	-10.7119
skal	-10.7119
▁krve	-10.7119
▁vodu	-10.712
▁politickou	-10.712
▁trvat	-10.712
▁dubna	-10.712
▁výlet	-10.712
▁čekat	-10.712
▁jaře	-10.712
▁Konečn	-10.7121
▁dotací	-10.7121
íka	-10.7121
▁zachovat	-10.7123
▁zraněn	-10.7123
▁poskytnout	-10.7123
býval	-10.7125
▁stavby	-10.7126
▁Čas	-10.7127
▁viděl	-10.7127
▁provádět	-10.7129
áním	-10.713
▁obsahovat	-10.7132
kan	-10.7132
▁vydat	-10.7132
▁obec	-10.7133
lka	-10.7135
▁demokratick	-10.7136
▁ukončení	-10.7137
▁objektivní	-10.7138
▁sídle	-10.714
▁elektrické	-10.7142
▁zjevn	-10.7142
▁narození	-10.7143
▁vším	-10.7145
▁přišli	-10.7146
▁Havla	-10.7147
▁událostí	-10.715
▁dítěte	-10.7151
rd	-10.7152
▁plánu	-10.7152
▁postavit	-10.7154
▁Mnoho	-10.7154
▁zastavit	-10.7156
▁sovětských	-10.7157
▁taneční	-10.7159
▁připojení	-10.7159
▁pop	-10.7161
▁techniku	-10.7163
rot	-10.7164
▁obci	-10.7164
▁schválení	-10.7164
▁kontakty	-10.7164
▁učitel	-10.7167
denní	-10.7168
áno	-10.7168
▁orgány	-10.717
▁Malé	-10.7172
▁příkladem	-10.7173
▁výhody	-10.7176
▁1,	-10.7177
plňuje	-10.7178
▁kabinetu	-10.7178
lis	-10.7184
▁hluboko	-10.7186
▁produkty	-10.7186
▁managementu	-10.7187
▁události	-10.7189
▁cosi	-10.719
psané	-10.7191
▁dodat	-10.7194
dis	-10.7196
počet	-10.72
▁přesvědčení	-10.7203
▁rodina	-10.7209
přes	-10.721
▁severu	-10.7211
▁útoku	-10.7212
▁maximální	-10.7212
▁otevřel	-10.7214
▁principy	-10.7215
▁zjistili	-10.7219
▁vašeho	-10.7222
inter	-10.7225
▁občany	-10.7227
▁vyhlásil	-10.723
▁průmyslové	-10.7236
▁souhlasu	-10.7241
▁předpoklad	-10.7242
▁dělí	-10.7242
▁hranic	-10.7242
▁hlasy	-10.7245
▁samostatně	-10.7248
šky	-10.7262
▁soubory	-10.7264
▁rozhodli	-10.7264
▁znal	-10.7268
▁stejným	-10.7274
▁běžně	-10.7285
▁znamenat	-10.7286
jezd	-10.7288
▁sociálního	-10.7293
▁student	-10.7295
▁Per	-10.7298
▁SP	-10.7298
▁obrovské	-10.7302
rna	-10.7309
▁zmíněný	-10.7313
▁kluby	-10.7314
▁vyzval	-10.7315
▁projevil	-10.7317
▁člena	-10.7318
▁povinn	-10.7323
▁průkaz	-10.7323
▁monitor	-10.7332
▁oznámila	-10.7333
▁Rada	-10.7333
▁odkaz	-10.7335
pustí	-10.7336
jel	-10.7341
▁Německ	-10.7349
▁fyzick	-10.7353
▁bohat	-10.7358
níky	-10.7361
jen	-10.7361
▁vstoupil	-10.7362
stran	-10.7363
▁Her	-10.7364
▁jakém	-10.7365
▁příslušn	-10.7368
▁založil	-10.7369
▁Mnoh	-10.7376
tisk	-10.738
▁pečlivě	-10.7381
nictví	-10.7384
▁cyklu	-10.7384
▁rostou	-10.7386
▁nástroje	-10.7386
ama	-10.7387
▁formátu	-10.7392
▁výkonné	-10.7394
▁klepn	-10.74
▁Euro	-10.741
▁Stanislav	-10.7412
▁března	-10.7412
▁geometrie	-10.7412
▁snižuje	-10.7412
▁zahrnuje	-10.7412
▁zahynul	-10.7412
▁účinky	-10.7412
▁rozmezí	-10.7412
▁páté	-10.7412
▁sotva	-10.7412
▁kupónov	-10.7412
▁rakouské	-10.7413
▁klesá	-10.7413
▁čtvrtletí	-10.7413
▁využil	-10.7413
▁morální	-10.7413
▁blízko	-10.7414
▁Šest	-10.7415
▁návod	-10.7415
▁téhož	-10.7415
▁praktický	-10.7416
▁Zájem	-10.7416
▁diskusi	-10.7417
41	-10.7418
brat	-10.7418
▁zajišťuje	-10.7418
▁výsledku	-10.7418
▁opozice	-10.742
▁miliónu	-10.7421
příliš	-10.7422
▁postupy	-10.7425
▁školách	-10.7425
▁pravomoci	-10.7426
▁zásluh	-10.7426
▁poradce	-10.7427
▁přestal	-10.7428
▁park	-10.7429
▁průměrné	-10.7429
▁zvýší	-10.7433
▁vzpomíná	-10.7433
▁kovů	-10.7434
▁cíl	-10.7435
▁formy	-10.7437
▁činit	-10.744
▁sam	-10.7441
ovky	-10.7442
▁příběh	-10.7445
▁65	-10.7449
▁zachování	-10.745
▁resp	-10.745
▁přinesl	-10.7455
nému	-10.7456
▁zásadně	-10.7457
▁příčinou	-10.7458
▁volbu	-10.7463
▁dohod	-10.7467
▁duchu	-10.7467
▁představiteli	-10.7469
▁Lon	-10.747
▁provádí	-10.747
padají	-10.7472
▁Ex	-10.7475
▁věnuje	-10.7476
ňování	-10.748
▁poz	-10.7483
▁kandidátů	-10.7483
AC	-10.7486
▁Zemi	-10.7495
▁Hol	-10.7495
▁poskytl	-10.7497
▁šlo	-10.7509
▁padesáti	-10.7511
▁7.	-10.7512
▁pražských	-10.7513
▁producent	-10.7513
▁slep	-10.7513
rob	-10.7529
▁Boris	-10.7536
▁plnění	-10.7539
dostanou	-10.754
▁neroz	-10.7553
▁daném	-10.7557
kož	-10.7567
▁Popper	-10.7568
▁papíru	-10.7572
▁pochod	-10.7577
▁klasický	-10.7578
▁Občanské	-10.758
▁obchody	-10.7581
▁směn	-10.759
▁živé	-10.7591
▁následujících	-10.7593
▁uložen	-10.7593
▁modely	-10.7603
▁pokut	-10.7607
bin	-10.7609
▁Michael	-10.7611
▁výš	-10.7614
stál	-10.7619
▁startu	-10.762
▁pivovar	-10.7629
dů	-10.7634
▁výbuch	-10.7635
▁15.	-10.7637
ičky	-10.7638
▁chyby	-10.7639
▁soustav	-10.7641
KU	-10.7642
▁krátké	-10.7646
ana	-10.7655
OH	-10.7657
▁věk	-10.7658
▁chat	-10.7665
▁loňský	-10.7668
▁žil	-10.7672
▁vzdálenost	-10.7673
▁přístroj	-10.7674
▁Klause	-10.7675
▁vstříc	-10.7682
▁jediným	-10.7682
▁důsled	-10.7687
edení	-10.7691
▁neznám	-10.7692
▁věda	-10.7693
sídl	-10.7694
▁služba	-10.7695
▁reakci	-10.7699
Vesmír	-10.7701
▁pla	-10.7701
▁1992.	-10.7704
▁uvažuje	-10.7705
▁žlut	-10.771
▁barevný	-10.771
▁Španěl	-10.7714
▁gigant	-10.7715
▁sekretář	-10.7715
▁Otázka	-10.7715
▁definitivně	-10.7715
▁digitální	-10.7715
▁divadlo	-10.7715
▁důvěru	-10.7715
▁kyslíku	-10.7715
▁označit	-10.7715
▁pokračování	-10.7715
▁prognóz	-10.7715
▁předvolební	-10.7715
▁transformaci	-10.7715
▁vězňů	-10.7715
▁zvyšování	-10.7715
▁října	-10.7715
▁vozidel	-10.7715
▁Československé	-10.7715
▁prosinci	-10.7715
▁vazby	-10.7715
▁Býval	-10.7715
▁počtem	-10.7715
▁rozsáhlé	-10.7715
▁Práce	-10.7715
▁nikoho	-10.7716
▁výročí	-10.7716
▁svoje	-10.7716
▁zastavil	-10.7716
▁myšlenky	-10.7717
▁super	-10.7717
▁hluboké	-10.7717
▁Člen	-10.7718
▁odpad	-10.772
příště	-10.772
▁poradit	-10.7721
▁hřišti	-10.7721
▁46	-10.7722
▁majitele	-10.7722
▁navrhuje	-10.7723
▁sexuální	-10.7723
▁neplatí	-10.7724
▁mírně	-10.7725
▁oběti	-10.7727
▁prozatím	-10.7727
▁poplatky	-10.7727
▁začátek	-10.7727
▁výdajů	-10.7728
▁ZA	-10.773
zemědělských	-10.7731
▁rozšířil	-10.7732
AV	-10.7732
▁chtěla	-10.7734
▁Třeba	-10.7734
▁zrušit	-10.7735
▁mechanismus	-10.7736
▁tuzemsku	-10.7738
▁filmové	-10.774
ávat	-10.7743
▁rostoucí	-10.7743
▁Uvedl	-10.7745
▁bratr	-10.7748
▁třetiny	-10.7749
▁zpravodaj	-10.775
▁boji	-10.7751
▁východě	-10.7753
▁dílů	-10.7755
▁obsahují	-10.7759
▁příležitostí	-10.776
▁krajiny	-10.7762
▁sezóny	-10.7763
▁Hlavním	-10.7763
▁reklamy	-10.7763
▁Několik	-10.7763
▁zůstalo	-10.7766
▁svobody	-10.7767
▁nastavení	-10.7767
ičtí	-10.7768
▁schopností	-10.7772
▁produkt	-10.7773
jeli	-10.7774
▁vědí	-10.7774
▁Jaké	-10.7774
▁představitele	-10.7775
rab	-10.7778
▁našel	-10.7778
ick	-10.7781
vrácení	-10.7782
▁majitelé	-10.7783
▁nastal	-10.7783
▁pokuty	-10.7784
▁přítomnosti	-10.7785
▁čtrnáct	-10.7786
▁nezávislé	-10.7789
▁výborů	-10.7792
▁Val	-10.7794
▁víme	-10.7794
▁postavil	-10.7795
kázal	-10.7797
ab	-10.7802
▁herec	-10.7804
▁klient	-10.7809
▁Rakouska	-10.7811
▁znění	-10.7811
▁činil	-10.7812
ovanou	-10.7813
▁starý	-10.7821
▁objevují	-10.7824
▁koní	-10.7831
▁záležitosti	-10.7834
12	-10.7839
▁víkend	-10.7845
ložení	-10.7848
▁ekonomický	-10.7849
▁pohár	-10.785
ON	-10.785
dor	-10.7852
▁Svět	-10.7855
▁koncertu	-10.7855
▁tuzemské	-10.7857
íci	-10.7862
,8	-10.7863
▁necelý	-10.7864
▁stylu	-10.7865
▁Vlk	-10.7866
▁36	-10.7868
▁účtu	-10.7873
▁známý	-10.7874
▁stisk	-10.7875
▁Jaká	-10.7877
vní	-10.7878
▁tisíci	-10.7881
ance	-10.7882
▁věděl	-10.7891
▁českém	-10.7892
ivní	-10.7896
▁odraz	-10.7898
▁Clinton	-10.79
oji	-10.7907
▁výrobních	-10.7911
entní	-10.7917
▁čtenářů	-10.7917
▁běh	-10.7919
▁Št	-10.7924
▁Světové	-10.7924
▁primátor	-10.7924
▁oceán	-10.7926
▁karta	-10.7927
▁exportu	-10.7928
▁Ni	-10.793
▁obrovský	-10.7934
▁rodičů	-10.7945
▁sousední	-10.7948
▁existující	-10.7953
ll	-10.7956
▁zdravotního	-10.7957
▁pěst	-10.7957
izovat	-10.7957
▁Pomoc	-10.7957
▁surovin	-10.7959
▁obsadil	-10.7959
neme	-10.7962
▁diplomat	-10.7964
▁výkony	-10.7965
▁dosáhla	-10.7965
▁klidně	-10.7965
▁Bla	-10.7966
SA	-10.7968
lín	-10.7971
▁důraz	-10.7983
týká	-10.7984
▁potřeboval	-10.7989
▁ukázk	-10.7992
▁přítomnost	-10.7993
▁vlně	-10.7997
▁ostatním	-10.7997
pit	-10.7997
▁Výbor	-10.7998
rop	-10.7999
elné	-10.7999
NI	-10.8005
▁státem	-10.8006
jmout	-10.8013
▁Úřadu	-10.8018
▁silný	-10.8022
▁menších	-10.8023
▁dětský	-10.8026
▁zkouš	-10.8026
▁trans	-10.8027
▁Evropu	-10.8028
▁Mechanik	-10.8028
▁Němců	-10.8028
▁Premiér	-10.8028
▁Systém	-10.8028
▁Vývoj	-10.8028
▁definitivní	-10.8028
▁kilobajtů	-10.8028
▁podezření	-10.8028
▁potvrzuje	-10.8028
▁připomněl	-10.8028
▁režii	-10.8028
▁sjednocení	-10.8028
▁smlouvě	-10.8028
▁tabulce	-10.8028
▁teorií	-10.8028
▁tvořit	-10.8028
▁účinek	-10.8028
▁lehce	-10.8028
▁zdarma	-10.8028
▁zrušil	-10.8028
▁membrán	-10.8028
▁schůze	-10.8028
▁zastupitelstva	-10.8028
▁spotřeby	-10.8028
▁pověřen	-10.8028
▁nedokázal	-10.8029
▁střetnutí	-10.8029
▁bránit	-10.8029
▁GSM	-10.803
▁produkci	-10.803
▁variant	-10.803
▁celků	-10.803
▁Pět	-10.8031
▁nejenom	-10.8031
▁absolutní	-10.8031
▁("	-10.8031
▁časové	-10.8032
▁ovoce	-10.8032
▁diskuse	-10.8032
▁Dodal	-10.8035
▁klasické	-10.8035
▁kódování	-10.8036
▁kamion	-10.8036
▁systematick	-10.8036
▁vaši	-10.8037
▁označen	-10.8038
▁ukončil	-10.8038
▁akademie	-10.804
▁dolní	-10.8041
▁vyvolává	-10.8042
▁předložit	-10.8043
▁Druhá	-10.8045
▁dostatek	-10.8047
▁Staroměstské	-10.8048
▁Jednání	-10.805
▁firemní	-10.8055
ller	-10.8056
stické	-10.8057
▁řidič	-10.806
▁zahraničním	-10.806
▁závislosti	-10.806
▁náhodou	-10.8063
níku	-10.8063
▁kontrolní	-10.8065
▁fakultu	-10.8068
▁Jaký	-10.8069
▁užívání	-10.8071
▁výstavě	-10.8071
▁veřejných	-10.8071
▁nahradil	-10.8072
▁církevní	-10.8076
▁Sparta	-10.8077
▁Severní	-10.8078
▁Karadžič	-10.8084
▁zvěře	-10.8086
▁Němec	-10.8088
▁11.	-10.8089
staví	-10.8092
▁základem	-10.8093
▁Obecn	-10.8097
▁zdravé	-10.8097
táhne	-10.8101
▁najde	-10.8102
▁škodu	-10.8106
jako	-10.8111
tát	-10.8111
▁38	-10.8114
▁stráž	-10.8115
▁příčiny	-10.8115
▁pohyboval	-10.8117
▁zdravotnické	-10.8123
▁nadšen	-10.813
▁pravděpodobnost	-10.813
▁koně	-10.813
▁Er	-10.8143
▁vyžádal	-10.8146
▁soused	-10.8147
▁trenérem	-10.8147
end	-10.8147
▁sporu	-10.8148
▁Ústavní	-10.815
▁principu	-10.8153
▁Mir	-10.8154
▁textový	-10.8154
▁min	-10.8159
▁týdnech	-10.8161
har	-10.8165
▁levé	-10.8172
OLE	-10.8175
číst	-10.8183
▁podobného	-10.8184
▁postav	-10.8193
▁životním	-10.8195
▁katalog	-10.8199
▁Bur	-10.8207
▁reálný	-10.8209
31	-10.8218
▁komplex	-10.823
▁per	-10.8231
▁kont	-10.8232
▁Firm	-10.8243
▁jiní	-10.8245
▁pokračoval	-10.8245
tají	-10.8248
bla	-10.8248
▁koho	-10.825
▁přenosov	-10.8256
▁gen	-10.826
und	-10.8262
▁probíh	-10.8263
▁vzpomínk	-10.8274
▁situací	-10.8275
▁zábav	-10.8279
▁počítačový	-10.828
▁předložen	-10.8281
▁Paul	-10.8286
razit	-10.8287
▁bezprostředn	-10.8288
▁trestné	-10.8288
▁škod	-10.8293
▁městský	-10.8295
▁nezávislost	-10.8296
▁mnou	-10.8298
▁roze	-10.8298
▁Hus	-10.8299
▁6.	-10.83
▁zjištěn	-10.8302
▁laboratoř	-10.8302
▁zad	-10.831
mála	-10.8313
skok	-10.8313
ME	-10.8313
OR	-10.8314
▁děj	-10.8316
▁třetího	-10.8334
▁poskytují	-10.8336
▁obal	-10.8337
eta	-10.8343
ráže	-10.8345
▁inženýr	-10.8349
jedině	-10.835
ačtyřicet	-10.835
▁Poslanc	-10.835
▁dražší	-10.835
▁dynamick	-10.835
▁nejnižší	-10.835
▁nemohu	-10.835
▁podporovat	-10.835
▁přispět	-10.835
▁sportovců	-10.835
▁uskutečnit	-10.835
▁vyřešit	-10.835
▁Člověk	-10.835
▁chystá	-10.835
▁krizi	-10.835
▁vybudovat	-10.835
▁vypadat	-10.835
▁skončí	-10.835
▁Osobn	-10.835
▁turisty	-10.835
▁mlýn	-10.8351
▁dohromady	-10.8351
▁sněhu	-10.8351
▁zhodnocení	-10.8351
▁mld	-10.8351
▁obilí	-10.8351
▁dobrá	-10.8351
▁snažit	-10.8351
▁atmosféry	-10.8351
▁síti	-10.8352
▁bomb	-10.8353
▁těší	-10.8353
▁vedlejší	-10.8354
▁přesvědčit	-10.8355
▁porozumění	-10.8357
▁pokračuje	-10.8357
▁Hradci	-10.8358
▁tvorbě	-10.8359
▁všeobecně	-10.8359
▁připojit	-10.836
res	-10.836
řad	-10.836
▁hůře	-10.836
▁zbytečně	-10.8361
▁Úřad	-10.8361
▁ruky	-10.8362
▁tělo	-10.8362
▁umělecké	-10.8362
▁Bruselu	-10.8362
▁srážek	-10.8363
▁Jelcina	-10.8364
pot	-10.8367
▁plno	-10.8369
▁přinést	-10.837
▁dala	-10.8372
hav	-10.8372
▁vesnice	-10.8374
▁analýzy	-10.8375
hradí	-10.8375
▁poznamenal	-10.8376
▁pohádk	-10.8378
▁rodin	-10.838
85	-10.838
set	-10.8383
▁šok	-10.8383
▁Senátu	-10.8384
▁obsazení	-10.8384
▁rovině	-10.8385
leč	-10.8385
▁spolupracovníků	-10.8387
ložil	-10.8388
▁personální	-10.8388
▁34	-10.8391
▁Mon	-10.8391
▁autobusy	-10.8392
▁nep	-10.8393
▁Chorvatska	-10.8396
▁silnice	-10.8397
▁Američané	-10.8406
▁zájmů	-10.8406
▁grafický	-10.8411
▁důchodu	-10.8413
▁Kohl	-10.8414
▁citliv	-10.8418
▁vědě	-10.8419
▁zájemce	-10.842
▁dovozu	-10.8421
▁kolektivní	-10.8422
bývají	-10.8427
ja	-10.8429
▁bi	-10.8434
▁opustit	-10.8435
▁Novotný	-10.8435
běhu	-10.844
ens	-10.8441
▁volných	-10.8442
▁130	-10.8443
▁experiment	-10.8443
▁výkonný	-10.8443
áhy	-10.8444
ria	-10.8447
▁sval	-10.8447
▁požadované	-10.8448
tvo	-10.8448
▁Karla	-10.845
nova	-10.8455
▁zlom	-10.8457
▁Gr	-10.846
počítat	-10.8464
▁nevím	-10.8468
ujícího	-10.8468
cky	-10.847
▁přivedl	-10.847
▁patnácti	-10.8471
▁lékařsk	-10.8471
▁nepříjemné	-10.8477
▁dalo	-10.8479
▁drobn	-10.8482
▁spol	-10.8485
▁vyrovnan	-10.8488
▁poli	-10.8491
▁tlaku	-10.8492
▁nachází	-10.8493
▁drobné	-10.8493
▁grafu	-10.8499
▁Rakousk	-10.8499
▁objemu	-10.8501
▁hledají	-10.8502
▁získan	-10.8505
ička	-10.8506
oje	-10.8507
áček	-10.8508
▁kapitálové	-10.8509
▁prost	-10.8509
▁Mohl	-10.8521
▁průměrný	-10.8524
▁potenciál	-10.8526
▁moment	-10.8528
▁střet	-10.8536
▁1,5	-10.8537
▁výhod	-10.854
metr	-10.8542
▁členský	-10.8546
čně	-10.8546
▁Mark	-10.8549
lob	-10.8549
▁projektů	-10.8552
▁struktura	-10.8559
zoval	-10.8564
▁vedla	-10.8567
▁odborník	-10.8569
▁montáž	-10.8573
▁turistický	-10.8578
3,	-10.8585
▁dlužník	-10.8588
▁nutnost	-10.8589
▁osobnost	-10.8591
▁Zlín	-10.8592
znamenal	-10.8602
▁management	-10.8604
▁prof	-10.8605
▁král	-10.8606
▁kolektiv	-10.8613
▁překvapení	-10.862
▁prosadil	-10.862
▁výrazný	-10.8621
▁Takový	-10.8621
▁čtyřiceti	-10.8623
▁vyšetřovatel	-10.8624
ence	-10.8629
▁bílé	-10.8632
▁projednáva	-10.8635
ívají	-10.8637
▁zní	-10.8646
▁důstojn	-10.8646
▁dělení	-10.8648
▁zvíře	-10.8652
▁Slov	-10.8655
▁značný	-10.8655
▁čist	-10.8659
▁provozní	-10.8664
hlížet	-10.8668
▁čekal	-10.8671
sadil	-10.8674
▁Auto	-10.8676
▁Par	-10.8677
▁konečný	-10.8677
▁jmenován	-10.8679
▁speciali	-10.8682
▁Mluvčí	-10.8684
▁dosažení	-10.8684
▁hrozb	-10.8684
▁jednoduchá	-10.8684
▁metropoli	-10.8684
▁nechtějí	-10.8684
▁obsažen	-10.8684
▁pochopení	-10.8684
▁teorii	-10.8684
▁tradičně	-10.8684
▁výpověď	-10.8684
▁únoru	-10.8684
▁neutrální	-10.8684
▁reakcí	-10.8684
▁Peníze	-10.8684
▁složitější	-10.8684
▁Divadl	-10.8684
▁likvidace	-10.8684
▁břehu	-10.8684
▁Zástupc	-10.8684
▁nevýhod	-10.8684
▁Rudolf	-10.8684
▁nejpozději	-10.8684
▁restauraci	-10.8684
▁jmění	-10.8684
▁Obdobn	-10.8684
▁Rozdíl	-10.8684
▁dotace	-10.8685
▁dojít	-10.8685
▁dělají	-10.8686
▁vtip	-10.8686
▁operací	-10.8686
▁kabel	-10.8686
▁kategorii	-10.8687
▁výhodnější	-10.8687
▁elektráren	-10.8689
▁mezd	-10.8689
▁uspořáda	-10.8689
▁OH	-10.869
▁sněmovně	-10.8691
▁reformy	-10.8692
▁podporuje	-10.8694
▁Východ	-10.8694
▁městech	-10.8695
▁udržení	-10.8701
▁vína	-10.8702
▁časopisů	-10.8703
▁oblačnost	-10.8703
▁ochotn	-10.8705
▁rod	-10.8707
▁přírodověd	-10.8711
▁rostlin	-10.8712
5%	-10.8713
▁stíhání	-10.8714
▁neboli	-10.8715
▁zná	-10.8715
▁přijdou	-10.8715
▁Tour	-10.8716
padne	-10.8717
▁Ros	-10.8721
▁dokumentu	-10.8721
táhnout	-10.8724
▁Zahraničn	-10.8724
▁náhod	-10.8725
▁realitní	-10.8726
▁pochází	-10.8726
▁žádostí	-10.8727
▁otevřena	-10.873
▁koupí	-10.8732
▁Morav	-10.8736
▁Paříži	-10.8738
eček	-10.8739
▁otevře	-10.874
▁strom	-10.874
▁zvuk	-10.8741
▁spoj	-10.8742
▁hledal	-10.8742
▁dával	-10.8745
▁sezónu	-10.8745
▁svobodu	-10.875
rní	-10.8751
▁odborníky	-10.8753
▁využívání	-10.8756
▁uložení	-10.8756
ejme	-10.8764
▁Cha	-10.8771
▁skla	-10.8774
▁vešker	-10.8775
▁posílen	-10.8775
▁hmoty	-10.8777
▁potřebn	-10.878
čátkem	-10.878
▁žádosti	-10.8781
TU	-10.8789
▁Ci	-10.8789
▁proveden	-10.879
▁domy	-10.8798
▁budova	-10.8802
▁vystaven	-10.8803
▁Důležit	-10.8805
▁založení	-10.8805
▁nemohli	-10.8809
▁obvodní	-10.8812
daných	-10.8814
ng	-10.882
▁záměru	-10.8824
▁ukázala	-10.8826
▁škoda	-10.8827
▁tich	-10.8839
▁zvýšen	-10.885
▁požádal	-10.8852
▁zákazníkům	-10.8855
▁šedesát	-10.8857
▁95	-10.8857
▁katastrof	-10.8858
▁hus	-10.8863
▁9.	-10.8864
▁letecké	-10.8865
CD	-10.8868
▁neb	-10.8874
▁85	-10.8884
▁reprezentantů	-10.8884
▁platy	-10.8885
▁mluvčího	-10.8885
▁mimořádné	-10.8888
▁Fran	-10.8892
▁mladý	-10.8892
▁zvýšené	-10.8893
▁Dá	-10.8895
▁poklesl	-10.8899
ickém	-10.8902
▁činu	-10.8906
▁Mlad	-10.8912
▁stanic	-10.8912
tkání	-10.8917
dání	-10.8918
▁ztráta	-10.8921
národních	-10.8925
▁platnost	-10.893
▁řídící	-10.8934
▁zařazen	-10.8935
88	-10.8937
ačnou	-10.894
▁úmysl	-10.8941
▁muse	-10.8944
▁monopol	-10.8945
▁značn	-10.8946
▁vražd	-10.8947
▁výstup	-10.8947
▁týmy	-10.8948
▁čtrnácti	-10.8949
▁protein	-10.895
▁Vznik	-10.8951
▁každému	-10.8951
cker	-10.8954
▁přev	-10.8955
platit	-10.8956
kový	-10.8958
▁nezaměstnanost	-10.8959
lap	-10.8967
▁Plat	-10.8968
▁snažil	-10.8969
▁tvrdý	-10.8974
▁podílel	-10.8974
oučástí	-10.8975
hání	-10.8984
▁mladí	-10.8989
▁podnikatelský	-10.8989
'	-10.8995
▁grafick	-10.9
▁poskytovat	-10.9006
volat	-10.9007
▁kvantov	-10.901
▁šéfa	-10.9013
▁stačil	-10.9015
▁obecné	-10.9017
▁uzavře	-10.9018
▁zvětš	-10.9022
▁recept	-10.9028
▁Ameriky	-10.9029
▁Bohužel	-10.9029
▁Ladislav	-10.9029
▁Nedávn	-10.9029
▁Plzni	-10.9029
▁SCSI	-10.9029
▁energii	-10.9029
▁instituce	-10.9029
▁kapitán	-10.9029
▁nejvýznamnější	-10.9029
▁podpořil	-10.9029
▁přirozené	-10.9029
▁čtvrtfinále	-10.9029
▁chránit	-10.9029
▁mládí	-10.9029
▁názvu	-10.9029
▁koncepci	-10.9029
▁rámeček	-10.9029
▁Včera	-10.9029
▁nejúspěšnější	-10.9029
▁Policisté	-10.9029
▁použil	-10.9029
▁zaujal	-10.9029
▁stabilní	-10.9029
▁investování	-10.9029
▁ekonomicky	-10.9029
▁závad	-10.9029
▁trzích	-10.9029
▁Chip	-10.9029
▁výrobek	-10.903
▁nadcházející	-10.9031
▁množ	-10.9031
▁zimě	-10.9031
▁obrázky	-10.9032
▁ono	-10.9032
▁Tentokrát	-10.9033
▁síla	-10.9033
▁tradici	-10.9034
▁Pre	-10.9034
▁plod	-10.9034
▁faktorů	-10.9035
▁konat	-10.9035
▁šestnáct	-10.9036
▁tón	-10.9037
▁Londýně	-10.9037
▁chodit	-10.9037
▁čtvrtý	-10.9038
▁bojovat	-10.9038
▁úvahy	-10.9038
▁hlavou	-10.9039
▁odstavce	-10.9039
▁Afriky	-10.9039
▁hudby	-10.904
▁David	-10.904
▁uznal	-10.9041
▁lokální	-10.9043
▁kritérií	-10.9043
▁originální	-10.9046
▁schůzky	-10.9047
▁Stav	-10.9047
▁No	-10.9047
▁požadují	-10.9048
▁právnické	-10.9049
istů	-10.905
▁umělecký	-10.9054
▁způsobuje	-10.9055
▁scény	-10.9055
▁parametrů	-10.9056
ill	-10.9057
pin	-10.906
▁vybrané	-10.9062
▁spravedlnosti	-10.9062
▁Děti	-10.9064
▁nalézt	-10.9065
pos	-10.9069
▁slíbil	-10.907
▁zájemci	-10.9071
▁nezbytné	-10.9072
bíhá	-10.9073
▁třetinu	-10.9074
era	-10.9074
▁ekologick	-10.9074
▁vesmíru	-10.9075
▁pokusil	-10.9075
áni	-10.9076
▁zbývající	-10.9076
▁světovou	-10.9079
▁vlasti	-10.9081
▁Zajímav	-10.9081
lení	-10.9082
▁drahé	-10.9083
▁zavře	-10.9084
▁zaměření	-10.9087
▁uživatele	-10.9088
▁vývojové	-10.9089
▁úroky	-10.9089
▁mal	-10.9089
▁okruhu	-10.909
▁úkolem	-10.9092
▁nemocných	-10.9093
▁způsobené	-10.9094
pas	-10.9097
▁povede	-10.9099
kládat	-10.91
▁Lidové	-10.9101
44	-10.9104
▁přijel	-10.9108
▁ostře	-10.911
▁představí	-10.9112
▁bosenský	-10.9112
▁Dobr	-10.9113
▁blíže	-10.9114
▁starosty	-10.9116
▁adresu	-10.9117
▁paliva	-10.9118
IL	-10.9128
▁dokumentů	-10.9132
▁fyzický	-10.9134
▁uvedení	-10.9135
▁hradu	-10.9137
IC	-10.9137
▁hovořil	-10.9138
▁případný	-10.9138
▁klidu	-10.9139
▁jih	-10.9145
▁udržel	-10.9146
▁konkrétně	-10.9148
▁podat	-10.9148
▁výkonem	-10.915
▁Nevím	-10.9151
▁los	-10.9152
▁postupné	-10.9154
▁poukaz	-10.9154
▁pouhé	-10.9158
▁úkolů	-10.916
áků	-10.9166
▁objevit	-10.9167
▁paláce	-10.9171
trž	-10.9175
▁rozhovor	-10.9179
▁zásady	-10.9187
▁zůstala	-10.9196
▁platné	-10.9196
▁skutečný	-10.9196
▁založené	-10.9204
▁sklon	-10.9218
▁odkud	-10.9221
▁dalšímu	-10.9223
ávání	-10.9231
▁připojen	-10.9233
vykl	-10.9244
▁pevný	-10.9247
▁30.	-10.9247
▁hladin	-10.9248
▁odbor	-10.9259
▁zahraničními	-10.926
▁pobočk	-10.926
▁dluh	-10.9262
▁Odbor	-10.9263
▁biologické	-10.9263
▁filmy	-10.9265
▁nalezen	-10.9275
▁8.	-10.9282
asi	-10.9283
▁parku	-10.929
▁bot	-10.9291
▁dvoj	-10.9292
stru	-10.9296
▁česko	-10.9296
kládal	-10.9297
▁nesouhlas	-10.9301
▁Cíle	-10.9302
spal	-10.9306
▁vzduch	-10.9306
▁hrob	-10.9307
▁Pal	-10.9307
oucí	-10.9307
▁umělé	-10.9312
▁možný	-10.9313
▁Nejs	-10.9314
▁výprav	-10.9318
▁školu	-10.9321
ŘE	-10.9324
▁disket	-10.9325
▁výjimečn	-10.933
▁Sever	-10.9333
pir	-10.9342
▁zastoupen	-10.9348
hodnou	-10.9349
▁působil	-10.9349
▁Tur	-10.9351
▁nechá	-10.9355
▁exportní	-10.9357
vnějších	-10.9359
pracovat	-10.9368
▁agent	-10.9372
antní	-10.9376
Ú	-10.9377
▁lidsk	-10.938
▁hloub	-10.9381
kombin	-10.9383
▁rytm	-10.9385
▁Alexandr	-10.9386
▁Barceloně	-10.9386
▁Británii	-10.9386
▁Nejlepší	-10.9386
▁březnu	-10.9386
▁cigaret	-10.9386
▁fázi	-10.9386
▁instalaci	-10.9386
▁normy	-10.9386
▁následek	-10.9386
▁podmínkou	-10.9386
▁pomáhá	-10.9386
▁populární	-10.9386
▁požádat	-10.9386
▁pravidlo	-10.9386
▁publikován	-10.9386
▁tlačítka	-10.9386
▁tlačítkem	-10.9386
▁týdně	-10.9386
▁umožnit	-10.9386
▁Organiza	-10.9386
▁Srbsk	-10.9386
▁déšť	-10.9386
▁kratší	-10.9386
▁vrstvy	-10.9386
▁naléhav	-10.9386
▁ploše	-10.9386
▁těžce	-10.9386
▁divize	-10.9386
▁Robert	-10.9386
▁Věřím	-10.9386
▁Část	-10.9386
▁likvidaci	-10.9386
▁značky	-10.9386
▁Soubor	-10.9386
▁ocitl	-10.9386
▁někoho	-10.9386
▁pololetí	-10.9386
▁kvalifikace	-10.9386
▁příslušníci	-10.9386
▁debat	-10.9386
▁1996	-10.9386
▁doposud	-10.9386
▁1987	-10.9386
▁nutný	-10.9386
▁pozdější	-10.9387
▁struktur	-10.9387
▁ekonomice	-10.9387
▁komisi	-10.9387
▁klimatu	-10.9387
▁IFOR	-10.9388
▁uvažovat	-10.9388
▁červenci	-10.9389
▁desky	-10.939
▁drog	-10.9391
▁Hodnot	-10.9391
▁Generální	-10.9392
▁horách	-10.9392
▁ukázat	-10.9393
▁multimediální	-10.9393
▁kapacit	-10.9395
▁zajímat	-10.9395
▁právnických	-10.9396
▁rozbor	-10.9396
▁staví	-10.9397
▁výstavbě	-10.9399
▁Mil	-10.9401
ODA	-10.9402
▁letiště	-10.9402
▁panel	-10.9402
▁myšlenka	-10.9404
▁fin	-10.9404
nvestiční	-10.9404
▁vzorky	-10.9405
▁průmyslov	-10.9405
ismem	-10.9407
▁Novotná	-10.9408
▁cenách	-10.9408
▁pozorování	-10.941
▁potvrzení	-10.9412
ité	-10.9412
▁ukáže	-10.9412
leb	-10.9412
▁vyšel	-10.9413
ějším	-10.9413
▁ohrožení	-10.9415
▁Často	-10.9416
▁29	-10.9416
▁vozy	-10.9417
▁barvu	-10.9417
▁ochotni	-10.942
▁obsazen	-10.9421
▁kilometr	-10.9421
▁provozovatel	-10.9421
třel	-10.9421
▁parametry	-10.9425
▁JU	-10.9426
▁pojem	-10.9427
▁obvyklé	-10.9427
▁účelem	-10.9428
▁Atlanty	-10.943
▁ekonomika	-10.9431
▁úvodu	-10.9432
▁polo	-10.9435
▁muzeum	-10.9435
jte	-10.9438
▁koupi	-10.9439
▁mezinárodním	-10.9439
▁očekávání	-10.944
▁%)	-10.9443
▁Svazu	-10.9443
▁příspěvky	-10.9446
▁sektoru	-10.9446
▁podílu	-10.9448
▁dvojí	-10.9448
▁přírodovědecké	-10.945
▁stupni	-10.9452
▁potřebný	-10.9453
▁Slovensk	-10.9453
▁srážky	-10.9455
▁chorvatské	-10.9455
▁plynů	-10.9456
▁nahradit	-10.9457
▁napsat	-10.9462
▁řeky	-10.9464
▁varianty	-10.9464
▁kmen	-10.9465
▁kup	-10.9466
▁třetina	-10.9467
logický	-10.9468
▁potenciální	-10.9469
▁studenti	-10.9471
▁lék	-10.9474
▁jeví	-10.9477
ologické	-10.9479
▁příjemné	-10.9482
▁Lit	-10.9484
skutk	-10.9487
▁obchodů	-10.9488
▁jediného	-10.9488
▁důchodové	-10.9488
▁Kub	-10.949
▁představitel	-10.9492
▁nedostal	-10.9493
▁španělské	-10.9495
▁plynu	-10.9496
▁tvořen	-10.9499
▁cíli	-10.9499
▁určitém	-10.9504
▁průzkumu	-10.9505
vesel	-10.9505
▁styku	-10.9506
▁ztrátu	-10.9507
▁Britsk	-10.951
▁platný	-10.9512
▁společném	-10.9516
▁spokojeni	-10.952
kovat	-10.952
lék	-10.9523
▁Jac	-10.9527
rám	-10.9535
▁výrazné	-10.9537
ezi	-10.9538
▁vět	-10.9539
▁společenský	-10.9541
▁hrála	-10.955
▁kontrola	-10.9551
▁změnila	-10.9552
máhají	-10.9556
▁Velm	-10.9557
▁most	-10.9563
▁pořádá	-10.9564
elná	-10.9568
▁All	-10.957
▁rychlý	-10.9573
▁působící	-10.9573
▁telefonu	-10.9573
▁nezávisl	-10.9582
dění	-10.9587
▁důsledně	-10.9601
▁nech	-10.9601
▁založena	-10.9601
art	-10.9602
▁specializované	-10.9605
▁nějakým	-10.9612
nete	-10.9615
▁Eva	-10.9616
▁osoba	-10.9627
▁Sta	-10.9632
jasn	-10.9636
▁nález	-10.964
▁dosah	-10.9641
▁italský	-10.9642
▁tábor	-10.9644
▁menším	-10.9644
nášet	-10.9646
▁záruk	-10.965
▁dám	-10.9655
▁Ří	-10.9656
tovat	-10.966
▁hlubo	-10.9661
▁pověst	-10.9665
▁Karl	-10.9671
▁Martina	-10.9673
▁OD	-10.9675
▁fan	-10.9677
▁zájemců	-10.9684
▁devadesát	-10.9685
▁zjednoduš	-10.9687
ško	-10.9691
▁Podnikatel	-10.9693
valy	-10.9697
▁přesun	-10.9703
daly	-10.9709
▁vedoucího	-10.9711
▁náskok	-10.9727
povídá	-10.973
padal	-10.9735
▁Společn	-10.9739
ust	-10.9741
▁div	-10.9745
▁75	-10.9746
▁Františk	-10.9747
jíždějí	-10.9749
daří	-10.9751
▁An	-10.9754
▁humor	-10.9755
▁Ukrajiny	-10.9756
▁Zvláštní	-10.9756
▁burze	-10.9756
▁církví	-10.9756
▁deficit	-10.9756
▁držitel	-10.9756
▁galerie	-10.9756
▁náboženství	-10.9756
▁ovlivňuje	-10.9756
▁páteční	-10.9756
▁upozorňuje	-10.9756
▁určuje	-10.9756
▁šetření	-10.9756
▁Koaliční	-10.9756
▁naznačil	-10.9756
▁priorit	-10.9756
▁IBM	-10.9756
▁oxidu	-10.9756
▁patrné	-10.9756
▁vrstev	-10.9756
▁pronájem	-10.9756
▁usilovat	-10.9756
▁podporou	-10.9756
▁produktivit	-10.9756
▁fáze	-10.9756
▁příliv	-10.9756
▁sdělovací	-10.9756
▁královn	-10.9756
▁vzestup	-10.9756
▁nedaleko	-10.9756
nutně	-10.9756
▁prů	-10.9756
▁filozofie	-10.9756
vázat	-10.9756
▁potrestán	-10.9756
▁zámku	-10.9756
▁naposledy	-10.9757
▁integraci	-10.9757
najdeme	-10.9757
▁Formát	-10.9757
▁1997	-10.9757
▁hutní	-10.9757
▁těžb	-10.9757
▁myšlenkou	-10.9757
▁svátky	-10.9757
▁slabší	-10.9757
▁manželství	-10.9757
poví	-10.9758
▁šíření	-10.9758
▁srdeční	-10.9758
▁duše	-10.9758
▁sběr	-10.9758
▁myšlenku	-10.9758
▁podnicích	-10.9758
▁obrázků	-10.9758
▁přežití	-10.9758
▁vážný	-10.9758
▁sílu	-10.9758
▁Původně	-10.9759
▁Týr	-10.9759
▁hřiště	-10.9759
▁nehodlá	-10.9759
▁nízko	-10.9759
▁obnovu	-10.9759
▁podnět	-10.9759
▁strav	-10.976
▁odhadnout	-10.976
▁testování	-10.9762
▁stanovit	-10.9762
▁prosazovat	-10.9763
▁Komis	-10.9763
▁desetin	-10.9763
▁znamenalo	-10.9763
▁zdanění	-10.9763
▁potíží	-10.9764
hodlají	-10.9766
▁sledování	-10.9767
▁olej	-10.977
▁silnější	-10.9771
▁doporučení	-10.9772
▁profil	-10.9772
▁zákazníci	-10.9773
▁posoudit	-10.9773
▁Nejde	-10.9777
▁soustředění	-10.9777
▁akcionářů	-10.9777
▁Labem	-10.9778
▁příbuzn	-10.978
▁následky	-10.9781
▁přístrojů	-10.9781
▁přehlídky	-10.9782
▁tvrdě	-10.9783
▁jezer	-10.9784
▁jádro	-10.9787
▁pouště	-10.9788
▁Správ	-10.9789
▁americkém	-10.9789
▁Irsk	-10.979
▁příslušníků	-10.9792
,6	-10.9792
▁podstat	-10.9793
▁Nikd	-10.9795
padla	-10.9797
▁úředníků	-10.9797
▁přinese	-10.9798
▁úlohu	-10.9803
▁jistotu	-10.9803
bírá	-10.9805
▁soudce	-10.9806
▁vládou	-10.9808
▁začínající	-10.9809
▁registr	-10.981
▁výběrové	-10.9812
EC	-10.9813
▁2,	-10.9818
▁25.	-10.9819
▁půd	-10.982
▁Naši	-10.982
▁Les	-10.9829
▁moravsk	-10.9829
▁zápisu	-10.9831
▁nájemní	-10.9833
ůj	-10.9833
▁experti	-10.9833
▁Svat	-10.9837
▁úrok	-10.9837
▁náročné	-10.9837
▁Platí	-10.9838
▁překlad	-10.984
▁zachoval	-10.9841
▁Celk	-10.9842
▁předpoklady	-10.9844
▁Cest	-10.9847
▁lidové	-10.9847
▁válka	-10.9847
▁výbuchu	-10.9856
rum	-10.9858
▁témat	-10.9858
▁díly	-10.986
▁samotné	-10.9861
▁nasazení	-10.9862
▁hotelů	-10.9863
▁Byli	-10.9867
▁Kovo	-10.9869
hlásí	-10.987
▁sbor	-10.9877
▁spory	-10.9877
▁papírů	-10.988
▁subjekt	-10.988
▁týmem	-10.9882
▁ikon	-10.9884
▁technika	-10.9887
▁fotbalu	-10.9887
▁orgán	-10.9888
▁vrcholu	-10.989
kolik	-10.9891
▁ziskem	-10.9894
▁technického	-10.9895
▁kritické	-10.9898
▁snahy	-10.99
▁výstavu	-10.9901
▁180	-10.9907
▁slovník	-10.9909
části	-10.9914
▁světlo	-10.9916
nechává	-10.9917
kář	-10.9923
▁komor	-10.9925
▁Mat	-10.9925
▁předvedl	-10.9932
▁měnové	-10.9932
▁obran	-10.9932
hel	-10.9933
▁osobě	-10.9938
▁sbír	-10.9939
lip	-10.994
▁úz	-10.9943
▁zákazu	-10.9944
▁21.	-10.9952
těl	-10.9953
▁procento	-10.9954
▁školení	-10.9956
▁48	-10.996
▁červené	-10.996
▁chová	-10.9961
usi	-10.9962
▁olympiád	-10.9962
▁skladb	-10.9971
▁agentur	-10.9971
▁typické	-10.9975
▁Malý	-10.9976
▁vstupní	-10.9981
▁kulturních	-10.9986
▁vložit	-10.9991
▁Výhod	-10.9993
▁vzdálené	-10.9996
▁programem	-10.9996
▁smut	-10.9997
▁nedělní	-11
▁hal	-11.0003
kových	-11.0011
▁připraveni	-11.0012
▁zas	-11.002
bran	-11.0027
▁hloubk	-11.0028
ávají	-11.0029
sed	-11.003
▁nájem	-11.0032
▁Šp	-11.0033
▁Oznámil	-11.0034
▁66	-11.0035
▁Chyb	-11.0037
▁Kol	-11.0044
▁zabývají	-11.0047
▁14.	-11.005
bíral	-11.0051
race	-11.0051
▁zaměstnanec	-11.0053
cem	-11.0058
▁republiku	-11.0059
▁určena	-11.0062
▁rozpor	-11.0066
▁kabinet	-11.0066
▁našim	-11.0069
▁aktivita	-11.007
▁Problém	-11.007
▁sortiment	-11.0071
▁poskytnut	-11.0072
OST	-11.0073
▁Možnost	-11.0073
LU	-11.0076
▁trvalo	-11.0079
▁daný	-11.008
▁trati	-11.0082
ějších	-11.0084
▁okrese	-11.0099
▁obrazovk	-11.01
▁odpovědn	-11.0101
cházejí	-11.0105
▁malého	-11.0108
▁snížen	-11.0109
vyšších	-11.011
▁vzhled	-11.0113
▁zvolil	-11.0123
▁poznat	-11.0128
▁utrpěl	-11.013
▁většího	-11.0131
▁Mas	-11.0135
bývající	-11.0136
▁Rakušan	-11.0141
▁Thajsk	-11.0141
▁Vedoucí	-11.0141
▁dodatečně	-11.0141
▁důležitá	-11.0141
▁fotoaparát	-11.0141
▁franků	-11.0141
▁inspekce	-11.0141
▁instalace	-11.0141
▁konstrukce	-11.0141
▁majetkem	-11.0141
▁pohledávek	-11.0141
▁redakce	-11.0141
▁stupňů	-11.0141
▁upozornit	-11.0141
▁vyšetření	-11.0141
▁Bejbl	-11.0141
▁Průměrn	-11.0141
▁pojmů	-11.0141
▁zkratk	-11.0141
▁stovek	-11.0141
▁přežít	-11.0141
▁vojsk	-11.0141
▁DPH	-11.0141
▁sehrál	-11.0141
▁audio	-11.0141
▁certifikát	-11.0141
▁jedince	-11.0141
▁Řešení	-11.0141
▁Asociac	-11.0141
▁uváděn	-11.0141
▁Prostě	-11.0141
▁kvalifikační	-11.0141
▁sněhov	-11.0141
▁1984	-11.0141
▁restaurace	-11.0141
▁formální	-11.0141
▁1968	-11.0141
▁Rád	-11.0142
▁nejmenší	-11.0142
▁1986	-11.0142
▁poznatků	-11.0142
▁složité	-11.0142
▁nohy	-11.0143
▁kvalifikovan	-11.0143
▁Tedy	-11.0143
▁spolupracovat	-11.0143
▁května	-11.0144
▁nápis	-11.0144
nutit	-11.0144
▁legislativní	-11.0144
▁marně	-11.0145
▁chápat	-11.0145
▁žáků	-11.0145
▁III	-11.0145
▁3,5	-11.0146
▁Bill	-11.0146
▁rychlejší	-11.0147
▁Sovětský	-11.0149
▁mírový	-11.0149
▁podzemní	-11.0149
▁DEM	-11.015
vádějí	-11.015
▁vyvolat	-11.015
▁užitek	-11.0151
▁upravit	-11.0151
▁Belgie	-11.0151
▁platební	-11.0152
▁nájemce	-11.0152
▁krátký	-11.0152
▁Potom	-11.0152
▁ruku	-11.0154
▁manželka	-11.0154
▁volbami	-11.0157
▁rozložení	-11.0158
▁odstranění	-11.0159
▁bilance	-11.0162
▁tráv	-11.0162
▁Nejen	-11.0163
▁zaplatil	-11.0163
▁oznámení	-11.0164
▁měny	-11.0165
▁Vítěz	-11.0168
▁jevů	-11.0168
cová	-11.017
▁reagoval	-11.0173
▁základním	-11.0174
PS	-11.0176
▁Lux	-11.0176
▁Jedná	-11.0176
▁elektřiny	-11.0177
▁polohy	-11.0178
▁osobností	-11.0179
▁Nejdřív	-11.018
▁sociálně	-11.018
▁výstavbu	-11.0181
▁poslanecké	-11.0181
▁Německem	-11.0181
▁hrubého	-11.0186
▁samotný	-11.0187
▁podklad	-11.0188
▁týdeník	-11.0188
▁návštěvy	-11.0189
▁ostrovy	-11.0189
sáhl	-11.0191
▁Japonsku	-11.0192
▁Výstava	-11.0197
▁vím	-11.0199
▁demokratů	-11.0199
▁jmen	-11.0201
▁linky	-11.0202
tisícov	-11.0204
▁koalici	-11.0206
chodu	-11.0207
letí	-11.021
▁vedlo	-11.0212
▁kapacity	-11.0214
▁stejná	-11.0214
▁bezprostřední	-11.0218
▁uplynulý	-11.0218
▁oborů	-11.022
▁půdu	-11.0223
▁orgánu	-11.0223
▁trvalé	-11.0226
▁centrál	-11.023
tisknout	-11.0232
▁potřebu	-11.0236
▁výběrem	-11.0238
▁oceánu	-11.0241
▁51	-11.0244
▁svěřen	-11.0245
▁monitoru	-11.0247
▁držet	-11.0251
dáme	-11.0252
▁blíží	-11.0256
ářské	-11.0256
▁nastavit	-11.0256
▁Ste	-11.0262
▁předal	-11.0263
▁obvodu	-11.0264
▁fotbalových	-11.0268
▁velitel	-11.0269
▁primátora	-11.0271
tický	-11.0278
byl	-11.0278
▁skutečností	-11.028
▁Rady	-11.0282
zdrav	-11.0283
▁vůdce	-11.0283
▁Hr	-11.0284
▁skupinou	-11.0286
▁doplň	-11.0293
▁učí	-11.0293
ork	-11.0295
▁hvězdy	-11.0302
▁specializovan	-11.0302
▁evropského	-11.0302
▁skryt	-11.0303
▁Sol	-11.0303
cházelo	-11.0303
▁Met	-11.0304
▁konflikt	-11.0304
▁metru	-11.0307
▁obdobné	-11.0308
▁dokumenty	-11.0308
▁venkov	-11.0317
▁zvukové	-11.0318
stu	-11.0318
▁49	-11.0319
▁šedesáti	-11.032
ess	-11.0323
řídí	-11.0324
prodej	-11.0328
▁základy	-11.0328
▁sportovních	-11.033
▁plány	-11.0333
▁podstatný	-11.0336
graf	-11.0338
zákon	-11.034
▁údaj	-11.034
▁Boj	-11.034
▁Ben	-11.0341
snad	-11.0352
▁vzniknou	-11.0357
▁troj	-11.0359
▁uvedeno	-11.0359
▁koš	-11.0361
▁připustil	-11.0362
▁současném	-11.0368
▁mořský	-11.0368
▁stole	-11.0369
▁pozná	-11.037
▁zdravotnický	-11.0372
▁700	-11.0375
▁číst	-11.0376
▁Bílé	-11.0387
▁zahrad	-11.0389
dají	-11.0393
CA	-11.0393
▁vzrůst	-11.0395
▁rozvoji	-11.0397
▁známe	-11.0398
ováni	-11.0406
čela	-11.041
▁cit	-11.0412
▁češt	-11.0413
▁zlaté	-11.0414
tp	-11.0417
▁listy	-11.0418
▁rozliš	-11.0419
počíta	-11.043
▁silnic	-11.043
▁fotbalov	-11.043
▁Jediný	-11.0431
▁svobod	-11.0435
▁CS	-11.0436
▁vyloučen	-11.0438
▁historick	-11.0443
▁paliv	-11.0445
řek	-11.0445
znal	-11.0446
▁Celkov	-11.0446
▁dolar	-11.0447
▁dodavatele	-11.0448
▁délk	-11.0448
▁Stal	-11.045
▁německá	-11.0452
▁původním	-11.0457
▁dvojnásobn	-11.0457
▁alkohol	-11.046
▁zápis	-11.0461
70	-11.0461
▁podrob	-11.0466
jedna	-11.0466
▁dozvěděl	-11.0469
▁Nor	-11.047
▁raket	-11.0471
žijí	-11.0477
splnění	-11.0479
▁rozvod	-11.0479
poslední	-11.0479
čan	-11.048
místě	-11.0482
▁klientů	-11.0485
hruba	-11.049
▁Stran	-11.049
▁konečné	-11.0492
▁zbyl	-11.0495
išť	-11.0498
▁vybírá	-11.0498
▁malým	-11.0501
▁sjezd	-11.0507
▁minuty	-11.0507
▁ozdob	-11.051
▁Motor	-11.0512
89	-11.0518
▁motocykl	-11.0523
▁filozof	-11.0524
▁Moskva	-11.0525
▁23.	-11.0527
▁sedí	-11.0528
▁doporučuje	-11.0529
▁připravena	-11.0536
▁Dan	-11.0539
▁EuroTel	-11.0541
▁brambor	-11.0541
▁domnívají	-11.0541
▁energetik	-11.0541
▁firmám	-11.0541
▁hovořit	-11.0541
▁komponent	-11.0541
▁naštěstí	-11.0541
▁nežádoucí	-11.0541
▁označuje	-11.0541
▁posuzovat	-11.0541
▁převzít	-11.0541
▁spoluhráč	-11.0541
▁uplatnit	-11.0541
▁zázemí	-11.0541
▁odlišný	-11.0541
▁Poborský	-11.0541
▁Sociální	-11.0541
▁kamarád	-11.0541
▁nevědí	-11.0541
▁redaktor	-11.0541
▁viditeln	-11.0541
▁učinit	-11.0541
▁Domácí	-11.0541
▁Musel	-11.0541
▁zásilk	-11.0541
▁pokoušel	-11.0541
▁nestačil	-11.0541
▁sněžení	-11.0541
▁nejrychlejší	-11.0541
▁britsk	-11.0541
▁Šéf	-11.0541
▁slyšet	-11.0541
▁forem	-11.0541
▁prodlení	-11.0541
▁škál	-11.0541
▁Slavii	-11.0541
▁ztracen	-11.0541
▁vracet	-11.0541
▁rysy	-11.0541
▁dlouhodobý	-11.0541
▁stránek	-11.0541
▁obrazovce	-11.0541
▁dubnu	-11.0541
▁efektivní	-11.0541
▁radikální	-11.0542
▁Grand	-11.0542
▁záloh	-11.0542
▁studií	-11.0542
▁podílejí	-11.0542
▁přál	-11.0542
▁občanství	-11.0543
▁přizpůsobit	-11.0543
▁Vesel	-11.0543
▁zjistí	-11.0544
▁obrázku	-11.0545
▁klima	-11.0545
▁Číny	-11.0546
▁vstupné	-11.0546
▁plyne	-11.0547
kryl	-11.0549
▁stavbu	-11.0549
▁fronty	-11.055
▁Okresní	-11.055
▁Švédsk	-11.0551
▁pracovnice	-11.0551
▁Všechno	-11.0552
▁převoz	-11.0552
▁rejstříku	-11.0552
▁postoje	-11.0553
▁písemně	-11.0555
▁dobách	-11.0555
▁Kam	-11.0555
▁podnikat	-11.0556
▁každodenní	-11.0556
▁včerejším	-11.0558
▁prodloužení	-11.0559
▁regulace	-11.0559
▁demokraté	-11.0559
▁osvobození	-11.056
▁znalostí	-11.0561
▁zaznamenal	-11.0561
▁souhrn	-11.0562
▁Druhou	-11.0562
▁Roman	-11.0562
▁Zelen	-11.0563
▁Kalvoda	-11.0566
vát	-11.0568
▁Wimbledonu	-11.0569
▁ukládání	-11.0571
▁stěn	-11.0572
▁teplotě	-11.0572
▁summitu	-11.0572
▁předmětů	-11.0572
▁zbrojní	-11.0572
▁kritéria	-11.0573
▁poslal	-11.0573
▁chci	-11.0574
▁orientaci	-11.0577
▁čistý	-11.0577
▁úplné	-11.0578
▁nemovitosti	-11.058
▁náhradu	-11.0583
▁výjimky	-11.0584
▁zvěř	-11.0589
▁resortu	-11.059
▁obchodníci	-11.0593
žádají	-11.0594
▁překvapil	-11.0596
▁doklad	-11.0597
▁tvaru	-11.0597
▁předměty	-11.0599
tání	-11.0601
▁módní	-11.0602
▁jednalo	-11.0603
▁vůz	-11.0604
▁ztrátou	-11.0606
▁tvrd	-11.0607
▁smích	-11.061
▁potřeb	-11.0614
▁odbory	-11.0619
▁prvé	-11.062
jímá	-11.0622
▁sjezdu	-11.0622
▁uměle	-11.0623
▁snažili	-11.0623
▁věty	-11.0625
▁světov	-11.0625
▁divu	-11.0628
▁Pražského	-11.0628
▁sboru	-11.0629
stávají	-11.0629
▁představil	-11.063
▁zvuku	-11.0637
▁Mc	-11.0638
ovce	-11.0639
▁bolest	-11.0643
▁zrušen	-11.0644
▁textové	-11.0644
ston	-11.0645
▁návštěva	-11.0646
▁vstoupit	-11.0647
▁celkovém	-11.0647
▁všeobecné	-11.0652
▁světla	-11.0654
bře	-11.0657
▁dávk	-11.0658
▁konto	-11.0658
▁kandidáty	-11.066
▁požár	-11.0662
▁sestavení	-11.0664
▁ClipArt	-11.0665
▁hráli	-11.0666
enství	-11.0668
▁známých	-11.0676
▁ovlivňují	-11.068
▁13.	-11.068
▁Michaela	-11.068
▁mapy	-11.0681
konala	-11.0684
▁domluv	-11.0685
▁přestáv	-11.0686
▁planety	-11.0688
▁důkazy	-11.0688
▁úspory	-11.0688
▁Let	-11.0689
ána	-11.0689
▁rud	-11.0693
▁Ostravar	-11.0693
▁")	-11.0694
▁charakteru	-11.0694
▁bojů	-11.0694
stupují	-11.0694
ptal	-11.0695
▁zdi	-11.0696
▁Čechů	-11.0697
▁německém	-11.0698
VA	-11.0709
▁některý	-11.071
▁úkoly	-11.0713
▁64	-11.0719
▁špičkové	-11.0719
ED	-11.0719
▁samot	-11.072
▁tip	-11.0722
vice	-11.0723
▁příspěvk	-11.0724
noví	-11.0724
▁Moh	-11.0724
rušení	-11.0725
dom	-11.0727
▁předchozích	-11.0736
vládne	-11.0736
díl	-11.0737
▁Die	-11.074
36	-11.0741
▁důchod	-11.0743
▁investorů	-11.0752
▁olympijsk	-11.0756
praví	-11.0762
▁El	-11.0763
loží	-11.0768
▁maďarský	-11.0771
▁metra	-11.078
▁evropském	-11.078
▁drah	-11.0783
držet	-11.0785
▁47	-11.0786
▁aspekt	-11.0787
▁skládá	-11.079
stává	-11.0793
▁of	-11.0795
▁fyzikální	-11.08
▁naším	-11.0803
▁rozumn	-11.0805
▁Bor	-11.0807
myslí	-11.0807
Ile	-11.0808
▁kritik	-11.0809
▁chodb	-11.0809
71	-11.0809
▁procesor	-11.0809
jal	-11.081
▁úsek	-11.0812
▁účastník	-11.0813
▁Ján	-11.0816
▁vyhlášen	-11.0819
▁typický	-11.0827
prázdn	-11.0831
far	-11.0832
▁křiv	-11.0834
▁Sovětském	-11.0837
istický	-11.0838
▁podílí	-11.0841
▁prach	-11.0844
skými	-11.0845
▁pracovníka	-11.0846
▁koalic	-11.0847
▁výkonů	-11.085
▁Olomouc	-11.0855
▁okolnost	-11.0855
▁modern	-11.0865
▁žalob	-11.0866
▁obyvatele	-11.0869
ker	-11.087
▁autora	-11.0872
▁kart	-11.0873
▁magistrát	-11.0878
▁vysoko	-11.0878
▁zhorš	-11.0878
ňoval	-11.0878
14	-11.0882
▁objeven	-11.0882
▁Pražský	-11.089
▁krajan	-11.0891
▁mód	-11.0894
▁nedal	-11.0897
▁volejbal	-11.0901
▁mikro	-11.0904
▁sklo	-11.0909
▁uživatelů	-11.0913
▁scénář	-11.0917
af	-11.0917
▁ČS	-11.0918
stupující	-11.0918
eme	-11.0919
▁Jedn	-11.0923
pír	-11.0924
▁mechanismu	-11.0929
▁vámi	-11.0929
▁vyvíj	-11.093
enou	-11.093
schválila	-11.0931
▁jevy	-11.094
šetřit	-11.0943
▁oleje	-11.0943
hodnotit	-11.0943
jedná	-11.095
ŘÍ	-11.0952
part	-11.0952
▁společník	-11.0953
▁služební	-11.0954
čern	-11.0955
▁nádor	-11.0957
▁statut	-11.0957
▁nejstarší	-11.0957
▁Intergraph	-11.0957
▁Lebeď	-11.0957
▁Pithart	-11.0957
▁Srbů	-11.0957
▁Zjuganov	-11.0957
▁asistent	-11.0957
▁bližší	-11.0957
▁církvi	-11.0957
▁konferencí	-11.0957
▁nábytku	-11.0957
▁nárůst	-11.0957
▁odpovědí	-11.0957
▁ovlivněn	-11.0957
▁reagovat	-11.0957
▁schůzi	-11.0957
▁softwaru	-11.0957
▁strategii	-11.0957
▁zpátky	-11.0957
▁zálivu	-11.0957
▁říjnu	-11.0957
▁žádoucí	-11.0957
▁CADKON	-11.0957
▁Mazda	-11.0957
▁vyznačuj	-11.0957
▁nezaměstnaných	-11.0957
▁nízká	-11.0957
▁zpomal	-11.0957
▁dokáží	-11.0957
▁jazz	-11.0957
▁technologii	-11.0957
▁splnit	-11.0957
▁Mencl	-11.0957
▁Vídni	-11.0957
▁dědictví	-11.0957
▁uzavírá	-11.0957
▁zůstanou	-11.0957
▁zazněl	-11.0957
▁kombinaci	-11.0958
▁navrhnout	-11.0958
▁stůl	-11.0958
▁diagram	-11.0958
▁Praktick	-11.0958
▁rozsáhlý	-11.0958
▁maximum	-11.0958
▁zařadil	-11.0958
▁Charles	-11.0958
▁komunikaci	-11.0958
▁kondom	-11.0958
▁vrchní	-11.0958
▁chlap	-11.0958
▁délce	-11.0958
▁ligové	-11.0958
▁vytvářejí	-11.0958
▁otevírá	-11.0958
▁nastat	-11.0959
▁Vstup	-11.096
▁bance	-11.096
▁okresů	-11.096
▁Finanční	-11.096
▁kontakt	-11.096
▁zahrnut	-11.096
▁podmíněn	-11.096
▁otec	-11.096
▁komunální	-11.096
▁zvolit	-11.0961
charakterizuj	-11.0961
▁vyrovnal	-11.0962
▁kreslení	-11.0962
novými	-11.0963
biologie	-11.0963
▁odmítají	-11.0963
▁nejvýše	-11.0964
▁pochopit	-11.0964
být	-11.0964
▁blesk	-11.0965
▁Brazílie	-11.0965
▁pohybovat	-11.0965
▁Polsko	-11.0966
▁Stručně	-11.0966
▁živočichů	-11.0966
▁hrd	-11.0967
▁ponechat	-11.0967
▁splatnosti	-11.0968
▁obchodování	-11.0969
▁kilogramů	-11.0969
▁respektovat	-11.0972
kryje	-11.0972
▁odejít	-11.0973
▁vkladů	-11.0974
iner	-11.0975
▁váh	-11.0978
▁dočasně	-11.0979
▁Chci	-11.0982
▁soust	-11.0982
▁pádu	-11.0982
▁Postup	-11.0982
▁Nic	-11.0983
▁energetické	-11.0986
▁postižených	-11.0986
oprvé	-11.0986
hem	-11.0987
▁kontrole	-11.0988
▁uložit	-11.0988
pisuje	-11.0988
▁statistické	-11.0991
▁zakázky	-11.0991
▁dokončení	-11.0992
▁poskytování	-11.0992
▁potřebujeme	-11.0992
▁jistou	-11.0994
příkladu	-11.0995
▁zastavení	-11.0996
▁závodní	-11.0996
▁Vít	-11.0996
▁Spor	-11.1001
▁padesátých	-11.1001
▁představoval	-11.1003
▁vyhlášení	-11.1007
▁zaplacení	-11.1007
▁Kniha	-11.1009
▁účinnosti	-11.1013
▁kongresu	-11.1014
čila	-11.1015
▁projeví	-11.1018
▁anglické	-11.1019
▁trpí	-11.1021
▁řešením	-11.1021
▁vozidla	-11.1022
▁schématu	-11.1022
▁titulů	-11.1023
▁KB	-11.1024
▁míra	-11.1025
▁Har	-11.1028
▁niž	-11.103
krás	-11.1033
▁katolické	-11.1035
▁nemocný	-11.1037
▁lidu	-11.1037
▁užit	-11.1039
▁Bank	-11.1042
▁předcházel	-11.1043
▁valné	-11.1046
▁listů	-11.1046
▁hale	-11.1051
lci	-11.1053
měl	-11.1054
▁specifické	-11.1055
lic	-11.1055
▁uvede	-11.1058
▁rodinu	-11.1061
▁vzá	-11.1065
▁šíř	-11.1066
▁zaměřen	-11.1068
vající	-11.1068
▁Rozhod	-11.1071
▁testy	-11.1072
▁předpokladu	-11.1075
▁nebezpečný	-11.1075
hodit	-11.1077
▁nápady	-11.108
bírají	-11.1083
▁dokázali	-11.1086
losování	-11.1092
▁Než	-11.1095
▁klíče	-11.1097
▁určení	-11.1106
▁jest	-11.1107
▁čtenáři	-11.1107
▁vyv	-11.1108
Severoatlantické	-11.1108
ďte	-11.1109
▁brankáře	-11.1113
▁růstem	-11.1114
▁tváří	-11.1117
nějších	-11.1117
▁sousedů	-11.1119
▁uplynul	-11.1121
▁snaz	-11.1123
▁sezón	-11.1124
▁hotely	-11.1125
▁Jistě	-11.1125
▁obtížně	-11.1131
▁zabývající	-11.1134
dová	-11.1135
▁reprezentanti	-11.1135
řízení	-11.1135
pochyby	-11.1139
▁zajímavý	-11.1143
▁podnikatelsk	-11.1145
▁britský	-11.1146
NO	-11.1146
▁objevily	-11.1148
▁pr	-11.1153
▁společných	-11.1153
▁pravidelné	-11.1153
▁neměly	-11.1155
árně	-11.1156
▁šla	-11.1157
▁Prvním	-11.1158
▁přijímá	-11.1158
▁jazyka	-11.1159
▁bývají	-11.1161
rst	-11.1161
▁vědu	-11.1163
▁přijala	-11.1164
▁spotřebitele	-11.117
▁osudu	-11.1172
▁stejných	-11.1176
▁přítomn	-11.1177
▁ST	-11.1179
▁zvýšila	-11.1181
98	-11.1181
vané	-11.1181
▁vznikající	-11.1186
▁odmítli	-11.1189
▁odpovídal	-11.1189
2.	-11.1191
▁Fotbal	-11.1194
7,	-11.1194
▁ÚV	-11.1195
▁zvukov	-11.1197
▁stála	-11.12
▁reklam	-11.1201
OP	-11.1206
▁bíl	-11.1209
ečná	-11.1211
▁zeměmi	-11.1213
▁0,	-11.1217
▁pokusy	-11.1219
▁dosti	-11.1222
▁Svobod	-11.1225
▁únik	-11.1227
▁nazýva	-11.1227
▁našli	-11.1232
▁Johna	-11.124
▁přidal	-11.1241
ánek	-11.1245
▁schéma	-11.1249
▁chlad	-11.125
▁provede	-11.1251
stávat	-11.1252
loni	-11.1253
▁zvířata	-11.1254
▁zahájen	-11.1254
▁výchov	-11.1257
pustili	-11.1258
ěné	-11.1261
▁vázán	-11.1261
▁expert	-11.1262
▁Rok	-11.1264
▁každým	-11.1271
▁pout	-11.1278
▁astronomi	-11.128
▁Volb	-11.128
▁vytvořen	-11.1281
▁Paříž	-11.1282
díval	-11.1282
▁odchod	-11.1283
▁císaře	-11.1284
▁zmizel	-11.1288
▁Host	-11.1289
▁znak	-11.129
▁uvědom	-11.1293
▁nemám	-11.1294
telné	-11.1301
▁divák	-11.1302
▁vládních	-11.1302
▁ja	-11.1303
▁jmenuje	-11.1304
▁hráčem	-11.1309
▁fotograf	-11.1309
kupovat	-11.1311
▁katolick	-11.1312
▁beze	-11.1313
▁hrdin	-11.1315
▁dres	-11.1319
▁nevěděl	-11.1321
▁novinářů	-11.1321
▁knihovn	-11.1323
▁dividend	-11.1323
:3	-11.1324
▁cestující	-11.1326
▁požadovaný	-11.1328
▁Zemana	-11.1329
ivost	-11.1329
▁1994.	-11.1331
▁návrhů	-11.1331
▁von	-11.1335
▁konkrétním	-11.1335
bytí	-11.1336
▁sedmnáct	-11.1337
▁urychlen	-11.1338
▁duch	-11.1342
▁pokládá	-11.1342
▁získává	-11.1345
může	-11.1348
▁prováděn	-11.1348
▁teplot	-11.1351
▁pracující	-11.1353
bojí	-11.1358
celku	-11.136
▁jakož	-11.1362
▁Žádn	-11.1362
▁ostr	-11.1366
sion	-11.1372
▁šestnácti	-11.1383
▁jízd	-11.1385
▁klíčový	-11.1385
▁kraj	-11.1386
hý	-11.1388
nášejí	-11.1388
▁říkají	-11.1389
▁pozdě	-11.139
▁nižších	-11.1392
dostatečnou	-11.1392
střílel	-11.1392
▁Bratislava	-11.1392
▁Demokratick	-11.1392
▁Majitel	-11.1392
▁Nedvěd	-11.1392
▁Ostatní	-11.1392
▁Počítač	-11.1392
▁Tigrid	-11.1392
▁byznys	-11.1392
▁charakteristik	-11.1392
▁cizince	-11.1392
▁galerii	-11.1392
▁hlubší	-11.1392
▁hypotéz	-11.1392
▁kompetence	-11.1392
▁konstatuje	-11.1392
▁literární	-11.1392
▁metropole	-11.1392
▁nejmodernější	-11.1392
▁nejznámější	-11.1392
▁nominální	-11.1392
▁polojasno	-11.1392
▁požadoval	-11.1392
▁požadovat	-11.1392
▁semifinále	-11.1392
▁složek	-11.1392
▁strategií	-11.1392
▁udržuje	-11.1392
▁vyhovuje	-11.1392
▁zveřejnil	-11.1392
▁údolí	-11.1392
▁šablon	-11.1392
▁Dříve	-11.1392
▁divadle	-11.1392
▁otevřít	-11.1392
▁počínaj	-11.1392
▁stránky	-11.1392
▁vystřídal	-11.1392
▁kodex	-11.1392
▁nevidí	-11.1392
▁poplatek	-11.1392
▁doporučil	-11.1392
▁představenstva	-11.1392
▁vyrovnat	-11.1392
▁Komerčn	-11.1392
▁stoupá	-11.1392
▁Jugoslávie	-11.1392
▁Prodej	-11.1392
▁čtvrteční	-11.1392
▁štáb	-11.1392
▁NDR	-11.1392
▁počkat	-11.1392
▁nejhorší	-11.1392
▁fotografie	-11.1392
▁nápoj	-11.1393
▁Mimo	-11.1393
▁přijme	-11.1393
▁nátlak	-11.1393
▁Maďarsku	-11.1393
▁generací	-11.1393
▁malíř	-11.1393
▁ekonomická	-11.1393
▁radnici	-11.1393
▁Marie	-11.1393
▁bohatství	-11.1393
▁Začal	-11.1393
▁jezdit	-11.1393
▁lodi	-11.1393
▁vyhnout	-11.1393
▁logické	-11.1394
▁Ruml	-11.1394
▁nedostatku	-11.1394
▁neděle	-11.1394
▁Uveden	-11.1395
▁obřad	-11.1395
▁dešti	-11.1395
▁podobná	-11.1396
▁peset	-11.1396
▁uvědomit	-11.1397
▁členům	-11.1398
▁cement	-11.1398
▁předcházející	-11.1398
▁armádě	-11.14
▁novinách	-11.14
nášel	-11.14
▁Africe	-11.14
▁okresy	-11.1401
▁přelom	-11.1401
▁položky	-11.1401
▁podílet	-11.1401
▁překvapivě	-11.1401
▁prodejny	-11.1402
▁oborech	-11.1403
▁závazky	-11.1403
▁Žid	-11.1404
▁změnám	-11.1404
▁zvaný	-11.1405
▁složitý	-11.1405
ukce	-11.1406
▁centimetrů	-11.1406
▁kvalitou	-11.1407
▁tabulka	-11.1408
▁uvádějí	-11.1408
wan	-11.141
▁vojáci	-11.1411
▁nemovitostí	-11.1411
▁provedl	-11.1412
▁průběžn	-11.1412
▁ukládá	-11.1412
▁oddíl	-11.1412
▁verzí	-11.1412
▁dodržování	-11.1414
▁vyjde	-11.1414
▁fotbalisté	-11.1414
▁obsluh	-11.1418
▁plánování	-11.1418
▁seriálu	-11.1419
▁šed	-11.142
▁Dopravní	-11.1421
▁mládeže	-11.1422
▁skalní	-11.1424
▁návštěvnost	-11.1425
▁ocenění	-11.1428
▁výměnu	-11.1428
▁referendum	-11.143
▁zdravotním	-11.143
ručí	-11.1431
▁řekne	-11.1431
▁přidat	-11.1431
▁tvarů	-11.1432
▁zkušební	-11.1434
▁Excelu	-11.1434
▁obav	-11.1434
▁propojení	-11.1438
▁vozu	-11.1438
▁premiéru	-11.1438
▁Aleš	-11.1442
▁potravinářské	-11.1442
▁hmotnosti	-11.1443
▁tiskov	-11.1444
▁trenérů	-11.1447
visí	-11.1448
▁novely	-11.1449
▁zubní	-11.1449
▁lesa	-11.1451
▁přijatelné	-11.1452
iletá	-11.1455
▁menu	-11.1455
▁fa	-11.1456
▁hrou	-11.1457
▁Budou	-11.1457
▁budově	-11.1462
▁tvrdil	-11.1463
▁elektron	-11.1463
▁dolů	-11.1465
▁materiálem	-11.1466
▁vedoucích	-11.1466
kování	-11.1466
▁zřízení	-11.1467
▁stadiónu	-11.147
▁dav	-11.1474
kají	-11.1475
CP	-11.1475
▁podzimní	-11.1475
ících	-11.1476
rej	-11.1476
▁magistrátu	-11.1477
berg	-11.1479
▁procesoru	-11.1482
▁Potřebuje	-11.1484
koupil	-11.1488
▁prázdnin	-11.1489
platí	-11.1489
▁energetický	-11.149
▁komu	-11.149
▁odešl	-11.1492
▁studenty	-11.1495
▁narazil	-11.1495
▁výhodu	-11.1498
▁západním	-11.15
▁známá	-11.1503
▁evropským	-11.1505
▁SV	-11.1505
▁předchozím	-11.1508
▁zdát	-11.1509
▁krokem	-11.151
oma	-11.1516
ini	-11.1518
▁vlast	-11.1518
▁čínský	-11.1521
▁celostátní	-11.1521
▁vloni	-11.1522
▁básník	-11.1526
▁obchodníků	-11.1526
▁strávil	-11.1528
▁odpovědnosti	-11.1529
▁starého	-11.153
▁projevy	-11.1532
▁jugoslávské	-11.1534
▁dopise	-11.1536
▁aktivitu	-11.1538
▁stávající	-11.1538
▁volí	-11.154
▁rozpočtové	-11.1542
▁podpořit	-11.1544
▁stě	-11.1546
▁zvýšily	-11.1546
▁ředitelem	-11.1548
▁záměry	-11.1549
▁ekologický	-11.1551
▁sestavy	-11.1551
▁barva	-11.1554
▁vytvořila	-11.1554
ČNÍ	-11.1554
▁prožil	-11.1557
přijeli	-11.1559
▁přírodního	-11.1559
razil	-11.156
▁ranní	-11.1561
▁tvůrc	-11.1564
▁úpravu	-11.1565
▁snadné	-11.1566
plynul	-11.1567
▁muselo	-11.1572
▁černý	-11.1576
▁plocha	-11.1587
▁doplňk	-11.1587
▁přehledu	-11.1589
▁5000	-11.159
▁jedenácti	-11.1594
ingu	-11.1596
▁objevili	-11.1598
ložili	-11.1598
▁klasick	-11.1599
▁syna	-11.1603
▁správce	-11.1606
IP	-11.1608
▁chyt	-11.1615
hlédnout	-11.1617
cal	-11.1618
▁procesy	-11.1619
▁28.	-11.162
PT	-11.1623
▁specifik	-11.1624
▁Případ	-11.1624
▁pedagog	-11.1629
68	-11.1631
elů	-11.1632
otisk	-11.1634
DOS	-11.1635
▁závody	-11.1637
zaměstnan	-11.1642
dent	-11.1643
▁43	-11.1643
▁krajin	-11.1644
▁omyl	-11.1648
▁fyzika	-11.1663
▁týdenní	-11.1667
▁horské	-11.1668
zích	-11.1672
zývají	-11.1673
▁jist	-11.1683
▁Pen	-11.1689
▁výtvarné	-11.169
▁rozpad	-11.1696
▁rozhodnutím	-11.1696
▁člověku	-11.1698
▁významným	-11.1699
▁DO	-11.1699
měnit	-11.1701
▁obrazy	-11.1701
▁přesvědčiv	-11.1703
▁Char	-11.1711
▁konkrétních	-11.1716
▁kroku	-11.1718
▁kout	-11.1722
▁zmíněn	-11.1723
▁Mé	-11.1724
▁kuponov	-11.1724
čené	-11.1728
▁datové	-11.1729
▁Karlový	-11.1736
tická	-11.174
roj	-11.1746
▁minulost	-11.1747
▁Své	-11.1753
▁99	-11.1753
75	-11.1754
▁prac	-11.1754
▁jednáních	-11.1758
▁Win	-11.176
▁přesvědč	-11.176
▁probíhal	-11.1762
▁vyskytují	-11.1765
▁Fond	-11.1765
▁stadión	-11.1766
▁údržb	-11.1766
▁okruh	-11.1766
íků	-11.1767
▁260	-11.1768
ejít	-11.1771
▁texty	-11.1775
▁loňsk	-11.1775
▁sledoval	-11.1775
▁ideál	-11.1777
▁náročný	-11.1778
▁volebním	-11.1779
IST	-11.1779
off	-11.1781
▁setká	-11.1782
▁kapel	-11.1789
líbil	-11.179
▁prodejem	-11.1792
▁fakta	-11.1797
▁slab	-11.1799
▁seminář	-11.1799
▁Karlov	-11.1802
▁dřev	-11.1803
▁stín	-11.1806
rez	-11.181
▁svobodné	-11.1812
▁každoročn	-11.1814
▁grafik	-11.1815
▁doplněn	-11.1815
▁převážn	-11.1818
lčí	-11.182
▁vědeck	-11.182
▁kamer	-11.1827
▁výhodn	-11.1827
▁přesahuj	-11.183
ografie	-11.1835
HA	-11.1838
▁Graf	-11.1838
▁softwarov	-11.1839
▁závažný	-11.184
▁neumí	-11.1842
▁zpěv	-11.1843
▁strážník	-11.1843
látka	-11.1846
▁design	-11.1847
▁neuspěl	-11.1847
FIFA	-11.1847
připravoval	-11.1847
▁1982	-11.1847
▁Dienstbier	-11.1847
▁Dosavadní	-11.1847
▁Fischer	-11.1847
▁Poldi	-11.1847
▁Siemens	-11.1847
▁Skupina	-11.1847
▁biskup	-11.1847
▁dodávek	-11.1847
▁družstvo	-11.1847
▁družstvu	-11.1847
▁geometrii	-11.1847
▁inflaci	-11.1847
▁naznačuje	-11.1847
▁normálně	-11.1847
▁označován	-11.1847
▁přiznává	-11.1847
▁regenerace	-11.1847
▁rekonstrukce	-11.1847
▁rozšiřuje	-11.1847
▁rámečku	-11.1847
▁seznámit	-11.1847
▁shodují	-11.1847
▁skupenství	-11.1847
▁službě	-11.1847
▁stránku	-11.1847
▁zúčastnit	-11.1847
▁Štědrý	-11.1847
▁Kongres	-11.1847
▁Náklady	-11.1847
▁konstrukcí	-11.1847
▁posléze	-11.1847
▁skromn	-11.1847
▁vládnoucí	-11.1847
▁zákrok	-11.1847
▁čistíren	-11.1847
▁Armád	-11.1847
▁usiluje	-11.1847
▁uznat	-11.1847
▁vstupenek	-11.1847
▁Bavor	-11.1847
▁vazeb	-11.1847
▁nabídkou	-11.1847
▁žádat	-11.1847
▁velvyslanectví	-11.1847
▁jindy	-11.1847
▁hrůz	-11.1847
▁Manžel	-11.1847
▁leckd	-11.1847
▁vazba	-11.1847
▁Varech	-11.1847
▁Dušan	-11.1847
▁nepotřebuje	-11.1847
▁tribunál	-11.1847
▁náhlé	-11.1847
▁duševní	-11.1847
▁Slavia	-11.1847
▁salát	-11.1847
▁směřuje	-11.1847
▁transformační	-11.1847
▁spoléha	-11.1847
▁integrace	-11.1847
krácen	-11.1847
▁rozmístěn	-11.1847
▁nesporn	-11.1848
▁regulační	-11.1848
▁chuť	-11.1848
▁chaos	-11.1848
▁Rozhodnutí	-11.1848
▁ohně	-11.1848
střelen	-11.1848
▁podrobnosti	-11.1848
▁nejsem	-11.1848
▁způsobů	-11.1849
▁atmosféra	-11.1849
▁Závod	-11.1849
▁přejít	-11.1849
▁památek	-11.1849
▁informován	-11.1849
allye	-11.185
lské	-11.185
ckner	-11.185
▁turné	-11.185
▁napaden	-11.185
▁nedošlo	-11.185
▁kontrolovat	-11.185
▁Bělohradský	-11.185
▁svatb	-11.1851
▁druhému	-11.1851
▁Mečiar	-11.1852
▁Těžko	-11.1853
▁Milán	-11.1853
▁slunce	-11.1853
těsn	-11.1854
Přerov	-11.1854
▁zajistí	-11.1857
▁souhlasit	-11.1857
▁Nadace	-11.1858
▁středisko	-11.1858
▁faktory	-11.1858
▁kůže	-11.1859
▁stíhán	-11.1861
▁sedimentů	-11.1861
▁sedmdesátých	-11.1861
▁přeměn	-11.1861
▁pěkně	-11.1862
▁plná	-11.1862
▁spotřebu	-11.1862
▁Krát	-11.1863
▁kdykoliv	-11.1865
▁velkoobchod	-11.1865
▁matka	-11.1865
ica	-11.1865
▁šedesátých	-11.1867
kurzor	-11.1868
▁dokázat	-11.1868
▁pravděpodobné	-11.1868
▁upozornění	-11.1868
▁armádu	-11.1868
▁zaslouží	-11.1869
▁trvající	-11.187
▁ohrožen	-11.1871
▁středisku	-11.1872
▁Los	-11.1872
▁švédské	-11.1873
▁literatury	-11.1874
▁zbytky	-11.1874
▁spojů	-11.1875
▁mlad	-11.1878
▁polské	-11.1879
▁moři	-11.1879
▁zveřejnění	-11.1881
▁olympiádě	-11.1881
tratil	-11.1881
▁pouč	-11.1883
▁dostaneme	-11.1883
▁násiln	-11.1884
▁zatčen	-11.1885
▁dotazník	-11.1887
▁interní	-11.1888
▁Děl	-11.1889
vedli	-11.189
▁luxusní	-11.189
▁kg	-11.1895
▁slibuje	-11.1895
▁cel	-11.1898
schopné	-11.1898
▁značná	-11.1898
▁anglický	-11.1898
▁spojit	-11.19
▁univerzitě	-11.19
▁mise	-11.1902
▁postupovat	-11.1903
▁žijí	-11.1904
ičtější	-11.1907
▁uživatelé	-11.1907
stanou	-11.1908
▁sféry	-11.1909
▁senátní	-11.1911
▁závažné	-11.1912
▁figur	-11.1912
▁nešlo	-11.1915
rážky	-11.1916
▁zuby	-11.1919
▁dividendy	-11.1919
▁odborn	-11.192
▁tlakem	-11.192
▁zničení	-11.1921
▁rozhovorů	-11.1922
▁činů	-11.1923
▁spojuje	-11.1924
▁fotbalista	-11.1924
▁jednal	-11.1925
▁doklady	-11.1925
▁top	-11.1926
▁olympiády	-11.1929
▁popisuje	-11.1929
▁záruky	-11.1931
▁metodou	-11.1934
▁zásadě	-11.1935
▁elektro	-11.1937
▁příspěvku	-11.1937
▁zprávě	-11.1938
rp	-11.1939
▁alkoholu	-11.194
▁zodpovědnost	-11.1942
například	-11.1943
▁výstavní	-11.1944
▁nutnosti	-11.1947
▁Konce	-11.1948
▁způsoben	-11.1948
▁Bulharsk	-11.1949
▁krátk	-11.1949
▁klienty	-11.195
▁uspořádal	-11.195
▁garant	-11.1951
pozn	-11.1951
ňovat	-11.1951
▁Fotbalist	-11.1951
měrně	-11.1952
▁Asie	-11.1952
▁mateřské	-11.1954
▁silným	-11.1956
DI	-11.1956
▁úspěchem	-11.1956
▁samy	-11.1956
▁ducha	-11.1957
▁strategické	-11.1958
mět	-11.1959
▁argumenty	-11.196
▁Car	-11.1961
▁Změny	-11.1962
ÁT	-11.1963
▁Lékaři	-11.1967
▁zub	-11.1969
▁pacienti	-11.1972
▁obory	-11.1973
▁stopy	-11.1973
▁výnosy	-11.1973
▁fyzik	-11.1979
▁smluv	-11.1979
▁přirozený	-11.1982
▁městského	-11.1985
dol	-11.1989
▁chladn	-11.199
▁prohráli	-11.1991
▁měří	-11.2001
▁proudu	-11.2001
▁trvání	-11.2002
▁pojistného	-11.2003
potřebě	-11.2003
▁nastala	-11.2006
▁psycholog	-11.2009
▁špatný	-11.2011
▁množstvím	-11.2011
▁tělesné	-11.2015
tle	-11.2015
▁závěrečném	-11.2018
▁příslušného	-11.2018
▁As	-11.2019
VI	-11.202
▁slovem	-11.2022
teče	-11.2023
▁republikou	-11.2025
ino	-11.2025
večer	-11.2025
▁minutě	-11.2029
▁daních	-11.2029
▁podepsali	-11.2034
tažení	-11.2036
▁souboj	-11.2037
▁propad	-11.2038
stoupit	-11.2041
▁Mí	-11.2042
danou	-11.2042
▁přípravu	-11.2046
▁klíčové	-11.205
▁zahájením	-11.2054
▁temp	-11.2054
mana	-11.2055
▁manažerské	-11.2055
▁poradensk	-11.2056
▁automobilový	-11.2064
psat	-11.2072
▁nějakém	-11.2073
tiky	-11.2073
▁šel	-11.2073
▁vlak	-11.2078
▁Rozhodn	-11.2082
dělat	-11.209
▁smí	-11.2094
▁získaný	-11.2097
▁52	-11.2098
▁návrhem	-11.2098
▁úspěchy	-11.2103
nder	-11.2113
▁předmět	-11.2116
▁úředník	-11.2117
▁závodník	-11.2119
▁ekonomického	-11.2121
▁Výrob	-11.2124
▁propadl	-11.2125
▁původ	-11.2127
▁tenisové	-11.2132
milión	-11.2147
▁přím	-11.2152
▁jinému	-11.2153
▁Poslanec	-11.2156
▁připraveny	-11.2156
jíždí	-11.2158
▁podlehl	-11.2159
▁horský	-11.216
▁známým	-11.2162
▁Nemoh	-11.2164
ební	-11.2164
šování	-11.2166
▁takovému	-11.2168
▁svazové	-11.2169
ván	-11.2176
▁zajímav	-11.2179
isty	-11.2183
▁personál	-11.2185
21	-11.2186
hrají	-11.2187
▁výuk	-11.2187
▁nemohla	-11.2189
▁mez	-11.2189
▁red	-11.2195
▁efektu	-11.2199
▁Tomu	-11.2201
▁matematik	-11.2202
▁rizik	-11.2208
▁dělal	-11.2211
▁Med	-11.2216
▁900	-11.2218
▁kroků	-11.2219
▁zvláštním	-11.2219
▁hlásí	-11.2222
▁útočník	-11.2223
▁Kanad	-11.2225
ozi	-11.223
26	-11.2235
▁Karadžiče	-11.2237
▁prestiž	-11.2237
▁plát	-11.2238
▁narozen	-11.2239
▁pokrok	-11.224
▁staro	-11.2241
▁Washington	-11.2243
▁prezidentský	-11.2247
▁zničen	-11.2247
kova	-11.2249
▁získáva	-11.2249
▁strop	-11.2251
▁důvěry	-11.2258
▁zlatý	-11.226
▁sedmdesát	-11.2266
▁prokázal	-11.2266
▁pokryt	-11.2267
▁balík	-11.2268
▁užívá	-11.227
▁vánoc	-11.2271
▁zaručen	-11.2272
ight	-11.2274
▁plném	-11.2274
▁Vlast	-11.2275
▁vašem	-11.2277
zřetelně	-11.2278
▁22.	-11.2279
▁dosavadních	-11.228
▁Objekt	-11.2284
▁oceněn	-11.2285
▁(2	-11.2287
▁svobodný	-11.2288
▁taky	-11.229
▁veden	-11.2294
▁řízen	-11.2295
▁Mel	-11.2297
▁sektor	-11.2298
cvič	-11.2299
jdu	-11.2299
následoval	-11.2299
▁nerv	-11.2304
rozměr	-11.2307
▁brněnsk	-11.2308
šetří	-11.2309
▁vyřešen	-11.2312
anti	-11.2312
nejvýš	-11.2316
nutil	-11.2317
▁Vaše	-11.2319
▁volb	-11.232
▁Zálež	-11.2322
▁organizáto	-11.2323
zřídka	-11.2323
▁Jindřich	-11.2323
▁Kreslení	-11.2323
▁aplikaci	-11.2323
▁důležitou	-11.2323
▁fosilní	-11.2323
▁kanalizace	-11.2323
▁kariéru	-11.2323
▁komunistů	-11.2323
▁konkurent	-11.2323
▁lehké	-11.2323
▁obrátit	-11.2323
▁ovlivnit	-11.2323
▁podmínkám	-11.2323
▁popularit	-11.2323
▁přirozeně	-11.2323
▁referenda	-11.2323
▁rubrik	-11.2323
▁snižovat	-11.2323
▁svědky	-11.2323
▁ubytovací	-11.2323
▁výpovědi	-11.2323
▁zneužití	-11.2323
▁Blízké	-11.2323
▁Michail	-11.2323
▁stupeň	-11.2323
▁jedinců	-11.2323
▁klobouk	-11.2323
▁přírodu	-11.2323
▁válku	-11.2323
▁Atlantiku	-11.2323
▁Dynam	-11.2323
▁budoucna	-11.2323
▁přídav	-11.2323
▁Karpov	-11.2323
▁zbaven	-11.2323
▁antropologie	-11.2323
▁týče	-11.2323
▁Boyle	-11.2323
▁administrativní	-11.2323
▁politicky	-11.2323
▁mzda	-11.2323
▁kombinace	-11.2323
▁přivezl	-11.2323
▁zkrátka	-11.2323
▁Lendl	-11.2323
▁češtině	-11.2323
▁smečky	-11.2323
▁chybět	-11.2323
▁hokejisté	-11.2323
sadit	-11.2323
▁distributor	-11.2323
▁stavět	-11.2323
▁nálad	-11.2323
▁image	-11.2324
▁rozprav	-11.2324
▁Španělska	-11.2324
▁dostupné	-11.2324
▁nezmění	-11.2324
▁staletí	-11.2324
▁dívat	-11.2324
faktor	-11.2324
▁příjezd	-11.2324
▁jakými	-11.2324
▁prapor	-11.2324
▁příznivců	-11.2324
▁zázrak	-11.2324
▁Zdeňk	-11.2324
▁nezbývá	-11.2324
▁1980	-11.2325
▁nohou	-11.2325
▁Intel	-11.2325
▁ocenil	-11.2325
▁psů	-11.2325
▁plnit	-11.2325
▁převah	-11.2325
▁Minul	-11.2325
▁Optima	-11.2325
▁Spolu	-11.2326
▁liberální	-11.2326
▁ligový	-11.2326
▁Škol	-11.2326
▁kontrakt	-11.2326
▁Říká	-11.2327
▁Příští	-11.2327
▁solidní	-11.2327
▁Peck	-11.2328
▁jídla	-11.2328
▁Maďarsko	-11.2328
▁dokončen	-11.2328
▁Konec	-11.2328
▁nápln	-11.2328
kazil	-11.2329
▁setkáváme	-11.2329
▁vítr	-11.2329
▁Pokus	-11.2329
lidov	-11.233
▁varování	-11.233
▁2,5	-11.233
▁matky	-11.233
▁uzavřena	-11.2331
bydlí	-11.2332
▁převést	-11.2332
▁projevu	-11.2332
▁vyměnit	-11.2332
▁znečištění	-11.2333
▁Krist	-11.2334
▁ráj	-11.2334
▁KDU	-11.2335
▁praví	-11.2336
▁vyvoláva	-11.2336
▁výraznější	-11.2336
▁kurt	-11.2336
▁EU	-11.2337
▁etapě	-11.2337
▁hlasovat	-11.2337
▁stavba	-11.2338
konců	-11.2338
▁Podstatn	-11.2339
▁Říman	-11.234
▁zobrazen	-11.234
české	-11.234
▁uznávan	-11.2342
▁vojáky	-11.2342
▁pohřeb	-11.2342
▁vystoupí	-11.2344
▁povahy	-11.2345
▁Vesmíru	-11.2346
▁Belgii	-11.2346
▁komet	-11.2347
pořád	-11.2348
▁polární	-11.2349
▁vybudování	-11.235
▁osnov	-11.2352
▁uvolnění	-11.2353
▁vzdal	-11.2353
▁stimul	-11.2353
▁kanálů	-11.2354
přesněji	-11.2355
▁všemu	-11.2355
▁zvládnout	-11.2357
▁oken	-11.2358
▁kluk	-11.2358
▁vyrovná	-11.2358
▁částkou	-11.236
▁volbou	-11.2363
▁slyší	-11.2363
▁sáze	-11.2364
▁prodávající	-11.2364
▁úprava	-11.2366
▁expertů	-11.2367
▁kořeny	-11.2368
▁tržby	-11.2369
▁knížky	-11.2372
▁vítěze	-11.2373
▁vyšla	-11.2374
▁kapacitou	-11.2374
▁detailní	-11.2375
▁současným	-11.2375
drželi	-11.2376
▁pes	-11.2377
▁extrémní	-11.2377
▁podobným	-11.2379
▁starostí	-11.2379
▁uchazečů	-11.2379
▁Předpokládá	-11.238
▁kontinentu	-11.238
startovat	-11.238
▁krav	-11.2384
▁krevní	-11.2388
▁učení	-11.2389
▁nemocí	-11.2392
▁Bro	-11.2394
▁průměrně	-11.2395
komunistický	-11.2395
▁propag	-11.2396
▁hit	-11.2397
▁hrálo	-11.24
▁automatické	-11.2401
▁krvi	-11.2402
ovského	-11.2403
umět	-11.2403
▁reáln	-11.2407
lová	-11.2408
▁Voda	-11.2409
▁prestižní	-11.2409
▁Ekonomick	-11.2412
▁Con	-11.2412
▁čistě	-11.2414
▁krajní	-11.2414
▁úseku	-11.2416
▁Hal	-11.2422
▁subjektů	-11.2422
▁37	-11.2427
▁play	-11.2429
▁strukturu	-11.243
▁mozkov	-11.243
▁okraji	-11.2432
hé	-11.2432
UJE	-11.2434
▁rozv	-11.2435
▁zabezpeč	-11.2439
▁obchodě	-11.244
▁vytvořili	-11.2446
▁astronom	-11.2446
▁uvedli	-11.2446
▁elektrický	-11.2447
reform	-11.245
hraje	-11.2453
střih	-11.2456
▁veškerý	-11.2458
▁arabské	-11.2458
▁zásahu	-11.2461
SM	-11.2461
ždyť	-11.2461
bývalo	-11.2461
▁právem	-11.2464
▁německým	-11.2465
dni	-11.2465
▁odběratel	-11.2465
▁Barn	-11.2467
▁témata	-11.2467
▁tvary	-11.2467
▁nejedn	-11.2468
okr	-11.2469
▁majitelů	-11.2472
▁samostatn	-11.2472
▁obhájce	-11.2472
▁elektronické	-11.2474
▁mechaniku	-11.2475
▁důsledk	-11.2477
▁odběratelů	-11.2477
▁toku	-11.2479
▁komentář	-11.248
lární	-11.248
▁přijali	-11.2483
▁turnaji	-11.2484
tickou	-11.2485
iček	-11.2487
▁vlastními	-11.249
▁vedly	-11.249
▁HZDS	-11.249
▁dějiny	-11.2492
▁manažerů	-11.2493
▁nedovol	-11.25
▁krásné	-11.2501
▁zadní	-11.2503
▁statistik	-11.2505
▁kupon	-11.2509
koro	-11.2511
▁slev	-11.2513
slovní	-11.2518
▁maďarské	-11.252
▁hosty	-11.2521
▁350	-11.2521
▁relativní	-11.2524
▁stavbě	-11.2527
dvacet	-11.2529
místo	-11.253
drží	-11.2531
▁ztratila	-11.2533
řejmě	-11.2533
▁Chorvat	-11.2534
▁logicky	-11.2543
jednat	-11.2545
▁Kla	-11.2545
▁zachován	-11.2554
▁náležit	-11.2554
čel	-11.2558
▁vydala	-11.2558
Gar	-11.2562
▁poměry	-11.2564
▁Jelcinov	-11.2565
▁stiskn	-11.2569
▁vítězů	-11.257
▁Mag	-11.258
▁formul	-11.2581
▁1500	-11.2582
▁hokej	-11.2582
SP	-11.2583
▁vodě	-11.2585
▁hotové	-11.2587
svědčil	-11.2587
▁stán	-11.2593
▁zabit	-11.2594
▁náhle	-11.2594
ues	-11.2597
▁záznamové	-11.2602
▁významně	-11.2603
▁konečn	-11.2606
▁občana	-11.2606
▁čištění	-11.2606
tedy	-11.261
▁napadl	-11.2611
.12.	-11.2612
▁elektronický	-11.2612
▁obyčejný	-11.2618
CO	-11.2618
▁Dal	-11.2623
▁významn	-11.2625
▁dcer	-11.263
▁potvrdila	-11.2633
▁Bre	-11.2633
▁mís	-11.2633
VÍ	-11.2635
▁historické	-11.2638
▁kontaktu	-11.2638
▁Spo	-11.2646
▁ráz	-11.2654
▁počátk	-11.2654
▁archeolog	-11.2656
▁kostel	-11.2659
▁bio	-11.266
▁jugoslávsk	-11.2661
kazuje	-11.2662
▁studoval	-11.2663
▁předání	-11.2664
enc	-11.2666
▁Pel	-11.2669
▁slabý	-11.2672
▁atomové	-11.2673
pomíná	-11.2675
víme	-11.2678
nda	-11.2678
▁detail	-11.2683
skému	-11.2686
dnes	-11.2697
▁následujícím	-11.2701
ohra	-11.2707
ávali	-11.2708
▁Masarykov	-11.2708
▁vysokoškol	-11.2709
bude	-11.2713
▁Pražsk	-11.2714
▁smrtí	-11.2716
▁mandát	-11.2719
znamenat	-11.2719
▁klesl	-11.272
tvrdí	-11.2725
▁staveb	-11.2725
▁jednotné	-11.2726
▁vysvětl	-11.2726
▁deviz	-11.2732
▁zodpovědn	-11.2734
trhl	-11.2734
45	-11.2736
,4	-11.2739
▁nejlepšího	-11.274
▁index	-11.274
▁zemědělců	-11.274
▁týkají	-11.2741
▁Kazachstán	-11.2741
▁Svaz	-11.2744
▁Čtyři	-11.2745
▁hromadné	-11.2745
hradit	-11.2747
▁pouští	-11.275
▁používal	-11.2751
▁intenzit	-11.2752
▁rakovin	-11.2753
▁úlev	-11.2754
▁sfér	-11.2755
▁předpis	-11.2756
▁jednotlivým	-11.2759
▁uvolnil	-11.276
▁tank	-11.2763
krývají	-11.2764
NC	-11.2764
stupovat	-11.2766
▁přesný	-11.2767
▁úhrad	-11.2767
▁odpovídají	-11.2767
▁spodní	-11.2768
▁dramat	-11.2769
▁kolech	-11.277
▁medaili	-11.2772
dpověď	-11.2774
▁oddělen	-11.2781
dejme	-11.2783
▁Staré	-11.2783
▁prst	-11.2786
▁jejími	-11.2792
▁počítačov	-11.2793
▁komunismu	-11.2794
▁mluvil	-11.2797
▁Dokon	-11.2798
▁Egypt	-11.2808
▁norma	-11.281
▁brzd	-11.281
▁Závěr	-11.2812
▁volit	-11.2814
▁výkonnost	-11.2819
▁Klepn	-11.2819
▁týmů	-11.2819
olicejní	-11.2821
▁dlouhodobě	-11.2822
▁zoufal	-11.2822
▁ráda	-11.2822
▁konzerv	-11.2823
neštěstí	-11.2823
peptid	-11.2823
▁Doufám	-11.2823
▁HGF	-11.2823
▁Výsledek	-11.2823
▁Wembley	-11.2823
▁anonymní	-11.2823
▁cizinců	-11.2823
▁definovat	-11.2823
▁dětmi	-11.2823
▁evidenci	-11.2823
▁humanitární	-11.2823
▁intenzivně	-11.2823
▁komfort	-11.2823
▁království	-11.2823
▁lhůty	-11.2823
▁nabídnut	-11.2823
▁neúspěch	-11.2823
▁otázkách	-11.2823
▁ošetření	-11.2823
▁připomenout	-11.2823
▁revoluce	-11.2823
▁sankce	-11.2823
▁sportovci	-11.2823
▁uhličitého	-11.2823
▁umístit	-11.2823
▁upozorňují	-11.2823
▁užitečné	-11.2823
▁veřejnou	-11.2823
▁zajistil	-11.2823
▁zdravotně	-11.2823
▁zloděj	-11.2823
▁zvyšovat	-11.2823
▁LDS	-11.2823
▁Mostaru	-11.2823
▁Poborského	-11.2823
▁Výjimk	-11.2823
▁mobilní	-11.2823
▁sleduje	-11.2823
▁srpnu	-11.2823
▁série	-11.2823
▁řekněme	-11.2823
pomáhal	-11.2823
▁MHz	-11.2823
▁komisí	-11.2823
▁kompost	-11.2823
▁nepatří	-11.2823
▁potravy	-11.2823
▁pátý	-11.2823
▁skener	-11.2823
▁stačit	-11.2823
▁týdnu	-11.2823
skočit	-11.2823
▁Názor	-11.2823
▁Komora	-11.2823
▁pozemků	-11.2823
▁projednávání	-11.2823
▁tvůrčí	-11.2823
▁Ústí	-11.2823
▁zážitek	-11.2823
▁Prahu	-11.2823
▁vyhověl	-11.2823
▁chemie	-11.2823
▁letišti	-11.2823
▁minimum	-11.2823
▁obránce	-11.2823
▁shluk	-11.2823
▁modernizaci	-11.2823
▁otevřený	-11.2823
▁počáteční	-11.2823
▁opačný	-11.2823
▁nebrání	-11.2823
▁turisté	-11.2823
▁vykonávat	-11.2823
▁remíz	-11.2823
▁kostým	-11.2823
▁Bohemia	-11.2823
▁román	-11.2823
▁zaslal	-11.2823
▁sportovním	-11.2823
▁Filip	-11.2823
▁proběhla	-11.2824
▁karet	-11.2824
▁realizaci	-11.2824
▁azyl	-11.2824
vážet	-11.2824
▁1948	-11.2824
▁převzetí	-11.2824
▁diskusí	-11.2824
▁emise	-11.2824
▁dvojnásobek	-11.2824
▁experimentální	-11.2825
hne	-11.2825
▁atmosféru	-11.2825
▁léčení	-11.2825
▁dovoluje	-11.2825
▁chrání	-11.2825
▁Chang	-11.2825
▁cítit	-11.2825
▁znají	-11.2825
▁výrobku	-11.2825
▁půjčky	-11.2826
▁tmav	-11.2826
▁videa	-11.2826
beton	-11.2826
▁formulář	-11.2827
▁budování	-11.2827
▁přestane	-11.2827
▁ČZ	-11.2828
▁očima	-11.2828
▁rozdělit	-11.2828
▁nádob	-11.2829
▁oblib	-11.2829
▁tabulku	-11.2829
ota	-11.2829
▁prosím	-11.2829
▁Ukázal	-11.2829
▁potřebovat	-11.283
▁odmítnut	-11.2831
▁nahoru	-11.2832
▁venku	-11.2832
▁125	-11.2832
▁nechci	-11.2834
▁podruhé	-11.2835
▁čelní	-11.2836
▁Pojišťovna	-11.2836
▁centrem	-11.2838
▁ušetří	-11.2838
izaci	-11.2839
▁stěžují	-11.2839
▁moravské	-11.284
▁cenové	-11.284
▁řek	-11.2841
▁ostrovů	-11.2842
▁vývojem	-11.2842
▁policisty	-11.2843
▁běže	-11.2844
▁prvek	-11.2844
▁stolu	-11.2846
▁vybere	-11.2847
SKO	-11.2849
▁okraj	-11.2849
▁diplomatické	-11.2849
▁přišly	-11.285
▁Důvodem	-11.2851
▁popsat	-11.2851
▁vzniklé	-11.2852
▁podobnost	-11.2852
▁zved	-11.2852
▁foto	-11.2854
▁vycházet	-11.2856
▁prostorách	-11.2858
▁kontrolou	-11.2858
▁národnostní	-11.2859
▁užitku	-11.286
▁technikou	-11.2861
▁odměny	-11.2861
▁stížnosti	-11.2861
▁Neu	-11.2864
dělování	-11.2864
ině	-11.2864
▁plní	-11.2865
▁prodejně	-11.2866
▁semináře	-11.2867
▁Smlouva	-11.2868
▁Husov	-11.287
▁změnách	-11.287
▁architektury	-11.2871
▁Olomouce	-11.2871
▁podoby	-11.2872
▁ceník	-11.2872
▁sehnat	-11.2872
álka	-11.2876
▁způsobit	-11.2876
▁opravu	-11.2877
▁biologick	-11.2878
▁očí	-11.2881
▁zlomen	-11.2881
▁zadání	-11.2884
▁černo	-11.2885
▁reklamní	-11.2886
▁vydělal	-11.2887
▁vlastníkem	-11.2887
▁různ	-11.2887
▁odstup	-11.2888
▁Seznam	-11.2889
▁voliči	-11.2891
▁př	-11.2892
příč	-11.2893
▁dělníků	-11.2894
dělal	-11.2895
▁opravě	-11.2895
▁problematiku	-11.29
▁Film	-11.2901
▁požadavkům	-11.2901
▁vyhledá	-11.2905
íček	-11.2907
řádně	-11.2907
▁Lab	-11.2911
▁chladu	-11.2913
▁rozpadu	-11.2915
▁pracujících	-11.2916
▁kritický	-11.2917
▁novinářům	-11.292
▁hromad	-11.2921
▁rozhovory	-11.2922
▁novela	-11.2922
▁Švédsku	-11.2925
▁stromy	-11.2927
▁IV	-11.2927
▁věřím	-11.2927
▁rostliny	-11.2928
▁hovořili	-11.2929
▁geolog	-11.2931
▁psa	-11.2932
▁nevíme	-11.2933
▁vstupuje	-11.2938
▁Mac	-11.2942
▁úmyslu	-11.2943
▁posil	-11.2943
▁potenciálu	-11.2948
▁Tým	-11.2948
▁izraelský	-11.2948
▁Nobelov	-11.295
▁mistry	-11.2954
▁udělali	-11.2956
▁stříbrné	-11.2957
▁rozhodlo	-11.2959
▁závěrečný	-11.2959
▁SD	-11.2962
▁představa	-11.2962
mořsk	-11.2963
jížděl	-11.2963
▁Lig	-11.2963
▁prodá	-11.2963
▁lize	-11.2966
▁kruhy	-11.2968
▁26.	-11.2968
▁ústavů	-11.2969
▁ostravské	-11.297
▁procesů	-11.2972
▁klubem	-11.2973
▁technik	-11.2978
novu	-11.2979
▁naprosté	-11.2981
▁velko	-11.2983
▁výkladu	-11.2985
▁předběžn	-11.2988
▁deníku	-11.2989
▁dospělé	-11.2989
▁zněl	-11.299
▁27.	-11.299
▁Kdybych	-11.2993
▁Kup	-11.2995
▁geny	-11.2996
▁plochu	-11.2997
▁Počítá	-11.2998
▁proviz	-11.2998
▁přesné	-11.2999
▁skvělé	-11.3
▁činila	-11.3001
kraji	-11.3001
▁vycházel	-11.3005
48	-11.3007
▁podoba	-11.3008
▁vydá	-11.3011
jela	-11.3011
▁obdiv	-11.3012
▁24.	-11.3012
▁tempo	-11.3014
▁rodné	-11.3014
izované	-11.3014
▁140	-11.3018
jov	-11.3026
▁komora	-11.3029
ER	-11.303
▁přízniv	-11.3038
▁kovy	-11.3042
▁Ir	-11.3045
▁soupeřů	-11.3046
▁Zda	-11.3049
kreslen	-11.3054
▁věta	-11.3055
▁obranné	-11.3058
▁Večer	-11.3058
▁příslušnost	-11.3059
▁papíry	-11.306
▁budoucího	-11.3061
vedou	-11.3061
EK	-11.3065
věří	-11.3067
▁chybu	-11.3069
▁telefony	-11.3069
▁Řekl	-11.3069
▁legend	-11.307
▁šíří	-11.3072
▁běžn	-11.3076
▁Mír	-11.3084
ong	-11.3087
▁stanovené	-11.309
▁placen	-11.309
ovaném	-11.3093
▁pocity	-11.3097
▁světu	-11.3097
▁Označ	-11.3098
▁těle	-11.3111
7%	-11.3112
▁Text	-11.3115
▁podnikatelům	-11.3118
procentní	-11.3118
▁vyhráli	-11.3132
▁splnil	-11.3136
▁Sam	-11.3139
▁Turist	-11.3139
US	-11.3143
▁hostů	-11.3145
▁jednoznačný	-11.3146
▁pat	-11.3149
AG	-11.3151
způsobují	-11.3152
▁efekty	-11.3153
▁Japonsko	-11.3158
▁pozornosti	-11.3159
▁položil	-11.3162
▁Brit	-11.3165
▁popsán	-11.3167
▁příbuzné	-11.317
▁novel	-11.3172
▁tvůrce	-11.3174
izraelsk	-11.3175
nin	-11.3182
kého	-11.3184
▁konzervativní	-11.3186
▁obává	-11.3188
▁zveřejněn	-11.319
▁zákoně	-11.3198
▁výplat	-11.3198
▁soupeři	-11.3198
BA	-11.3199
▁zřízen	-11.3201
▁obdobný	-11.3202
▁189	-11.3205
▁červen	-11.3205
▁Všeobecn	-11.3206
▁volič	-11.3206
76	-11.3209
▁chirurg	-11.321
tito	-11.3213
▁problematik	-11.3213
ohledně	-11.3214
▁následuj	-11.3218
cími	-11.3223
▁prováze	-11.3223
pouštějí	-11.3227
DO	-11.3238
▁obviněn	-11.3239
▁císař	-11.3241
morav	-11.3241
▁dvojic	-11.3241
▁odmítla	-11.3241
▁děd	-11.3243
▁Argentin	-11.3243
35	-11.3247
▁domácnost	-11.3248
▁postupů	-11.325
blok	-11.3251
vých	-11.3252
projevilo	-11.3255
▁využit	-11.3256
atřicet	-11.3258
třeba	-11.3261
▁strategický	-11.3264
▁arabský	-11.3267
▁aparát	-11.3268
▁požadavků	-11.3268
▁veletrh	-11.3268
▁středověk	-11.3268
▁dobrovoln	-11.327
▁nezná	-11.327
▁šampionát	-11.327
▁procenty	-11.3273
▁veřejný	-11.3276
▁biolog	-11.3278
▁vyžadují	-11.3279
▁účinnost	-11.3279
▁bílkovin	-11.3279
▁historik	-11.3284
▁ledový	-11.3286
▁hlasu	-11.3286
▁spolupracovník	-11.3289
plácet	-11.3294
▁Světov	-11.3294
▁vložen	-11.3296
prostřed	-11.3296
▁jednorázov	-11.3298
▁vybral	-11.3302
▁bit	-11.3308
▁Projekt	-11.3312
sté	-11.3312
front	-11.3313
▁Miloše	-11.3313
▁poznal	-11.3317
▁Angličan	-11.3318
▁Bělehrad	-11.3319
▁Důvod	-11.332
▁Jihlav	-11.332
▁soukrom	-11.332
▁stálé	-11.3321
stane	-11.3321
▁autobus	-11.3324
alternativ	-11.3324
bylo	-11.3325
▁určeno	-11.3326
▁nejvyšších	-11.3326
▁orchestr	-11.3328
▁Stan	-11.3331
▁výpočet	-11.3332
▁zobraz	-11.3336
▁demonstra	-11.334
▁bohatý	-11.3341
▁navazuj	-11.3342
▁Maďar	-11.3342
sit	-11.3342
▁jakkoli	-11.3345
▁prud	-11.3345
▁zákonu	-11.3346
pomínají	-11.3349
▁Weizs	-11.3349
zrcadl	-11.3349
šetřil	-11.3349
▁Benešov	-11.3349
▁Dvořák	-11.3349
▁Jednotliv	-11.3349
▁Lubomír	-11.3349
▁Náměst	-11.3349
▁Sarajev	-11.3349
▁archív	-11.3349
▁cizinci	-11.3349
▁cizině	-11.3349
▁deklarace	-11.3349
▁informovat	-11.3349
▁kmitočt	-11.3349
▁komunisté	-11.3349
▁lékáren	-11.3349
▁lístky	-11.3349
▁medailí	-11.3349
▁minerální	-11.3349
▁ministerstev	-11.3349
▁nemožné	-11.3349
▁nevznik	-11.3349
▁nečekaně	-11.3349
▁opozici	-11.3349
▁oživení	-11.3349
▁redakci	-11.3349
▁restituční	-11.3349
▁skript	-11.3349
▁spánku	-11.3349
▁stadia	-11.3349
▁stoupenc	-11.3349
▁struktuře	-11.3349
▁svatební	-11.3349
▁tabulátor	-11.3349
▁tiskárna	-11.3349
▁uspokojení	-11.3349
▁vyloučit	-11.3349
▁výkyvy	-11.3349
▁zlepšil	-11.3349
▁zúčastní	-11.3349
▁Libanon	-11.3349
▁Mazdy	-11.3349
▁nahrazen	-11.3349
▁preventivn	-11.3349
▁přidružen	-11.3349
▁zlepšit	-11.3349
▁řemesl	-11.3349
▁letadlo	-11.3349
▁válkou	-11.3349
▁ovládat	-11.3349
▁slalom	-11.3349
▁čáry	-11.3349
hlédl	-11.3349
▁doplnit	-11.3349
▁penalt	-11.3349
▁porušil	-11.3349
▁potrvá	-11.3349
▁účinný	-11.3349
▁pozemky	-11.3349
▁Trans	-11.3349
▁zahájí	-11.3349
rozhodoval	-11.3349
▁jídlo	-11.3349
▁licence	-11.3349
▁jedinci	-11.3349
▁mechanick	-11.3349
▁jedinečn	-11.3349
pálil	-11.3349
▁Něco	-11.3349
▁umístil	-11.3349
▁užívat	-11.3349
▁vyrábějí	-11.3349
▁nejsilnější	-11.3349
▁nestalo	-11.3349
▁odškodnění	-11.3349
▁Antonín	-11.3349
▁ČSAV	-11.335
▁žánr	-11.335
▁tisíciletí	-11.335
▁USD	-11.335
▁kůži	-11.335
▁nebudu	-11.335
▁městečk	-11.335
▁návštěvníci	-11.335
▁Maastrichtu	-11.335
▁Schneider	-11.335
▁hornin	-11.335
▁odvozen	-11.335
▁koncentrací	-11.335
▁dopředu	-11.335
▁Hlas	-11.335
▁dřevěný	-11.335
▁léčba	-11.335
▁vracejí	-11.335
▁otřes	-11.3351
▁Zásad	-11.3351
▁Krkonoších	-11.3351
▁setkat	-11.3351
▁Juli	-11.3352
▁úkor	-11.3352
▁jádra	-11.3352
▁kancléř	-11.3353
▁mikroorganismů	-11.3353
▁Nesmí	-11.3353
▁odstín	-11.3354
▁chybějící	-11.3354
LED	-11.3355
lákat	-11.3355
▁náročnější	-11.3355
▁obrace	-11.3355
▁stres	-11.3355
▁základnu	-11.3355
povídal	-11.3355
▁stručn	-11.3357
▁právnick	-11.3357
▁závazků	-11.3358
▁odmítnout	-11.3358
▁Kolek	-11.3358
▁vykazuje	-11.3358
▁přeháňky	-11.3359
▁posouzení	-11.3359
▁vydělat	-11.3359
▁zkoušky	-11.336
▁SNS	-11.336
▁rozhodnuto	-11.336
▁absurdní	-11.336
▁protokol	-11.336
▁opakovat	-11.3362
▁nemění	-11.3362
▁hlavě	-11.3362
▁víno	-11.3364
▁záložník	-11.3364
▁vidění	-11.3365
▁Situace	-11.3366
instalovat	-11.3367
▁jednoznačn	-11.3367
▁linek	-11.3369
▁vyšetřovací	-11.337
▁lacin	-11.337
▁ukládat	-11.3371
▁mírou	-11.3371
▁středně	-11.3372
▁Polsku	-11.3373
▁boku	-11.3373
DU	-11.3375
▁kytarist	-11.3376
▁letoun	-11.3376
▁Chorvatsko	-11.3376
▁řádek	-11.3377
▁městská	-11.3377
▁střelec	-11.3377
▁myslíte	-11.3378
ectví	-11.3378
▁spokojenosti	-11.3379
▁vztahuje	-11.338
▁počítají	-11.3381
▁rozhodujícím	-11.3382
▁Izraelsk	-11.3382
▁varoval	-11.3382
▁otce	-11.3383
▁hormon	-11.3384
▁Slovinska	-11.3386
▁odvolal	-11.3387
▁kartě	-11.3387
▁kdybychom	-11.3387
▁zájezdy	-11.3389
▁řetěz	-11.339
▁tuzemských	-11.339
▁různá	-11.339
kládání	-11.3391
ČE	-11.3391
▁kádru	-11.3391
▁ženský	-11.3391
▁Star	-11.3399
▁termo	-11.3399
▁Kamp	-11.3401
▁islámské	-11.3403
▁genů	-11.3404
▁převeden	-11.3405
▁Váš	-11.3405
▁stačilo	-11.3406
▁družic	-11.3408
▁Bójů	-11.3408
▁měřítku	-11.3408
▁partnerem	-11.3409
▁nalezení	-11.341
▁terénu	-11.3413
▁kanálu	-11.3419
▁hranicích	-11.3419
▁rána	-11.342
▁vyplývající	-11.342
▁hovoru	-11.3423
▁nepr	-11.3426
▁přítele	-11.3426
▁matematiky	-11.3426
▁ruchu	-11.3427
▁soch	-11.343
zanedbateln	-11.343
▁typick	-11.3436
▁teoretické	-11.3437
▁zlata	-11.3437
▁špičk	-11.3439
▁Japonska	-11.3441
▁fyziku	-11.3442
▁pevně	-11.3442
▁akciov	-11.3442
tažením	-11.3443
▁schémat	-11.3443
▁údržbu	-11.3444
▁regul	-11.3444
▁mém	-11.3444
▁subjekty	-11.3446
▁volba	-11.3449
▁dresu	-11.3449
▁jeskyn	-11.345
ph	-11.3453
▁okresech	-11.3453
užit	-11.3455
▁účastníky	-11.3455
letěl	-11.3458
staral	-11.3458
▁délku	-11.3458
dával	-11.3461
▁kostela	-11.3461
▁pracovním	-11.3462
strašně	-11.3464
▁veliká	-11.3465
▁řidiči	-11.3469
▁Věr	-11.3469
▁Doba	-11.347
▁hospodářský	-11.3471
▁kontrol	-11.3477
▁testů	-11.3478
▁vězni	-11.3485
▁variantu	-11.3487
17	-11.3489
yplývá	-11.349
▁informovali	-11.349
22	-11.3492
krytí	-11.3493
▁větr	-11.3497
▁iniciativa	-11.35
▁bodem	-11.3504
pravit	-11.3505
likvid	-11.3509
▁hlava	-11.3514
▁Řek	-11.3518
▁zůstaly	-11.3521
▁dopisy	-11.3521
▁výnosu	-11.3523
▁Dán	-11.3524
jištěn	-11.3524
▁91	-11.353
▁hrubé	-11.353
▁členské	-11.3531
▁Výš	-11.3534
▁servisu	-11.3535
▁knihu	-11.3538
▁postižení	-11.3539
▁návštěv	-11.3539
▁pouh	-11.3539
▁Tip	-11.354
▁přenesen	-11.3546
▁srovnatelné	-11.3548
▁číslem	-11.3548
▁Zemanov	-11.355
▁přesvědčeni	-11.355
▁přinesla	-11.355
ativní	-11.3554
tických	-11.3555
▁trojic	-11.3555
▁časopise	-11.3563
▁metodu	-11.3565
▁stromů	-11.3566
▁stálo	-11.3568
slat	-11.3572
▁standardu	-11.3573
65	-11.3576
▁magnet	-11.3576
▁technick	-11.3579
šp	-11.3579
▁širok	-11.3582
▁Syn	-11.3584
▁domnívám	-11.3584
▁zabýval	-11.3585
▁úzké	-11.3585
▁ryby	-11.3586
▁link	-11.3592
▁Dag	-11.3593
▁manžela	-11.3597
tika	-11.3597
stával	-11.3598
▁válečné	-11.3599
▁režiséra	-11.3599
▁stávají	-11.36
▁Kan	-11.361
▁ovladač	-11.3612
ruh	-11.3612
▁jezdil	-11.3613
polí	-11.3618
▁cílů	-11.3621
▁drahá	-11.3622
▁velkém	-11.3626
▁útvar	-11.3626
▁kaly	-11.3629
▁opor	-11.3629
▁Test	-11.363
▁42	-11.3632
▁vníma	-11.3633
▁radu	-11.3638
▁způsobila	-11.3641
▁Zd	-11.3641
▁překr	-11.3644
▁linka	-11.3649
▁firmami	-11.3651
▁rozumné	-11.3652
▁tečk	-11.3659
▁technologický	-11.3659
▁Výzkum	-11.3669
▁speciálně	-11.3678
▁ostrov	-11.3679
▁vklad	-11.3681
bírat	-11.3685
▁rusk	-11.3687
žije	-11.3689
íš	-11.3689
hrával	-11.3691
IG	-11.3695
éra	-11.3696
▁manažera	-11.3698
▁výtvarn	-11.3698
▁jakého	-11.3699
▁říkám	-11.37
ěřitel	-11.3703
▁momentáln	-11.3712
▁automat	-11.3714
▁srovnatelný	-11.372
▁Král	-11.3721
▁En	-11.3723
▁region	-11.3725
▁uši	-11.3726
▁rozhlas	-11.3728
▁tiskový	-11.373
▁platu	-11.3733
▁stati	-11.3737
▁některého	-11.3739
▁sešli	-11.3745
▁Jeli	-11.3746
ung	-11.3754
▁aneb	-11.3757
▁poločase	-11.3758
nových	-11.3761
nili	-11.3768
▁bývalém	-11.3769
▁využije	-11.377
▁příznivé	-11.3773
▁odráž	-11.3774
▁Ter	-11.3777
▁architekt	-11.3777
řev	-11.3785
hoře	-11.3785
tice	-11.379
▁životnost	-11.379
▁platil	-11.379
,7	-11.3798
▁uskutečnil	-11.3798
▁bytě	-11.38
▁masov	-11.3801
znamená	-11.3802
▁Atlant	-11.3808
koupí	-11.3808
ČSSD	-11.381
vrátit	-11.3812
▁bohaté	-11.3815
▁Telecom	-11.3822
především	-11.3823
▁věnuj	-11.3826
▁kapitálový	-11.3826
▁přispíva	-11.3828
▁Slovan	-11.3831
▁očekával	-11.3833
sáhnout	-11.3835
▁zákoník	-11.3836
▁úkon	-11.3839
▁účet	-11.3841
▁lamp	-11.3843
tivnější	-11.3845
▁pravém	-11.3846
nz	-11.3847
▁chovat	-11.3847
▁pochopil	-11.3847
▁optim	-11.3849
▁nabídne	-11.3849
▁kyselin	-11.385
▁Sokol	-11.3851
▁29.	-11.3853
▁lidový	-11.3855
čnost	-11.3856
▁vezme	-11.3856
dávky	-11.3859
▁řekli	-11.386
kých	-11.3863
▁Cup	-11.3864
posled	-11.3864
▁zavedl	-11.3868
▁pokračují	-11.3868
▁Rumunsk	-11.3868
▁absolvoval	-11.387
▁nezměnil	-11.387
▁umožňují	-11.3872
▁lyžař	-11.3872
▁oblačno	-11.3873
▁Chomutov	-11.3875
▁chalup	-11.3875
▁Znám	-11.3876
▁dočasn	-11.3876
▁vesnic	-11.3882
▁enzym	-11.3883
▁veličin	-11.3886
▁Republik	-11.3888
▁reklama	-11.3888
pomeňme	-11.3889
▁vkus	-11.3897
▁provozovat	-11.3899
▁poměrů	-11.3904
jednala	-11.3904
▁zasvěcen	-11.3904
▁Nejčastěj	-11.3905
▁laboratorní	-11.3905
▁restitucí	-11.3905
atlantick	-11.3905
▁Bezpečnost	-11.3905
▁Evropou	-11.3905
▁Jupiter	-11.3905
▁Karadžic	-11.3905
▁Letošní	-11.3905
▁Litvínov	-11.3905
▁Madrid	-11.3905
▁Moderní	-11.3905
▁Naštěstí	-11.3905
▁Olszewsk	-11.3905
▁Podívej	-11.3905
▁PŘED	-11.3905
▁Sněmovn	-11.3905
▁Stehlík	-11.3905
▁Ukrajina	-11.3905
▁burzy	-11.3905
▁dostatečné	-11.3905
▁energií	-11.3905
▁imunitní	-11.3905
▁incident	-11.3905
▁kandidovat	-11.3905
▁krátkodobé	-11.3905
▁leccos	-11.3905
▁neexistoval	-11.3905
▁náleží	-11.3905
▁následovat	-11.3905
▁odlišné	-11.3905
▁opozicí	-11.3905
▁ozónu	-11.3905
▁podotkl	-11.3905
▁poskytne	-11.3905
▁premiéře	-11.3905
▁prezervativ	-11.3905
▁překážky	-11.3905
▁seriózní	-11.3905
▁socialismu	-11.3905
▁stability	-11.3905
▁televizor	-11.3905
▁totalitní	-11.3905
▁viceprezident	-11.3905
▁vzdělávání	-11.3905
▁výkres	-11.3905
▁výslovně	-11.3905
▁znamení	-11.3905
▁závislá	-11.3905
▁získají	-11.3905
▁Úspěšn	-11.3905
▁úspěšnost	-11.3905
▁Dukly	-11.3905
▁Město	-11.3905
▁celosvětov	-11.3905
▁hrozil	-11.3905
▁mrtvé	-11.3905
▁těžší	-11.3905
▁zachránil	-11.3905
▁Mandler	-11.3905
▁Obvodní	-11.3905
▁herečka	-11.3905
▁položku	-11.3905
▁příroda	-11.3905
▁vyžádá	-11.3905
▁zemědělci	-11.3905
▁Island	-11.3905
▁abeced	-11.3905
▁chápán	-11.3905
▁nutná	-11.3905
▁živnostenský	-11.3905
▁profese	-11.3905
▁SI	-11.3905
▁naučit	-11.3905
▁MIDI	-11.3905
▁charitativní	-11.3905
▁výlučn	-11.3905
▁Vojenské	-11.3905
▁Hapal	-11.3905
▁zajímal	-11.3905
▁kubismu	-11.3905
▁uplatňova	-11.3905
▁vystupoval	-11.3905
▁Dlouho	-11.3905
▁převažuj	-11.3905
▁frakc	-11.3905
▁diváci	-11.3905
▁koncentraci	-11.3905
▁ČSAD	-11.3905
▁druzí	-11.3905
▁Maďarska	-11.3905
▁přečetl	-11.3905
▁vyjít	-11.3905
▁Softwar	-11.3905
▁Sedm	-11.3906
▁chápe	-11.3906
▁nesměl	-11.3906
▁česky	-11.3906
▁filtr	-11.3906
▁kopané	-11.3906
háněl	-11.3907
▁studené	-11.3907
▁cítil	-11.3907
▁loď	-11.3907
▁obdrží	-11.3907
▁1950	-11.3907
▁balení	-11.3907
▁Obyvatel	-11.3907
▁Soutěž	-11.3907
▁simul	-11.3907
▁obsáhl	-11.3908
▁kámen	-11.3908
▁úder	-11.3908
▁duši	-11.3908
▁rozumět	-11.3908
▁Berger	-11.3908
▁realizovat	-11.3908
▁publikace	-11.3909
▁Potvrdil	-11.3909
▁připravují	-11.3909
▁zvyklí	-11.3909
▁síni	-11.3909
▁Švýcarska	-11.391
▁dostupný	-11.391
▁trůn	-11.391
▁prázdninách	-11.391
▁utekl	-11.391
▁písma	-11.3911
▁proměnliv	-11.3911
účtování	-11.3911
▁expozice	-11.3911
▁vzorků	-11.3912
▁sovětský	-11.3912
▁zdůvodnil	-11.3912
▁rozšířen	-11.3913
▁plot	-11.3913
▁Alma	-11.3913
▁sbírky	-11.3914
▁zanikl	-11.3914
▁potvrzují	-11.3914
▁přihlásil	-11.3915
▁výměník	-11.3916
▁vznikne	-11.3916
▁učebnic	-11.3917
▁alternativní	-11.3918
▁branku	-11.3919
▁porušování	-11.3919
▁tendenci	-11.3919
▁vysílání	-11.3919
▁náhodně	-11.392
▁čaj	-11.3922
▁politikou	-11.3924
▁kompletní	-11.3925
▁výrobou	-11.3926
▁FC	-11.3926
nechávají	-11.3927
▁pravomocí	-11.3927
▁levné	-11.3928
▁osobám	-11.3928
▁armádní	-11.3929
▁předsednictv	-11.393
FS	-11.393
▁drobných	-11.393
▁stěží	-11.3933
▁zasáhnout	-11.3936
▁prodejna	-11.3937
▁odjezd	-11.3937
▁řádky	-11.3938
▁MOV	-11.3939
▁přerušení	-11.3939
▁sídla	-11.3939
▁vyrovnání	-11.394
▁necelé	-11.3941
▁Politick	-11.3941
▁Rumunsko	-11.3941
▁psaní	-11.3942
▁zřetel	-11.3942
▁infekce	-11.3943
▁potřebujete	-11.3944
▁výměny	-11.3944
▁příslušníky	-11.3944
▁udává	-11.3944
▁zbytku	-11.3945
▁Příklad	-11.3946
▁drav	-11.3946
▁léto	-11.3948
▁zajímá	-11.3948
bytová	-11.3948
gan	-11.395
▁uzavřené	-11.395
▁Tvrdí	-11.3951
▁zajímavá	-11.3951
▁roh	-11.3951
▁Nejsem	-11.3952
▁izraelské	-11.3953
▁nálož	-11.3953
▁nemocného	-11.3953
▁uplatňují	-11.3954
▁dohodli	-11.3954
▁rodině	-11.3955
▁scénu	-11.3956
▁kraje	-11.3956
▁dorazil	-11.3956
▁tvorba	-11.3957
▁částečn	-11.3958
▁jmenoval	-11.3958
▁56	-11.3959
▁pru	-11.3959
▁sudetský	-11.3959
▁nároků	-11.3961
▁sídlí	-11.3961
▁důstojník	-11.3961
▁kláštera	-11.3963
▁ToolBooku	-11.3963
0.000	-11.3965
▁slavného	-11.3965
čkem	-11.3966
▁ověřen	-11.3966
▁zpětn	-11.3966
▁hradě	-11.3967
▁Kap	-11.3968
▁Baník	-11.3969
▁hrub	-11.3969
▁analýza	-11.3969
▁výhodou	-11.397
▁Alp	-11.397
▁OK	-11.3971
píší	-11.3971
▁pohotovost	-11.3972
▁stali	-11.3973
▁odborů	-11.3973
▁77	-11.3973
▁vlk	-11.3974
▁obvinil	-11.3975
▁Vložit	-11.3975
▁živnost	-11.3976
▁70.	-11.3976
▁získávání	-11.3977
▁Lin	-11.3977
▁dávn	-11.3977
▁elit	-11.3978
▁provozování	-11.3978
▁měnov	-11.3979
▁ucho	-11.398
▁Žena	-11.3981
▁zpracovat	-11.3981
▁odjel	-11.3982
▁zvukových	-11.3985
soudit	-11.3985
▁anglického	-11.3986
▁rozhlasu	-11.3987
▁touh	-11.3987
▁spojených	-11.3988
▁Koup	-11.399
▁grafiky	-11.399
▁nešťastn	-11.3991
▁veletrhu	-11.3991
▁Buď	-11.3992
▁prezidentovi	-11.3994
▁mořské	-11.3994
▁očích	-11.3994
▁Víme	-11.3996
▁výchovy	-11.3996
▁kresb	-11.3998
▁příkazem	-11.4001
▁92	-11.4002
▁poskytnutí	-11.4006
▁přesvědčil	-11.4009
▁slovenský	-11.401
▁dokonalé	-11.4013
▁sdělit	-11.4015
áty	-11.4016
▁hladiny	-11.4016
▁Optic	-11.4017
▁vraždy	-11.4018
tlačit	-11.4018
▁zbývá	-11.4018
▁neznámé	-11.4019
▁pilot	-11.4019
▁zařazeny	-11.4019
▁přímý	-11.4019
▁Ostravsk	-11.402
▁požádali	-11.4022
▁uživatelům	-11.4024
▁platnosti	-11.4026
▁pivovarů	-11.4027
▁vel	-11.4027
skop	-11.4029
jednali	-11.403
▁Masaryk	-11.4034
ňující	-11.4034
padnout	-11.4035
▁obsadili	-11.4035
▁radi	-11.4039
▁stromu	-11.4041
▁naproti	-11.4043
▁zásahy	-11.4043
▁poradil	-11.4043
▁nakupovat	-11.4046
▁Fil	-11.4047
▁Izraelem	-11.4051
▁Novém	-11.4052
▁Form	-11.4053
▁opustil	-11.4055
JE	-11.4058
▁takzvané	-11.4061
▁ruch	-11.4061
hladov	-11.4062
▁opačném	-11.4064
▁radní	-11.4069
▁vyjadřují	-11.407
▁zásoby	-11.4071
etické	-11.4072
▁Prof	-11.4079
▁dobro	-11.4081
leva	-11.4082
▁listin	-11.4085
▁PR	-11.4087
▁vzkaz	-11.4088
▁Husa	-11.4093
žívání	-11.4094
▁kruhu	-11.4095
▁lev	-11.4097
▁osobu	-11.4101
▁mozkové	-11.4102
▁nezískal	-11.4103
uf	-11.4105
▁východu	-11.4107
93	-11.4107
vezm	-11.411
vodí	-11.4111
▁zvol	-11.4111
▁gólu	-11.4112
▁zadržen	-11.4113
▁zvítězila	-11.4114
▁Odhad	-11.4116
soudil	-11.4119
pera	-11.4119
slyš	-11.412
▁zdravý	-11.4122
▁narazí	-11.4124
▁obyčejné	-11.4125
▁soukromým	-11.4128
▁talent	-11.4128
krátko	-11.4129
▁předčasné	-11.4131
▁genu	-11.4131
▁plánované	-11.4135
▁přístupem	-11.4135
▁bojoval	-11.4142
▁podpoře	-11.415
ht	-11.415
▁Carl	-11.4152
▁závěry	-11.4156
▁částice	-11.4159
▁proměnil	-11.416
▁připravila	-11.4162
▁předpokládal	-11.4164
▁snížila	-11.4164
hrání	-11.4166
kově	-11.4168
▁plic	-11.417
▁čekání	-11.4172
▁Kro	-11.4173
▁dodala	-11.4175
6.	-11.4177
▁majitelem	-11.4183
▁klimatické	-11.4186
▁genetick	-11.419
▁vzácn	-11.4192
▁bezpečnostních	-11.4192
90	-11.4195
▁skončily	-11.4196
víz	-11.4201
▁Čechy	-11.4201
▁Jean	-11.4208
▁hromadn	-11.4208
▁vyvolá	-11.421
▁autory	-11.4212
▁zájm	-11.4212
▁Lá	-11.4213
▁očekávané	-11.4219
▁hovor	-11.4221
▁zdokonal	-11.4222
▁kdež	-11.423
▁domova	-11.4231
▁odbornost	-11.4231
▁Don	-11.4232
▁etický	-11.4232
▁sluch	-11.4236
čkách	-11.4239
▁semen	-11.4242
nických	-11.4243
rozuměj	-11.4244
dána	-11.4252
oba	-11.4253
▁vyrovnaný	-11.4255
67	-11.4261
▁takzvaný	-11.4262
▁190	-11.4266
▁adresář	-11.4266
rel	-11.427
▁dohodnut	-11.427
▁mladík	-11.4278
▁nepod	-11.4282
▁Severoatlantick	-11.4282
▁nábožensk	-11.4284
▁speciálních	-11.4286
▁Či	-11.429
▁samé	-11.429
lech	-11.4292
palestinsk	-11.4293
389	-11.4295
▁chorvatský	-11.4295
▁známa	-11.4296
učili	-11.4296
▁hlás	-11.4299
káže	-11.4301
▁komentáře	-11.4302
▁leasing	-11.4302
▁osmnáct	-11.4303
nický	-11.4304
▁Chart	-11.4307
▁oblíbený	-11.4308
▁důkladně	-11.431
pozoruhodn	-11.4316
stavení	-11.4326
▁nabízen	-11.4332
jednává	-11.4335
▁poledne	-11.4336
▁léčebn	-11.4337
▁Horní	-11.434
▁bolesti	-11.4345
▁štít	-11.4346
▁zaměstnancům	-11.4348
▁americkým	-11.4352
▁náboženské	-11.4353
▁dialog	-11.4366
▁omezené	-11.4378
▁tvor	-11.438
demokratick	-11.438
▁stovk	-11.438
▁letecký	-11.4381
▁souvislost	-11.4387
▁náměstk	-11.4388
▁disciplín	-11.4394
vázal	-11.4394
ézt	-11.4396
▁nepřátel	-11.4397
▁poslancům	-11.4397
▁Pozor	-11.4399
▁Švýcar	-11.4399
▁Bud	-11.44
▁vlastníků	-11.4403
▁běžným	-11.4403
ujme	-11.4407
▁šat	-11.4407
▁kolegů	-11.4411
▁kongres	-11.4413
▁povolen	-11.4413
▁vesmír	-11.4413
▁muzeu	-11.4413
▁přístav	-11.4416
▁Min	-11.4417
▁prokurátor	-11.4418
▁koncern	-11.4419
▁středním	-11.442
▁dražb	-11.4424
▁zpěvák	-11.4424
▁vteřin	-11.4424
▁spořiteln	-11.4424
▁pojistn	-11.4426
▁KON	-11.4429
▁dělník	-11.443
▁mak	-11.4433
▁světl	-11.4434
jo	-11.4437
▁uzná	-11.4437
▁odehráv	-11.4438
▁mládež	-11.4441
taž	-11.4443
▁prohlásila	-11.4445
▁jater	-11.4449
▁podepsán	-11.445
▁potvrzen	-11.4451
▁Portugalsk	-11.4456
▁závěrečné	-11.4456
▁pokladn	-11.4456
▁předkládá	-11.4456
▁Mnichov	-11.4464
záběr	-11.4466
▁společným	-11.4466
▁ryz	-11.4467
▁dle	-11.4469
▁příjemný	-11.4472
▁modem	-11.4474
IE	-11.4474
▁překvapen	-11.4476
▁rizikový	-11.4476
NSK	-11.4477
▁interpret	-11.4477
▁tunel	-11.4479
▁srozumiteln	-11.4481
▁odcházejí	-11.4484
▁obuv	-11.4484
▁Tri	-11.4485
vyjádřen	-11.4485
KDU	-11.4486
německou	-11.4487
mýšlí	-11.4489
▁krystal	-11.4489
▁přibyl	-11.449
▁Krkonoš	-11.4491
▁junio	-11.4492
▁samozřejm	-11.4493
▁ubytovn	-11.4493
doporučují	-11.4493
▁1981	-11.4493
▁Běloruska	-11.4493
▁Eduard	-11.4493
▁Městě	-11.4493
▁Pentium	-11.4493
▁Pořadatel	-11.4493
▁Poštovní	-11.4493
▁Rozhovor	-11.4493
▁Svorada	-11.4493
▁Uvažuje	-11.4493
▁Vědci	-11.4493
▁bázi	-11.4493
▁displej	-11.4493
▁doprovázen	-11.4493
▁ekvivalent	-11.4493
▁hřbitov	-11.4493
▁instance	-11.4493
▁inzerát	-11.4493
▁kampaň	-11.4493
▁konfiguraci	-11.4493
▁mechanismy	-11.4493
▁ministerstvem	-11.4493
▁mužstvu	-11.4493
▁nejlevnější	-11.4493
▁nejvhodnější	-11.4493
▁odehrál	-11.4493
▁organismů	-11.4493
▁ovlivňova	-11.4493
▁označují	-11.4493
▁očekávají	-11.4493
▁pohromadě	-11.4493
▁potvrdit	-11.4493
▁pracovišti	-11.4493
▁protagonist	-11.4493
▁překonat	-11.4493
▁rozvržení	-11.4493
▁složku	-11.4493
▁sluchátka	-11.4493
▁stabilitu	-11.4493
▁svědků	-11.4493
▁vyjadřova	-11.4493
▁vzdělávací	-11.4493
▁výsledcích	-11.4493
▁zachránit	-11.4493
▁zaměstnává	-11.4493
▁zbraň	-11.4493
▁závazek	-11.4493
▁závislé	-11.4493
▁Kepler	-11.4493
▁Právní	-11.4493
▁Výběr	-11.4493
▁hmyz	-11.4493
▁podmínkami	-11.4493
▁pouštní	-11.4493
▁pátrá	-11.4493
opakovaně	-11.4493
▁komentoval	-11.4493
▁kosmický	-11.4493
▁odvahu	-11.4493
▁prvotní	-11.4493
▁sazby	-11.4493
▁vazbě	-11.4493
▁vyjednávání	-11.4493
režie	-11.4493
▁Pravděpodobn	-11.4493
▁jedinec	-11.4493
▁profesí	-11.4493
▁sérii	-11.4493
▁dráhu	-11.4493
▁otravy	-11.4493
▁uplatnil	-11.4493
▁lidstva	-11.4493
▁prohlašuje	-11.4493
▁sladk	-11.4493
hlížel	-11.4493
▁Gross	-11.4493
▁Reuter	-11.4493
▁čistírn	-11.4493
▁kolaps	-11.4493
▁partie	-11.4493
▁uhlí	-11.4493
▁postačí	-11.4493
▁Radovan	-11.4493
hlédnutí	-11.4493
▁vpravo	-11.4493
▁počty	-11.4493
▁Kučer	-11.4493
▁multi	-11.4493
▁kombinací	-11.4493
▁cvičení	-11.4493
▁patent	-11.4493
▁finance	-11.4493
▁obezit	-11.4493
▁velkolep	-11.4493
▁doplnil	-11.4493
▁smečka	-11.4493
▁léčbě	-11.4493
▁sportovce	-11.4493
▁ohlas	-11.4493
▁jarní	-11.4493
▁generaci	-11.4494
▁zmenšen	-11.4494
▁Kvalit	-11.4494
▁zaměřuje	-11.4494
▁sníží	-11.4494
▁Ford	-11.4494
▁Vilém	-11.4494
▁filozofii	-11.4494
▁dvor	-11.4494
▁ekonomickou	-11.4494
▁výhrady	-11.4494
▁nedostatkem	-11.4494
▁konverz	-11.4494
▁Baker	-11.4494
▁spoření	-11.4494
▁Španělsko	-11.4494
▁derby	-11.4494
ers	-11.4494
▁1998	-11.4494
▁SNR	-11.4494
pravdě	-11.4494
▁výměr	-11.4494
▁běží	-11.4494
▁nezvykl	-11.4495
▁studii	-11.4495
▁Hráč	-11.4495
▁správnou	-11.4495
▁afér	-11.4495
▁pravdy	-11.4495
▁Mistr	-11.4495
▁pravice	-11.4495
▁členění	-11.4496
ředstavitelé	-11.4496
▁jednotlivců	-11.4496
▁děkan	-11.4497
▁čelit	-11.4497
▁Winter	-11.4497
▁památky	-11.4497
▁kontrast	-11.4497
▁nákladech	-11.4497
▁článků	-11.4497
▁ISO	-11.4497
▁trase	-11.4498
KDS	-11.4498
▁hork	-11.4498
▁strojírenství	-11.4498
▁zastupitelstvo	-11.4498
▁zvýhodněn	-11.4498
▁švýcarské	-11.4499
▁objektiv	-11.4499
OSTI	-11.4499
▁tvrdit	-11.45
▁lodí	-11.45
árek	-11.45
▁poplatků	-11.45
▁dálkové	-11.45
▁salon	-11.45
▁plus	-11.4501
▁přijímat	-11.4501
kromě	-11.4501
▁usilují	-11.4501
▁celky	-11.4501
▁sbírek	-11.4501
▁protivník	-11.4501
▁2:1	-11.4502
▁vyhleda	-11.4502
▁zeleni	-11.4502
▁hluboký	-11.4502
▁základny	-11.4503
nešní	-11.4503
▁zvláštnost	-11.4503
▁Polskem	-11.4503
▁vydrží	-11.4503
▁pití	-11.4504
▁průvodce	-11.4505
▁ojediněle	-11.4505
▁slovu	-11.4506
▁tenkrát	-11.4506
ňují	-11.4506
sin	-11.4506
▁ideologick	-11.4506
▁nepřijatelné	-11.4506
▁okresu	-11.4507
▁alternativy	-11.4507
▁prosazuje	-11.4508
▁Provoz	-11.4508
▁porost	-11.4509
▁domku	-11.4509
▁řešen	-11.451
▁pozorovatelů	-11.451
▁branky	-11.451
▁nazval	-11.451
▁námět	-11.4511
▁přísně	-11.4511
elektrick	-11.4512
▁kliniky	-11.4512
▁scéně	-11.4512
stihnout	-11.4513
týdenní	-11.4513
▁počítačem	-11.4513
▁ušetřit	-11.4514
placení	-11.4514
▁Kolín	-11.4514
▁myln	-11.4515
▁silami	-11.4515
▁anketě	-11.4515
▁1991.	-11.4515
▁pomáhat	-11.4516
▁pětinu	-11.4517
▁mrtvých	-11.4518
▁skupinách	-11.4518
▁vybrán	-11.452
▁záměrně	-11.4521
▁pokutu	-11.4521
▁vidíte	-11.4522
▁oteplení	-11.4523
▁odluk	-11.4523
▁pomník	-11.4524
▁skutečnou	-11.4524
▁obchodech	-11.4524
▁Palác	-11.4524
▁hranicí	-11.4524
▁skoku	-11.4525
▁pozdní	-11.4525
▁povahu	-11.4526
hlédne	-11.4526
politickým	-11.4526
▁znamenala	-11.4527
▁přibývá	-11.4528
▁domácností	-11.4529
▁zažil	-11.453
ash	-11.453
▁Air	-11.4531
▁komunismus	-11.4531
▁popř	-11.4532
RS	-11.4532
▁NT	-11.4533
▁etapy	-11.4534
▁vyznačen	-11.4534
▁šíři	-11.4535
▁stranách	-11.4535
▁obří	-11.4535
program	-11.4537
▁desítká	-11.4538
87	-11.4538
▁vyřešil	-11.4538
ikonu	-11.4539
▁osmé	-11.4539
▁publikací	-11.454
▁neviděl	-11.4541
▁slavné	-11.4542
▁reálná	-11.4543
▁využívající	-11.4546
▁prodejce	-11.4546
▁minutu	-11.4546
▁odměnu	-11.4547
▁přibylo	-11.4548
▁pochybnosti	-11.455
▁jazyků	-11.455
knout	-11.4551
▁nebezpečn	-11.4554
pouštět	-11.4554
izování	-11.4555
▁ledové	-11.4555
▁zárukou	-11.4555
sazení	-11.4555
▁západu	-11.4556
▁Thomas	-11.4556
▁opravit	-11.4557
▁samospráv	-11.4558
▁vhodných	-11.4561
▁těsné	-11.4561
▁Ger	-11.4562
▁rodinou	-11.4563
▁koordinac	-11.4565
▁osmnácti	-11.4565
▁cukru	-11.4565
wi	-11.4566
▁podávání	-11.4567
▁začínal	-11.4568
▁sedmnácti	-11.4569
▁problematiky	-11.4571
▁polského	-11.4572
▁Žádný	-11.4572
▁historického	-11.4573
▁vaku	-11.4573
▁Olympu	-11.4575
▁slevy	-11.4578
▁dialogové	-11.4578
▁maličkost	-11.4579
▁jmenování	-11.4581
▁družstevní	-11.4582
▁chyba	-11.4585
▁prochází	-11.4586
▁prázdniny	-11.4587
▁Voj	-11.4588
▁dopadl	-11.4588
▁pachatele	-11.4588
▁předloh	-11.4589
▁otevřenou	-11.459
▁jednotný	-11.459
▁Kazachstánu	-11.459
▁skleníkový	-11.4591
▁časopis	-11.4592
▁správě	-11.4592
▁(5	-11.4594
▁zlé	-11.4597
▁stínu	-11.4599
▁vzdálen	-11.4599
▁pružn	-11.4599
▁dnem	-11.4601
▁zařazení	-11.4601
▁poškozen	-11.4603
▁hromada	-11.4605
▁nizozemsk	-11.4607
▁spolehlivě	-11.4607
▁Sport	-11.4609
▁vzniklo	-11.4615
▁Přibyl	-11.4616
▁konfliktu	-11.4616
▁zajímavých	-11.4616
▁mezer	-11.4617
▁britských	-11.462
▁slabé	-11.462
▁VE	-11.4621
▁hospodářských	-11.4621
▁odpady	-11.4625
▁zájemcům	-11.4626
▁suroviny	-11.4626
padesát	-11.4628
▁Žen	-11.4628
▁kapacitu	-11.4629
▁smyslem	-11.463
▁časový	-11.463
▁samostatnost	-11.4631
▁Sen	-11.4632
▁mostu	-11.4633
pali	-11.4634
▁zahájena	-11.4639
mann	-11.4641
▁překvapením	-11.4643
munist	-11.4643
▁slavný	-11.4644
▁vědec	-11.4644
hodinové	-11.4644
▁tepelné	-11.4645
13	-11.4646
▁novináře	-11.4649
▁Moc	-11.465
92	-11.4654
ŽE	-11.4655
▁závodníků	-11.4657
▁posl	-11.4659
▁perspektivní	-11.4663
mus	-11.4664
▁oprávnění	-11.4665
▁dole	-11.4665
běhne	-11.4667
▁stavy	-11.4667
▁určitým	-11.4669
▁sedmé	-11.467
▁výživ	-11.4671
▁přip	-11.4674
▁hokejové	-11.4676
▁hub	-11.4679
▁případem	-11.4679
▁dlužníka	-11.4682
třída	-11.4683
▁přehrad	-11.4684
átory	-11.4685
97	-11.4687
▁vznikal	-11.4688
▁levný	-11.4689
▁středo	-11.4689
▁účelu	-11.469
▁pokračovala	-11.469
▁podpisu	-11.469
▁vynesl	-11.469
▁potraviny	-11.4691
▁pozval	-11.4692
▁cenami	-11.4693
▁vidím	-11.4697
▁záznamu	-11.4698
reál	-11.4701
▁vybaveny	-11.4701
rová	-11.4702
▁výzkumné	-11.4707
▁vrátili	-11.4708
▁součásti	-11.471
▁automobilu	-11.4714
▁psychiatr	-11.4715
▁technologické	-11.4716
▁Obsah	-11.4716
ALI	-11.4718
▁převrat	-11.4719
▁daného	-11.4719
▁186	-11.472
▁atomov	-11.4722
▁Rozhodl	-11.4724
zek	-11.473
mění	-11.4738
▁hlasováním	-11.4739
▁vlna	-11.4742
▁únos	-11.4742
▁jakéhokoli	-11.4743
▁pravý	-11.4743
▁realiz	-11.4746
▁nájemníků	-11.4748
▁polský	-11.4751
▁manažery	-11.4751
▁kanál	-11.4759
▁místním	-11.476
bez	-11.4762
▁kandidáta	-11.4765
▁buňk	-11.4765
omín	-11.4768
▁Geo	-11.4772
▁naučil	-11.4774
▁Vod	-11.4775
▁240	-11.4778
▁hostitel	-11.4779
▁Plán	-11.4787
obdržela	-11.479
▁palác	-11.479
▁spolupracují	-11.4791
▁podnikateli	-11.4791
nej	-11.4794
stroj	-11.4794
▁textů	-11.4797
▁zvrat	-11.4798
▁cenné	-11.4799
▁devatenáct	-11.4804
▁tituly	-11.4807
▁Brněnsk	-11.4808
LOV	-11.4811
line	-11.4812
▁1)	-11.4814
▁navržen	-11.4819
TON	-11.4822
▁nabízený	-11.4823
▁třetin	-11.4826
▁fotbalist	-11.4829
▁vývojový	-11.4833
▁základu	-11.4839
▁proměnn	-11.4841
▁světem	-11.4841
▁mask	-11.4846
▁nájemník	-11.485
NS	-11.4853
▁Norsk	-11.4854
▁zápasem	-11.4857
▁Kur	-11.4858
PI	-11.4858
▁Lan	-11.4859
▁povrchové	-11.4859
sovětsk	-11.4861
▁vizi	-11.4863
dělení	-11.4865
▁zakladatel	-11.4866
soci	-11.4868
▁Japonsk	-11.4871
▁najdou	-11.4871
▁čínské	-11.4874
vinil	-11.4875
▁rozum	-11.4875
▁nadměrn	-11.4876
▁ženské	-11.4883
▁Nemá	-11.4885
▁čtvrtin	-11.4886
▁přidělen	-11.4891
▁známou	-11.4895
tvořily	-11.4897
▁činy	-11.49
▁špičkov	-11.4907
▁pěkný	-11.4911
▁Novotn	-11.4914
▁působ	-11.4923
▁neobvyklé	-11.4929
BU	-11.4929
jan	-11.4931
▁přirozeným	-11.4933
▁jejímu	-11.4937
ticky	-11.494
▁fakult	-11.494
▁jistot	-11.4941
▁míče	-11.4941
▁lese	-11.4952
▁Čtyř	-11.4955
▁úvod	-11.4955
dáte	-11.4964
▁hrozn	-11.4966
▁bosen	-11.4968
▁zařízením	-11.4974
▁výtečn	-11.4974
ručně	-11.4975
▁Občansk	-11.4978
▁nepříjemný	-11.498
střelil	-11.4986
hraniční	-11.4987
mentálně	-11.4997
▁zvolený	-11.4997
▁dirigent	-11.4998
▁Kole	-11.5
▁stranické	-11.5
▁parametr	-11.5
▁procentní	-11.5001
▁dostaly	-11.5001
▁hezk	-11.5003
▁žádným	-11.5004
ologové	-11.5012
▁nesmysl	-11.5012
▁výjimk	-11.5012
▁vyplněn	-11.5013
▁občanům	-11.5013
okres	-11.5015
▁Histori	-11.5016
▁spojeno	-11.5016
▁krut	-11.5018
▁národním	-11.5025
▁symbolick	-11.5026
▁vítězk	-11.5027
dávání	-11.503
▁inspektor	-11.5032
▁čte	-11.5034
▁závažn	-11.5034
▁krev	-11.5035
▁bojovn	-11.5038
▁dveří	-11.5042
▁kategorií	-11.5045
▁Velký	-11.5047
▁ZÁ	-11.5048
pojit	-11.5051
▁nud	-11.5052
▁Koš	-11.5053
▁triumf	-11.5054
▁hvězda	-11.5056
▁úloh	-11.5057
▁sláv	-11.5059
▁hráčům	-11.5061
▁Las	-11.5062
▁využívají	-11.5062
favorit	-11.5063
▁vystupuj	-11.5066
nově	-11.5066
▁450	-11.5075
cz	-11.5076
▁uvolněn	-11.5079
▁hmotnost	-11.5085
bíhají	-11.5085
▁bronz	-11.5086
▁dobrého	-11.5088
povídají	-11.5093
▁smrteln	-11.5094
▁vyřazen	-11.5094
▁obnovit	-11.5097
▁ukončen	-11.5097
▁centimetr	-11.5097
▁dívá	-11.5101
uskutečnila	-11.5102
spěje	-11.5103
ěsíční	-11.5104
▁podporují	-11.5107
▁algoritm	-11.5108
konalo	-11.5108
vodně	-11.5108
povídat	-11.511
▁krále	-11.5111
▁kapitul	-11.5111
▁Vždy	-11.5117
▁účinně	-11.5117
▁risk	-11.5117
▁Tchaj	-11.5118
▁exhibic	-11.5118
Cagiva	-11.5118
▁Apple	-11.5118
▁Barcelony	-11.5118
▁Budinský	-11.5118
▁Dudajev	-11.5118
▁Frankfurt	-11.5118
▁Honecker	-11.5118
▁Liverpool	-11.5118
▁Lobkowicz	-11.5118
▁Moskvy	-11.5118
▁Opět	-11.5118
▁Schumacher	-11.5118
▁Stráský	-11.5118
▁TNF	-11.5118
▁Větší	-11.5118
▁angličtiny	-11.5118
▁atribut	-11.5118
▁databázový	-11.5118
▁dosaženo	-11.5118
▁dětství	-11.5118
▁efektivnosti	-11.5118
▁epidemie	-11.5118
▁evoluce	-11.5118
▁extremist	-11.5118
▁hollywoodsk	-11.5118
▁intenzivní	-11.5118
▁jménu	-11.5118
▁konkurs	-11.5118
▁kriminalist	-11.5118
▁kritizoval	-11.5118
▁lhůtě	-11.5118
▁metabolick	-11.5118
▁nabízel	-11.5118
▁nabízet	-11.5118
▁nelíbí	-11.5118
▁nesmějí	-11.5118
▁notebook	-11.5118
▁pohledávky	-11.5118
▁poloostrov	-11.5118
▁polštář	-11.5118
▁pozůstatk	-11.5118
▁počínání	-11.5118
▁pronájmu	-11.5118
▁pódiu	-11.5118
▁redakční	-11.5118
▁ropovod	-11.5118
▁rozšiřování	-11.5118
▁seznámil	-11.5118
▁skrývá	-11.5118
▁spekulace	-11.5118
▁spekulací	-11.5118
▁svědectví	-11.5118
▁tlačítek	-11.5118
▁trápí	-11.5118
▁vztazích	-11.5118
▁výdělečn	-11.5118
▁zdůrazňuje	-11.5118
▁znepokojen	-11.5118
▁ÚSES	-11.5118
▁Luboš	-11.5118
▁bydliště	-11.5118
▁kosmické	-11.5118
▁lůžek	-11.5118
▁mrtvol	-11.5118
▁nekončí	-11.5118
▁profesní	-11.5118
▁terminologi	-11.5118
▁výzvu	-11.5118
kompenz	-11.5118
▁Haagu	-11.5118
▁Vánoční	-11.5118
▁nerozumí	-11.5118
▁poskytovan	-11.5118
▁prodavač	-11.5118
▁nazývá	-11.5118
▁přiznat	-11.5118
▁Vánoce	-11.5118
▁pojmy	-11.5118
▁skandál	-11.5118
▁plakát	-11.5118
▁pronajat	-11.5118
▁spektrum	-11.5118
▁uváděl	-11.5118
▁demisi	-11.5118
▁bezespor	-11.5118
▁Easy	-11.5118
▁pokouší	-11.5118
▁komplikace	-11.5118
▁koupě	-11.5118
▁pryč	-11.5118
▁levicov	-11.5118
▁praxí	-11.5118
▁mutace	-11.5118
▁nevadí	-11.5118
▁Kyjev	-11.5118
▁nejmladší	-11.5118
▁zastupování	-11.5118
týkat	-11.5118
▁Myslíte	-11.5118
▁něčím	-11.5118
týkal	-11.5118
▁Vaš	-11.5118
▁inteligentní	-11.5118
▁snižují	-11.5118
▁eventuáln	-11.5118
2:0	-11.5118
▁rovnost	-11.5118
▁veterán	-11.5118
▁reprezentuje	-11.5118
▁Neznám	-11.5118
▁bydlet	-11.5118
▁vyrobil	-11.5118
▁pohlaví	-11.5118
▁ledovce	-11.5118
▁mezisklad	-11.5118
▁usiloval	-11.5118
▁zastupitelství	-11.5119
▁Group	-11.5119
▁pořadatelů	-11.5119
▁ocas	-11.5119
▁bát	-11.5119
▁levněji	-11.5119
▁teplé	-11.5119
▁neodpovídá	-11.5119
▁slyšel	-11.5119
▁vápenc	-11.5119
▁strážníci	-11.5119
▁interpretace	-11.5119
▁pyšn	-11.5119
▁komunikací	-11.5119
▁ČSTK	-11.5119
▁nezajímá	-11.5119
▁léčby	-11.5119
▁součin	-11.5119
▁vyčleněn	-11.5119
▁někam	-11.5119
▁stolní	-11.5119
▁dozor	-11.5119
▁stoprocentní	-11.512
▁Olg	-11.512
▁námitky	-11.512
▁norem	-11.512
▁sousedství	-11.512
▁Dukla	-11.512
▁střechy	-11.512
▁Thun	-11.512
KDH	-11.512
▁sumy	-11.512
▁složitost	-11.512
▁HDP	-11.5121
▁Prohlásil	-11.5121
▁kabin	-11.5121
▁určí	-11.5121
míří	-11.5121
▁úředníci	-11.5122
▁kinematografie	-11.5122
▁pozitivně	-11.5122
▁prudké	-11.5122
kontinentální	-11.5123
▁dílčí	-11.5123
rozuměl	-11.5123
▁NOV	-11.5123
Finsko	-11.5124
▁teplý	-11.5124
▁novinkou	-11.5124
▁datum	-11.5124
▁Nemůže	-11.5124
▁Grafová	-11.5124
▁švýcarský	-11.5124
MF	-11.5125
▁Neměl	-11.5125
▁omezování	-11.5125
▁Lys	-11.5125
▁prodejců	-11.5126
▁selekčn	-11.5126
▁hluk	-11.5126
▁10%	-11.5127
▁účelům	-11.5127
▁Libor	-11.5127
tahuje	-11.5128
▁hektarů	-11.5128
▁mohutn	-11.5128
▁přenést	-11.5128
▁zkoušku	-11.5129
▁geografick	-11.5129
▁rozměrů	-11.5129
▁posuzování	-11.5129
▁Původní	-11.513
▁zmáčkn	-11.513
▁poškodil	-11.5131
▁přestávce	-11.5131
▁Postupně	-11.5131
▁ohrozit	-11.5131
▁Tatra	-11.5131
▁sídlo	-11.5131
▁dějinách	-11.5132
▁Web	-11.5133
▁socialistické	-11.5133
ring	-11.5135
▁odhaduje	-11.5135
▁předešl	-11.5135
▁přírodním	-11.5136
▁vykázal	-11.5136
▁uznává	-11.5136
▁Zpočátku	-11.5137
▁Pardubice	-11.5138
▁disponuje	-11.5138
▁špičkových	-11.5138
▁učební	-11.5138
▁hygienické	-11.5138
▁Vodičk	-11.514
▁sestra	-11.514
▁úsměvem	-11.514
▁trik	-11.5141
▁považoval	-11.5141
▁filozofické	-11.5143
▁Římě	-11.5143
▁předpokládají	-11.5144
CK	-11.5144
▁Určitě	-11.5145
▁badatelé	-11.5147
▁Izraele	-11.5148
▁svazek	-11.5148
▁LID	-11.5149
▁minulou	-11.515
platné	-11.515
▁dálnice	-11.5151
▁Zkus	-11.5151
▁motocyklů	-11.5151
▁List	-11.5152
▁drát	-11.5152
▁Lac	-11.5153
▁zvířete	-11.5153
▁zapsán	-11.5154
▁ostrově	-11.5155
▁klientel	-11.5156
▁vyplácení	-11.5156
▁finančním	-11.5156
▁invalidní	-11.5157
▁gest	-11.5159
▁zvon	-11.5162
▁kompresi	-11.5162
▁herci	-11.5163
▁prázdné	-11.5164
▁zrodil	-11.5164
▁spuštění	-11.5164
▁posádky	-11.5165
▁sněmovna	-11.517
▁vyhlášky	-11.517
▁berou	-11.5172
▁klepnutím	-11.5174
▁Kremlu	-11.5174
▁převodu	-11.5174
▁schránky	-11.5174
ovitých	-11.5175
▁Listin	-11.5175
▁iniciativy	-11.5176
▁Londýna	-11.5176
▁dáno	-11.5176
▁Paříže	-11.5177
▁azbestu	-11.5179
▁bazénu	-11.5179
jmenovaný	-11.5179
▁akcionáři	-11.5179
▁Těm	-11.5179
▁zakázku	-11.5179
▁sporů	-11.5181
▁zakázal	-11.5183
atřicetilet	-11.5183
▁Pravda	-11.5184
kání	-11.5184
▁přistoupil	-11.5185
▁učitelé	-11.5186
▁ekonomickým	-11.5186
vým	-11.5187
▁fotbalisty	-11.519
▁problémech	-11.519
▁zásobník	-11.5191
▁manipul	-11.5191
▁doplnění	-11.5191
▁starožitnost	-11.5192
▁pořádně	-11.5192
▁vteřiny	-11.5192
▁nevhodné	-11.5192
▁Benda	-11.5193
▁doprovodu	-11.5194
▁sond	-11.5196
▁vidíme	-11.5197
▁využíván	-11.5198
čov	-11.52
čínsk	-11.52
▁Nizozemska	-11.5202
▁omezeným	-11.5204
▁tunelu	-11.5205
▁dialogu	-11.5206
▁pomocník	-11.5206
▁volném	-11.5206
▁povrchem	-11.5207
▁krásn	-11.5207
▁zvané	-11.5208
▁povinné	-11.5209
▁výuky	-11.5211
▁prodávají	-11.5215
▁okamžité	-11.5217
nická	-11.5218
▁mzdové	-11.5219
▁vytvořený	-11.5222
57	-11.5222
▁kritiky	-11.5223
▁přežil	-11.5224
▁slevu	-11.5224
▁Sex	-11.5227
▁čar	-11.5227
▁poplatníků	-11.5228
▁předmětu	-11.5228
▁údaji	-11.523
▁procesory	-11.523
▁nazvaný	-11.523
▁paktu	-11.5231
▁náměstka	-11.5231
▁silnici	-11.5236
▁jízdu	-11.5236
prv	-11.5236
▁plzeňské	-11.5239
▁systémech	-11.5241
▁vlastník	-11.5242
▁občansk	-11.5243
▁používané	-11.5244
▁Nova	-11.5245
▁otázkami	-11.5245
slouží	-11.5248
▁dolaru	-11.5249
▁tváře	-11.525
▁230	-11.525
▁zaujím	-11.5252
▁olympiádu	-11.5253
▁sortimentu	-11.5254
▁59	-11.5257
▁vrah	-11.5261
▁ilustrac	-11.5261
▁útvarů	-11.5262
▁leteck	-11.5265
▁vyhrazen	-11.5267
▁Trh	-11.5271
▁monopolní	-11.5274
▁užití	-11.5276
▁vlivu	-11.5277
▁největšího	-11.5278
▁etnick	-11.5281
▁Ře	-11.5283
▁odpadu	-11.5283
▁Tito	-11.5284
▁Ivo	-11.5284
▁Tisk	-11.5284
▁zakázán	-11.5286
▁choroby	-11.5287
▁pacienty	-11.529
ázev	-11.529
šovat	-11.5291
▁zemřelo	-11.5291
ičku	-11.5294
▁hostin	-11.5294
počtu	-11.5294
▁ukázaly	-11.5299
▁vzali	-11.5301
▁94	-11.5301
▁soutěžích	-11.5302
▁rozmnož	-11.5306
▁nahradí	-11.5309
USA	-11.531
▁hodí	-11.5312
UD	-11.5314
Pro	-11.5314
škodí	-11.5316
▁Vir	-11.5319
▁zvolí	-11.5319
▁koná	-11.532
korun	-11.5322
can	-11.5322
▁slovenského	-11.5325
▁porazili	-11.5325
jeden	-11.5326
▁Ročn	-11.5328
▁zůstali	-11.5329
▁neobyčejn	-11.5331
▁doufám	-11.5336
jevit	-11.5336
▁nákladné	-11.5345
▁soli	-11.5346
▁stanovil	-11.535
▁zbožím	-11.5352
▁národa	-11.5354
JÍ	-11.5358
▁nebýval	-11.536
▁Map	-11.5364
▁postupuje	-11.5368
▁ptát	-11.537
▁činitel	-11.537
jistá	-11.5374
▁příznačn	-11.5375
▁Ph	-11.5378
▁zastávk	-11.5385
▁odběratele	-11.5386
▁Výrobc	-11.5389
▁tradičních	-11.539
▁právním	-11.5394
▁oprávněné	-11.5396
▁stálý	-11.5396
▁matematické	-11.5401
▁vysílač	-11.5402
NU	-11.5404
▁Japon	-11.5404
▁Dole	-11.5406
IA	-11.5406
▁místopředsedy	-11.5406
▁příklady	-11.5408
▁dokázala	-11.5412
▁dramatické	-11.5417
▁převyšuj	-11.5419
▁vyvážen	-11.5419
▁příkazu	-11.542
hřeb	-11.5423
členné	-11.5425
čnosti	-11.5426
▁dodá	-11.5438
▁pořádají	-11.544
▁automobilové	-11.5452
▁varianta	-11.5453
nar	-11.5453
▁Američanů	-11.5454
▁Švéd	-11.5456
▁hory	-11.5457
▁rozdílné	-11.5464
▁čt	-11.5465
▁způsobí	-11.5473
▁resort	-11.5473
▁demokrat	-11.5476
▁uzavřený	-11.5477
▁vlastníka	-11.5479
přestává	-11.5481
▁Přím	-11.5482
▁souhlasil	-11.5487
▁zálož	-11.5489
hodinový	-11.549
▁rozumí	-11.5492
▁Radnic	-11.5494
▁útoků	-11.5499
OT	-11.55
▁příjemně	-11.5501
▁skutečným	-11.5505
hrnul	-11.5508
▁evoluční	-11.5509
▁Významn	-11.5511
▁nejlepšími	-11.5512
dražil	-11.5516
▁Václavské	-11.5523
udit	-11.5529
▁milost	-11.5536
psání	-11.5536
▁plynáren	-11.5538
▁prokázán	-11.5542
ložený	-11.5543
▁konstatova	-11.5545
▁Způsob	-11.5549
▁vhodný	-11.555
▁nepříjemn	-11.5551
▁ran	-11.5555
▁doufá	-11.5557
▁rekordní	-11.5559
▁odklad	-11.5559
▁vložené	-11.5579
▁Obchod	-11.558
▁vyjadřuj	-11.5589
▁uvědomil	-11.5589
▁jakoukoli	-11.559
▁světle	-11.559
▁kouř	-11.5591
▁pomohla	-11.5593
▁hodině	-11.5593
▁opačné	-11.5596
bov	-11.5598
▁použitím	-11.5609
ÁNÍ	-11.5611
kazují	-11.5611
▁dokonč	-11.5613
stavovat	-11.5618
přineslo	-11.5618
▁Tan	-11.5623
▁Kraj	-11.5624
obyčejně	-11.5624
vědčí	-11.563
nikat	-11.563
platila	-11.5632
natý	-11.5642
▁Vysok	-11.5647
▁William	-11.565
podivu	-11.5657
▁zbytečný	-11.5658
hledné	-11.566
▁Opti	-11.5663
jednán	-11.5663
▁přírodovědeck	-11.5665
▁odporu	-11.5673
▁široký	-11.5677
▁vyvinul	-11.5678
▁Temelín	-11.5679
▁projevují	-11.5681
▁pocházejí	-11.5681
▁vozidl	-11.5681
rent	-11.5682
▁zlat	-11.5686
▁znalost	-11.5686
▁slavn	-11.5686
▁hnízd	-11.5687
▁Čtvrt	-11.5688
hodné	-11.569
▁totožn	-11.5691
▁vzrostl	-11.5691
▁absolvent	-11.5692
▁kontinent	-11.5699
evropský	-11.57
čítat	-11.5702
▁Word	-11.5702
▁násilí	-11.5703
▁cukr	-11.5703
▁terén	-11.5704
▁párů	-11.5704
▁nedoved	-11.5707
▁cítím	-11.5708
▁čtvereční	-11.571
▁period	-11.5711
▁rytíř	-11.5712
▁tratí	-11.5712
▁vyhlídk	-11.5714
▁připomínk	-11.5714
▁badatel	-11.5715
▁dohad	-11.5717
▁knížk	-11.5717
eckém	-11.5718
▁zkušebn	-11.5721
▁autorit	-11.5721
alba	-11.5724
▁nadějn	-11.5724
▁Vznikl	-11.5725
▁závislost	-11.5725
svědčuje	-11.5725
▁uplatňuj	-11.5726
▁použije	-11.5729
▁povrchov	-11.5729
▁síťové	-11.5729
▁postoupil	-11.5731
bod	-11.5732
▁doprovod	-11.5733
▁minima	-11.5734
ert	-11.5736
rah	-11.5736
▁Mik	-11.5737
▁Dět	-11.5738
▁infekc	-11.5739
▁zaplacen	-11.5739
členný	-11.5742
bezpeč	-11.5744
▁neprav	-11.5745
▁Šv	-11.5746
▁Míst	-11.5751
▁lekto	-11.5752
▁hospod	-11.5753
▁pozván	-11.5753
▁fenomén	-11.5754
▁Určit	-11.5758
stva	-11.5758
máhat	-11.5758
▁Invest	-11.5759
rovnání	-11.576
▁61	-11.576
▁konstru	-11.5762
▁nalezl	-11.5763
▁reaktor	-11.5763
▁sediment	-11.5764
▁měřit	-11.5766
▁penzi	-11.5767
▁byrokrat	-11.5777
▁komunik	-11.5777
chybějí	-11.5779
▁zkušen	-11.5781
▁osvět	-11.5782
▁KSČ	-11.5783
▁Jenom	-11.5783
JPEG	-11.5785
▁1983	-11.5785
▁Austrálie	-11.5785
▁Domnívám	-11.5785
▁Ludvík	-11.5785
▁Mitterrand	-11.5785
▁Návrat	-11.5785
▁Pistol	-11.5785
▁Vešker	-11.5785
▁WWW	-11.5785
▁bankovnictví	-11.5785
▁definice	-11.5785
▁deklaraci	-11.5785
▁domorodc	-11.5785
▁důležitější	-11.5785
▁federaci	-11.5785
▁firmách	-11.5785
▁fungování	-11.5785
▁infarkt	-11.5785
▁interiér	-11.5785
▁jednodušší	-11.5785
▁konfigurace	-11.5785
▁konkurovat	-11.5785
▁kvót	-11.5785
▁literatuře	-11.5785
▁marketingu	-11.5785
▁nenávist	-11.5785
▁novotvary	-11.5785
▁nukleární	-11.5785
▁odpovědět	-11.5785
▁plošný	-11.5785
▁pojišťovnou	-11.5785
▁problematice	-11.5785
▁prozradil	-11.5785
▁předpovědi	-11.5785
▁předvánoční	-11.5785
▁přerozdělování	-11.5785
▁přihlášen	-11.5785
▁referát	-11.5785
▁rekreaci	-11.5785
▁rozsudk	-11.5785
▁rozsáhlejší	-11.5785
▁rubrice	-11.5785
▁seskupení	-11.5785
▁symplektick	-11.5785
▁tolerance	-11.5785
▁trénovat	-11.5785
▁vypráví	-11.5785
▁vyžadovat	-11.5785
▁východoevropský	-11.5785
▁zapomenout	-11.5785
▁zaručit	-11.5785
▁zavražděn	-11.5785
▁zodpovězen	-11.5785
▁zákulisí	-11.5785
▁Četrans	-11.5785
▁špatnou	-11.5785
▁Maďarskem	-11.5785
▁Oldřich	-11.5785
▁Právo	-11.5785
▁Saúdsk	-11.5785
▁archiv	-11.5785
▁hardwarov	-11.5785
▁makléř	-11.5785
▁neškodn	-11.5785
▁populaci	-11.5785
▁tiskáren	-11.5785
▁účinků	-11.5785
▁kampaně	-11.5785
▁mikrofon	-11.5785
▁otazník	-11.5785
▁povolební	-11.5785
▁reagují	-11.5785
▁uvítal	-11.5785
▁vláken	-11.5785
▁vyslovit	-11.5785
▁vzbudil	-11.5785
▁účinné	-11.5785
přízeň	-11.5785
▁Ctrl	-11.5785
▁Francií	-11.5785
▁praktik	-11.5785
▁stráví	-11.5785
▁finalist	-11.5785
▁ujistil	-11.5785
▁infikova	-11.5785
▁Michel	-11.5785
▁zastupuje	-11.5785
▁Kurzy	-11.5785
▁povstal	-11.5785
▁značku	-11.5785
▁taxonomie	-11.5785
▁aridní	-11.5785
▁nabídek	-11.5785
▁ustavující	-11.5785
▁fází	-11.5785
▁přehnan	-11.5785
▁vybojoval	-11.5785
▁elementární	-11.5785
▁biochemi	-11.5785
▁Prokop	-11.5785
▁plastik	-11.5785
▁přípustn	-11.5785
▁úložiště	-11.5785
▁ovládací	-11.5785
▁Pivovar	-11.5785
▁desek	-11.5785
▁popředí	-11.5785
▁vrstva	-11.5785
▁rozdělí	-11.5785
▁uplatňován	-11.5785
▁odvezl	-11.5785
▁dřevěné	-11.5785
▁trasy	-11.5785
▁bezpečně	-11.5785
▁jednostrann	-11.5785
▁oboustrann	-11.5785
rně	-11.5785
▁FBIS	-11.5785
▁zánět	-11.5785
▁poušti	-11.5785
▁Informace	-11.5785
▁učiní	-11.5785
▁rozvíjet	-11.5785
▁mediální	-11.5785
▁lázní	-11.5786
▁léčbu	-11.5786
▁Soulu	-11.5786
▁realizace	-11.5786
▁komunikační	-11.5786
▁češtiny	-11.5786
▁Super	-11.5786
▁konsensus	-11.5786
▁komunit	-11.5786
▁dotaci	-11.5786
ford	-11.5786
▁Moravia	-11.5786
▁střídají	-11.5786
▁holub	-11.5786
▁zabránil	-11.5786
▁nepřesnost	-11.5786
▁Značn	-11.5786
▁robot	-11.5786
▁fakticky	-11.5786
▁bankrot	-11.5786
▁šipk	-11.5786
▁Nechci	-11.5787
▁1976	-11.5787
▁spotřeba	-11.5787
▁Setkání	-11.5787
▁nominaci	-11.5787
▁sníh	-11.5787
▁Cítí	-11.5787
▁toxické	-11.5787
▁poptávku	-11.5787
▁kameny	-11.5787
▁faul	-11.5787
▁publikaci	-11.5788
▁Irák	-11.5788
▁ČSD	-11.5788
▁vyprávěl	-11.5788
▁touží	-11.5788
▁podobnou	-11.5788
yplynulo	-11.5789
▁pestr	-11.5789
symetri	-11.5789
▁všední	-11.5789
▁Hleda	-11.5789
▁líčí	-11.579
▁distribuční	-11.579
▁kritick	-11.579
▁mezistátní	-11.579
▁Vzá	-11.579
▁nepamatuj	-11.5791
▁vystavuje	-11.5791
▁dvoudenní	-11.5791
▁obchodovat	-11.5791
▁produkcí	-11.5791
▁bál	-11.5792
▁uheln	-11.5792
▁rolí	-11.5792
▁volající	-11.5792
▁faktorem	-11.5792
▁porod	-11.5793
▁stěžovat	-11.5793
▁hepatocytů	-11.5793
▁rekordman	-11.5793
▁kardinál	-11.5794
▁Každé	-11.5794
▁Data	-11.5795
▁zajišťující	-11.5795
▁desetkrát	-11.5795
▁hospodaří	-11.5795
▁nestátní	-11.5795
▁bytový	-11.5796
▁plaz	-11.5796
▁spektra	-11.5796
▁zimy	-11.5796
▁palubě	-11.5796
▁Kladně	-11.5796
▁tendence	-11.5796
▁vlasy	-11.5797
▁stád	-11.5797
▁vynutil	-11.5797
▁cestách	-11.5798
▁významnější	-11.5798
živí	-11.5798
▁ředitelství	-11.5798
▁vyhodnocení	-11.5799
▁výšky	-11.58
1972	-11.58
▁umělci	-11.58
▁předloží	-11.58
▁dýcha	-11.5801
▁altruismus	-11.5801
▁ekonomikou	-11.5803
▁konání	-11.5804
▁odsoudil	-11.5804
▁uchazeč	-11.5805
▁přijatelná	-11.5806
znamenají	-11.5806
▁virus	-11.5806
▁pokrýt	-11.5807
▁zatížení	-11.5808
▁připraví	-11.5809
▁komentátor	-11.5809
▁zelený	-11.581
▁jednotlivce	-11.581
▁zajímavost	-11.581
▁dosáhne	-11.581
▁evropskou	-11.5811
▁hudbu	-11.5811
▁prokázat	-11.5811
psaný	-11.5811
▁pořádek	-11.5812
▁zvířecí	-11.5812
▁nouze	-11.5812
▁vysloužil	-11.5812
▁statistick	-11.5812
▁Kolumbi	-11.5813
▁vydávat	-11.5813
▁pozorovatelé	-11.5814
▁analýze	-11.5815
▁cokoli	-11.5815
LET	-11.5816
▁řetězce	-11.5817
▁pásmu	-11.5818
ousek	-11.5818
▁vysílací	-11.5819
▁nástupce	-11.5819
▁Číně	-11.5819
▁funkčnost	-11.5819
▁Lidový	-11.5819
▁zeď	-11.5819
▁řádku	-11.582
▁vyhrát	-11.5821
▁úzk	-11.5822
▁modelování	-11.5822
▁autobusem	-11.5823
▁ekonomiku	-11.5823
▁sumu	-11.5824
▁různě	-11.5824
▁přesností	-11.5824
sloučenin	-11.5825
▁soukromí	-11.5825
▁vědce	-11.5826
▁jistotou	-11.5826
▁Olympi	-11.5827
▁dodavatelů	-11.5828
▁předkol	-11.583
▁zmínil	-11.583
▁pevnin	-11.583
▁mlhy	-11.583
▁vyřazení	-11.5831
▁pozoruhodné	-11.5831
▁krajině	-11.5831
▁elektrod	-11.5832
▁oceánické	-11.5832
▁Šlo	-11.5834
▁podepsání	-11.5834
▁nepřinesl	-11.5834
▁pomst	-11.5836
▁technickou	-11.5836
▁Hel	-11.5837
▁nedokáže	-11.5837
▁středoevropské	-11.5838
kontroluje	-11.584
▁kurzů	-11.584
▁návštěvníky	-11.5841
▁směřující	-11.5842
▁Chebu	-11.5844
▁Nedo	-11.5845
▁hormonů	-11.5846
▁Alžběta	-11.5847
▁Bratinka	-11.5847
▁vyloučeno	-11.5848
▁výtvarník	-11.5848
▁optimismu	-11.585
▁nuly	-11.585
▁dopisů	-11.5851
▁zastává	-11.5851
▁ránu	-11.5851
▁slavnosti	-11.5853
▁obchodník	-11.5854
dražit	-11.5855
▁motorem	-11.5855
▁řešil	-11.5856
▁kalendářní	-11.5857
▁výhodný	-11.5858
▁nositel	-11.5859
▁plen	-11.586
▁kanály	-11.5861
▁bránil	-11.5861
▁rozpočtový	-11.5862
▁odstoupil	-11.5864
▁pokladny	-11.5864
▁disciplíny	-11.5865
▁zjednodušen	-11.5865
▁Stor	-11.5866
cházející	-11.5867
▁předsedkyn	-11.5867
▁geo	-11.5868
▁dán	-11.587
▁listiny	-11.5872
štění	-11.5873
▁sestaven	-11.5874
▁Francouzský	-11.5874
▁atleti	-11.5875
▁uvolni	-11.5875
▁vybrali	-11.5876
▁stoupla	-11.5877
▁přístavu	-11.5879
▁přispívají	-11.5879
▁tělesn	-11.5881
▁dospělých	-11.5881
izovan	-11.5884
▁telefonů	-11.5885
náze	-11.5886
▁Anna	-11.5886
▁útvaru	-11.5886
▁Fakt	-11.5886
▁větru	-11.5887
▁citeln	-11.5887
▁zvykem	-11.5887
▁Svobodn	-11.5887
▁autobusové	-11.5888
▁středověku	-11.5889
▁aparátu	-11.589
▁diplomatický	-11.5892
▁diváky	-11.5893
rovnávání	-11.5893
▁vzrostla	-11.5894
▁úhradu	-11.5894
▁aplikacemi	-11.5895
▁Historick	-11.5895
▁vědecky	-11.5895
▁nevěděli	-11.5896
▁vyloučení	-11.5897
▁městem	-11.5898
▁samotného	-11.5898
▁filmař	-11.59
▁opakuje	-11.5901
▁táhn	-11.5904
▁délky	-11.5904
▁etapa	-11.5904
▁dozvěděli	-11.5906
▁Kos	-11.5909
▁dodávat	-11.591
▁hosté	-11.5911
▁pořádání	-11.5912
▁návratnost	-11.5912
▁Možnosti	-11.5912
▁válečný	-11.5913
▁nastane	-11.5914
▁dramatick	-11.5914
▁zvolení	-11.5917
▁ostrova	-11.5917
▁dluhy	-11.5917
sadili	-11.5918
▁svěřil	-11.5921
▁druhých	-11.5923
▁katastrofy	-11.5923
▁Hilla	-11.5924
▁bon	-11.5925
▁nahoře	-11.5925
▁přísné	-11.5927
▁černého	-11.5927
trpěl	-11.5928
▁klesla	-11.5928
atrně	-11.5929
▁Eli	-11.5931
▁Alan	-11.5933
▁možnostech	-11.5934
▁vysokým	-11.5935
▁zúčastněný	-11.5937
▁titulem	-11.5938
▁korunu	-11.5939
▁nezávislosti	-11.594
▁nemáte	-11.5942
▁odstupné	-11.5943
▁postaví	-11.5943
▁tématu	-11.5943
▁hladinu	-11.5944
▁liga	-11.5944
▁chaty	-11.5947
▁proteinu	-11.5947
▁nazvané	-11.5949
▁nejbližším	-11.595
▁obchodníky	-11.5953
▁objevilo	-11.5953
▁Muži	-11.5956
▁zoologick	-11.5958
▁katalogu	-11.5959
▁dovnitř	-11.596
▁rezervy	-11.5961
▁investici	-11.5961
▁zločiny	-11.5963
▁horké	-11.5963
hodná	-11.5964
▁nepřímo	-11.5964
▁úspěšných	-11.5964
lizace	-11.5966
▁představila	-11.5967
▁přítel	-11.5969
▁kurzy	-11.5969
▁Avi	-11.5972
▁předák	-11.5973
▁Chorvatsk	-11.5973
▁bra	-11.5979
▁editoru	-11.5982
▁nechtěli	-11.5985
▁zaměstnavateli	-11.599
▁pohybů	-11.5992
▁kanceláři	-11.5992
▁generálním	-11.5996
▁góly	-11.5999
▁založili	-11.5999
▁radí	-11.6
děláme	-11.6004
čková	-11.6005
▁kulturu	-11.6006
hodnost	-11.6007
▁požádala	-11.6009
▁sub	-11.6009
▁kursu	-11.6013
▁rock	-11.602
▁podzimu	-11.6023
▁ověřit	-11.6024
pracovala	-11.6026
▁krádež	-11.6026
▁zápasech	-11.6031
▁tréninku	-11.6032
▁ledu	-11.6037
▁zastánc	-11.6037
▁nedělním	-11.6039
hořel	-11.6039
▁udělala	-11.604
panuje	-11.604
▁Dne	-11.604
▁krásný	-11.6041
▁vítězem	-11.6043
ALE	-11.6054
▁jede	-11.6054
▁šťastný	-11.6059
▁Park	-11.606
SO	-11.6061
▁nabídla	-11.6063
▁samém	-11.6064
▁nacházejí	-11.6069
pokládat	-11.6069
ohled	-11.6071
▁jasný	-11.6071
▁vlastníky	-11.6075
▁přiměřen	-11.6077
▁dotazy	-11.608
značení	-11.6081
▁lebk	-11.6087
vydržel	-11.609
▁dokonalý	-11.6091
▁osobním	-11.6094
▁známy	-11.6095
poškozené	-11.6095
▁položen	-11.6097
▁Černé	-11.6098
▁českými	-11.6101
nesení	-11.6102
▁cizím	-11.6104
▁kapacita	-11.6107
▁vyroben	-11.6107
▁českému	-11.6108
čištění	-11.6109
obec	-11.6111
▁nacházel	-11.6111
▁Jejím	-11.6111
▁krátkém	-11.6114
▁Nov	-11.6115
UM	-11.6115
zie	-11.6116
▁Perské	-11.6129
stižen	-11.6129
▁vozí	-11.6131
▁majetkové	-11.6132
▁dotazu	-11.6133
míněn	-11.6135
▁Americké	-11.6136
tržení	-11.6138
který	-11.614
▁upravené	-11.6141
méno	-11.6142
▁královské	-11.6143
▁maso	-11.6144
hradil	-11.6145
ovská	-11.6147
▁nařídil	-11.6147
▁Van	-11.6152
vanou	-11.6157
▁disky	-11.6157
pravicov	-11.6158
▁Casimir	-11.6159
loha	-11.6159
▁jakosti	-11.6159
▁Mont	-11.6159
▁trávi	-11.6163
▁nedělá	-11.6166
▁patřičn	-11.6169
▁distribu	-11.617
pec	-11.6171
táče	-11.6171
▁Alb	-11.6172
▁dosáhli	-11.6173
▁poradenské	-11.6175
▁obcích	-11.6176
▁moderního	-11.6178
▁následné	-11.6179
▁vložil	-11.6179
▁logik	-11.6181
▁měnil	-11.6183
▁Spíš	-11.6184
96	-11.6186
▁obecný	-11.619
▁integr	-11.619
kupuje	-11.6192
▁ohni	-11.6192
▁vypracoval	-11.6193
▁náboženský	-11.6194
▁starších	-11.6195
účel	-11.6196
NG	-11.62
▁pravým	-11.6201
▁Borise	-11.6201
▁poloh	-11.6202
▁bitv	-11.6203
▁prodával	-11.621
zkoumat	-11.6212
aktivac	-11.6212
EP	-11.6216
▁budoucím	-11.6217
▁vytvořené	-11.622
▁spolehliv	-11.6221
▁4000	-11.6224
▁faktur	-11.6231
▁dostával	-11.6232
▁nád	-11.6234
ladit	-11.6234
▁Výstav	-11.6238
▁osobou	-11.624
▁doprav	-11.6241
▁socialist	-11.6253
▁Mladiče	-11.6255
▁vrcholové	-11.6257
▁velitele	-11.6262
▁časy	-11.6262
dova	-11.627
léhá	-11.627
▁květ	-11.6283
▁trn	-11.6289
▁sobotním	-11.6289
▁mužem	-11.629
četné	-11.6292
▁obrovsk	-11.6292
▁vymez	-11.6293
▁Druh	-11.6293
▁slušný	-11.6296
▁jednotn	-11.6297
▁Podpor	-11.6298
▁překonal	-11.6298
▁nabízené	-11.6302
▁díle	-11.6303
▁předků	-11.6304
▁podrobně	-11.6314
▁poražen	-11.6316
▁prostý	-11.6317
ocel	-11.6322
▁Janov	-11.6325
▁Prac	-11.6327
▁udělen	-11.6338
▁vrácen	-11.634
▁podstatn	-11.6342
▁strašn	-11.6344
▁vyplacen	-11.6346
▁porážk	-11.6352
▁ovlivnil	-11.6354
▁Začátk	-11.6355
vlas	-11.6355
▁splněn	-11.6355
▁slavnost	-11.6356
▁Hill	-11.6358
▁Hans	-11.636
▁způsobeno	-11.6361
▁peče	-11.6363
▁Daně	-11.6373
▁poplatník	-11.6374
ůbec	-11.6377
▁měřítk	-11.6384
malý	-11.6385
▁prah	-11.6386
▁racionální	-11.6387
▁žádného	-11.639
▁muslimsk	-11.6391
▁Tureck	-11.6393
▁pozic	-11.6396
▁nemovitost	-11.6397
konaly	-11.6402
šan	-11.6403
ovku	-11.6411
rského	-11.6415
▁něčem	-11.6417
▁poslání	-11.6417
▁Skutečn	-11.6422
▁ovládá	-11.6423
▁propojen	-11.6423
▁radio	-11.6424
▁případném	-11.6424
▁interval	-11.6425
▁krk	-11.6426
▁spravedlnost	-11.6429
▁myš	-11.6429
▁přednášk	-11.6429
▁Jir	-11.643
▁vynález	-11.643
▁elektřin	-11.6431
▁Červen	-11.6432
▁architektur	-11.6434
▁spustí	-11.6435
drobnější	-11.6436
▁ukazatel	-11.6436
▁problémům	-11.6437
▁poskytován	-11.6439
▁poly	-11.6442
▁zklamán	-11.6443
▁53	-11.6447
gramů	-11.6447
▁naplněn	-11.6451
▁charakterizova	-11.6452
▁honorář	-11.6459
▁tržb	-11.6459
▁Dohod	-11.6459
▁bilanc	-11.6459
▁televizním	-11.6461
▁Víc	-11.6463
▁nemocné	-11.6466
▁čestn	-11.6466
▁zvyšují	-11.6467
▁dovednost	-11.6467
▁doporučen	-11.6467
▁sexu	-11.6472
▁fundamentalist	-11.6474
▁odvet	-11.6474
bitový	-11.6475
▁kilogram	-11.6478
▁doplňují	-11.6479
ografické	-11.6479
▁srovnateln	-11.6481
▁TV	-11.6483
▁39	-11.6484
▁kořen	-11.6486
▁Bob	-11.6486
▁průvod	-11.6486
▁stanovis	-11.6489
▁teplá	-11.6489
▁bývalým	-11.649
▁identifik	-11.6494
▁vycházejí	-11.6496
▁učit	-11.6496
▁účinku	-11.6498
▁Akademie	-11.6499
▁Delphi	-11.6499
▁SPIRIT	-11.6499
▁Teplice	-11.6499
▁databáze	-11.6499
▁injekc	-11.6499
▁katalyzátor	-11.6499
▁komisař	-11.6499
▁komodit	-11.6499
▁milisekund	-11.6499
▁podezřelý	-11.6499
▁pojišťovně	-11.6499
▁poštovní	-11.6499
▁raketoplán	-11.6499
▁tekutin	-11.6499
▁velvyslanec	-11.6499
▁vrtulník	-11.6499
▁vyčerpán	-11.6499
▁zopakoval	-11.6499
▁Černomyrdin	-11.6499
ýpovědní	-11.6499
▁Albertville	-11.6499
▁Bratislavy	-11.6499
▁Digital	-11.6499
▁Dokument	-11.6499
▁General	-11.6499
▁Hospodářsk	-11.6499
▁Kuvajt	-11.6499
▁Netanjahu	-11.6499
▁Princip	-11.6499
▁Reichel	-11.6499
▁TWA	-11.6499
▁Vynikající	-11.6499
▁brožur	-11.6499
▁bulharsk	-11.6499
▁databázi	-11.6499
▁delegát	-11.6499
▁dveřmi	-11.6499
▁emitent	-11.6499
▁finálové	-11.6499
▁havárii	-11.6499
▁inzulín	-11.6499
▁kanalizací	-11.6499
▁komedie	-11.6499
▁kompetencí	-11.6499
▁lahví	-11.6499
▁lidstvo	-11.6499
▁nechybí	-11.6499
▁nesrovnateln	-11.6499
▁nosorožců	-11.6499
▁novorozen	-11.6499
▁odpolední	-11.6499
▁ofsajd	-11.6499
▁olomoucké	-11.6499
▁omezit	-11.6499
▁organismy	-11.6499
▁paradigma	-11.6499
▁pohodlné	-11.6499
▁pojišťoven	-11.6499
▁portfeje	-11.6499
▁poválečn	-11.6499
▁pořizovací	-11.6499
▁pátku	-11.6499
▁přísluší	-11.6499
▁sféře	-11.6499
▁smířit	-11.6499
▁splátek	-11.6499
▁stadiu	-11.6499
▁těhotenství	-11.6499
▁vyústi	-11.6499
▁zahájit	-11.6499
▁zakázek	-11.6499
▁zaručuje	-11.6499
▁zdůraznit	-11.6499
▁zneužívání	-11.6499
▁zpracovává	-11.6499
▁záruční	-11.6499
▁zázračn	-11.6499
▁účinnou	-11.6499
▁železnice	-11.6499
▁Němce	-11.6499
▁Pálffy	-11.6499
▁SGI	-11.6499
▁holding	-11.6499
▁informuje	-11.6499
▁lehký	-11.6499
▁obyvatelstvo	-11.6499
▁prodluž	-11.6499
▁přeplněn	-11.6499
▁severozápad	-11.6499
▁trénuj	-11.6499
▁Československý	-11.6499
▁Student	-11.6499
▁chystají	-11.6499
▁kultuře	-11.6499
▁odstavec	-11.6499
▁rozsáhlou	-11.6499
▁srbské	-11.6499
▁stěžuje	-11.6499
▁tvořiv	-11.6499
▁železné	-11.6499
▁James	-11.6499
▁Zajímal	-11.6499
▁svrchované	-11.6499
▁nejblíže	-11.6499
▁netrpěliv	-11.6499
▁podepsat	-11.6499
▁dávek	-11.6499
▁někomu	-11.6499
▁Automatick	-11.6499
▁Holandsk	-11.6499
▁Kadlec	-11.6499
▁nikomu	-11.6499
▁Prahou	-11.6499
▁loupež	-11.6499
▁odhalit	-11.6499
▁Mlýn	-11.6499
▁poznámky	-11.6499
▁přetížen	-11.6499
▁oběhové	-11.6499
▁úchyt	-11.6499
▁mutací	-11.6499
▁umírněn	-11.6499
▁prováděl	-11.6499
▁PŘI	-11.6499
LSNS	-11.6499
▁Fuchs	-11.6499
▁Zpráv	-11.6499
▁Bohuslav	-11.6499
▁FMV	-11.6499
▁modré	-11.6499
▁něčeho	-11.6499
▁Louis	-11.6499
▁Zdravotn	-11.6499
▁ceremoniál	-11.6499
▁Front	-11.6499
▁vybudoval	-11.6499
▁dědeček	-11.6499
▁hokejistů	-11.6499
▁formálně	-11.6499
▁mocenské	-11.6499
▁nedaleké	-11.6499
▁Účastníci	-11.6499
▁chleba	-11.6499
▁fotografií	-11.6499
▁paměť	-11.6499
▁polymer	-11.6499
▁legendární	-11.6499
▁stromeček	-11.6499
▁kamión	-11.6499
▁podporoval	-11.6499
▁implantát	-11.6499
▁diktátor	-11.6499
▁lehko	-11.6499
▁lákav	-11.6499
▁Samotn	-11.65
▁kapsy	-11.65
▁Kouba	-11.65
▁usedl	-11.65
▁Opava	-11.65
▁jízdenk	-11.65
▁Týden	-11.65
▁Život	-11.65
▁nazvat	-11.65
hánějí	-11.65
▁vyhořelé	-11.65
▁nejsme	-11.65
▁zmizí	-11.65
▁adaptace	-11.65
hrádk	-11.65
▁1979	-11.65
▁pojmu	-11.65
▁neuron	-11.65
▁kopií	-11.65
▁málokdo	-11.65
▁písmo	-11.65
▁transport	-11.65
▁účinnější	-11.65
▁Zápas	-11.65
▁štědr	-11.65
▁princ	-11.65
▁Muze	-11.65
▁Ježek	-11.65
▁stimulaci	-11.65
▁Bartoš	-11.65
▁Hledá	-11.65
▁Klasick	-11.65
▁ležel	-11.65
▁Následující	-11.6501
▁hlučn	-11.6501
▁neznají	-11.6501
▁rovný	-11.6501
▁oblouk	-11.6501
▁nikam	-11.6501
▁Španělsku	-11.6501
▁vejce	-11.6501
▁jinam	-11.6501
▁psy	-11.6501
▁výsad	-11.6501
▁nosič	-11.6501
▁ultra	-11.6501
▁registrační	-11.6501
▁1970	-11.6501
▁pískov	-11.6501
▁zády	-11.6501
▁nájezd	-11.6501
▁odezv	-11.6501
▁nepodaří	-11.6501
▁Suková	-11.6502
▁hraček	-11.6502
▁nikde	-11.6502
▁KGB	-11.6502
▁protestant	-11.6502
▁zranil	-11.6502
▁Jaw	-11.6502
▁posílit	-11.6502
vážil	-11.6502
▁třídenní	-11.6502
▁kouření	-11.6502
▁principů	-11.6503
▁republikánsk	-11.6503
▁umělců	-11.6503
▁Januš	-11.6503
▁bohatší	-11.6503
▁starat	-11.6503
▁vyzkoušet	-11.6503
▁Obavy	-11.6503
▁vyhledávání	-11.6503
▁sněmu	-11.6503
▁Přenos	-11.6504
▁Kováč	-11.6504
▁topení	-11.6504
▁lékařství	-11.6504
přát	-11.6504
▁koncept	-11.6504
▁kras	-11.6504
▁inteligence	-11.6504
▁odnětí	-11.6504
▁Jágr	-11.6504
▁stanovisku	-11.6504
▁nádrž	-11.6504
vracení	-11.6505
▁Stef	-11.6505
▁pozorovatel	-11.6505
▁PET	-11.6506
▁koncepčn	-11.6506
▁deště	-11.6506
▁potká	-11.6507
▁manželkou	-11.6507
▁Dostál	-11.6507
▁články	-11.6507
▁kolegové	-11.6507
▁překonání	-11.6507
▁palet	-11.6507
▁příloh	-11.6508
▁řadič	-11.6508
▁Snah	-11.6508
▁Boha	-11.6508
▁vracel	-11.6508
▁způsobilosti	-11.6508
▁sloves	-11.6509
▁okně	-11.6509
▁zelené	-11.6509
▁Indián	-11.6509
▁deska	-11.6509
▁ordinace	-11.651
▁odstoupení	-11.651
▁zkoumání	-11.6511
▁přenáší	-11.6511
▁Ken	-11.6511
▁Horák	-11.6512
▁dostání	-11.6512
▁jasná	-11.6513
▁Esc	-11.6513
▁vyprš	-11.6514
▁konstantní	-11.6514
▁vyrazil	-11.6514
▁602	-11.6514
▁terč	-11.6517
▁radikálně	-11.6517
▁novinky	-11.6517
▁oběť	-11.6517
▁Hodn	-11.6517
▁protín	-11.6517
▁sešla	-11.6517
▁rozměry	-11.6518
▁zařadit	-11.6519
▁France	-11.6519
▁nehraje	-11.6519
▁koncov	-11.652
▁ČESK	-11.652
▁křesťanské	-11.652
▁výměně	-11.652
▁sloučení	-11.6521
▁závazku	-11.6521
▁spolupracuje	-11.6521
▁šancí	-11.6522
▁sovět	-11.6522
▁odletěl	-11.6522
▁příznaky	-11.6522
▁Dvou	-11.6523
▁půlnoci	-11.6523
Edit	-11.6523
▁Čína	-11.6523
uad	-11.6523
formulovat	-11.6523
▁nedají	-11.6524
▁stížností	-11.6524
▁dodržovat	-11.6524
▁Místopředsed	-11.6526
▁regionů	-11.6527
▁říční	-11.6527
▁odhalení	-11.6527
▁plánuje	-11.6528
▁výměnou	-11.6528
▁známky	-11.6528
▁představovat	-11.6528
vaná	-11.6529
▁pitné	-11.653
▁Výkon	-11.6531
▁ropy	-11.6531
▁Open	-11.6531
▁podob	-11.6533
▁občanský	-11.6533
▁činitelé	-11.6533
▁teroristický	-11.6534
▁skoky	-11.6534
▁teoreticky	-11.6535
▁Mnichově	-11.6535
▁hudba	-11.6535
extrémně	-11.6535
▁svatého	-11.6536
▁ponechal	-11.6536
▁neuvažuje	-11.6536
▁stáj	-11.6537
▁Clintonová	-11.6538
▁cla	-11.6538
▁funkcionářů	-11.6539
▁dobrovolně	-11.6539
▁dopravou	-11.6539
▁honoráře	-11.654
▁pětatřicet	-11.654
▁stručně	-11.654
▁basketbalist	-11.6541
▁nechut	-11.6541
▁kříže	-11.6542
▁zakládání	-11.6543
▁bodech	-11.6543
▁kosti	-11.6544
▁Dovol	-11.6545
▁směsi	-11.6546
▁věcech	-11.6546
▁rakouských	-11.6547
▁mřížky	-11.6548
podnik	-11.6548
▁dostanete	-11.6548
point	-11.6549
▁sochař	-11.6549
▁znakem	-11.655
▁prodejen	-11.655
▁vídeňské	-11.6551
▁skrz	-11.6551
▁kolena	-11.6551
▁předpokladů	-11.6552
▁soukromá	-11.6553
▁lokality	-11.6554
▁zklamání	-11.6556
▁Střední	-11.6556
▁zdálo	-11.6557
▁neshody	-11.6557
▁Bonnu	-11.6557
▁pojmem	-11.6557
▁vlastnostmi	-11.6557
▁zpožděním	-11.6557
▁etapu	-11.6559
▁vnímá	-11.6559
▁tématem	-11.6561
▁kůry	-11.6561
▁zájezdů	-11.6563
▁publikum	-11.6564
DP	-11.6564
▁pleti	-11.6565
▁teplotou	-11.6565
▁vzdálený	-11.6566
▁Krajin	-11.6567
▁záchranu	-11.6569
▁drsn	-11.657
▁jednorázové	-11.657
▁buněčné	-11.6572
▁Výborný	-11.6572
▁provádění	-11.6572
▁větě	-11.6572
smluvně	-11.6573
SOU	-11.6574
▁thajské	-11.6577
MW	-11.6577
▁lidskou	-11.6579
zemědělská	-11.6579
▁symbolem	-11.658
▁čtverečních	-11.658
▁Chorvatsku	-11.6581
▁psací	-11.6583
▁ptá	-11.6583
▁celo	-11.6583
▁hrací	-11.6583
▁paláci	-11.6584
▁spořitelny	-11.6585
▁organismus	-11.6586
▁většinový	-11.6586
▁kostele	-11.6586
▁Běl	-11.6588
▁činitelů	-11.6589
▁kyseliny	-11.659
▁trhů	-11.6591
▁pochopili	-11.6592
▁popsal	-11.6593
▁hormony	-11.6594
78	-11.6595
▁kostr	-11.6595
▁gólem	-11.6597
▁Adam	-11.6598
▁programech	-11.6598
▁kolegům	-11.6601
▁náhrada	-11.6601
▁popel	-11.6602
schová	-11.6603
▁nepříznivý	-11.6604
▁působnost	-11.6606
▁Kanady	-11.6606
muslimské	-11.6608
▁rohu	-11.6609
▁porážky	-11.6609
▁kdybych	-11.661
▁autobusu	-11.6611
▁přestupu	-11.6615
▁spuštěn	-11.6615
▁zajišťoval	-11.6616
▁připravenost	-11.6618
▁POD	-11.6618
▁umožnilo	-11.6619
▁použito	-11.6623
▁navázal	-11.6624
▁okolnosti	-11.6625
▁ceníku	-11.6625
▁Strany	-11.6626
žívají	-11.6629
▁jakýkoli	-11.6631
▁Brod	-11.6631
▁nemůžete	-11.6631
▁výměna	-11.6632
▁vlhkost	-11.6632
▁čest	-11.6632
▁Jelcinovi	-11.6633
▁hezké	-11.6634
▁startem	-11.6634
▁nervové	-11.6635
▁kontaktů	-11.6636
▁dovedl	-11.6637
▁odebíra	-11.664
▁skladby	-11.664
▁Ren	-11.6641
▁diskety	-11.6642
▁listopad	-11.6644
běhnout	-11.6644
▁teplotu	-11.6646
▁částech	-11.6649
▁Vysoké	-11.6649
▁maz	-11.6653
▁boty	-11.6655
▁pokusili	-11.6658
▁klientům	-11.6659
▁schopný	-11.6659
▁Firmy	-11.6659
▁mimořádného	-11.666
▁uloženy	-11.6662
▁animac	-11.6664
[...]
