<unk>	0
<s>	0
</s>	0
<doc>	0
</doc>	0
<head>	0
</head>	0
<phr>	0
</phr>	0
▁	-1.77175
,	-3.38306
.	-3.52323
▁a	-4.45942
a	-4.49141
▁v	-4.50258
u	-4.52562
▁se	-4.61412
m	-4.64595
▁na	-4.70969
y	-4.76044
i	-4.77356
ch	-4.9349
▁je	-5.14501
▁z	-5.27633
▁s	-5.27678
ho	-5.30253
▁"	-5.33536
o	-5.36157
▁že	-5.40062
e	-5.43263
á	-5.44423
s	-5.53529
▁do	-5.57304
í	-5.59986
▁o	-5.61505
ou	-5.64096
em	-5.71225
é	-5.71406
t	-5.72825
ě	-5.73291
▁za	-5.75081
▁pro	-5.75434
ů	-5.80971
▁po	-5.82021
▁-	-5.91851
ž	-5.94499
▁k	-5.97027
to	-6.0118
▁V	-6.03039
▁to	-6.10209
▁ve	-6.1315
▁(	-6.13891
mi	-6.18142
z	-6.21124
▁by	-6.23936
ý	-6.23989
▁i	-6.25831
ní	-6.31518
▁od	-6.3175
▁ale	-6.34045
>	-6.35395
l	-6.4106
p	-6.42404
d	-6.42694
▁si	-6.43423
▁při	-6.43972
ně	-6.44835
v	-6.44992
▁ne	-6.5146
ých	-6.52691
▁jsou	-6.52937
▁S	-6.54166
▁jako	-6.55054
r	-6.5512
k	-6.55813
▁které	-6.5812
ce	-6.62846
)	-6.64231
te	-6.64571
▁vy	-6.64827
▁však	-6.6587
▁:	-6.69618
▁tak	-6.70369
me	-6.71626
na	-6.74178
ka	-6.76317
▁který	-6.77452
x	-6.78451
b	-6.80045
▁Po	-6.81042
li	-6.8397
▁nebo	-6.85646
▁jeho	-6.86489
▁bude	-6.8739
la	-6.88357
▁A	-6.88885
?	-6.89949
ku	-6.90342
ná	-6.90955
né	-6.91481
▁před	-6.92139
▁jen	-6.93846
č	-6.94622
ci	-6.96097
ové	-6.96816
▁než	-7.0174
▁má	-7.02322
▁Na	-7.03225
▁Z	-7.04128
n	-7.04145
ého	-7.0454
le	-7.04898
ky	-7.06811
▁už	-7.06898
mu	-7.08317
▁aby	-7.10154
▁jak	-7.11442
▁byl	-7.12221
š	-7.12436
it	-7.1252
▁jejich	-7.13749
lo	-7.14058
▁jsem	-7.15081
▁být	-7.153
ech	-7.1532
st	-7.15872
j	-7.16319
▁až	-7.16764
▁která	-7.19791
▁P	-7.20416
▁také	-7.20495
▁Je	-7.21301
h	-7.22451
uje	-7.22771
▁podle	-7.23135
▁jsme	-7.23758
▁<	-7.24898
▁O	-7.25002
ovat	-7.25798
c	-7.26377
▁ze	-7.27316
▁K	-7.28527
ek	-7.30431
nou	-7.32659
▁pře	-7.33695
▁co	-7.33791
▁mezi	-7.36877
▁není	-7.37153
ni	-7.3777
cí	-7.38286
že	-7.38408
ří	-7.38449
ová	-7.39154
en	-7.39668
al	-7.39828
▁bylo	-7.40383
ým	-7.40938
f	-7.41687
▁ani	-7.41791
▁své	-7.41926
ře	-7.41955
▁či	-7.42237
▁ještě	-7.43174
in	-7.44029
▁již	-7.442
no	-7.44958
▁když	-7.45238
g	-7.45517
▁může	-7.45987
▁let	-7.46165
▁byla	-7.4845
kud	-7.49395
▁toho	-7.50308
vá	-7.50647
ný	-7.51194
/	-7.51762
▁korun	-7.52266
ze	-7.5269
po	-7.53078
il	-7.53708
).	-7.56694
▁pod	-7.56886
▁pak	-7.57231
▁To	-7.58746
▁další	-7.58808
▁Ne	-7.59117
ách	-7.59523
▁bez	-7.60731
▁kteří	-7.60864
ské	-7.60877
ování	-7.61229
▁kde	-7.61269
▁tím	-7.62003
ň	-7.62084
jí	-7.6245
ra	-7.63534
▁více	-7.64607
on	-7.64937
▁té	-7.6604
▁tedy	-7.67167
▁první	-7.67405
▁roku	-7.67456
ost	-7.67799
▁M	-7.68418
pl	-7.69044
ko	-7.69104
ř	-7.694
▁roz	-7.6947
ne	-7.69792
ta	-7.71022
ro	-7.71028
ových	-7.71312
lu	-7.72021
▁H	-7.72031
▁nich	-7.72095
ují	-7.72339
ru	-7.72361
ných	-7.72437
),	-7.73237
▁U	-7.73377
ům	-7.75598
vě	-7.76353
▁mají	-7.76657
▁D	-7.77039
▁Za	-7.77933
ti	-7.78572
▁tu	-7.79193
ři	-7.79286
▁I	-7.79396
ovi	-7.8046
▁Do	-7.80621
▁kdy	-7.81454
ov	-7.8148
▁roce	-7.8153
-	-7.8168
▁proti	-7.81783
▁pouze	-7.81801
▁musí	-7.8202
el	-7.83301
▁tom	-7.83764
da	-7.8384
▁J	-7.83928
va	-7.84071
▁tomu	-7.85297
▁Pro	-7.86596
kou	-7.86857
▁ke	-7.87278
▁proto	-7.87561
cích	-7.87825
▁nad	-7.87834
▁budou	-7.8857
at	-7.89074
vý	-7.8923
▁třeba	-7.89614
čí	-7.90209
če	-7.90278
ny	-7.90288
▁li	-7.90334
▁protože	-7.90938
or	-7.91115
▁totiž	-7.91667
▁nás	-7.92615
▁přes	-7.93901
▁lze	-7.94084
je	-7.94137
▁asi	-7.95325
▁vlastní	-7.95455
ví	-7.9592
▁její	-7.97388
děl	-7.97915
nu	-7.98157
▁byly	-7.98989
▁poslední	-7.9905
▁velmi	-7.9913
▁měl	-7.99176
▁zatím	-7.99704
er	-7.99913
▁řekl	-8.00102
ba	-8.00359
ri	-8.02015
tu	-8.02771
ly	-8.0293
tr	-8.03138
▁Při	-8.03211
lá	-8.04005
▁ob	-8.04166
lí	-8.04333
▁včera	-8.04418
co	-8.04661
ový	-8.04783
▁G	-8.04825
ma	-8.04855
▁nej	-8.05172
D	-8.05875
ty	-8.05997
ém	-8.06977
M	-8.07355
ného	-8.07958
osti	-8.08449
▁všech	-8.08557
▁T	-8.09311
▁dnes	-8.0935
S	-8.09489
oval	-8.09525
▁B	-8.0961
či	-8.09817
▁firmy	-8.09819
se	-8.10235
ší	-8.10598
▁ty	-8.1062
▁dva	-8.1072
▁především	-8.12138
▁tisíc	-8.12813
▁Podl	-8.12973
vol	-8.13252
vi	-8.13683
hr	-8.13806
tě	-8.13905
de	-8.13941
du	-8.13946
P	-8.13949
▁F	-8.14312
▁případě	-8.14612
ově	-8.15417
▁'	-8.15493
T	-8.15825
▁například	-8.16259
re	-8.1634
▁Ve	-8.16452
▁dvou	-8.16615
▁procent	-8.17097
▁ji	-8.17254
ská	-8.17605
ním	-8.17649
ovou	-8.17902
▁nám	-8.17909
▁rok	-8.18824
▁tři	-8.19316
▁době	-8.19328
▁nyní	-8.19497
▁mít	-8.20309
ích	-8.2034
ha	-8.20745
od	-8.21162
si	-8.21316
kr	-8.21385
by	-8.2158
▁Co	-8.21599
ami	-8.21981
▁C	-8.22432
an	-8.23232
▁lidí	-8.24474
▁jim	-8.24485
ry	-8.24575
▁společnosti	-8.24693
▁práce	-8.24868
ků	-8.24964
▁jeden	-8.25012
2	-8.25091
▁mohou	-8.25134
▁zda	-8.25228
K	-8.25294
▁stále	-8.25463
▁těchto	-8.26084
▁ovšem	-8.26212
▁všechny	-8.26482
5	-8.27074
3	-8.27464
právě	-8.27726
ového	-8.28233
B	-8.28489
▁několik	-8.28729
▁L	-8.28761
ský	-8.29261
za	-8.29646
▁něm	-8.30057
▁kterou	-8.30591
▁což	-8.31103
tá	-8.31106
...	-8.31178
ými	-8.31482
ení	-8.31483
ám	-8.31514
▁Ko	-8.31779
hl	-8.31947
nost	-8.33379
▁tento	-8.33379
ských	-8.34211
ních	-8.34345
▁Jak	-8.34392
ve	-8.34608
R	-8.34617
us	-8.35095
ží	-8.35519
▁možné	-8.35664
▁Ale	-8.35691
▁jednání	-8.35758
ká	-8.35805
I	-8.35993
pr	-8.3623
N	-8.36465
še	-8.36569
▁de	-8.36584
spo	-8.36765
▁České	-8.36848
kem	-8.36915
V	-8.37041
4	-8.37117
lé	-8.37486
▁dalších	-8.37746
is	-8.37819
▁Od	-8.37955
▁R	-8.38014
cela	-8.38156
▁nové	-8.38227
dr	-8.38316
6	-8.38472
ným	-8.38816
▁jde	-8.40107
▁měla	-8.4023
C	-8.40235
▁ČR	-8.40237
▁kdo	-8.40393
ského	-8.40465
ť	-8.40755
▁Praze	-8.41009
ující	-8.41338
▁zejména	-8.41599
▁základní	-8.41867
téměř	-8.4192
▁větší	-8.42067
nější	-8.42104
ar	-8.42262
▁zařízení	-8.42387
▁naše	-8.42439
▁svou	-8.42616
L	-8.42901
ova	-8.43169
stav	-8.4343
bu	-8.43986
▁Proto	-8.44393
1	-8.44649
▁strany	-8.44657
ši	-8.4492
tra	-8.45739
▁naši	-8.45945
▁možnost	-8.46015
▁prostředí	-8.46392
ím	-8.46999
▁letech	-8.47167
7	-8.47225
ální	-8.47252
ců	-8.4741
▁sice	-8.47549
▁ú	-8.47938
▁dvě	-8.48062
▁Kdy	-8.48093
▁svého	-8.48405
et	-8.4848
pa	-8.48663
ec	-8.48864
▁každý	-8.49024
O	-8.49313
▁svých	-8.49504
▁jiné	-8.49516
w	-8.49892
ji	-8.50044
aci	-8.50104
os	-8.50601
▁nejen	-8.50722
▁část	-8.51027
▁mě	-8.51802
▁Š	-8.51964
A	-8.52225
▁místo	-8.52333
▁země	-8.52401
tí	-8.5292
ští	-8.53198
ace	-8.53437
▁uvedl	-8.53538
▁světa	-8.53603
▁tomto	-8.53756
ické	-8.53906
ili	-8.54792
ur	-8.54903
▁Tak	-8.55066
▁10	-8.55314
▁druhé	-8.55614
nosti	-8.56086
▁Vy	-8.56461
ob	-8.56615
vod	-8.56653
▁000	-8.56963
▁zde	-8.57094
▁čas	-8.57302
▁milionů	-8.57501
▁stát	-8.57673
▁systém	-8.57785
ila	-8.58279
▁něco	-8.58739
▁vlády	-8.58816
pra	-8.58816
▁nic	-8.58839
▁svým	-8.59062
9	-8.59081
dy	-8.59148
br	-8.59479
ované	-8.59659
ter	-8.60139
▁stejně	-8.60343
vr	-8.60508
▁říká	-8.60613
str	-8.61058
▁některé	-8.61823
▁kolem	-8.61895
dí	-8.62001
E	-8.62172
▁zákon	-8.62344
▁ceny	-8.62511
val	-8.62595
ing	-8.63024
▁zákona	-8.63328
hu	-8.63358
▁zboží	-8.63486
▁pří	-8.63577
▁E	-8.6364
▁tam	-8.64152
▁neu	-8.64427
vy	-8.64461
▁mu	-8.6447
▁1	-8.6469
▁pracovní	-8.6477
▁nez	-8.65339
es	-8.65365
▁oblasti	-8.65387
pe	-8.65481
pat	-8.65617
▁nepo	-8.65765
▁dobře	-8.65925
▁příliš	-8.66022
lit	-8.66048
▁patří	-8.66151
Z	-8.66197
kon	-8.66327
▁finanční	-8.66621
▁svůj	-8.66815
▁dosud	-8.66822
▁2	-8.6685
▁svět	-8.66996
lou	-8.67139
▁některých	-8.67242
▁program	-8.67251
0	-8.67326
▁práci	-8.67495
ol	-8.67647
fi	-8.67682
ají	-8.6769
ační	-8.67748
▁firma	-8.67835
U	-8.67871
▁zemí	-8.6789
zí	-8.67907
8	-8.68259
ání	-8.68513
▁N	-8.68659
▁byli	-8.68741
▁3	-8.68797
▁vůbec	-8.6892
▁Jan	-8.69011
▁opět	-8.69197
ční	-8.69396
let	-8.69485
▁několika	-8.69539
▁sociální	-8.70096
▁vždy	-8.70217
ot	-8.70474
▁období	-8.70608
▁5	-8.7138
▁neboť	-8.71456
▁nevy	-8.72219
Á	-8.73129
vo	-8.73503
▁re	-8.74006
ovali	-8.7451
▁nejsou	-8.7492
▁ten	-8.75029
▁střední	-8.75107
▁často	-8.75215
▁prezident	-8.75296
sp	-8.75321
▁%	-8.75394
▁vyšší	-8.75421
▁W	-8.75593
ější	-8.75679
▁19	-8.75914
▁nemá	-8.76091
▁jež	-8.7639
▁systému	-8.76581
00	-8.76965
▁dokonce	-8.77144
▁USA	-8.77153
vat	-8.77378
▁jste	-8.77532
gr	-8.77549
▁přímo	-8.77719
sti	-8.77786
▁hodin	-8.77825
ací	-8.78276
▁společnost	-8.78597
▁měli	-8.78785
ovací	-8.78885
▁sám	-8.78986
▁sebe	-8.79426
▁Kč	-8.79491
ant	-8.79573
▁Js	-8.79738
▁lidé	-8.79823
▁ředitel	-8.79885
▁celé	-8.79955
▁čtyři	-8.80108
▁části	-8.80288
▁pět	-8.80304
▁doby	-8.80532
▁nebude	-8.80751
skou	-8.80877
během	-8.80887
▁obchodní	-8.80975
▁den	-8.81356
▁rovněž	-8.81363
op	-8.81668
▁níž	-8.8173
rt	-8.81947
ú	-8.81964
bě	-8.82108
▁vám	-8.82127
▁informace	-8.82145
▁trhu	-8.82274
sta	-8.82338
▁Ty	-8.82354
▁1992	-8.82397
F	-8.82758
pis	-8.82922
▁nimi	-8.82932
▁První	-8.82942
▁počet	-8.82965
▁vše	-8.83149
sk	-8.83218
vůli	-8.83403
včetně	-8.83741
▁jedn	-8.83904
zřejmě	-8.83986
▁Te	-8.84045
▁půl	-8.84046
▁tří	-8.84079
▁6	-8.84081
▁situace	-8.84137
ič	-8.84227
ali	-8.84258
▁takže	-8.84271
mat	-8.84301
▁Ta	-8.84837
▁nedo	-8.84915
▁zahraničí	-8.84945
ad	-8.85015
ství	-8.85129
čka	-8.85178
▁mohl	-8.85368
man	-8.85583
sku	-8.86048
zn	-8.8669
▁návrh	-8.86732
▁státní	-8.87036
▁méně	-8.87131
ud	-8.87167
tato	-8.87296
▁např	-8.87432
▁ministr	-8.87564
%	-8.87578
▁současné	-8.87611
nit	-8.87667
▁Evropy	-8.87826
▁peníze	-8.87826
▁sto	-8.87849
▁řešení	-8.87879
ik	-8.88085
▁takové	-8.88185
ga	-8.88284
ovým	-8.88462
▁víc	-8.88674
▁Zatím	-8.88686
▁mnoho	-8.88813
ven	-8.88869
stup	-8.88918
há	-8.88929
▁něj	-8.89164
▁chce	-8.89578
▁největší	-8.89775
▁způsobem	-8.89816
án	-8.90153
ste	-8.9022
▁velké	-8.90283
▁člověk	-8.90528
▁snad	-8.9053
▁spíše	-8.9078
▁jednotlivý	-8.90856
ovala	-8.90893
▁české	-8.90895
▁Re	-8.90969
▁dále	-8.9098
▁republiky	-8.90982
▁znamená	-8.90993
▁nes	-8.91042
▁velký	-8.91497
▁rozdíl	-8.91683
▁navíc	-8.92093
▁přitom	-8.92131
▁rozhodnutí	-8.92157
▁dobu	-8.92346
▁život	-8.92428
nov	-8.9255
ák	-8.92818
▁vlastně	-8.92996
▁šest	-8.93147
▁mimo	-8.93203
▁problémy	-8.93276
▁jednoho	-8.93397
▁dost	-8.93454
té	-8.93467
klad	-8.9372
▁Před	-8.93732
▁naopak	-8.93851
hled	-8.94182
▁množství	-8.94296
▁osob	-8.94429
▁Ro	-8.94513
ice	-8.94522
▁stav	-8.94583
as	-8.94603
cen	-8.9464
▁Bo	-8.95234
nout	-8.95274
rad	-8.95324
▁spolu	-8.95503
ního	-8.95507
▁naší	-8.95581
kové	-8.95623
▁zájem	-8.95826
▁letošní	-8.95964
▁skutečně	-8.96202
▁města	-8.96237
▁Petr	-8.96266
▁Tr	-8.96371
kov	-8.96551
▁20	-8.96559
ev	-8.96741
▁straně	-8.96845
▁většinou	-8.97003
▁znovu	-8.97011
▁Se	-8.97237
▁zahraniční	-8.97265
žen	-8.97335
▁Ch	-8.9748
▁zhruba	-8.97523
do	-8.97791
▁neza	-8.9798
▁pan	-8.98084
▁1.	-8.98295
▁dlouho	-8.98371
▁řízení	-8.98408
▁životní	-8.98544
H	-8.9864
jší	-8.98885
ck	-8.98924
▁vláda	-8.9896
▁jej	-8.99072
▁území	-8.99318
▁platí	-8.996
men	-8.99702
▁Jiří	-8.99789
▁jiných	-8.99789
▁soud	-8.99818
▁podíl	-8.99853
▁celý	-9.00267
▁minut	-9.00267
▁nelze	-9.00298
▁zase	-9.00469
ul	-9.00496
▁Ma	-9.00583
id	-9.00655
▁začal	-9.00956
▁15	-9.01152
▁Pa	-9.01172
▁bych	-9.0118
nik	-9.01426
▁způsob	-9.01646
nt	-9.01703
▁postup	-9.01775
▁letos	-9.01798
ček	-9.01975
ník	-9.02129
▁smlouvy	-9.02168
▁tzv	-9.02197
▁dolarů	-9.02227
kl	-9.02316
▁bo	-9.0246
▁vedoucí	-9.027
▁pěti	-9.029
▁Ob	-9.03132
▁4	-9.03321
▁Václav	-9.03477
▁jedné	-9.03546
▁pomocí	-9.03861
▁deset	-9.04021
▁lepší	-9.04116
▁obě	-9.04403
▁roky	-9.04747
▁Byl	-9.04767
▁kon	-9.04812
▁trh	-9.04841
▁činnosti	-9.049
▁prohlásil	-9.05189
up	-9.05421
▁jedna	-9.05538
▁problém	-9.05692
▁Přesto	-9.06211
▁pa	-9.06326
▁Mo	-9.06336
▁vás	-9.06572
▁jednou	-9.06597
▁moc	-9.07003
▁světě	-9.07083
▁různých	-9.07148
▁St	-9.07183
form	-9.07546
▁americké	-9.07607
▁později	-9.07617
▁hlavní	-9.07646
rod	-9.07764
▁státu	-9.08374
▁mezinárodní	-9.08451
▁nemůže	-9.08527
▁30	-9.08567
ském	-9.08636
:	-9.08705
▁můžete	-9.08791
ován	-9.08883
mluv	-9.08944
▁vedení	-9.09072
▁ČSFR	-9.09153
▁bývalé	-9.09615
▁programu	-9.09755
krát	-9.09782
ův	-9.09784
jezd	-9.09824
▁člověka	-9.09992
▁Evropě	-9.10192
▁chyb	-9.10607
bou	-9.10618
▁znám	-9.10643
▁podniku	-9.10664
▁století	-9.10723
▁skupiny	-9.10777
ber	-9.11032
▁služby	-9.11242
▁věci	-9.11368
▁autor	-9.11382
ému	-9.11457
▁Má	-9.11725
per	-9.11748
čin	-9.11792
vedl	-9.11824
▁málo	-9.1188
▁prodej	-9.11943
▁domácí	-9.12026
▁text	-9.12104
▁činnost	-9.12168
▁jaké	-9.12293
▁funkce	-9.12305
▁jinak	-9.12307
▁prý	-9.12376
ném	-9.12495
ed	-9.12655
olog	-9.12845
▁mělo	-9.12856
▁význam	-9.12891
▁zároveň	-9.13026
▁konce	-9.13077
Í	-9.13098
▁kole	-9.13226
▁situaci	-9.13376
▁cen	-9.13761
ář	-9.13771
ón	-9.13804
▁dnešní	-9.13919
▁dobré	-9.13934
ač	-9.13955
▁obou	-9.1396
▁malé	-9.13964
▁stran	-9.1412
ovaných	-9.14182
▁škol	-9.14321
▁připraven	-9.1446
▁možná	-9.1446
▁snímku	-9.14461
pro	-9.14518
gen	-9.14557
rán	-9.14699
hal	-9.14784
▁náklady	-9.14837
bor	-9.14997
▁stojí	-9.1502
▁Le	-9.15184
▁100	-9.1519
▁přesto	-9.15288
ct	-9.15372
▁provoz	-9.15392
▁La	-9.15475
▁jedno	-9.15546
be	-9.15824
▁Ka	-9.15834
▁prvním	-9.15863
▁místní	-9.15888
▁CD	-9.15944
▁cenu	-9.16368
▁máme	-9.16403
▁tvrdí	-9.16474
▁1993	-9.16664
▁děti	-9.16664
▁mohli	-9.16691
▁firem	-9.1675
▁nových	-9.16758
▁měly	-9.16772
dob	-9.17692
▁získat	-9.17784
▁Praha	-9.17785
▁plat	-9.17914
▁7	-9.18141
ilo	-9.18173
čení	-9.18578
▁nejlepší	-9.18583
▁států	-9.1863
▁určité	-9.18688
▁Mar	-9.18913
▁majetku	-9.18917
▁nakonec	-9.18918
▁toto	-9.18951
▁těch	-9.19033
▁všechno	-9.19091
▁podnik	-9.19242
▁nikdy	-9.19493
▁11	-9.19781
nými	-9.2005
▁právní	-9.20287
▁já	-9.20289
▁di	-9.20362
▁výši	-9.20505
▁premiér	-9.20536
sko	-9.20607
▁podniků	-9.20695
nice	-9.20752
ran	-9.20752
▁nepři	-9.21126
▁řád	-9.21155
▁svém	-9.2121
dle	-9.2126
▁pár	-9.21279
nutí	-9.21284
ště	-9.21314
▁místě	-9.21562
hy	-9.21713
▁lety	-9.21766
▁republik	-9.21776
▁vliv	-9.21857
▁dříve	-9.21931
▁obyvatel	-9.2206
les	-9.22073
▁dne	-9.22091
▁vody	-9.22214
▁proč	-9.22246
▁třetí	-9.22368
▁možnosti	-9.22433
▁nového	-9.22488
▁dál	-9.22521
mysl	-9.22522
dl	-9.22615
vin	-9.22711
šlo	-9.2277
▁zdá	-9.22908
rů	-9.22923
▁Prahy	-9.22988
▁sobotu	-9.23057
G	-9.23143
▁čtyř	-9.23271
▁plán	-9.23354
▁nebyl	-9.23379
rn	-9.2352
▁nutné	-9.23583
ig	-9.2363
plat	-9.23681
▁kdyby	-9.23696
▁stavu	-9.23712
íme	-9.23792
▁fakt	-9.23949
del	-9.24084
▁bychom	-9.24365
▁Br	-9.24503
ovém	-9.24534
▁týden	-9.24594
▁osm	-9.24604
▁předseda	-9.24872
▁parlamentu	-9.24883
ver	-9.25064
tře	-9.25213
▁Tento	-9.25625
▁přece	-9.25694
▁základ	-9.25752
▁Pře	-9.25814
ner	-9.2585
▁zemi	-9.25979
▁ministerstva	-9.26
▁pohled	-9.26037
iny	-9.26276
▁Ten	-9.26309
▁slov	-9.26553
▁In	-9.26887
▁Tato	-9.26991
▁trenér	-9.27005
▁prostor	-9.27112
▁obraz	-9.27119
▁menší	-9.27127
▁informací	-9.27231
▁policie	-9.27231
▁všichni	-9.27231
▁organizace	-9.27231
▁samozřejmě	-9.273
▁potom	-9.27308
▁zdravotní	-9.27341
▁telefon	-9.27473
ir	-9.27483
▁Další	-9.27597
RA	-9.27628
koli	-9.27631
▁Není	-9.2764
▁poté	-9.27681
▁rychle	-9.27818
▁nikdo	-9.27855
ována	-9.27977
▁můžeme	-9.28016
▁plyn	-9.28021
▁přístup	-9.28045
tek	-9.28113
▁Ú	-9.2813
▁nový	-9.28317
iště	-9.28394
▁hlavně	-9.28491
▁poměrně	-9.28646
▁druhý	-9.28646
viz	-9.28663
ovaný	-9.28829
jde	-9.28942
▁českých	-9.28942
▁Al	-9.28947
▁Kromě	-9.29106
▁nižší	-9.2911
ící	-9.29244
▁cena	-9.29265
CH	-9.29289
▁dodal	-9.29379
▁věcí	-9.29478
▁původní	-9.29694
▁sdružení	-9.29739
trochu	-9.29739
▁prezidenta	-9.29758
▁dvěma	-9.29831
▁něho	-9.29932
▁ex	-9.30013
nes	-9.30088
sky	-9.30217
dit	-9.30334
▁krok	-9.30351
▁8	-9.30433
pol	-9.30527
lek	-9.30544
ických	-9.30852
nebo	-9.30907
J	-9.30937
▁SSSR	-9.31017
▁sobě	-9.31025
▁efekt	-9.31039
raz	-9.31105
▁Jana	-9.31181
▁25	-9.31293
čky	-9.31301
▁ode	-9.31401
▁prohlášení	-9.31662
▁Mezi	-9.31671
NÍ	-9.31727
ska	-9.31793
▁50	-9.31805
▁200	-9.31863
ily	-9.31905
dním	-9.31962
▁vývoj	-9.32118
▁vítěz	-9.32157
bychom	-9.32176
▁Nej	-9.32188
▁Jako	-9.32239
var	-9.32263
▁podmínky	-9.32311
▁komise	-9.32311
▁Jestli	-9.32312
▁někdy	-9.32313
▁žádné	-9.32375
šel	-9.32704
▁14	-9.33
▁večer	-9.33024
jich	-9.33057
van	-9.33229
▁základě	-9.33314
ic	-9.33324
▁výroby	-9.33623
▁zemích	-9.33715
▁západní	-9.33778
▁Evropské	-9.33887
bl	-9.33984
▁došlo	-9.34053
▁kam	-9.34062
▁kromě	-9.34141
ST	-9.34151
▁většina	-9.34285
▁určen	-9.34297
ovy	-9.34313
▁13	-9.34368
▁mnoh	-9.34392
nění	-9.34524
▁čím	-9.34791
▁podporu	-9.34947
▁ostatní	-9.35193
▁místa	-9.35195
▁růst	-9.35234
ej	-9.35477
▁hned	-9.35633
▁Ti	-9.35766
gu	-9.35787
▁mnoha	-9.36128
▁šesti	-9.3613
▁malý	-9.3616
▁9	-9.36267
▁peněz	-9.36298
▁tvoří	-9.36306
prve	-9.36309
▁výrazně	-9.36355
▁kom	-9.36366
▁neo	-9.36392
▁nejvyšší	-9.364
nem	-9.36427
▁De	-9.36484
nul	-9.36565
▁sil	-9.3661
▁Ba	-9.36633
▁obchod	-9.36738
▁života	-9.3676
▁miliard	-9.36803
▁tehdy	-9.36979
▁jistě	-9.36985
▁rozpočtu	-9.36986
▁jich	-9.3704
▁názor	-9.37085
kla	-9.37139
and	-9.37162
▁pokus	-9.37219
▁40	-9.37223
▁objekt	-9.3736
▁sedm	-9.37484
mohlo	-9.37503
▁hry	-9.37516
▁vysoké	-9.37664
ložit	-9.37824
mohla	-9.37844
▁1991	-9.37917
fr	-9.38003
▁Kr	-9.3801
▁deseti	-9.38015
▁východní	-9.38021
▁členů	-9.38234
▁Ná	-9.38291
▁dosavadní	-9.38353
▁vítězství	-9.38368
▁teď	-9.38372
▁her	-9.38421
▁milionu	-9.38663
proti	-9.38683
▁svaz	-9.38798
▁nebylo	-9.38896
▁práv	-9.38945
▁prosince	-9.39048
▁poprvé	-9.39052
▁prostředky	-9.39054
potřeb	-9.3909
▁akce	-9.39104
itel	-9.39216
▁úřad	-9.39281
hn	-9.39302
▁12	-9.39412
▁stal	-9.39518
▁nějak	-9.39547
atel	-9.39695
▁konkrétní	-9.39747
▁unie	-9.39753
he	-9.39762
ovány	-9.39767
zo	-9.39784
kách	-9.40056
▁žádný	-9.40228
plav	-9.40259
zen	-9.4035
▁spolupráci	-9.40451
▁výsledky	-9.40451
▁opatření	-9.40451
ským	-9.40466
▁teprve	-9.40474
▁rozvoj	-9.40637
čet	-9.40757
▁času	-9.4079
▁led	-9.40806
kol	-9.40864
aj	-9.40935
▁16	-9.40988
ina	-9.41021
▁Pr	-9.41246
▁politické	-9.41364
▁stejné	-9.41496
▁jenž	-9.41552
▁Pří	-9.41733
▁1994	-9.41875
iz	-9.41902
▁prakticky	-9.41929
▁Vý	-9.41975
▁vnitřní	-9.41979
▁ODS	-9.42
▁dat	-9.42205
ická	-9.4234
▁Lu	-9.42424
vní	-9.42477
slov	-9.42577
▁hlediska	-9.42594
▁prostřednictví	-9.42594
▁utkání	-9.42632
▁stál	-9.42726
šť	-9.42773
▁Č	-9.43009
kul	-9.43027
▁projekt	-9.43143
▁nena	-9.43295
▁republice	-9.43319
▁velice	-9.43325
▁zisk	-9.43476
▁ministra	-9.43554
▁celou	-9.43563
nos	-9.43634
▁procenta	-9.43636
ment	-9.43667
▁Ho	-9.43775
▁celkové	-9.43781
átor	-9.43942
▁někdo	-9.4405
▁dostal	-9.44159
▁daně	-9.44184
▁úspěch	-9.44447
rak	-9.44619
▁dispozici	-9.44784
▁Pod	-9.44858
ický	-9.44945
▁sta	-9.44998
▁souvislosti	-9.45033
▁Jen	-9.45075
bar	-9.45081
▁představ	-9.45121
díky	-9.45122
vou	-9.45177
lin	-9.45411
▁1990	-9.45525
▁typu	-9.4556
▁jí	-9.45607
níci	-9.45669
ající	-9.45713
kor	-9.45732
▁24	-9.45756
▁řadu	-9.45767
lem	-9.4582
▁tým	-9.45923
ického	-9.45992
▁jejím	-9.46103
▁kterým	-9.46132
▁změny	-9.4625
▁rámci	-9.46276
▁Rad	-9.46278
vil	-9.46294
▁ledna	-9.46389
▁nepro	-9.46421
▁osobní	-9.46489
▁prostě	-9.46633
Š	-9.46716
▁mo	-9.46864
hle	-9.46864
▁nejméně	-9.4704
▁vět	-9.47072
▁podařilo	-9.47129
vu	-9.47134
▁bod	-9.47208
▁budeme	-9.4722
▁mne	-9.47234
len	-9.47257
ková	-9.47362
ké	-9.47573
▁musel	-9.47641
▁sebou	-9.47773
▁skupin	-9.47851
▁roli	-9.47883
▁loni	-9.4789
ge	-9.47902
▁všem	-9.47986
▁dá	-9.48019
Ž	-9.48307
fo	-9.48334
▁státy	-9.48367
▁doma	-9.48395
▁různé	-9.48445
rát	-9.4846
▁Například	-9.48544
▁podnikání	-9.48586
▁čs	-9.48613
▁proces	-9.4876
OV	-9.48823
ostí	-9.48954
▁vod	-9.48977
tor	-9.49046
Č	-9.49057
fe	-9.49075
▁pomoc	-9.49167
▁výkon	-9.49169
bal	-9.49277
▁minulý	-9.49317
ér	-9.49338
▁opravdu	-9.49343
ele	-9.49407
▁tolik	-9.49438
▁Jde	-9.49476
▁výše	-9.49581
▁volební	-9.49699
▁výzkum	-9.49786
▁právo	-9.49826
▁Ha	-9.49934
▁miliónů	-9.50088
▁smlouvu	-9.50088
▁snaží	-9.50091
▁nedávno	-9.50142
▁Li	-9.502
▁náš	-9.50275
▁služeb	-9.5033
▁vládní	-9.50343
št	-9.50353
▁my	-9.50427
▁oprav	-9.50485
▁nemoc	-9.50606
tur	-9.5074
▁funkci	-9.50871
ovalo	-9.50923
▁Dnes	-9.50928
mer	-9.50939
byl	-9.51035
▁zvýšení	-9.51052
▁18	-9.51258
pokoj	-9.51269
▁Roz	-9.51337
tů	-9.51463
ovaly	-9.51574
▁účast	-9.51586
▁model	-9.5159
▁věc	-9.5162
▁okolí	-9.5166
▁Kdo	-9.51789
▁Klaus	-9.51832
▁měsíců	-9.51868
▁neod	-9.51971
▁získal	-9.51979
▁Zá	-9.52002
cím	-9.52076
▁slova	-9.52131
▁hor	-9.52151
cký	-9.52168
▁přednost	-9.52296
▁dr	-9.52406
▁chování	-9.52431
▁ministerstvo	-9.5245
▁koaliční	-9.5245
▁chtějí	-9.52451
▁projev	-9.52451
▁zvláštní	-9.52463
▁střed	-9.52599
▁pojištění	-9.52612
▁dnech	-9.5264
▁středu	-9.52711
stal	-9.52729
▁bývalý	-9.52738
kami	-9.52747
dávají	-9.52749
ujeme	-9.52853
nk	-9.52881
▁objevil	-9.52974
ď	-9.53059
▁jiného	-9.53213
ang	-9.53247
▁Windows	-9.5325
▁národní	-9.53363
▁ekonomické	-9.53365
stoupil	-9.53438
▁metrů	-9.53512
▁postupně	-9.53513
ať	-9.53522
▁úřadu	-9.53546
▁případ	-9.5357
▁odbor	-9.53628
voz	-9.53633
▁zahraničních	-9.5372
pt	-9.53837
▁hráčů	-9.53937
▁zpět	-9.54057
▁společenství	-9.54106
▁rady	-9.54119
ností	-9.54223
▁hlas	-9.54254
▁hra	-9.54304
▁vyh	-9.54392
▁Da	-9.54411
šli	-9.54478
▁ti	-9.54593
ó	-9.54596
nil	-9.54606
▁list	-9.54739
▁podobně	-9.54871
▁čeká	-9.54919
▁disk	-9.54937
▁vztah	-9.55101
▁svazu	-9.5513
ak	-9.55208
nc	-9.55464
ené	-9.5563
▁Pak	-9.55655
▁nemusí	-9.5569
▁číslo	-9.55728
▁pu	-9.55774
▁2.	-9.55836
▁Zde	-9.56131
▁pracovníků	-9.56257
▁míst	-9.56311
▁host	-9.56339
▁kulturní	-9.56479
▁poslanců	-9.56516
▁přibližn	-9.56516
▁zástupce	-9.56516
▁nadále	-9.56518
▁MS	-9.5652
▁ročně	-9.56522
▁tržní	-9.567
▁klubu	-9.56752
▁Bude	-9.56829
▁vznikl	-9.56851
álně	-9.56901
▁klub	-9.57081
▁Be	-9.57154
AN	-9.57228
vede	-9.57294
ok	-9.57335
▁odmítl	-9.57349
▁pořád	-9.57474
un	-9.57535
▁výhod	-9.57606
▁ta	-9.57642
▁Že	-9.5783
▁Já	-9.57953
▁poměr	-9.58018
uji	-9.58021
▁dokument	-9.58041
▁každ	-9.58182
▁Většin	-9.5819
▁jazyk	-9.5819
▁nabídky	-9.5819
▁hospodářství	-9.5819
▁lépe	-9.582
▁počtu	-9.58241
▁hodně	-9.58295
▁dalším	-9.58296
▁nepře	-9.58383
ster	-9.5848
▁týmu	-9.58567
▁podniky	-9.58622
▁Če	-9.58624
▁generální	-9.58676
stává	-9.58678
▁muž	-9.58748
▁spojen	-9.58817
▁manažer	-9.58824
▁manžel	-9.58904
inu	-9.58932
jící	-9.59009
SE	-9.5901
▁umožňuje	-9.59037
▁podstatně	-9.5908
▁sami	-9.59082
▁přesně	-9.59098
▁jenom	-9.59149
▁přijat	-9.59173
znal	-9.59312
ovaná	-9.59316
▁titul	-9.59359
▁Dr	-9.59545
▁problémů	-9.5959
slav	-9.59669
čku	-9.59686
▁závod	-9.59699
▁olympijské	-9.59727
pen	-9.59749
▁fondu	-9.59892
▁považuje	-9.59892
▁začíná	-9.59894
▁Ani	-9.59899
▁případech	-9.59978
▁musíme	-9.5999
▁říci	-9.6004
▁potvrdil	-9.60063
▁post	-9.60068
▁novou	-9.60088
▁městě	-9.6021
ard	-9.60233
ární	-9.60264
▁Ku	-9.60324
▁občanů	-9.60538
▁banky	-9.60743
▁obvykle	-9.60754
▁sítě	-9.60764
tah	-9.60786
dění	-9.60796
▁pomoci	-9.6083
▁oddělení	-9.60849
▁českého	-9.60927
▁majitel	-9.60931
▁možností	-9.61064
▁řada	-9.61084
ěte	-9.61181
dní	-9.61184
▁vedle	-9.61202
▁22	-9.61259
▁nebyla	-9.61525
▁dopis	-9.61594
nské	-9.61617
▁otázku	-9.61623
▁výrobků	-9.61623
nic	-9.61635
íky	-9.6166
pil	-9.61715
dra	-9.61765
▁bank	-9.61823
▁měst	-9.6187
▁politiky	-9.61895
▁průběhu	-9.61971
▁Ze	-9.61993
▁změn	-9.62146
Dr	-9.62227
▁nějaké	-9.62271
▁ryb	-9.62303
▁60	-9.62313
▁gen	-9.62372
rob	-9.62393
▁17	-9.6242
▁hvězd	-9.625
▁nabízí	-9.62501
▁vrchol	-9.62501
▁nemají	-9.62606
▁vede	-9.62674
▁miliardy	-9.62728
▁ulici	-9.62734
▁výbor	-9.6278
▁zdrojů	-9.628
go	-9.62875
py	-9.62881
▁skutečnost	-9.63065
pit	-9.63081
▁mil	-9.6313
▁kterém	-9.63154
▁moci	-9.63207
měř	-9.63218
tel	-9.63277
▁otázka	-9.63386
▁otázky	-9.63386
▁úrovni	-9.63386
▁celkem	-9.63386
▁chvíli	-9.63386
▁Česká	-9.63415
▁takto	-9.63416
▁uvádí	-9.63504
▁vz	-9.63566
tvo	-9.63658
dává	-9.63696
▁vů	-9.6372
óz	-9.63818
▁moderní	-9.63844
▁spor	-9.64017
▁pražské	-9.64035
000	-9.64171
▁film	-9.64189
den	-9.64213
hla	-9.64232
▁mistrovství	-9.64278
▁předchozí	-9.64281
▁Už	-9.64341
tem	-9.64368
▁postavení	-9.64477
▁věd	-9.64478
tím	-9.6448
▁jednom	-9.64558
nský	-9.64605
▁schopn	-9.64617
▁díl	-9.64663
ložil	-9.64764
▁objektů	-9.6477
▁dohody	-9.64776
▁názoru	-9.64797
EN	-9.64804
ben	-9.64837
ané	-9.64883
▁vyp	-9.64941
▁rodin	-9.65106
▁energie	-9.65179
▁dětí	-9.6518
▁sportovní	-9.6518
▁zaměstnanců	-9.65181
▁NATO	-9.65182
▁cestu	-9.65212
nese	-9.65268
ca	-9.65317
ký	-9.65334
ško	-9.65341
▁byt	-9.65357
▁automobil	-9.65374
oč	-9.65469
▁pozornost	-9.6549
▁textu	-9.65543
šti	-9.65753
▁počítače	-9.65767
▁Sa	-9.65798
por	-9.65874
kládá	-9.65945
ovými	-9.65962
▁chtěl	-9.65993
▁prů	-9.66057
▁společností	-9.66074
▁odhad	-9.66084
▁finále	-9.66089
▁vyz	-9.66096
port	-9.66121
elný	-9.66296
▁představuje	-9.66307
▁měsíce	-9.66315
▁kterých	-9.66352
▁listopadu	-9.66363
▁takový	-9.66428
▁strana	-9.6643
býval	-9.66445
▁setkání	-9.66468
▁obsah	-9.66481
▁vybavení	-9.66499
▁sestav	-9.66539
▁působí	-9.66559
▁Di	-9.66617
ík	-9.66621
▁každé	-9.66722
ned	-9.66764
▁budoucí	-9.66787
▁nikoli	-9.66866
nici	-9.66939
▁šéf	-9.66964
▁prostředků	-9.67009
▁Země	-9.67025
▁cizí	-9.67057
▁čtvrtek	-9.67059
▁sama	-9.67071
▁Ještě	-9.67125
▁Tím	-9.67146
▁světové	-9.67178
▁současně	-9.67245
▁obchodního	-9.67302
▁příští	-9.67353
▁řadě	-9.67377
▁parlament	-9.67377
▁skupina	-9.67443
▁řad	-9.6746
mír	-9.6754
▁provozu	-9.6756
▁Ž	-9.67594
▁spoj	-9.67687
rop	-9.67701
▁Čí	-9.67713
▁trest	-9.67781
▁platit	-9.67807
▁výrobky	-9.67932
▁Navíc	-9.67932
▁Nyní	-9.67937
▁OSN	-9.67947
▁test	-9.67972
▁produkce	-9.67982
▁lékař	-9.68143
▁21	-9.68153
▁Zeman	-9.68166
▁atd	-9.682
jev	-9.68214
▁neděli	-9.68281
▁An	-9.68594
tal	-9.68616
▁druhém	-9.68701
▁hrát	-9.68748
▁skutečnosti	-9.68826
▁akci	-9.68851
▁oba	-9.68854
▁Josef	-9.68866
▁federální	-9.68866
▁zasedání	-9.68874
▁motor	-9.68887
kovi	-9.68901
kli	-9.68921
brán	-9.68935
▁dobrý	-9.68942
▁muset	-9.68984
▁zdroje	-9.6899
nd	-9.69109
▁kvalitní	-9.69156
sil	-9.6937
▁hlavním	-9.69375
rád	-9.69534
▁prezentace	-9.6981
▁kapacit	-9.6981
▁srovnání	-9.69811
▁speciální	-9.6982
▁začátku	-9.69867
vání	-9.69877
▁kterého	-9.69888
cké	-9.69888
▁výboru	-9.7002
ovaného	-9.70085
▁jiný	-9.70085
▁obchodu	-9.70126
pad	-9.70142
▁součástí	-9.70205
▁zápas	-9.70207
▁mluvčí	-9.7026
th	-9.70261
▁akcií	-9.70353
▁použití	-9.70407
▁přiče	-9.7048
▁hodnoty	-9.70512
▁Hor	-9.7053
rat	-9.70598
▁start	-9.70667
▁záměr	-9.70713
cházejí	-9.70755
▁teorie	-9.70762
▁přírodní	-9.70763
▁buď	-9.70767
▁1989	-9.70767
▁privatizace	-9.70769
▁ba	-9.70775
▁apod	-9.7079
▁jasné	-9.70996
▁konci	-9.71001
▁vzor	-9.71073
bývá	-9.71187
▁školy	-9.71294
▁plně	-9.71304
▁společné	-9.71366
▁vyhrál	-9.71556
▁těm	-9.71607
tky	-9.71927
▁domů	-9.71971
▁ME	-9.7205
▁pís	-9.72073
▁dopravy	-9.72112
áři	-9.72164
▁Cen	-9.72175
▁bran	-9.72177
▁kolik	-9.72212
▁jednotlivé	-9.72243
▁objektu	-9.72279
▁metod	-9.72315
jem	-9.7232
▁našem	-9.72369
▁závěr	-9.72505
tivní	-9.72552
▁možno	-9.72599
ici	-9.72643
▁veřejné	-9.72695
▁zdravotnictví	-9.72695
▁umění	-9.72696
▁Někter	-9.72697
▁Jelcin	-9.72708
▁zvolen	-9.72747
▁Ivan	-9.72778
ika	-9.72845
▁poně	-9.72886
ala	-9.72892
LA	-9.72894
▁následující	-9.72938
▁papír	-9.72976
▁prav	-9.73018
dla	-9.73148
nek	-9.73355
▁údaje	-9.7337
▁živ	-9.73413
▁novin	-9.73428
▁Bylo	-9.73624
ejte	-9.73638
▁telefonní	-9.73665
▁gól	-9.73675
▁nebezpečí	-9.73675
puštěn	-9.73677
▁podobě	-9.73678
▁Pavel	-9.73685
▁Jedno	-9.73719
▁rozhodující	-9.7373
▁ostatních	-9.73758
▁Podobn	-9.73759
▁investice	-9.7392
▁celého	-9.73983
▁státního	-9.73996
mar	-9.74078
▁noci	-9.74152
▁kultury	-9.74183
▁práva	-9.74264
res	-9.74336
eta	-9.74429
▁spojení	-9.74504
▁zákaz	-9.74625
▁tr	-9.74692
▁vstup	-9.74717
čil	-9.74733
▁společně	-9.7482
ena	-9.74824
řitom	-9.74872
SK	-9.7491
bud	-9.74914
ovo	-9.74925
▁vzájemn	-9.74936
▁aktivit	-9.74961
▁zájmu	-9.75004
▁soutěže	-9.75005
▁snadno	-9.75012
▁politických	-9.75151
ismu	-9.75179
icky	-9.75231
▁smrti	-9.75244
▁Proč	-9.75307
▁Bu	-9.75503
▁metr	-9.75529
▁auto	-9.75573
zní	-9.756
vé	-9.7563
▁televizní	-9.75665
▁jméno	-9.75667
▁Miloš	-9.75669
např	-9.75687
▁Toto	-9.75819
věří	-9.75859
▁tisíce	-9.75896
▁střel	-9.75927
psal	-9.76118
▁70	-9.76204
nci	-9.76263
vláště	-9.763
est	-9.76406
▁počítač	-9.76548
▁Čech	-9.76559
▁dal	-9.76647
▁John	-9.76676
▁snímek	-9.76677
svoji	-9.76689
▁hnutí	-9.76697
▁Stejn	-9.76706
▁zdraví	-9.7671
W	-9.76757
▁lidi	-9.7679
chází	-9.76791
▁vidí	-9.76796
▁český	-9.76902
▁nejvíce	-9.76916
▁důvodů	-9.76924
▁vytvoření	-9.77043
▁Star	-9.77161
nka	-9.77204
▁trvá	-9.77309
▁předem	-9.77431
IN	-9.77552
▁plné	-9.77586
rovna	-9.77635
▁Jaroslav	-9.77696
▁motiv	-9.77696
▁jisté	-9.77719
▁vzhledem	-9.77743
▁pás	-9.77743
▁rád	-9.77745
ten	-9.77837
▁ploch	-9.77877
ává	-9.77907
zv	-9.78002
▁Ar	-9.78014
▁Tu	-9.78026
▁velkou	-9.7811
▁stanoven	-9.78153
▁ním	-9.78188
▁hotel	-9.7824
▁mužů	-9.7825
▁vys	-9.7833
▁syn	-9.78395
fer	-9.78413
▁hráči	-9.78474
píše	-9.78477
son	-9.78524
▁povrch	-9.78692
▁zvýšil	-9.78727
▁těžko	-9.78727
▁planet	-9.78732
▁okolo	-9.78733
▁podobný	-9.78752
▁pocit	-9.78811
▁nákup	-9.78883
▁daleko	-9.78897
der	-9.78964
her	-9.78977
▁typ	-9.79012
▁Český	-9.79024
▁soudu	-9.79039
▁hru	-9.79253
však	-9.79326
▁spíš	-9.79329
aly	-9.79398
▁evropské	-9.7956
isté	-9.79697
▁uměl	-9.79716
▁náměstí	-9.79768
▁zástupci	-9.79768
▁přátel	-9.79775
▁někteří	-9.79777
▁delší	-9.79778
▁září	-9.79801
▁zaměstnání	-9.79812
▁rukou	-9.79822
19	-9.79824
▁celkov	-9.7983
▁kilometrů	-9.79858
▁obsahuje	-9.79867
▁Izrael	-9.79958
ren	-9.7998
ke	-9.79998
▁hodiny	-9.80051
íte	-9.80064
vz	-9.80077
tní	-9.8008
▁Ru	-9.8012
vají	-9.8017
▁Bez	-9.8024
▁světový	-9.80263
alo	-9.80333
▁stanov	-9.80336
▁oboru	-9.80462
▁věku	-9.80484
▁jednot	-9.80547
▁koncem	-9.80615
cího	-9.80658
▁smysl	-9.80765
▁výsledek	-9.80821
▁cestovní	-9.80821
půjč	-9.80836
▁mohly	-9.80922
ění	-9.81022
▁přišel	-9.81086
▁dává	-9.81087
▁způsobil	-9.81118
▁kal	-9.81119
▁druhů	-9.81152
ton	-9.8121
▁kandidát	-9.81226
▁zkušenosti	-9.81311
▁lev	-9.81313
koliv	-9.81371
padl	-9.81484
▁ředitele	-9.81665
▁žen	-9.817
ismus	-9.81707
▁tenis	-9.81732
nů	-9.81775
▁samo	-9.81853
▁přechod	-9.81882
▁aplikace	-9.81885
▁existuje	-9.81885
▁nejbližší	-9.81885
▁podmínek	-9.81885
▁nebudou	-9.81885
▁Může	-9.81886
▁zůstává	-9.81887
▁dnů	-9.81915
▁Kčs	-9.81917
▁pracovat	-9.81933
▁koalice	-9.82004
▁olympijský	-9.82048
▁objekty	-9.82152
ření	-9.82205
▁hospodářské	-9.82266
ler	-9.82314
lů	-9.82417
▁pre	-9.82419
▁stavební	-9.82507
▁každého	-9.82587
▁fond	-9.8268
30	-9.82732
▁výměn	-9.82855
▁příprav	-9.82855
▁společný	-9.82887
▁termín	-9.82953
▁úroveň	-9.8296
▁dospěl	-9.8296
▁starší	-9.82965
▁výnos	-9.82973
lík	-9.82979
▁smyslu	-9.82982
▁tady	-9.83019
▁prodeje	-9.83138
▁rozhodl	-9.83166
▁případně	-9.8317
▁Pan	-9.83179
▁úprav	-9.83193
▁dosáhl	-9.83193
nictví	-9.83256
▁minulosti	-9.83258
▁Ber	-9.83287
EL	-9.83325
50	-9.83395
stál	-9.83455
nec	-9.83475
jat	-9.83606
CE	-9.83707
▁pla	-9.83766
▁stud	-9.83786
▁běžné	-9.83801
▁Ni	-9.83802
▁rychlost	-9.83868
▁prv	-9.83918
▁neměl	-9.83925
▁materiál	-9.83929
▁příklad	-9.84044
▁poslanci	-9.84047
▁pátek	-9.84047
▁praxi	-9.84048
▁jediný	-9.8413
ickou	-9.84224
▁určitě	-9.84236
ováním	-9.84257
▁Každý	-9.84287
pravidla	-9.84289
▁Brně	-9.84385
řad	-9.84506
▁nová	-9.8455
▁Nové	-9.84632
▁skončil	-9.84643
lék	-9.84748
▁německé	-9.84758
dají	-9.84814
▁dotaz	-9.84986
▁NE	-9.85062
▁účel	-9.85073
▁sklad	-9.85076
▁nep	-9.85127
▁druh	-9.85139
▁důležité	-9.85146
▁vidět	-9.85146
▁šanci	-9.85147
▁mám	-9.85147
▁příkaz	-9.85148
▁strom	-9.85177
▁prvního	-9.85209
▁přijal	-9.85255
▁vznik	-9.85353
▁Kar	-9.85389
▁kvality	-9.85425
▁tun	-9.85546
▁lékaře	-9.85637
ujících	-9.85697
jet	-9.85782
▁loňské	-9.85796
▁Ra	-9.85827
AR	-9.85971
▁data	-9.86014
▁oblast	-9.86079
▁zásad	-9.86137
▁podnikatel	-9.86156
▁výrobce	-9.86257
▁zvířat	-9.86257
▁síly	-9.86271
▁hrál	-9.86282
ováno	-9.86282
▁volbách	-9.86296
▁července	-9.86333
▁stačí	-9.86335
▁odpovídá	-9.8635
▁léta	-9.86435
▁dny	-9.8645
▁nikoliv	-9.86458
▁nárok	-9.86531
▁změnit	-9.8654
denní	-9.86661
▁Přes	-9.86707
▁hráč	-9.8671
▁kap	-9.86728
nky	-9.86766
ij	-9.86805
▁Německa	-9.86838
▁knihy	-9.86931
▁členy	-9.87039
▁porad	-9.87053
▁tvar	-9.87182
šek	-9.87308
mž	-9.87339
dů	-9.87348
▁zemřel	-9.87382
raději	-9.87412
▁Jeden	-9.87437
▁hráče	-9.87478
žení	-9.87506
▁podstatě	-9.87565
▁doba	-9.87642
třech	-9.87708
ita	-9.87752
▁zranění	-9.87783
▁nákladů	-9.87832
▁vývoje	-9.87963
ROM	-9.87988
▁fotbal	-9.88091
▁osmi	-9.88137
din	-9.88171
nce	-9.88321
▁potřebuje	-9.88422
▁tisku	-9.88428
▁Ministerstv	-9.88517
▁oprávněn	-9.88517
▁technologie	-9.88517
▁výrobu	-9.88517
▁tepla	-9.8852
stoupit	-9.88521
▁vrátil	-9.88533
▁úplně	-9.8854
▁dělat	-9.88564
zem	-9.88599
▁představitelé	-9.88626
▁investiční	-9.88633
▁přehled	-9.88686
▁koncert	-9.88727
▁rozšíření	-9.88777
▁druhou	-9.88895
▁techniky	-9.88902
▁23	-9.89065
▁voleb	-9.89102
▁podobné	-9.89155
star	-9.89183
▁Již	-9.89224
▁činí	-9.89292
čně	-9.89431
ška	-9.89465
▁staré	-9.8948
▁družstev	-9.89666
▁síť	-9.89676
▁úkol	-9.89812
▁celá	-9.89813
▁míry	-9.89851
▁rad	-9.89857
▁podnikatele	-9.89871
▁dějin	-9.89877
▁div	-9.89883
šení	-9.89906
▁Nový	-9.90087
▁výrobní	-9.90092
▁polovin	-9.9011
▁zprávy	-9.90186
▁omezen	-9.90212
nické	-9.9029
▁volby	-9.90346
▁jakým	-9.90395
razil	-9.9046
pel	-9.90578
hlav	-9.90588
▁výběr	-9.90768
▁čtvrt	-9.9079
▁vytvořit	-9.90829
▁jízd	-9.9083
▁úspor	-9.90831
▁pochyb	-9.90895
▁80	-9.90895
▁dvakrát	-9.90898
▁boj	-9.90951
skoro	-9.90959
▁roze	-9.90972
▁Ca	-9.90973
▁podnikatelů	-9.91005
▁chcete	-9.91199
▁domu	-9.91219
▁ruské	-9.91268
▁vlastnosti	-9.91362
▁chod	-9.9145
▁popis	-9.91461
▁Gr	-9.91515
▁dvacet	-9.91524
▁těles	-9.91549
▁vaše	-9.91609
▁bytů	-9.91692
▁slavn	-9.91696
▁národ	-9.91735
▁též	-9.91887
kat	-9.91925
jdou	-9.91963
šit	-9.91995
▁financí	-9.92006
vané	-9.92014
značně	-9.92047
▁konečně	-9.92092
▁Kdyby	-9.9211
▁vývoz	-9.92122
zení	-9.92147
zu	-9.9216
▁každém	-9.92195
▁partner	-9.9234
jedná	-9.92357
▁Hrad	-9.92361
▁počítá	-9.92494
10	-9.92541
▁jaký	-9.92672
▁Asi	-9.92675
▁návrhu	-9.92698
▁SR	-9.92705
▁soupeř	-9.92712
▁seznam	-9.92745
▁Její	-9.92747
▁přízniv	-9.93174
▁federace	-9.93196
▁firmě	-9.93196
▁výsledků	-9.93196
▁použít	-9.93196
▁Všechny	-9.93196
▁současnosti	-9.93226
zhledem	-9.93246
▁evropských	-9.93262
▁jít	-9.93271
▁dvaceti	-9.93278
▁reprezentant	-9.93285
▁zpracování	-9.93303
drží	-9.93367
▁včerejší	-9.93521
▁obrany	-9.93634
▁průmyslu	-9.93668
▁hranice	-9.93687
▁Německu	-9.93791
▁bodů	-9.93874
▁bezpečnostní	-9.93895
dal	-9.93924
▁fotbalové	-9.93959
stran	-9.93981
▁pracuje	-9.94007
▁Du	-9.94048
myšlen	-9.94126
▁vojenské	-9.94128
ňuje	-9.94186
vnitř	-9.94226
sídl	-9.94229
ených	-9.94272
▁ústav	-9.94299
▁Společenství	-9.94401
▁Vladimír	-9.94401
▁Právě	-9.94401
▁nejlépe	-9.94403
▁zbraní	-9.94404
▁relativn	-9.94405
▁pravděpodobně	-9.9441
▁dostat	-9.94449
▁Běh	-9.94449
▁původně	-9.9448
rozměr	-9.94604
▁Měl	-9.94604
▁pokles	-9.94682
▁objeví	-9.94682
▁občan	-9.94693
▁bývá	-9.94746
▁dokázal	-9.94757
▁autobus	-9.94762
▁opak	-9.94784
ovu	-9.94807
▁ochran	-9.94905
ený	-9.94921
▁použit	-9.94975
inter	-9.94981
▁Firma	-9.95017
▁polo	-9.9502
▁amerických	-9.95039
▁export	-9.95063
lení	-9.95138
▁cílem	-9.95149
měr	-9.95164
▁náklad	-9.95221
▁člen	-9.95301
▁kancelář	-9.95438
▁disku	-9.95443
ňování	-9.95477
▁důvod	-9.95491
▁osoby	-9.95508
▁dlouhé	-9.9562
▁předpokládá	-9.9562
▁udělat	-9.95621
▁patrně	-9.95633
díl	-9.95698
rit	-9.95709
jak	-9.95712
▁dokáže	-9.95739
▁dostane	-9.95751
▁roční	-9.95802
▁slovo	-9.95803
▁sněmovny	-9.95871
▁pole	-9.95921
▁hodnot	-9.95947
šil	-9.96036
▁vhodné	-9.96041
uto	-9.96276
TA	-9.96365
▁pohyb	-9.96429
▁zůstal	-9.96485
▁Lib	-9.96534
▁prostoru	-9.96539
▁proud	-9.96572
▁volné	-9.96606
▁kurz	-9.96657
▁správ	-9.96718
▁úvěr	-9.96824
▁informační	-9.96855
▁hovoří	-9.96855
▁čísla	-9.96855
▁brzy	-9.96856
▁kanál	-9.96869
ávat	-9.96871
ide	-9.96889
▁pravda	-9.96906
▁ženy	-9.97008
▁využití	-9.97011
▁těmi	-9.97044
antní	-9.97365
kovou	-9.97457
▁zisku	-9.97474
▁lidský	-9.97488
OR	-9.97529
▁růstu	-9.97608
kar	-9.97662
▁veřejnosti	-9.97675
▁rokem	-9.97697
▁čtenář	-9.97724
▁severní	-9.97819
▁záznam	-9.97924
ger	-9.97946
▁ústavu	-9.97957
set	-9.97986
řízení	-9.97995
kových	-9.98005
▁dovolenou	-9.98105
▁většinu	-9.98105
▁jinde	-9.98105
▁péče	-9.98106
▁začne	-9.98141
▁nemohou	-9.98142
▁čist	-9.98148
▁místopředsed	-9.98188
▁Kub	-9.98193
▁vědět	-9.98273
▁vládě	-9.98294
▁stejný	-9.98391
ovský	-9.98391
dávat	-9.98435
▁molekul	-9.98501
▁příslušné	-9.98533
▁souhlas	-9.98576
▁denně	-9.98661
▁NA	-9.98679
▁čele	-9.9871
ll	-9.9879
▁témat	-9.98844
hi	-9.98849
▁takovou	-9.98881
▁národního	-9.98916
vali	-9.9896
▁str	-9.99004
▁90	-9.99098
▁vědecké	-9.99108
▁mění	-9.99132
mor	-9.99207
▁(1	-9.99226
stické	-9.99256
bře	-9.99305
LE	-9.99336
▁poslanec	-9.99348
▁prací	-9.99353
▁Mi	-9.99365
▁pokračovat	-9.99371
▁podepsal	-9.99371
▁pozadí	-9.99371
▁látky	-9.99378
pustil	-9.99389
▁kruh	-9.99404
▁nechce	-9.99404
▁sluneční	-9.99494
▁stala	-9.99509
▁500	-9.99518
▁zas	-9.99545
lat	-9.99554
▁2000	-9.99567
▁New	-9.99597
▁snížení	-9.9962
▁pracovník	-9.99628
▁vytvořil	-9.99678
▁čem	-9.99727
ivé	-9.9978
▁veřejnost	-9.99808
áni	-9.99831
▁vodní	-9.99862
nému	-10.0001
ion	-10.0007
▁Ke	-10.001
kový	-10.0013
▁podrob	-10.0016
▁potřebné	-10.0016
▁kop	-10.0019
▁ostrov	-10.0041
net	-10.0043
▁současn	-10.0053
▁pojistné	-10.0055
▁respekt	-10.0058
▁stalo	-10.0059
▁UEFA	-10.0065
▁demokracie	-10.0065
▁důležitý	-10.0065
▁hodnocení	-10.0065
▁oficiální	-10.0065
▁označil	-10.0065
▁televizi	-10.0065
▁důkaz	-10.0065
▁naprosto	-10.0065
▁Spojený	-10.0065
▁kurs	-10.0066
▁Havel	-10.0066
leté	-10.0066
▁nijak	-10.0066
kládat	-10.0068
▁300	-10.0073
▁svobod	-10.0076
▁ukazuje	-10.0076
KO	-10.0078
▁okamžitě	-10.0078
▁míru	-10.0091
▁pacient	-10.0092
▁prost	-10.0106
pak	-10.0106
▁zabývá	-10.0107
KA	-10.011
HO	-10.0112
▁kolo	-10.0116
▁procesu	-10.0116
▁bezpečnosti	-10.0118
▁rada	-10.0121
▁rozum	-10.0122
▁nebyly	-10.0122
▁1,	-10.0128
▁zvyk	-10.0135
▁pozor	-10.0138
▁cesty	-10.0146
ozi	-10.0151
rovná	-10.0181
▁téma	-10.0182
▁dát	-10.0183
dával	-10.0184
▁vzniku	-10.019
▁ČSSD	-10.0195
▁majetek	-10.0195
▁počasí	-10.0195
▁řečeno	-10.0195
▁novel	-10.0203
▁členové	-10.0205
procesor	-10.0213
tovat	-10.0213
áci	-10.0214
vel	-10.0219
▁potřeby	-10.0222
▁body	-10.0225
▁stanice	-10.0225
pře	-10.0228
kázal	-10.0232
▁PO	-10.0235
▁kanceláře	-10.0247
taj	-10.025
▁vládu	-10.026
▁28	-10.0264
ani	-10.0287
▁35	-10.029
nského	-10.0294
▁lékaři	-10.0311
▁rekord	-10.0325
▁onemocnění	-10.0327
▁požadavky	-10.0327
▁příjmy	-10.0327
▁rozhodně	-10.0327
▁názvem	-10.0327
▁stejn	-10.0329
▁řady	-10.0334
rou	-10.0334
▁učitel	-10.0335
▁nemohl	-10.0338
▁nějaký	-10.0338
▁lidem	-10.0338
jasn	-10.034
▁získá	-10.0344
▁dosáhnout	-10.0345
▁Martin	-10.0346
▁výš	-10.035
▁tlak	-10.0357
▁standard	-10.0363
RO	-10.0363
▁vytvořen	-10.0364
▁systémů	-10.0366
▁odborné	-10.0366
▁Slovensku	-10.0366
▁variant	-10.0374
▁Dva	-10.0377
▁ekonomiky	-10.0377
▁zahájení	-10.038
▁dodává	-10.0385
dat	-10.04
▁postoj	-10.0416
▁zákony	-10.0418
▁My	-10.0432
▁Oba	-10.0438
▁nejde	-10.0439
▁potravin	-10.0444
OH	-10.0444
cházet	-10.0446
níků	-10.0449
loží	-10.0459
▁hlavního	-10.046
▁konference	-10.046
▁televize	-10.046
▁vánoční	-10.046
▁ligy	-10.0461
▁policejní	-10.0461
▁funkcí	-10.0463
▁vztahu	-10.0469
▁tisk	-10.0471
▁Státní	-10.0489
▁slib	-10.0492
▁soubor	-10.0494
▁jednak	-10.0501
▁celém	-10.0513
▁třicet	-10.0517
▁obr	-10.0524
▁student	-10.0526
▁mechaniky	-10.0529
▁vybaven	-10.0534
▁společného	-10.0537
dom	-10.0553
▁přístupu	-10.0559
▁map	-10.0559
ast	-10.0564
dis	-10.0565
▁Prezident	-10.0595
▁poskytuje	-10.0595
▁zásah	-10.0595
▁Československu	-10.0595
▁připravil	-10.0595
▁příbuzn	-10.0595
▁zločin	-10.0595
▁vnitra	-10.0596
▁velká	-10.0596
▁soutěž	-10.0597
násob	-10.0605
▁nechal	-10.0613
věřil	-10.0616
▁Vše	-10.062
▁PowerPoint	-10.0623
▁Společnost	-10.0624
▁škody	-10.0635
▁Pe	-10.0642
▁rychlostí	-10.0642
▁osud	-10.0643
letý	-10.0645
▁druhá	-10.0649
▁parlamentní	-10.0654
▁přenos	-10.0655
▁aktiv	-10.0657
▁Velk	-10.0657
▁ES	-10.0662
▁Aby	-10.0662
▁cit	-10.0663
▁řekla	-10.0664
počítá	-10.0676
▁Sv	-10.0683
před	-10.0685
▁struktur	-10.0686
▁Velké	-10.0692
▁obrat	-10.0692
▁druhého	-10.0699
▁hotov	-10.07
▁Cel	-10.07
▁počátku	-10.0701
▁souboru	-10.0705
▁měsíc	-10.0711
brž	-10.0712
▁radost	-10.0716
▁teplo	-10.0716
NO	-10.0718
▁Bar	-10.0722
▁druhu	-10.0729
▁trestní	-10.073
▁Francouz	-10.0732
▁kláves	-10.0732
▁servis	-10.0732
▁zemědělství	-10.0732
▁látek	-10.0733
▁ohledu	-10.0734
▁teplot	-10.0734
▁měsících	-10.0735
▁desítky	-10.0735
▁najít	-10.0736
držel	-10.0736
vádí	-10.0737
▁Čechách	-10.074
▁Atlantě	-10.074
▁Fa	-10.0743
▁cest	-10.0744
klep	-10.0745
▁obcí	-10.0748
▁závěru	-10.0748
▁soukrom	-10.0751
▁povinnost	-10.0752
▁zaplatí	-10.0752
▁lékařů	-10.0754
vad	-10.0755
plnění	-10.0756
▁Nová	-10.0756
rem	-10.0756
ovské	-10.0758
▁zákoníku	-10.0759
▁vydání	-10.0769
lep	-10.077
▁daní	-10.0774
kám	-10.0775
▁hladin	-10.0778
▁myslí	-10.0782
▁jinou	-10.0782
▁Sovětské	-10.0784
▁předpoklad	-10.0785
pír	-10.0785
▁odpad	-10.0788
eb	-10.0789
ávání	-10.0791
izace	-10.0793
▁město	-10.0806
▁uzavře	-10.0807
▁dopravní	-10.0819
▁správy	-10.0826
fu	-10.0831
▁takového	-10.0837
▁Američan	-10.0837
pustí	-10.0839
méně	-10.0846
odpovědn	-10.0847
▁pra	-10.0848
▁zákonů	-10.0858
▁výběru	-10.086
prázdn	-10.0863
▁Jin	-10.0863
▁napsal	-10.0864
▁hudební	-10.0871
▁schopen	-10.0871
▁tradiční	-10.0871
▁ustanovení	-10.0871
▁výrobců	-10.0871
▁těžký	-10.0871
▁Francie	-10.0871
▁Národní	-10.0871
▁nabídku	-10.0871
▁snímků	-10.0871
▁pořadatel	-10.0872
▁nápad	-10.0874
nové	-10.0874
▁užit	-10.0879
▁uplatnění	-10.0879
rd	-10.0885
kům	-10.0886
▁oznámil	-10.0898
LI	-10.09
ickým	-10.0901
ckých	-10.0904
▁přijde	-10.0907
▁státech	-10.0908
▁ráno	-10.0912
▁sever	-10.0912
▁27	-10.0913
▁současný	-10.0917
staví	-10.0921
tit	-10.0927
▁charakter	-10.093
▁dalšího	-10.093
ěji	-10.0932
ER	-10.0934
▁minulé	-10.094
DO	-10.0941
▁přesvědčen	-10.0951
▁důsled	-10.0954
▁hranic	-10.0966
og	-10.0968
▁začali	-10.0979
áno	-10.0979
▁nově	-10.0979
▁zásob	-10.0979
dali	-10.0981
,5	-10.0984
60	-10.0989
dané	-10.1002
▁památ	-10.1005
▁řeč	-10.1009
▁příjem	-10.1011
▁stroj	-10.1011
▁těžké	-10.1012
▁využít	-10.1012
▁přijetí	-10.1012
▁odměn	-10.1013
▁řešit	-10.1013
▁působení	-10.1013
▁rozpočet	-10.1014
▁hodlá	-10.1015
▁školství	-10.1016
▁tentokrát	-10.1019
▁převážně	-10.1022
▁zajistit	-10.1023
▁domov	-10.1027
sed	-10.1039
▁Takže	-10.1042
ona	-10.1043
▁pořadí	-10.1046
▁nim	-10.1048
▁protest	-10.1048
vykl	-10.1049
▁vysokou	-10.1052
blíž	-10.1052
▁útok	-10.1053
▁částky	-10.1055
▁jednotliv	-10.1055
▁vyplývá	-10.1056
▁rezerv	-10.1056
▁ceně	-10.1056
▁fyzik	-10.106
▁kraj	-10.1063
vedou	-10.1064
▁okamžiku	-10.1066
▁změna	-10.1067
▁%.	-10.1068
▁knih	-10.1073
▁slovenské	-10.1076
lid	-10.1078
něk	-10.1088
▁jiná	-10.109
ance	-10.1104
ír	-10.1108
ckého	-10.1113
▁chybí	-10.1114
▁městské	-10.1115
▁chtěli	-10.1144
▁nesmí	-10.1151
▁bohužel	-10.1155
▁družstva	-10.1155
▁nejrůznější	-10.1155
▁spolupráce	-10.1155
dostatečně	-10.1155
▁Mezinárodní	-10.1156
řídil	-10.1157
sáhl	-10.1158
▁smrt	-10.116
ju	-10.1161
▁seznamu	-10.1164
▁mimořádn	-10.1165
řka	-10.1165
▁povolení	-10.1166
▁místech	-10.1169
▁jednat	-10.1174
▁udělal	-10.1174
▁takovém	-10.1176
▁moře	-10.1176
leč	-10.1179
▁směrem	-10.1181
▁údajů	-10.1187
▁názory	-10.1191
▁cestou	-10.1192
har	-10.1197
par	-10.12
bran	-10.1206
ologie	-10.1213
▁blok	-10.1215
hodný	-10.1218
▁400	-10.1227
▁zdroj	-10.1232
▁demokratické	-10.1245
RE	-10.1246
zoval	-10.1253
▁údajn	-10.1284
NA	-10.1286
▁posl	-10.1286
▁hromad	-10.1286
rab	-10.1294
▁jestli	-10.1295
izovat	-10.1299
▁pondělí	-10.13
▁prezentaci	-10.13
▁devět	-10.13
▁vyslovil	-10.13
▁mistr	-10.1301
▁smluvní	-10.1301
ros	-10.1301
▁máte	-10.1303
metr	-10.1305
▁měsíční	-10.1308
▁zkouš	-10.1309
▁dvanáct	-10.1312
ble	-10.1314
▁pravidelně	-10.1314
měl	-10.1315
AD	-10.1316
▁předtím	-10.1317
▁kola	-10.1341
▁myslím	-10.1342
▁Kol	-10.1347
▁výzkumu	-10.1357
▁armády	-10.137
číst	-10.1372
▁soukromé	-10.1373
ista	-10.1375
▁volb	-10.1382
▁žádn	-10.1393
NÁ	-10.1396
▁případů	-10.1398
▁Bra	-10.1398
▁turnaj	-10.1402
koupil	-10.1403
řídit	-10.1405
▁systémy	-10.1414
dání	-10.1418
▁uvedla	-10.1418
▁bohat	-10.1422
mj	-10.1425
▁odbyt	-10.1428
dem	-10.1436
▁Par	-10.144
▁vědy	-10.1443
▁HIV	-10.1447
▁Poslední	-10.1447
▁konferenci	-10.1447
▁podmínkách	-10.1447
▁příjmů	-10.1447
▁úrovně	-10.1447
▁června	-10.1447
eny	-10.1447
▁spoust	-10.1448
▁radnice	-10.1449
▁Mlad	-10.145
▁Pavl	-10.1452
▁vztahy	-10.1453
▁Zákon	-10.1453
▁výjimkou	-10.1455
klo	-10.1456
ive	-10.1463
▁LN	-10.1464
▁podpis	-10.1466
kají	-10.1472
▁akt	-10.1475
▁příslušn	-10.1475
lka	-10.1475
▁změnu	-10.1481
▁půd	-10.1484
▁zvuk	-10.1486
▁daňové	-10.1488
▁taková	-10.1498
▁částku	-10.1499
▁politiku	-10.1505
▁velikost	-10.1511
▁mechanika	-10.1512
▁vysoký	-10.1523
▁německý	-10.1523
▁politický	-10.1523
▁dané	-10.1533
▁klient	-10.1537
▁vydal	-10.154
▁očekává	-10.1558
▁konkurence	-10.1561
▁součást	-10.1561
▁Každ	-10.1563
▁neví	-10.1564
ovaným	-10.1566
▁pravé	-10.1569
▁známé	-10.1578
▁váš	-10.158
▁sedmi	-10.158
▁tiskové	-10.1581
▁par	-10.1581
▁rodiny	-10.1584
▁Jedna	-10.159
▁Největší	-10.1596
▁Současn	-10.1596
▁většině	-10.1596
▁jedenáct	-10.1596
▁kapitol	-10.1596
▁války	-10.1596
▁účetnictví	-10.1596
▁aliance	-10.1596
▁směru	-10.1597
▁tvrzení	-10.1598
▁Naše	-10.16
▁centra	-10.1603
▁němu	-10.1607
▁museli	-10.1615
▁Han	-10.1622
AL	-10.1622
▁nerv	-10.1622
IS	-10.1622
▁jednoznačně	-10.1622
▁tvář	-10.1625
▁vln	-10.1625
▁míč	-10.1633
▁padesát	-10.1638
▁daň	-10.1641
▁slab	-10.1641
ickém	-10.1652
▁sv	-10.1656
▁Nov	-10.1659
dělal	-10.1659
▁skupině	-10.166
osud	-10.1677
kyně	-10.1684
DE	-10.1685
▁styl	-10.169
padá	-10.1693
ávají	-10.1697
▁Rusko	-10.1699
▁svá	-10.1704
▁čin	-10.1714
▁výraz	-10.1716
▁postižen	-10.1719
ES	-10.1721
▁aktivity	-10.1726
stoupí	-10.1736
▁polovinu	-10.1737
▁hodnotu	-10.1737
▁Evropa	-10.1748
▁Gorbačov	-10.1748
▁většiny	-10.1748
▁politice	-10.1748
▁prohrál	-10.1748
▁vždycky	-10.1748
▁záruk	-10.1748
▁schéma	-10.1748
▁začít	-10.1749
▁obvod	-10.1751
▁PRO	-10.1753
▁třemi	-10.1757
▁leží	-10.1758
▁3.	-10.1759
▁dělá	-10.176
▁Jenže	-10.1761
ama	-10.1761
ovanou	-10.1764
řek	-10.1764
▁nemocnice	-10.1765
▁individuální	-10.1766
▁pořádku	-10.1768
▁odpovědnost	-10.1773
ence	-10.1775
▁ODA	-10.1779
▁uvedené	-10.178
▁Německo	-10.178
▁hlasování	-10.1784
▁náhrad	-10.1784
▁pracovníci	-10.1792
▁liber	-10.1792
▁Václava	-10.1794
▁univerzity	-10.18
kryt	-10.1801
▁změně	-10.1805
▁chlad	-10.1805
▁předsedy	-10.181
tvrdil	-10.1812
ivost	-10.1818
▁diváků	-10.182
▁budoucnosti	-10.182
boj	-10.1821
▁ostr	-10.1825
▁nutno	-10.1832
▁oslav	-10.1833
▁proveden	-10.1836
▁oceán	-10.1837
▁slouží	-10.184
20	-10.1842
▁náhod	-10.1848
▁životě	-10.1862
▁adres	-10.1866
prostřed	-10.187
▁jím	-10.1873
▁sport	-10.1875
▁studentů	-10.1884
MU	-10.1885
▁26	-10.1885
CI	-10.1887
▁AIDS	-10.1901
▁Británie	-10.1901
▁vzdělání	-10.1901
▁srpna	-10.1901
▁Možná	-10.1901
▁obyvatelstva	-10.1902
wa	-10.1903
▁Me	-10.1903
▁demokratick	-10.1904
bral	-10.1906
▁nástup	-10.1908
▁Vždyť	-10.191
▁hrad	-10.191
▁konec	-10.1911
rez	-10.1913
▁průměrn	-10.1915
OS	-10.1917
▁Kon	-10.1917
▁trval	-10.1923
▁stop	-10.1927
▁čase	-10.1927
kan	-10.1934
▁paní	-10.1945
▁Škoda	-10.1945
▁lidské	-10.1945
cem	-10.1951
▁miliony	-10.1957
▁hlasů	-10.1959
▁Ot	-10.196
▁žije	-10.1961
▁důsledku	-10.1962
▁posun	-10.1965
EM	-10.197
▁složení	-10.1972
ívají	-10.1972
▁nutnost	-10.1972
▁Fr	-10.1973
▁soudní	-10.1975
▁pán	-10.198
▁mnohé	-10.1987
▁Bi	-10.1989
▁aktivní	-10.2
▁používá	-10.2
onu	-10.2001
ároveň	-10.2003
bil	-10.2007
▁běžný	-10.2013
▁princip	-10.2016
▁zásadní	-10.2017
▁takových	-10.202
▁založen	-10.202
▁olympiád	-10.2024
snad	-10.2029
▁koupit	-10.2033
▁poz	-10.2035
▁státních	-10.2046
▁kol	-10.2047
▁orgán	-10.2047
▁katastrof	-10.2058
▁připravuje	-10.2058
▁tajemství	-10.2058
▁očekávat	-10.2058
▁silniční	-10.2058
▁čísle	-10.2058
▁buněk	-10.2058
▁název	-10.2058
▁Západ	-10.2059
stru	-10.2059
▁verze	-10.2061
směs	-10.2061
▁jejího	-10.2064
lín	-10.2066
▁významný	-10.2067
▁uspořádání	-10.207
▁průměru	-10.207
▁zdalek	-10.2071
art	-10.2072
▁odpor	-10.2073
▁zařazen	-10.2076
▁piva	-10.208
▁úřady	-10.2094
▁příčin	-10.21
▁poznání	-10.2102
▁hmot	-10.2103
▁chceme	-10.2106
▁kvalitu	-10.2108
dvacet	-10.211
▁Vol	-10.211
▁pobyt	-10.2111
▁příštím	-10.2112
40	-10.2117
běžně	-10.2117
▁dochází	-10.2117
▁výkonu	-10.2119
▁počítačů	-10.2135
rot	-10.2139
▁americký	-10.2143
▁pokut	-10.2152
▁jiným	-10.2154
NI	-10.2155
▁povinnosti	-10.2157
▁Ste	-10.2161
75	-10.2163
vát	-10.2168
▁150	-10.2169
▁určitý	-10.2176
▁stane	-10.2179
▁banka	-10.2189
išť	-10.2191
▁zápase	-10.2205
▁technické	-10.2208
▁dohod	-10.2214
▁argument	-10.2216
▁režisér	-10.2216
▁zpravodaj	-10.2216
▁zřejmé	-10.2216
▁dialog	-10.2216
▁občas	-10.2216
▁zůstat	-10.2216
▁pachatel	-10.2216
▁přírody	-10.2216
▁trend	-10.2217
pul	-10.2218
▁privatizaci	-10.2218
▁marek	-10.2218
▁mikro	-10.2219
▁sdělil	-10.2221
▁šíř	-10.2222
▁Karel	-10.2222
▁článku	-10.2223
RU	-10.2233
pek	-10.2235
čné	-10.2236
▁jaká	-10.2237
▁vyžaduje	-10.2238
▁Kor	-10.2238
▁okresní	-10.2238
▁projektu	-10.224
▁muži	-10.224
▁sovětské	-10.2242
▁vánoce	-10.2244
▁zajímavé	-10.2244
▁jaderné	-10.2245
▁premiéra	-10.2245
▁odborníků	-10.2248
▁formul	-10.2251
▁stroje	-10.2252
▁agentury	-10.2252
▁úvahu	-10.2256
nějších	-10.2256
rok	-10.2257
▁Tři	-10.2259
▁částí	-10.2264
▁Hol	-10.2264
lib	-10.2265
▁týká	-10.2265
šp	-10.2269
▁známo	-10.2271
▁pozitivní	-10.2271
▁Ri	-10.2275
▁Per	-10.2281
▁vyjádřil	-10.2281
▁sam	-10.2284
▁hlavních	-10.2287
psat	-10.2289
▁přesun	-10.2295
▁příštího	-10.2305
▁předmět	-10.2307
85	-10.2307
▁hod	-10.2308
▁zákazník	-10.2309
▁kart	-10.231
▁přísn	-10.231
▁jaderný	-10.2315
▁Ši	-10.2351
TI	-10.2357
36	-10.2361
▁uvědom	-10.2361
front	-10.2363
▁96	-10.2365
MA	-10.2365
▁spol	-10.2374
▁hokej	-10.2377
▁Miroslav	-10.2378
▁Myslím	-10.2378
▁jména	-10.2378
▁organizací	-10.2378
▁perspektiv	-10.2378
▁tlačítko	-10.2378
▁zahájil	-10.2378
▁požádal	-10.2378
▁věnovat	-10.2378
▁historii	-10.2378
▁válce	-10.2378
▁následn	-10.2378
▁rozhlas	-10.2378
ána	-10.238
▁Inter	-10.2383
▁roste	-10.2383
tud	-10.2389
▁dar	-10.2391
▁vaší	-10.2394
▁ztratil	-10.2406
▁jakou	-10.2414
utí	-10.2417
▁východ	-10.2424
▁vývoji	-10.2425
▁liší	-10.2427
jel	-10.2436
▁politika	-10.2444
▁kontakt	-10.2455
JE	-10.2458
sty	-10.2458
▁programy	-10.2461
nova	-10.2463
▁soutěži	-10.2463
▁režimu	-10.2475
▁přeprav	-10.2477
trž	-10.2479
tion	-10.2481
▁rostlin	-10.2482
padal	-10.2491
▁jediné	-10.2492
▁hraje	-10.2494
hrát	-10.2495
vala	-10.2498
▁druhy	-10.2505
OU	-10.2505
▁nedá	-10.2506
tají	-10.2513
ony	-10.2516
dělit	-10.2518
▁doklad	-10.2522
▁uveden	-10.2524
ěkteří	-10.254
▁1995	-10.2542
▁jednoduché	-10.2542
▁nabízejí	-10.2542
▁považován	-10.2542
▁Někd	-10.2542
▁Základní	-10.2542
sloužil	-10.2542
▁snížil	-10.2542
▁špatné	-10.2542
▁zůstane	-10.2542
▁zvíře	-10.2542
▁hormon	-10.2542
▁tajemník	-10.2542
▁obor	-10.2542
▁pivovar	-10.2542
celku	-10.2542
▁doktor	-10.2542
gan	-10.2543
▁zimní	-10.2544
▁hotelu	-10.2549
▁mechanik	-10.2549
▁úřadů	-10.2557
▁Fin	-10.2557
▁pravidel	-10.2558
slovensk	-10.2564
▁Mám	-10.2568
▁smlouva	-10.2569
▁cesta	-10.2576
▁déle	-10.2578
▁Stál	-10.2578
/2	-10.2581
▁abych	-10.2582
▁tráv	-10.2585
▁porazil	-10.2585
▁programů	-10.2587
▁riziko	-10.2588
čel	-10.2597
▁4.	-10.2597
▁signál	-10.2599
EC	-10.2607
▁Ex	-10.2609
▁typů	-10.2612
árně	-10.2624
out	-10.2628
▁kultur	-10.263
trh	-10.2633
padají	-10.2635
▁veškeré	-10.2637
▁normální	-10.264
▁hranici	-10.264
▁republika	-10.264
▁zákazníků	-10.2642
budete	-10.2651
pustit	-10.2672
▁chud	-10.2676
sad	-10.2687
▁typy	-10.2688
držet	-10.269
áním	-10.269
▁Hlavní	-10.2691
▁pevn	-10.2694
▁barev	-10.2694
▁Ci	-10.2694
▁pacientů	-10.2696
▁budu	-10.2699
▁postih	-10.2702
zb	-10.2702
▁globální	-10.2708
▁sponzor	-10.2708
▁závazk	-10.2708
▁řidič	-10.2708
▁úterý	-10.2708
▁iniciativ	-10.2708
▁Lidé	-10.2708
▁kapalin	-10.2708
▁včas	-10.2709
▁někdejší	-10.2709
▁Letos	-10.271
▁šance	-10.271
▁existují	-10.271
▁Fran	-10.2714
▁pořad	-10.2714
▁jestliže	-10.2716
▁lednu	-10.2716
věřit	-10.272
▁končí	-10.2724
▁soudí	-10.2732
▁stranu	-10.2733
▁muže	-10.2734
▁OS	-10.2734
▁ruce	-10.2738
pir	-10.2751
▁někter	-10.2755
▁hledání	-10.2757
▁malá	-10.2758
▁Františ	-10.2765
▁oblastí	-10.2765
▁značné	-10.2765
▁dům	-10.2768
▁skutečné	-10.2773
▁bytu	-10.2776
▁profesionální	-10.2777
▁získala	-10.2778
▁aut	-10.2782
▁symbol	-10.2783
▁spokojen	-10.279
▁příspěvk	-10.2791
▁fin	-10.2795
▁kapitálu	-10.2807
praví	-10.2808
▁podnikatelské	-10.2818
▁problémem	-10.2822
▁programové	-10.2824
▁dní	-10.2829
▁Změn	-10.2829
▁bit	-10.2844
stávají	-10.285
níky	-10.2851
▁svému	-10.2852
jedno	-10.2855
MI	-10.2856
▁patnáct	-10.2864
bytek	-10.2868
san	-10.2868
▁novým	-10.2872
▁Federální	-10.2878
▁používat	-10.2878
▁trénink	-10.2878
▁Lékař	-10.2878
▁útvar	-10.2878
▁potíže	-10.2878
▁verzi	-10.2878
▁mzdy	-10.2878
▁najednou	-10.2879
▁vrátit	-10.2879
▁členství	-10.288
▁výklad	-10.2881
▁tabulky	-10.2881
▁shromáždění	-10.2881
▁nejdříve	-10.2883
▁Zdá	-10.2883
▁vystoupení	-10.2883
▁úmysl	-10.2884
▁studie	-10.2884
pracovat	-10.2885
▁zvlášť	-10.2887
▁sluš	-10.2888
▁Česko	-10.2896
▁odpověď	-10.29
▁krajin	-10.2906
▁mal	-10.2908
▁třetím	-10.291
▁rozdělení	-10.2911
▁Chce	-10.2915
▁investor	-10.2918
▁děje	-10.2918
hem	-10.293
▁důchod	-10.2932
▁lékařské	-10.2935
▁Nebo	-10.2941
roj	-10.2944
váží	-10.2948
▁Her	-10.2949
izaci	-10.2949
▁centru	-10.2953
▁vznikla	-10.2954
neme	-10.2956
▁deník	-10.296
▁délk	-10.2961
▁označení	-10.2961
▁Sb	-10.2962
ička	-10.2967
▁akcí	-10.2968
▁starost	-10.297
▁zprávu	-10.2975
▁těsně	-10.298
▁vztahů	-10.2984
▁akcie	-10.2991
čních	-10.2992
▁dávno	-10.2993
▁časem	-10.3001
▁zad	-10.3009
▁psa	-10.3011
▁nezbytn	-10.3016
▁případné	-10.3017
▁počítači	-10.302
ins	-10.3027
▁vnější	-10.3036
áme	-10.3037
▁Michael	-10.305
▁prospěch	-10.305
▁umožnil	-10.305
▁výrobci	-10.305
▁Československa	-10.305
▁katalog	-10.305
▁paragraf	-10.305
▁rozhodne	-10.305
▁domnívá	-10.305
▁hospodaření	-10.305
▁Nicméně	-10.305
▁zaměstnanci	-10.3051
ČSL	-10.3052
▁nalezen	-10.3061
▁spočívá	-10.3061
▁MB	-10.3062
▁soukromých	-10.3069
▁sjezd	-10.307
IT	-10.3077
ša	-10.308
pořád	-10.3081
▁odpovídající	-10.3081
▁pozici	-10.3083
mět	-10.3083
▁záznamník	-10.3084
▁údaj	-10.3087
▁odpadů	-10.3088
cení	-10.3089
▁pohybu	-10.3103
▁počítat	-10.3108
▁schopnost	-10.3112
▁zaměstnavatel	-10.3114
▁umí	-10.3122
▁objem	-10.3123
třel	-10.3123
▁12.	-10.3124
nesou	-10.3127
▁škole	-10.3129
▁armád	-10.3132
DA	-10.3134
▁scén	-10.3137
▁analýz	-10.314
▁Nad	-10.3142
přes	-10.3146
▁silné	-10.315
▁podzim	-10.3151
▁týdne	-10.3152
též	-10.3156
tav	-10.3158
▁posledním	-10.3169
▁drah	-10.3174
▁pracoval	-10.3181
klád	-10.3184
volal	-10.3188
▁park	-10.319
vést	-10.3193
▁dob	-10.3197
▁britské	-10.3198
▁ruský	-10.3204
elná	-10.3206
ór	-10.3209
kraji	-10.3218
rej	-10.322
▁odvětví	-10.3226
▁firmu	-10.3226
▁hrozí	-10.3226
▁mozku	-10.3226
▁Tomáš	-10.3226
▁propag	-10.3226
▁Dále	-10.3226
▁hovor	-10.3227
▁Pohár	-10.3227
▁hledat	-10.3229
▁DNA	-10.3231
▁prvků	-10.3231
▁horší	-10.3232
▁rod	-10.3235
▁Čern	-10.3235
▁získali	-10.3236
▁mnozí	-10.3236
▁dluh	-10.3237
▁cíl	-10.324
razit	-10.3245
▁klid	-10.3248
▁Bur	-10.3259
▁platnost	-10.326
▁půdě	-10.3264
ral	-10.3266
▁Sta	-10.3268
▁poměru	-10.3274
▁letošním	-10.3275
▁ukázal	-10.3279
▁vědomí	-10.3282
graf	-10.3287
▁region	-10.3293
▁pop	-10.3294
▁díla	-10.33
náší	-10.3303
▁dovoz	-10.3312
▁uzavření	-10.3313
razí	-10.3313
řez	-10.3314
▁změnil	-10.3318
▁budoucnost	-10.332
ičtí	-10.3322
▁poháru	-10.3326
▁teploty	-10.3341
▁uložen	-10.3347
▁zemědělské	-10.3355
▁rozvoje	-10.3357
▁Rus	-10.3358
▁snah	-10.3367
▁Fo	-10.3372
▁metody	-10.3382
▁ochranu	-10.3384
▁neroz	-10.3388
▁kontrol	-10.3398
znamenat	-10.3404
▁aplikací	-10.3404
▁problematik	-10.3404
▁upozornil	-10.3404
▁zdůraznil	-10.3404
▁Československo	-10.3404
▁Existuj	-10.3404
▁natolik	-10.3404
▁výrobě	-10.3404
▁výroba	-10.3404
▁informoval	-10.3404
▁rodiče	-10.3404
▁tudíž	-10.3404
▁podpory	-10.3404
▁nechtěl	-10.3404
▁bankovní	-10.3404
▁reprezentace	-10.3405
jedině	-10.3405
▁zmíněné	-10.3406
koupí	-10.3409
▁limit	-10.3413
▁křiv	-10.3413
▁vytváření	-10.3414
▁částečně	-10.3414
▁účasti	-10.3415
land	-10.3433
▁jiném	-10.3437
▁vlastností	-10.3441
▁centrální	-10.3445
▁zavedení	-10.345
▁Poté	-10.3452
▁zpráva	-10.346
▁záležitost	-10.3463
▁19.	-10.3465
jíž	-10.347
▁režim	-10.3477
▁Švédsk	-10.3483
▁žena	-10.3485
ick	-10.3489
mark	-10.349
tát	-10.3494
produkt	-10.3497
padlo	-10.3499
▁karty	-10.35
brat	-10.3502
jen	-10.3508
▁účastníků	-10.351
▁dílo	-10.3515
▁per	-10.353
▁hospodářsk	-10.3532
▁umístěn	-10.3534
▁pohledu	-10.3545
hlásil	-10.3547
▁anti	-10.3548
dostala	-10.3555
▁odst	-10.356
hraje	-10.3563
▁dalšími	-10.3565
▁důvodu	-10.3565
ČS	-10.3565
▁Musí	-10.3568
stane	-10.3569
▁různ	-10.3572
▁Hus	-10.3577
▁měnit	-10.3578
▁neexistuje	-10.3586
▁odpoledne	-10.3586
▁připojištění	-10.3586
▁rozhodčí	-10.3586
▁paměti	-10.3586
▁stimul	-10.3586
▁pomalu	-10.3586
▁vyloučen	-10.3587
▁kvalifikaci	-10.3587
▁Americk	-10.3587
bel	-10.3587
▁super	-10.3589
▁Milan	-10.3591
ičky	-10.3592
▁česká	-10.3592
▁připomíná	-10.3593
▁reklam	-10.3593
▁organismu	-10.3596
žijí	-10.3597
▁povinn	-10.3599
▁oblastech	-10.3599
▁svědčí	-10.3602
oři	-10.3608
▁nynější	-10.3612
bere	-10.3619
▁budov	-10.3624
nést	-10.3628
▁Japonsk	-10.3632
▁významné	-10.364
▁směr	-10.3641
působit	-10.3641
▁Ústav	-10.3642
▁Slovenska	-10.3643
▁přinesl	-10.3643
▁graf	-10.3645
▁materiálů	-10.3649
▁zkušenost	-10.3651
▁ztráty	-10.3653
bývají	-10.3659
▁mé	-10.3662
▁fotbalist	-10.3667
počátku	-10.3668
▁kapitál	-10.3674
▁potřeba	-10.3682
▁forma	-10.3683
▁radi	-10.3684
kář	-10.369
pětí	-10.369
šky	-10.3695
▁loňském	-10.3698
▁brněnské	-10.3704
▁zraněn	-10.3705
▁vyrovná	-10.3707
áků	-10.3709
▁dohodu	-10.3716
▁vzájemné	-10.3721
▁obrazu	-10.3722
▁poloviny	-10.3723
▁náhradní	-10.3727
▁nejvíc	-10.3727
▁Nejs	-10.3733
▁The	-10.3735
▁děj	-10.3735
čili	-10.3746
▁chat	-10.3746
▁voda	-10.375
dor	-10.3757
▁kód	-10.3763
▁rádi	-10.377
▁rozliš	-10.3771
▁Itálie	-10.3771
▁Ovšem	-10.3771
▁Program	-10.3771
▁konflikt	-10.3771
▁výhradn	-10.3771
▁úspěšně	-10.3771
▁minimální	-10.3771
▁neustále	-10.3771
▁stránce	-10.3771
▁rychlé	-10.3771
▁praxe	-10.3771
▁záchran	-10.3771
▁chorob	-10.3771
hlédnout	-10.3771
▁desetiletí	-10.3772
▁úsek	-10.3773
▁regionální	-10.3773
▁nicméně	-10.3774
▁vyjádření	-10.3774
▁desítek	-10.3775
▁Ministr	-10.3779
▁zdejší	-10.3779
▁přístroje	-10.378
rp	-10.3781
▁Ostravě	-10.3782
▁Ital	-10.3782
▁vybrat	-10.3786
▁úst	-10.3787
ňují	-10.3791
▁dodnes	-10.3791
▁roh	-10.3795
MO	-10.3797
iletý	-10.3798
▁slev	-10.3799
▁činitel	-10.3804
▁určitou	-10.3807
▁silnic	-10.3811
▁odboru	-10.3813
▁ročník	-10.3821
▁45	-10.3832
▁občanské	-10.3835
▁vlastnost	-10.3839
▁nastal	-10.3842
▁soustavy	-10.3845
▁musím	-10.3846
▁vysíla	-10.3855
▁vzal	-10.386
▁obecně	-10.3863
▁rozhovoru	-10.3869
▁sbír	-10.3876
▁Bre	-10.388
▁Tam	-10.3896
▁Or	-10.3905
▁standardní	-10.3908
▁pozná	-10.3912
▁určit	-10.3912
ale	-10.3913
▁autorů	-10.392
rst	-10.3939
▁vývozu	-10.3943
▁KSČM	-10.3948
▁profesor	-10.396
▁Všichni	-10.396
▁jednoduchý	-10.396
▁náměstek	-10.396
▁poptávky	-10.396
▁zvítězil	-10.396
▁zúčastnil	-10.396
▁špatně	-10.396
▁teoretick	-10.396
▁Naopak	-10.396
▁skvěl	-10.396
▁jediná	-10.396
▁poslance	-10.396
▁Snad	-10.3961
▁odborníci	-10.3962
▁zaměstnance	-10.3962
▁čtení	-10.3962
▁kostel	-10.3963
▁video	-10.3963
▁měření	-10.3965
▁potřebují	-10.3965
▁nabídl	-10.3965
▁koncentrace	-10.3966
▁okna	-10.3966
▁produktů	-10.3967
▁atlet	-10.397
bili	-10.3973
▁zpráv	-10.3976
▁problému	-10.3989
▁přestup	-10.399
▁drobn	-10.399
▁II	-10.3992
bin	-10.3993
▁italské	-10.3995
▁totem	-10.3997
▁záležitostí	-10.3999
▁vychází	-10.4002
ekonomický	-10.4006
oma	-10.4006
▁stovky	-10.4007
▁závodu	-10.4007
▁registr	-10.4008
▁automaticky	-10.4018
ier	-10.4024
▁vzduchu	-10.4024
▁zrušení	-10.4025
▁reálné	-10.4028
TO	-10.4038
▁rozsahu	-10.4041
▁pohár	-10.4045
▁ano	-10.4045
▁29	-10.4046
▁představují	-10.4061
▁nástroj	-10.4061
▁čekají	-10.4061
ňovat	-10.4068
▁zlom	-10.4068
▁ústavní	-10.4072
ller	-10.4074
▁filmu	-10.4077
hav	-10.408
▁lidsk	-10.4083
▁optim	-10.4094
▁činností	-10.4096
níku	-10.4104
áš	-10.4105
▁neměli	-10.4107
IC	-10.4118
▁řádu	-10.4127
yl	-10.4132
▁jmen	-10.4141
▁trans	-10.4152
▁závěrečn	-10.4152
▁investovat	-10.4152
▁Ředitel	-10.4152
▁upraven	-10.4152
▁mladé	-10.4152
▁historie	-10.4152
▁zakázk	-10.4152
▁turistů	-10.4152
▁zbraně	-10.4152
▁bydlení	-10.4152
bavit	-10.4152
▁věnoval	-10.4153
▁pojetí	-10.4153
▁nechat	-10.4154
▁lidmi	-10.4158
▁krátce	-10.4161
▁zákonem	-10.4164
▁dodávky	-10.4167
▁pohybuje	-10.4168
▁Sam	-10.4172
▁pozice	-10.4174
▁soutěží	-10.4176
▁domácím	-10.4181
▁Evropsk	-10.4185
▁šampionátu	-10.4192
▁dopad	-10.42
▁domě	-10.42
▁No	-10.4206
▁Soud	-10.4206
▁vlastním	-10.4207
▁hodnota	-10.4211
▁voličů	-10.4219
▁mně	-10.4222
▁pouhý	-10.4227
▁rozpad	-10.423
▁činil	-10.4239
▁úspěchu	-10.4241
▁dostává	-10.4243
▁silný	-10.4245
▁zajímav	-10.4247
▁provedení	-10.4247
▁17.	-10.4253
▁Kla	-10.4255
▁omezení	-10.4256
▁letní	-10.4263
▁Olomouc	-10.4264
▁postav	-10.4268
▁námi	-10.4268
▁spolehliv	-10.4272
sadil	-10.4272
▁výchov	-10.428
▁zub	-10.4287
ůj	-10.4291
▁obviněn	-10.4291
▁nejdůležitější	-10.4299
▁investic	-10.4299
bla	-10.4302
▁rychlosti	-10.4303
▁dodavatel	-10.4307
▁nájemné	-10.4311
▁jinými	-10.4312
und	-10.4313
ovského	-10.4315
▁objev	-10.4315
▁obecní	-10.4318
elné	-10.4325
skok	-10.4329
▁vědeck	-10.4333
mile	-10.4337
hel	-10.4339
▁materiálu	-10.4345
48	-10.4346
jal	-10.4348
▁Především	-10.4348
▁elektrárny	-10.4348
▁měsíčně	-10.4348
▁umožní	-10.4348
▁úspěšné	-10.4348
▁Richard	-10.4348
▁minimálně	-10.4348
▁snížit	-10.4348
▁Spojené	-10.4348
▁zvýšit	-10.4348
▁úsilí	-10.4348
▁seminář	-10.4349
▁snímky	-10.4349
ica	-10.4349
▁tvorbu	-10.4349
▁doslova	-10.4349
▁míře	-10.4349
▁poškození	-10.435
▁setkal	-10.435
▁kritik	-10.435
▁Češi	-10.4353
▁nucen	-10.4354
▁pravdu	-10.4354
lze	-10.4355
▁celek	-10.4356
ějším	-10.4357
▁myší	-10.4358
▁návrhy	-10.4358
▁přestáv	-10.4361
▁podstat	-10.4367
▁nese	-10.4368
▁zobrazení	-10.437
▁správně	-10.4373
▁samotné	-10.4375
▁okolností	-10.4376
▁anglické	-10.4379
▁sobotní	-10.4382
SA	-10.4387
▁různým	-10.4388
hání	-10.4391
pád	-10.4393
▁konstru	-10.4394
oje	-10.4394
▁cestě	-10.4395
▁policistů	-10.4398
▁Ano	-10.44
▁rozvod	-10.4406
▁žádném	-10.4406
▁nejlepším	-10.4407
▁černé	-10.4407
▁žádná	-10.4407
▁znát	-10.4409
▁mistrů	-10.4411
▁červen	-10.4419
▁cítí	-10.442
▁domácích	-10.4423
▁potenciál	-10.4424
VA	-10.4424
▁soupeře	-10.4429
ŘE	-10.4431
▁festivalu	-10.4439
okr	-10.4441
▁třídy	-10.4444
entní	-10.4452
valy	-10.4456
telné	-10.4456
▁konstatoval	-10.4458
▁temp	-10.4459
▁subjekt	-10.4459
▁centrum	-10.446
▁zjistil	-10.4463
tickou	-10.4464
▁technick	-10.4468
▁600	-10.4469
▁mysli	-10.4473
▁vzniká	-10.448
čan	-10.4488
dol	-10.4488
šování	-10.4494
▁PowerPointu	-10.4507
nová	-10.451
▁vést	-10.451
kož	-10.451
▁oper	-10.452
▁dítě	-10.4522
▁poklesu	-10.4526
▁neznám	-10.4527
▁polovina	-10.4543
▁existence	-10.4548
▁konkurenční	-10.4548
▁matematik	-10.4548
▁pojišťovny	-10.4548
▁rozhodování	-10.4548
▁úspěšný	-10.4548
▁ČNR	-10.4548
▁Samozřejmě	-10.4548
▁divadla	-10.4548
▁širší	-10.4548
▁editor	-10.4548
▁půjde	-10.4548
▁výskyt	-10.4548
▁sdělení	-10.4548
▁úvodní	-10.4548
▁nabídka	-10.4549
▁Řad	-10.4549
vir	-10.455
▁Vznik	-10.4552
▁obsadil	-10.4552
▁ochot	-10.4553
▁celní	-10.4553
▁strach	-10.4554
▁fan	-10.4554
▁prac	-10.4555
▁představení	-10.4555
▁úraz	-10.4556
▁povrchu	-10.4556
▁Muž	-10.4559
▁nemoci	-10.456
▁dobrovoln	-10.456
▁myšlení	-10.4564
▁nezávislých	-10.4564
▁společenské	-10.4566
▁výdaje	-10.4576
race	-10.4576
jímá	-10.4578
▁technický	-10.4579
▁nastoupil	-10.4579
hladov	-10.4598
▁Proti	-10.4607
▁podnikatelé	-10.4608
▁výstav	-10.4617
▁spotřebitel	-10.4621
▁okraj	-10.4622
▁skupinu	-10.4631
▁nebyli	-10.4633
▁generál	-10.4634
▁klima	-10.4643
▁vysokých	-10.4648
▁tříd	-10.4648
▁zákazníky	-10.4657
▁zaměřen	-10.4664
▁půdy	-10.4665
▁klade	-10.4667
kládání	-10.4669
kin	-10.467
istů	-10.4686
rní	-10.4691
▁Slovensko	-10.4702
padne	-10.4707
▁úpravy	-10.4708
▁účastní	-10.4712
▁známý	-10.472
▁čisté	-10.4723
▁hodinu	-10.4724
▁armáda	-10.4725
mot	-10.4728
▁cm	-10.4734
▁maximáln	-10.4735
▁chemické	-10.4738
počíta	-10.4748
▁Char	-10.4749
▁nábožensk	-10.4752
▁Němci	-10.4752
▁alkohol	-10.4752
▁církve	-10.4752
▁surovin	-10.4752
▁týdny	-10.4752
▁usnesení	-10.4752
▁nízké	-10.4752
▁fotograf	-10.4752
▁odmítá	-10.4752
▁kolegy	-10.4753
▁zapotřebí	-10.4753
▁přišla	-10.4753
▁vražd	-10.4753
▁1988	-10.4753
▁privatizační	-10.4754
▁zbytk	-10.4754
kombin	-10.4756
▁Teď	-10.4756
▁odpadní	-10.4756
▁létě	-10.4757
▁bezpečnost	-10.4757
▁StB	-10.4763
KU	-10.477
volat	-10.4774
ujte	-10.4775
▁FS	-10.4777
soci	-10.4778
▁vůle	-10.4783
▁výuk	-10.4784
▁rozhovor	-10.4784
LO	-10.4786
▁žijící	-10.4786
kupní	-10.4789
▁uspořáda	-10.4789
▁mladých	-10.4797
▁postaven	-10.48
▁přímé	-10.4803
vodí	-10.4807
▁zájmy	-10.4808
▁rozporu	-10.481
▁porušení	-10.481
letěl	-10.4813
ologické	-10.4813
▁prodá	-10.4815
▁představitelů	-10.4815
▁důsledky	-10.4817
▁pas	-10.4824
▁založil	-10.4829
▁lidského	-10.483
▁Internetu	-10.4833
▁úrok	-10.4833
▁Chorvatsk	-10.4834
zemní	-10.484
▁lov	-10.4843
▁původu	-10.4846
▁německého	-10.4848
▁Kde	-10.4848
▁daňový	-10.4852
▁německých	-10.4853
▁automobilů	-10.4859
▁společn	-10.4865
ovky	-10.4868
▁velikosti	-10.487
▁mluví	-10.4872
▁prodejní	-10.4873
ston	-10.4878
▁nehod	-10.4892
vající	-10.4903
▁dřív	-10.4913
▁předsed	-10.4914
▁částka	-10.4918
▁obce	-10.4922
▁formát	-10.4926
▁18.	-10.4929
spal	-10.4932
hodil	-10.4937
▁20.	-10.4942
▁oni	-10.4943
státní	-10.4954
běhl	-10.4955
▁hře	-10.4956
▁Egypt	-10.4961
▁Moskvě	-10.4961
▁firmou	-10.4961
▁pokračoval	-10.4961
▁technologií	-10.4961
▁zvyšuje	-10.4961
▁Druhý	-10.4961
▁populace	-10.4961
▁třináct	-10.4961
▁vynikající	-10.4961
▁devíti	-10.4961
▁spisovatel	-10.4961
▁Třetí	-10.4961
▁dovolené	-10.4961
▁štěstí	-10.4961
▁ihned	-10.4961
▁Předseda	-10.4961
▁Francii	-10.4961
▁Pomuku	-10.4961
▁mužstva	-10.4961
▁funkční	-10.4961
▁Bush	-10.4961
▁reprezentační	-10.4961
▁tábor	-10.4962
vzdor	-10.4963
▁spotřební	-10.4963
▁jižní	-10.4965
▁Boris	-10.4965
▁mluvit	-10.4966
▁rozhodla	-10.4968
▁obětí	-10.497
▁vyrovnan	-10.4972
▁šok	-10.4972
▁Místo	-10.4972
KDU	-10.4973
▁postupu	-10.4977
▁Více	-10.4978
▁úmrtnosti	-10.4978
▁barevné	-10.4979
lis	-10.498
sát	-10.4981
80	-10.4981
▁Avšak	-10.4982
▁stačil	-10.4986
▁podklad	-10.4986
▁uvedený	-10.4988
▁představy	-10.4988
objednáv	-10.4992
▁přichází	-10.4994
▁těla	-10.4995
▁nemocnici	-10.4999
▁zastoupení	-10.5004
ativní	-10.5007
tická	-10.5008
han	-10.5014
bírá	-10.5015
▁obavy	-10.5022
▁zvukov	-10.5023
▁všeho	-10.5025
▁správné	-10.503
▁řeči	-10.5039
ria	-10.5042
▁dětské	-10.5044
▁Jižní	-10.5045
psané	-10.5047
hlásí	-10.5049
▁prodává	-10.5049
▁směn	-10.505
▁příležitost	-10.505
▁kont	-10.5052
▁hrají	-10.5054
znamená	-10.5056
inak	-10.5061
▁lesní	-10.5065
▁studiu	-10.5077
▁detail	-10.5085
znamenal	-10.5101
▁ročníku	-10.5101
skal	-10.5102
▁molekuly	-10.5105
▁realit	-10.5114
kova	-10.512
▁pražsk	-10.5123
▁krátké	-10.5123
cc	-10.5127
kládají	-10.5128
▁příštích	-10.5129
▁nebezpečn	-10.5139
▁vážně	-10.5141
▁snaha	-10.5149
▁pražském	-10.5155
▁doprav	-10.5155
TE	-10.5157
▁dostih	-10.5159
bezpeč	-10.5165
ticky	-10.5172
▁financování	-10.5173
▁konkurenci	-10.5173
▁nakladatelství	-10.5173
▁sledovat	-10.5173
▁tehdejší	-10.5173
▁transformace	-10.5173
▁výsledkem	-10.5173
▁zlepšení	-10.5173
▁úmrtí	-10.5173
▁magistrát	-10.5173
▁rozhodnout	-10.5173
▁negativní	-10.5173
▁budoucnu	-10.5173
▁příjmu	-10.5173
▁civilní	-10.5173
▁zabránit	-10.5173
▁Vláda	-10.5174
▁souvisí	-10.5174
▁cukr	-10.5174
▁Slavie	-10.5174
▁jedinou	-10.5174
▁Zájem	-10.5175
▁Kanad	-10.5176
▁operace	-10.5176
▁Euro	-10.5176
▁PCB	-10.5176
▁dlužník	-10.5176
▁střet	-10.5176
▁Wales	-10.5182
▁Vedle	-10.5185
▁Val	-10.5186
▁přítel	-10.5186
▁osmdesát	-10.5191
▁probíh	-10.5193
▁33	-10.5195
▁produktu	-10.5198
▁formou	-10.5199
▁obec	-10.5201
▁zaplatit	-10.5202
▁byty	-10.5204
▁výhodné	-10.5205
ečná	-10.5208
▁českým	-10.5209
▁řídí	-10.5213
▁vyzval	-10.5213
▁překvapení	-10.5216
▁(2	-10.5217
▁UK	-10.522
▁Nez	-10.5222
▁proměn	-10.5228
▁prodat	-10.523
▁povinností	-10.5233
▁jezdí	-10.5234
faktor	-10.5234
jmenován	-10.5239
▁celkový	-10.5241
▁kroky	-10.5245
Ř	-10.5248
▁starých	-10.525
▁velkým	-10.5254
▁největším	-10.5255
hradí	-10.5256
▁příležitosti	-10.5259
ON	-10.5261
▁zbytečné	-10.5264
▁3000	-10.5278
▁modern	-10.5279
▁napětí	-10.5282
čila	-10.5292
▁příslušný	-10.5293
▁Man	-10.5293
▁denní	-10.5302
▁škola	-10.5305
▁dojde	-10.5305
▁soustav	-10.5308
▁vlád	-10.531
▁západ	-10.5314
▁Št	-10.5318
▁komor	-10.5322
▁Spo	-10.5326
týká	-10.5326
▁novém	-10.5329
▁partnery	-10.5329
ejména	-10.5336
▁jakých	-10.5336
▁váh	-10.5341
▁účely	-10.5342
▁pravidla	-10.5342
▁On	-10.5343
působil	-10.5344
▁32	-10.5354
▁zobraz	-10.5362
▁noviny	-10.5363
dařilo	-10.5366
▁historické	-10.5367
▁Obě	-10.5367
▁zápasy	-10.537
▁ekonom	-10.5373
▁pracovníky	-10.5374
▁troj	-10.5383
▁klíč	-10.5386
▁někde	-10.539
▁Ostatně	-10.5391
▁Plzeň	-10.5391
▁Sdružení	-10.5391
▁astronom	-10.5391
▁rekreační	-10.5391
▁záleží	-10.5391
▁červnu	-10.5391
▁služba	-10.5391
▁přiznání	-10.5391
▁porovnání	-10.5391
▁krize	-10.5391
▁navrhl	-10.5391
▁sítí	-10.5393
▁výrok	-10.5393
▁Výbor	-10.5394
ouze	-10.5395
▁místnosti	-10.5396
▁neměla	-10.5396
▁Ačkoli	-10.5397
▁prázdnin	-10.5398
▁obrázek	-10.5399
▁zahrad	-10.5403
▁požár	-10.5404
fyzikální	-10.5405
▁195	-10.5405
▁přináší	-10.5411
▁jednotky	-10.5411
▁začátkem	-10.5415
▁udržet	-10.5415
▁zápasu	-10.5421
▁pozorovatel	-10.5426
▁školní	-10.5427
▁starý	-10.5431
▁jasně	-10.5432
▁dostali	-10.5433
▁znalosti	-10.5433
▁pomohl	-10.5437
Sc	-10.5437
▁účetní	-10.5439
▁Washingtonu	-10.544
▁lesy	-10.5447
▁prodávat	-10.5449
▁nákladní	-10.5451
▁Moravy	-10.5452
▁hodnotě	-10.5453
hodnotí	-10.5458
▁strojů	-10.5458
▁turnaje	-10.5458
▁historický	-10.5458
▁Bor	-10.546
▁způsoben	-10.5463
▁placení	-10.5464
▁nemáme	-10.5467
tisk	-10.5473
▁dán	-10.5478
▁oči	-10.5479
Ú	-10.5486
▁staro	-10.5492
pust	-10.5493
▁Firm	-10.55
▁dvoj	-10.5502
▁tamní	-10.5514
skými	-10.5515
▁nezávislost	-10.5515
▁vyspělý	-10.5517
▁třiceti	-10.5519
▁Ruska	-10.5521
sion	-10.5522
▁pražského	-10.5526
▁vědecký	-10.5533
▁regul	-10.5535
▁0	-10.5538
▁všemi	-10.5539
při	-10.5545
▁úzk	-10.5549
▁0,	-10.5553
▁hlad	-10.5555
▁vědom	-10.5556
▁schválen	-10.5557
▁trenéra	-10.5572
▁Mal	-10.5575
ité	-10.5584
▁bot	-10.5586
▁vedením	-10.5597
tický	-10.5599
kazuje	-10.5607
▁americk	-10.561
▁Bratislavě	-10.5613
▁dividend	-10.5613
▁kompromis	-10.5613
▁monopol	-10.5613
▁odpověděl	-10.5613
▁oficiálně	-10.5613
▁otázce	-10.5613
▁stadión	-10.5613
▁týdnů	-10.5613
▁uskuteční	-10.5613
▁Návrh	-10.5613
▁nabídnout	-10.5613
▁Nakonec	-10.5613
▁stížnost	-10.5613
▁péči	-10.5613
▁Graf	-10.5613
▁podpora	-10.5613
▁žalob	-10.5613
▁interak	-10.5613
▁dovolit	-10.5613
▁server	-10.5614
▁nepodařilo	-10.5615
▁kategorie	-10.5615
nášejí	-10.5615
▁žlut	-10.5617
▁Podnik	-10.5617
▁okno	-10.5617
▁120	-10.5617
▁nedostatek	-10.5619
▁modelů	-10.5623
▁místy	-10.5623
▁připravit	-10.5624
▁partnerů	-10.5626
mého	-10.5628
ismem	-10.563
▁prvky	-10.5631
▁návštěvě	-10.5632
▁Brno	-10.5634
▁Rusk	-10.5634
▁stará	-10.5634
povídá	-10.5635
rna	-10.5636
▁vyvíj	-10.5638
▁elektro	-10.564
▁PC	-10.5643
▁zjistit	-10.5643
▁tajné	-10.5644
▁jaterní	-10.5644
▁Mat	-10.5649
▁provést	-10.5654
▁posíl	-10.5656
▁přiznal	-10.5657
▁něž	-10.5658
▁vložen	-10.5658
▁malou	-10.5667
▁nezaměstnanosti	-10.5668
▁buňky	-10.5671
far	-10.5673
▁získání	-10.5675
▁El	-10.5679
▁domácnosti	-10.5681
part	-10.5682
▁případu	-10.5689
áček	-10.5689
▁stanici	-10.569
▁osobně	-10.5693
▁vojenský	-10.5694
▁okrese	-10.57
▁operační	-10.5704
▁tvrd	-10.5704
▁hledá	-10.5705
pálen	-10.5706
▁Evropský	-10.5711
▁poloh	-10.5716
▁událost	-10.5717
▁česko	-10.573
▁víkend	-10.5731
▁past	-10.5732
▁slovy	-10.5738
▁prodal	-10.5747
▁druhým	-10.5749
▁stejném	-10.5784
▁Ad	-10.5784
▁přeměn	-10.579
▁přítomn	-10.5795
ební	-10.5798
▁filmů	-10.5803
▁ekonomik	-10.5804
▁kontrolu	-10.5806
kovat	-10.5819
▁nevím	-10.582
vádějí	-10.5822
hovořil	-10.5826
▁koruny	-10.5826
▁partnera	-10.5827
▁Slov	-10.5828
▁začalo	-10.5837
▁věk	-10.5838
▁advokát	-10.584
▁existenci	-10.584
▁funguje	-10.584
▁křesťan	-10.584
▁otevření	-10.584
▁otázek	-10.584
▁rozhodovat	-10.584
▁vyšetřování	-10.584
▁lokalit	-10.584
▁pojišťovna	-10.584
▁poskytnut	-10.584
▁Slunce	-10.584
▁ostatně	-10.584
▁vytvoří	-10.584
▁přání	-10.584
▁vyberte	-10.584
▁situací	-10.584
▁Znamen	-10.584
▁islám	-10.584
▁letadla	-10.5841
▁zůstávají	-10.5841
▁dlouhodobé	-10.5841
▁žádá	-10.5841
▁stáří	-10.5841
▁molekulární	-10.5842
▁aktuální	-10.5842
▁operaci	-10.5843
▁pochod	-10.5843
▁SRN	-10.5845
▁míní	-10.5845
pozoruhodn	-10.5846
▁protein	-10.5847
▁Obecn	-10.5848
▁vystudoval	-10.5849
▁zájemců	-10.5852
▁fakultě	-10.5852
▁případy	-10.5854
OVÁ	-10.5857
bíd	-10.5858
▁změní	-10.5861
▁vypadá	-10.5863
▁formě	-10.5865
▁sezóně	-10.5866
▁západních	-10.5868
▁církev	-10.587
▁fakulty	-10.5872
▁16.	-10.5878
IL	-10.5879
▁širok	-10.5882
▁státním	-10.5886
▁Brna	-10.5886
▁hran	-10.5887
▁potřeboval	-10.5887
▁zjištění	-10.5892
éměř	-10.5895
▁Mark	-10.5901
▁složen	-10.5901
▁dobrou	-10.5901
▁nájemného	-10.5902
▁vstupu	-10.5902
stavit	-10.5903
▁členem	-10.5904
▁trvale	-10.5908
15	-10.591
▁nástroje	-10.5914
▁návštěvníků	-10.5915
▁přicházejí	-10.5927
▁komory	-10.5931
▁odstup	-10.5942
▁spojené	-10.5942
tak	-10.5947
▁most	-10.5948
▁víkendu	-10.5951
vítá	-10.5953
▁ministrů	-10.5958
tání	-10.5958
▁metoda	-10.5961
▁cíle	-10.5963
▁docela	-10.5964
▁uzavřel	-10.5965
▁čeho	-10.5967
▁obyvatelé	-10.5972
▁označen	-10.5973
▁struktury	-10.5984
▁brankář	-10.5991
▁pobytu	-10.5999
▁Německ	-10.6024
▁začaly	-10.6027
muž	-10.603
▁přístroj	-10.6032
▁takovým	-10.6037
12	-10.6038
▁vojensk	-10.6042
▁církevní	-10.6043
▁Auto	-10.6047
▁fa	-10.605
▁zjištěn	-10.6054
▁Dom	-10.6065
▁modelu	-10.6066
▁rozdíly	-10.6067
▁disciplín	-10.6073
▁laboratoř	-10.6073
▁Anglie	-10.6073
▁Nejvyšší	-10.6073
▁institucí	-10.6073
▁literatur	-10.6073
▁mladší	-10.6073
▁nejčastěji	-10.6073
▁příspěvek	-10.6073
▁software	-10.6073
▁přispěl	-10.6073
▁nestačí	-10.6073
▁rodičů	-10.6073
▁organizační	-10.6073
▁pochopitelně	-10.6073
▁přinejmenším	-10.6073
▁předpisů	-10.6073
▁souboj	-10.6073
▁vlastnictví	-10.6073
▁Polici	-10.6073
▁přijít	-10.6074
▁dráhy	-10.6074
▁tvorby	-10.6075
▁zabezpečení	-10.6075
▁podobu	-10.6075
▁výplat	-10.6076
▁klubů	-10.6076
ejme	-10.6077
▁poruch	-10.6077
▁vrátí	-10.6077
▁Střed	-10.6078
▁Stačí	-10.6078
▁vědců	-10.6078
▁Er	-10.6079
▁poznatky	-10.608
platí	-10.6086
▁přijmout	-10.6088
▁Bosně	-10.6088
▁ekonomických	-10.6089
▁uznání	-10.6092
▁vozů	-10.6093
▁postižené	-10.6095
▁Králové	-10.6096
▁nemusel	-10.6103
▁policisté	-10.6103
stával	-10.6104
cker	-10.6106
▁hodinách	-10.6107
▁obsahu	-10.6107
ola	-10.6108
▁levnější	-10.6111
▁předsedou	-10.6114
▁smut	-10.6115
▁George	-10.6117
▁dohoda	-10.6118
▁léky	-10.6119
íček	-10.6121
izační	-10.6126
▁obrazovky	-10.6126
musela	-10.6127
▁skutečný	-10.6128
▁ztrát	-10.613
▁jedná	-10.6131
▁nezávisl	-10.6139
▁komplexní	-10.6142
▁ideální	-10.6143
ováni	-10.6146
▁čekal	-10.6149
▁prostory	-10.6165
staral	-10.6169
▁Olomouci	-10.6174
▁uvažuje	-10.6178
▁českou	-10.619
▁starosti	-10.619
▁Kap	-10.6193
▁dodat	-10.6197
▁obran	-10.6197
▁jistot	-10.6201
▁festival	-10.6202
▁sekund	-10.6202
izované	-10.6205
▁prodeji	-10.6205
▁set	-10.621
▁red	-10.6214
▁fyziky	-10.6215
▁volně	-10.6215
▁zápasů	-10.6219
▁částic	-10.6223
průměr	-10.6228
▁věděl	-10.6229
nedávn	-10.6233
▁českém	-10.624
bod	-10.6242
ZE	-10.6242
▁vydává	-10.6243
▁zvýšen	-10.6251
ráže	-10.6256
▁auta	-10.6264
▁ministrem	-10.6266
▁plochy	-10.627
▁novinářů	-10.6274
▁vzrostl	-10.6276
▁čt	-10.6276
▁pacienta	-10.6278
ložení	-10.6279
dostanou	-10.6282
ODS	-10.6285
▁Stát	-10.6285
nických	-10.6287
ruší	-10.6292
▁milion	-10.6293
▁původ	-10.6296
▁nepod	-10.6299
▁Anglii	-10.6311
▁Jaromír	-10.6311
▁Microsoft	-10.6311
▁NHL	-10.6311
▁duchovní	-10.6311
▁francouzské	-10.6311
▁jménem	-10.6311
▁medaile	-10.6311
▁navzájem	-10.6311
▁odpovědi	-10.6311
▁sortiment	-10.6311
▁tvůrc	-10.6311
▁uzavřít	-10.6311
▁veřejně	-10.6311
▁využívat	-10.6311
▁zabývat	-10.6311
▁zástupců	-10.6311
▁článek	-10.6311
▁mužstvo	-10.6311
▁Major	-10.6311
▁asociace	-10.6311
▁poskytují	-10.6311
▁řetěz	-10.6311
▁konzul	-10.6311
▁dětem	-10.6311
▁chvíle	-10.6311
▁ČEZ	-10.6311
▁sfér	-10.6311
▁požadavek	-10.6311
▁bolest	-10.6311
▁zhorš	-10.6312
▁měřítk	-10.6313
▁Chtěl	-10.6313
▁okolní	-10.6314
▁risk	-10.6317
▁hrob	-10.632
ine	-10.632
▁venkov	-10.6321
▁Odbor	-10.6321
▁Slav	-10.6321
▁hus	-10.6322
▁výpočetní	-10.6323
▁třikrát	-10.6324
▁Har	-10.6325
▁dres	-10.6326
▁Prav	-10.6328
▁disket	-10.6329
hodnou	-10.6333
▁majitele	-10.6341
zaměstnan	-10.6342
▁podal	-10.6346
▁pojme	-10.635
▁Paul	-10.6351
▁zemské	-10.6353
rah	-10.6355
▁vzdálen	-10.6356
soudil	-10.6359
▁výstavby	-10.636
▁týkající	-10.6361
▁ulice	-10.6362
▁produk	-10.6364
▁sloup	-10.6367
volání	-10.6371
▁pracující	-10.6372
▁chodí	-10.6374
▁umístění	-10.6381
▁55	-10.6382
▁osobnosti	-10.6382
▁praktické	-10.6386
šly	-10.6396
▁Dvě	-10.6396
spraš	-10.6396
▁Takové	-10.6398
▁používání	-10.64
▁250	-10.6401
▁Alb	-10.6403
▁Jedin	-10.6408
▁Profitu	-10.6411
▁Dobr	-10.6411
▁fondů	-10.6423
▁vklad	-10.6425
▁stanovení	-10.6429
▁obsahující	-10.6429
ete	-10.643
▁stanoví	-10.643
▁žádost	-10.6431
▁minulém	-10.6436
▁sousední	-10.6441
▁průzkum	-10.6445
▁samostatné	-10.6446
likvid	-10.6462
pas	-10.6465
▁účastník	-10.6467
▁San	-10.647
▁pokusil	-10.6475
▁čtvrté	-10.6477
▁občansk	-10.6484
AV	-10.6484
vest	-10.6486
mus	-10.6488
▁léč	-10.6489
▁Pal	-10.6494
ěřitel	-10.6495
▁mistra	-10.6497
míněn	-10.65
▁obratu	-10.6505
▁rozdělen	-10.6507
▁ekologické	-10.651
▁trhy	-10.6518
▁uživatelů	-10.6524
procentní	-10.6527
ány	-10.6533
▁dvanácti	-10.6533
▁prezidentem	-10.6534
▁hospod	-10.6541
▁uživatel	-10.6544
▁pracují	-10.6544
ujícího	-10.6545
▁hospodářský	-10.6546
86	-10.6547
▁značný	-10.6548
ovce	-10.655
age	-10.6552
šetřit	-10.6555
▁Důležit	-10.6555
▁dlouhý	-10.6555
▁generace	-10.6555
▁kongres	-10.6555
▁ministři	-10.6555
▁považuji	-10.6555
▁souladu	-10.6555
▁údržb	-10.6555
▁vyhlášk	-10.6555
▁vysoká	-10.6555
▁Polska	-10.6555
▁organizaci	-10.6555
▁obrátil	-10.6555
▁Michal	-10.6555
▁chtít	-10.6555
▁vlajk	-10.6555
▁motocykl	-10.6555
▁doping	-10.6555
▁významu	-10.6556
▁Možnost	-10.6556
ŘÍ	-10.6556
▁vystaven	-10.6556
▁studia	-10.6557
▁nejspíš	-10.6557
▁tepeln	-10.6557
ug	-10.6558
▁územní	-10.6558
▁omyl	-10.6559
▁nedělní	-10.656
▁skončila	-10.6562
▁dolar	-10.6563
▁sluch	-10.6563
▁počítačové	-10.6564
▁bomb	-10.6564
rum	-10.6565
zdrav	-10.6566
▁Ří	-10.6569
▁vyplatí	-10.657
▁společensk	-10.6571
▁neznamená	-10.6572
▁ukazují	-10.6573
▁související	-10.6575
▁odborných	-10.658
▁obecné	-10.6581
▁předložil	-10.6582
▁lesů	-10.6585
▁Zlín	-10.6586
▁manipul	-10.659
skočil	-10.6591
▁nástrojů	-10.6594
▁rodinné	-10.6594
▁vydá	-10.6596
▁vyhrála	-10.6598
▁vystoupil	-10.6599
▁Představ	-10.6601
▁zajištění	-10.6603
▁kdysi	-10.6607
▁prst	-10.661
▁Karlovy	-10.6614
tažení	-10.6614
▁obchodním	-10.6615
ukce	-10.6617
▁hluboko	-10.6617
▁noční	-10.6619
▁občané	-10.6622
▁silně	-10.6624
▁ačkoli	-10.6626
▁možných	-10.6627
▁nedávné	-10.6628
▁Obchodní	-10.6629
▁časopisu	-10.6629
▁styk	-10.6632
▁panelu	-10.6635
▁ZA	-10.6638
▁Konce	-10.6642
▁nechá	-10.6647
▁zato	-10.6649
▁nemělo	-10.6661
▁skončilo	-10.6661
▁vědě	-10.6661
pravují	-10.6667
▁sekundu	-10.6668
▁min	-10.6671
▁Slovenské	-10.6671
71	-10.6672
▁technik	-10.6677
▁schopnosti	-10.6684
▁univerzit	-10.6685
▁Met	-10.6695
▁černo	-10.6698
▁samé	-10.6702
▁zahájen	-10.6704
▁regionu	-10.6706
▁Poslaneck	-10.6713
▁dosah	-10.6715
reform	-10.6718
▁dostalo	-10.6719
▁průmyslový	-10.6722
▁získáva	-10.6723
běhu	-10.6726
▁zákazníka	-10.673
▁ústavy	-10.673
▁ochrany	-10.6731
▁možný	-10.6733
▁politického	-10.6733
pana	-10.674
▁souvislost	-10.674
▁pohybují	-10.6743
▁přenosu	-10.6751
▁široké	-10.676
▁zpěv	-10.6771
▁nepříjemn	-10.6772
▁pojištěn	-10.6774
kazují	-10.6775
▁mini	-10.6777
děk	-10.678
▁nedostat	-10.6785
▁mimořádné	-10.6787
jmout	-10.6789
▁způsobu	-10.6789
▁získává	-10.6791
▁dokonale	-10.6799
▁kvalita	-10.6802
▁mnohd	-10.6803
▁10.	-10.6803
ovněž	-10.6804
▁atmosféře	-10.6805
▁delegace	-10.6805
▁dozvěděl	-10.6805
▁francouzský	-10.6805
▁inflace	-10.6805
▁oblíben	-10.6805
▁poptávka	-10.6805
▁sedmnáct	-10.6805
▁službu	-10.6805
▁badatel	-10.6805
▁mandát	-10.6805
▁nejnovější	-10.6805
▁očekávan	-10.6805
▁vysokoškol	-10.6805
▁všude	-10.6805
▁považují	-10.6805
▁stanovisko	-10.6805
▁Skutečn	-10.6805
▁přírodě	-10.6805
▁Viktor	-10.6805
▁penzijní	-10.6805
▁politická	-10.6805
▁doprovod	-10.6805
▁zábav	-10.6805
▁Popper	-10.6805
▁vyšetřovatel	-10.6805
▁dohodnut	-10.6805
▁čísel	-10.6805
▁devadesát	-10.6805
▁Podnikatel	-10.6806
▁citliv	-10.6806
▁vysloven	-10.6806
▁květnu	-10.6806
▁podaří	-10.6807
▁velitel	-10.6807
▁přechodu	-10.6808
▁rytm	-10.6809
▁výstup	-10.681
▁dřívější	-10.6811
▁vysvětlit	-10.6811
▁vrací	-10.6811
▁brát	-10.6811
▁vysvětlení	-10.6812
▁mínění	-10.6813
▁myši	-10.6813
▁Nejvíce	-10.6816
▁zlato	-10.6816
▁rizik	-10.6818
▁řeší	-10.6819
▁stupně	-10.6821
▁prosadit	-10.6822
▁Čas	-10.6823
72	-10.6823
▁Chceme	-10.6824
▁léků	-10.6828
▁opravy	-10.6829
▁dobou	-10.6831
▁vědci	-10.6832
▁kamer	-10.6834
▁grafik	-10.6835
▁Lin	-10.6839
▁představit	-10.6839
▁vysvětlil	-10.6839
▁dosahuje	-10.684
▁slovenských	-10.6841
▁podílel	-10.6843
▁Kolik	-10.6844
▁nedostal	-10.6845
jedou	-10.6846
slyš	-10.685
▁projekty	-10.6852
▁znaků	-10.6855
▁zkušeností	-10.6857
▁nebe	-10.6864
▁dám	-10.6866
▁čemu	-10.6868
▁Postup	-10.6872
▁ukázalo	-10.6872
▁titulu	-10.6874
11	-10.6881
▁přípravě	-10.6882
platit	-10.6882
koupit	-10.6883
prodej	-10.6885
▁nesouhlasí	-10.6885
▁zbytek	-10.6887
▁klepn	-10.6896
▁Kam	-10.6896
▁odchodu	-10.6901
▁špičk	-10.6907
▁smí	-10.6909
▁místem	-10.6909
▁Ben	-10.6911
▁dojem	-10.6914
orku	-10.6921
▁800	-10.6927
EK	-10.6931
▁stanic	-10.6937
▁orgánů	-10.6938
▁mimořádný	-10.6942
▁závodě	-10.6944
▁Dán	-10.6945
▁role	-10.6945
čtí	-10.6945
▁rozsah	-10.6953
hnal	-10.6962
▁Ostrava	-10.6962
▁policist	-10.6964
▁Čs	-10.6966
▁třídě	-10.6967
počet	-10.6968
kupovat	-10.6968
▁RN	-10.6973
▁chladn	-10.6974
▁Novák	-10.6975
▁Paříž	-10.6979
▁výstava	-10.698
▁volič	-10.6984
pravděpodobností	-10.6985
▁vodou	-10.6988
▁kanceláří	-10.6997
▁viděl	-10.6998
▁plný	-10.6999
▁materiály	-10.7005
▁koho	-10.7007
▁sval	-10.7029
▁bi	-10.7034
ill	-10.7048
▁herec	-10.7057
▁speciali	-10.7059
▁jimi	-10.706
▁přírodověd	-10.7061
▁Zajímav	-10.7061
hlížet	-10.7061
▁Výsledk	-10.7061
▁atraktivní	-10.7061
▁blízké	-10.7061
▁milióny	-10.7061
▁montáž	-10.7061
▁požadavků	-10.7061
▁rozhraní	-10.7061
▁složky	-10.7061
▁telekomunikační	-10.7061
▁tiskárny	-10.7061
▁dlouhá	-10.7061
▁používají	-10.7061
▁předpokládat	-10.7061
▁chráněn	-10.7061
▁externí	-10.7061
▁koncepce	-10.7061
▁Důvod	-10.7061
▁nabídce	-10.7061
ičtější	-10.7061
▁vysoce	-10.7061
▁závisí	-10.7061
▁naděje	-10.7061
▁muzea	-10.7062
▁barvy	-10.7062
▁učinil	-10.7062
▁rozšířit	-10.7063
▁mozkov	-10.7063
▁žebříčku	-10.7064
▁větším	-10.7064
▁názorů	-10.7064
▁unii	-10.7066
▁vysvětluje	-10.7067
▁naději	-10.7069
▁osobních	-10.707
▁Chyb	-10.7072
▁cenou	-10.7074
▁Irsk	-10.7076
▁umožňující	-10.708
▁Nebyl	-10.7083
▁můj	-10.7085
rám	-10.7087
▁uvést	-10.7089
▁Nikdo	-10.7094
▁Stran	-10.7096
▁čtyřech	-10.7097
▁dvojice	-10.7098
▁kniha	-10.7101
▁totéž	-10.7102
▁bytové	-10.7105
▁čtenáře	-10.7106
▁stín	-10.7106
VI	-10.7109
▁Hr	-10.711
▁Sparty	-10.7111
tematick	-10.7113
▁grafické	-10.7123
▁nemůžeme	-10.7126
▁Autor	-10.7127
▁návrat	-10.7128
ess	-10.713
elů	-10.7133
▁návštěvu	-10.7134
▁jakékoli	-10.7138
▁agentura	-10.7138
▁podstatné	-10.7146
isty	-10.7152
▁akciové	-10.7155
enství	-10.7156
▁čtyřmi	-10.7158
▁šat	-10.7168
rušení	-10.7171
ocel	-10.7173
▁studium	-10.7181
▁budovy	-10.7184
▁stěn	-10.7186
ňující	-10.7189
projevuje	-10.719
▁reáln	-10.7191
pracuje	-10.7194
kládal	-10.7194
▁britský	-10.7202
▁cenný	-10.7202
izovan	-10.7207
ME	-10.7208
▁představu	-10.7209
▁skladb	-10.721
▁finančn	-10.7211
▁divák	-10.7212
▁fotbalistů	-10.7212
lob	-10.7214
vice	-10.7214
skému	-10.7219
▁podání	-10.722
▁propad	-10.722
▁Profit	-10.7221
▁pořádá	-10.7224
▁světového	-10.7226
▁Tur	-10.7227
▁zaměstnavatele	-10.7228
logický	-10.7237
▁komplex	-10.7247
▁stranou	-10.7254
▁polské	-10.7258
▁krátk	-10.7261
▁geolog	-10.7261
▁potřebný	-10.7262
▁nároky	-10.7264
▁představil	-10.7265
▁Nizozemsk	-10.7268
▁nebezpečné	-10.7268
okres	-10.7274
▁způsoby	-10.728
▁noc	-10.7281
OLE	-10.7283
▁experiment	-10.7288
▁okolnost	-10.7288
▁km	-10.729
áhy	-10.7293
vlas	-10.73
▁nachází	-10.7302
▁Den	-10.7305
▁patřil	-10.7305
oji	-10.7305
▁Hra	-10.7319
favorit	-10.7324
▁Itálii	-10.7324
▁divadelní	-10.7324
▁inženýr	-10.7324
▁komentář	-10.7324
▁obligace	-10.7324
▁otevřené	-10.7324
▁peněžní	-10.7324
▁požaduje	-10.7324
▁snižování	-10.7324
▁vojáků	-10.7324
▁výjimečn	-10.7324
▁úrovní	-10.7324
▁Miloslav	-10.7324
▁přirozený	-10.7324
▁komplet	-10.7324
▁rychlý	-10.7324
▁zjistí	-10.7324
▁odsouzen	-10.7324
▁povinen	-10.7325
▁nevěděl	-10.7325
▁absolvent	-10.7325
▁průkaz	-10.7325
▁menšin	-10.7325
▁podívat	-10.7325
▁důkladn	-10.7325
▁Jugoslávii	-10.7325
▁Čtyř	-10.7325
▁najevo	-10.7326
▁zavře	-10.7328
▁dálnic	-10.7328
▁některým	-10.7328
▁Peter	-10.7329
▁jistý	-10.7329
▁říct	-10.733
▁plát	-10.7331
▁vybírat	-10.7332
▁skončení	-10.7332
▁kup	-10.7334
▁fax	-10.7339
▁nesmírn	-10.7339
AC	-10.7339
▁strav	-10.7341
▁agent	-10.7342
▁pivo	-10.7344
▁odvolání	-10.7345
▁systémem	-10.7351
▁Moravě	-10.7353
▁kusů	-10.7355
ráží	-10.7357
▁povolání	-10.7359
▁cyklus	-10.736
▁japonské	-10.7361
▁pokyn	-10.7365
▁tisíci	-10.7366
žije	-10.7367
▁hlavu	-10.7367
▁Počet	-10.7367
▁listu	-10.7376
▁Cena	-10.7377
▁předmětem	-10.738
▁klientů	-10.7381
árek	-10.7382
ecká	-10.7382
▁Bud	-10.739
▁důvodem	-10.7398
čovat	-10.7403
▁CS	-10.7403
obec	-10.741
▁podnikové	-10.741
▁resp	-10.741
▁úvěrů	-10.7413
▁přev	-10.7422
▁přední	-10.7431
▁dramatick	-10.7435
▁dílem	-10.7436
▁Dalším	-10.7436
▁výstavy	-10.7438
▁dohodl	-10.7443
▁podřízen	-10.7454
▁31.	-10.7457
važoval	-10.7462
▁filmový	-10.7468
učili	-10.747
▁předložen	-10.7474
▁fotbalový	-10.7477
▁politik	-10.7478
cházející	-10.748
▁vlny	-10.7483
▁profesionál	-10.7484
▁nájemní	-10.7492
▁Moh	-10.7495
▁Cha	-10.75
▁starosta	-10.75
▁pražský	-10.7503
▁kartu	-10.7504
držení	-10.751
▁Kovo	-10.7511
těl	-10.7511
▁Pre	-10.7512
▁Ruské	-10.7513
▁působ	-10.7513
▁neznámý	-10.7515
▁národů	-10.7516
PS	-10.752
▁schválil	-10.7525
▁průmysl	-10.7537
▁přípravy	-10.7538
▁zaveden	-10.7543
▁klasick	-10.7544
▁velko	-10.7544
▁objektiv	-10.7546
▁obsazen	-10.755
▁pěkn	-10.7562
ctví	-10.7564
▁zajištěn	-10.7565
▁rovin	-10.7567
úpln	-10.7574
▁Např	-10.7574
ěsíční	-10.7578
▁znak	-10.7583
▁pevné	-10.7584
▁Kazachstán	-10.7595
▁Oznámil	-10.7595
▁Univerzit	-10.7595
▁existovat	-10.7595
▁informaci	-10.7595
▁obtížné	-10.7595
▁prezentací	-10.7595
▁stříbrn	-10.7595
▁svědomí	-10.7595
▁vyjádřit	-10.7595
▁vytvářet	-10.7595
▁zdánlivě	-10.7595
▁ztrácí	-10.7595
▁Problém	-10.7595
▁bariér	-10.7595
▁komerční	-10.7595
▁poskytovat	-10.7595
▁Několik	-10.7595
▁komunismu	-10.7595
▁ubytování	-10.7595
▁února	-10.7595
▁československé	-10.7595
▁střediska	-10.7595
▁veletrh	-10.7595
▁zmizel	-10.7595
záběr	-10.7595
▁Slovinsk	-10.7595
▁pěst	-10.7595
▁vlákn	-10.7595
▁předpisy	-10.7595
▁kvantov	-10.7595
▁komunikace	-10.7596
▁optimální	-10.7598
▁vybraný	-10.7598
▁udělá	-10.7599
▁náskok	-10.7599
▁zítra	-10.76
▁prováděn	-10.76
střelil	-10.76
▁továrn	-10.7602
▁bezplatn	-10.7602
▁zmíněný	-10.7603
▁Bójové	-10.7603
▁rychleji	-10.7604
▁zvolil	-10.7606
▁hrách	-10.7607
▁volný	-10.7608
▁sále	-10.7608
▁nákupu	-10.7608
▁kupující	-10.7613
▁průběh	-10.7615
▁jednotek	-10.7618
▁klimatický	-10.7618
▁bodu	-10.7618
▁závodech	-10.7621
▁tradice	-10.7621
44	-10.7623
▁objevuje	-10.7625
▁trestný	-10.7627
nozí	-10.7627
▁ústřední	-10.7628
▁hlavy	-10.763
▁slavnostní	-10.7631
▁hrdin	-10.7631
▁vesnici	-10.7634
▁nadace	-10.7636
▁zaznamenal	-10.7637
▁podvod	-10.7642
▁všeobecné	-10.765
▁teplota	-10.765
▁elektron	-10.765
▁dohodě	-10.7653
▁fyzické	-10.7656
▁novinář	-10.7657
týdenní	-10.7658
najdete	-10.7658
▁dostávají	-10.766
▁brání	-10.7664
▁schopna	-10.7666
▁boji	-10.7668
▁Svoboda	-10.7672
▁narodil	-10.7673
▁vzdálenosti	-10.7674
▁obvinění	-10.7675
▁souborů	-10.7679
▁vznikají	-10.7682
▁politiků	-10.7683
▁účt	-10.769
▁mírové	-10.7691
▁hledají	-10.7696
▁odběratel	-10.77
▁zajímavý	-10.77
▁Vlastní	-10.7706
▁kalů	-10.7709
▁návratu	-10.7709
▁rizika	-10.7718
▁psycholog	-10.7719
▁tvrdé	-10.772
▁kontroly	-10.7722
▁Mil	-10.7726
▁uplynul	-10.7735
▁zaplatil	-10.7742
▁příběh	-10.7742
TU	-10.7743
▁češt	-10.775
▁připoj	-10.7751
▁jasno	-10.7751
▁chyt	-10.7756
▁ostatními	-10.7759
▁Internet	-10.7764
▁Sun	-10.7766
▁signálu	-10.7776
▁34	-10.778
▁uchazeč	-10.7781
istický	-10.7784
▁čtyřicet	-10.7787
▁domácnost	-10.7788
▁důvody	-10.7789
▁bloku	-10.78
▁závodník	-10.78
▁prach	-10.7804
▁porážk	-10.7806
BA	-10.7807
31	-10.7811
▁konečné	-10.7813
▁filozof	-10.7826
▁využívá	-10.7829
▁správu	-10.7832
▁Žádn	-10.7834
sáhnout	-10.7834
dent	-10.7843
alternativ	-10.7851
případě	-10.7857
▁kontinent	-10.7861
▁distribu	-10.7863
▁závodů	-10.7864
▁privatiz	-10.7866
▁mohu	-10.7866
▁ClipArt	-10.7872
▁demokracii	-10.7872
▁fanoušků	-10.7872
▁jednoduše	-10.7872
▁lustrační	-10.7872
▁navštívil	-10.7872
▁nepochybn	-10.7872
▁nádraží	-10.7872
▁obligací	-10.7872
▁opoziční	-10.7872
▁otevřel	-10.7872
▁otázkou	-10.7872
▁ovzduší	-10.7872
▁pracoviště	-10.7872
▁prokurátor	-10.7872
▁vyrábí	-10.7872
▁železniční	-10.7872
poloviční	-10.7872
▁osmnáct	-10.7872
▁pobřeží	-10.7872
▁častěji	-10.7872
▁Rumunsk	-10.7873
▁Pracovní	-10.7873
▁příchod	-10.7873
▁statut	-10.7873
stěhoval	-10.7873
▁odstranit	-10.7873
▁knize	-10.7873
▁modul	-10.7873
▁knížk	-10.7873
▁záření	-10.7873
▁věnován	-10.7873
▁obnoven	-10.7873
▁Tehd	-10.7874
▁blízkosti	-10.7874
▁vážné	-10.7874
▁dohodnout	-10.7875
▁raket	-10.7876
▁poradensk	-10.7876
▁oblečení	-10.7876
▁Motor	-10.7877
▁scénář	-10.7877
▁říkal	-10.7878
▁horní	-10.7878
▁písmen	-10.7879
▁přínos	-10.788
▁pečlivě	-10.788
nutil	-10.788
wan	-10.7881
▁několikrát	-10.7882
▁Rád	-10.7882
▁chyběl	-10.7882
gel	-10.7885
▁sedmdesát	-10.7886
▁pramen	-10.7888
▁Pět	-10.789
▁státě	-10.7891
▁pomůže	-10.7892
▁ovládání	-10.7894
▁komunistické	-10.7896
▁vyvolal	-10.7897
▁společník	-10.7898
▁kvalitě	-10.79
líbil	-10.79
myslet	-10.7902
▁připadá	-10.7903
▁uprostřed	-10.7906
krás	-10.7915
▁dopravě	-10.7916
hodnotit	-10.7922
▁Kraj	-10.7925
▁boje	-10.7926
▁velkého	-10.7926
▁správný	-10.7933
▁Pražské	-10.7935
AM	-10.7935
▁žít	-10.7937
▁Taková	-10.7937
▁výpravy	-10.794
▁Lá	-10.7942
▁chemický	-10.7949
▁nejlepších	-10.7956
končit	-10.7959
▁novináři	-10.796
▁znaky	-10.7965
▁Rakousku	-10.7965
▁viděli	-10.7966
US	-10.7972
▁jakém	-10.7974
▁Lon	-10.7976
41	-10.7977
▁převzal	-10.7984
▁1000	-10.7989
▁tajný	-10.7991
▁blíží	-10.7994
▁mezinárodních	-10.7998
▁tvořen	-10.8002
▁spis	-10.8007
▁přizpůsob	-10.8007
▁kus	-10.8009
25	-10.801
▁obrazů	-10.801
rent	-10.8011
LU	-10.8012
vedli	-10.8023
▁doprava	-10.8023
▁určitých	-10.8026
▁sportu	-10.8027
▁Rusku	-10.8033
▁aminokyselin	-10.8042
▁měsíci	-10.8047
▁okamžik	-10.8049
▁odchod	-10.8051
▁určené	-10.8056
ohledem	-10.8063
▁větr	-10.8067
plynul	-10.8068
▁úvěry	-10.807
▁souhlasí	-10.8073
▁fyzick	-10.8074
▁automatick	-10.8077
▁přijel	-10.8078
▁Mik	-10.8082
nových	-10.8087
▁samostatný	-10.8092
▁fondy	-10.8101
▁Indi	-10.8101
kázat	-10.8101
▁císař	-10.8101
stroj	-10.8102
▁začínají	-10.8103
▁magnet	-10.8105
histor	-10.8112
řazen	-10.812
▁Let	-10.8121
▁právník	-10.8139
▁přerušen	-10.814
ung	-10.8142
17	-10.8156
▁dopoledne	-10.8158
▁doporučuje	-10.8158
▁kompres	-10.8158
▁ministerstvu	-10.8158
▁nejrychleji	-10.8158
▁partneři	-10.8158
▁považovat	-10.8158
▁rekonstrukci	-10.8158
▁rozhoduje	-10.8158
▁spravedliv	-10.8158
▁strategie	-10.8158
▁Americe	-10.8158
▁reakce	-10.8158
▁dveře	-10.8158
▁policii	-10.8158
▁vyrábět	-10.8158
▁dubna	-10.8158
▁úhrad	-10.8158
▁Trenér	-10.8158
▁majetkov	-10.8158
▁sloužit	-10.8158
▁taneční	-10.8158
▁sledoval	-10.8158
▁Havla	-10.8158
▁politickou	-10.8158
▁srdce	-10.8158
▁jaře	-10.8159
nášet	-10.8159
▁Excel	-10.8159
▁areálu	-10.8159
▁humor	-10.8159
▁Klub	-10.816
▁termínu	-10.816
čištění	-10.816
▁vězení	-10.8161
▁penze	-10.8161
škodliv	-10.8162
▁vzít	-10.8162
▁psát	-10.8162
▁rozlišení	-10.8163
▁krve	-10.8164
spektr	-10.8164
▁poskytnout	-10.8165
▁dotací	-10.8166
▁výlet	-10.8166
▁zachovat	-10.8167
▁čekat	-10.8167
▁Konečn	-10.8167
▁trvat	-10.8167
▁klesl	-10.8167
▁dřev	-10.8177
▁kořen	-10.8178
▁mírně	-10.8179
▁vstupné	-10.8181
tických	-10.8181
▁obsahovat	-10.8181
▁ukončení	-10.8181
▁patnácti	-10.8182
▁stavby	-10.8182
▁produkty	-10.8185
▁elektrické	-10.8185
▁Musím	-10.8189
end	-10.8189
▁provádět	-10.819
▁vydat	-10.8192
▁sovětských	-10.8197
▁narození	-10.82
▁dítěte	-10.82
▁zastavit	-10.8202
▁Mnoho	-10.8205
▁událostí	-10.8206
▁pokládá	-10.821
munist	-10.821
▁postavit	-10.8211
▁připojení	-10.8212
▁přišli	-10.8217
▁cestující	-10.822
užit	-10.8221
▁sezón	-10.8222
IP	-10.8226
▁stati	-10.8226
▁vším	-10.823
▁zjevn	-10.823
▁objektivní	-10.8231
▁schválení	-10.8231
▁tržb	-10.8235
▁kabinetu	-10.824
tiky	-10.8243
▁příkladem	-10.8248
daných	-10.8252
▁managementu	-10.8253
▁žil	-10.8254
▁vlak	-10.8259
▁Lab	-10.8262
▁cosi	-10.8265
▁události	-10.8267
▁plánu	-10.8274
▁Tad	-10.8275
▁posil	-10.8276
▁Celkov	-10.8278
▁zjistili	-10.8282
▁techniku	-10.8282
▁maximální	-10.8283
▁vašeho	-10.8284
▁Ros	-10.8286
čené	-10.8291
▁sociálního	-10.8293
:3	-10.8294
▁samostatně	-10.8302
▁přesvědčení	-10.8304
▁kontakty	-10.8311
▁orgány	-10.8317
▁principy	-10.8319
▁večerní	-10.8321
▁obci	-10.833
▁monitor	-10.8342
▁Vlast	-10.8342
▁škod	-10.8344
▁soubory	-10.8346
▁Eva	-10.8347
▁Mag	-10.8349
▁pozitiv	-10.8352
▁En	-10.8352
▁vyhlásil	-10.8361
▁občany	-10.8361
▁pravomoc	-10.8368
▁testu	-10.837
vládnout	-10.8375
▁útoku	-10.8381
ánek	-10.8383
▁rozhodli	-10.8386
▁severu	-10.8391
▁oznámila	-10.8396
CD	-10.8398
ezi	-10.8403
plňuje	-10.8404
▁Clinton	-10.8404
▁Mnoh	-10.8406
padla	-10.8406
▁průmyslové	-10.8406
▁Belgi	-10.8408
▁souhlasu	-10.8409
▁rozšířen	-10.8409
▁vlast	-10.8411
▁cyklu	-10.8413
▁odkaz	-10.8413
cová	-10.8413
▁Malé	-10.8414
▁rostou	-10.8415
▁dopravu	-10.8418
vádět	-10.842
DI	-10.8422
▁dělí	-10.8422
▁placen	-10.8424
▁člena	-10.8429
▁poskytl	-10.8434
▁setká	-10.8436
▁kmen	-10.8437
▁Kur	-10.8437
legislativ	-10.8439
▁stejným	-10.8442
▁král	-10.8443
▁praktický	-10.8449
▁blízko	-10.8451
▁výhody	-10.8451
▁Stanislav	-10.8452
▁geometrie	-10.8452
▁miliónu	-10.8452
▁nepřízniv	-10.8452
▁opozice	-10.8452
▁producent	-10.8452
▁referendu	-10.8452
▁snižuje	-10.8452
▁vstříc	-10.8452
▁výsledku	-10.8452
▁zahrnuje	-10.8452
▁zásluh	-10.8452
zapomněl	-10.8452
▁závazn	-10.8452
▁účinky	-10.8452
▁března	-10.8452
▁zahynul	-10.8452
▁rozmezí	-10.8452
▁funkcionář	-10.8452
▁šťastn	-10.8452
▁aparát	-10.8452
▁páté	-10.8452
▁sotva	-10.8453
▁využil	-10.8453
▁kupónov	-10.8453
▁zvýší	-10.8453
▁čtvrtletí	-10.8453
▁středověk	-10.8453
▁klesá	-10.8453
▁nositel	-10.8453
▁necelý	-10.8453
▁rakouské	-10.8453
▁morální	-10.8453
▁knihovn	-10.8453
▁terén	-10.8453
▁pověst	-10.8454
▁duchu	-10.8454
▁Fond	-10.8455
▁téhož	-10.8456
▁útočník	-10.8457
▁architektur	-10.8458
ářské	-10.8459
▁diskusi	-10.846
▁kluby	-10.846
▁Šest	-10.846
▁nesmysl	-10.846
▁návod	-10.8469
▁zajišťuje	-10.847
▁hlasy	-10.8472
▁únik	-10.8472
▁činit	-10.8474
▁los	-10.8474
▁nedovol	-10.8475
ejít	-10.8477
▁potřebu	-10.8478
▁vybral	-10.8482
▁školách	-10.8482
▁věnuje	-10.8487
▁rodinný	-10.8489
▁zachování	-10.8493
▁vodu	-10.8494
▁formátu	-10.8502
▁přestal	-10.8503
▁vzpomíná	-10.8503
▁poradce	-10.8504
▁stráž	-10.8504
nický	-10.8509
drželi	-10.851
▁rodina	-10.851
▁46	-10.8514
▁kovů	-10.8515
skutk	-10.8516
▁představiteli	-10.8522
▁příčinou	-10.8522
▁provádí	-10.8523
leb	-10.8524
▁prokázal	-10.8526
▁krajan	-10.8526
▁pravomoci	-10.8538
▁formy	-10.8538
zákon	-10.8541
▁pražských	-10.8554
▁Zemi	-10.8555
příliš	-10.8557
▁běžn	-10.8565
▁sídle	-10.8571
▁Svět	-10.8574
▁vstoupil	-10.858
▁soust	-10.858
▁projevil	-10.8582
▁neobvykl	-10.8584
▁urychlen	-10.8587
zie	-10.8588
▁padesáti	-10.8589
▁vlně	-10.8593
▁čistý	-10.8596
lidov	-10.8597
▁Bla	-10.8599
▁ozbrojený	-10.8599
▁účtu	-10.8601
▁vysvětl	-10.8608
▁obrovské	-10.8614
▁130	-10.8615
pozn	-10.8623
mála	-10.8626
▁zásadně	-10.8633
▁srovnateln	-10.8636
▁kandidátů	-10.8638
▁38	-10.8643
▁slep	-10.8643
▁výbuch	-10.8645
▁plno	-10.8655
▁personál	-10.866
▁ostře	-10.8665
▁minulost	-10.8671
▁volbu	-10.8672
▁následujících	-10.8679
▁Občanské	-10.868
▁obsahují	-10.8684
▁postupy	-10.8685
▁Klause	-10.8692
▁daném	-10.8696
▁nabízen	-10.8697
▁Rada	-10.87
▁Jelcinov	-10.8701
HA	-10.8701
▁Morav	-10.871
▁Karl	-10.8719
▁vzdálenost	-10.8729
▁Stal	-10.8731
▁jediným	-10.8733
Vesmír	-10.8737
▁formu	-10.8738
▁Spor	-10.8739
▁poznat	-10.8746
▁snaz	-10.8747
▁architekt	-10.8749
▁reakci	-10.8749
▁Španěl	-10.8752
biologick	-10.8752
▁implant	-10.8754
▁barevný	-10.8755
▁jednorázov	-10.8755
▁softwarov	-10.8755
▁Otázka	-10.8755
▁definitivně	-10.8755
▁digitální	-10.8755
▁důvěru	-10.8755
▁gigant	-10.8755
▁hřišti	-10.8755
▁infekc	-10.8755
▁kyslíku	-10.8755
▁navrhuje	-10.8755
▁otevřený	-10.8755
▁označit	-10.8755
▁pokračování	-10.8755
▁prognóz	-10.8755
▁předvolební	-10.8755
▁rovnová	-10.8755
▁sekretář	-10.8755
▁transformaci	-10.8755
▁vyjadřuj	-10.8755
▁vězňů	-10.8755
▁divadlo	-10.8755
▁sexuální	-10.8755
▁výročí	-10.8755
▁zemědělců	-10.8755
▁používal	-10.8755
▁zvyšování	-10.8755
▁prosinci	-10.8755
▁prozatím	-10.8755
▁vozidel	-10.8755
▁vyskytují	-10.8755
▁Československé	-10.8755
▁Třeba	-10.8755
▁náměstk	-10.8755
▁října	-10.8755
▁Býval	-10.8755
▁opačné	-10.8755
▁vazby	-10.8755
▁vteřin	-10.8755
▁poplatky	-10.8755
▁počtem	-10.8755
▁rozsáhlé	-10.8756
▁statistik	-10.8756
▁Práce	-10.8756
▁nastavení	-10.8756
▁obvyklé	-10.8756
▁nikoho	-10.8756
▁rakovin	-10.8756
▁Prostě	-10.8756
▁Východ	-10.8756
▁hluboké	-10.8756
▁Tvrd	-10.8756
▁svoje	-10.8756
▁uplatňuj	-10.8756
▁myšlenky	-10.8759
▁zastavil	-10.8759
▁stán	-10.876
▁Člen	-10.8763
edení	-10.8764
▁Hill	-10.8765
látka	-10.8767
▁začátek	-10.8768
▁Cest	-10.877
▁výdajů	-10.8772
▁neplatí	-10.8776
▁poradit	-10.8778
▁rozšířil	-10.878
▁koordin	-10.878
▁modely	-10.8782
▁link	-10.8782
▁mechanismus	-10.8784
▁čtrnáct	-10.8784
▁ceník	-10.8785
▁tunel	-10.8787
▁oběti	-10.8787
▁odešl	-10.8789
▁stručn	-10.8789
▁loňský	-10.879
▁papíru	-10.879
▁skutečn	-10.8791
příště	-10.8793
▁rostoucí	-10.8794
▁zrušit	-10.8796
▁třetiny	-10.8798
▁představitele	-10.8799
▁Ře	-10.8799
▁Hlavním	-10.8801
zemědělských	-10.8801
▁bratr	-10.8805
▁příležitostí	-10.881
nášel	-10.881
stupovat	-10.8812
▁průměrné	-10.8814
▁východě	-10.8818
▁Uvedl	-10.8818
▁tuzemsku	-10.8819
▁obchody	-10.8824
▁schopností	-10.8825
▁chtěla	-10.883
▁kapel	-10.8839
▁osoba	-10.8841
vrácení	-10.8842
▁přítomnosti	-10.8842
▁sezóny	-10.8847
▁zabýval	-10.8861
▁Rakouska	-10.8861
▁uvaž	-10.8865
▁opustil	-10.8866
5%	-10.8868
▁Jaké	-10.887
bírají	-10.887
mořsk	-10.8871
▁zůstalo	-10.8873
▁objevují	-10.8874
▁majitelé	-10.8874
89	-10.8885
jeli	-10.8887
▁staveb	-10.8892
▁vědí	-10.8893
▁vlasti	-10.8897
▁reklamy	-10.89
▁záležitosti	-10.89
▁výborů	-10.8903
logicky	-10.8904
▁výkonný	-10.8912
▁dílů	-10.8915
▁krajiny	-10.8917
▁písemn	-10.8918
▁pokuty	-10.8925
▁dramat	-10.8939
▁určený	-10.8939
▁postavil	-10.8942
▁diplomat	-10.8944
▁živé	-10.8946
▁výrobních	-10.8952
▁výtvarn	-10.8953
▁primátor	-10.8954
▁chyby	-10.8957
▁Pomoc	-10.8958
▁svobody	-10.8959
lip	-10.8963
▁jih	-10.8971
▁stylu	-10.8982
▁Jaká	-10.9002
nete	-10.9002
▁zdravotního	-10.9011
▁Němec	-10.9012
▁výkonné	-10.9015
▁pravděpodobnost	-10.9016
▁zveřejněn	-10.902
▁koncertu	-10.902
▁důraz	-10.9021
▁věda	-10.9024
▁znění	-10.9024
▁filmové	-10.9041
▁přítomnost	-10.9042
blok	-10.9043
▁Mont	-10.9045
ňoval	-10.9045
povídají	-10.905
cal	-10.9053
▁listin	-10.9053
poví	-10.9054
▁ostatním	-10.9055
▁Bój	-10.9059
příč	-10.9061
▁existující	-10.9065
počtů	-10.9066
ografie	-10.9068
▁Angličan	-10.9068
▁Argentin	-10.9068
▁Evropu	-10.9068
▁Mechanik	-10.9068
▁Mečiar	-10.9068
▁Němců	-10.9068
▁Premiér	-10.9068
▁Staroměstské	-10.9068
▁Systém	-10.9068
▁absolutní	-10.9068
▁definitivní	-10.9068
▁kilobajtů	-10.9068
▁paradox	-10.9068
▁podezření	-10.9068
▁potvrzuje	-10.9068
▁připomněl	-10.9068
▁sjednocení	-10.9068
▁smlouvě	-10.9068
▁teorií	-10.9068
▁vyžádal	-10.9068
▁Vývoj	-10.9068
▁poločas	-10.9068
▁tabulce	-10.9068
▁tvořit	-10.9068
▁účinek	-10.9068
máhat	-10.9068
▁GSM	-10.9068
▁komplikov	-10.9068
▁pochopil	-10.9068
▁režii	-10.9068
▁pohádk	-10.9068
▁aspekt	-10.9068
▁schůze	-10.9068
▁lehce	-10.9068
▁Druhá	-10.9068
▁zdarma	-10.9068
▁zrušil	-10.9068
▁celků	-10.9068
▁ukončil	-10.9068
▁membrán	-10.9068
▁čerstv	-10.9068
▁nález	-10.9068
▁pokrok	-10.9068
▁špatný	-10.9068
▁Jihlav	-10.9068
▁zastupitelstva	-10.9069
▁tramvaj	-10.9069
▁střetnutí	-10.9069
▁hustot	-10.9069
▁podepsán	-10.907
▁vyřešen	-10.907
▁spotřeby	-10.907
▁pověřen	-10.907
▁("	-10.9071
▁nádor	-10.9071
▁nedokázal	-10.9071
▁projednáva	-10.9071
▁vězni	-10.9072
▁bránit	-10.9073
▁nejenom	-10.9073
▁soused	-10.9075
▁diskuse	-10.9076
▁ovoce	-10.9077
▁Cíle	-10.9077
tratil	-10.9077
▁zájm	-10.9078
▁produkci	-10.908
▁Dodal	-10.9082
▁Řeck	-10.9082
▁balík	-10.9082
▁kódování	-10.9082
▁kamion	-10.9084
▁dosáhla	-10.9084
▁dostatek	-10.9086
▁dětský	-10.9086
▁životním	-10.9088
▁přístav	-10.9088
▁kyselin	-10.9091
▁vaši	-10.9091
▁našel	-10.9092
▁vyvolává	-10.9093
▁systematick	-10.9097
▁Úřadu	-10.9097
▁státem	-10.91
▁Jednání	-10.91
▁běh	-10.9102
▁výkony	-10.9102
▁tuzemské	-10.9106
▁akademie	-10.9107
▁závislosti	-10.9107
▁čtenářů	-10.9109
▁nahradil	-10.911
▁pokladn	-10.9111
▁veřejných	-10.9111
▁dolní	-10.9112
▁klasický	-10.9113
▁předložit	-10.9114
VÍ	-10.9115
▁překlad	-10.9116
▁stiskn	-10.9117
▁výstavě	-10.9119
lezsk	-10.9121
▁fakultu	-10.9123
▁Karadžič	-10.9124
▁menších	-10.9125
▁zvěře	-10.9128
čnost	-10.9128
▁strážník	-10.9129
▁zahraničním	-10.913
▁užívání	-10.9134
stupují	-10.9135
táhne	-10.9137
▁Jaký	-10.9138
jedna	-10.9138
▁přímý	-10.9142
▁náhodou	-10.9143
▁Světové	-10.9147
▁koupi	-10.9149
▁živnost	-10.9149
▁189	-10.9158
▁Sparta	-10.9159
▁Severní	-10.9161
▁nájemník	-10.9161
▁ulic	-10.9166
▁nezávislé	-10.917
▁KB	-10.9172
PI	-10.9173
▁anglický	-10.9173
▁obrovský	-10.9174
ohra	-10.9175
rgi	-10.9176
tika	-10.9177
▁klidně	-10.9178
▁Vlk	-10.9181
▁škodu	-10.9187
▁zdravotnické	-10.919
LOV	-10.9193
▁startu	-10.9198
▁náročn	-10.9201
▁týdnech	-10.9202
▁zdravé	-10.9203
▁poznal	-10.9207
▁podobného	-10.921
▁obav	-10.9213
▁exportu	-10.9217
▁Dan	-10.9218
▁Mel	-10.9227
▁Či	-10.9231
▁ukázk	-10.9234
▁Šv	-10.9236
ED	-10.9238
▁trenérem	-10.9243
▁příčiny	-10.9244
▁základem	-10.9244
RS	-10.9251
▁kontrolní	-10.9267
▁závodní	-10.9271
▁vzduch	-10.9281
▁principu	-10.9291
ODA	-10.9292
▁pohyboval	-10.9298
▁Ústavní	-10.9302
▁Rozhod	-10.9311
88	-10.9311
▁bezprostředn	-10.9316
ptal	-10.9324
▁karta	-10.9334
jako	-10.9335
▁firemní	-10.9341
▁ponech	-10.9346
▁třetího	-10.9347
▁analog	-10.9348
▁moravsk	-10.9357
▁okamžit	-10.9358
▁Úřad	-10.9363
ÁT	-10.9368
▁olej	-10.9376
▁důstojn	-10.9379
počítat	-10.938
▁budova	-10.9383
▁OD	-10.9389
▁recept	-10.939
ačtyřicet	-10.939
pomeňme	-10.939
▁Bruselu	-10.939
▁ToolBook	-10.939
▁dohromady	-10.939
▁nejnižší	-10.939
▁pokračuje	-10.939
▁přispět	-10.939
▁sportovců	-10.939
▁spořiteln	-10.939
▁uskutečnit	-10.939
▁volejbal	-10.939
▁Člověk	-10.939
▁Určit	-10.939
▁demonstra	-10.939
▁dražší	-10.939
▁dynamick	-10.939
▁nemohu	-10.939
▁podporovat	-10.939
▁pokračují	-10.939
▁snažit	-10.939
▁Poslanc	-10.939
▁index	-10.939
▁medaili	-10.939
▁chystá	-10.939
▁každoročn	-10.939
▁krizi	-10.939
▁vyřešit	-10.939
▁vybudovat	-10.939
▁bílkovin	-10.939
▁vypadat	-10.939
sáhne	-10.939
▁Mnichov	-10.939
▁uvidí	-10.939
▁srážek	-10.9391
▁Vysok	-10.9391
▁hůře	-10.9391
▁Osobn	-10.9391
▁turisty	-10.9391
▁skončí	-10.9391
▁Vítěz	-10.9391
▁doufá	-10.9391
▁mlýn	-10.9391
▁koní	-10.9391
▁jiní	-10.9391
▁mzdov	-10.9391
▁kolegů	-10.9391
▁sněhu	-10.9391
▁tvorbě	-10.9392
▁zhodnocení	-10.9392
▁dobrá	-10.9392
▁obilí	-10.9392
▁mld	-10.9393
▁bio	-10.9393
▁chlap	-10.9394
▁pouští	-10.9394
▁vedlejší	-10.9395
▁síti	-10.9396
▁sběr	-10.9396
ávali	-10.9396
▁dcer	-10.9397
▁porozumění	-10.9398
▁přesvědčit	-10.9399
vázal	-10.9399
▁těší	-10.9399
▁atmosféry	-10.94
▁spodní	-10.94
třída	-10.9401
▁Form	-10.9401
▁čestn	-10.9401
▁dešti	-10.9402
▁penzion	-10.9403
▁najde	-10.9405
▁deviz	-10.9406
▁klasické	-10.9406
▁vyřazen	-10.9407
▁všeobecně	-10.941
chůd	-10.941
▁umělecké	-10.941
▁koně	-10.941
▁připojit	-10.9413
▁úkon	-10.9414
▁městský	-10.9415
▁vesnice	-10.9416
▁Hradci	-10.9417
▁zbytečně	-10.9419
▁přinést	-10.9421
▁tělo	-10.9423
▁Krát	-10.9423
▁ruky	-10.9428
▁rovině	-10.943
▁Cup	-10.9432
▁spolupracovníků	-10.9435
▁Senátu	-10.9436
▁sub	-10.9436
▁poznamenal	-10.9438
▁moment	-10.944
▁Jelcina	-10.9444
▁prosadil	-10.9445
▁Mir	-10.9446
▁obsazení	-10.9446
▁stávající	-10.9447
▁členský	-10.9461
nili	-10.9464
▁sporu	-10.9468
▁Američané	-10.947
▁Novotný	-10.9474
▁silnice	-10.9474
jov	-10.9479
▁opustit	-10.948
▁stranick	-10.9483
▁odraz	-10.9484
▁Voj	-10.9487
▁čtyřiceti	-10.9491
▁volných	-10.9492
▁personální	-10.9493
70	-10.9496
▁zájemce	-10.9497
▁palác	-10.9499
▁Rakousk	-10.95
▁kolektivní	-10.9508
čela	-10.9509
noví	-10.9509
▁zájmů	-10.9509
▁grafický	-10.9513
▁požadované	-10.9515
▁postoje	-10.9515
nutně	-10.9521
▁mlh	-10.9522
▁svobodné	-10.9523
▁dovozu	-10.9524
ložený	-10.9525
▁získan	-10.9525
▁kapitálové	-10.9527
▁nadšen	-10.9528
▁počítačový	-10.9529
▁dala	-10.9529
▁samozřejm	-10.953
▁statistick	-10.9541
▁Karla	-10.9545
▁analýzy	-10.9552
▁kvalit	-10.9554
▁Chorvatska	-10.9569
ačnou	-10.9569
▁Pen	-10.9574
▁odborník	-10.9581
▁publika	-10.9587
hraniční	-10.9587
▁vedla	-10.9589
▁Šp	-10.959
▁objemu	-10.9597
▁důchodu	-10.9598
dáme	-10.9599
▁kolektiv	-10.9604
▁dalo	-10.9605
▁takzvan	-10.9609
▁reagoval	-10.9609
▁přivedl	-10.9612
▁management	-10.9614
▁osobnost	-10.9619
▁grafu	-10.9621
▁loňsk	-10.9623
▁autobusy	-10.9624
▁časové	-10.9631
▁Sever	-10.9634
▁buňk	-10.9639
▁mladý	-10.965
jan	-10.9651
▁Kohl	-10.9653
▁mírn	-10.9657
▁tlaku	-10.9661
lčí	-10.9664
pin	-10.9664
▁muse	-10.967
▁mnou	-10.9672
▁drobné	-10.9675
▁předběžn	-10.9685
▁ideál	-10.9689
▁projektů	-10.9698
▁bytost	-10.9712
nvestiční	-10.9714
▁1,5	-10.9716
▁legend	-10.9723
▁Mluvčí	-10.9724
▁Pardubic	-10.9724
▁Rudolf	-10.9724
▁elektráren	-10.9724
▁intenzit	-10.9724
▁jednoduchá	-10.9724
▁metropoli	-10.9724
▁nechtějí	-10.9724
▁nejpozději	-10.9724
▁obsažen	-10.9724
▁otevřena	-10.9724
▁pochopení	-10.9724
▁tradičně	-10.9724
▁výpověď	-10.9724
▁dosažení	-10.9724
▁teorii	-10.9724
plácet	-10.9724
▁neutrální	-10.9724
▁hrozb	-10.9724
▁únoru	-10.9724
▁jmění	-10.9724
▁reakcí	-10.9724
▁Moskva	-10.9724
▁Peníze	-10.9724
▁složitější	-10.9724
▁očekával	-10.9724
▁Divadl	-10.9724
▁vzácn	-10.9724
táhnout	-10.9724
▁likvidace	-10.9724
▁anket	-10.9724
▁hezk	-10.9725
▁břehu	-10.9725
▁nevýhod	-10.9725
▁Zástupc	-10.9725
▁poplatník	-10.9725
▁restauraci	-10.9725
▁Rozdíl	-10.9726
▁panel	-10.9726
▁Obdobn	-10.9726
▁dotace	-10.9727
▁úlev	-10.9727
▁dojít	-10.9727
▁operací	-10.9728
cvič	-10.9729
▁kabel	-10.9729
▁kategorii	-10.9729
▁dělají	-10.973
řídí	-10.9731
▁vtip	-10.9732
▁výhodnější	-10.9733
▁Slovan	-10.9734
▁reálný	-10.9738
▁utrpěl	-10.9739
▁mezd	-10.974
▁reformy	-10.9744
▁podporuje	-10.9744
visí	-10.9744
▁udržení	-10.9747
▁vykoná	-10.9749
▁množ	-10.9749
▁sněmovně	-10.975
▁trestné	-10.9751
▁oblačnost	-10.9754
▁konečný	-10.9755
▁městech	-10.9756
▁potřebn	-10.9757
▁stíhání	-10.9757
▁vešker	-10.976
hodné	-10.9763
▁časopisů	-10.9766
▁Dokon	-10.9767
▁nepříjemné	-10.9768
▁přijdou	-10.9771
▁zabezpeč	-10.9773
▁žádostí	-10.9776
▁průměrný	-10.9785
▁Nemá	-10.9787
hrává	-10.9787
▁Takový	-10.9788
▁vína	-10.9791
▁obal	-10.9795
▁Nic	-10.9795
▁Tour	-10.9803
čková	-10.9805
▁bílé	-10.9808
▁mladí	-10.9809
▁obyčejn	-10.981
▁popř	-10.981
▁odborníky	-10.9814
▁textový	-10.9816
▁výrazný	-10.9818
▁značn	-10.9818
▁realitní	-10.9819
▁krásn	-10.9822
▁využívání	-10.9823
▁Bank	-10.9825
▁mechanick	-10.9827
▁pochází	-10.9828
měnit	-10.9828
▁dodá	-10.9832
▁Paříži	-10.9835
▁žádosti	-10.9843
▁šedesát	-10.9847
▁vzpomínk	-10.9848
▁sezónu	-10.9851
vláda	-10.9853
▁levé	-10.9857
▁tiskov	-10.9858
▁vyvolá	-10.9865
▁hledal	-10.987
▁mluvil	-10.9872
▁uložení	-10.9877
pravit	-10.9881
▁nastavit	-10.9883
▁dokonč	-10.9895
▁technologick	-10.9898
▁Olymp	-10.9899
▁škoda	-10.99
▁založení	-10.9901
▁mluvčího	-10.9908
▁hmoty	-10.991
▁tank	-10.9928
▁letecké	-10.9934
▁zákazníkům	-10.9934
▁vlk	-10.9935
▁nemohli	-10.9939
▁domy	-10.9939
▁ukázala	-10.9944
tkání	-10.9951
▁Svat	-10.9953
▁důsledk	-10.9966
▁struktura	-10.9969
▁časopise	-10.9971
▁provedl	-10.9973
▁snažil	-10.9983
▁nezaměstnanost	-10.9984
▁Plat	-10.9985
▁skla	-10.9986
národních	-10.9988
▁konve	-10.9991
▁ztráta	-10.9991
OP	-11.0005
▁svobodu	-11.0008
▁ekologick	-11.0008
oučástí	-11.001
▁grafick	-11.0012
riti	-11.0014
ectví	-11.0015
▁narozen	-11.0019
▁ohrožen	-11.0023
dpověď	-11.0023
ďte	-11.0026
▁čtrnácti	-11.0035
▁kilometr	-11.0038
▁stisk	-11.0042
▁reprezentantů	-11.0043
▁neboli	-11.0049
▁řídící	-11.0051
▁zvětš	-11.0054
▁psy	-11.0057
▁pochopit	-11.0067
hlédn	-11.0068
▁strojírensk	-11.0069
▁Afriky	-11.0069
▁Ameriky	-11.0069
▁Bohužel	-11.0069
▁Ladislav	-11.0069
▁Nedávn	-11.0069
▁Plzni	-11.0069
▁SCSI	-11.0069
▁Telecom	-11.0069
▁devatenáct	-11.0069
▁energii	-11.0069
▁gymnázi	-11.0069
▁instituce	-11.0069
▁investování	-11.0069
▁konkrétně	-11.0069
▁nejvýznamnější	-11.0069
▁nejúspěšnější	-11.0069
▁nizozemsk	-11.0069
▁plzeňsk	-11.0069
▁výrobek	-11.0069
▁čtvereční	-11.0069
▁čtvrtfinále	-11.0069
▁hloubk	-11.0069
▁hudby	-11.0069
▁podpořil	-11.0069
▁přirozené	-11.0069
▁lokální	-11.0069
▁předčasn	-11.0069
▁garant	-11.0069
▁požadují	-11.0069
▁rámeček	-11.0069
▁Policisté	-11.0069
▁kapitán	-11.0069
▁mládí	-11.0069
▁ohrožuj	-11.0069
▁chránit	-11.0069
▁názvu	-11.0069
▁koncepci	-11.0069
▁pobočk	-11.0069
▁David	-11.0069
▁trzích	-11.0069
▁ztráce	-11.0069
▁nalézt	-11.0069
▁Všeobecn	-11.0069
▁léčebn	-11.0069
máhají	-11.0069
▁Včera	-11.0069
▁schránk	-11.0069
▁odstavce	-11.0069
▁okénk	-11.0069
▁dražb	-11.0069
▁použil	-11.0069
▁závad	-11.0069
▁zaujal	-11.0069
▁zimě	-11.0069
▁ekonomicky	-11.007
▁klasifik	-11.007
▁Chip	-11.007
▁vybrané	-11.007
▁stabilní	-11.007
▁věnovan	-11.0072
ight	-11.0072
▁obrázky	-11.0072
▁dvojic	-11.0073
▁nadcházející	-11.0074
▁Britsk	-11.0075
▁zvýšené	-11.0075
▁Tentokrát	-11.0075
▁Nevím	-11.0077
beton	-11.0077
▁koncern	-11.0078
▁lamp	-11.0081
▁kategorií	-11.0082
▁síla	-11.0082
▁každému	-11.0082
▁opravdov	-11.0082
▁faktorů	-11.0086
▁49	-11.0088
▁navazuj	-11.0088
▁hlavou	-11.0088
▁plod	-11.009
JÍ	-11.009
▁právnické	-11.0093
▁bojovat	-11.0093
▁chodit	-11.0094
▁Londýně	-11.0097
▁světovou	-11.0098
▁umělecký	-11.01
▁obvodní	-11.0102
▁parametrů	-11.0102
▁provozní	-11.0103
▁konat	-11.0105
▁tradici	-11.0105
▁tón	-11.0105
▁originální	-11.0106
▁výkonnost	-11.0106
▁kritérií	-11.0106
▁spravedlnosti	-11.0109
▁záměru	-11.0111
▁Děti	-11.0113
▁připojen	-11.0113
▁relac	-11.0115
▁zbývající	-11.0121
▁týmy	-11.0123
▁Japon	-11.0128
▁způsobuje	-11.0129
stihnout	-11.013
▁třetinu	-11.013
'	-11.0131
▁uživatele	-11.0131
▁vyvoláva	-11.0132
▁schůzky	-11.0132
▁vesmíru	-11.0133
▁nezbytné	-11.0137
▁úvahy	-11.0139
najdeme	-11.014
▁úrokov	-11.0141
▁slíbil	-11.0143
▁zájemci	-11.0144
▁uznal	-11.0147
▁nemocných	-11.0148
▁šéfa	-11.015
▁okruhu	-11.0152
CA	-11.0161
rodil	-11.0162
jednat	-11.0167
▁blíže	-11.0168
▁paliva	-11.0168
▁úkolem	-11.0172
▁biologické	-11.0176
▁Zahraničn	-11.0178
mlouva	-11.0182
▁mez	-11.0191
polí	-11.0193
▁povede	-11.0194
▁drahé	-11.0202
omín	-11.0209
▁turistický	-11.0213
▁úroky	-11.0221
▁způsobené	-11.0221
dél	-11.0222
▁výkonem	-11.0223
▁zaměření	-11.0223
▁pouhé	-11.0224
▁bosenský	-11.023
▁činu	-11.0231
▁uvedení	-11.0236
CP	-11.0236
▁objevit	-11.0237
▁podnikatelský	-11.024
▁scény	-11.0242
▁starosty	-11.0244
nická	-11.0247
▁Stav	-11.025
▁dokumentu	-11.025
▁lékařsk	-11.0251
▁udržel	-11.0262
▁pouč	-11.0263
bíhají	-11.0267
▁Lidové	-11.0272
▁realiz	-11.0273
vodně	-11.0281
▁Mohl	-11.0283
▁podat	-11.0285
▁úkolů	-11.0288
▁klidu	-11.0288
vnějších	-11.0289
cestoval	-11.0299
▁čtvrtin	-11.0301
▁představí	-11.0303
▁dokumentů	-11.0305
▁poukaz	-11.0307
▁180	-11.0308
▁paláce	-11.0309
▁nesouhlas	-11.0311
▁kouř	-11.0316
▁listopad	-11.0317
▁Med	-11.0327
▁hradu	-11.0328
▁posílen	-11.0332
▁zahraničními	-11.0335
▁čtvrtý	-11.0337
▁výprav	-11.0339
▁sklon	-11.034
▁zásady	-11.0341
nder	-11.035
▁odložen	-11.035
▁šestnáct	-11.036
▁stovk	-11.0362
▁Mas	-11.0366
▁časopis	-11.0374
mann	-11.0378
▁zastoupen	-11.0379
▁poklesl	-11.0382
▁řízen	-11.0387
▁Bend	-11.0388
▁vývojové	-11.0392
▁akademi	-11.0392
▁zůstala	-11.0397
▁jednoznačn	-11.0397
kolik	-11.0399
▁chemick	-11.0405
čern	-11.0409
▁filmy	-11.0412
▁Karlov	-11.0412
reprezenta	-11.0422
palestinsk	-11.0426
▁1996	-11.0426
▁Alexandr	-11.0426
▁Barceloně	-11.0426
▁Bohemia	-11.0426
▁Británii	-11.0426
▁Bělehrad	-11.0426
▁IFOR	-11.0426
▁Nejlepší	-11.0426
▁Portugalsk	-11.0426
▁cigaret	-11.0426
▁fázi	-11.0426
▁honorář	-11.0426
▁instalaci	-11.0426
▁následek	-11.0426
▁podmínkou	-11.0426
▁požádat	-11.0426
▁pravidlo	-11.0426
▁publikován	-11.0426
▁tlačítka	-11.0426
▁tlačítkem	-11.0426
▁týdně	-11.0426
▁umožnit	-11.0426
▁úsměv	-11.0426
nápověd	-11.0426
▁březnu	-11.0426
▁chorvatské	-11.0426
▁multimediální	-11.0426
▁normy	-11.0426
▁pomáhá	-11.0426
▁Organiza	-11.0426
▁bazén	-11.0426
▁populární	-11.0426
▁azbest	-11.0426
▁vrstvy	-11.0426
▁déšť	-11.0426
▁kratší	-11.0426
▁naléhav	-11.0426
▁ploše	-11.0426
▁příslušníci	-11.0426
▁Srbsk	-11.0426
▁zklamán	-11.0426
▁chalup	-11.0426
▁těžce	-11.0426
spěje	-11.0426
▁doposud	-11.0426
▁divize	-11.0426
▁Robert	-11.0426
▁kanadsk	-11.0426
▁sociálně	-11.0426
▁zajímat	-11.0426
▁Věřím	-11.0426
▁provozovatel	-11.0426
▁úvodu	-11.0426
▁Soubor	-11.0426
▁Část	-11.0426
▁značky	-11.0426
▁někoho	-11.0426
▁pololetí	-11.0426
▁likvidaci	-11.0426
▁ocitl	-11.0426
▁barvu	-11.0427
▁pozdější	-11.0427
▁1987	-11.0427
▁stoupl	-11.0427
▁prodávající	-11.0427
▁kvalifikace	-11.0428
▁Hodnot	-11.0428
▁ekonomice	-11.0428
▁komisi	-11.0428
▁nutný	-11.0429
▁debat	-11.0429
▁Případ	-11.0429
▁historik	-11.0429
▁Jenom	-11.0431
▁klimatu	-11.0432
tivnější	-11.0432
▁uvažovat	-11.0434
▁termo	-11.0435
▁zeleni	-11.0435
▁drog	-11.0435
▁Generální	-11.0436
abilní	-11.0437
▁právnických	-11.0437
▁děd	-11.0438
▁99	-11.0439
▁založené	-11.044
krýt	-11.0441
▁ukáže	-11.0443
pouštějí	-11.0443
▁prud	-11.0443
▁desky	-11.0443
▁červenci	-11.0443
▁odpovídal	-11.0444
tisícov	-11.0445
▁51	-11.0447
▁horách	-11.045
▁fyzický	-11.0451
▁pozorování	-11.0451
▁Novotná	-11.0451
▁ukázat	-11.0451
▁tvrdý	-11.0452
▁výstavbě	-11.0455
▁rozbor	-11.0457
▁potvrzení	-11.0458
▁zjednoduš	-11.0458
▁vzorky	-11.0459
▁letiště	-11.0461
▁Často	-11.0463
▁vydělá	-11.0463
plyn	-11.0464
kování	-11.0468
▁zvlád	-11.0468
▁myšlenka	-11.0469
▁JU	-11.0469
▁cenách	-11.047
▁ohrožení	-11.0473
mínil	-11.0474
▁společném	-11.0475
▁parametry	-11.0476
▁Znám	-11.0478
▁vánoc	-11.048
▁Atlanty	-11.0482
lezl	-11.0484
▁muzeum	-11.0485
▁Slovensk	-11.049
▁%)	-11.0493
▁nahradit	-11.0493
▁vozy	-11.0493
▁adresu	-11.0495
▁absolvoval	-11.0499
▁Svazu	-11.0505
▁přírodovědecké	-11.0505
▁vyšel	-11.0507
67	-11.0513
▁sektoru	-11.0517
▁třetina	-11.0517
▁očekávání	-11.0517
▁řeky	-11.0518
▁obrovsk	-11.0519
▁představitel	-11.0523
▁ochotn	-11.0526
▁plet	-11.0527
▁poledn	-11.0529
konalo	-11.0532
lizace	-11.0533
měrně	-11.0536
PT	-11.0537
▁účelem	-11.0538
▁průmyslov	-11.0539
▁jediného	-11.054
▁překr	-11.0541
▁Mon	-11.0545
▁Die	-11.0545
▁parku	-11.0546
bíral	-11.0548
▁dvojí	-11.055
krývají	-11.0552
▁pojem	-11.0557
ČE	-11.056
▁srážky	-11.056
večer	-11.0563
▁skryt	-11.0566
▁koš	-11.0568
čátkem	-11.0575
▁nedokáž	-11.0578
▁neznámé	-11.0581
žití	-11.0587
dejme	-11.0588
▁průzkumu	-11.059
▁styku	-11.0594
▁ztrátu	-11.0595
▁zbytečn	-11.0606
▁plynů	-11.0606
▁spokojeni	-11.061
▁příspěvky	-11.0612
▁stupni	-11.0619
▁pravý	-11.0622
▁napsat	-11.0638
bojí	-11.0638
▁bíl	-11.0641
ézt	-11.0643
▁Vít	-11.065
▁obchodů	-11.0654
▁potenciální	-11.0654
▁studenti	-11.0654
▁britsk	-11.0656
▁Velm	-11.0658
▁desít	-11.0662
▁varianty	-11.0664
▁cíli	-11.0664
etické	-11.0665
▁nějakým	-11.0667
▁změnila	-11.0669
řád	-11.0669
yplývá	-11.0686
▁doplň	-11.0687
berg	-11.0693
▁založena	-11.0693
▁Výstav	-11.0693
▁ochotni	-11.0695
▁specializované	-11.0697
čkách	-11.0697
▁hlubo	-11.0699
▁návštěvník	-11.07
Švýcarsk	-11.0703
▁mírový	-11.0705
▁Správ	-11.0707
▁poškoz	-11.0708
▁příjemné	-11.0709
▁vymezen	-11.0712
▁Společn	-11.0718
psychologick	-11.0718
▁výrazné	-11.0724
▁pouště	-11.0728
▁ekonomika	-11.0731
posled	-11.0733
.12.	-11.0739
▁masov	-11.0739
▁Martina	-11.0743
▁působící	-11.0746
vesel	-11.075
▁Nikd	-11.0751
studoval	-11.0754
▁umělé	-11.0755
▁figur	-11.0756
▁zjednodušen	-11.0762
IA	-11.0767
▁představoval	-11.077
▁společenský	-11.0773
▁historick	-11.0777
▁interpret	-11.0782
▁španělské	-11.0783
jíždějí	-11.0783
▁zdi	-11.0784
ontrol	-11.0784
▁postupné	-11.0787
▁nájem	-11.0788
povídal	-11.0789
▁antropolog	-11.0796
▁1997	-11.0796
▁Chomutov	-11.0796
▁Ukrajiny	-11.0796
▁Zvláštní	-11.0796
▁akcionářů	-11.0796
▁církví	-11.0796
▁deficit	-11.0796
▁galerie	-11.0796
▁hřiště	-11.0796
▁náboženství	-11.0796
▁ovladač	-11.0796
▁ovlivňuje	-11.0796
▁priorit	-11.0796
▁produktivit	-11.0796
▁prosazovat	-11.0796
▁upozorňuje	-11.0796
▁zpracováva	-11.0796
▁Koaliční	-11.0796
▁orchestr	-11.0796
▁potrestán	-11.0796
▁páteční	-11.0796
▁sledování	-11.0796
▁specifik	-11.0796
▁naznačil	-11.0796
▁nepřátel	-11.0796
▁posádk	-11.0796
▁šetření	-11.0796
▁IBM	-11.0796
▁bronz	-11.0796
▁držitel	-11.0796
▁dveří	-11.0796
▁určuje	-11.0796
▁Původně	-11.0796
▁burze	-11.0796
▁příznak	-11.0796
▁středoevropsk	-11.0796
▁vrstev	-11.0796
▁oxidu	-11.0796
▁enzym	-11.0796
připravovan	-11.0796
▁patrné	-11.0796
▁usilovat	-11.0796
▁podnicích	-11.0796
▁podporou	-11.0796
▁potíží	-11.0796
▁proslul	-11.0796
▁příslušníků	-11.0796
▁pronájem	-11.0796
▁fáze	-11.0796
▁Tchaj	-11.0796
▁nedaleko	-11.0796
▁sdělovací	-11.0796
▁kritické	-11.0796
▁Formát	-11.0796
▁příliv	-11.0797
▁Situac	-11.0797
▁královn	-11.0797
▁Tureck	-11.0797
▁filozofie	-11.0797
▁vzestup	-11.0797
▁Word	-11.0797
▁naposledy	-11.0797
▁lyžař	-11.0797
▁zámku	-11.0797
vázat	-11.0797
hodlají	-11.0798
▁svátky	-11.0798
▁integraci	-11.0798
▁srdeční	-11.0798
▁myšlenkou	-11.0798
▁hutní	-11.0798
▁obrázků	-11.0798
▁násilí	-11.0799
▁hrála	-11.0799
▁těžb	-11.0799
střih	-11.0799
▁hostitel	-11.08
▁válka	-11.08
▁myšlenku	-11.0802
▁odhadnout	-11.0802
▁Kreml	-11.0802
▁nehodlá	-11.0802
▁Týr	-11.0802
▁manželství	-11.0803
▁sílu	-11.0803
▁duše	-11.0803
▁přežití	-11.0803
▁uhlí	-11.0803
▁tratí	-11.0804
▁šíření	-11.0804
▁slabší	-11.0804
▁vážný	-11.0805
▁nevhodn	-11.0805
▁obnovu	-11.0805
▁profil	-11.0806
▁prováze	-11.0806
▁ucho	-11.0806
▁dlouhodobě	-11.0807
▁nízko	-11.0807
▁podnět	-11.0807
dnes	-11.081
▁znamenalo	-11.081
▁zdanění	-11.0814
▁zákazníci	-11.0815
▁případný	-11.0815
▁doporučení	-11.0816
▁posoudit	-11.0816
▁testování	-11.0816
▁důchodové	-11.0817
▁Komis	-11.0821
▁soustředění	-11.0822
▁stanovit	-11.0827
▁silnější	-11.0837
▁Labem	-11.0841
▁foto	-11.0843
▁jádro	-11.0845
▁přístrojů	-11.0845
▁úředníků	-11.0848
▁poslání	-11.0848
▁Celk	-11.085
▁tvrdě	-11.0851
▁vzdá	-11.0854
▁Nejde	-11.0855
▁následky	-11.0857
▁vládou	-11.086
▁úlohu	-11.0861
▁pevný	-11.0862
▁jezer	-11.0865
▁přinese	-11.0866
▁sklo	-11.0866
▁přehlídky	-11.0867
▁začínající	-11.0868
▁totožn	-11.0873
▁Nizozem	-11.0877
▁experti	-11.0884
kryl	-11.0889
▁Jac	-11.0892
▁vymez	-11.0893
▁zápisu	-11.0899
▁soudce	-11.0904
SKO	-11.0906
dělování	-11.0908
▁kvalifik	-11.0909
▁Naši	-11.0923
▁Platí	-11.0926
▁KON	-11.0928
▁výbuchu	-11.0933
▁zachoval	-11.0934
▁technického	-11.0935
▁vzp	-11.0936
▁kontrola	-11.0937
▁nasazení	-11.0941
▁světlo	-11.0942
▁italský	-11.0948
▁specifick	-11.0963
▁týmem	-11.097
pisuje	-11.097
▁jistotu	-11.0971
▁ziskem	-11.0975
▁Lidov	-11.0976
▁Tisk	-11.0981
▁snahy	-11.0981
▁agentur	-11.0986
▁lidové	-11.0997
části	-11.0998
▁výstavu	-11.1
▁kvalifikovan	-11.1002
▁hotelů	-11.1015
▁měnové	-11.1019
▁papírů	-11.1027
▁Ter	-11.1029
▁náročné	-11.1029
▁Mc	-11.103
▁předpoklady	-11.1033
SO	-11.1034
▁slovník	-11.1035
▁trvalo	-11.1047
▁Lit	-11.1062
letí	-11.1067
nechává	-11.1067
kupuje	-11.1069
▁vysoko	-11.1072
▁kabinet	-11.1072
▁Malý	-11.1077
▁osobě	-11.1078
▁předvedl	-11.108
korun	-11.1081
▁technika	-11.1082
▁zabývají	-11.1084
▁návštěv	-11.1085
▁Výhod	-11.1089
▁rozpor	-11.1092
▁centrál	-11.1092
▁srážk	-11.1093
▁obrazovk	-11.1097
▁zaměstnanec	-11.1104
▁snížen	-11.1107
jištěn	-11.1117
▁výběrové	-11.1117
demokratick	-11.1128
▁přenosov	-11.1131
▁zrušen	-11.1131
▁doplněn	-11.1131
▁trati	-11.1142
počtu	-11.1152
▁vzhled	-11.1155
▁zajímavost	-11.1165
▁Win	-11.1166
▁komunik	-11.1173
▁obtížně	-11.1175
▁inteligen	-11.118
radioaktivní	-11.1181
▁1984	-11.1181
▁Nejdřív	-11.1181
▁Rakušan	-11.1181
▁Republik	-11.1181
▁Vedoucí	-11.1181
▁Výzkum	-11.1181
▁dodatečně	-11.1181
▁důležitá	-11.1181
▁fotoaparát	-11.1181
▁franků	-11.1181
▁inspekce	-11.1181
▁instalace	-11.1181
▁majetkem	-11.1181
▁nezměnil	-11.1181
▁pohledávek	-11.1181
▁redakce	-11.1181
▁upozornit	-11.1181
▁vyšetření	-11.1181
▁DPH	-11.1181
▁Temelín	-11.1181
▁Thajsk	-11.1181
▁nejmenší	-11.1181
▁stupňů	-11.1181
▁Bejbl	-11.1181
▁zakladatel	-11.1181
▁zoufal	-11.1181
▁hrubého	-11.1181
▁konstrukce	-11.1181
tvrzují	-11.1181
▁certifikát	-11.1181
▁Průměrn	-11.1181
▁period	-11.1181
▁pojmů	-11.1181
▁ordinac	-11.1181
▁zkratk	-11.1181
▁vyvinul	-11.1181
▁Dal	-11.1181
▁stovek	-11.1181
▁dvojnásobn	-11.1181
▁Bílé	-11.1181
▁jedince	-11.1181
▁přežít	-11.1181
▁vojsk	-11.1181
▁teplá	-11.1181
▁sehrál	-11.1181
▁Sokol	-11.1181
▁ozdob	-11.1181
▁chápat	-11.1181
▁Řešení	-11.1181
▁audio	-11.1181
▁zkoumá	-11.1182
▁Asociac	-11.1182
▁Svobod	-11.1182
▁vyroben	-11.1182
▁restaurace	-11.1182
▁1968	-11.1182
▁kvalifikační	-11.1183
▁uváděn	-11.1183
▁sněhov	-11.1183
▁platební	-11.1183
▁formální	-11.1183
▁1986	-11.1183
▁spolupracovat	-11.1184
▁Plán	-11.1184
▁poznatků	-11.1184
▁vázán	-11.1184
▁něčem	-11.1184
▁německá	-11.1184
▁typické	-11.1185
▁zatížen	-11.1185
▁modem	-11.1185
ČNÍ	-11.1185
▁III	-11.1186
pravicov	-11.1186
▁složité	-11.1187
▁52	-11.1187
▁nohy	-11.1188
▁3,5	-11.1188
▁poslanecké	-11.1188
▁května	-11.1188
▁volbami	-11.1188
▁rychlejší	-11.1189
▁Cheb	-11.119
▁rozložení	-11.119
losování	-11.119
▁podzemní	-11.1191
▁ČZ	-11.1192
nutit	-11.1192
▁žáků	-11.1192
▁zlaté	-11.1192
▁marně	-11.1192
▁pružn	-11.1193
▁Sovětský	-11.1193
▁Bill	-11.1194
▁66	-11.1195
▁DEM	-11.1195
▁oznámení	-11.1195
▁nápis	-11.1198
▁odstranění	-11.1198
▁legislativní	-11.1198
off	-11.1199
▁tarif	-11.1199
▁daný	-11.1199
▁nájemce	-11.12
▁Tedy	-11.12
▁Potom	-11.1201
▁upravit	-11.1202
▁užitek	-11.1202
▁bilance	-11.1205
těsn	-11.1206
▁vyvolat	-11.1209
▁sláv	-11.121
▁týdeník	-11.1215
▁Jedná	-11.1222
skop	-11.1225
▁elektřiny	-11.1227
▁připustil	-11.1231
▁osobností	-11.1232
cházelo	-11.1233
▁měny	-11.1233
▁Nejen	-11.1234
▁manželka	-11.1236
▁samotný	-11.1239
▁Belgie	-11.1239
▁ruku	-11.124
▁Německem	-11.1241
▁vedlo	-11.1242
eček	-11.1243
▁jevů	-11.1244
▁Lux	-11.1246
▁demokratů	-11.125
bývající	-11.1256
▁Les	-11.1259
▁koalici	-11.1261
▁Jedn	-11.1261
▁vstupní	-11.1262
▁nekonečn	-11.1267
▁pes	-11.1268
▁tvor	-11.1268
▁návštěvy	-11.1269
▁bezprostřední	-11.1277
▁výstavbu	-11.1279
▁evropsk	-11.1286
▁specializovan	-11.1286
▁výběrem	-11.1296
IST	-11.1296
▁Výstava	-11.1301
▁neshod	-11.1303
▁podstatný	-11.1307
▁stejná	-11.1312
▁linky	-11.1314
▁fotbalových	-11.1318
▁vůdce	-11.1321
iletá	-11.1324
▁primátora	-11.1324
▁spotřebu	-11.1327
▁monitoru	-11.1327
atrně	-11.1327
stva	-11.1328
▁oborů	-11.133
dvacetiletý	-11.1333
▁polohy	-11.1335
▁All	-11.1336
▁odborn	-11.1348
tisknout	-11.1349
▁Dub	-11.135
▁skutečností	-11.1351
MF	-11.1354
▁700	-11.1366
▁uvedeno	-11.1371
▁skupinou	-11.1371
vyšších	-11.1371
▁charakterizova	-11.1382
svědčil	-11.1382
▁evropského	-11.1383
▁ozbrojen	-11.1384
▁hydro	-11.1388
▁červené	-11.139
▁svěřen	-11.1397
▁pozván	-11.14
konala	-11.1406
vlastn	-11.1409
▁Japonsku	-11.1411
▁šedesáti	-11.1417
ALI	-11.143
▁zdravotnický	-11.143
▁rud	-11.1433
▁úz	-11.1439
▁turistick	-11.1439
▁ostrovy	-11.1445
▁Františk	-11.1445
▁Jediný	-11.1448
▁Škod	-11.1451
▁desetin	-11.1451
▁Obča	-11.1459
▁Smlouv	-11.1461
▁vzdálené	-11.1467
káže	-11.1467
▁paliv	-11.1468
▁zápis	-11.1473
▁špičkov	-11.1489
▁Zda	-11.1491
▁vysla	-11.1497
▁IV	-11.1502
▁Norsk	-11.1506
psaný	-11.1511
hodnost	-11.1514
▁rozhodnut	-11.1519
ámek	-11.1523
hruba	-11.1527
FS	-11.1528
▁vzrůst	-11.1529
▁pru	-11.1533
▁veden	-11.1539
poslední	-11.154
▁mořský	-11.1545
▁vybírá	-11.1547
▁Londýn	-11.1548
▁viděn	-11.1549
▁zřetel	-11.1561
trpěl	-11.1562
▁Sol	-11.1568
▁zálož	-11.1569
▁stole	-11.157
▁Vždy	-11.1579
▁vyplácen	-11.1579
▁muzik	-11.158
▁EuroTel	-11.1581
▁Kalvoda	-11.1581
▁Okresní	-11.1581
▁Sociální	-11.1581
▁brambor	-11.1581
▁domnívají	-11.1581
▁energetik	-11.1581
▁firmám	-11.1581
▁hovořit	-11.1581
▁inspekto	-11.1581
▁kalendář	-11.1581
▁komponent	-11.1581
▁naštěstí	-11.1581
▁nejrychlejší	-11.1581
▁nežádoucí	-11.1581
▁ovlivňují	-11.1581
▁označuje	-11.1581
▁posuzovat	-11.1581
▁redaktor	-11.1581
▁rejstříku	-11.1581
▁spoluhráč	-11.1581
▁vyhlídk	-11.1581
zanedbateln	-11.1581
▁dubnu	-11.1581
▁náležit	-11.1581
▁publiku	-11.1581
▁převzít	-11.1581
▁radikální	-11.1581
▁zázemí	-11.1581
▁uplatnit	-11.1581
▁odlišný	-11.1581
▁přál	-11.1581
▁Druhou	-11.1581
▁Elektr	-11.1581
▁Českomoravsk	-11.1581
▁Poborský	-11.1581
▁kamarád	-11.1581
▁souhrn	-11.1581
▁efektivní	-11.1581
▁Domácí	-11.1581
▁připomínk	-11.1581
▁nevědí	-11.1581
▁zásilk	-11.1581
▁viditeln	-11.1581
▁Všechno	-11.1581
▁osvobození	-11.1581
▁záloh	-11.1581
▁Musel	-11.1581
▁pokoušel	-11.1581
▁učinit	-11.1581
▁fungují	-11.1581
▁invalid	-11.1581
▁celostátní	-11.1581
▁nestačil	-11.1581
▁sněžení	-11.1581
▁navržen	-11.1581
▁Šéf	-11.1581
▁forem	-11.1581
▁slyšet	-11.1581
▁prodlení	-11.1581
▁vracet	-11.1582
▁ztracen	-11.1582
▁dlouhodobý	-11.1582
▁samospráv	-11.1582
▁rysy	-11.1582
▁stránek	-11.1582
▁Slavii	-11.1582
▁škál	-11.1582
jistit	-11.1582
▁přijatelné	-11.1582
▁obrazovce	-11.1582
▁podílejí	-11.1583
▁Objekt	-11.1583
léhá	-11.1584
▁studií	-11.1584
▁Grand	-11.1584
žádají	-11.1585
▁občanství	-11.1586
biologie	-11.1586
▁obrázku	-11.1586
▁neprav	-11.1587
▁Vesel	-11.1587
lepnutím	-11.159
▁dohad	-11.1591
▁uvede	-11.1592
▁přizpůsobit	-11.1592
▁pracovnice	-11.1593
▁celo	-11.1593
▁sestavení	-11.1594
▁Roman	-11.1596
▁olympijsk	-11.1597
▁vezme	-11.1597
▁Číny	-11.1597
▁ÚV	-11.1598
místě	-11.16
▁demokraté	-11.1602
▁dobách	-11.1603
▁prodloužení	-11.1603
▁podnikat	-11.1604
▁stavbu	-11.1609
▁regulace	-11.1609
▁znalostí	-11.1615
▁převoz	-11.1616
▁Dohod	-11.1618
▁fronty	-11.1618
▁Wimbledonu	-11.1619
▁Fotbal	-11.1622
▁summitu	-11.1624
▁písemně	-11.1624
▁orientaci	-11.1625
▁krátký	-11.1625
▁každodenní	-11.1626
▁nemovitosti	-11.1628
▁Zelen	-11.1634
▁dávk	-11.1635
▁výjimky	-11.1637
▁zpěvák	-11.1637
▁zbrojní	-11.1637
▁ztrátou	-11.1645
▁ukládání	-11.1646
▁trvalé	-11.1647
▁kritéria	-11.1655
▁jednalo	-11.1655
ENÍ	-11.1657
▁Pražského	-11.1662
▁módní	-11.168
▁snažili	-11.1681
▁resortu	-11.1686
▁obchodníci	-11.1688
▁teplotě	-11.1689
▁rusk	-11.1691
▁Ger	-11.1692
▁platný	-11.1693
rážky	-11.1694
▁vyhlášen	-11.1697
lární	-11.1699
▁předmětů	-11.1699
▁Nor	-11.1699
▁světla	-11.1705
▁úplné	-11.1706
▁smích	-11.171
▁překvapil	-11.1712
▁vůz	-11.1724
▁Králov	-11.1729
▁Test	-11.1736
▁vnímá	-11.1736
▁návštěva	-11.1748
bund	-11.1748
ařské	-11.1749
▁obdobné	-11.1755
▁doplňk	-11.1758
▁odehráv	-11.1768
▁hit	-11.1769
▁poslal	-11.1777
▁bojů	-11.1779
splnění	-11.1784
▁64	-11.1797
▁zřízen	-11.18
▁maďarský	-11.1816
▁přiměřen	-11.1818
14	-11.1819
▁některý	-11.1821
▁Ostravar	-11.1836
▁známých	-11.1843
▁vzniknou	-11.1856
▁přidal	-11.1857
▁koalic	-11.1866
▁sněmovn	-11.1878
▁mód	-11.1896
▁investorů	-11.1897
novými	-11.1909
▁osvět	-11.1916
▁zdraž	-11.1929
▁špičkové	-11.193
▁konto	-11.1935
▁Pražský	-11.1937
▁tip	-11.1945
▁Prac	-11.1951
▁mládež	-11.1952
▁mechanismu	-11.1958
rušit	-11.1961
stávat	-11.1961
▁integr	-11.1972
▁dobro	-11.1977
▁komunisti	-11.198
▁výkonů	-11.1983
žívání	-11.199
jmenovaný	-11.1992
▁resort	-11.1995
▁administra	-11.1997
▁komunální	-11.1997
mýšlí	-11.1997
rehabilit	-11.1997
▁Alžbět	-11.1997
▁CADKON	-11.1997
▁Finanční	-11.1997
▁Intergraph	-11.1997
▁Lebeď	-11.1997
▁Pithart	-11.1997
▁Zjuganov	-11.1997
▁altruismu	-11.1997
▁bližší	-11.1997
▁církvi	-11.1997
▁dědictví	-11.1997
▁fenomén	-11.1997
▁hektar	-11.1997
▁konferencí	-11.1997
▁leasing	-11.1997
▁nejstarší	-11.1997
▁nepřetržit	-11.1997
▁neschopnost	-11.1997
▁nábytku	-11.1997
▁odmítají	-11.1997
▁odpovědí	-11.1997
▁ovlivněn	-11.1997
▁psychiatr	-11.1997
▁reagovat	-11.1997
▁schůzi	-11.1997
▁softwaru	-11.1997
▁strategii	-11.1997
▁technologii	-11.1997
▁triumf	-11.1997
▁ukazatel	-11.1997
▁uzavírá	-11.1997
▁vytvářejí	-11.1997
▁zpoždění	-11.1997
▁zpátky	-11.1997
▁zálivu	-11.1997
▁živočichů	-11.1997
▁žádoucí	-11.1997
▁Nejčastěj	-11.1997
▁Srbů	-11.1997
▁Vídni	-11.1997
▁asistent	-11.1997
▁jazz	-11.1997
▁nárůst	-11.1997
▁otevírá	-11.1997
▁říjnu	-11.1997
▁atentát	-11.1997
▁dovednost	-11.1997
▁nezaměstnaných	-11.1997
▁Bratink	-11.1997
▁Mazda	-11.1997
▁Mencl	-11.1997
▁splatnosti	-11.1997
▁vyvinut	-11.1997
▁nízká	-11.1997
▁vyznačuj	-11.1997
▁zastavení	-11.1997
▁zpomal	-11.1997
▁navrhnout	-11.1997
▁podpoře	-11.1997
▁Polsko	-11.1998
▁dokáží	-11.1998
▁zůstanou	-11.1998
▁mřížk	-11.1998
▁splnit	-11.1998
▁multi	-11.1998
▁diagram	-11.1998
▁přijímá	-11.1998
▁jistou	-11.1998
▁maximum	-11.1998
▁zazněl	-11.1998
▁kombinaci	-11.1998
▁náprav	-11.1998
▁Praktick	-11.1998
▁stůl	-11.1998
▁zvolit	-11.1998
▁přednášk	-11.1999
▁rozsáhlý	-11.1999
▁Andre	-11.1999
▁Mimo	-11.1999
▁brzd	-11.1999
▁Nabídk	-11.1999
▁zařadil	-11.1999
▁komunikaci	-11.2
▁junio	-11.2
▁vrchní	-11.2
▁Charles	-11.2
▁zahrnut	-11.2
▁trpí	-11.2
▁vyrovnal	-11.2
▁délce	-11.2
▁Zálež	-11.2
▁ligové	-11.2001
▁Sedm	-11.2001
kryje	-11.2001
▁kondom	-11.2002
jíždí	-11.2002
▁ponechat	-11.2003
▁nastat	-11.2003
▁kreslení	-11.2003
▁nejvýše	-11.2004
▁simul	-11.2004
▁nakažen	-11.2005
▁Bonn	-11.2005
▁okresů	-11.2006
▁Technick	-11.2006
▁Stručně	-11.2007
▁podmíněn	-11.2007
▁otec	-11.2007
▁interval	-11.2007
▁Boj	-11.2007
▁bance	-11.2008
oprvé	-11.2009
▁Čechů	-11.2009
▁jmenuje	-11.2013
▁kilogramů	-11.2015
chytit	-11.2018
▁předcházel	-11.2019
▁blesk	-11.2019
▁respektovat	-11.2021
▁pohybovat	-11.2022
▁dočasně	-11.2022
▁oleje	-11.2023
charakterizuj	-11.2024
▁odejít	-11.2024
▁mrav	-11.2025
▁Brazílie	-11.2025
▁Data	-11.2026
▁obchodování	-11.2028
hřeb	-11.2029
▁energetické	-11.2032
▁květin	-11.2036
▁pádu	-11.2038
íčko	-11.2038
▁postižených	-11.2039
▁poskytování	-11.204
▁dokončení	-11.2042
▁padesátých	-11.2042
▁potřebujeme	-11.2046
▁vyhledá	-11.2048
▁trik	-11.2049
▁Mír	-11.2052
▁vkladů	-11.2055
▁vyhlášení	-11.2055
▁zaplacení	-11.2059
▁účinnosti	-11.2065
▁vozidla	-11.2069
▁Kniha	-11.2069
▁šestnácti	-11.2075
▁pout	-11.2076
▁nedal	-11.2076
▁Chci	-11.2088
▁katolické	-11.2091
▁typický	-11.2093
▁prvé	-11.2095
stanou	-11.2095
▁kontrole	-11.2099
▁šla	-11.2101
▁hale	-11.2105
▁ZÁ	-11.2107
schválila	-11.2107
▁uložit	-11.2112
IG	-11.2113
▁míra	-11.2126
▁zvěř	-11.2126
▁probíhal	-11.2129
být	-11.2138
▁objeven	-11.2148
▁brankáře	-11.2149
▁titulů	-11.215
▁vaku	-11.215
▁jezdil	-11.2151
jdu	-11.2152
řádně	-11.2154
▁valné	-11.2163
▁listů	-11.2164
▁Jistě	-11.2165
vládne	-11.2174
▁plic	-11.2176
▁lidu	-11.2184
▁královsk	-11.2184
▁sousedů	-11.2185
svědčení	-11.2186
▁projeví	-11.2199
▁nazýva	-11.22
▁niž	-11.2203
▁Olympi	-11.2207
▁maz	-11.2208
▁typick	-11.2208
▁Siln	-11.221
▁čínské	-11.2218
▁zabývající	-11.2219
▁zvukové	-11.2221
98	-11.2231
▁tváří	-11.2233
▁úvah	-11.2236
▁uplynulý	-11.2236
▁předal	-11.2237
▁specifické	-11.2239
▁350	-11.2255
▁jasný	-11.2259
▁klíče	-11.2266
▁spotřebitele	-11.2274
▁expert	-11.2278
▁služební	-11.2295
▁symbolick	-11.2296
▁rozumn	-11.2297
▁obdobn	-11.2299
▁textové	-11.2303
▁vznikající	-11.2303
▁včerejš	-11.2312
▁soli	-11.2313
▁mís	-11.232
▁sektor	-11.2324
členné	-11.2325
▁katolick	-11.2336
▁rozpočtov	-11.2336
▁pravidelné	-11.2346
tivně	-11.2346
▁190	-11.2349
stupující	-11.2352
▁obsluh	-11.2356
▁pedagog	-11.236
▁požadovaný	-11.2376
stoupení	-11.2385
▁900	-11.2386
Ile	-11.2387
▁Invest	-11.2402
▁zkušen	-11.2402
článk	-11.2405
pochyby	-11.2408
pomíná	-11.2416
▁expozi	-11.2419
▁chodb	-11.2423
▁říkají	-11.2428
▁nemocný	-11.2428
▁pozdě	-11.2429
▁Pozor	-11.2432
▁identifik	-11.2432
▁Bratislava	-11.2432
▁Casimir	-11.2432
▁Demokratick	-11.2432
▁Jindřich	-11.2432
▁Nedvěd	-11.2432
▁Počítač	-11.2432
▁Tigrid	-11.2432
▁cizince	-11.2432
▁dodržování	-11.2432
▁galerii	-11.2432
▁generací	-11.2432
▁hlubší	-11.2432
▁hypotéz	-11.2432
▁konstatuje	-11.2432
▁metropole	-11.2432
▁nejmodernější	-11.2432
▁nejznámější	-11.2432
▁nominální	-11.2432
▁otevřít	-11.2432
▁podpořit	-11.2432
▁požadovat	-11.2432
▁prohlídk	-11.2432
▁představenstva	-11.2432
▁přitažliv	-11.2432
▁reaktor	-11.2432
▁semifinále	-11.2432
▁strategií	-11.2432
▁udržuje	-11.2432
▁vojáci	-11.2432
▁vydavatel	-11.2432
▁výsledn	-11.2432
▁wimbledonsk	-11.2432
▁zveřejnil	-11.2432
▁zúčastněn	-11.2432
▁šablon	-11.2432
▁žadatel	-11.2432
dostatečnou	-11.2432
▁Africe	-11.2432
▁NDR	-11.2432
▁Ostatní	-11.2432
▁charakteristik	-11.2432
▁kompetence	-11.2432
▁literární	-11.2432
▁polojasno	-11.2432
▁požadoval	-11.2432
▁složek	-11.2432
▁Majitel	-11.2432
▁byznys	-11.2432
▁vyhovuje	-11.2432
střílel	-11.2432
▁kodex	-11.2432
▁nátlak	-11.2432
▁stránky	-11.2432
▁Dříve	-11.2432
▁údolí	-11.2432
▁patřičn	-11.2432
▁vystřídal	-11.2432
▁divadle	-11.2432
▁čtvrteční	-11.2432
▁nevidí	-11.2432
▁položky	-11.2432
▁rytíř	-11.2432
▁logické	-11.2432
▁nízký	-11.2432
▁Městsk	-11.2432
▁doporučil	-11.2432
▁počínaj	-11.2432
▁poplatek	-11.2432
▁informovan	-11.2432
▁vyrovnat	-11.2432
▁účinku	-11.2432
▁Jugoslávie	-11.2432
chlazení	-11.2432
▁podobná	-11.2432
▁stoupá	-11.2432
▁Prodej	-11.2433
▁nejhorší	-11.2433
▁Komerčn	-11.2433
▁štáb	-11.2433
▁potravinářské	-11.2433
povídat	-11.2433
▁splnil	-11.2433
▁Rychl	-11.2433
▁fotografie	-11.2433
▁Maďarsku	-11.2433
▁přijme	-11.2433
▁počkat	-11.2433
▁rakouský	-11.2434
▁ekonomická	-11.2434
▁ničem	-11.2434
▁korekc	-11.2434
▁nápoj	-11.2434
▁zaručen	-11.2434
▁Marie	-11.2435
▁malíř	-11.2435
▁Začal	-11.2435
▁radnici	-11.2436
▁verzí	-11.2436
▁vstupenk	-11.2436
▁bohatství	-11.2436
▁barva	-11.2437
▁neděle	-11.2438
▁lodi	-11.2439
▁dozor	-11.2439
▁Uveden	-11.2439
▁vyhnout	-11.2439
▁Ruml	-11.244
▁odhalen	-11.2442
▁teple	-11.2442
▁divok	-11.2443
▁peset	-11.2445
▁jezdit	-11.2445
▁cement	-11.2447
▁obřad	-11.2447
▁změnám	-11.2447
▁předcházející	-11.245
▁nedostatku	-11.245
▁odvet	-11.2453
▁strávil	-11.2453
▁centimetrů	-11.2453
bíhá	-11.2453
▁podílet	-11.2454
▁oborech	-11.2455
▁překvapivě	-11.2455
▁uvědomit	-11.2455
▁nemovitostí	-11.2455
▁řekne	-11.2457
▁novinách	-11.2457
▁okresy	-11.2457
▁Mor	-11.2458
ujme	-11.2458
▁zlatý	-11.2458
▁EU	-11.2459
▁přelom	-11.246
▁tabulka	-11.2463
▁prodejny	-11.2464
pamatuj	-11.2464
▁Žid	-11.2467
▁uvádějí	-11.2468
následuj	-11.2469
▁plánování	-11.2469
▁zvaný	-11.2473
▁složitý	-11.2473
může	-11.2475
▁ocenění	-11.2476
▁krut	-11.2477
▁mládeže	-11.2479
▁kvalitou	-11.2481
▁prožil	-11.2483
▁Brod	-11.2485
▁zkušební	-11.2486
▁Dopravní	-11.2486
▁propojení	-11.249
▁přidat	-11.2491
ářských	-11.2492
▁hrd	-11.2493
▁uměle	-11.2493
▁ukládá	-11.2494
▁biolog	-11.2494
▁Budou	-11.2495
▁procesoru	-11.2496
▁hmotnosti	-11.2497
levo	-11.2503
▁skalní	-11.2503
▁správce	-11.2504
padesát	-11.2504
▁oddíl	-11.2508
trhl	-11.2509
▁Děl	-11.2513
▁návštěvnost	-11.2514
▁armádě	-11.2515
▁budově	-11.2515
▁fotbalisté	-11.2515
▁císaře	-11.252
▁pokryt	-11.2523
▁dodavatele	-11.2524
▁kupon	-11.2525
▁obuv	-11.2526
▁energetický	-11.2527
▁vyjde	-11.2534
▁šed	-11.2534
▁Potřebuje	-11.2535
▁5000	-11.2539
▁vozu	-11.254
▁optick	-11.2543
▁obchodníků	-11.2551
▁tvarů	-11.2552
Severoatlantické	-11.2557
▁zkresl	-11.2574
▁evropským	-11.2579
▁čínský	-11.2579
▁lesa	-11.2584
▁ekologický	-11.2594
▁hrou	-11.2603
▁jugoslávské	-11.2606
ručí	-11.2609
▁bojovn	-11.2611
▁básník	-11.2614
Gar	-11.2619
▁podzimní	-11.2623
▁překvap	-11.2639
▁černý	-11.2643
▁Prof	-11.2646
▁akciov	-11.2646
▁konečn	-11.2661
▁obecný	-11.2664
▁Ján	-11.2665
▁přesvědč	-11.2666
DOS	-11.2668
▁zubní	-11.2668
▁menu	-11.2672
díval	-11.2677
▁statistické	-11.268
▁klíčový	-11.2685
▁ranní	-11.2689
▁Výrob	-11.269
▁Spart	-11.2701
▁krále	-11.2711
▁fotbalov	-11.2712
▁přesvědčiv	-11.2724
▁průběžn	-11.2728
NS	-11.2733
▁dav	-11.274
▁43	-11.2741
▁snadné	-11.275
příkladu	-11.2763
▁znalost	-11.2768
schopné	-11.2768
▁okruh	-11.2777
▁zvon	-11.2779
▁260	-11.2782
otisk	-11.2785
▁přehlídk	-11.2799
▁volí	-11.2799
ářství	-11.2821
▁úředník	-11.2824
▁basketbal	-11.2827
▁platil	-11.2836
▁uzná	-11.2837
▁stíhán	-11.2842
▁velkoobchod	-11.2849
▁převážn	-11.2854
▁norma	-11.2867
▁měří	-11.2867
▁Volb	-11.287
přijeli	-11.2872
▁37	-11.2877
▁přesahuj	-11.288
▁výstavb	-11.2883
▁automat	-11.2886
▁Bulharsk	-11.2887
▁Kongres	-11.2887
▁Návštěv	-11.2887
▁obličej	-11.2887
FIFA	-11.2887
▁Budějovic	-11.2887
▁Dienstbier	-11.2887
▁Dosavadní	-11.2887
▁Fischer	-11.2887
▁Manažer	-11.2887
▁Siemens	-11.2887
▁Skupina	-11.2887
▁Těžko	-11.2887
▁design	-11.2887
▁disponuj	-11.2887
▁družstvo	-11.2887
▁družstvu	-11.2887
▁geometrii	-11.2887
▁inflaci	-11.2887
▁naznačuje	-11.2887
▁neuspěl	-11.2887
▁normálně	-11.2887
▁označován	-11.2887
▁regenerace	-11.2887
▁rekonstrukce	-11.2887
▁rozšiřuje	-11.2887
▁rámečku	-11.2887
▁seznámit	-11.2887
▁skupenství	-11.2887
▁službě	-11.2887
▁strategické	-11.2887
▁transformační	-11.2887
▁zajistí	-11.2887
▁zúčastnit	-11.2887
▁Červen	-11.2887
▁Štědrý	-11.2887
▁1982	-11.2887
▁biskup	-11.2887
▁byrokrat	-11.2887
▁chirurg	-11.2887
▁posuzován	-11.2887
▁přiznává	-11.2887
připravoval	-11.2887
▁Poldi	-11.2887
▁dodávek	-11.2887
▁neomezen	-11.2887
▁shodují	-11.2887
▁stránku	-11.2887
▁vstupenek	-11.2887
▁zákrok	-11.2887
▁čistíren	-11.2887
▁uprchl	-11.2887
▁vládnoucí	-11.2887
▁velvyslanectví	-11.2887
▁Armád	-11.2887
▁Dušan	-11.2887
▁posléze	-11.2887
▁středisko	-11.2887
▁nabídkou	-11.2887
▁žádat	-11.2887
▁Náklady	-11.2887
▁informován	-11.2887
▁usiluje	-11.2887
▁skromn	-11.2887
▁uznat	-11.2887
▁konstrukcí	-11.2887
▁vazeb	-11.2887
▁Bavor	-11.2887
▁zastánc	-11.2887
▁Manžel	-11.2887
▁udržova	-11.2887
▁jindy	-11.2887
▁vazba	-11.2887
▁Otevř	-11.2887
▁Varech	-11.2887
▁tribunál	-11.2887
▁leckd	-11.2887
▁salát	-11.2887
▁hrůz	-11.2887
▁přejít	-11.2888
▁senátní	-11.2888
▁spoléha	-11.2888
▁nabídne	-11.2888
▁náhlé	-11.2888
▁Projekt	-11.2888
▁duševní	-11.2888
▁nepotřebuje	-11.2888
▁rozmístěn	-11.2888
▁Rozhodnutí	-11.2888
▁směřuje	-11.2889
▁Slavia	-11.2889
▁zodpovědnost	-11.2889
▁integrace	-11.2889
▁chuť	-11.2889
▁chaos	-11.2889
krácen	-11.2889
▁Oprav	-11.2889
▁trvající	-11.2889
▁nesporn	-11.289
▁kated	-11.289
▁regulační	-11.2891
▁nejsem	-11.2891
▁Bělohradský	-11.2891
▁ohně	-11.2892
pořádat	-11.2892
střelen	-11.2893
▁Nadace	-11.2893
allye	-11.2894
▁podrobnosti	-11.2895
blížení	-11.2895
▁nezákonn	-11.2895
ckner	-11.2897
▁turné	-11.2898
▁nedošlo	-11.2898
▁Závod	-11.2899
zývají	-11.2899
▁věrn	-11.29
▁horské	-11.29
▁neumí	-11.2901
▁napaden	-11.2902
▁tmav	-11.2902
▁Milán	-11.2904
▁kontrolovat	-11.2905
▁kdykoliv	-11.2905
▁strop	-11.2905
▁atmosféra	-11.2905
▁šedesátých	-11.2907
▁slunce	-11.2907
▁sedimentů	-11.2907
▁pozic	-11.2909
▁památek	-11.291
▁svatb	-11.2911
▁zaslouží	-11.2911
▁pravděpodobné	-11.2911
▁sedmdesátých	-11.2912
▁upozornění	-11.2914
▁kůže	-11.2914
Přerov	-11.2916
▁souhlasit	-11.2917
▁faktory	-11.2919
▁Kolek	-11.2927
▁dostaneme	-11.2936
▁matka	-11.2942
▁pěkně	-11.2943
▁značná	-11.2947
▁interní	-11.2948
▁vyhodnocen	-11.2948
▁univerzitě	-11.2949
▁Los	-11.2949
▁dokázat	-11.295
▁uživatelé	-11.295
▁plná	-11.295
▁Váš	-11.2955
▁zveřejnění	-11.2957
▁moři	-11.2961
▁dotazník	-11.2961
▁luxusní	-11.2961
▁Clintonov	-11.2962
kurzor	-11.2964
▁závažné	-11.2965
▁závažný	-11.2967
▁švédské	-11.2968
natý	-11.297
▁datové	-11.2973
▁vystupuj	-11.2977
▁zničení	-11.2981
▁zatčen	-11.2982
▁mise	-11.2983
▁olympiádě	-11.2985
▁rozpočtové	-11.2988
▁slibuje	-11.2991
hrával	-11.3003
▁postupovat	-11.3004
▁spojit	-11.3011
▁mateřské	-11.3013
▁nešlo	-11.3013
▁světeln	-11.3028
rovné	-11.303
▁Fotbalist	-11.3035
▁výtvarné	-11.3037
▁rozhovorů	-11.304
▁popisuje	-11.3043
▁Car	-11.3052
▁elektronický	-11.3055
▁brněnsk	-11.3056
▁podnikatelsk	-11.3056
▁počátk	-11.3056
▁Poslanec	-11.3058
▁výstavní	-11.3058
▁Kan	-11.3058
například	-11.3078
▁nebezpečný	-11.3081
▁vyspěl	-11.3088
▁násiln	-11.3093
OST	-11.3097
▁svěřenc	-11.3103
▁tělesné	-11.3109
hodinové	-11.3113
▁spojuje	-11.3134
který	-11.3138
DU	-11.314
▁Nemoh	-11.3146
▁urychl	-11.3147
▁ČT	-11.3166
▁získaný	-11.3167
▁mak	-11.3175
▁Mac	-11.3207
▁prestiž	-11.3214
▁Vaše	-11.322
▁důvěry	-11.3243
▁nasazen	-11.3252
▁Washington	-11.3254
▁nemocnic	-11.326
▁zničen	-11.3269
▁schůzk	-11.3276
▁Karadžiče	-11.3277
kreslen	-11.3281
▁užívá	-11.3285
▁hračk	-11.3287
▁klíčové	-11.3288
68	-11.3309
atmosfér	-11.331
▁samostatn	-11.3313
▁oceněn	-11.3317
▁Označ	-11.3322
pomínají	-11.3337
▁náročný	-11.3337
šetří	-11.3345
ukční	-11.3346
nejvýš	-11.3355
ifikace	-11.3357
▁slun	-11.3358
▁organizáto	-11.3362
▁Gabčíkov	-11.3363
▁ubytovací	-11.3363
▁Blízké	-11.3363
▁Kreslení	-11.3363
▁Předpokládá	-11.3363
▁aplikaci	-11.3363
▁důležitou	-11.3363
▁filharmoni	-11.3363
▁kanalizace	-11.3363
▁kariéru	-11.3363
▁konkurent	-11.3363
▁neexistují	-11.3363
▁nepřítel	-11.3363
▁ovlivnit	-11.3363
▁podmínkám	-11.3363
▁popularit	-11.3363
▁přirozeně	-11.3363
▁referenda	-11.3363
▁svědky	-11.3363
▁vynález	-11.3363
▁výpovědi	-11.3363
▁zneužití	-11.3363
▁zázrak	-11.3363
▁fosilní	-11.3363
▁komunistů	-11.3363
▁lehké	-11.3363
▁pomůck	-11.3363
▁předpokládal	-11.3363
▁setkáváme	-11.3363
▁snižovat	-11.3363
▁Michail	-11.3363
atlantick	-11.3363
▁obrátit	-11.3363
▁paralel	-11.3363
▁kontrakt	-11.3363
▁přivezl	-11.3363
▁rubrik	-11.3363
▁stupeň	-11.3363
zřídka	-11.3363
▁etapě	-11.3363
▁jedinců	-11.3363
▁zvyšují	-11.3363
▁klobouk	-11.3363
▁nezmění	-11.3363
▁československý	-11.3363
▁Atlantiku	-11.3363
▁přídav	-11.3363
▁politicky	-11.3363
▁povahy	-11.3363
▁Dynam	-11.3363
▁přírodu	-11.3363
▁válku	-11.3363
▁Trans	-11.3363
▁talent	-11.3363
▁budoucna	-11.3363
imochodem	-11.3363
▁češtině	-11.3363
▁zbaven	-11.3363
▁týče	-11.3363
hlíží	-11.3363
▁antropologie	-11.3363
▁Karpov	-11.3363
▁smečky	-11.3363
▁výtečn	-11.3363
▁zkrátka	-11.3364
▁administrativní	-11.3364
▁image	-11.3364
▁Boyle	-11.3364
▁Lendl	-11.3364
▁kombinace	-11.3364
▁obzor	-11.3364
▁chybět	-11.3364
▁vyšla	-11.3364
▁mzda	-11.3364
▁vytížen	-11.3364
▁Španělska	-11.3364
▁stavět	-11.3365
▁hokejisté	-11.3365
▁staletí	-11.3365
průchod	-11.3365
▁rumunsk	-11.3365
▁distributor	-11.3365
▁kritický	-11.3365
▁vyráběn	-11.3366
▁Zdeňk	-11.3366
▁poražen	-11.3366
▁Středisk	-11.3366
▁Říman	-11.3366
▁arabské	-11.3367
▁nálad	-11.3367
▁dostupné	-11.3367
▁induk	-11.3367
▁1980	-11.3367
▁Optima	-11.3367
▁dívat	-11.3367
▁Minul	-11.3367
▁prapor	-11.3367
▁rozprav	-11.3367
▁nohou	-11.3368
▁ocenil	-11.3368
▁JAK	-11.3369
▁solidní	-11.3369
▁psů	-11.337
▁liberální	-11.337
▁Intel	-11.337
▁Maďarsko	-11.337
▁převah	-11.337
▁nezbývá	-11.3371
▁zabit	-11.3371
▁jídla	-11.3372
▁příznivců	-11.3372
▁Říká	-11.3372
▁plnit	-11.3372
▁2,5	-11.3372
kcionáři	-11.3373
▁ligový	-11.3374
▁Spolu	-11.3375
▁arabský	-11.3375
▁znečištění	-11.3375
zkoušet	-11.3376
▁Peck	-11.3376
▁Příští	-11.3377
▁Pokus	-11.3378
bydlí	-11.3378
hodná	-11.3379
▁příjezd	-11.338
následoval	-11.338
▁svobodný	-11.3381
▁oken	-11.3381
▁Konec	-11.3381
▁převést	-11.3382
▁varování	-11.3383
▁Škol	-11.3383
▁vyměnit	-11.3383
rovnávací	-11.3384
▁sáze	-11.3384
▁ráj	-11.3384
▁ohni	-11.3385
▁euro	-11.3385
▁matky	-11.3386
▁osnov	-11.3386
▁tabu	-11.3386
▁Jir	-11.3387
▁výraznější	-11.3387
▁nápln	-11.339
▁vítr	-11.3391
kazil	-11.3391
▁Vesmíru	-11.3393
▁stád	-11.3394
▁Krist	-11.3395
▁vybudování	-11.3396
▁pohřeb	-11.3399
sadit	-11.34
▁uvolnění	-11.34
▁uzavřena	-11.3402
▁uznávan	-11.3403
▁polární	-11.3404
▁hlasovat	-11.3406
zřetelně	-11.3407
▁vystoupí	-11.3409
▁podoba	-11.3413
▁stavba	-11.3414
▁elektronické	-11.3414
přesněji	-11.3416
▁kurt	-11.3417
▁expertů	-11.342
▁vyprš	-11.342
▁vzdal	-11.3423
▁genetick	-11.3424
escu	-11.3425
atřicetilet	-11.3429
▁částkou	-11.343
▁zachován	-11.3443
▁dokončen	-11.3446
▁Slovák	-11.345
▁extrémní	-11.3457
konců	-11.3459
▁slyší	-11.3462
▁komet	-11.3465
jadern	-11.3466
▁elektrický	-11.3472
▁manažerské	-11.3486
▁krevní	-11.3487
▁kluk	-11.3489
▁zdokonal	-11.3495
▁kout	-11.3497
▁absolv	-11.3499
▁obhájce	-11.3508
▁Ekonomick	-11.3509
▁zobrazen	-11.351
▁prestižní	-11.3515
▁veškerý	-11.3519
▁uchazečů	-11.3524
▁adapt	-11.3526
▁archeolog	-11.3531
▁1500	-11.3536
▁Osm	-11.3537
řejmě	-11.3541
▁krav	-11.3552
niknout	-11.3555
▁krvi	-11.3566
▁detailní	-11.3567
▁svalov	-11.357
▁subjektů	-11.3582
can	-11.3582
▁Ann	-11.3584
▁italsk	-11.3587
▁Rok	-11.3588
▁had	-11.3589
▁maďarské	-11.3618
▁vzpomín	-11.362
NC	-11.3621
UJE	-11.3624
▁Věr	-11.364
chrom	-11.3655
místo	-11.3661
tvrdí	-11.3663
▁jugoslávsk	-11.3666
▁odběratelů	-11.3669
▁ráz	-11.3675
ash	-11.3684
AG	-11.3689
▁Aleš	-11.372
▁Pražsk	-11.3721
▁převlád	-11.3725
▁125	-11.3732
▁registrac	-11.3734
▁krásné	-11.3741
▁tenisové	-11.3751
▁týkají	-11.3757
▁Svaz	-11.3758
▁totemismu	-11.3778
▁krajní	-11.3778
▁organick	-11.3778
▁japon	-11.3781
▁terorist	-11.38
▁odpovídají	-11.3803
▁kuponov	-11.3804
▁atomové	-11.3807
▁řešen	-11.3807
▁oddělen	-11.3814
▁42	-11.3832
▁záznamové	-11.3836
▁uspořádal	-11.3836
▁Závěr	-11.3847
rozuměj	-11.3854
hradit	-11.3856
olicejní	-11.386
dávky	-11.3862
▁konzerv	-11.3863
▁obdiv	-11.3863
▁kriminál	-11.3863
▁uskutečň	-11.3863
neštěstí	-11.3863
peptid	-11.3863
▁Doufám	-11.3863
▁Výjimk	-11.3863
▁Výsledek	-11.3863
▁Wembley	-11.3863
▁Zdravotn	-11.3863
▁anonymní	-11.3863
▁cizinců	-11.3863
▁definovat	-11.3863
▁dvojnásobek	-11.3863
▁evidenci	-11.3863
▁humanitární	-11.3863
▁intenzivně	-11.3863
▁komfort	-11.3863
▁království	-11.3863
▁lhůty	-11.3863
▁nabídnut	-11.3863
▁neúspěch	-11.3863
▁otázkách	-11.3863
▁ošetření	-11.3863
▁podruhé	-11.3863
▁počáteční	-11.3863
▁připomenout	-11.3863
▁revoluce	-11.3863
▁strategický	-11.3863
▁tvůrčí	-11.3863
▁týdnu	-11.3863
▁uhličitého	-11.3863
▁upozorňují	-11.3863
▁veřejnou	-11.3863
▁zdravotně	-11.3863
▁zvyšovat	-11.3863
▁zážitek	-11.3863
▁Boleslav	-11.3863
▁HGF	-11.3863
▁PŘED	-11.3863
▁dětmi	-11.3863
▁převzetí	-11.3863
▁sportovci	-11.3863
▁užitečné	-11.3863
▁výrobku	-11.3863
▁zajistil	-11.3863
▁zloděj	-11.3863
▁řekněme	-11.3863
▁Poborského	-11.3863
▁Strakoni	-11.3863
▁sankce	-11.3863
▁LDS	-11.3863
▁Havlov	-11.3863
▁ostravské	-11.3863
▁série	-11.3863
▁skener	-11.3863
▁umístit	-11.3863
▁Nobelov	-11.3863
▁mobilní	-11.3863
▁Mostaru	-11.3863
▁opačný	-11.3863
▁souprav	-11.3863
▁srpnu	-11.3863
▁naprosté	-11.3863
▁pátý	-11.3863
▁sleduje	-11.3863
▁krystal	-11.3863
pomáhal	-11.3863
▁projednávání	-11.3863
▁potravy	-11.3863
▁MHz	-11.3863
▁zhoubn	-11.3863
▁komisí	-11.3863
▁centrem	-11.3863
▁odevzda	-11.3863
▁kompost	-11.3863
▁nepatří	-11.3863
▁Názor	-11.3863
▁chemie	-11.3863
▁stačit	-11.3863
▁stěžují	-11.3863
▁Komora	-11.3863
▁minimum	-11.3863
▁pozemků	-11.3863
▁národnostní	-11.3863
▁rozvinut	-11.3863
skočit	-11.3863
▁konzervativní	-11.3863
▁letišti	-11.3863
záhad	-11.3863
▁veličin	-11.3863
▁Ústí	-11.3863
▁Klepn	-11.3863
▁sehnat	-11.3863
▁Počítá	-11.3863
▁Prahu	-11.3863
▁Úprav	-11.3863
▁obnovit	-11.3863
▁Filip	-11.3863
▁shluk	-11.3863
▁obránce	-11.3863
▁popsán	-11.3863
▁promítá	-11.3864
▁vyhověl	-11.3864
▁turisté	-11.3864
▁kostým	-11.3864
▁modernizaci	-11.3864
▁nebrání	-11.3864
▁proběhla	-11.3864
▁remíz	-11.3864
▁román	-11.3864
vážet	-11.3865
▁karet	-11.3865
▁vykonávat	-11.3865
▁podobnost	-11.3865
▁azyl	-11.3866
▁emise	-11.3866
▁pilot	-11.3866
▁realizaci	-11.3866
▁Bosn	-11.3866
▁diskusí	-11.3866
▁zaslal	-11.3866
▁moudr	-11.3866
▁podoby	-11.3867
▁experimentální	-11.3867
▁1948	-11.3867
▁cítit	-11.3867
▁chrání	-11.3869
ford	-11.3869
▁videa	-11.3869
▁dovoluje	-11.3869
▁vylepš	-11.387
▁půjčky	-11.387
▁Chang	-11.3871
▁potřebovat	-11.3872
▁Mistr	-11.3872
▁dárk	-11.3872
▁léčení	-11.3872
▁budování	-11.3872
▁Masarykov	-11.3872
▁odmítnut	-11.3872
▁nechci	-11.3873
▁očima	-11.3873
▁útočn	-11.3875
▁POD	-11.3875
▁tabulku	-11.3877
▁rozdělit	-11.3878
▁bát	-11.3878
▁nádob	-11.3878
▁dovolí	-11.388
určují	-11.3881
▁španělsk	-11.3881
▁Ukázal	-11.3882
▁nahoru	-11.3882
▁přestane	-11.3882
▁obává	-11.3883
▁ušetří	-11.3883
▁atmosféru	-11.3883
▁volit	-11.3885
▁formulář	-11.3886
▁oblib	-11.3887
rychlostní	-11.3887
▁prosím	-11.3889
▁venku	-11.3895
▁změnách	-11.3895
▁hovořili	-11.3895
▁Chorvat	-11.3896
▁přišly	-11.3898
▁kolekc	-11.3901
▁užitku	-11.3904
▁vybere	-11.3906
▁Seznam	-11.3907
▁vkus	-11.3908
▁prostorách	-11.3908
▁hromadné	-11.391
NSK	-11.3911
▁prvek	-11.3914
▁vydělal	-11.3915
▁náhle	-11.3917
▁vycházet	-11.392
▁láh	-11.3922
▁pták	-11.3922
placení	-11.3927
▁pohotovost	-11.3929
▁Karlový	-11.3932
bírat	-11.3932
▁čelní	-11.3932
důrazně	-11.394
▁diplomatické	-11.3946
▁dělníků	-11.3948
▁běže	-11.3964
▁izraelský	-11.3982
▁automobilový	-11.4004
jížděl	-11.4006
▁nepr	-11.4023
▁Koup	-11.4029
▁vstupuje	-11.4032
▁samotn	-11.4033
▁klinick	-11.4036
▁Večer	-11.404
cestovat	-11.4041
▁jednotné	-11.4044
▁uvolnil	-11.4064
▁Stan	-11.4065
▁obyčejný	-11.4085
▁moravské	-11.4094
▁vycházel	-11.4114
erie	-11.4115
▁reklamní	-11.412
▁140	-11.4165
sazování	-11.4178
slovní	-11.4186
▁aneb	-11.4188
▁cenové	-11.4198
▁tuzemsk	-11.4202
izraelsk	-11.4211
print	-11.4218
▁obranné	-11.4221
▁Podstatn	-11.4229
▁Turist	-11.4234
morav	-11.424
▁Řekl	-11.4246
ohledně	-11.4257
oporu	-11.4264
▁zemědělsk	-11.4273
▁využit	-11.4274
mohou	-11.4275
▁šampionát	-11.428
▁psycho	-11.4284
atřicet	-11.4284
▁vyžadují	-11.4285
▁Lig	-11.4299
▁slabý	-11.4299
svit	-11.4299
▁následk	-11.4302
▁účinnost	-11.4304
▁bezpečně	-11.4312
▁veřejný	-11.4315
▁spolupracovník	-11.4316
▁těle	-11.4326
▁lázeňsk	-11.4341
▁jednoznačný	-11.4343
▁příslušnost	-11.4345
▁povolen	-11.4358
▁výpočet	-11.4365
▁integrovan	-11.4367
▁zved	-11.4373
projevilo	-11.4375
▁Maďar	-11.4379
ografii	-11.4388
▁Weizs	-11.4389
▁Vinohrad	-11.4389
▁bratislavsk	-11.4389
▁kmitočt	-11.4389
sekretariát	-11.4389
zrcadl	-11.4389
▁Dvořák	-11.4389
▁Jednotliv	-11.4389
▁Lubomír	-11.4389
▁Maastrichtu	-11.4389
▁Náměst	-11.4389
▁Sarajev	-11.4389
▁Schneider	-11.4389
▁cizinci	-11.4389
▁cizině	-11.4389
▁deklarace	-11.4389
▁evoluční	-11.4389
▁institut	-11.4389
▁kancléř	-11.4389
▁lékáren	-11.4389
▁medailí	-11.4389
▁ministerstev	-11.4389
▁nemožné	-11.4389
▁nečekaně	-11.4389
▁opozici	-11.4389
▁oslaben	-11.4389
▁oživení	-11.4389
▁portfoli	-11.4389
▁posouzení	-11.4389
▁přeháňky	-11.4389
▁redakci	-11.4389
▁restituční	-11.4389
▁skript	-11.4389
▁spánku	-11.4389
▁struktuře	-11.4389
▁tabulátor	-11.4389
▁univerzáln	-11.4389
▁uspokojení	-11.4389
▁uzávěr	-11.4389
▁vyloučit	-11.4389
▁zúčastní	-11.4389
▁Antonín	-11.4389
▁Bayern	-11.4389
▁Benešov	-11.4389
▁archív	-11.4389
▁informovat	-11.4389
▁komunisté	-11.4389
▁minerální	-11.4389
▁nejsilnější	-11.4389
▁nevznik	-11.4389
▁princezn	-11.4389
▁přidružen	-11.4389
▁tiskárna	-11.4389
▁výkyvy	-11.4389
▁zlepšit	-11.4389
▁altruist	-11.4389
▁ohlášen	-11.4389
▁stadia	-11.4389
▁svatební	-11.4389
▁zlepšil	-11.4389
instalovat	-11.4389
šetřil	-11.4389
▁Mazdy	-11.4389
▁krádež	-11.4389
▁lístky	-11.4389
▁stoupenc	-11.4389
▁Libanon	-11.4389
▁nahrazen	-11.4389
▁družic	-11.4389
▁řemesl	-11.4389
▁letadlo	-11.4389
▁preventivn	-11.4389
▁válkou	-11.4389
▁porušil	-11.4389
▁ČSAV	-11.4389
▁ohrom	-11.4389
▁licence	-11.4389
▁slalom	-11.4389
▁kádru	-11.4389
▁neuvažuj	-11.4389
▁vydělat	-11.4389
▁čáry	-11.4389
hlédl	-11.4389
▁Něco	-11.4389
▁ovládat	-11.4389
▁zahájí	-11.4389
▁doplnit	-11.4389
rozhodoval	-11.4389
▁Polsku	-11.4389
▁pozemky	-11.4389
▁jídlo	-11.4389
▁jedinci	-11.4389
▁penalt	-11.4389
▁jedinečn	-11.4389
▁vyrábějí	-11.439
▁odškodnění	-11.439
▁tisíciletí	-11.439
▁účinný	-11.439
▁Odhad	-11.439
▁dealer	-11.439
▁potrvá	-11.439
▁užívat	-11.439
▁veliká	-11.439
▁umístil	-11.439
štejn	-11.439
▁nestalo	-11.439
pálil	-11.439
▁USD	-11.439
▁nebudu	-11.439
▁kůži	-11.439
šňů	-11.439
▁návštěvníci	-11.439
▁žánr	-11.439
▁hlášen	-11.4391
▁hornin	-11.4391
▁Holub	-11.4391
▁dopředu	-11.4391
▁nemění	-11.4391
▁odvozen	-11.4391
▁městečk	-11.4391
▁uklid	-11.4391
▁Hlas	-11.4391
▁vracejí	-11.4391
▁koncentrací	-11.4392
▁Krkonoších	-11.4392
▁Zásad	-11.4392
▁přečte	-11.4392
▁dřevěný	-11.4392
▁setkat	-11.4393
▁restaurací	-11.4393
▁otřes	-11.4394
▁východisk	-11.4394
▁zlata	-11.4395
▁masa	-11.4395
▁ruchu	-11.4395
▁mikroorganismů	-11.4395
▁dešťov	-11.4395
▁zasvěcen	-11.4395
▁chybějící	-11.4395
▁jádra	-11.4396
▁řešil	-11.4396
▁Juli	-11.4396
▁léčba	-11.4397
přát	-11.4397
▁zakončen	-11.4398
▁Nesmí	-11.4399
▁odmítnout	-11.4399
▁spokojenosti	-11.44
▁odstín	-11.44
▁realizovat	-11.44
▁přenesen	-11.4401
▁náročnější	-11.4403
▁tuzemských	-11.4405
▁záložník	-11.4405
lákat	-11.4406
▁úkor	-11.4406
▁SNS	-11.4408
▁obrace	-11.4409
▁stres	-11.4411
▁vyšetřovací	-11.4416
0.000	-11.4418
▁svazové	-11.442
▁hlavě	-11.442
▁základnu	-11.4421
▁kytarist	-11.4421
▁opakovat	-11.4422
▁zkoušky	-11.4422
▁protokol	-11.4424
▁kdybychom	-11.4424
▁vykazuje	-11.4424
▁převeden	-11.4425
▁letoun	-11.4426
▁mírou	-11.4426
▁drát	-11.4429
▁oceňuj	-11.443
ždyť	-11.443
▁Byt	-11.4431
▁linek	-11.4432
▁střelec	-11.4438
▁počítají	-11.4441
▁víno	-11.4444
▁věčn	-11.4451
▁zněl	-11.4453
▁Barn	-11.4456
▁právnick	-11.4457
▁varoval	-11.4474
▁potka	-11.448
▁vyplývající	-11.4481
▁Syn	-11.4482
▁nespokojenost	-11.4491
▁Hodn	-11.4493
NU	-11.4499
▁otce	-11.4519
strašně	-11.4529
▁Kamp	-11.4533
▁Husov	-11.4558
7%	-11.4582
▁91	-11.4582
▁členské	-11.4591
▁kapr	-11.4603
▁rodné	-11.4605
▁Světov	-11.4605
▁smrteln	-11.4608
▁jeskyn	-11.461
▁kvalitativn	-11.4626
méno	-11.4656
▁technologický	-11.4658
▁56	-11.4678
▁kapitálový	-11.4679
▁uskutečnil	-11.4691
▁Král	-11.4706
▁horský	-11.471
▁magi	-11.4725
mentálně	-11.475
▁odráž	-11.4763
jednala	-11.4772
▁adresář	-11.4777
▁Severoatlantick	-11.4786
sovětsk	-11.4792
▁všeobecn	-11.4798
▁speciálně	-11.4799
▁nejedn	-11.4814
▁Potřeb	-11.4814
platila	-11.482
▁Atlant	-11.4824
▁účet	-11.484
▁zákoník	-11.4854
▁Ostrav	-11.4854
▁přispíva	-11.4873
▁Tenis	-11.4874
edmdesát	-11.4886
▁obdobný	-11.4889
▁věnuj	-11.489
▁oblačno	-11.4894
▁umožňují	-11.4903
▁dočasn	-11.4912
jišťuje	-11.4912
▁lacin	-11.4928
▁sovětský	-11.4932
87	-11.4932
šený	-11.4934
▁Masaryk	-11.4934
vrátit	-11.4941
ejzajímavější	-11.4945
populárnější	-11.4945
▁Bezpečnost	-11.4945
▁Bierhoff	-11.4945
▁Evropou	-11.4945
▁Jackson	-11.4945
▁Jupiter	-11.4945
▁Karadžic	-11.4945
▁Letošní	-11.4945
▁Naštěstí	-11.4945
▁Obyvatel	-11.4945
▁Olszewsk	-11.4945
▁Sněmovn	-11.4945
▁Softwar	-11.4945
▁Soutěž	-11.4945
▁Stehlík	-11.4945
▁arcibiskup	-11.4945
▁burzy	-11.4945
▁celosvětov	-11.4945
▁chorvatský	-11.4945
▁dirigent	-11.4945
▁energií	-11.4945
▁kandidovat	-11.4945
▁krátkodobé	-11.4945
▁laboratorní	-11.4945
▁leccos	-11.4945
▁londýn	-11.4945
▁nahrávk	-11.4945
▁nešťastn	-11.4945
▁následovat	-11.4945
▁opozicí	-11.4945
▁premiéře	-11.4945
▁prokuratur	-11.4945
▁překážky	-11.4945
▁restitucí	-11.4945
▁seriózní	-11.4945
▁stability	-11.4945
▁sudetský	-11.4945
▁televizor	-11.4945
▁viceprezident	-11.4945
▁vzdělávání	-11.4945
▁zdůvodnil	-11.4945
▁závislá	-11.4945
▁Úspěšn	-11.4945
▁úspěšnost	-11.4945
▁Čtvrt	-11.4945
škráb	-11.4945
▁Křesťan	-11.4945
▁Litvínov	-11.4945
▁Madrid	-11.4945
▁incident	-11.4945
▁neexistoval	-11.4945
▁odlišné	-11.4945
▁ozónu	-11.4945
▁podotkl	-11.4945
▁poskytne	-11.4945
▁preferenc	-11.4945
▁prezervativ	-11.4945
▁tendenci	-11.4945
▁totalitní	-11.4945
▁učebnic	-11.4945
▁výkres	-11.4945
▁výslovně	-11.4945
▁zakázán	-11.4945
▁získají	-11.4945
▁Podívej	-11.4945
▁Ukrajina	-11.4945
▁dostatečné	-11.4945
▁imunitní	-11.4945
▁kontext	-11.4945
▁socialismu	-11.4945
▁výrobou	-11.4945
▁záleže	-11.4945
Standard	-11.4945
▁Moderní	-11.4945
▁Město	-11.4945
▁kapitul	-11.4945
▁Atleti	-11.4945
▁Pražan	-11.4945
▁náleží	-11.4945
▁porušování	-11.4945
▁těžší	-11.4945
▁zachránil	-11.4945
▁laserov	-11.4945
▁mrtvé	-11.4945
▁vyměnil	-11.4945
▁abeced	-11.4945
▁filtr	-11.4945
▁znamení	-11.4945
▁Mandler	-11.4945
▁herečka	-11.4945
▁vyžádá	-11.4945
▁zemědělci	-11.4945
burgu	-11.4945
▁Dukly	-11.4945
▁Island	-11.4945
▁Kopřiv	-11.4945
▁profese	-11.4945
▁chápán	-11.4945
▁MIDI	-11.4945
▁položku	-11.4945
▁živnostenský	-11.4945
▁charitativní	-11.4945
▁naučit	-11.4945
▁Obvodní	-11.4945
▁nutná	-11.4945
▁hrozil	-11.4945
▁ČSAD	-11.4945
▁příroda	-11.4945
▁druzí	-11.4945
▁Vojenské	-11.4945
▁obvinil	-11.4945
▁zajímal	-11.4945
▁Dlouho	-11.4945
▁stěží	-11.4945
▁výlučn	-11.4945
▁necelé	-11.4945
▁Hapal	-11.4945
▁rozumět	-11.4945
▁kubismu	-11.4946
▁převažuj	-11.4946
▁uplatňova	-11.4946
▁Maďarska	-11.4946
ČSSD	-11.4946
▁Akci	-11.4946
▁mýtu	-11.4946
▁vystupoval	-11.4946
▁proměnliv	-11.4947
▁frakc	-11.4947
▁zvrat	-11.4947
▁koncentraci	-11.4947
▁vyjít	-11.4947
▁přečetl	-11.4947
sudek	-11.4947
▁diváci	-11.4947
▁Berger	-11.4947
ampión	-11.4948
▁utajen	-11.4948
▁kopané	-11.4948
▁poctiv	-11.4949
▁kresb	-11.495
▁kláštera	-11.495
▁studené	-11.495
▁tvorba	-11.495
▁ultra	-11.495
▁česky	-11.4951
▁nesměl	-11.4951
▁cítil	-11.4952
háněl	-11.4954
▁loď	-11.4954
▁balení	-11.4954
píší	-11.4955
▁Příklad	-11.4956
▁kámen	-11.4956
▁duši	-11.4957
▁ČESK	-11.4958
▁1950	-11.4958
▁síni	-11.4958
především	-11.4958
▁úder	-11.4959
▁prázdninách	-11.4959
▁prezidentský	-11.4959
▁obsáhl	-11.4959
▁Politick	-11.496
▁přidělen	-11.496
▁zvyklí	-11.4961
▁vzorků	-11.4961
▁očích	-11.4961
týž	-11.4962
▁obdrží	-11.4962
▁expozice	-11.4962
poškozené	-11.4964
▁utekl	-11.4965
▁důstojník	-11.4966
▁vysílání	-11.4967
▁plot	-11.4968
▁publikace	-11.4968
▁vznikne	-11.4969
▁písma	-11.4969
▁trůn	-11.497
▁dostupný	-11.4971
▁sbírky	-11.4971
ůstek	-11.4972
▁využije	-11.4972
▁chápe	-11.4973
▁zanikl	-11.4974
▁Švýcarska	-11.4975
účtování	-11.4976
▁Prag	-11.4979
▁Alma	-11.4982
▁překvapiv	-11.4983
ografické	-11.4985
nechávají	-11.4987
▁pojistn	-11.4989
▁alternativní	-11.4989
▁měnil	-11.4992
▁mistrovsk	-11.4999
ikonu	-11.5001
ázev	-11.5002
▁trojic	-11.5003
▁izraelské	-11.5003
▁výměník	-11.5004
▁živý	-11.5004
▁čaj	-11.5006
▁předsednictv	-11.5009
tržení	-11.501
▁Dag	-11.5018
hořel	-11.5024
▁vníma	-11.5026
▁pětadvacet	-11.5028
způsobují	-11.5031
▁částečn	-11.5042
▁Švýcar	-11.5058
jednali	-11.5062
▁Baník	-11.5068
▁momentáln	-11.5068
▁dosahují	-11.507
▁Optic	-11.5072
▁Řek	-11.5073
▁77	-11.5085
▁drav	-11.5086
ower	-11.5094
▁jmenoval	-11.5095
▁Geo	-11.5095
LED	-11.5096
▁sídlí	-11.5096
▁soukromým	-11.5097
▁zadržen	-11.5104
▁přesvědčil	-11.5107
▁Buď	-11.5113
▁ověřen	-11.5113
▁nezískal	-11.5113
▁slovenský	-11.5115
▁mořské	-11.5121
▁Obsah	-11.5122
▁tiskový	-11.5129
▁bohatý	-11.5138
▁nálož	-11.5142
▁230	-11.5144
▁měnov	-11.5144
▁výživ	-11.5146
▁uzavřené	-11.5147
▁touh	-11.5149
TER	-11.5152
čínsk	-11.5162
▁srovnatelný	-11.5172
▁životnost	-11.5191
ogenní	-11.5191
▁Občansk	-11.5198
bytová	-11.521
soudit	-11.5216
▁Zákaz	-11.5238
ktické	-11.524
▁hlás	-11.5251
tlačit	-11.526
významn	-11.526
▁pouh	-11.5268
padnout	-11.527
▁zdravý	-11.5279
▁proměnil	-11.5288
▁tečk	-11.5295
▁lidový	-11.5312
▁etický	-11.5328
archeologi	-11.5328
▁závažn	-11.533
elektrick	-11.5344
▁dávn	-11.5347
▁186	-11.5367
vezm	-11.5367
▁počítačov	-11.5368
▁Carl	-11.5374
▁vzkaz	-11.5384
▁mladík	-11.5385
▁tradic	-11.5389
▁Zemanov	-11.5395
▁poradil	-11.5396
▁letecký	-11.5397
▁vědec	-11.5402
▁vesnic	-11.5417
▁úměrn	-11.5423
▁vesmír	-11.5424
eckém	-11.5432
▁muzeu	-11.5437
pracování	-11.544
▁bojoval	-11.5444
▁chodil	-11.5452
▁Ostravsk	-11.5454
▁jater	-11.5454
▁překvapen	-11.546
▁zapsán	-11.5469
▁potvrzen	-11.5482
▁dělník	-11.5494
▁rostl	-11.5495
389	-11.55
▁srozumiteln	-11.552
▁začínal	-11.5521
německou	-11.5524
vyjádřen	-11.5524
▁restaur	-11.5524
▁květ	-11.5526
▁klášte	-11.5528
▁Krkonoš	-11.553
nešní	-11.5531
▁Jugosláv	-11.5532
svobozen	-11.5533
▁nesprávn	-11.5533
▁ubytovn	-11.5533
doporučují	-11.5533
egyptsk	-11.5533
▁Běloruska	-11.5533
▁Eduard	-11.5533
▁Hrdličk	-11.5533
▁Jihoafrick	-11.5533
▁Manchester	-11.5533
▁Městě	-11.5533
▁Niederl	-11.5533
▁Pentium	-11.5533
▁Polskem	-11.5533
▁Poštovní	-11.5533
▁Pravděpodobn	-11.5533
▁Rozhovor	-11.5533
▁Svorada	-11.5533
▁asteroid	-11.5533
▁displej	-11.5533
▁doprovázen	-11.5533
▁ekvivalent	-11.5533
▁gramotnost	-11.5533
▁hřbitov	-11.5533
▁instance	-11.5533
▁inzerát	-11.5533
▁konfiguraci	-11.5533
▁kooperac	-11.5533
▁mechanismy	-11.5533
▁ministerstvem	-11.5533
▁mrtvých	-11.5533
▁mužstvu	-11.5533
▁nejlevnější	-11.5533
▁nejvhodnější	-11.5533
▁nepřijatelné	-11.5533
▁organismů	-11.5533
▁oteplení	-11.5533
▁ovlivňova	-11.5533
▁pohromadě	-11.5533
▁potvrdit	-11.5533
▁pracovišti	-11.5533
▁prohlašuje	-11.5533
▁protagonist	-11.5533
▁redukci	-11.5533
▁rozvržení	-11.5533
▁sluchátka	-11.5533
▁spolupracují	-11.5533
▁stabilitu	-11.5533
▁strojírenství	-11.5533
▁svědků	-11.5533
▁uskutečněn	-11.5533
▁vyjadřova	-11.5533
▁vzdělávací	-11.5533
▁výhrady	-11.5533
▁výsledcích	-11.5533
▁zachránit	-11.5533
▁zaměstnává	-11.5533
▁zastávk	-11.5533
▁zvýhodněn	-11.5533
▁závazek	-11.5533
▁závislé	-11.5533
▁švýcarské	-11.5533
▁1981	-11.5533
▁Kepler	-11.5533
▁Vědci	-11.5533
▁bázi	-11.5533
▁generaci	-11.5533
▁kampaň	-11.5533
▁odehrál	-11.5533
▁označují	-11.5533
▁podmínkami	-11.5533
▁složku	-11.5533
▁vyvrchol	-11.5533
▁zbraň	-11.5533
▁Balkán	-11.5533
▁Pořadatel	-11.5533
▁Thomas	-11.5533
▁Uvažuje	-11.5533
▁prokázán	-11.5533
▁Výběr	-11.5533
▁kliniky	-11.5533
▁očekávají	-11.5533
přihlášk	-11.5533
▁komentoval	-11.5533
▁kontrast	-11.5533
▁profesí	-11.5533
▁pátrá	-11.5533
▁překonat	-11.5533
▁Právní	-11.5533
▁kosmický	-11.5533
▁obtíže	-11.5533
▁pouštní	-11.5533
▁sazby	-11.5533
▁vyjednávání	-11.5533
▁jedinec	-11.5533
▁Baker	-11.5533
▁hmyz	-11.5533
omputer	-11.5533
▁SNR	-11.5533
▁dráhu	-11.5533
▁poplatků	-11.5533
▁sérii	-11.5533
▁vazbě	-11.5533
▁vyřešil	-11.5533
▁podléha	-11.5533
opakovaně	-11.5533
režie	-11.5533
▁prvotní	-11.5533
▁lidstva	-11.5533
▁ojediněle	-11.5533
▁přijímat	-11.5533
▁odvahu	-11.5533
▁přehrad	-11.5533
▁neviděl	-11.5533
▁zahrnují	-11.5533
▁otravy	-11.5533
▁Gross	-11.5533
▁uplatnil	-11.5533
▁povahu	-11.5533
▁čistírn	-11.5533
▁partie	-11.5533
KDS	-11.5533
▁kolaps	-11.5533
▁Smith	-11.5533
▁Reuter	-11.5533
▁absenc	-11.5533
hlížel	-11.5533
▁celky	-11.5533
▁sladk	-11.5533
▁nadějn	-11.5533
▁jarní	-11.5533
▁2:1	-11.5533
▁postačí	-11.5534
▁zastupitelstvo	-11.5534
▁obezit	-11.5534
▁kombinací	-11.5534
▁vpravo	-11.5534
obdržela	-11.5534
▁cvičení	-11.5534
▁etapy	-11.5534
▁patent	-11.5534
▁Radovan	-11.5534
▁velkolep	-11.5534
▁sportovce	-11.5534
▁liberalizac	-11.5534
▁počty	-11.5534
▁Kučer	-11.5534
▁doplnil	-11.5534
▁dimenz	-11.5534
hlédnutí	-11.5534
▁smečka	-11.5534
▁afér	-11.5534
▁ekonomickou	-11.5534
▁finance	-11.5534
▁ohlas	-11.5534
▁Vilém	-11.5535
▁filozofii	-11.5535
▁Kvalit	-11.5535
▁převrat	-11.5535
▁konverz	-11.5535
▁Španělsko	-11.5535
▁Ford	-11.5535
▁1998	-11.5535
▁zaměřuje	-11.5535
▁spoření	-11.5536
ohrozil	-11.5536
▁dvor	-11.5536
▁sníží	-11.5536
▁lůžk	-11.5536
▁děkan	-11.5536
▁derby	-11.5536
▁hluboký	-11.5536
▁koncentr	-11.5536
▁Krás	-11.5536
běhne	-11.5536
▁členění	-11.5536
▁zmenšen	-11.5537
▁léčbě	-11.5537
pravdě	-11.5537
▁studii	-11.5537
▁Hráč	-11.5537
▁trub	-11.5537
▁WAV	-11.5537
▁výměr	-11.5538
▁nedostatkem	-11.5539
ředstavitelé	-11.5539
▁nezvykl	-11.5541
▁retro	-11.5541
▁ISO	-11.5542
▁jednotlivců	-11.5542
▁běží	-11.5542
▁vynesl	-11.5544
▁pravice	-11.5544
▁předloh	-11.5544
▁dozví	-11.5545
▁Winter	-11.5545
▁mezer	-11.5545
▁pravdy	-11.5545
▁trase	-11.5546
▁pestr	-11.5546
▁tureck	-11.5546
▁článků	-11.5546
▁zvláštnost	-11.5547
▁vyzván	-11.5547
eportáž	-11.5549
▁dálkové	-11.5549
▁usilují	-11.555
▁čelit	-11.5551
▁salon	-11.5551
▁jakéhokoli	-11.5553
▁tenkrát	-11.5554
▁tvrdit	-11.5556
▁udělen	-11.5557
▁plus	-11.5557
▁protivník	-11.5558
▁vyplni	-11.5559
▁Přibyl	-11.5561
▁lodí	-11.5562
▁mohutn	-11.5563
▁námět	-11.5567
▁ideologick	-11.5568
▁vyhleda	-11.557
▁dýcha	-11.5572
▁porost	-11.5575
▁jmenování	-11.5583
▁nazval	-11.5586
▁vyznačen	-11.5587
▁pozdní	-11.5588
▁Kolín	-11.5591
▁pomník	-11.5593
▁zkrac	-11.5598
▁využívající	-11.5603
▁myln	-11.5604
▁Palác	-11.5613
▁zažil	-11.5623
▁maličkost	-11.5625
program	-11.5626
▁odluk	-11.5626
▁těsné	-11.5628
▁Žád	-11.563
▁pozval	-11.5631
dáte	-11.5632
reál	-11.5638
kromě	-11.5657
▁polský	-11.5662
▁opon	-11.5676
▁atomov	-11.5682
tvořily	-11.5692
sazení	-11.5693
▁samostatnost	-11.5704
SOU	-11.571
▁desítká	-11.5726
jednává	-11.573
▁publikací	-11.5758
▁stabiliz	-11.576
▁takzvaný	-11.5763
▁měřit	-11.5779
pouštět	-11.5786
▁dvaadvacet	-11.5801
▁třetin	-11.5803
▁muslimsk	-11.5816
▁skleníkový	-11.5827
▁jednotný	-11.584
▁anglick	-11.585
▁skleník	-11.5854
OSTI	-11.5862
▁cílov	-11.5871
▁bosen	-11.5871
▁rozlož	-11.5877
▁Jih	-11.5904
▁fakult	-11.5927
▁maxim	-11.5936
▁Novotn	-11.5954
▁nadměrn	-11.5968
▁hrozn	-11.5973
▁kritéri	-11.5974
obrazit	-11.5991
▁hub	-11.6002
▁krev	-11.6006
▁parametr	-11.6009
▁Histori	-11.6023
▁výjimk	-11.6034
▁odbornost	-11.604
▁úloh	-11.6051
▁Hub	-11.6055
▁ústřed	-11.6081
▁využívají	-11.6084
pojit	-11.6094
▁koordinac	-11.6106
▁ukončen	-11.6108
▁ovládá	-11.6108
▁uvolněn	-11.611
▁vozov	-11.6112
HP	-11.6112
▁Brněnsk	-11.6122
▁centimetr	-11.6127
funk	-11.6142
▁algoritm	-11.6143
uskutečnila	-11.615
podivu	-11.6153
▁dívá	-11.6154
▁účinně	-11.6157
členný	-11.6158
▁expanz	-11.6158
▁švýcarský	-11.6158
Cagiva	-11.6158
▁Apple	-11.6158
▁Barcelony	-11.6158
▁Dudajev	-11.6158
▁Frankfurt	-11.6158
▁Harrachov	-11.6158
▁Honecker	-11.6158
▁Konkrétn	-11.6158
▁Liverpool	-11.6158
▁Lobkowicz	-11.6158
▁Moskvy	-11.6158
▁Myslíte	-11.6158
▁Měsíc	-11.6158
▁Schumacher	-11.6158
▁Stráský	-11.6158
▁angličtiny	-11.6158
▁atribut	-11.6158
▁cizinec	-11.6158
▁databázový	-11.6158
▁dosaženo	-11.6158
▁dětství	-11.6158
▁efektivnosti	-11.6158
▁epidemie	-11.6158
▁evoluce	-11.6158
▁exhibic	-11.6158
▁extremist	-11.6158
▁hollywoodsk	-11.6158
▁intenzivní	-11.6158
▁jménu	-11.6158
▁kinematografie	-11.6158
▁komplikace	-11.6158
▁konkurs	-11.6158
▁kriminalist	-11.6158
▁kritizoval	-11.6158
▁lhůtě	-11.6158
▁mláďat	-11.6158
▁nabízel	-11.6158
▁nabízet	-11.6158
▁nejmladší	-11.6158
▁nelíbí	-11.6158
▁nesmějí	-11.6158
▁notebook	-11.6158
▁ohrozit	-11.6158
▁pohledávky	-11.6158
▁poloostrov	-11.6158
▁pozůstatk	-11.6158
▁počínání	-11.6158
▁pronájmu	-11.6158
▁pódiu	-11.6158
▁redakční	-11.6158
▁rozšiřování	-11.6158
▁skrývá	-11.6158
▁spekulace	-11.6158
▁spekulací	-11.6158
▁stadion	-11.6158
▁svědectví	-11.6158
▁tlačítek	-11.6158
▁trápí	-11.6158
▁vyčleněn	-11.6158
▁vztazích	-11.6158
▁výdělečn	-11.6158
▁zdůrazňuje	-11.6158
▁ÚSES	-11.6158
▁úředníci	-11.6158
▁ČSTK	-11.6158
▁Čarnogursk	-11.6158
generační	-11.6158
▁Budinský	-11.6158
▁Luboš	-11.6158
▁TNF	-11.6158
▁Větší	-11.6158
▁eventuáln	-11.6158
▁fundamentalist	-11.6158
▁metabolick	-11.6158
▁polštář	-11.6158
▁profesní	-11.6158
▁separatist	-11.6158
▁seznámil	-11.6158
▁znepokojen	-11.6158
kontaminac	-11.6158
▁Opět	-11.6158
▁bydliště	-11.6158
▁hnízd	-11.6158
▁levněji	-11.6158
▁omezování	-11.6158
▁předpokládají	-11.6158
▁lůžek	-11.6158
▁nazývá	-11.6158
▁ropovod	-11.6158
Oscar	-11.6158
▁bezespor	-11.6158
▁plynáren	-11.6158
▁HDP	-11.6158
▁prodavač	-11.6158
▁rozmnož	-11.6158
▁Vánoční	-11.6158
▁poskytovan	-11.6158
▁učební	-11.6158
▁šlecht	-11.6158
▁kosmické	-11.6158
▁nerozumí	-11.6158
▁výzvu	-11.6158
▁mrtvol	-11.6158
▁matematické	-11.6158
kompenz	-11.6158
▁Haagu	-11.6158
▁terminologi	-11.6158
▁nekončí	-11.6158
▁přiznat	-11.6158
KDH	-11.6158
▁Vánoce	-11.6158
▁skandál	-11.6158
▁sdružuj	-11.6158
▁belgick	-11.6158
▁nazvaný	-11.6158
▁pojmy	-11.6158
▁pronajat	-11.6158
▁odlišuj	-11.6158
▁recenze	-11.6158
▁demisi	-11.6158
▁minulou	-11.6158
▁Easy	-11.6158
▁praxí	-11.6158
▁mezisklad	-11.6158
▁plakát	-11.6158
▁uváděl	-11.6158
▁spektrum	-11.6158
▁nevadí	-11.6158
▁pokouší	-11.6158
▁pryč	-11.6158
▁mutace	-11.6158
šplha	-11.6158
▁koupě	-11.6158
▁hygienické	-11.6159
týkat	-11.6159
▁převyšuj	-11.6159
major	-11.6159
▁Kyjev	-11.6159
▁napodob	-11.6159
▁stereo	-11.6159
▁Římě	-11.6159
▁žádal	-11.6159
kročit	-11.6159
▁reprezentuje	-11.6159
▁snižují	-11.6159
▁zastupování	-11.6159
▁Neznám	-11.6159
týkal	-11.6159
▁vyvážen	-11.6159
▁něčím	-11.6159
▁PŘI	-11.6159
▁usiloval	-11.6159
▁zastupitelství	-11.6159
▁veterán	-11.6159
▁bydlet	-11.6159
▁levicov	-11.6159
▁inteligentní	-11.6159
▁pohlaví	-11.6159
▁inkas	-11.616
▁strážníci	-11.616
▁Vodičk	-11.616
2:0	-11.616
▁ocas	-11.616
▁Listin	-11.616
▁rovnost	-11.616
▁neodpovídá	-11.616
▁ledovce	-11.616
▁Group	-11.616
▁spuštění	-11.6161
▁výtisk	-11.6161
▁námitky	-11.6161
▁součin	-11.6161
▁teplé	-11.6161
▁vyrobil	-11.6161
▁prudké	-11.6161
▁střechy	-11.6161
▁slyšel	-11.6161
▁sousedství	-11.6161
▁komunikací	-11.6161
▁interpretace	-11.6162
▁vápenc	-11.6162
▁nezajímá	-11.6162
▁stoprocentní	-11.6162
▁někam	-11.6162
▁průhledn	-11.6162
▁pyšn	-11.6162
▁grant	-11.6163
▁Dukla	-11.6163
▁norem	-11.6164
▁sumy	-11.6164
▁naučil	-11.6164
▁Nájem	-11.6164
▁Olg	-11.6164
▁běžc	-11.6164
▁stolní	-11.6164
STAV	-11.6164
▁léčby	-11.6165
▁Thun	-11.6165
▁kabin	-11.6165
▁Nemůže	-11.6166
▁složitost	-11.6166
▁kníže	-11.6166
▁datum	-11.6169
jistá	-11.617
▁Solid	-11.617
▁Prohlásil	-11.6172
▁přežil	-11.6172
▁určí	-11.6173
▁ustaven	-11.6174
bajt	-11.6174
▁minima	-11.6175
▁Lys	-11.6175
▁hmotnost	-11.6175
▁geografick	-11.6176
▁teplý	-11.6176
▁pamatuje	-11.6177
Finsko	-11.6178
míří	-11.6182
▁makro	-11.6182
▁selekčn	-11.6183
kontinentální	-11.6184
▁předešl	-11.6184
▁Vaš	-11.6186
TON	-11.6188
▁hluk	-11.6189
▁Web	-11.619
▁uznává	-11.6196
▁LID	-11.6197
▁Polák	-11.6199
rozuměl	-11.6201
▁socialistické	-11.6207
▁sestra	-11.6211
▁závěrečný	-11.6212
▁zvolí	-11.6215
pracovala	-11.6219
▁starožitnost	-11.6226
▁Zkus	-11.6229
▁organ	-11.6229
▁Těm	-11.6247
▁vzrost	-11.6253
▁vyhrazen	-11.6261
▁filozofické	-11.6263
▁pomocník	-11.6271
▁gest	-11.6272
▁klientel	-11.6278
▁rizikový	-11.6299
▁zásobník	-11.6309
▁příjemný	-11.6325
▁zhodnoc	-11.6326
▁demokrat	-11.6332
▁vývojový	-11.6342
▁hád	-11.6347
▁zaujím	-11.635
▁vývojář	-11.6354
psání	-11.6355
▁sond	-11.6366
vládní	-11.6367
slouží	-11.6392
1992	-11.6394
▁zlikvidov	-11.6402
sunut	-11.6412
▁tvořil	-11.6423
▁položen	-11.6427
▁jakoukoli	-11.643
rovnávání	-11.6432
▁neobyčejn	-11.6432
▁trojnásobn	-11.6438
hrání	-11.6438
▁ilustrac	-11.6441
škodí	-11.6446
▁konstatova	-11.6452
▁řecké	-11.6457
které	-11.6479
▁Švéd	-11.653
růstá	-11.6547
▁Rozhodl	-11.6568
▁Rozhodn	-11.6586
▁uvolni	-11.6586
▁William	-11.6608
▁etnick	-11.661
▁nepřinesl	-11.6616
▁Obchod	-11.662
▁peče	-11.6645
▁leteck	-11.6672
▁přírodovědeck	-11.6677
vědčí	-11.6677
▁táhn	-11.6689
▁Opti	-11.669
▁vozidl	-11.671
▁poruše	-11.6717
▁Knih	-11.6718
▁využíván	-11.6731
▁naplněn	-11.6738
▁závislost	-11.6739
▁zkušebn	-11.6742
▁Míst	-11.6745
čítat	-11.6745
obyčejně	-11.6754
tabulk	-11.6754
▁Začátk	-11.6768
▁zaplacen	-11.6768
▁Dět	-11.6776
▁Brazíli	-11.678
▁příznačn	-11.6785
▁Způsob	-11.6787
▁dvacát	-11.6789
▁sediment	-11.6794
▁penzi	-11.68
chybějí	-11.6819
▁KSČ	-11.6822
▁Účast	-11.6824
certifik	-11.6824
ntelektuál	-11.6825
▁pneumatik	-11.6825
▁východoevropský	-11.6825
▁červnov	-11.6825
JPEG	-11.6825
sloučenin	-11.6825
▁Austrálie	-11.6825
▁Domnívám	-11.6825
▁FBIS	-11.6825
▁Hamburk	-11.6825
▁Harvard	-11.6825
▁Informace	-11.6825
▁Ludvík	-11.6825
▁Mitterrand	-11.6825
▁Oldřich	-11.6825
▁Pivovar	-11.6825
▁Saúdsk	-11.6825
▁Vešker	-11.6825
▁Vídeň	-11.6825
▁WWW	-11.6825
▁bankovnictví	-11.6825
▁deklaraci	-11.6825
▁důležitější	-11.6825
▁elementární	-11.6825
▁federaci	-11.6825
▁firmách	-11.6825
▁fungování	-11.6825
▁hardwarov	-11.6825
▁infarkt	-11.6825
▁jednodušší	-11.6825
▁komentátor	-11.6825
▁konfigurace	-11.6825
▁konkurovat	-11.6825
▁kosmonaut	-11.6825
▁krasobruslař	-11.6825
▁literatuře	-11.6825
▁marketingu	-11.6825
▁mediální	-11.6825
▁nominaci	-11.6825
▁novotvary	-11.6825
▁nukleární	-11.6825
▁odpovědět	-11.6825
▁pojišťovnou	-11.6825
▁poptávku	-11.6825
▁problematice	-11.6825
▁předpovědi	-11.6825
▁předvánoční	-11.6825
▁přerozdělování	-11.6825
▁racionální	-11.6825
▁referát	-11.6825
▁rekreaci	-11.6825
▁rozsáhlejší	-11.6825
▁rozvíjejí	-11.6825
▁rubrice	-11.6825
▁stěžovat	-11.6825
▁symplektick	-11.6825
▁trénovat	-11.6825
▁vypráví	-11.6825
▁vyžadovat	-11.6825
▁zapomenout	-11.6825
▁zaručit	-11.6825
▁zavražděn	-11.6825
▁zodpovězen	-11.6825
▁zákulisí	-11.6825
▁úložiště	-11.6825
▁Četrans	-11.6825
▁1976	-11.6825
▁1983	-11.6825
▁Pistol	-11.6825
▁definice	-11.6825
▁domorodc	-11.6825
▁médií	-11.6825
▁nacionalism	-11.6825
▁nenávist	-11.6825
▁palubě	-11.6825
▁prozradil	-11.6825
▁pseudo	-11.6825
▁přihlášen	-11.6825
▁rozvíjet	-11.6825
▁rozčleněn	-11.6825
▁seskupení	-11.6825
▁tolerance	-11.6825
▁vláken	-11.6825
▁Maďarskem	-11.6825
▁interiér	-11.6825
▁kvót	-11.6825
▁procedur	-11.6825
▁tiskáren	-11.6825
▁špatnou	-11.6825
▁Návrat	-11.6825
▁osaměl	-11.6825
▁plošný	-11.6825
▁populaci	-11.6825
▁povolební	-11.6825
▁tendence	-11.6825
▁analytick	-11.6825
▁cementárn	-11.6825
▁infikova	-11.6825
▁kampaně	-11.6825
▁otazník	-11.6825
▁rozsudk	-11.6825
▁zjišťova	-11.6825
▁makléř	-11.6825
▁odvezl	-11.6825
▁archiv	-11.6825
▁funkčnost	-11.6825
▁milimetr	-11.6825
▁neškodn	-11.6825
▁pozměň	-11.6825
▁Právo	-11.6825
▁vzbudil	-11.6825
▁uvítal	-11.6825
▁Veřejn	-11.6825
▁mikrofon	-11.6825
▁placentál	-11.6825
▁účinků	-11.6825
▁Kladně	-11.6825
▁fází	-11.6825
znamenají	-11.6825
▁reagují	-11.6825
▁vyslovit	-11.6825
▁praktik	-11.6825
▁stráví	-11.6825
▁Francií	-11.6825
▁taxonomie	-11.6825
▁domníval	-11.6825
▁účinné	-11.6825
přízeň	-11.6825
▁Ctrl	-11.6825
▁Michel	-11.6825
▁hospodaří	-11.6825
▁komunit	-11.6825
▁nabídek	-11.6825
▁ujistil	-11.6825
▁finalist	-11.6825
▁amatér	-11.6825
▁Irák	-11.6825
▁podobnou	-11.6825
▁zastupuje	-11.6825
▁Kurzy	-11.6825
▁biochemi	-11.6825
▁povstal	-11.6825
▁chaotick	-11.6825
▁vybojoval	-11.6825
▁značku	-11.6825
▁ustavující	-11.6825
▁popředí	-11.6825
▁dřevěné	-11.6825
▁aridní	-11.6825
▁Marián	-11.6825
▁zánět	-11.6825
▁pól	-11.6825
▁přehnan	-11.6825
▁Prokop	-11.6826
▁tragick	-11.6826
▁vrstva	-11.6826
▁desek	-11.6826
▁směřující	-11.6826
▁plastik	-11.6826
▁ovládací	-11.6826
▁narkom	-11.6826
▁fixac	-11.6826
▁přípustn	-11.6826
▁nazvané	-11.6826
▁vystavuje	-11.6826
▁trasy	-11.6826
▁konsensus	-11.6826
zkoumat	-11.6826
▁brazilsk	-11.6827
▁rozdělí	-11.6827
▁ČSD	-11.6827
▁architektonick	-11.6827
▁Moravia	-11.6827
▁učiní	-11.6827
▁Super	-11.6827
▁oboustrann	-11.6827
plácení	-11.6827
▁uplatňován	-11.6827
▁jednostrann	-11.6827
▁Proces	-11.6827
▁virus	-11.6827
▁češtiny	-11.6827
▁poušti	-11.6827
▁Setkání	-11.6827
▁střídají	-11.6828
▁Soulu	-11.6828
▁profesi	-11.6828
▁komunikační	-11.6828
▁robot	-11.6829
▁bankrot	-11.6829
▁realizace	-11.6829
▁rockov	-11.6829
▁holub	-11.6829
▁Nechci	-11.6829
▁zimy	-11.6829
▁Cítí	-11.6829
▁zabránil	-11.6829
▁lázní	-11.6829
▁nedělá	-11.683
▁dotaci	-11.683
▁volající	-11.683
▁Značn	-11.683
▁kameny	-11.683
▁zničil	-11.6831
▁nepřesnost	-11.6831
▁léčbu	-11.6831
▁spotřeba	-11.6831
▁fakticky	-11.6832
▁obstará	-11.6832
▁toxické	-11.6833
▁rekordman	-11.6834
▁sníh	-11.6834
▁šipk	-11.6834
▁faul	-11.6835
▁touží	-11.6836
▁vyprávěl	-11.6836
yplynulo	-11.6837
▁zajišťující	-11.6838
▁všední	-11.6839
▁Aktiv	-11.6842
1972	-11.6844
▁distribuční	-11.6845
rábě	-11.6848
▁uheln	-11.685
▁Hleda	-11.6851
evropský	-11.6852
svědčuje	-11.6854
▁mask	-11.6855
▁výtvarník	-11.6855
▁bál	-11.6858
hodinový	-11.686
ALE	-11.6862
azeta	-11.6871
▁použije	-11.6886
▁hrazen	-11.6887
▁zelený	-11.6895
▁poškozený	-11.6896
symetri	-11.691
▁přispívají	-11.6912
ousek	-11.6929
▁pedagogick	-11.6938
256	-11.694
▁nabízený	-11.6956
▁předsedkyn	-11.6962
▁zoologick	-11.6963
▁Historick	-11.6971
nsen	-11.6975
▁Fakt	-11.6984
▁diplomatický	-11.6991
▁protějš	-11.6994
▁filmař	-11.6995
kontroluje	-11.7007
▁maso	-11.7026
▁optimismu	-11.7027
▁bránil	-11.704
▁návratnost	-11.7052
▁Významn	-11.7055
dražit	-11.7096
▁Podpor	-11.7107
▁ukáz	-11.7107
▁socialist	-11.7108
▁oceánické	-11.7121
▁nacházel	-11.7128
▁Výrobc	-11.7132
▁Výš	-11.715
▁citeln	-11.7159
▁modifik	-11.7169
▁definovan	-11.7202
▁osazen	-11.7236
operační	-11.7253
ometrick	-11.726
▁lebk	-11.7269
přineslo	-11.727
1991	-11.727
▁jakýkoli	-11.7285
hradil	-11.7316
▁vrácen	-11.7333
▁ovlivnil	-11.7343
▁strašn	-11.7351
▁pořádají	-11.7358
panuje	-11.736
▁splněn	-11.737
▁nulov	-11.7406
istického	-11.7406
▁nemovitost	-11.7415
ůbec	-11.7425
dražil	-11.7444
▁propojen	-11.7444
▁elektřin	-11.7452
přestává	-11.7453
▁spravedlnost	-11.7454
▁Osl	-11.7455
▁poskytován	-11.7464
gramů	-11.7485
živí	-11.7487
▁bilanc	-11.7495
▁učit	-11.7498
▁doporučen	-11.75
▁Víc	-11.7503
▁kilogram	-11.7508
magnetické	-11.752
▁překonal	-11.7534
▁technic	-11.7536
glaciál	-11.7539
▁bulharsk	-11.7539
▁velvyslanec	-11.7539
▁Bohuslav	-11.7539
▁Hospodářsk	-11.7539
▁bezmocn	-11.7539
▁ceremoniál	-11.7539
▁drůbež	-11.7539
▁inzulín	-11.7539
▁kanalizací	-11.7539
▁novorozen	-11.7539
▁podezřelý	-11.7539
▁pořizovací	-11.7539
▁poštovní	-11.7539
▁prospěšn	-11.7539
▁telekomunikací	-11.7539
▁vrtulník	-11.7539
LSNS	-11.7539
ýpovědní	-11.7539
▁Akademie	-11.7539
▁Albertville	-11.7539
▁Bratislavy	-11.7539
▁Delphi	-11.7539
▁Digital	-11.7539
▁General	-11.7539
▁Kuvajt	-11.7539
▁Netanjahu	-11.7539
▁Princip	-11.7539
▁Pálffy	-11.7539
▁Reichel	-11.7539
▁SPIRIT	-11.7539
▁TWA	-11.7539
▁Vynikající	-11.7539
▁brožur	-11.7539
▁buněčné	-11.7539
▁databáze	-11.7539
▁databázi	-11.7539
▁delegát	-11.7539
▁diktátor	-11.7539
▁dveřmi	-11.7539
▁finálové	-11.7539
▁havárii	-11.7539
▁holding	-11.7539
▁katalyzátor	-11.7539
▁kazašsk	-11.7539
▁komedie	-11.7539
▁komisař	-11.7539
▁kompetencí	-11.7539
▁kultuře	-11.7539
▁lidstvo	-11.7539
▁milisekund	-11.7539
▁nechybí	-11.7539
▁nosorožců	-11.7539
▁odpolední	-11.7539
▁ofsajd	-11.7539
▁olomoucké	-11.7539
▁organismy	-11.7539
▁paměť	-11.7539
▁paradigma	-11.7539
▁pojišťoven	-11.7539
▁pojišťovně	-11.7539
▁portfeje	-11.7539
▁přibližuj	-11.7539
▁přísluší	-11.7539
▁raketoplán	-11.7539
▁severozápad	-11.7539
▁splátek	-11.7539
▁těhotenství	-11.7539
▁vlhkost	-11.7539
▁vyzkoušel	-11.7539
▁vyčerpán	-11.7539
▁vídeňské	-11.7539
▁zahájit	-11.7539
▁zajišťoval	-11.7539
▁zakázek	-11.7539
▁zaručuje	-11.7539
▁zdůraznit	-11.7539
▁zneužívání	-11.7539
▁zpracovává	-11.7539
▁záruční	-11.7539
▁zázračn	-11.7539
▁Černomyrdin	-11.7539
▁Život	-11.7539
▁železnice	-11.7539
▁1979	-11.7539
▁Muslim	-11.7539
▁Teplice	-11.7539
▁emitent	-11.7539
▁konstantní	-11.7539
▁omezit	-11.7539
▁pohodlné	-11.7539
▁pátku	-11.7539
▁radikálně	-11.7539
▁sféře	-11.7539
▁stadiu	-11.7539
▁stěžuje	-11.7539
▁tekutin	-11.7539
▁thajské	-11.7539
▁zopakoval	-11.7539
▁KGB	-11.7539
▁Němce	-11.7539
▁injekc	-11.7539
▁lehký	-11.7539
▁málokdo	-11.7539
▁prodluž	-11.7539
▁překonání	-11.7539
▁účinnou	-11.7539
▁Československý	-11.7539
▁Dokument	-11.7539
▁FMV	-11.7539
▁Zpráv	-11.7539
▁nesrovnateln	-11.7539
▁poválečn	-11.7539
▁SGI	-11.7539
▁Student	-11.7539
▁PET	-11.7539
▁lahví	-11.7539
▁obyvatelstvo	-11.7539
▁smířit	-11.7539
▁Západoevropsk	-11.7539
▁informuje	-11.7539
▁komodit	-11.7539
▁trénuj	-11.7539
▁Zajímal	-11.7539
▁kolegové	-11.7539
▁nejblíže	-11.7539
▁James	-11.7539
▁rozsáhlou	-11.7539
▁vyústi	-11.7539
▁chystají	-11.7539
▁odstavec	-11.7539
▁svrchované	-11.7539
▁udržován	-11.7539
▁dávek	-11.7539
▁podepsat	-11.7539
▁polymer	-11.7539
▁sloučení	-11.7539
▁přeplněn	-11.7539
▁umírněn	-11.7539
▁nikomu	-11.7539
▁někomu	-11.7539
▁Prahou	-11.7539
▁netrpěliv	-11.7539
▁železné	-11.7539
▁Holandsk	-11.7539
▁loupež	-11.7539
▁srbské	-11.7539
▁Automatick	-11.7539
▁vzdělan	-11.7539
▁nepodaří	-11.7539
▁poznámky	-11.7539
▁odhalit	-11.7539
▁podporoval	-11.7539
▁tvořiv	-11.7539
▁Kadlec	-11.7539
▁dědeček	-11.7539
▁mutací	-11.7539
▁Mlýn	-11.7539
▁Louis	-11.7539
▁nedaleké	-11.7539
▁oběhové	-11.754
▁Fuchs	-11.754
▁přetížen	-11.754
▁něčeho	-11.754
běhnout	-11.754
▁úchyt	-11.754
▁prováděl	-11.754
▁Následující	-11.754
▁chleba	-11.754
▁šancí	-11.754
▁modré	-11.754
▁Účastníci	-11.754
▁dovážen	-11.754
▁mocenské	-11.754
▁odvážn	-11.754
▁vybudoval	-11.754
▁fotografií	-11.754
▁sochař	-11.754
opouštěl	-11.754
▁stromeček	-11.754
▁vyhledávání	-11.754
▁hokejistů	-11.754
▁legendární	-11.754
▁účinnější	-11.754
▁Front	-11.7541
▁Suková	-11.7541
▁formálně	-11.7541
▁Opava	-11.7541
▁Bartoš	-11.7541
▁kopií	-11.7541
▁Týden	-11.7541
▁kamión	-11.7541
▁příloh	-11.7541
▁kamenné	-11.7541
▁nejsme	-11.7541
▁vyhořelé	-11.7541
▁implantát	-11.7541
▁kapsy	-11.7541
▁Kouba	-11.7541
hánějí	-11.7541
▁Ježek	-11.7541
▁transport	-11.7542
▁Zápas	-11.7542
▁lehko	-11.7542
▁zmizí	-11.7542
▁pojmu	-11.7542
▁hlučn	-11.7542
▁Samotn	-11.7542
▁adaptace	-11.7542
▁lákav	-11.7542
▁písmo	-11.7542
▁Španělsku	-11.7543
▁1970	-11.7543
▁nazvat	-11.7543
▁metan	-11.7543
▁výsad	-11.7543
▁usedl	-11.7543
▁Zvýšen	-11.7543
▁neuron	-11.7544
▁princ	-11.7544
▁nikam	-11.7544
▁jinam	-11.7544
▁jízdenk	-11.7544
▁nereáln	-11.7544
hrádk	-11.7544
▁vejce	-11.7545
▁zády	-11.7545
▁štědr	-11.7545
▁neznají	-11.7546
▁topení	-11.7546
▁Jaw	-11.7546
▁Klasick	-11.7546
smluvně	-11.7546
▁ležel	-11.7546
▁rovný	-11.7547
▁oblouk	-11.7547
▁nosič	-11.7547
▁únosn	-11.7547
▁nikde	-11.7547
▁Hledá	-11.7547
▁zranil	-11.7547
▁Januš	-11.755
ničím	-11.7551
▁vázan	-11.7551
▁potká	-11.7551
▁republikánsk	-11.7552
▁Místopředsed	-11.7552
▁odnětí	-11.7553
vracení	-11.7554
vážil	-11.7555
▁koncepčn	-11.7556
▁kras	-11.7557
▁Kováč	-11.7558
▁odnesl	-11.7559
▁nádrž	-11.7561
▁vracel	-11.7564
▁bytový	-11.7564
▁nechut	-11.7565
▁Esc	-11.7565
▁zelené	-11.7573
▁pětatřicet	-11.7583
▁Snah	-11.7586
▁protín	-11.76
▁neplatn	-11.7608
▁Indián	-11.761
extrémně	-11.761
▁Kutn	-11.7613
▁koncov	-11.7623
tvrze	-11.7629
▁teroristický	-11.763
▁basketbalist	-11.7635
tažené	-11.7644
▁doplňují	-11.7648
formulovat	-11.7667
▁zmiňuj	-11.7671
▁stáj	-11.7674
▁Adam	-11.7678
Komensk	-11.769
▁ledový	-11.7697
konkurenceschopn	-11.7715
▁důvěryhodn	-11.7723
vydržel	-11.7729
point	-11.7734
▁drsn	-11.7735
bitový	-11.774
▁regulac	-11.7741
značení	-11.7744
▁vyrůst	-11.7744
▁skrz	-11.7745
▁ryz	-11.7754
▁Běl	-11.7778
▁vyplněn	-11.7791
zemědělská	-11.7801
▁meziroční	-11.784
působí	-11.7881
▁animac	-11.7916
▁vyplacen	-11.792
socialistický	-11.7931
muslimské	-11.7946
▁nedoved	-11.7972
▁vyplatil	-11.7986
▁Radnic	-11.8028
▁Nebude	-11.8032
▁vůdc	-11.8042
▁individu	-11.8078
▁mateřsk	-11.8095
▁dechov	-11.8108
▁požadovan	-11.811
▁vápn	-11.8118
hlídce	-11.813
▁Izraelsk	-11.8165
▁poprav	-11.8171
poskytla	-11.8174
▁meteorolog	-11.8181
▁mušk	-11.8186
▁piv	-11.8193
uživatelské	-11.8195
▁Senát	-11.8199
▁výdaj	-11.821
▁každodenn	-11.822
▁orientac	-11.8223
▁souvisl	-11.8243
▁soustředěn	-11.8254
▁Vietnam	-11.8257
▁vytvářen	-11.8263
▁kytar	-11.8264
čátek	-11.8275
cionálně	-11.8308
korespond	-11.8308
▁antropogenní	-11.8308
▁bezšňůrov	-11.8308
▁izolační	-11.8308
▁prvoligov	-11.8308
▁ušlechtil	-11.8308
▁začátečn	-11.8308
deutsche	-11.8308
navrhovatel	-11.8308
restrukturalizac	-11.8308
soustřeďuje	-11.8308
▁Australan	-11.8308
▁Bedřich	-11.8308
▁Bukureš	-11.8308
▁Chvalovský	-11.8308
▁Dlouhý	-11.8308
▁Frýdku	-11.8308
▁Giovanni	-11.8308
▁Gretzky	-11.8308
▁Hendrix	-11.8308
▁Hercegovin	-11.8308
▁Holbrooke	-11.8308
▁Hovořil	-11.8308
▁Margaret	-11.8308
▁Marseille	-11.8308
▁MicroStation	-11.8308
▁Navrátil	-11.8308
▁Oxfordu	-11.8308
▁Padesát	-11.8308
▁Parlament	-11.8308
▁Pospíšil	-11.8308
▁Rangers	-11.8308
▁Sládka	-11.8308
▁Stockholm	-11.8308
▁Stráž	-11.8308
▁Varšav	-11.8308
▁Zeitung	-11.8308
▁biotechnologi	-11.8308
▁cyklů	-11.8308
▁delegací	-11.8308
▁deregulac	-11.8308
▁disident	-11.8308
▁diskrimin	-11.8308
▁dominantní	-11.8308
▁doporučit	-11.8308
▁elektrárna	-11.8308
▁epizod	-11.8308
▁fanoušci	-11.8308
▁fyziologick	-11.8308
▁handicap	-11.8308
▁havárie	-11.8308
▁horizontu	-11.8308
▁hypoték	-11.8308
▁instalační	-11.8308
▁investoři	-11.8308
▁jihovýchodní	-11.8308
▁kariéry	-11.8308
▁karlovarsk	-11.8308
▁knihkupectví	-11.8308
▁konvertibilit	-11.8308
▁lukrativní	-11.8308
▁manažeři	-11.8308
▁navštívit	-11.8308
▁nejčastější	-11.8308
▁návaznost	-11.8308
▁odcházel	-11.8308
▁perfektní	-11.8308
▁podmínku	-11.8308
▁podrážděn	-11.8308
▁poliklinik	-11.8308
▁portrét	-11.8308
▁poselství	-11.8308
▁prezentován	-11.8308
▁připomínal	-11.8308
▁příchozí	-11.8308
▁půvab	-11.8308
▁reprezentovat	-11.8308
▁rovnoběž	-11.8308
▁rovnoměrn	-11.8308
▁roztříštěn	-11.8308
▁službách	-11.8308
▁stránkách	-11.8308
▁substantiv	-11.8308
▁tiskárnu	-11.8308
▁turistiky	-11.8308
▁třicátých	-11.8308
▁uspokojit	-11.8308
▁utrpení	-11.8308
▁veterinární	-11.8308
▁výcvik	-11.8308
▁zákonodárn	-11.8308
▁západoevropský	-11.8308
▁zásuvk	-11.8308
▁závislý	-11.8308
▁Štěpán	-11.8308
vyskytuje	-11.8308
ŠTÍ	-11.8308
▁Kralup	-11.8308
▁Kravčuk	-11.8308
▁OpenScript	-11.8308
▁Očekává	-11.8308
▁Památk	-11.8308
▁Plzně	-11.8308
▁Překvap	-11.8308
▁Silvestr	-11.8308
▁Sportovní	-11.8308
▁biosfér	-11.8308
▁definován	-11.8308
▁diktatur	-11.8308
▁hřbet	-11.8308
▁křesla	-11.8308
▁libovolné	-11.8308
▁medvěd	-11.8308
▁média	-11.8308
▁osamostatn	-11.8308
▁povzbuz	-11.8308
▁revoluci	-11.8308
▁schvalování	-11.8308
▁trolejbus	-11.8308
▁tělovýchov	-11.8308
▁upravuje	-11.8308
▁všelijak	-11.8308
▁zapomenut	-11.8308
▁zlepšování	-11.8308
▁zvážit	-11.8308
▁Klient	-11.8308
▁Záhřebu	-11.8308
▁analytik	-11.8308
▁domnívat	-11.8308
▁konektor	-11.8308
▁legální	-11.8308
▁nepůjde	-11.8308
▁posuzoval	-11.8308
▁středisek	-11.8308
▁výchozí	-11.8308
▁útlum	-11.8308
▁čtvrtletně	-11.8308
▁Kontakt	-11.8308
▁Kultur	-11.8308
▁Solidarit	-11.8308
▁evidentn	-11.8308
▁nevyhnul	-11.8308
▁odhodlán	-11.8308
pište	-11.8308
▁dodávku	-11.8308
▁fázové	-11.8308
▁hájit	-11.8308
▁iniciátor	-11.8308
▁ministerský	-11.8308
▁náznak	-11.8308
▁převezme	-11.8308
▁studijní	-11.8308
▁lístku	-11.8308
▁politici	-11.8308
▁srovnávat	-11.8308
▁vizuální	-11.8308
▁neskončil	-11.8308
▁pařížsk	-11.8308
▁intelektuální	-11.8308
▁vhodnější	-11.8308
▁chápou	-11.8308
▁romantick	-11.8308
▁tabák	-11.8308
▁vůdčí	-11.8308
▁nervozit	-11.8308
▁sváteční	-11.8308
▁nebytový	-11.8308
▁organizován	-11.8308
▁delikt	-11.8308
▁hesla	-11.8308
▁shodli	-11.8308
▁vyrobit	-11.8308
▁recese	-11.8308
▁barokní	-11.8308
▁afrických	-11.8308
▁monarchi	-11.8308
▁licenci	-11.8308
▁úklid	-11.8308
▁položek	-11.8308
▁fašismu	-11.8308
▁rovnou	-11.8308
▁sazba	-11.8308
▁názvy	-11.8308
▁židovské	-11.8308
▁přijede	-11.8308
▁látku	-11.8308
▁vybuchl	-11.8308
▁stránka	-11.8308
▁netuší	-11.8308
▁dovezen	-11.8308
▁prověrk	-11.8308
▁vypovězen	-11.8309
▁vyřeší	-11.8309
▁dráze	-11.8309
▁krizí	-11.8309
▁Snímek	-11.8309
▁certifikace	-11.8309
▁Pechar	-11.8309
▁provází	-11.8309
▁trošk	-11.8309
▁Žije	-11.8309
▁ideologie	-11.8309
▁zátěž	-11.8309
▁zachycuj	-11.8309
▁Soros	-11.8309
▁hloup	-11.8309
▁mrzí	-11.8309
▁smíšený	-11.8309
▁zkrácení	-11.8309
▁motýl	-11.8309
▁klasik	-11.8309
▁poezie	-11.8309
▁mléko	-11.8309
▁Příprav	-11.8309
ručením	-11.8309
▁letadel	-11.8309
▁obklop	-11.8309
▁Belgičan	-11.8309
▁obrátí	-11.8309
▁rámec	-11.8309
▁pohodlně	-11.8309
▁záchod	-11.8309
▁Francis	-11.831
▁biologii	-11.831
▁Albert	-11.831
▁Diana	-11.831
▁emisí	-11.831
▁podporovan	-11.831
▁čtyřnásobn	-11.831
▁Pravidl	-11.831
▁útul	-11.831
▁laskav	-11.831
▁setkávají	-11.831
▁Nynější	-11.831
▁opatrně	-11.831
chovávat	-11.831
▁odcizi	-11.831
▁nezdá	-11.831
▁nalezli	-11.831
▁akutní	-11.831
ladil	-11.831
▁úročen	-11.831
▁šperk	-11.831
▁iluze	-11.831
▁postranní	-11.831
▁juniorů	-11.831
▁mléka	-11.831
▁prostředkem	-11.831
▁odrůd	-11.831
▁Údaj	-11.8311
▁hyper	-11.8311
▁linie	-11.8311
mínka	-11.8311
▁nedokonč	-11.8311
▁zaměstnanosti	-11.8311
▁krabic	-11.8311
▁dědičn	-11.8312
▁nepočítal	-11.8312
▁Zlatý	-11.8313
▁určován	-11.8313
▁Uhersk	-11.8314
▁podceňova	-11.8314
▁útěk	-11.8315
▁aukcí	-11.8315
tlačil	-11.8316
▁odolnost	-11.8316
▁Atén	-11.8316
▁Lenn	-11.8317
▁udělil	-11.8317
▁Hrál	-11.8318
▁skokan	-11.8318
▁pozemkov	-11.8319
▁vlastnické	-11.8319
▁Trnav	-11.8319
▁pasáž	-11.8319
obtížnější	-11.8319
▁krouž	-11.832
▁smyslupln	-11.832
▁principiáln	-11.8322
▁natočil	-11.8322
▁hymn	-11.8323
▁podobá	-11.8324
dokonalejší	-11.8325
točit	-11.8326
▁Popov	-11.8328
▁Botan	-11.8328
▁obměn	-11.8329
▁sólo	-11.833
▁psí	-11.8332
interpretaci	-11.8333
▁unikl	-11.8336
▁slovinsk	-11.8337
▁ozval	-11.8339
věřuje	-11.8342
podstatnější	-11.8347
▁akční	-11.8347
Místku	-11.8347
▁kytic	-11.8349
▁suché	-11.8353
▁Čísl	-11.8358
▁Kraus	-11.8358
▁šál	-11.8359
▁vypracován	-11.8375
pravdivost	-11.8383
milionový	-11.8385
▁Květ	-11.8386
▁nerozhodn	-11.8387
▁Vytvořen	-11.8393
opádn	-11.8403
▁potravinářský	-11.8403
divné	-11.8409
▁zbylý	-11.841
podnik	-11.8412
▁proměnn	-11.8422
▁tisícovk	-11.8426
▁garáž	-11.8442
světlení	-11.8448
▁odebíra	-11.848
▁neposkyt	-11.8493
▁tenistk	-11.8496
mnohých	-11.8504
růstající	-11.8529
▁Podstat	-11.855
▁přicházel	-11.8558
nekonečně	-11.8652
▁vnesen	-11.8668
drobnější	-11.8674
▁modifikac	-11.8725
▁zpracoval	-11.8735
▁kolečk	-11.8767
▁ilustr	-11.8773
▁Fotbalov	-11.8784
svěce	-11.8808
▁Sovět	-11.8815
▁stabilizovan	-11.8825
▁spouště	-11.8828
kreslí	-11.8863
▁Obsahuj	-11.8878
▁Svobodn	-11.8899
▁slan	-11.8914
nezávislý	-11.8937
cházely	-11.896
švédsk	-11.8991
▁vyplývají	-11.8996
▁Georg	-11.8998
sledují	-11.9001
▁Ročn	-11.9021
yžaduje	-11.9042
▁slavnostn	-11.9047
▁vycház	-11.9069
dvacátého	-11.9074
▁vybudován	-11.9083
assa	-11.9085
▁společenstv	-11.909
▁uplatněn	-11.9092
▁prodloužen	-11.9095
▁Hlavn	-11.9102
▁produkuj	-11.9103
▁odstraněn	-11.9104
▁public	-11.9107
▁vysílá	-11.9107
oblečen	-11.9132
emigrant	-11.9142
inflační	-11.9142
▁Agassi	-11.9142
▁Hamilton	-11.9142
▁Institut	-11.9142
▁Komárk	-11.9142
▁Nazarbajev	-11.9142
▁Příslušn	-11.9142
▁Suchopár	-11.9142
▁Uživatel	-11.9142
▁bosenskosrbsk	-11.9142
▁hierarchi	-11.9142
▁indián	-11.9142
▁interview	-11.9142
▁kambodžsk	-11.9142
▁neobejde	-11.9142
▁nezměněn	-11.9142
▁onemocněl	-11.9142
▁opodstatněn	-11.9142
▁ovlivňován	-11.9142
▁preparát	-11.9142
▁trinitron	-11.9142
▁štafet	-11.9142
▁živočišn	-11.9142
endotoxin	-11.9142
ymfocyty	-11.9142
▁Bruntál	-11.9142
▁EVROP	-11.9142
▁Galerie	-11.9142
▁Grimaux	-11.9142
▁Kratochvíl	-11.9142
▁Leopold	-11.9142
▁MPEG	-11.9142
▁Nejdůležitější	-11.9142
▁Palestinců	-11.9142
▁Podmínkou	-11.9142
▁Později	-11.9142
▁Umožňuje	-11.9142
▁Vladislav	-11.9142
▁Vltavy	-11.9142
▁Wernisch	-11.9142
▁absolutně	-11.9142
▁celoživotní	-11.9142
▁civilizace	-11.9142
▁demokracií	-11.9142
▁financovat	-11.9142
▁fungovat	-11.9142
▁hnojiv	-11.9142
▁impuls	-11.9142
▁inscenace	-11.9142
▁jihozápad	-11.9142
▁kolísání	-11.9142
▁komplikuje	-11.9142
▁konfrontace	-11.9142
▁kontinuit	-11.9142
▁kopírování	-11.9142
▁lékárny	-11.9142
▁matematice	-11.9142
▁navštěvuj	-11.9142
▁nejjednodušší	-11.9142
▁nepřál	-11.9142
▁nepřístup	-11.9142
▁netradiční	-11.9142
▁nevrátí	-11.9142
▁následovn	-11.9142
▁olympionik	-11.9142
▁otázkám	-11.9142
▁peněženk	-11.9142
▁pochlubit	-11.9142
▁podvojné	-11.9142
▁pokaždé	-11.9142
▁posluchačů	-11.9142
▁prezentovat	-11.9142
▁problematické	-11.9142
▁prosazoval	-11.9142
▁pěveck	-11.9142
▁předpokládané	-11.9142
▁přetrvávají	-11.9142
▁příslušenství	-11.9142
▁reaguje	-11.9142
▁relikvi	-11.9142
▁restituce	-11.9142
▁revoluční	-11.9142
▁rezoluc	-11.9142
▁rámečky	-11.9142
▁schůzce	-11.9142
▁splátky	-11.9142
▁spolehnout	-11.9142
▁spolumajitel	-11.9142
▁státoprávní	-11.9142
▁středoškolsk	-11.9142
▁stříbra	-11.9142
▁televizí	-11.9142
▁usilovně	-11.9142
▁uskupení	-11.9142
▁užitečný	-11.9142
▁velvyslance	-11.9142
▁videozáznam	-11.9142
▁virtuální	-11.9142
▁vytvářel	-11.9142
▁zdůrazňují	-11.9142
▁zveřejnit	-11.9142
▁Úspěch	-11.9142
▁Ústřední	-11.9142
▁3:0	-11.9142
▁Amerika	-11.9142
▁Kovařík	-11.9142
▁Kredba	-11.9142
▁Plečnik	-11.9142
▁Přibliž	-11.9142
▁United	-11.9142
▁VLÁD	-11.9142
▁besedy	-11.9142
▁fanoušky	-11.9142
▁heslem	-11.9142
▁ledovců	-11.9142
▁monument	-11.9142
▁můstku	-11.9142
▁navždy	-11.9142
▁omezuje	-11.9142
▁paprsky	-11.9142
▁poskytoval	-11.9142
▁posloužit	-11.9142
▁připouští	-11.9142
▁vytápěn	-11.9142
▁kritizuj	-11.9142
▁novoroční	-11.9142
▁různorod	-11.9142
▁svrchovaný	-11.9142
▁Ženevě	-11.9142
▁kampani	-11.9142
▁majoritní	-11.9142
▁policií	-11.9142
▁senzor	-11.9142
▁vězeň	-11.9142
buněčný	-11.9142
trénoval	-11.9142
▁Opavy	-11.9142
▁doporučí	-11.9142
▁mikroskopick	-11.9142
▁nenápadn	-11.9142
▁pasivní	-11.9142
▁předchůdce	-11.9142
▁příslib	-11.9142
▁špatná	-11.9142
▁Kambodž	-11.9142
▁dálniční	-11.9142
▁nerentabiln	-11.9142
▁rozvíjen	-11.9142
▁směnitelnost	-11.9142
▁tělocvičn	-11.9142
▁zeptat	-11.9142
▁Čtenář	-11.9142
▁dceřin	-11.9142
▁půjdou	-11.9142
▁dívky	-11.9142
▁licenční	-11.9142
▁nářadí	-11.9142
▁paušál	-11.9142
▁zatykač	-11.9142
OECD	-11.9142
▁Galás	-11.9142
▁Lepší	-11.9142
▁Vyšší	-11.9142
▁nesplnil	-11.9142
▁uprchlíků	-11.9142
▁stěžoval	-11.9142
stěhovat	-11.9142
▁nalézá	-11.9142
▁potravu	-11.9142
▁sazeb	-11.9142
▁potřetí	-11.9142
▁vyjmut	-11.9142
▁shodně	-11.9142
▁nečekané	-11.9142
▁renomovan	-11.9142
ejdražší	-11.9142
vyplácí	-11.9142
▁Chariton	-11.9142
hlížejí	-11.9142
▁Komory	-11.9142
▁Zahrad	-11.9142
▁VZP	-11.9142
▁nevyloučil	-11.9142
▁striktn	-11.9142
▁ukončí	-11.9142
▁uniform	-11.9142
▁detektiv	-11.9142
▁Začíná	-11.9142
▁rozhořč	-11.9142
▁žalud	-11.9142
▁mítinku	-11.9142
▁skládky	-11.9142
▁vyvolané	-11.9142
▁křídle	-11.9142
čerpat	-11.9142
▁mozek	-11.9142
▁středeční	-11.9142
▁Pokles	-11.9142
▁oheň	-11.9142
▁ohranič	-11.9142
▁sérií	-11.9142
▁facto	-11.9142
▁natáčet	-11.9142
▁Fiala	-11.9142
▁elektroniky	-11.9142
Science	-11.9142
▁vážnou	-11.9142
▁omezil	-11.9142
▁organizované	-11.9142
▁rozloučil	-11.9142
▁hájil	-11.9142
▁projednání	-11.9142
▁lichenolog	-11.9142
▁zajímají	-11.9142
▁Přechod	-11.9142
▁večeři	-11.9142
▁tržeb	-11.9142
ejtěžší	-11.9142
konvenční	-11.9142
▁Pakosta	-11.9142
▁přiblížil	-11.9142
▁nedaří	-11.9142
▁bojkot	-11.9142
▁omluvit	-11.9142
▁Oblast	-11.9142
▁nemluvě	-11.9142
▁neúměrn	-11.9142
▁osminásobn	-11.9142
▁Basikov	-11.9142
▁uniká	-11.9142
▁Růst	-11.9143
▁unikátní	-11.9143
▁projekc	-11.9143
▁lidovců	-11.9143
▁papež	-11.9143
▁neočekáv	-11.9143
▁sídliště	-11.9143
▁značek	-11.9143
CHOD	-11.9143
▁Tabul	-11.9143
▁necítí	-11.9143
▁zkuste	-11.9143
▁1:1	-11.9143
▁alfa	-11.9143
▁zákonitě	-11.9143
Soft	-11.9143
▁uvolní	-11.9143
▁krvav	-11.9143
▁jara	-11.9143
▁ztratí	-11.9143
▁železa	-11.9143
▁úpadk	-11.9143
▁vězně	-11.9143
▁charit	-11.9143
krývat	-11.9144
▁nožem	-11.9144
▁rentabilit	-11.9144
▁kouzeln	-11.9144
▁ustálen	-11.9144
▁emisní	-11.9144
▁Instala	-11.9144
▁Považuj	-11.9145
▁Rabac	-11.9145
▁nabídká	-11.9145
▁náhlý	-11.9146
▁Trestn	-11.9147
PRAV	-11.9148
▁lokaliz	-11.9148
▁odchyl	-11.9148
▁poznámka	-11.9148
▁pečuj	-11.9148
▁potěšen	-11.9149
▁hlavičk	-11.915
▁postará	-11.915
▁odečt	-11.9151
▁Daňov	-11.9153
razítk	-11.9155
▁tajemn	-11.9157
▁dovolil	-11.9158
▁Černovic	-11.9158
▁mravenc	-11.9158
▁syrov	-11.9159
ejlépe	-11.9163
▁vyslán	-11.9164
▁zpřístupněn	-11.9164
Liaz	-11.9165
▁bibli	-11.9165
postoupili	-11.9166
▁Lidsk	-11.9167
pravděpodobnější	-11.9169
▁podepíš	-11.9175
▁publicist	-11.9176
díváme	-11.9177
▁opětovn	-11.918
▁celoročn	-11.9182
▁vyučova	-11.9186
▁skřín	-11.9201
▁iniciova	-11.9205
▁přijímán	-11.9211
▁politolog	-11.9215
profit	-11.9224
▁Týk	-11.9225
▁chovají	-11.9235
▁ROK	-11.9236
ýkonný	-11.9243
▁obzvláš	-11.9274
▁odvíj	-11.9311
bílých	-11.9337
▁vyprávěn	-11.9347
nejdůležitějších	-11.9361
▁objednal	-11.9366
▁Stavebn	-11.9369
▁Bomb	-11.937
hrozně	-11.9413
rázem	-11.9499
milionové	-11.9511
alizuje	-11.9517
▁nakupova	-11.952
▁nenechá	-11.954
otemismus	-11.9541
naft	-11.9569
pravděpodobnosti	-11.9574
okouše	-11.9602
▁Nemoc	-11.9642
▁příhod	-11.9716
▁Spíš	-11.9726
▁extrém	-11.9781
▁sobot	-11.9784
▁vyložen	-11.9794
▁Pln	-11.9803
odporuje	-11.9804
▁adaptovan	-11.9832
▁Moravsk	-11.9848
tvořené	-11.986
šéfem	-11.9876
▁vypsán	-11.988
▁zbroj	-11.9921
▁pravděpodobn	-11.9938
ěrnost	-11.9954
hodinovou	-11.9966
▁uspořádán	-11.9979
kategori	-11.9993
počívá	-11.9995
▁zaměstnán	-12.0011
▁Minist	-12.0014
▁nepřiměřen	-12.0019
▁pečliv	-12.0025
realistick	-12.0038
▁zdravotnick	-12.0042
▁půldruh	-12.0051
Vancouver	-12.0051
mýšlejí	-12.0051
▁Basketbal	-12.0051
▁Frederi	-12.0051
▁Inspekt	-12.0051
▁Johannes	-12.0051
▁Lebedě	-12.0051
▁Lisabon	-12.0051
▁Litomyšl	-12.0051
▁Skuhravý	-12.0051
▁baseball	-12.0051
▁diagnostick	-12.0051
▁expedic	-12.0051
▁hypertext	-12.0051
▁komprim	-12.0051
▁netrouf	-12.0051
▁občerstvení	-12.0051
▁olomoucký	-12.0051
▁porcelán	-12.0051
▁potrubí	-12.0051
▁prohlížeč	-12.0051
▁režijní	-12.0051
▁suverénní	-12.0051
▁výkyvů	-12.0051
▁výpovědí	-12.0051
▁zakořeněn	-12.0051
▁zdvojnásob	-12.0051
▁Ázerbájdžán	-12.0051
▁Šumperk	-12.0051
Gabriel	-12.0051
Netscape	-12.0051
avrančíková	-12.0051
emětřesení	-12.0051
onfederace	-12.0051
▁1939	-12.0051
▁ATAPI	-12.0051
▁Allianz	-12.0051
▁Angeles	-12.0051
▁Astronom	-12.0051
▁Austrálii	-12.0051
▁BUDE	-12.0051
▁Bangkoku	-12.0051
▁Beethoven	-12.0051
▁Corser	-12.0051
▁EGAP	-12.0051
▁Helmut	-12.0051
▁Hájek	-12.0051
▁Jozef	-12.0051
▁Kancelář	-12.0051
▁Mandlíkov	-12.0051
▁Mexiku	-12.0051
▁Miloševič	-12.0051
▁Nejstarší	-12.0051
▁Pochopitelně	-12.0051
▁Privatizace	-12.0051
▁Průmyslov	-12.0051
▁Připravuje	-12.0051
▁Shift	-12.0051
▁Sládek	-12.0051
▁Stratton	-12.0051
▁Studie	-12.0051
▁Vogts	-12.0051
▁Vyšetřovatel	-12.0051
▁Werich	-12.0051
▁Zdůraznil	-12.0051
▁Zjednoduš	-12.0051
▁abstraktní	-12.0051
▁agresivit	-12.0051
▁angličtině	-12.0051
▁baktérie	-12.0051
▁besedě	-12.0051
▁bouřliv	-12.0051
▁cílevědom	-12.0051
▁dodávkách	-12.0051
▁efektivnější	-12.0051
▁epimerace	-12.0051
▁eukleidovsk	-12.0051
▁evidence	-12.0051
▁falešné	-12.0051
▁frekvence	-12.0051
▁frekvenci	-12.0051
▁humanitní	-12.0051
▁hypoteční	-12.0051
▁izolace	-12.0051
▁izolaci	-12.0051
▁jazyce	-12.0051
▁jihoafrické	-12.0051
▁kompatibilní	-12.0051
▁konfekční	-12.0051
▁konkurencí	-12.0051
▁kormidelník	-12.0051
▁koupaliště	-12.0051
▁kruzích	-12.0051
▁lokomotiv	-12.0051
▁lustrací	-12.0051
▁makroskopick	-12.0051
▁mechanismem	-12.0051
▁medicíny	-12.0051
▁mezimolekulární	-12.0051
▁mučedník	-12.0051
▁nehrozí	-12.0051
▁neobjevil	-12.0051
▁neoprávněné	-12.0051
▁neoprávněně	-12.0051
▁neuvěřitelné	-12.0051
▁nádhern	-12.0051
▁odkázán	-12.0051
▁oltáře	-12.0051
▁orientované	-12.0051
▁osmifinále	-12.0051
▁paprsků	-12.0051
▁pardubick	-12.0051
▁perfektně	-12.0051
▁pomalejší	-12.0051
▁povědomí	-12.0051
▁pracovištích	-12.0051
▁prokazateln	-12.0051
▁prosperity	-12.0051
▁prozkoumán	-12.0051
▁prémie	-12.0051
▁předměstí	-12.0051
▁přemýšlet	-12.0051
▁přihlásit	-12.0051
▁přijímací	-12.0051
▁přispívá	-12.0051
▁přistěhovalců	-12.0051
▁reciproční	-12.0051
▁smlouvou	-12.0051
▁soustředit	-12.0051
▁stoupající	-12.0051
▁středoškolá	-12.0051
▁terminál	-12.0051
▁tragédie	-12.0051
▁upozorňova	-12.0051
▁vyhrožoval	-12.0051
▁zlepšuje	-12.0051
▁úspěšná	-12.0051
▁ČVUT	-12.0051
▁Šapošnikov	-12.0051
▁1946	-12.0051
▁1969	-12.0051
▁Centrum	-12.0051
▁Impac	-12.0051
▁Lewis	-12.0051
▁Máčala	-12.0051
▁Opatření	-12.0051
▁Typickým	-12.0051
▁Zjistil	-12.0051
▁ambici	-12.0051
▁defekt	-12.0051
▁geometrické	-12.0051
▁nedostatečné	-12.0051
▁nepovažuje	-12.0051
▁novodob	-12.0051
▁skleněn	-12.0051
▁trenéři	-12.0051
▁zahraničně	-12.0051
▁zvyšoval	-12.0051
▁záhrobní	-12.0051
1393	-12.0051
pokročilejší	-12.0051
stěhuje	-12.0051
▁Curych	-12.0051
▁Předpoklad	-12.0051
▁albánsk	-12.0051
▁hazard	-12.0051
▁lístků	-12.0051
▁narychlo	-12.0051
▁pondělní	-12.0051
▁překážek	-12.0051
▁Gračov	-12.0051
▁geometrický	-12.0051
▁kosmetick	-12.0051
▁kuchyně	-12.0051
▁nejvýrazněj	-12.0051
▁pamětí	-12.0051
▁plážové	-12.0051
▁populační	-12.0051
▁využívan	-12.0051
▁zajišťován	-12.0051
▁zamítl	-12.0051
organizoval	-12.0051
▁TBC	-12.0051
▁atropin	-12.0051
▁populací	-12.0051
▁savců	-12.0051
▁zkusit	-12.0051
▁zástupkyn	-12.0051
▁Tradičn	-12.0051
▁ministerské	-12.0051
▁opouští	-12.0051
▁Špaček	-12.0051
▁konstrukci	-12.0051
▁neměnn	-12.0051
▁výhře	-12.0051
▁Slunci	-12.0051
▁instrukc	-12.0051
▁přízemí	-12.0051
▁upřímně	-12.0051
▁východoněmeck	-12.0051
▁úskalí	-12.0051
▁Rázl	-12.0051
▁instrument	-12.0051
▁přiblížit	-12.0051
▁variace	-12.0051
▁vztyčen	-12.0051
▁Dukovan	-12.0051
▁interglaciál	-12.0051
▁knižní	-12.0051
▁úvaze	-12.0051
▁nejcennější	-12.0051
▁potravní	-12.0051
▁specialisté	-12.0051
▁Markoman	-12.0051
▁cítění	-12.0051
▁Shell	-12.0051
▁Vondra	-12.0051
▁databank	-12.0051
▁pesimist	-12.0051
▁rektor	-12.0051
▁svátků	-12.0051
▁zanechal	-12.0051
přijatelnou	-12.0051
▁Sampras	-12.0051
▁Sobot	-12.0051
▁překročil	-12.0051
▁továren	-12.0051
▁National	-12.0051
▁sledovaný	-12.0051
▁rychlá	-12.0051
▁spermat	-12.0051
▁uchovává	-12.0051
▁Zkrátka	-12.0051
▁nájmu	-12.0051
▁Celsia	-12.0051
▁milovník	-12.0051
▁chvílí	-12.0051
všudy	-12.0051
▁poranění	-12.0051
▁Smetan	-12.0051
▁obchodovateln	-12.0051
▁tkáně	-12.0051
▁zpestř	-12.0051
lehčí	-12.0051
▁Nutno	-12.0051
▁Burian	-12.0051
▁učiněn	-12.0051
▁Uhde	-12.0051
▁zkoumají	-12.0051
▁postřeh	-12.0051
▁album	-12.0051
▁výhru	-12.0051
▁zakoupen	-12.0051
▁brestsk	-12.0051
▁hvězdárn	-12.0051
▁Uhrin	-12.0051
▁pojmenování	-12.0051
▁binární	-12.0051
▁Strahov	-12.0051
▁Liberec	-12.0051
▁pravdou	-12.0051
▁Děčín	-12.0051
▁Patří	-12.0051
hřát	-12.0051
▁Pohyb	-12.0051
▁Lucy	-12.0051
▁Igor	-12.0051
▁Baťa	-12.0051
▁převzat	-12.0052
speed	-12.0052
▁embarg	-12.0052
Pérez	-12.0052
▁povaze	-12.0052
▁Vítkovic	-12.0052
▁mohyl	-12.0052
▁deváté	-12.0052
▁rolník	-12.0052
▁jmenovit	-12.0052
▁pohrom	-12.0052
▁patron	-12.0052
▁odstraní	-12.0053
▁namátko	-12.0053
▁Korejsk	-12.0053
▁mléčn	-12.0053
▁erupc	-12.0054
▁Brazilc	-12.0054
▁neznalost	-12.0054
fašist	-12.0054
▁výčt	-12.0054
▁přemístěn	-12.0055
▁návyk	-12.0055
▁sériov	-12.0055
▁specializac	-12.0055
▁jabl	-12.0055
▁nemluví	-12.0055
▁Soukrom	-12.0055
▁směřoval	-12.0056
▁omluvil	-12.0056
vrhnou	-12.0056
▁drtiv	-12.0057
▁zaměřil	-12.0058
▁svržen	-12.0059
▁zaznamenán	-12.0061
▁petic	-12.0062
▁propast	-12.0063
▁antén	-12.0064
▁úseč	-12.0064
▁stezk	-12.0066
▁plášt	-12.0067
▁podlah	-12.0068
▁klesají	-12.0069
▁únav	-12.007
senátor	-12.0072
zabývala	-12.0074
▁cirk	-12.0078
▁kamene	-12.0083
říkajíc	-12.0088
▁dotčen	-12.0099
▁septický	-12.012
▁drastick	-12.0133
▁pekař	-12.0138
▁vyslovuj	-12.014
▁vypouště	-12.0142
▁politič	-12.0148
▁udeř	-12.0152
hlasovali	-12.0157
účtovat	-12.016
bydlel	-12.018
▁oznam	-12.0258
▁nevídan	-12.0282
kreslit	-12.0285
klidný	-12.0291
systém	-12.0294
vládnutí	-12.0323
▁neurolog	-12.0337
▁Jist	-12.0342
▁neporuš	-12.0369
milionář	-12.0371
přinesly	-12.0418
▁rukopis	-12.0453
▁potlač	-12.0498
uskutečnilo	-12.0501
▁prevenc	-12.0598
▁nacionalist	-12.06
sílat	-12.0603
dovozce	-12.0635
mítnut	-12.0745
energetick	-12.0747
▁nekonal	-12.0756
svědčit	-12.0767
▁Ploc	-12.0779
▁vyjíždě	-12.0824
IČK	-12.0868
získaly	-12.0873
▁Doprav	-12.0927
▁nepracuj	-12.0929
▁summit	-12.094
▁putuj	-12.0957
▁úmrtnost	-12.0966
vlášť	-12.0979
▁kysel	-12.0987
smdesát	-12.1
▁Nejvíc	-12.1006
▁přirážk	-12.1008
osmdesáti	-12.1017
oncentrace	-12.1022
▁otevíra	-12.1024
▁hygienic	-12.1037
tabilita	-12.1048
▁tribun	-12.105
prezentují	-12.105
▁odškodn	-12.105
▁Nedostat	-12.1051
▁Hirsch	-12.1051
▁dosažiteln	-12.1051
▁gynekolog	-12.1051
▁halogenovan	-12.1051
▁kontaminovan	-12.1051
▁monoklonální	-12.1051
▁neopakovateln	-12.1051
eřejnoprávní	-12.1051
posluchači	-12.1051
shromáždil	-12.1051
spolupracoval	-12.1051
zprostředkovatel	-12.1051
▁Advokát	-12.1051
▁Arábii	-12.1051
▁Calgary	-12.1051
▁College	-12.1051
▁DIVADL	-12.1051
▁Darwin	-12.1051
▁Dortmund	-12.1051
▁FOTBALOV	-12.1051
▁Gordon	-12.1051
▁Havlíčk	-12.1051
▁Hospital	-12.1051
▁Kalifornie	-12.1051
▁Kanaďan	-12.1051
▁Kočárník	-12.1051
▁Kriminalisté	-12.1051
▁Moldavsk	-12.1051
▁Myšlenk	-12.1051
▁NAŠI	-12.1051
▁Neexistuje	-12.1051
▁Prostřed	-12.1051
▁Rekonstrukc	-12.1051
▁Srbové	-12.1051
▁Stejskal	-12.1051
▁Třebíč	-12.1051
▁Zieleniec	-12.1051
▁angažmá	-12.1051
▁aplikovat	-12.1051
▁brigád	-12.1051
▁deklarovan	-12.1051
▁doporučuji	-12.1051
▁doživotn	-12.1051
▁družstvech	-12.1051
▁důvěra	-12.1051
▁elegans	-12.1051
▁entropie	-12.1051
▁evidují	-12.1051
▁exponáty	-12.1051
▁farmaceut	-12.1051
▁financuje	-12.1051
▁hlístice	-12.1051
[...]
