<unk>	0
<s>	0
</s>	0
<doc>	0
</doc>	0
<head>	0
</head>	0
<phr>	0
</phr>	0
▁	-1.71483
,	-3.25646
.	-3.40435
▁a	-4.31651
▁v	-4.41018
▁se	-4.5006
▁na	-4.63403
a	-4.63813
m	-4.91139
ch	-4.93077
u	-4.95269
▁je	-5.02291
i	-5.03205
y	-5.08506
ho	-5.16441
▁"	-5.20686
▁že	-5.27794
▁z	-5.31785
▁s	-5.35358
▁o	-5.56081
▁do	-5.58279
ou	-5.60122
e	-5.60894
á	-5.64406
o	-5.72581
▁pro	-5.78212
▁-	-5.78776
▁za	-5.85562
í	-5.87168
é	-5.87236
ě	-5.93015
em	-5.93107
▁k	-5.9398
▁to	-5.98009
▁i	-5.98696
s	-6.00125
▁ve	-6.01526
▁(	-6.02413
▁po	-6.03658
▁V	-6.06531
to	-6.09371
▁by	-6.11178
▁ale	-6.20687
>	-6.22247
t	-6.27376
ž	-6.29233
▁si	-6.29563
mi	-6.31322
▁jsou	-6.39789
▁jako	-6.43199
ů	-6.43265
▁které	-6.44946
ý	-6.45413
▁od	-6.46835
▁však	-6.52773
▁při	-6.54537
)	-6.55099
ých	-6.55317
▁:	-6.55385
▁tak	-6.59172
▁který	-6.64445
▁ne	-6.72598
ní	-6.72626
▁nebo	-6.73158
▁jeho	-6.73707
▁bude	-6.74698
?	-6.77088
▁jen	-6.80132
me	-6.87833
x	-6.88444
▁než	-6.88681
▁má	-6.90405
▁A	-6.94891
▁už	-6.95545
▁S	-6.95895
▁aby	-6.96765
▁Na	-6.97737
▁byl	-6.98534
▁Po	-6.99006
▁před	-6.99064
▁jejich	-7.00609
▁jak	-7.01739
▁jsem	-7.01932
▁být	-7.02175
▁až	-7.02238
te	-7.05158
▁která	-7.06739
▁také	-7.07256
▁jsme	-7.1061
▁<	-7.11749
▁podle	-7.11963
▁ze	-7.1253
▁Je	-7.16615
ce	-7.17427
▁Z	-7.17853
mu	-7.18446
▁co	-7.23083
▁není	-7.23762
l	-7.23863
ně	-7.24441
▁bylo	-7.271
▁mezi	-7.27416
▁ani	-7.28333
▁či	-7.2945
z	-7.29604
▁ještě	-7.30249
▁své	-7.30289
ého	-7.31747
▁již	-7.31754
▁když	-7.32034
v	-7.32182
▁může	-7.32732
▁O	-7.32875
ka	-7.34631
▁byla	-7.34837
▁P	-7.37342
▁toho	-7.37422
▁let	-7.37815
kud	-7.38878
k	-7.39901
/	-7.408
▁vy	-7.41207
▁korun	-7.41959
▁pak	-7.45177
▁K	-7.45456
ové	-7.46968
▁další	-7.47044
▁kteří	-7.47716
▁tím	-7.4809
).	-7.48849
▁té	-7.49615
▁kde	-7.51246
▁více	-7.53748
▁roku	-7.54063
▁první	-7.54252
▁tedy	-7.54463
že	-7.55318
p	-7.55331
▁To	-7.56794
d	-7.5805
▁nich	-7.58861
ech	-7.59644
li	-7.60123
ky	-7.60797
▁bez	-7.61151
ek	-7.61335
▁mají	-7.64334
),	-7.64494
▁tu	-7.66842
r	-7.6788
▁roce	-7.68362
▁pouze	-7.68649
▁musí	-7.69119
▁tom	-7.69327
ým	-7.69843
▁pod	-7.69928
▁kdy	-7.70573
-	-7.7066
na	-7.7154
▁li	-7.7161
▁tomu	-7.71675
▁proto	-7.74404
la	-7.74651
▁ke	-7.74752
▁budou	-7.75799
▁třeba	-7.76903
ová	-7.77063
ku	-7.77108
ná	-7.77734
ci	-7.77758
▁protože	-7.77779
▁Za	-7.77823
▁totiž	-7.78518
▁nás	-7.8073
▁lze	-7.81053
▁I	-7.8137
▁proti	-7.81969
n	-7.82926
né	-7.83136
▁byly	-7.85154
▁měl	-7.85358
▁M	-7.85481
▁poslední	-7.85855
▁velmi	-7.85981
▁její	-7.86006
cí	-7.86037
▁asi	-7.86804
▁zatím	-7.86867
▁nad	-7.87753
▁Ne	-7.88246
▁řekl	-7.90372
▁ty	-7.90835
▁Podl	-7.90993
▁včera	-7.91269
▁D	-7.92498
▁dnes	-7.95951
▁firmy	-7.96673
▁dva	-7.9799
ovat	-7.98378
b	-7.98558
▁Pro	-7.98803
▁především	-7.9903
it	-7.99309
▁vlastní	-8.0035
▁případě	-8.01517
▁tisíc	-8.0181
▁'	-8.02412
▁U	-8.02442
▁například	-8.03162
jí	-8.03562
▁J	-8.03615
uje	-8.0377
nou	-8.03871
ách	-8.03903
▁všech	-8.04081
š	-8.04314
▁přes	-8.04446
▁rok	-8.04712
ň	-8.05906
▁době	-8.06072
▁nyní	-8.0632
▁pře	-8.06822
▁mít	-8.07156
j	-8.07422
ovi	-8.07562
▁nám	-8.07826
▁ji	-8.08788
co	-8.09632
▁Při	-8.10353
▁tři	-8.1043
▁lidí	-8.11293
▁jim	-8.11338
▁společnosti	-8.11401
▁mohou	-8.11634
▁práce	-8.11719
ových	-8.12065
č	-8.12563
▁stále	-8.12655
▁těchto	-8.12927
▁ovšem	-8.13063
▁všechny	-8.13373
▁zda	-8.13717
▁Do	-8.1418
▁Ve	-8.14521
▁jeden	-8.1459
ný	-8.15131
lo	-8.15308
▁několik	-8.16474
▁kterou	-8.17442
ost	-8.17719
▁což	-8.18284
ze	-8.19089
▁něm	-8.19661
ování	-8.19864
▁tento	-8.20192
...	-8.20744
▁procent	-8.20794
en	-8.21994
▁možné	-8.22515
▁jde	-8.23366
▁České	-8.23545
ům	-8.24008
▁Ale	-8.24068
▁dvou	-8.24309
▁dalších	-8.24578
▁nové	-8.25113
cela	-8.25617
c	-8.25816
právě	-8.25944
▁měla	-8.26752
▁Jak	-8.26996
▁ČR	-8.27081
▁Praze	-8.2786
▁naše	-8.28663
téměř	-8.28686
▁zejména	-8.28868
▁svou	-8.29298
il	-8.30882
▁strany	-8.31315
▁Proto	-8.32195
▁jednání	-8.32525
▁H	-8.32983
le	-8.33018
▁kdo	-8.33225
▁prostředí	-8.33233
▁zařízení	-8.33647
▁sice	-8.33705
▁letech	-8.33924
▁T	-8.34798
▁základní	-8.35285
▁svého	-8.35431
▁dvě	-8.36301
▁svých	-8.3636
▁Kdy	-8.36583
▁nejen	-8.37771
al	-8.38164
▁větší	-8.38367
▁jiné	-8.38438
st	-8.38671
▁Co	-8.39214
▁naši	-8.3966
ské	-8.39813
▁světa	-8.39992
▁tomto	-8.40564
▁možnost	-8.40686
▁Od	-8.40691
▁místo	-8.40901
▁roz	-8.422
ými	-8.4254
▁každý	-8.42612
▁B	-8.42819
cích	-8.42924
▁nic	-8.43043
▁N	-8.43251
▁Tak	-8.43577
▁000	-8.43579
▁R	-8.43586
ře	-8.4404
▁milionů	-8.44328
▁druhé	-8.44363
▁část	-8.44492
ři	-8.44648
spo	-8.45041
▁něco	-8.45563
▁vlády	-8.45599
▁svým	-8.45761
▁zde	-8.46195
ne	-8.46553
▁stát	-8.46585
▁uvedl	-8.46777
či	-8.47491
▁stejně	-8.47542
no	-8.48325
ných	-8.48357
▁mu	-8.48465
▁ceny	-8.48986
in	-8.49484
▁zákona	-8.49775
▁kolem	-8.4997
▁%	-8.49993
ovou	-8.50554
▁nej	-8.50586
ám	-8.50834
ém	-8.51024
osti	-8.51313
g	-8.51364
▁2	-8.51389
▁C	-8.52128
▁oblasti	-8.52153
at	-8.52483
▁dobře	-8.52684
▁L	-8.52924
▁patří	-8.52993
▁příliš	-8.53004
▁systém	-8.53325
▁tam	-8.53471
▁země	-8.53504
▁říká	-8.53532
▁dosud	-8.53668
▁svůj	-8.53682
ta	-8.54
▁byli	-8.54023
▁některých	-8.54093
▁práci	-8.54346
▁některé	-8.54504
h	-8.55589
▁zboží	-8.55668
ra	-8.55676
▁vůbec	-8.55776
ni	-8.5592
ují	-8.56204
▁opět	-8.56329
ny	-8.56488
▁1	-8.56523
ový	-8.56586
▁G	-8.57349
▁vždy	-8.57961
▁neboť	-8.58256
▁10	-8.58605
▁zemí	-8.59219
▁jež	-8.60099
po	-8.60362
▁firma	-8.6122
▁nejsou	-8.6177
▁sociální	-8.62235
▁často	-8.62365
▁období	-8.62496
▁několika	-8.62508
ří	-8.62645
▁pracovní	-8.62699
▁systému	-8.62908
ští	-8.62973
A	-8.63088
▁finanční	-8.63542
si	-8.63777
ami	-8.63812
▁dokonce	-8.63996
▁den	-8.64179
f	-8.64197
▁jste	-8.64375
S	-8.64381
M	-8.64664
▁USA	-8.65034
▁měli	-8.65102
▁sám	-8.65417
▁Js	-8.6581
▁Kč	-8.66124
el	-8.66394
kou	-8.66416
▁lidé	-8.66665
▁celé	-8.66735
se	-8.67196
lu	-8.6788
▁střední	-8.68008
▁níž	-8.68075
▁rovněž	-8.68214
je	-8.68287
během	-8.68323
▁trhu	-8.6874
ly	-8.6911
▁vyšší	-8.69351
▁počet	-8.69507
▁nimi	-8.69661
▁přímo	-8.69841
▁doby	-8.70152
včetně	-8.70588
vůli	-8.70613
▁části	-8.70944
▁situace	-8.70989
▁takže	-8.71027
T	-8.71109
▁3	-8.7151
▁zahraničí	-8.71797
▁státní	-8.71917
zřejmě	-8.72021
or	-8.72737
▁vše	-8.72988
▁informace	-8.73237
tato	-8.7348
▁mě	-8.73764
▁méně	-8.741
▁mohl	-8.74164
▁společnost	-8.74246
▁hodin	-8.74618
▁Evropy	-8.74678
▁peníze	-8.74683
er	-8.747
▁např	-8.75071
D	-8.75329
▁Zatím	-8.75529
▁pět	-8.75548
▁víc	-8.75563
▁vám	-8.75883
▁něj	-8.75936
▁znamená	-8.75946
▁chce	-8.75955
▁nebude	-8.7617
▁Jan	-8.76234
ově	-8.76281
▁způsobem	-8.76533
▁5	-8.76607
▁takové	-8.76745
▁zákon	-8.77043
▁spíše	-8.77445
▁republiky	-8.77456
vá	-8.77561
▁nemá	-8.78124
on	-8.78182
▁velký	-8.78289
▁dále	-8.78331
▁ten	-8.78596
▁dobu	-8.78758
▁navíc	-8.78943
▁přitom	-8.78968
▁čas	-8.79049
▁První	-8.79629
▁vlastně	-8.79825
▁problémy	-8.79871
▁Ty	-8.80099
▁jednoho	-8.80264
▁sebe	-8.80332
▁české	-8.80504
▁naopak	-8.80701
▁půl	-8.80861
▁ministr	-8.80875
▁čtyři	-8.81213
▁F	-8.81314
▁ředitel	-8.81463
ích	-8.81839
▁obchodní	-8.82
▁města	-8.8273
▁zájem	-8.82808
▁letošní	-8.82909
▁skutečně	-8.82989
▁20	-8.8324
▁straně	-8.83593
▁největší	-8.83789
▁znovu	-8.83899
▁životní	-8.84015
▁vláda	-8.84023
▁jej	-8.84046
▁zahraniční	-8.84201
▁většinou	-8.84208
▁zhruba	-8.8437
▁jednotlivý	-8.84499
▁platí	-8.84534
▁mnoho	-8.84707
▁současné	-8.85151
▁řešení	-8.85239
▁prezident	-8.85441
pl	-8.85556
▁řízení	-8.8575
če	-8.85892
▁území	-8.86169
ného	-8.86305
an	-8.86411
ť	-8.86529
ř	-8.86559
▁jiných	-8.86577
▁Jiří	-8.86639
▁nelze	-8.87142
ru	-8.87232
K	-8.87254
▁celý	-8.87303
vě	-8.87598
▁bych	-8.8785
▁1992	-8.88286
▁začal	-8.88375
▁snad	-8.88479
▁letos	-8.88582
▁mimo	-8.8892
▁smlouvy	-8.8902
▁dolarů	-8.89035
▁rozhodnutí	-8.89249
▁zase	-8.89713
us	-8.89874
tu	-8.89962
▁tzv	-8.90033
▁velké	-8.90036
▁jedné	-8.90182
ko	-8.90629
▁program	-8.90916
▁pomocí	-8.91025
ův	-8.91295
▁množství	-8.91352
▁tří	-8.91389
▁činnosti	-8.91567
▁r	-8.91827
▁naší	-8.92578
▁roky	-8.92967
▁člověk	-8.93008
▁Přesto	-8.93032
▁vás	-8.93084
▁šest	-8.9314
ská	-8.93505
▁světě	-8.93694
ným	-8.93821
R	-8.93833
▁různých	-8.93968
▁hlavní	-8.94315
▁státu	-8.94586
I	-8.94723
▁jednou	-8.94829
▁později	-8.94862
▁můžete	-8.95424
ji	-8.95636
▁programu	-8.95719
by	-8.95849
L	-8.95909
▁ČSFR	-8.96178
▁Petr	-8.96276
▁člověka	-8.96477
▁Vy	-8.96552
čí	-8.96567
▁1.	-8.96683
▁podniku	-8.97033
▁Evropě	-8.97044
▁vedení	-8.97139
▁dost	-8.97264
ro	-8.97327
▁skupiny	-8.97351
B	-8.97462
▁století	-8.97581
oval	-8.97612
▁věci	-8.97934
4	-8.97936
▁služby	-8.98094
▁deset	-8.98099
▁život	-8.98168
va	-8.98271
ský	-8.98284
▁málo	-8.98321
ry	-8.98439
▁rozdíl	-8.98446
▁dlouho	-8.985
da	-8.98502
▁Václav	-8.98574
▁domácí	-8.98784
▁mělo	-8.9914
▁jinak	-8.99157
▁činnost	-8.99291
▁obou	-8.99721
▁prý	-8.99804
▁zároveň	-8.99863
▁Před	-9.00052
▁trh	-9.00081
▁situaci	-9.00227
▁prohlásil	-9.00891
ského	-9.01065
▁snímku	-9.01314
ec	-9.01315
▁náklady	-9.01348
▁spolu	-9.01423
▁nových	-9.01644
ním	-9.01707
▁lepší	-9.01801
▁možná	-9.01851
▁přesto	-9.01896
▁tvrdí	-9.02139
ového	-9.02155
▁prvním	-9.02156
▁cenu	-9.02369
N	-9.0249
▁problém	-9.02572
lá	-9.02619
▁návrh	-9.02722
▁nemůže	-9.02769
▁měly	-9.02787
▁máme	-9.02989
▁jaké	-9.03143
ší	-9.03169
V	-9.03232
▁mohli	-9.03268
▁svět	-9.03382
za	-9.03384
ti	-9.03406
▁děti	-9.03515
kem	-9.03649
▁firem	-9.0414
▁získat	-9.04636
ba	-9.04709
▁Praha	-9.04948
▁států	-9.05162
▁toto	-9.05171
ty	-9.05403
▁ob	-9.05499
ste	-9.05609
▁těch	-9.05656
▁CD	-9.05764
▁majetku	-9.05769
▁nakonec	-9.05828
▁všechno	-9.0591
▁Byl	-9.05981
▁funkce	-9.06146
▁stojí	-9.06281
ri	-9.06335
▁nikdy	-9.06342
nu	-9.06418
re	-9.06596
ující	-9.06809
▁bývalé	-9.06846
2	-9.06891
▁lety	-9.06912
▁svém	-9.07009
▁výši	-9.0704
hl	-9.0712
▁proč	-9.07394
▁1993	-9.07697
▁místě	-9.07798
▁vody	-9.08488
▁americké	-9.08558
▁4	-9.08648
▁stav	-9.08762
▁možnosti	-9.08771
▁jedno	-9.08946
▁konce	-9.08967
▁pěti	-9.08979
nost	-9.09247
▁stavu	-9.09429
▁nového	-9.0945
ím	-9.09461
ova	-9.09501
▁100	-9.09564
▁dříve	-9.09609
▁dnešní	-9.0966
U	-9.09774
▁Prahy	-9.09839
▁třetí	-9.09862
▁sobotu	-9.09883
▁jedna	-9.10314
▁nutné	-9.10434
▁moc	-9.10529
▁Má	-9.10584
▁30	-9.10818
▁mezinárodní	-9.10822
▁nebyl	-9.10887
du	-9.11061
▁parlamentu	-9.11393
▁místní	-9.11765
1	-9.11779
▁přece	-9.11857
▁předseda	-9.1203
▁zemi	-9.12249
▁bychom	-9.12287
▁osob	-9.12382
▁Tento	-9.12455
ov	-9.12621
▁ministerstva	-9.12852
P	-9.12973
▁týden	-9.13081
▁15	-9.134
▁Tato	-9.13663
▁Není	-9.13907
▁podniků	-9.14081
▁informací	-9.14082
▁organizace	-9.14082
▁policie	-9.14082
▁poté	-9.14189
▁všichni	-9.1429
▁samozřejmě	-9.14456
▁Další	-9.14472
▁rychle	-9.14682
▁nikdo	-9.14704
▁můžeme	-9.14738
▁E	-9.14741
3	-9.1478
Á	-9.14805
▁Ten	-9.15277
▁hlavně	-9.15332
▁nový	-9.15375
nebo	-9.15509
lí	-9.15578
▁českých	-9.15756
▁poměrně	-9.15844
▁Kromě	-9.15958
▁prezidenta	-9.15993
▁něho	-9.16021
▁věcí	-9.16161
▁sdružení	-9.16605
trochu	-9.16605
▁dvěma	-9.16626
is	-9.16761
▁stran	-9.16947
▁de	-9.17141
▁50	-9.1718
▁vedoucí	-9.17198
ají	-9.17292
▁Jana	-9.174
▁SSSR	-9.17868
jich	-9.17875
bychom	-9.17901
▁pan	-9.18291
▁Mezi	-9.18516
ních	-9.18575
▁právní	-9.18727
▁Jako	-9.18956
▁dobré	-9.19052
▁kdyby	-9.19117
▁komise	-9.19163
▁podmínky	-9.19163
▁Jestli	-9.19163
▁sobě	-9.19164
▁někdy	-9.19164
▁postup	-9.19727
▁základě	-9.19923
▁pohled	-9.19983
od	-9.20011
▁Evropské	-9.20216
ských	-9.20325
▁zemích	-9.20501
tě	-9.20643
ha	-9.2066
▁došlo	-9.20677
▁výroby	-9.20877
▁čím	-9.20944
▁způsob	-9.21116
▁kromě	-9.21126
C	-9.21135
▁ti	-9.21196
▁většina	-9.21359
dním	-9.21797
▁místa	-9.21805
9	-9.22149
▁ostatní	-9.22159
▁určité	-9.22199
▁hned	-9.22477
ků	-9.22577
▁dál	-9.22735
▁nejlepší	-9.22735
▁života	-9.23019
▁p	-9.23642
▁tehdy	-9.23832
▁rozpočtu	-9.23833
▁hry	-9.23971
bu	-9.24072
▁podíl	-9.2421
▁druhý	-9.2448
▁vysoké	-9.24515
▁jistě	-9.24538
▁cena	-9.24548
ví	-9.24626
▁východní	-9.24635
▁malé	-9.24957
▁jich	-9.25027
▁mnoha	-9.25048
O	-9.25101
▁teď	-9.25209
▁prohlášení	-9.25288
▁milionu	-9.25368
▁nebylo	-9.2559
ve	-9.25605
▁vývoj	-9.25655
▁prostor	-9.2568
▁prosince	-9.25899
▁prostředky	-9.259
▁poprvé	-9.25903
ma	-9.26048
▁dne	-9.26194
▁času	-9.26324
▁stejné	-9.26385
▁jedn	-9.2648
▁unie	-9.266
▁Š	-9.27175
▁sto	-9.27212
▁spolupráci	-9.27303
▁výsledky	-9.27314
▁teprve	-9.27325
▁opatření	-9.27331
▁jenž	-9.27497
▁nějak	-9.27922
▁dodal	-9.28048
▁výrazně	-9.28059
▁žádné	-9.28188
▁já	-9.28292
▁večer	-9.28324
▁40	-9.28409
▁ním	-9.28423
▁prakticky	-9.28765
▁vnitřní	-9.28849
de	-9.28924
ar	-9.29047
▁200	-9.29086
▁čtyř	-9.292
ení	-9.2922
▁potom	-9.2928
▁tvoří	-9.29339
▁procenta	-9.29395
▁hlediska	-9.29446
▁prostřednictví	-9.29446
▁utkání	-9.29476
▁zdravotní	-9.29536
▁jí	-9.29576
▁Ta	-9.29636
et	-9.29676
hle	-9.29758
mohlo	-9.2984
▁nepo	-9.29971
▁podnik	-9.30126
▁republice	-9.3017
▁kterým	-9.30234
▁ministra	-9.30275
▁velice	-9.30277
▁celou	-9.30282
▁premiér	-9.30285
▁obě	-9.30353
ické	-9.30522
▁osm	-9.30531
▁ODS	-9.3061
▁mnoh	-9.30639
▁někdo	-9.30902
▁daně	-9.30918
▁6	-9.31277
▁vliv	-9.31284
▁pár	-9.31548
▁nižší	-9.31636
▁dispozici	-9.31637
▁akce	-9.31658
▁souvislosti	-9.31717
díky	-9.3177
Z	-9.31827
tr	-9.31937
▁řadu	-9.32031
▁typu	-9.32074
▁1990	-9.32377
▁minut	-9.32399
mohla	-9.32568
▁změny	-9.32889
▁obyvatel	-9.32998
▁rámci	-9.33124
▁ledna	-9.33129
še	-9.33326
▁mne	-9.33426
▁stal	-9.33504
▁názor	-9.33601
▁původní	-9.33642
▁sebou	-9.33725
▁dat	-9.33729
▁budeme	-9.33788
▁doma	-9.3384
▁menší	-9.3387
▁nejméně	-9.33885
▁podařilo	-9.33968
▁státy	-9.34614
▁roli	-9.34645
▁různé	-9.34748
▁vítězství	-9.34896
lé	-9.3496
▁čs	-9.34963
val	-9.34987
▁nevy	-9.35017
vol	-9.35046
jší	-9.35169
nější	-9.35214
▁Například	-9.35395
▁podnikání	-9.35412
os	-9.35442
děl	-9.35516
▁prostě	-9.35518
▁ta	-9.35754
ější	-9.35827
▁výše	-9.35972
▁opravdu	-9.36168
▁Jde	-9.36199
▁Se	-9.36374
▁právo	-9.36384
▁tolik	-9.3657
▁západní	-9.36843
tra	-9.36901
▁smlouvu	-9.3694
▁miliónů	-9.36961
▁náš	-9.3697
▁nejvyšší	-9.36977
▁minulý	-9.37004
▁nedávno	-9.37005
▁peněz	-9.3703
▁miliard	-9.37348
▁význam	-9.37502
ila	-9.37681
▁Jen	-9.37685
▁funkci	-9.37721
E	-9.37735
▁Dnes	-9.3776
▁zvýšení	-9.37841
▁služeb	-9.37877
▁loni	-9.37968
tá	-9.38402
0	-9.38411
▁soud	-9.38506
▁okolí	-9.38536
▁Kdo	-9.38554
▁měsíců	-9.38632
▁středu	-9.3872
w	-9.38779
▁kam	-9.38879
▁žádný	-9.38898
es	-9.39269
▁koaliční	-9.39302
▁ministerstvo	-9.39302
▁chtějí	-9.39302
▁dnech	-9.39334
▁pojištění	-9.39401
▁W	-9.39453
ovým	-9.39742
▁politické	-9.39773
▁vů	-9.40073
ců	-9.40093
▁jiného	-9.40152
▁metrů	-9.40159
▁postupně	-9.40189
▁šesti	-9.403
▁úřadu	-9.4035
▁rady	-9.40371
▁Windows	-9.4038
proti	-9.40435
▁zahraničních	-9.40575
▁12	-9.40721
▁získal	-9.40768
▁zisk	-9.40929
▁společenství	-9.40943
▁svazu	-9.41002
▁8	-9.41116
ální	-9.4124
▁trenér	-9.41276
vi	-9.41316
let	-9.41482
▁pomoc	-9.41776
▁členů	-9.41878
5	-9.42345
▁nemusí	-9.42541
▁číslo	-9.42551
▁Pak	-9.42692
▁Zde	-9.42757
▁pracovníků	-9.42792
▁25	-9.43041
▁podobně	-9.43268
▁podporu	-9.43312
▁zástupce	-9.43377
ol	-9.43385
▁nadále	-9.43427
▁Bude	-9.43459
▁klubu	-9.43494
ému	-9.43627
▁počtu	-9.44007
kr	-9.44043
▁1991	-9.4409
▁osobní	-9.4423
▁text	-9.4437
ovali	-9.44666
▁týmu	-9.44823
▁ročně	-9.44902
▁podniky	-9.44927
▁snaží	-9.44977
▁Většin	-9.45041
▁hospodářství	-9.45041
▁nabídky	-9.45041
▁lépe	-9.45043
▁přibližn	-9.45156
▁MS	-9.45261
▁Ani	-9.45369
▁každ	-9.45544
▁7	-9.45739
▁podstatně	-9.45871
▁malý	-9.45873
▁umožňuje	-9.45889
▁výkon	-9.45891
▁jenom	-9.45936
▁dostal	-9.46063
▁růst	-9.46137
▁hodně	-9.46153
▁přesně	-9.46162
▁fondu	-9.46405
▁chování	-9.46467
Dr	-9.46501
▁provoz	-9.46517
▁slova	-9.4658
▁musíme	-9.46689
▁začíná	-9.46744
▁považuje	-9.46749
▁1994	-9.46762
▁říci	-9.46762
▁případech	-9.46785
▁novou	-9.46797
▁městě	-9.46868
ká	-9.46976
▁Ko	-9.46999
▁banky	-9.47149
▁deseti	-9.47246
▁objekt	-9.47303
▁řada	-9.47372
▁pomoci	-9.47445
▁možností	-9.47569
▁sítě	-9.47608
▁obvykle	-9.47618
▁oddělení	-9.47694
skou	-9.47701
▁vede	-9.47728
▁cen	-9.47771
▁vedle	-9.47886
▁českého	-9.47887
▁zdá	-9.48114
▁nebyla	-9.48127
ob	-9.48236
ši	-9.48342
▁18	-9.48404
▁otázku	-9.48475
▁výrobků	-9.48478
▁politiky	-9.48523
▁průběhu	-9.48701
▁kterém	-9.48785
ání	-9.48946
▁celkové	-9.48986
dy	-9.49153
▁miliardy	-9.49171
▁nabízí	-9.49352
mž	-9.49369
▁nemají	-9.49381
▁ulici	-9.49414
▁zdrojů	-9.49483
▁11	-9.49504
ter	-9.49877
tí	-9.50128
▁skutečnost	-9.5019
pe	-9.50191
▁Už	-9.50201
▁cestu	-9.50207
▁otázky	-9.50237
▁úrovni	-9.50237
▁chvíli	-9.50237
▁celkem	-9.50239
▁Česká	-9.50242
ili	-9.50451
ční	-9.50499
▁moci	-9.50751
▁pražské	-9.50796
▁dá	-9.50944
▁takto	-9.50946
▁16	-9.51047
▁názoru	-9.5107
▁dosavadní	-9.51072
▁mistrovství	-9.51133
▁textu	-9.51204
▁dohody	-9.5128
▁postavení	-9.51311
▁objektů	-9.51361
▁změn	-9.51439
▁jednom	-9.51599
dr	-9.51901
▁hrát	-9.51966
▁14	-9.51977
▁dětí	-9.52031
▁energie	-9.52031
▁NATO	-9.52032
▁sedm	-9.52262
▁působí	-9.52397
ať	-9.5243
ství	-9.52595
▁společností	-9.52655
▁platit	-9.52695
▁přístup	-9.52764
▁bývalý	-9.52827
▁tržní	-9.52898
▁takový	-9.52916
▁finále	-9.5294
▁představuje	-9.53005
▁listopadu	-9.53023
▁jejím	-9.53038
▁setkání	-9.53117
vý	-9.53133
▁měsíce	-9.53152
▁kterých	-9.53214
▁sama	-9.53219
man	-9.53311
▁Ze	-9.53319
▁neu	-9.53365
▁Klaus	-9.53431
▁my	-9.53607
▁každé	-9.53686
▁světové	-9.53687
▁prostředků	-9.53858
▁čtvrtek	-9.53873
▁sil	-9.53879
▁Ještě	-9.53895
▁Tím	-9.53907
▁současně	-9.54018
▁her	-9.54019
▁řadě	-9.54046
▁obchodního	-9.54127
▁národní	-9.54209
▁hráčů	-9.54249
▁příští	-9.54293
▁zdroje	-9.54327
▁sami	-9.54456
▁volební	-9.54607
▁oba	-9.54722
▁Navíc	-9.54784
▁Nyní	-9.54786
▁výrobky	-9.54788
▁OSN	-9.54791
▁produkce	-9.54792
▁atd	-9.54829
▁2.	-9.54871
ační	-9.54874
▁nikoli	-9.54875
▁neděli	-9.54962
00	-9.55066
▁slov	-9.55154
▁musel	-9.55189
pa	-9.55404
▁skutečnosti	-9.5547
rt	-9.55534
dl	-9.55576
▁Josef	-9.55718
▁federální	-9.55718
▁zasedání	-9.55723
▁kvalitní	-9.55758
▁muset	-9.55779
▁všem	-9.5604
dí	-9.56059
▁St	-9.56108
▁výboru	-9.56228
▁poně	-9.56271
▁přiče	-9.56345
▁hlavním	-9.564
vr	-9.56595
▁uvádí	-9.5661
ěte	-9.56676
▁začátku	-9.56698
▁srovnání	-9.56734
řitom	-9.56856
▁akcií	-9.56894
▁hodnoty	-9.56912
▁součástí	-9.56939
▁mluvčí	-9.57027
▁jiný	-9.57049
▁tým	-9.57097
▁prezentace	-9.57188
▁obchodu	-9.57197
▁školy	-9.57203
▁provozu	-9.57602
▁teorie	-9.57614
▁privatizace	-9.57614
▁apod	-9.57617
▁míst	-9.57635
▁jasné	-9.57663
▁společné	-9.57705
▁zvláštní	-9.57828
▁těm	-9.58089
▁problémů	-9.58096
▁generální	-9.58373
▁objektu	-9.58397
▁kterého	-9.58444
▁olympijské	-9.58605
▁dopravy	-9.58651
▁domů	-9.58662
▁plně	-9.5877
▁1989	-9.58779
▁Pře	-9.58786
▁poslanců	-9.58793
▁jednotlivé	-9.58811
nutí	-9.58852
▁buď	-9.58921
krát	-9.58936
▁telefonní	-9.59233
▁dává	-9.59264
▁chtěl	-9.59312
▁výzkum	-9.59364
ované	-9.59376
prve	-9.59426
▁našem	-9.59489
▁ekonomické	-9.59508
▁veřejné	-9.59546
▁zdravotnictví	-9.59546
▁Někter	-9.59549
ali	-9.59565
▁umění	-9.59569
id	-9.59587
▁kole	-9.59597
▁kolik	-9.59846
▁údaje	-9.59852
▁věc	-9.60104
▁Bylo	-9.60104
▁nez	-9.60285
▁ME	-9.60326
▁dalším	-9.60342
▁práva	-9.6037
pr	-9.60533
▁podobě	-9.60563
▁ostatních	-9.60612
▁investice	-9.60646
▁kultury	-9.60679
▁noci	-9.60734
▁státního	-9.60977
▁skupina	-9.60998
▁celého	-9.61035
▁24	-9.61097
▁úřad	-9.61298
např	-9.61383
▁dr	-9.61449
▁Ivan	-9.61534
▁čeká	-9.61588
▁společně	-9.6161
▁přednost	-9.61622
▁zájmu	-9.61634
▁Proč	-9.61663
▁snadno	-9.61737
▁soutěže	-9.61754
▁smrti	-9.61834
▁občanů	-9.61839
▁strana	-9.61851
ck	-9.62103
▁předem	-9.62271
▁Toto	-9.6228
▁tisíce	-9.62352
▁obsah	-9.62359
▁jméno	-9.62518
▁politických	-9.6257
▁pracovat	-9.62571
▁vod	-9.62653
▁vzájemn	-9.62775
▁Stejn	-9.6353
▁snímek	-9.63533
▁zdraví	-9.6354
▁lidi	-9.63574
▁vytvoření	-9.63613
▁důvodů	-9.63659
▁nejvíce	-9.63729
sti	-9.63939
▁moderní	-9.64126
▁list	-9.6434
lou	-9.64406
▁soudu	-9.64434
▁vybavení	-9.64443
6	-9.64516
▁Jaroslav	-9.64547
H	-9.6457
CH	-9.64637
▁vzhledem	-9.64653
aci	-9.64679
▁velkou	-9.6468
▁Český	-9.64768
▁mužů	-9.64801
000	-9.64904
▁konkrétní	-9.6493
však	-9.65012
▁hráči	-9.65026
▁počítače	-9.65133
▁hnutí	-9.65173
▁otázka	-9.65385
▁okolo	-9.65582
▁Země	-9.65585
ák	-9.65724
▁Nej	-9.65736
▁Ti	-9.65781
▁hodiny	-9.66085
▁film	-9.66224
▁spíš	-9.66254
▁jisté	-9.66485
nosti	-9.66612
▁náměstí	-9.6662
▁delší	-9.66621
▁někteří	-9.66624
▁zástupci	-9.66625
▁září	-9.66627
▁rukou	-9.66627
▁kilometrů	-9.66652
▁zaměstnání	-9.66653
▁obsahuje	-9.66661
svoji	-9.66826
▁věku	-9.66829
▁chyb	-9.66863
▁koncem	-9.66887
▁oboru	-9.66903
▁60	-9.67046
ice	-9.67064
▁skupin	-9.67081
▁mohly	-9.67133
str	-9.67168
▁vládní	-9.67179
fi	-9.6731
ovy	-9.67598
▁výsledek	-9.67672
▁cestovní	-9.67673
▁nějaké	-9.67676
vy	-9.67716
▁mám	-9.67726
▁přišel	-9.67779
▁druhů	-9.6783
op	-9.67912
▁zkušenosti	-9.67964
ostí	-9.68078
▁hospodářské	-9.68208
▁těžko	-9.6826
br	-9.68286
▁cizí	-9.68299
▁Kčs	-9.68359
▁objekty	-9.68437
ven	-9.68447
F	-9.68459
▁Pavel	-9.68668
hr	-9.68722
▁nebudou	-9.68737
▁Může	-9.68737
▁podmínek	-9.68739
▁dnů	-9.6874
▁koalice	-9.68802
▁případ	-9.68906
▁stavební	-9.68908
▁neza	-9.6894
▁celkov	-9.69027
čky	-9.69034
▁zaměstnanců	-9.69057
▁existuje	-9.69097
▁český	-9.69232
▁smyslu	-9.69305
▁zůstává	-9.69331
▁běžné	-9.69495
▁každého	-9.69496
▁dobrý	-9.69557
▁šéf	-9.69672
▁bývá	-9.69722
ul	-9.69763
▁úroveň	-9.69812
▁tady	-9.69828
▁škol	-9.69926
▁Podobn	-9.69942
▁minulosti	-9.69967
pravidla	-9.70021
▁loňské	-9.70098
ú	-9.70222
▁dvacet	-9.70236
▁daleko	-9.70273
viz	-9.70541
▁spojení	-9.70605
▁účast	-9.70605
▁případně	-9.70754
▁pátek	-9.70899
▁praxi	-9.70899
▁poslanci	-9.70901
▁republik	-9.70931
ur	-9.70973
▁určitě	-9.71049
▁jediný	-9.71061
▁Každý	-9.71061
▁zpět	-9.71073
▁Já	-9.71207
▁pozornost	-9.7134
▁rychlost	-9.71373
▁Jelcin	-9.71521
▁Brně	-9.71653
▁důležité	-9.71997
▁vidět	-9.71997
▁šanci	-9.71998
▁konci	-9.72015
▁dal	-9.72044
▁kvality	-9.72057
ran	-9.72157
▁možno	-9.7235
▁doba	-9.72386
▁13	-9.72402
▁použití	-9.72516
▁prvního	-9.72703
▁druhém	-9.72838
▁zápas	-9.72912
▁krok	-9.73049
▁síly	-9.73113
▁volbách	-9.73116
▁července	-9.73125
ev	-9.73134
▁dny	-9.73138
▁nikoliv	-9.73192
▁změnit	-9.73275
▁odpovídá	-9.73283
▁knihy	-9.7339
▁Německa	-9.73493
▁členy	-9.73565
do	-9.73617
▁nebezpečí	-9.73856
▁rozvoj	-9.73913
▁řád	-9.73968
ing	-9.74126
šlo	-9.74216
▁nákladů	-9.74271
▁vztah	-9.74276
▁podstatě	-9.74278
▁ruské	-9.74646
▁tisku	-9.74732
▁Ma	-9.74746
▁činí	-9.74923
ed	-9.74979
▁stačí	-9.75064
▁práv	-9.75096
▁obraz	-9.7519
▁č	-9.75337
▁technologie	-9.75369
▁tepla	-9.75369
▁úplně	-9.75375
▁výrobu	-9.7544
▁představitelé	-9.7546
▁investiční	-9.75471
▁Ministerstv	-9.75508
▁projekt	-9.75629
▁druhou	-9.75693
rad	-9.75749
▁podobné	-9.75948
ník	-9.76001
▁techniky	-9.76096
▁domu	-9.76187
▁Re	-9.76213
▁Již	-9.76277
▁podnikatele	-9.76417
▁míry	-9.76586
▁celá	-9.7662
▁volby	-9.76673
▁pracuje	-9.76678
▁léta	-9.76799
ovala	-9.76819
ad	-9.76842
ROM	-9.76844
▁zprávy	-9.76876
ží	-9.76939
ace	-9.76949
▁voleb	-9.77058
▁fond	-9.77136
▁fakt	-9.77138
pra	-9.77199
▁vznikl	-9.77242
▁údajn	-9.77406
rn	-9.77633
▁dvakrát	-9.77722
▁klub	-9.77727
▁polovin	-9.77731
▁vytvořit	-9.77748
▁televizní	-9.77798
▁chcete	-9.7793
▁vlastnosti	-9.77971
▁návrhu	-9.78004
▁bytů	-9.78017
▁světový	-9.78111
▁parlament	-9.78153
gr	-9.78345
▁též	-9.78369
8	-9.7837
skoro	-9.78385
nout	-9.78424
▁muž	-9.7843
▁fotbalové	-9.78522
ant	-9.78666
▁tun	-9.78744
▁financí	-9.78857
▁konečně	-9.78897
ga	-9.78925
▁SR	-9.79078
▁nedo	-9.79083
▁každém	-9.79119
▁typ	-9.7914
▁dělat	-9.7916
▁Jedno	-9.79168
▁jít	-9.7944
vláště	-9.7956
ilo	-9.79572
▁vyhrál	-9.79748
▁bod	-9.79758
▁nes	-9.79806
zhledem	-9.80006
▁federace	-9.80048
▁použít	-9.80048
▁firmě	-9.80056
▁Jeden	-9.80062
▁Bez	-9.80063
▁evropských	-9.80087
▁Všechny	-9.80103
▁současnosti	-9.80129
▁zpracování	-9.80139
▁průmyslu	-9.80298
▁bodů	-9.80299
▁vojenské	-9.8033
▁Německu	-9.80348
án	-9.80497
lit	-9.80645
▁model	-9.80669
dnu	-9.8076
zn	-9.80832
▁rád	-9.81001
▁termín	-9.8111
nik	-9.81166
▁rozhodující	-9.81244
▁pravděpodobně	-9.81249
▁Právě	-9.81252
▁Společenství	-9.81252
▁Vladimír	-9.81252
▁zbraní	-9.81253
▁nejlépe	-9.81253
▁původně	-9.8127
▁Běh	-9.81274
▁osoby	-9.81288
kové	-9.81346
▁ženy	-9.81363
▁objeví	-9.81415
▁Zeman	-9.81418
▁ředitele	-9.81506
▁jaký	-9.81528
▁Firma	-9.81615
▁schopn	-9.81662
▁prodej	-9.8167
▁amerických	-9.81739
▁cílem	-9.81754
▁Mar	-9.81764
▁80	-9.81804
vo	-9.81943
▁následující	-9.82031
pro	-9.82044
▁byt	-9.8209
▁olympijský	-9.82366
▁prostoru	-9.82484
▁udělat	-9.825
▁počítač	-9.82505
íky	-9.82527
▁sněmovny	-9.8253
▁počítá	-9.82583
bal	-9.82601
▁vhodné	-9.8268
bor	-9.82706
▁kulturní	-9.8275
▁žen	-9.82765
nice	-9.82807
značně	-9.82812
▁dlouhé	-9.83155
▁důvod	-9.83177
▁Ch	-9.83244
▁lékaře	-9.83284
▁těmi	-9.83406
▁růstu	-9.8349
▁zisku	-9.83546
ací	-9.83569
▁Miloš	-9.83635
▁dvaceti	-9.8366
▁patrně	-9.83701
▁informační	-9.83707
▁čísla	-9.83707
▁brzy	-9.83707
▁hovoří	-9.83721
▁obrany	-9.83835
▁vodní	-9.83937
sk	-9.84009
▁ústavu	-9.8407
▁rokem	-9.84097
▁veřejnosti	-9.8426
▁17	-9.84401
▁vědecké	-9.84436
▁Ú	-9.84448
▁pravda	-9.84458
ic	-9.84514
ily	-9.84622
Í	-9.84655
kách	-9.84745
▁roční	-9.84752
▁závod	-9.84945
raději	-9.84954
7	-9.84956
▁většinu	-9.84957
▁jinde	-9.84957
▁péče	-9.84957
▁začne	-9.84963
▁nemohou	-9.84971
▁úspěch	-9.84973
▁dovolenou	-9.85006
▁vládě	-9.85051
▁denně	-9.85202
▁prací	-9.85258
▁čem	-9.85416
▁slovo	-9.85432
▁data	-9.85433
▁výrobce	-9.85463
nit	-9.8547
▁stala	-9.85472
▁takovou	-9.85487
▁Ná	-9.85488
zí	-9.85535
▁ES	-9.85539
J	-9.85648
▁vědět	-9.85731
▁národního	-9.8575
▁nejbližší	-9.85979
nými	-9.85995
▁aplikace	-9.86138
▁speciální	-9.86153
▁pokračovat	-9.86222
▁pozadí	-9.86223
▁látky	-9.86224
sta	-9.86229
▁sluneční	-9.86317
▁re	-9.86442
▁potřebné	-9.86618
▁starší	-9.86751
▁zranění	-9.86835
▁stalo	-9.86848
▁procesu	-9.86887
NÍ	-9.87087
▁19	-9.87196
▁dosáhl	-9.87215
▁Ro	-9.87331
▁UEFA	-9.87504
▁demokracie	-9.87504
▁důležitý	-9.87504
▁oficiální	-9.87504
▁označil	-9.87504
▁televizi	-9.87504
▁Havel	-9.87506
▁nijak	-9.8751
▁ukazuje	-9.87526
▁okamžitě	-9.87528
▁hodnocení	-9.87537
▁nebyly	-9.87552
▁míru	-9.87591
▁zabývá	-9.87609
▁Spojený	-9.87636
▁určen	-9.87694
ního	-9.87699
▁budoucí	-9.87795
▁cesty	-9.87829
▁plné	-9.87885
▁bezpečnosti	-9.87909
▁výbor	-9.87942
▁naprosto	-9.87985
▁svaz	-9.88015
▁vzniku	-9.88131
▁body	-9.882
▁výběr	-9.88245
▁odborné	-9.88369
▁Nové	-9.88389
▁dát	-9.88393
len	-9.88396
▁třicet	-9.88405
▁odmítl	-9.88471
▁oblast	-9.88545
▁trvá	-9.88692
třech	-9.88797
▁majetek	-9.88803
▁řečeno	-9.88804
▁počasí	-9.88805
▁2000	-9.8881
▁členové	-9.88852
▁stanice	-9.88977
▁kanceláře	-9.89025
▁potřeby	-9.89042
▁vládu	-9.8906
▁ČSSD	-9.89072
ovaných	-9.89154
mj	-9.89231
▁nová	-9.89385
▁rozšíření	-9.89417
▁řady	-9.89423
▁zákony	-9.89428
▁lékaři	-9.89432
jící	-9.89513
▁bank	-9.89643
▁systémů	-9.8975
▁Nový	-9.89758
▁lidský	-9.89816
▁druh	-9.89827
ském	-9.899
▁500	-9.90056
▁Měl	-9.9006
▁vývoje	-9.90072
▁hranice	-9.90097
▁názvem	-9.90119
▁onemocnění	-9.90119
▁požadavky	-9.90119
▁rozhodně	-9.90121
▁nějaký	-9.9013
▁lidem	-9.90167
▁ekonomiky	-9.90174
▁dosáhnout	-9.90196
▁příjmy	-9.90214
hu	-9.90234
▁podobný	-9.90303
▁téma	-9.90351
▁Slovensku	-9.90372
▁Martin	-9.9051
▁Tu	-9.90545
ič	-9.90566
▁pole	-9.90721
G	-9.90774
▁smysl	-9.90823
▁počátku	-9.90971
▁rada	-9.90981
▁přístupu	-9.91146
há	-9.91194
▁dokáže	-9.91431
▁konference	-9.91452
▁televize	-9.91452
▁ligy	-9.91454
▁vánoční	-9.91455
▁dostat	-9.91457
▁policejní	-9.91458
▁Státní	-9.91593
▁jednak	-9.91597
▁hlavního	-9.91645
▁mechaniky	-9.91696
ovací	-9.91779
▁Čech	-9.91905
▁řekla	-9.91925
▁celém	-9.91967
▁výsledků	-9.92037
▁trestní	-9.92056
▁lékař	-9.92087
▁společného	-9.92301
▁300	-9.92318
▁prodeje	-9.92441
▁nepři	-9.92469
▁soubor	-9.92581
ver	-9.92747
▁poskytuje	-9.92804
▁Československu	-9.92804
▁vnitra	-9.92804
▁Prezident	-9.92807
▁velká	-9.92807
▁parlamentní	-9.9291
▁vstup	-9.92946
▁nechal	-9.92994
mysl	-9.93019
brž	-9.93051
▁škody	-9.93061
▁Aby	-9.93062
▁osmi	-9.93065
▁70	-9.93082
▁rychlostí	-9.93159
▁druhá	-9.93173
▁proces	-9.93175
▁Že	-9.93188
▁Velké	-9.93336
▁disk	-9.93369
▁závěru	-9.93406
▁obchod	-9.9346
▁PowerPoint	-9.93463
▁výrobní	-9.93511
▁souboru	-9.93512
▁druhu	-9.9353
▁skončil	-9.93615
▁majitel	-9.93642
▁obrat	-9.93764
▁řad	-9.93764
▁druhého	-9.94097
as	-9.94108
▁Ke	-9.94113
▁zemědělství	-9.94174
▁látek	-9.94175
▁desítky	-9.94179
hal	-9.94182
▁zákonů	-9.94183
▁najít	-9.94186
▁měsících	-9.9419
▁Čechách	-9.94209
▁Atlantě	-9.94239
▁správy	-9.94244
▁dopravní	-9.9429
▁zákoníku	-9.94346
▁měsíc	-9.94346
▁Pan	-9.94383
▁vydání	-9.94395
▁jinou	-9.94397
▁město	-9.94418
ík	-9.94431
▁povinnost	-9.94633
▁efekt	-9.94745
méně	-9.94751
▁vývoz	-9.94847
▁čele	-9.94848
ící	-9.94873
▁výběru	-9.94923
cen	-9.94937
▁rozhodl	-9.94999
tím	-9.95004
▁22	-9.95008
▁takového	-9.95016
▁Tr	-9.95154
▁hráč	-9.95187
▁jednat	-9.95309
ován	-9.95372
ček	-9.95433
▁schopen	-9.95562
▁Francie	-9.95562
▁nabídku	-9.95563
▁ustanovení	-9.95563
▁snímků	-9.95564
▁hudební	-9.95611
▁uplatnění	-9.95622
▁evropské	-9.95667
šel	-9.95674
▁ráno	-9.95676
SK	-9.95773
▁státech	-9.95796
dávají	-9.95838
čka	-9.95879
kov	-9.95952
▁oznámil	-9.96001
▁začali	-9.96067
▁přijde	-9.96138
▁získá	-9.9626
and	-9.96265
▁Cel	-9.96372
▁dní	-9.96396
▁soukromé	-9.96523
bou	-9.96555
▁změna	-9.96589
▁nepro	-9.96708
▁nim	-9.96712
pat	-9.96732
▁seznamu	-9.96943
▁dalšího	-9.96955
▁těžké	-9.96971
▁využít	-9.96971
▁působení	-9.96972
▁přijetí	-9.96973
▁pokus	-9.96975
▁hodlá	-9.9698
▁školství	-9.9698
▁rozpočet	-9.96981
▁zajistit	-9.97011
▁tentokrát	-9.97013
▁převážně	-9.97053
▁pořadí	-9.97183
▁Cen	-9.97185
▁částky	-9.97203
▁Takže	-9.97217
▁vysokou	-9.97218
▁jiná	-9.9727
stav	-9.97274
▁vyplývá	-9.97302
▁okamžiku	-9.97319
▁chybí	-9.97355
sku	-9.97372
▁Přes	-9.97514
▁minulé	-9.97591
▁využití	-9.97671
▁ex	-9.97906
▁chtěli	-9.97924
▁Roz	-9.98146
▁názory	-9.98148
▁nesmí	-9.98173
▁ceně	-9.98252
▁Její	-9.98299
▁předpokládá	-9.98317
▁spolupráce	-9.98399
▁nejrůznější	-9.984
▁Mezinárodní	-9.98407
▁směrem	-9.9847
▁povolení	-9.98475
▁místech	-9.98478
▁údajů	-9.98487
klad	-9.98526
▁cestou	-9.98615
▁připraven	-9.98619
▁nejde	-9.98667
▁řešit	-9.98711
▁bohužel	-9.98885
▁družstva	-9.98885
▁máte	-9.9889
▁myslím	-9.99366
čet	-9.99436
▁výzkumu	-9.99441
▁němu	-9.99459
▁potřebuje	-9.99537
▁21	-9.99583
▁vznik	-9.99588
▁Pod	-9.99616
▁systémy	-9.99628
▁dodává	-9.99651
sp	-9.99686
▁jestli	-9.99814
▁pondělí	-9.99849
▁prezentaci	-9.99849
▁ohledu	-9.99867
▁armády	-9.99901
▁uvedla	-9.99908
▁pravidelně	-9.99911
▁vyslovil	-9.99913
▁předtím	-9.99949
▁stane	-9.99976
▁smluvní	-10.0002
▁podnikatel	-10.0021
ovými	-10.0022
▁Le	-10.0023
del	-10.003
▁vědy	-10.0032
▁případů	-10.0033
uto	-10.0036
▁veřejnost	-10.0036
▁La	-10.004
▁pocit	-10.0041
▁Li	-10.0052
ném	-10.0061
▁vztahy	-10.0066
ář	-10.0078
▁kolo	-10.0083
▁daňové	-10.0083
▁tiskové	-10.0088
▁pokles	-10.0091
ge	-10.0095
▁dvanáct	-10.0096
▁změnu	-10.01
▁taková	-10.0114
▁dostane	-10.0122
▁HIV	-10.0132
▁konferenci	-10.0132
▁podmínkách	-10.0132
▁úrovně	-10.0132
▁spoust	-10.0132
▁radnice	-10.0132
▁června	-10.0132
▁Poslední	-10.0133
▁příjmů	-10.0135
▁výjimkou	-10.0136
▁politiku	-10.0141
up	-10.0151
▁částku	-10.0152
ický	-10.0154
▁rodiny	-10.0158
▁plyn	-10.0159
▁severní	-10.0171
▁směru	-10.0171
▁neměl	-10.0175
dle	-10.0201
ována	-10.0211
▁vztahu	-10.0219
▁podnikatelů	-10.0222
jet	-10.0225
▁museli	-10.0238
▁hráče	-10.024
▁%.	-10.0244
alo	-10.0245
▁padesát	-10.0248
▁Naše	-10.0256
Š	-10.0256
▁konkurence	-10.0258
▁jakým	-10.0259
▁Br	-10.028
▁většině	-10.0281
▁války	-10.0281
▁účetnictví	-10.0281
▁Současn	-10.0282
▁Jedna	-10.0282
▁tvrzení	-10.0282
▁moře	-10.0284
▁New	-10.0288
▁jednoznačně	-10.0292
▁aliance	-10.0292
▁volné	-10.0292
ot	-10.0293
▁žádn	-10.0308
▁Ho	-10.0313
▁síť	-10.0317
▁skupině	-10.032
▁uvedené	-10.0321
▁aktivity	-10.0324
▁ú	-10.0326
▁hodnotu	-10.0326
▁plat	-10.0327
▁současn	-10.0329
▁titul	-10.034
▁akci	-10.036
sko	-10.036
▁člen	-10.0363
▁přírodní	-10.0369
▁polovinu	-10.0372
▁bezpečnostní	-10.0379
▁Rusko	-10.0381
▁hraje	-10.0384
▁Ba	-10.0386
▁Václava	-10.0404
▁poslanec	-10.0411
▁autor	-10.0428
▁poměr	-10.0428
▁ODA	-10.0432
▁kláves	-10.0432
▁většiny	-10.0433
▁politice	-10.0433
▁začít	-10.0433
▁vždycky	-10.0434
▁pořádku	-10.0437
tní	-10.0439
▁nemocnice	-10.0441
▁nově	-10.0443
▁Jenže	-10.0443
▁individuální	-10.0445
mat	-10.0447
▁centra	-10.0447
▁třemi	-10.0447
▁Německo	-10.045
▁pracovníci	-10.045
▁čase	-10.0451
▁univerzity	-10.0457
▁předsedy	-10.0467
▁90	-10.0481
▁LN	-10.0487
▁budoucnosti	-10.0489
▁německé	-10.0498
kami	-10.051
▁životě	-10.051
▁paní	-10.0515
▁Kdyby	-10.0519
▁400	-10.0521
▁sportovní	-10.0521
▁snížení	-10.0522
vin	-10.0527
▁jím	-10.055
cházet	-10.0552
vat	-10.0576
gen	-10.0577
▁Č	-10.0586
▁AIDS	-10.0587
▁Británie	-10.0587
▁srpna	-10.0587
▁obyvatelstva	-10.0587
▁Možná	-10.0591
▁Vždyť	-10.0594
▁hlasů	-10.0597
▁předchozí	-10.06
▁objevil	-10.0601
▁důsledku	-10.0611
▁Bo	-10.0612
▁miliony	-10.0619
nk	-10.0623
▁složení	-10.0623
▁Mám	-10.0634
hn	-10.0637
▁vzdělání	-10.0639
▁Ha	-10.065
▁takových	-10.0651
▁týká	-10.0656
ických	-10.0659
th	-10.0663
▁on	-10.0665
nem	-10.0678
vnitř	-10.0684
▁úřady	-10.0684
▁vaše	-10.0689
ároveň	-10.0692
▁radost	-10.0697
ik	-10.0703
▁35	-10.0704
▁používá	-10.0709
▁koupit	-10.071
▁výkonu	-10.0715
▁místopředsed	-10.0716
▁státních	-10.0719
RA	-10.0727
▁zemřel	-10.0732
ujeme	-10.0734
nt	-10.0736
hled	-10.0743
▁očekávat	-10.0743
▁silniční	-10.0743
▁buněk	-10.0743
▁tajemství	-10.0743
▁verze	-10.0744
▁připravuje	-10.0745
▁banka	-10.0746
▁zdalek	-10.0747
▁projektu	-10.0752
▁kvalitu	-10.0752
▁uspořádání	-10.0754
▁poznání	-10.0755
▁příštím	-10.0761
▁dochází	-10.0764
ment	-10.0766
▁průměru	-10.0772
▁chceme	-10.0783
▁počítačů	-10.0784
rod	-10.0784
mluv	-10.0787
▁aktivní	-10.0789
▁piva	-10.0792
▁zajímavé	-10.08
▁John	-10.0803
▁jejího	-10.0806
▁jiným	-10.081
▁auto	-10.0817
▁Mo	-10.0818
▁povinnosti	-10.0818
▁premiéra	-10.0819
▁funkcí	-10.0825
▁disku	-10.0829
ig	-10.0831
▁Oba	-10.0837
▁muži	-10.0845
▁demokratické	-10.0845
▁obcí	-10.0845
▁stroje	-10.0845
▁Hor	-10.0846
▁měsíční	-10.0848
▁závěr	-10.0848
▁150	-10.0853
he	-10.0854
▁technické	-10.0856
pis	-10.0861
▁napsal	-10.0864
▁sta	-10.0886
▁konec	-10.0887
▁částí	-10.0889
▁název	-10.0901
▁přírody	-10.0902
▁zřejmé	-10.0902
▁privatizaci	-10.0902
▁Zákon	-10.0902
▁marek	-10.0902
▁Karel	-10.0902
▁článku	-10.0903
▁Ob	-10.0904
bě	-10.0905
▁okresní	-10.0906
▁úvahu	-10.0906
▁pozitivní	-10.0907
▁občas	-10.0908
▁vyžaduje	-10.0913
▁jaderné	-10.0916
▁odborníků	-10.0917
▁agentury	-10.092
▁sovětské	-10.0932
fr	-10.0945
▁programy	-10.0947
▁jaderný	-10.0963
ala	-10.0972
▁hlavních	-10.0973
▁mění	-10.0973
▁kola	-10.0985
zen	-10.1001
▁příštího	-10.1002
▁relativn	-10.1003
nka	-10.1007
▁republika	-10.1014
stup	-10.1016
budete	-10.1031
▁přechod	-10.1033
▁těžký	-10.1043
níci	-10.1044
▁vývoji	-10.1053
▁zákaz	-10.1058
▁vyjádřil	-10.1059
▁jména	-10.1063
▁věnovat	-10.1063
▁historii	-10.1063
▁válce	-10.1063
▁Myslím	-10.1064
▁roste	-10.1065
▁budu	-10.1066
▁vaší	-10.1067
▁pořád	-10.1069
▁De	-10.1074
▁politika	-10.1077
rát	-10.1078
▁liší	-10.1079
▁4.	-10.1085
▁soutěž	-10.1094
nd	-10.1096
▁základ	-10.1106
▁hotelu	-10.1112
▁změně	-10.1113
▁OS	-10.1115
▁režimu	-10.1116
ina	-10.1125
▁nákup	-10.1128
té	-10.1128
ač	-10.1133
▁Škoda	-10.1138
▁druhy	-10.114
▁mil	-10.1144
▁výrobců	-10.115
▁ba	-10.115
▁úřadů	-10.1153
▁Miroslav	-10.1154
▁programů	-10.1159
▁Společnost	-10.1165
čin	-10.1178
ovaný	-10.1182
▁příklad	-10.1189
▁tlačítko	-10.1191
▁Kr	-10.1205
ovalo	-10.1209
▁družstev	-10.1214
ěkteří	-10.1226
▁jednoduché	-10.1227
▁považován	-10.1227
▁zůstane	-10.1227
▁1995	-10.1227
▁tajemník	-10.1228
ková	-10.1232
▁smlouva	-10.1233
▁Základní	-10.1234
▁bytu	-10.1235
form	-10.1238
▁vzor	-10.1238
▁stranu	-10.1247
▁déle	-10.125
▁mechanika	-10.1253
ovo	-10.1263
▁hranici	-10.1265
▁typů	-10.1265
▁řeč	-10.1266
▁abych	-10.1284
▁zvířat	-10.129
▁veškeré	-10.1294
▁rekord	-10.1298
▁potvrdil	-10.1299
▁hra	-10.1299
▁skutečné	-10.13
▁tisk	-10.1314
▁typy	-10.1317
plav	-10.132
ovány	-10.1325
▁Stál	-10.1325
▁počítat	-10.1326
▁zákazníků	-10.133
▁lékařů	-10.1337
▁trest	-10.1338
▁Hlavní	-10.1377
▁podnikatelské	-10.1384
▁devět	-10.1391
▁úterý	-10.1393
▁Lidé	-10.1393
▁Letos	-10.1394
▁šance	-10.1394
▁někdejší	-10.1394
▁lednu	-10.1394
▁globální	-10.1396
▁ruce	-10.1399
▁jestliže	-10.14
▁23	-10.1402
řka	-10.1405
▁svému	-10.1405
▁dům	-10.1406
▁profesionální	-10.1409
▁hledání	-10.1421
▁získala	-10.1425
▁oblastí	-10.143
▁kapitálu	-10.1435
▁stejný	-10.1435
▁značné	-10.1436
▁dělá	-10.1438
ct	-10.1444
▁telefon	-10.145
dob	-10.145
koliv	-10.1464
▁96	-10.147
ejte	-10.1473
▁My	-10.1476
▁problémem	-10.1476
▁zvolen	-10.1483
▁Pr	-10.1497
▁molekul	-10.1498
per	-10.1506
▁koncert	-10.1532
▁Pa	-10.1536
▁vznikla	-10.1539
▁soutěži	-10.154
▁třetím	-10.1557
▁respekt	-10.1559
▁včerejší	-10.1562
▁Chce	-10.1562
▁verzi	-10.1563
▁mzdy	-10.1563
▁používat	-10.1563
▁potíže	-10.1563
▁členství	-10.1564
▁vystoupení	-10.1564
▁vrátit	-10.1564
▁tabulky	-10.1564
▁studie	-10.1565
▁novým	-10.1567
▁nejdříve	-10.1567
▁shromáždění	-10.1568
ická	-10.1568
▁někter	-10.1569
/2	-10.1569
▁zvlášť	-10.1571
▁nedá	-10.1573
▁odpověď	-10.1578
▁známé	-10.1578
▁časem	-10.158
▁najednou	-10.1582
▁rozdělení	-10.1585
ským	-10.1588
rak	-10.1593
▁označení	-10.1609
▁vztahů	-10.1614
▁neod	-10.1618
lek	-10.1618
▁zprávu	-10.1623
▁MB	-10.1627
▁ni	-10.1639
▁3.	-10.1639
▁existují	-10.1647
▁silné	-10.1649
▁počítači	-10.1654
ovém	-10.1654
▁plán	-10.1655
dostala	-10.1664
▁centru	-10.1673
▁set	-10.1676
též	-10.1687
ané	-10.169
▁soudí	-10.1703
▁včas	-10.1715
▁posledním	-10.1715
▁nechce	-10.1719
dostatečně	-10.1722
▁0	-10.1727
nov	-10.1731
▁prospěch	-10.1735
▁rozhodne	-10.1735
▁Československa	-10.1735
▁hospodaření	-10.1735
▁Nicméně	-10.1736
▁zaměstnanci	-10.1736
▁výrobci	-10.1736
▁odpadů	-10.1739
▁spočívá	-10.1745
▁pozici	-10.1751
▁soukromých	-10.1751
hy	-10.1753
▁odpovídající	-10.1755
inak	-10.1767
▁pohybu	-10.1773
tky	-10.1774
▁12.	-10.1785
▁soudní	-10.1789
▁díla	-10.179
▁Česko	-10.1793
ner	-10.1804
▁Františ	-10.1808
▁Národní	-10.1811
▁velikost	-10.1815
CE	-10.1816
▁poměru	-10.1816
▁schopnost	-10.1824
ovaného	-10.1826
▁dokument	-10.1827
▁jakou	-10.1828
▁občanské	-10.1835
▁týdne	-10.1837
ška	-10.1837
▁objem	-10.184
▁podepsal	-10.1844
▁patnáct	-10.1849
▁vnější	-10.1851
dali	-10.1853
blíž	-10.1855
▁pojistné	-10.1868
▁získali	-10.1876
▁očekává	-10.1876
▁sedmi	-10.1886
▁Lu	-10.1893
bl	-10.1895
▁zaplatí	-10.1902
▁hledat	-10.1911
▁prvků	-10.1912
▁Dále	-10.1912
▁Pohár	-10.1912
▁DNA	-10.1913
▁firmu	-10.1914
▁dob	-10.1914
▁mozku	-10.1916
tek	-10.1917
▁půdě	-10.1918
▁mnozí	-10.1919
▁Nová	-10.1922
▁Sb	-10.1928
▁letošním	-10.1929
▁teploty	-10.1936
▁poháru	-10.1942
▁zemědělské	-10.1944
▁neví	-10.1944
▁nárok	-10.1954
▁metody	-10.1956
▁stanoven	-10.197
▁ochranu	-10.1975
▁Největší	-10.1978
▁výraz	-10.1982
EN	-10.2006
▁hrozí	-10.201
▁papír	-10.2012
▁tradiční	-10.2014
▁účasti	-10.2017
▁riziko	-10.2021
▁budoucnost	-10.2024
▁materiál	-10.2025
▁ryb	-10.2026
čení	-10.2037
vod	-10.2041
▁Čí	-10.2044
▁úvěr	-10.2054
▁manažer	-10.2064
▁seznam	-10.207
▁měnit	-10.2074
▁snah	-10.2079
▁dané	-10.2079
▁Vše	-10.208
▁zůstat	-10.2084
port	-10.2085
▁Existuj	-10.2089
▁natolik	-10.2089
▁zdůraznil	-10.2089
▁Československo	-10.2089
▁rodiče	-10.2089
▁podpory	-10.2089
▁tudíž	-10.2089
▁reprezentace	-10.209
▁výrobě	-10.2094
sky	-10.2094
▁Ku	-10.2094
▁částečně	-10.2094
▁vytváření	-10.2098
▁Poté	-10.21
▁centrální	-10.2103
▁pohledu	-10.2103
▁Dva	-10.2103
▁žije	-10.2104
▁slouží	-10.2104
▁výroba	-10.2105
▁vlastností	-10.2106
▁Tři	-10.2106
▁dílo	-10.2109
▁karty	-10.211
▁NA	-10.2111
▁dávno	-10.2124
rovna	-10.2125
▁zavedení	-10.2128
lin	-10.2139
▁dalšími	-10.214
▁významné	-10.214
be	-10.2141
▁Dr	-10.2147
▁aplikací	-10.215
▁start	-10.2165
▁záležitost	-10.218
▁důvodu	-10.2193
▁lidské	-10.2195
▁zmíněné	-10.2197
▁obrazu	-10.2201
▁Bi	-10.2215
▁leží	-10.222
▁vzájemné	-10.2224
▁pás	-10.2227
▁slovenské	-10.2229
▁společný	-10.2231
▁musím	-10.2239
▁pří	-10.2243
ej	-10.2244
uji	-10.2255
▁paměti	-10.2271
▁připojištění	-10.2271
▁pomalu	-10.2271
▁kvalifikaci	-10.2271
▁neexistuje	-10.2272
▁česká	-10.2272
▁odpoledne	-10.2274
▁připomíná	-10.2275
▁oblastech	-10.2279
▁svědčí	-10.2286
▁brněnské	-10.2293
▁materiálů	-10.2294
vu	-10.2297
▁Musí	-10.2302
▁odboru	-10.2305
▁mnohé	-10.2305
▁ztráty	-10.2306
▁dohodu	-10.2306
▁PO	-10.2309
▁měst	-10.231
est	-10.2315
▁samo	-10.2316
▁Slovenska	-10.2319
ovaly	-10.2326
pen	-10.2339
▁mně	-10.2345
▁představ	-10.2354
▁teplo	-10.2354
ér	-10.2355
pětí	-10.2363
▁poloviny	-10.2369
▁potřeba	-10.2374
▁nabízejí	-10.2375
▁nutno	-10.238
▁rádi	-10.2383
▁loňském	-10.2392
▁pa	-10.2393
▁zásadní	-10.2394
▁technický	-10.2395
▁přístroje	-10.2396
▁zahájení	-10.2397
▁kop	-10.24
▁Ústav	-10.2405
▁autorů	-10.2413
▁nejvíc	-10.2419
▁nepře	-10.2434
▁končí	-10.244
▁Vý	-10.2442
▁vánoce	-10.2447
lze	-10.2449
▁ročník	-10.245
▁mimořádn	-10.2455
▁Itálie	-10.2456
▁Ovšem	-10.2456
▁Program	-10.2456
▁minimální	-10.2456
▁stránce	-10.2456
▁praxe	-10.2456
▁desítek	-10.2457
gu	-10.2459
▁nicméně	-10.2459
▁Ostravě	-10.2459
▁Ministr	-10.246
▁vybrat	-10.246
▁zdejší	-10.2462
▁neustále	-10.2462
▁vyjádření	-10.2467
▁dodnes	-10.2471
▁malá	-10.2473
▁soustavy	-10.2474
:	-10.2476
▁programové	-10.248
▁standardní	-10.2481
▁Zá	-10.2485
▁určitou	-10.2492
▁rozhovoru	-10.2493
raz	-10.2494
mar	-10.2505
▁problému	-10.2508
▁staré	-10.251
▁osud	-10.2511
▁výhradn	-10.2515
mír	-10.2518
▁ústavní	-10.2522
tem	-10.2522
▁takovém	-10.2527
▁italské	-10.253
dat	-10.2533
▁Me	-10.2549
▁vývozu	-10.2552
pol	-10.2554
▁závodu	-10.2561
▁váš	-10.2569
▁neo	-10.2572
▁řádu	-10.2576
▁znám	-10.2585
nil	-10.2598
vádí	-10.26
▁19.	-10.26
▁f	-10.2601
▁Někd	-10.2606
nul	-10.2617
HO	-10.2618
ště	-10.262
▁Velk	-10.262
▁úkol	-10.262
EL	-10.2624
dal	-10.2624
ici	-10.263
▁nemohl	-10.2638
kon	-10.2638
▁čisté	-10.2643
▁Všichni	-10.2645
▁náměstek	-10.2645
▁špatně	-10.2645
▁Naopak	-10.2645
▁Snad	-10.2645
▁jediná	-10.2645
▁poptávky	-10.2645
▁odborníci	-10.2645
▁KSČM	-10.2645
▁zaměstnance	-10.2646
▁poslance	-10.2646
▁okna	-10.2646
▁těsně	-10.2647
▁potřebují	-10.2648
▁filmu	-10.265
▁koncentrace	-10.265
▁vychází	-10.2653
▁měření	-10.2654
▁automaticky	-10.2654
▁stovky	-10.2657
▁produktů	-10.266
nky	-10.2667
ovaná	-10.2671
▁žena	-10.2674
▁záležitostí	-10.2675
▁spokojen	-10.2677
▁liber	-10.2681
▁zrušení	-10.2682
▁vzduchu	-10.2682
OV	-10.269
kl	-10.2692
▁rozsahu	-10.2697
ster	-10.27
▁přesvědčen	-10.2724
▁neměli	-10.2729
▁Evropa	-10.2736
▁jedná	-10.2743
▁styl	-10.2748
▁činností	-10.2748
▁úspěchu	-10.2753
der	-10.2753
vou	-10.2755
▁diváků	-10.2765
▁zákonem	-10.2768
▁studentů	-10.277
▁daní	-10.2771
Č	-10.2777
▁Zdá	-10.278
▁ochran	-10.2783
ten	-10.2783
▁souhlas	-10.2783
▁příslušné	-10.2809
▁současný	-10.2812
▁Každ	-10.282
▁rozvoje	-10.2823
▁pravé	-10.283
▁oni	-10.2832
▁daň	-10.2835
var	-10.2836
▁Ředitel	-10.2837
▁historie	-10.2837
▁věnoval	-10.2837
▁bydlení	-10.2837
▁pojetí	-10.2838
▁investovat	-10.2839
▁dodávky	-10.284
▁lidmi	-10.284
▁krátce	-10.284
bavit	-10.284
▁pohybuje	-10.2841
▁věd	-10.2842
▁vítěz	-10.2844
ber	-10.2846
▁dostává	-10.2853
▁šampionátu	-10.2855
▁voličů	-10.2856
▁mladé	-10.2861
▁domě	-10.2861
▁návrhy	-10.2863
SE	-10.287
▁normální	-10.2871
▁provedení	-10.2874
▁omezení	-10.2877
ud	-10.288
▁muže	-10.2883
tud	-10.2893
▁cesta	-10.2894
▁určit	-10.2899
▁domácím	-10.2899
▁pořadatel	-10.29
▁různým	-10.2902
▁obecní	-10.2902
▁materiálu	-10.2914
▁boj	-10.2931
▁vést	-10.2932
▁čtení	-10.2935
stoupil	-10.2935
▁rychlosti	-10.2954
žen	-10.2956
▁jinými	-10.2962
nic	-10.2971
olog	-10.2971
▁nena	-10.2974
▁nájemné	-10.298
tel	-10.2991
▁km	-10.3005
▁nejdůležitější	-10.302
▁Především	-10.3033
▁Richard	-10.3033
▁elektrárny	-10.3033
▁minimálně	-10.3033
▁snížit	-10.3033
▁umožní	-10.3033
▁úsilí	-10.3033
▁míře	-10.3034
▁doslova	-10.3034
▁měsíčně	-10.3034
▁pravdu	-10.3034
▁Češi	-10.3034
▁snímky	-10.3035
▁Spojené	-10.3035
▁zvýšit	-10.3037
▁celek	-10.3038
▁policistů	-10.3038
▁zobrazení	-10.3043
▁pozice	-10.3045
▁myší	-10.3045
▁tvorbu	-10.3046
▁okolností	-10.3047
▁obecně	-10.3047
▁poškození	-10.3048
ke	-10.3051
▁cestě	-10.3055
▁mistrů	-10.3055
▁akcie	-10.3062
▁Evropsk	-10.3066
▁mé	-10.3069
▁odpadní	-10.307
ok	-10.307
▁žádném	-10.3076
▁žádná	-10.3081
▁třídy	-10.3083
ovu	-10.3083
▁festivalu	-10.3083
rů	-10.3083
▁povrchu	-10.3085
▁nemoci	-10.3092
▁Ka	-10.3101
▁domácích	-10.3109
▁vzniká	-10.3115
čtí	-10.3115
▁centrum	-10.3119
inu	-10.3122
▁nechat	-10.3124
ang	-10.3129
▁poklesu	-10.3129
▁cm	-10.3132
▁PowerPointu	-10.3136
mého	-10.3141
▁součást	-10.3142
jak	-10.3148
▁Ar	-10.3154
▁správně	-10.3154
▁jediné	-10.3159
▁známo	-10.3164
▁skupinu	-10.3167
bar	-10.3167
▁dějin	-10.3168
iny	-10.3169
▁hodinu	-10.3171
▁zpráv	-10.3176
▁znát	-10.3178
cké	-10.3178
▁FS	-10.3187
▁17.	-10.319
▁hospodářsk	-10.3194
▁tvář	-10.3198
▁polovina	-10.3198
▁zahájil	-10.3201
▁Federální	-10.3202
Ž	-10.3211
směs	-10.3214
▁vrátil	-10.3214
▁jaká	-10.3218
▁uvedený	-10.322
▁Samozřejmě	-10.3233
▁divadla	-10.3233
▁pojišťovny	-10.3233
▁rozhodování	-10.3233
▁ČNR	-10.3233
▁půjde	-10.3233
▁nabídka	-10.3234
▁širší	-10.3234
▁konkurenční	-10.3235
▁myšlení	-10.3238
▁výskyt	-10.324
▁Tam	-10.3243
▁armáda	-10.3249
▁sdělení	-10.3251
▁představení	-10.3251
▁nebyli	-10.3253
▁půdy	-10.3254
ita	-10.3255
něk	-10.3258
▁nezávislých	-10.326
▁postoj	-10.3269
▁výdaje	-10.3269
▁podnikatelé	-10.3273
ive	-10.3277
▁úpravy	-10.3286
▁zákazníky	-10.3287
▁export	-10.3288
▁vysokých	-10.3292
▁Američan	-10.3292
▁špatné	-10.3303
▁prodejní	-10.3305
▁existence	-10.3322
▁Te	-10.3328
leté	-10.3342
▁námi	-10.3344
▁vidí	-10.3345
▁občan	-10.3347
▁myslí	-10.335
▁britské	-10.335
▁organizací	-10.3362
▁Nebo	-10.3364
▁hlasování	-10.3364
▁akcí	-10.3365
ak	-10.337
▁paragraf	-10.3372
▁zpráva	-10.338
▁maximáln	-10.3397
▁generál	-10.3397
tal	-10.3398
padá	-10.3399
▁smrt	-10.3407
▁pořad	-10.3413
▁II	-10.3416
vé	-10.3419
ký	-10.3423
▁stejn	-10.3424
▁postaven	-10.3426
▁reprezentant	-10.3427
▁daňový	-10.3429
ó	-10.3437
▁Slovensko	-10.3437
▁Němci	-10.3437
▁církve	-10.3437
▁nízké	-10.3437
▁odmítá	-10.3437
▁týdny	-10.3437
▁zapotřebí	-10.3438
▁usnesení	-10.3438
▁přišla	-10.3438
▁privatizační	-10.3438
▁Teď	-10.3438
▁1988	-10.3438
▁létě	-10.3438
▁voda	-10.3438
▁StB	-10.344
▁vůle	-10.3445
▁správné	-10.345
▁Proti	-10.3451
ben	-10.3452
▁Kde	-10.3454
▁příslušný	-10.3457
▁děje	-10.3458
▁zájmy	-10.3459
▁automobilů	-10.346
tah	-10.3461
▁porušení	-10.3466
▁mluví	-10.3466
▁mladých	-10.3466
▁důsledky	-10.3468
▁původu	-10.3468
▁obce	-10.3469
TA	-10.3472
▁sklad	-10.3477
▁hvězd	-10.3479
▁ruský	-10.3482
▁Internetu	-10.349
▁princip	-10.3491
▁žijící	-10.3494
kla	-10.3496
▁představy	-10.3507
▁německých	-10.3507
▁lidského	-10.3508
tur	-10.351
plat	-10.3512
▁Ano	-10.3513
▁velikosti	-10.3515
▁německého	-10.3517
▁Sovětské	-10.352
▁vědecký	-10.3534
▁nucen	-10.3536
▁částka	-10.3537
nos	-10.3547
▁běžný	-10.3548
▁bezpečnost	-10.355
▁kal	-10.356
▁škola	-10.3567
▁barevné	-10.3573
▁Da	-10.3574
▁řídí	-10.358
▁pacientů	-10.358
▁vědomí	-10.3581
▁uveden	-10.3582
▁rozhodla	-10.3582
cím	-10.3586
▁odbyt	-10.3588
▁vyspělý	-10.3603
▁Tomáš	-10.3613
▁příprav	-10.3614
iště	-10.3617
iz	-10.3623
▁Asi	-10.3627
▁byty	-10.3629
▁letní	-10.3631
▁řeči	-10.3642
▁str	-10.3645
▁Moskvě	-10.3646
▁Třetí	-10.3646
▁populace	-10.3646
▁vynikající	-10.3646
▁štěstí	-10.3646
▁Francii	-10.3646
▁ihned	-10.3646
▁technologií	-10.3646
▁mužstva	-10.3646
▁spotřební	-10.3646
▁reprezentační	-10.3647
▁mluvit	-10.3647
ČSL	-10.3647
▁Pomuku	-10.3647
▁firmou	-10.3648
▁obětí	-10.3648
▁Milan	-10.3649
▁9	-10.365
▁zvyšuje	-10.3652
mile	-10.3653
▁pracovník	-10.3654
▁dovolené	-10.3655
▁těla	-10.3656
▁přední	-10.3658
▁Více	-10.3658
▁obavy	-10.3658
▁úmrtnosti	-10.3659
▁nemocnici	-10.3662
▁Avšak	-10.3666
▁úspor	-10.367
▁zastoupení	-10.3671
▁Předseda	-10.368
▁vlastním	-10.3684
▁Jižní	-10.3691
▁příkaz	-10.3692
▁Druhý	-10.3698
KA	-10.3702
▁lesní	-10.3703
▁míč	-10.3709
ned	-10.3712
ska	-10.3715
▁chod	-10.3717
▁ročníku	-10.3733
▁všeho	-10.3737
pil	-10.374
osud	-10.3742
dané	-10.3745
ca	-10.3745
▁zdroj	-10.3752
▁školní	-10.3759
▁příležitost	-10.3764
▁kroky	-10.3764
jde	-10.377
LA	-10.3773
▁potravin	-10.3781
▁odvětví	-10.3782
▁horší	-10.3782
▁studiu	-10.3785
▁tenis	-10.3787
son	-10.3794
▁molekuly	-10.3795
▁přichází	-10.3796
▁určitý	-10.3797
▁snaha	-10.3801
▁tamní	-10.3802
▁představují	-10.3805
▁příštích	-10.3814
▁osmdesát	-10.3819
▁největším	-10.3824
▁postupu	-10.3831
▁pražském	-10.3838
nese	-10.384
Sc	-10.3843
▁doktor	-10.3849
▁Ra	-10.385
▁celkový	-10.3853
půjč	-10.3854
ouze	-10.3856
▁budoucnu	-10.3859
▁civilní	-10.3859
▁konkurenci	-10.3859
▁nakladatelství	-10.3859
▁sledovat	-10.3859
▁transformace	-10.3859
▁zlepšení	-10.3859
▁úmrtí	-10.3859
▁zabránit	-10.3859
▁Slavie	-10.3859
▁souvisí	-10.3859
▁tehdejší	-10.3859
▁jedinou	-10.3859
▁operace	-10.3859
▁PCB	-10.386
▁výsledkem	-10.386
▁financování	-10.3861
▁lékařské	-10.3862
▁Vedle	-10.3863
▁funkční	-10.3863
▁rozhodnout	-10.3863
▁formou	-10.3867
▁Vláda	-10.3868
▁zbytečné	-10.3869
▁výhodné	-10.3876
▁zaplatit	-10.3876
▁příjmu	-10.3876
pana	-10.3881
ST	-10.3885
▁nákladní	-10.3887
▁americký	-10.3889
▁prodat	-10.3895
▁600	-10.3895
vést	-10.39
▁povinností	-10.3904
▁Obě	-10.3907
▁účely	-10.3907
▁partnery	-10.3908
▁produktu	-10.3911
▁noviny	-10.3911
▁starých	-10.3912
▁přijal	-10.392
▁příležitosti	-10.3925
▁placení	-10.3931
nici	-10.3935
▁prodává	-10.3937
▁německý	-10.3942
ené	-10.3945
▁účastní	-10.3948
▁pracovníky	-10.3952
san	-10.3954
▁pražsk	-10.3957
▁In	-10.396
▁Ru	-10.3972
▁velkým	-10.3973
▁napětí	-10.3974
▁režim	-10.3977
kovi	-10.3977
▁zápasy	-10.398
sil	-10.3988
▁koruny	-10.3991
▁zápasu	-10.3996
▁neměla	-10.3999
▁uzavření	-10.4007
▁kapalin	-10.4012
▁domov	-10.4024
▁dostali	-10.4028
lík	-10.4034
▁zůstal	-10.4035
▁rychlé	-10.4039
před	-10.4042
dla	-10.4049
▁turnaje	-10.405
ion	-10.4056
▁jasně	-10.4059
▁Bar	-10.4062
▁post	-10.4065
ler	-10.4074
▁barev	-10.4075
▁někde	-10.4076
▁Ostatně	-10.4076
▁Sdružení	-10.4076
▁rekreační	-10.4076
▁krize	-10.4076
▁červnu	-10.4076
▁sítí	-10.4076
▁přiznání	-10.4079
▁udržet	-10.4079
▁jednotky	-10.408
▁kontrolu	-10.4082
▁porovnání	-10.4084
▁obrázek	-10.4084
▁místnosti	-10.4085
▁prodávat	-10.4092
▁Moravy	-10.4096
▁znalosti	-10.4098
▁strojů	-10.4101
▁hodnotě	-10.4101
▁začátkem	-10.4101
▁dotaz	-10.4102
▁ano	-10.4103
▁Washingtonu	-10.4108
▁zimní	-10.4109
▁lesy	-10.4109
▁všemi	-10.4111
▁rozporu	-10.4116
▁trenéra	-10.4116
št	-10.4123
vzdor	-10.4129
▁Ačkoli	-10.4133
▁On	-10.4133
IN	-10.4139
▁hodnota	-10.4146
▁nemáme	-10.415
▁něž	-10.4154
EM	-10.4158
nické	-10.4162
▁Ruska	-10.4169
▁Fr	-10.4173
▁operační	-10.4174
▁spor	-10.4175
▁vedením	-10.4176
▁sport	-10.4178
▁nynější	-10.4181
▁použit	-10.4182
un	-10.4183
▁modelů	-10.4187
▁založen	-10.4201
▁dojde	-10.4207
les	-10.421
nění	-10.422
▁případu	-10.422
▁místy	-10.4221
▁hře	-10.4222
▁čísle	-10.4223
kor	-10.4226
▁pražského	-10.4227
▁hod	-10.4229
▁přináší	-10.4229
▁umístěn	-10.4234
▁případné	-10.4235
▁slovy	-10.4236
▁spojené	-10.4239
▁blok	-10.4243
▁porazil	-10.4243
▁záleží	-10.4249
▁odhad	-10.425
ele	-10.4254
▁pravidla	-10.4255
AN	-10.4255
▁stroj	-10.4258
ismus	-10.4273
▁stál	-10.4274
voz	-10.4276
▁dítě	-10.4278
▁pobyt	-10.4278
pokoj	-10.4283
▁soupeře	-10.4286
kupní	-10.4287
▁obr	-10.4294
▁28	-10.4296
▁Bratislavě	-10.4298
▁Návrh	-10.4298
▁nabídnout	-10.4298
▁otázce	-10.4298
▁týdnů	-10.4298
▁uskuteční	-10.4298
▁péči	-10.4298
▁dovolit	-10.4298
▁podpora	-10.4298
▁okno	-10.4299
▁kategorie	-10.4299
▁nedostatek	-10.4299
▁nepodařilo	-10.4299
▁Nakonec	-10.43
▁Brno	-10.4301
▁připravit	-10.4302
▁prvky	-10.4302
▁návštěvě	-10.4305
▁stará	-10.4306
▁cenný	-10.4308
▁Podnik	-10.4308
▁zjistit	-10.4309
▁buňky	-10.4312
▁jaterní	-10.4312
▁Pavl	-10.4314
ete	-10.4317
▁hledá	-10.4317
▁domácnosti	-10.4318
▁malou	-10.4319
▁druhým	-10.4323
▁osobně	-10.4325
▁tlak	-10.4329
eprve	-10.4329
▁provést	-10.4331
▁získání	-10.4334
▁tajné	-10.4334
ju	-10.4335
▁nezaměstnanosti	-10.4341
▁stanici	-10.4341
▁gól	-10.4344
▁Evropský	-10.4349
30	-10.4368
▁3000	-10.4371
▁charakter	-10.4373
▁partnera	-10.4378
men	-10.4407
▁filmů	-10.4415
▁čtenář	-10.4418
▁ochot	-10.4422
▁pracoval	-10.4424
▁případy	-10.4428
▁vstupu	-10.4434
▁jedenáct	-10.4439
▁nese	-10.4444
▁regionální	-10.4449
▁prodal	-10.4452
▁začalo	-10.4452
▁státním	-10.4458
musela	-10.4459
▁stává	-10.4463
▁PRO	-10.4466
▁odpověděl	-10.4474
▁planet	-10.4476
▁změní	-10.4477
▁nemoc	-10.4478
▁objev	-10.4478
▁svá	-10.4479
▁dřív	-10.448
▁postižené	-10.4487
▁všechn	-10.4491
▁profesor	-10.4497
▁západních	-10.4513
▁modelu	-10.4516
▁video	-10.4519
éměř	-10.452
▁ministrů	-10.4521
▁úspěšně	-10.4525
▁Slunce	-10.4525
▁existenci	-10.4525
▁funguje	-10.4525
▁ostatně	-10.4525
▁otázek	-10.4525
▁pojišťovna	-10.4525
▁rozhodovat	-10.4525
▁stáří	-10.4525
▁letadla	-10.4526
▁dlouhodobé	-10.4526
▁molekulární	-10.4526
▁Místo	-10.4526
▁žádá	-10.4526
▁oficiálně	-10.4526
▁operaci	-10.4526
▁aktuální	-10.4527
▁přání	-10.4527
▁SRN	-10.4528
▁vyšetřování	-10.4528
▁vystudoval	-10.453
▁sezóně	-10.453
▁formě	-10.4532
▁vypadá	-10.4533
▁vytvoří	-10.4533
▁jezdí	-10.4534
▁Brna	-10.4534
▁fakultě	-10.4535
▁UK	-10.4542
▁fakulty	-10.4548
▁návštěvníků	-10.455
▁dobrou	-10.455
▁komory	-10.4553
▁zjištění	-10.4553
▁vyberte	-10.4554
dařilo	-10.4556
▁otevření	-10.4556
▁struktury	-10.4557
▁hrál	-10.4559
▁The	-10.4563
▁Če	-10.4564
▁členem	-10.4566
▁víkendu	-10.4568
▁rozdíly	-10.4568
▁cíle	-10.4577
▁odst	-10.4592
▁nájemného	-10.4594
▁začaly	-10.4596
▁pobytu	-10.4598
▁podal	-10.4599
▁denní	-10.4609
▁obyvatelé	-10.4614
,5	-10.4614
▁východ	-10.462
slov	-10.462
▁dohoda	-10.4623
rem	-10.4629
▁příjem	-10.463
ger	-10.4631
▁docela	-10.464
▁klubů	-10.4649
ovský	-10.465
▁takovým	-10.4651
itel	-10.4653
▁prodeji	-10.4655
▁snížil	-10.466
▁brankář	-10.4675
▁stud	-10.4677
aj	-10.4678
▁fotbal	-10.4681
▁hotel	-10.4682
▁obsahu	-10.4683
kli	-10.4685
▁účastníků	-10.469
▁tvar	-10.4691
▁pís	-10.4691
▁dovoz	-10.4694
▁odpovědnost	-10.4695
▁americk	-10.4697
▁oči	-10.4703
▁zůstávají	-10.4708
▁stejném	-10.4712
▁církev	-10.4715
▁kon	-10.4718
koli	-10.4725
▁čtvrté	-10.4727
▁prostory	-10.4733
▁významný	-10.4734
ď	-10.4736
CI	-10.4744
▁hodnot	-10.4744
tře	-10.4745
▁záměr	-10.4757
▁Anglie	-10.4758
▁institucí	-10.4758
▁přispěl	-10.4758
▁software	-10.4758
▁nestačí	-10.4758
▁Polici	-10.4758
▁Nejvyšší	-10.4758
▁vlastnictví	-10.4758
▁příspěvek	-10.4758
▁mladší	-10.4758
▁přinejmenším	-10.4758
▁přijít	-10.4758
▁dráhy	-10.4758
▁Stačí	-10.4759
▁vědců	-10.4759
▁vrátí	-10.4759
▁jižní	-10.476
▁organizační	-10.476
▁poznatky	-10.4761
▁policisté	-10.4762
▁vozů	-10.4763
▁zabezpečení	-10.4763
▁levnější	-10.4765
▁Bosně	-10.4765
▁Králové	-10.4767
▁přijmout	-10.4767
▁uznání	-10.4769
▁tvorby	-10.4771
▁předpisů	-10.4773
▁18.	-10.4775
▁ideální	-10.4776
▁nejlepším	-10.4776
▁hodinách	-10.4777
▁fyziky	-10.4781
▁podobu	-10.4781
▁obrazovky	-10.4783
▁komplexní	-10.4784
▁zákazník	-10.4786
▁předsedou	-10.479
stoupí	-10.479
▁sv	-10.4791
▁výstav	-10.4792
▁ode	-10.4792
▁SE	-10.4792
▁Olomouci	-10.4794
▁léky	-10.4797
▁George	-10.4798
▁zvýšil	-10.4799
▁českou	-10.4805
▁popis	-10.4807
onu	-10.4809
▁vytváří	-10.481
▁plochy	-10.4812
▁starosti	-10.4814
▁jiném	-10.4815
▁ekonomických	-10.4815
▁vojensk	-10.4822
▁celní	-10.4822
▁úspěšné	-10.4831
▁pacienta	-10.4831
▁zemské	-10.4834
▁nejčastěji	-10.4838
▁zápasů	-10.4842
▁pochopitelně	-10.4845
rád	-10.4846
ODS	-10.4853
▁auta	-10.4856
letý	-10.4856
ard	-10.4859
▁ko	-10.4862
▁připravil	-10.4874
10	-10.4876
▁servis	-10.4877
▁chodí	-10.4887
ké	-10.4887
▁úprav	-10.4888
▁podzim	-10.4888
▁jednoduchý	-10.489
▁zkušenost	-10.4897
▁rodinné	-10.49
ěji	-10.4901
▁ministrem	-10.4903
▁nápad	-10.4903
ros	-10.4923
▁kancelář	-10.4924
▁zato	-10.4924
▁průmyslový	-10.4924
nedávn	-10.4926
▁setkal	-10.4928
▁32	-10.4932
▁městské	-10.4932
▁16.	-10.4933
stal	-10.4935
▁ústav	-10.4937
IS	-10.4947
▁mnohd	-10.4952
▁přehled	-10.4953
▁konstatoval	-10.496
▁projev	-10.496
▁významu	-10.497
hlav	-10.4971
▁kód	-10.4974
▁Anglii	-10.4996
▁Microsoft	-10.4996
▁NHL	-10.4996
▁asociace	-10.4996
▁duchovní	-10.4996
▁jménem	-10.4996
▁medaile	-10.4996
▁mužstvo	-10.4996
▁navzájem	-10.4996
▁odpovědi	-10.4996
▁uzavřít	-10.4996
▁veřejně	-10.4996
▁využívat	-10.4996
▁článek	-10.4996
▁chvíle	-10.4996
▁dětem	-10.4996
▁Jaromír	-10.4996
▁ČEZ	-10.4996
▁požadavek	-10.4996
▁zástupců	-10.4996
▁Chtěl	-10.4996
▁okolní	-10.4997
▁zabývat	-10.5002
▁výpočetní	-10.5003
▁třikrát	-10.5004
▁dopis	-10.5009
tak	-10.5012
▁Dvě	-10.5016
▁výstavby	-10.5016
▁metod	-10.5024
▁týkající	-10.5025
stavit	-10.5034
▁umístění	-10.5038
▁map	-10.5039
▁Takové	-10.5044
▁trhy	-10.5044
▁osobnosti	-10.5046
60	-10.5046
▁praktické	-10.5048
▁používání	-10.5049
▁samostatné	-10.5049
▁stanovení	-10.5052
▁Profitu	-10.5061
▁obsahující	-10.5062
▁fondů	-10.5063
▁francouzské	-10.5078
11	-10.508
▁mistra	-10.5081
▁úvodní	-10.5094
ujících	-10.5101
▁Jedin	-10.5101
▁ekologické	-10.5103
▁Al	-10.5103
vedl	-10.5103
▁di	-10.5107
OS	-10.511
▁sdělil	-10.5114
▁motiv	-10.5118
▁obratu	-10.5122
▁odpor	-10.5128
sad	-10.5132
▁široké	-10.5133
▁45	-10.5135
▁250	-10.5135
▁prezidentem	-10.5137
▁hlas	-10.5137
▁soupeř	-10.5138
▁sestav	-10.5144
▁počítačové	-10.5145
▁žádost	-10.5145
▁čekají	-10.515
▁minulém	-10.5152
▁120	-10.5158
den	-10.5163
▁Di	-10.5164
▁živ	-10.5169
▁skončila	-10.5174
▁průměrn	-10.5175
▁dar	-10.5179
držel	-10.518
▁chemické	-10.5192
▁vyhrála	-10.5193
▁turnaj	-10.5201
▁knih	-10.5214
▁organismu	-10.5219
▁spojen	-10.5225
▁Stát	-10.523
go	-10.5232
▁kolegy	-10.5233
ón	-10.5235
▁nechtěl	-10.5239
▁způsobu	-10.5239
▁dlouhý	-10.524
▁ministři	-10.524
▁považuji	-10.524
▁souladu	-10.524
▁vysoká	-10.524
▁organizaci	-10.524
▁obrátil	-10.524
▁Michal	-10.524
▁chtít	-10.524
▁generace	-10.524
▁územní	-10.524
▁nejspíš	-10.524
▁studia	-10.5241
▁ukazují	-10.5242
▁volně	-10.5243
▁vyplatí	-10.5244
▁neznamená	-10.5245
▁syn	-10.5245
▁související	-10.5252
▁Polska	-10.5253
▁lesů	-10.5255
▁nástrojů	-10.5256
▁zajištění	-10.5258
▁Karlovy	-10.5259
▁silně	-10.5261
tit	-10.5263
zu	-10.5263
▁Du	-10.5265
▁časopisu	-10.5269
▁odborných	-10.5269
▁panelu	-10.5272
▁kdysi	-10.5272
kul	-10.5274
▁občané	-10.5274
▁metr	-10.529
▁možných	-10.529
▁sekundu	-10.5291
▁ačkoli	-10.5293
▁nedávné	-10.5294
▁nastoupil	-10.5294
▁nemělo	-10.5294
▁skončilo	-10.5299
▁opravy	-10.5299
▁ústavy	-10.5304
▁přenosu	-10.5306
▁pán	-10.5309
▁příčin	-10.5313
▁Poslaneck	-10.5313
▁10.	-10.5315
▁Obchodní	-10.5318
▁ochrany	-10.532
▁Slovenské	-10.5324
▁předložil	-10.5328
rán	-10.5332
▁33	-10.5335
▁kurs	-10.5336
tivní	-10.5336
ající	-10.5337
▁schopnosti	-10.5337
▁dostalo	-10.5337
▁nástroj	-10.534
▁zákazníka	-10.5342
▁Rusk	-10.5347
▁opak	-10.5348
▁přechodu	-10.5349
psal	-10.5351
▁hran	-10.5354
ale	-10.5354
▁hodnotí	-10.5356
▁RN	-10.5357
▁titulu	-10.5358
▁trval	-10.5364
▁dají	-10.5366
▁stanoví	-10.5367
▁cest	-10.5368
▁jednotliv	-10.5368
▁dobou	-10.5374
▁projekty	-10.5376
šti	-10.5383
nové	-10.5387
▁přicházejí	-10.5393
▁oprav	-10.5399
▁totem	-10.54
▁novém	-10.5403
▁Americk	-10.5405
▁27	-10.5405
▁Nad	-10.5407
▁Plzeň	-10.5411
▁režisér	-10.5412
nec	-10.5413
▁turistů	-10.5413
▁desetiletí	-10.5418
▁zápase	-10.5422
▁reálné	-10.5423
▁představitelů	-10.5423
▁politického	-10.5424
▁čemu	-10.5426
▁pl	-10.5436
ral	-10.5448
▁jimi	-10.5462
▁míní	-10.5463
▁regionu	-10.5467
muž	-10.5469
vede	-10.5472
▁pracují	-10.5475
▁čeho	-10.5479
▁aut	-10.5485
▁kvalita	-10.5486
▁bytové	-10.5487
mot	-10.549
▁atmosféře	-10.549
▁inflace	-10.549
▁přírodě	-10.549
▁službu	-10.549
▁delegace	-10.549
▁nejnovější	-10.549
▁penzijní	-10.549
▁považují	-10.549
LI	-10.549
▁politická	-10.549
▁květnu	-10.549
▁poptávka	-10.5491
▁vysvětlení	-10.5491
▁brát	-10.5491
▁mínění	-10.5492
▁stupně	-10.5492
▁stanovisko	-10.5492
▁vysvětlit	-10.5495
▁dokonale	-10.5495
▁podaří	-10.5496
▁vysvětlil	-10.5497
▁Nejvíce	-10.5499
▁dřívější	-10.5499
▁dosahuje	-10.5502
▁prosadit	-10.5502
▁představit	-10.5502
▁Chceme	-10.5506
nést	-10.5506
▁léků	-10.5506
▁znaků	-10.551
čili	-10.5513
▁myši	-10.5515
▁ukázalo	-10.5517
▁slovenských	-10.5517
▁role	-10.5519
▁umí	-10.552
▁zkušeností	-10.5521
▁francouzský	-10.5521
▁orgánů	-10.5522
▁přípravě	-10.5522
▁trvale	-10.5523
ovněž	-10.5524
▁vrací	-10.5527
▁ona	-10.553
fo	-10.553
▁nesouhlasí	-10.5531
▁zbytek	-10.5531
▁odchodu	-10.5534
▁Gorbačov	-10.5535
▁Čs	-10.5538
py	-10.5542
▁kanceláří	-10.5555
pře	-10.5556
koupit	-10.5557
▁místem	-10.5562
▁nebezpečné	-10.5564
▁grafické	-10.5566
▁všude	-10.5576
▁vysoký	-10.5577
▁materiály	-10.5579
▁novin	-10.5587
vali	-10.5596
▁vodou	-10.5599
▁vrchol	-10.5604
jev	-10.5612
▁výstava	-10.5616
pravděpodobností	-10.5617
▁800	-10.5617
óz	-10.5617
ir	-10.5626
▁pevné	-10.5628
lem	-10.5629
▁cenou	-10.5632
▁20.	-10.5633
▁kniha	-10.5634
▁deník	-10.5634
píše	-10.5634
orku	-10.5641
▁domnívá	-10.5641
▁vedl	-10.5641
▁zásob	-10.5642
▁NE	-10.5652
▁závodě	-10.5652
fe	-10.5652
▁představu	-10.5653
▁názorů	-10.5655
▁pre	-10.5661
▁adres	-10.5669
▁dojem	-10.5673
▁výklad	-10.5675
▁rozsah	-10.5676
▁čtenáře	-10.5679
▁zúčastnil	-10.5679
ickou	-10.5694
▁pozor	-10.5705
▁podnikové	-10.5707
▁zásad	-10.5707
▁zaměstnavatele	-10.5708
▁Tad	-10.5716
▁vzal	-10.5718
▁osobních	-10.572
▁přestup	-10.5721
▁zbraně	-10.5727
▁způsoby	-10.5731
▁přenos	-10.5742
▁vážně	-10.5746
▁Výsledk	-10.5746
▁atraktivní	-10.5746
▁dlouhá	-10.5746
▁rozhraní	-10.5746
▁tiskárny	-10.5746
▁chráněn	-10.5746
▁koncepce	-10.5746
▁nabídce	-10.5746
▁telekomunikační	-10.5746
▁používají	-10.5746
▁naděje	-10.5746
▁závisí	-10.5747
▁učinil	-10.5747
▁blízké	-10.5747
▁muzea	-10.5747
▁unii	-10.5747
▁rozšířit	-10.5747
▁žebříčku	-10.5747
▁vysvětluje	-10.5747
▁předpokládat	-10.575
▁naději	-10.5751
▁vysoce	-10.5751
▁externí	-10.5755
▁můj	-10.5755
▁složky	-10.5757
vil	-10.5757
▁umožňující	-10.5758
▁Ostrava	-10.5759
▁uvést	-10.5762
▁barvy	-10.5764
▁fotbalistů	-10.5765
▁čtyřech	-10.5766
▁dvojice	-10.5766
▁návštěvu	-10.5766
▁Sparty	-10.5767
projevuje	-10.5769
▁Nikdo	-10.5769
▁Autor	-10.5771
ckých	-10.5774
▁milióny	-10.5774
zo	-10.5785
▁Sa	-10.5791
▁totéž	-10.5791
▁čin	-10.5793
▁akciové	-10.5793
▁agentura	-10.5794
▁šlo	-10.5796
▁nemůžeme	-10.5797
pel	-10.5798
▁budovy	-10.5807
▁noční	-10.5809
▁čtyřmi	-10.5815
tor	-10.5818
▁třiceti	-10.5825
▁studium	-10.5837
lib	-10.5838
▁nároky	-10.5838
▁neznámý	-10.584
▁politický	-10.5841
▁podání	-10.5855
▁mysli	-10.5857
▁kurz	-10.5862
▁vědci	-10.5869
▁trend	-10.5872
▁podstatné	-10.5872
▁navrhl	-10.5875
din	-10.5878
▁filmový	-10.5888
▁listu	-10.5889
▁test	-10.5894
▁tříd	-10.5896
▁návrat	-10.5901
▁kol	-10.5901
▁stranou	-10.5905
▁trestný	-10.5906
▁Bra	-10.591
▁nabídl	-10.5912
her	-10.5914
▁obor	-10.5917
▁povrch	-10.5919
▁světového	-10.5923
▁Cena	-10.5928
lid	-10.5929
▁vydal	-10.5929
▁finančn	-10.5929
cký	-10.5931
fu	-10.5932
ona	-10.5938
▁Profit	-10.594
van	-10.5952
ováno	-10.5952
ejména	-10.5953
nek	-10.5955
▁bodu	-10.5956
▁systémem	-10.5958
icky	-10.5959
lep	-10.5959
▁Nebyl	-10.5965
▁řeší	-10.5966
puštěn	-10.597
star	-10.5978
lat	-10.5987
nesou	-10.5988
▁obchodním	-10.5989
▁spisovatel	-10.5993
ění	-10.5994
▁střed	-10.5996
▁hrají	-10.5999
▁negativní	-10.6002
▁Kolik	-10.6006
▁Itálii	-10.601
▁Miloslav	-10.601
▁povinen	-10.601
▁menšin	-10.601
▁podívat	-10.601
▁Jugoslávii	-10.601
▁najevo	-10.601
▁říct	-10.601
▁Peter	-10.601
▁obligace	-10.6011
▁vybírat	-10.6013
▁vojáků	-10.6015
▁fax	-10.6015
▁snižování	-10.6016
▁peněžní	-10.6017
▁Rad	-10.6018
▁Moravě	-10.602
▁skončení	-10.602
▁kusů	-10.6022
▁pivo	-10.6022
▁hlavu	-10.6024
▁předmětem	-10.6025
▁Počet	-10.6027
▁povolání	-10.6031
▁cyklus	-10.6032
oč	-10.6034
▁odvolání	-10.6034
▁japonské	-10.6042
▁kartu	-10.6045
▁celku	-10.6045
▁úvěrů	-10.6047
íte	-10.6047
por	-10.6049
▁nesmírn	-10.6053
▁národů	-10.6055
▁dílem	-10.6056
▁pouhý	-10.6058
▁oprávněn	-10.6059
▁dvanácti	-10.6062
▁vlny	-10.6065
▁složen	-10.6065
▁důvodem	-10.6068
▁San	-10.6069
▁jakých	-10.6073
▁přijat	-10.6073
▁některým	-10.6075
▁Soud	-10.6078
▁limit	-10.6078
▁škole	-10.6079
▁výstavy	-10.608
▁věří	-10.6087
▁přípravy	-10.6089
váží	-10.6098
▁automobil	-10.61
ír	-10.6103
▁starosta	-10.6104
▁důkaz	-10.6104
▁fotbalový	-10.6106
▁upozornil	-10.6109
▁Dalším	-10.611
▁fyzické	-10.6113
▁Ruské	-10.6114
▁otevřené	-10.6118
▁posun	-10.612
▁nákupu	-10.6126
▁českým	-10.6127
▁jakékoli	-10.6128
▁způsobil	-10.6129
▁Znamen	-10.6133
▁partner	-10.6136
▁Francouz	-10.6137
▁horní	-10.6144
▁devíti	-10.615
▁záznamník	-10.6152
▁upraven	-10.6154
▁tvrdé	-10.6159
rat	-10.6172
▁jistý	-10.6176
▁klid	-10.6181
NA	-10.6194
▁Bush	-10.621
▁graf	-10.6211
▁informoval	-10.6213
▁Lékař	-10.6213
▁hotov	-10.6217
▁Major	-10.6217
▁Rus	-10.622
▁volný	-10.6222
▁schopna	-10.6224
bud	-10.6225
ren	-10.6227
nes	-10.6234
▁jasno	-10.6234
▁dění	-10.6239
▁průběh	-10.6242
▁přímé	-10.6244
▁budov	-10.6246
▁pra	-10.6246
▁požaduje	-10.6247
▁píše	-10.625
▁ploch	-10.6251
▁bankovní	-10.6254
▁kom	-10.6256
W	-10.6258
▁Např	-10.6262
▁partnerů	-10.6267
nozí	-10.6271
▁manžel	-10.6271
19	-10.6271
▁Řad	-10.6279
▁Univerzit	-10.628
▁existovat	-10.628
▁informaci	-10.628
▁obtížné	-10.628
▁prezentací	-10.628
▁vyjádřit	-10.628
▁vytvářet	-10.628
▁února	-10.628
▁ubytování	-10.628
▁optimální	-10.628
▁chemický	-10.628
▁zítra	-10.6281
ený	-10.6282
▁Bójové	-10.6282
▁hrách	-10.6283
▁zdánlivě	-10.6283
▁ztrácí	-10.6285
▁jednotek	-10.6285
▁rychleji	-10.6285
▁tradice	-10.6287
▁československé	-10.6287
▁pu	-10.629
▁nadace	-10.6291
▁závodech	-10.6291
▁bloku	-10.6292
▁hlavy	-10.6293
▁vedou	-10.6295
▁politiků	-10.6295
▁objevuje	-10.6296
▁správu	-10.6296
fer	-10.6297
▁brání	-10.6297
▁střediska	-10.6298
kám	-10.6298
▁ústřední	-10.6298
▁dohodě	-10.63
▁obvinění	-10.6301
▁starost	-10.6304
▁dostávají	-10.6306
MA	-10.6307
▁kontroly	-10.6308
▁boje	-10.6309
▁vesnici	-10.6312
▁předpisy	-10.6314
▁kalů	-10.6315
▁narodil	-10.6317
▁slavnostní	-10.6323
▁vzdálenosti	-10.6327
▁souborů	-10.6331
▁rizika	-10.6339
ine	-10.6339
▁Svoboda	-10.6341
▁Izrael	-10.6341
▁sále	-10.6341
▁mistr	-10.6342
▁zaveden	-10.6342
▁signálu	-10.6344
▁schválil	-10.6344
▁Vlastní	-10.6346
rou	-10.6348
▁vysloven	-10.6349
ovské	-10.635
▁26	-10.6352
▁soutěží	-10.6352
▁návratu	-10.6354
▁hrad	-10.6358
▁PC	-10.6358
▁drží	-10.636
▁těles	-10.6366
▁správný	-10.6367
▁udělá	-10.6368
▁sobotní	-10.6377
hodil	-10.6381
▁anti	-10.6397
počátku	-10.6402
▁dopad	-10.6404
▁klíč	-10.641
▁závodů	-10.6415
▁ostatními	-10.6415
šli	-10.6418
▁důvody	-10.642
případě	-10.6425
▁Ot	-10.643
▁jazyk	-10.6432
▁rad	-10.6444
vad	-10.6445
▁vznikají	-10.645
▁Han	-10.6459
čku	-10.6465
▁vybraný	-10.6479
▁určený	-10.6482
▁server	-10.6484
▁ozbrojený	-10.6489
áš	-10.649
▁čtyřicet	-10.6492
▁předsed	-10.6494
age	-10.6494
▁komunikace	-10.6496
▁určené	-10.6497
▁dětské	-10.6513
▁státě	-10.6519
▁historický	-10.6529
ór	-10.6537
kin	-10.654
najdete	-10.6543
86	-10.6543
▁samostatný	-10.6546
▁mohu	-10.6554
▁klepn	-10.6556
▁demokracii	-10.6558
▁jednoduše	-10.6558
▁navštívil	-10.6558
▁nepochybn	-10.6558
▁nádraží	-10.6558
▁otázkou	-10.6558
▁ovzduší	-10.6558
▁vyrábí	-10.6558
▁častěji	-10.6558
▁železniční	-10.6558
▁obnoven	-10.6558
▁obligací	-10.6558
▁knize	-10.6558
▁modul	-10.6558
▁čísel	-10.6558
▁věnován	-10.6558
▁záření	-10.6558
▁vážné	-10.6558
▁dohodnout	-10.6558
▁pracoviště	-10.6559
▁oblečení	-10.6561
▁odstranit	-10.6561
▁pobřeží	-10.6561
▁několikrát	-10.6562
▁vyvolal	-10.6563
▁komunistické	-10.6563
▁omezen	-10.6563
▁kvalitě	-10.6564
▁uprostřed	-10.6564
▁opoziční	-10.6566
▁žít	-10.6566
▁blízkosti	-10.6567
▁dopravě	-10.6567
▁sportu	-10.6567
▁ovládání	-10.6569
▁příchod	-10.657
▁klimatický	-10.6572
▁investor	-10.6573
▁připadá	-10.6578
pak	-10.6578
▁novináři	-10.6581
▁Internet	-10.6582
▁nejlepších	-10.6583
▁demokratick	-10.6585
ivé	-10.6586
▁rezerv	-10.6588
▁Rakousku	-10.6589
▁nehod	-10.659
▁výpravy	-10.6592
▁Man	-10.6593
▁Pražské	-10.6593
▁obrazů	-10.6597
▁znaky	-10.6598
▁Taková	-10.6598
▁běžně	-10.6599
▁uzavřel	-10.6603
▁cítí	-10.6605
áři	-10.6612
▁velkého	-10.6615
▁viděli	-10.6621
ana	-10.6621
▁působit	-10.6624
▁mezinárodních	-10.6628
gel	-10.6628
▁rodinný	-10.6632
▁argument	-10.6636
zb	-10.6639
▁Rusku	-10.6645
▁souhlasí	-10.6647
▁testu	-10.6648
▁metoda	-10.6651
▁úvěry	-10.6656
▁pohyb	-10.6659
▁festival	-10.6671
▁plný	-10.6674
▁určitých	-10.6676
▁kapitál	-10.668
▁aktivit	-10.6683
▁měsíci	-10.6692
jíž	-10.6695
▁společn	-10.67
▁fondy	-10.6711
▁strach	-10.6711
▁Ž	-10.6719
▁dopravu	-10.6722
hrát	-10.6723
▁termínu	-10.6724
▁událost	-10.6729
▁5.	-10.6734
elný	-10.6734
▁formu	-10.6735
▁prohrál	-10.6738
▁Malé	-10.6738
▁částic	-10.674
▁účel	-10.6741
isté	-10.6742
▁sídle	-10.6744
▁umožnil	-10.6744
jedou	-10.6745
▁doprava	-10.6751
▁plánu	-10.6752
▁zaměstnavatel	-10.6754
▁mo	-10.6759
▁větším	-10.6759
ohledem	-10.6759
▁tajný	-10.6761
řídit	-10.6762
▁zlato	-10.6764
▁editor	-10.6771
▁vytvořil	-10.6772
▁okamžik	-10.6773
▁výnos	-10.6774
▁pohybují	-10.6779
▁účetní	-10.6779
▁zvítězil	-10.6788
▁vodu	-10.6789
▁pomůže	-10.6789
▁využívá	-10.679
kyně	-10.679
▁převzal	-10.6793
▁Musím	-10.6796
40	-10.6806
▁nemusel	-10.6811
▁forma	-10.6811
▁začínají	-10.6813
▁advokát	-10.6816
ast	-10.6817
▁otevřel	-10.6818
▁komerční	-10.6818
▁65	-10.6822
▁Čas	-10.6828
▁večerní	-10.6832
▁ulice	-10.6835
▁schválen	-10.6839
OU	-10.6841
▁Americe	-10.6843
▁dopoledne	-10.6843
▁dveře	-10.6843
▁ministerstvu	-10.6843
▁nejrychleji	-10.6843
▁reakce	-10.6843
▁rekonstrukci	-10.6843
▁rozhoduje	-10.6843
▁strategie	-10.6843
▁vyrábět	-10.6843
▁sloužit	-10.6843
▁srdce	-10.6843
▁policii	-10.6843
▁partneři	-10.6844
▁Klub	-10.6844
▁areálu	-10.6844
▁vzít	-10.6844
▁vězení	-10.6844
▁krve	-10.6844
▁psát	-10.6844
▁trvat	-10.6844
▁penze	-10.6844
▁čekat	-10.6845
▁dubna	-10.6845
▁politickou	-10.6845
▁jaře	-10.6845
▁dotací	-10.6845
▁považovat	-10.6845
▁Konečn	-10.6846
brán	-10.6846
▁zachovat	-10.6847
▁Trenér	-10.6847
▁poskytnout	-10.6848
zení	-10.6848
▁rozdělen	-10.6848
ismu	-10.685
▁stavby	-10.685
▁Mi	-10.6853
▁narození	-10.6853
▁obsahovat	-10.6853
▁provádět	-10.6854
▁aminokyselin	-10.6856
▁Havla	-10.6857
▁býval	-10.6857
▁přišli	-10.6859
▁objektivní	-10.6859
▁ukončení	-10.6862
držení	-10.6864
▁zraněn	-10.6865
DE	-10.6866
kládá	-10.6867
▁obci	-10.6868
▁dítěte	-10.6869
▁vším	-10.6871
▁událostí	-10.6873
▁Mnoho	-10.6875
▁postavit	-10.6876
▁zastavit	-10.688
▁připojení	-10.6881
▁vojenský	-10.6881
▁orgány	-10.6882
▁sovětských	-10.6882
▁viděl	-10.6884
▁taneční	-10.6884
▁schválení	-10.6885
▁kontakty	-10.6886
▁příkladem	-10.6891
▁severu	-10.6892
▁výhody	-10.6894
ává	-10.6895
▁kabinetu	-10.6896
▁průmyslové	-10.6902
▁zjistili	-10.6905
▁managementu	-10.6905
▁produkty	-10.6906
▁učitel	-10.6907
ností	-10.6907
▁cosi	-10.6909
▁dodat	-10.6909
▁události	-10.691
▁útoku	-10.691
▁přátel	-10.6917
▁hlasy	-10.6917
▁přesvědčení	-10.692
▁Sv	-10.6923
▁samostatně	-10.6923
▁rodina	-10.6924
▁maximální	-10.6927
▁hranic	-10.6927
▁dokázal	-10.693
▁principy	-10.6931
▁občany	-10.6932
▁čtvrt	-10.6933
▁slib	-10.6933
▁vyhlásil	-10.694
▁elektrické	-10.6944
▁55	-10.6952
▁vašeho	-10.6952
▁souhlasu	-10.6954
▁oslav	-10.6966
hla	-10.6966
nci	-10.6974
▁soubory	-10.6978
RU	-10.6979
▁rozhodli	-10.6981
▁předpoklad	-10.6985
▁dělí	-10.699
▁stejným	-10.699
íka	-10.6994
▁pas	-10.6996
▁výkonné	-10.6997
▁Rada	-10.6999
▁kluby	-10.6999
▁obrovské	-10.7001
▁1000	-10.7007
▁Wales	-10.701
▁pravidel	-10.7012
oje	-10.7012
▁změnil	-10.7014
▁sociálního	-10.7018
▁zásadně	-10.7018
▁znamenat	-10.7018
▁vstoupil	-10.7026
▁člena	-10.7029
▁zmíněný	-10.7031
▁akt	-10.7032
▁techniku	-10.7034
▁projevil	-10.7035
▁vyzval	-10.704
▁formátu	-10.7041
▁přiznal	-10.7043
▁odkaz	-10.7044
▁oznámila	-10.7045
vz	-10.7045
▁jakém	-10.7049
jdou	-10.7053
kům	-10.7053
▁průměrné	-10.7059
rna	-10.7067
ble	-10.7071
íci	-10.7076
▁bo	-10.7078
▁obec	-10.7079
ňuje	-10.7081
vají	-10.7086
ření	-10.709
▁povinn	-10.709
▁založil	-10.7093
▁milion	-10.7095
▁živé	-10.7097
▁Německ	-10.7104
NÁ	-10.7104
▁pečlivě	-10.7105
▁nástroje	-10.7106
▁víme	-10.7109
▁cyklu	-10.7112
▁rostou	-10.7117
šl	-10.7119
▁postupy	-10.7123
příliš	-10.7126
▁1,	-10.7127
▁prv	-10.7127
han	-10.7128
▁Euro	-10.7136
▁Stanislav	-10.7137
▁března	-10.7137
▁geometrie	-10.7137
▁zahrnuje	-10.7137
▁rozmezí	-10.7137
▁sotva	-10.7137
▁kupónov	-10.7137
▁klesá	-10.7138
▁rakouské	-10.7138
▁čtvrtletí	-10.7138
▁zahynul	-10.7138
▁návod	-10.7139
▁využil	-10.7139
▁Inter	-10.7139
aly	-10.714
▁téhož	-10.714
▁snižuje	-10.7141
▁diskusi	-10.7142
▁morální	-10.7143
▁výsledku	-10.7143
▁zajišťuje	-10.7143
▁opozice	-10.7145
RO	-10.7145
▁účinky	-10.7146
▁školách	-10.7147
▁poradce	-10.7147
▁zásluh	-10.7149
▁pravomoci	-10.715
▁kovů	-10.7152
▁zvýší	-10.7152
▁třídě	-10.7155
▁vzpomíná	-10.7156
oři	-10.7157
▁formy	-10.7157
▁činit	-10.7158
▁zachování	-10.717
šit	-10.7172
▁miliónu	-10.7174
▁přestal	-10.7175
▁hor	-10.7176
LE	-10.7176
▁duchu	-10.7178
▁kandidátů	-10.7178
řídil	-10.7179
▁volbu	-10.7183
▁příčinou	-10.7183
▁příběh	-10.7187
▁provádí	-10.7187
▁produkt	-10.7188
▁představiteli	-10.7191
▁přinesl	-10.7195
▁startu	-10.7203
mer	-10.7206
▁bran	-10.721
▁Zemi	-10.7215
▁slep	-10.7217
▁pražských	-10.7221
▁Tehd	-10.7223
padají	-10.723
▁cíl	-10.7234
%	-10.7235
kol	-10.7235
▁producent	-10.7239
▁plnění	-10.7245
klád	-10.7247
▁papíru	-10.7256
dostanou	-10.7257
▁Lon	-10.7262
▁kruh	-10.7262
▁Boris	-10.7263
▁poskytl	-10.7265
▁signál	-10.727
▁obchody	-10.7276
▁Zájem	-10.7276
▁nezbytn	-10.7279
▁Občanské	-10.7281
▁Be	-10.7285
▁klasický	-10.7291
▁modely	-10.7294
OH	-10.7294
▁JE	-10.7295
▁ztratil	-10.7296
ených	-10.7302
▁rozhodčí	-10.7303
▁daném	-10.7308
▁chyby	-10.7317
▁následujících	-10.7319
▁Popper	-10.7321
▁7.	-10.7321
▁vybaven	-10.7322
▁chat	-10.7322
50	-10.7328
▁příslušn	-10.7329
▁vz	-10.734
▁barevný	-10.7342
▁Michael	-10.7342
▁krátké	-10.7343
zv	-10.7344
▁průzkum	-10.7352
ologie	-10.7354
▁15.	-10.7354
▁přenosov	-10.7357
▁filmové	-10.7364
▁věda	-10.7365
▁Ad	-10.7367
▁loňský	-10.7369
▁výbuch	-10.7369
▁poruch	-10.7377
dis	-10.7384
▁protest	-10.7386
▁postižen	-10.7392
▁jediným	-10.7395
nictví	-10.7401
▁pojištěn	-10.7407
▁Mnoh	-10.7408
▁vln	-10.7413
▁vstříc	-10.7415
▁podpis	-10.7415
▁vyp	-10.7418
▁služba	-10.7421
něte	-10.7423
bere	-10.7428
▁reakci	-10.7428
▁našel	-10.7429
15	-10.7431
▁uvažuje	-10.7431
▁nezávislé	-10.7435
▁chtěla	-10.7439
▁Otázka	-10.7441
▁definitivně	-10.7441
▁digitální	-10.7441
▁divadlo	-10.7441
▁kyslíku	-10.7441
▁označit	-10.7441
▁pokračování	-10.7441
▁prognóz	-10.7441
▁sekretář	-10.7441
▁transformaci	-10.7441
▁vozidel	-10.7441
▁vězňů	-10.7441
▁zvyšování	-10.7441
▁Československé	-10.7441
▁října	-10.7441
▁důvěru	-10.7441
▁počtem	-10.7441
▁prosinci	-10.7441
▁vazby	-10.7441
▁Práce	-10.7441
▁nikoho	-10.7441
▁výročí	-10.7441
▁Býval	-10.7441
▁svoje	-10.7441
▁myšlenky	-10.7441
▁super	-10.7442
▁hluboké	-10.7442
▁Člen	-10.7442
▁poradit	-10.7444
▁hřišti	-10.7446
cího	-10.7446
▁oběti	-10.7447
▁sexuální	-10.7447
▁navrhuje	-10.7448
▁majitele	-10.7448
▁neplatí	-10.7449
▁mírně	-10.745
▁výdajů	-10.7451
▁poplatky	-10.7451
▁Třeba	-10.7452
▁začátek	-10.7452
dit	-10.7453
▁rozšířil	-10.7454
▁sezóny	-10.7456
zemědělských	-10.7456
▁pochod	-10.7458
ena	-10.7459
▁mechanismus	-10.7459
▁útok	-10.746
▁zrušit	-10.746
▁tuzemsku	-10.7461
brat	-10.7462
▁koní	-10.7462
▁rostoucí	-10.7462
▁boji	-10.7462
▁pokuty	-10.7462
▁krajiny	-10.7464
▁Uvedl	-10.7464
▁dílů	-10.7467
▁bratr	-10.7467
▁(1	-10.7468
▁třetiny	-10.7471
▁rozsáhlé	-10.7472
▁Jaké	-10.7472
▁východě	-10.7476
▁Hlavním	-10.7482
▁příležitostí	-10.7482
▁reklamy	-10.7484
rd	-10.7485
▁svobody	-10.7487
▁zůstalo	-10.7487
▁Rakouska	-10.7487
▁vědí	-10.7488
▁postavil	-10.7489
▁schopností	-10.7493
▁ukázal	-10.7496
chází	-10.7496
▁představitele	-10.7497
▁1992.	-10.7498
▁náhradní	-10.7498
▁obsahují	-10.75
▁pacient	-10.7502
▁nastavení	-10.7503
▁výborů	-10.7503
▁majitelé	-10.7505
▁přítomnosti	-10.7506
▁koncertu	-10.7508
▁činil	-10.7509
▁Pří	-10.7515
TE	-10.7519
▁tisíci	-10.7525
▁průkaz	-10.7525
▁objevují	-10.753
hi	-10.753
▁důsled	-10.7532
▁Vlk	-10.7536
▁starý	-10.7538
▁společenské	-10.7542
▁zjistil	-10.755
▁záležitosti	-10.7552
jat	-10.7553
▁Světové	-10.7554
▁stylu	-10.7556
dní	-10.7567
bel	-10.757
▁31.	-10.7571
▁tuzemské	-10.7576
▁ekonomický	-10.7578
▁českém	-10.7579
▁věděl	-10.7587
tů	-10.7587
▁známý	-10.7588
▁karta	-10.7589
▁hru	-10.759
▁necelý	-10.759
dra	-10.7597
▁obvod	-10.7601
▁výrobních	-10.7608
AD	-10.7616
▁mimořádný	-10.7621
▁exportu	-10.763
▁klidně	-10.763
▁36	-10.7632
▁SP	-10.764
▁sousední	-10.7645
wa	-10.7646
▁obrovský	-10.7653
▁primátor	-10.7656
▁host	-10.7658
▁silný	-10.7663
▁výkony	-10.7669
▁porad	-10.7669
▁zpravodaj	-10.7669
▁dosáhla	-10.7676
▁rodičů	-10.7676
▁obsadil	-10.7687
▁surovin	-10.7689
myšlen	-10.7692
▁zdravotního	-10.7692
▁Pomoc	-10.7693
ll	-10.7694
skal	-10.7694
▁Muž	-10.7695
▁účtu	-10.7698
▁vlastnost	-10.7702
áme	-10.7703
▁Obecn	-10.7706
▁diplomat	-10.7707
▁potřeboval	-10.771
▁státem	-10.771
dem	-10.7715
▁firemní	-10.7716
▁důraz	-10.7716
čátkem	-10.7716
▁klasické	-10.7716
▁postih	-10.7716
▁CO	-10.7717
▁přítomnost	-10.7719
▁ostatním	-10.7719
▁Úřadu	-10.7719
▁Výbor	-10.7725
ováním	-10.7729
skočil	-10.7731
▁vlně	-10.7731
▁6.	-10.7735
ug	-10.7741
▁dětský	-10.7747
bytek	-10.7748
▁menších	-10.775
kládají	-10.7751
▁Evropu	-10.7753
▁Mechanik	-10.7753
▁Premiér	-10.7753
▁Systém	-10.7753
▁Vývoj	-10.7753
▁definitivní	-10.7753
▁kilobajtů	-10.7753
▁lehce	-10.7753
▁potvrzuje	-10.7753
▁připomněl	-10.7753
▁režii	-10.7753
▁sjednocení	-10.7753
▁smlouvě	-10.7753
▁tabulce	-10.7753
▁teorií	-10.7753
▁tvořit	-10.7753
▁účinek	-10.7753
▁zdarma	-10.7753
▁schůze	-10.7753
▁podezření	-10.7753
▁spotřeby	-10.7753
▁zastupitelstva	-10.7753
▁nedokázal	-10.7753
▁střetnutí	-10.7753
▁bránit	-10.7754
▁GSM	-10.7754
▁produkci	-10.7754
▁celků	-10.7755
▁nejenom	-10.7756
▁absolutní	-10.7756
▁ovoce	-10.7756
▁resp	-10.7756
▁("	-10.7756
▁diskuse	-10.7757
▁Dodal	-10.7758
▁vaši	-10.7758
▁předložit	-10.776
▁11.	-10.7761
▁dolní	-10.7762
▁vyvolává	-10.7763
ller	-10.7763
▁textový	-10.7764
▁akademie	-10.7764
▁padesáti	-10.7765
▁kódování	-10.7765
▁Pět	-10.7766
▁Druhá	-10.7769
▁Staroměstské	-10.7771
▁dostatek	-10.7772
▁Jednání	-10.7772
▁náhodou	-10.7778
▁zahraničním	-10.7778
▁kontrolní	-10.7779
▁46	-10.778
▁závislosti	-10.7784
týká	-10.7785
▁Severní	-10.7785
▁trénink	-10.7785
▁užívání	-10.7788
▁fakultu	-10.7789
▁výstavě	-10.7789
▁najde	-10.779
ňování	-10.7792
ista	-10.7793
▁označen	-10.7795
▁veřejných	-10.7797
▁předložen	-10.7797
▁Sparta	-10.7799
▁nahradil	-10.7799
▁pachatel	-10.7801
▁zdravé	-10.7801
átor	-10.7804
▁teplota	-10.7805
▁Změn	-10.7805
▁základem	-10.7806
▁ukončil	-10.7806
▁zvěře	-10.7808
hnal	-10.781
ckého	-10.7812
▁škodu	-10.7822
bili	-10.7825
táhne	-10.783
▁příčiny	-10.7834
▁zdravotnické	-10.7836
▁Mir	-10.7838
▁Ústavní	-10.7843
▁Němec	-10.7848
▁vyžádal	-10.7855
▁sporu	-10.7858
▁trenérem	-10.7859
leč	-10.7861
▁principu	-10.7862
▁čtrnáct	-10.7869
▁Nez	-10.7882
▁Novák	-10.7887
▁týdnech	-10.7887
ovky	-10.7888
IT	-10.7892
íme	-10.7895
AL	-10.7896
tion	-10.7902
▁prav	-10.7903
og	-10.7908
▁trestné	-10.7915
▁podobného	-10.7917
ony	-10.792
▁koho	-10.793
▁fyzický	-10.7932
níků	-10.7939
par	-10.7947
edení	-10.7947
ány	-10.7947
▁jiní	-10.7948
▁mnou	-10.7958
▁Kon	-10.7959
▁variant	-10.7965
▁znění	-10.7967
▁zad	-10.7975
▁pokračoval	-10.7977
▁pravděpodobnost	-10.7977
▁střel	-10.798
▁Firm	-10.7981
▁reálný	-10.7982
▁komplex	-10.7984
80	-10.799
▁životním	-10.7993
▁městský	-10.7996
▁situací	-10.8
▁lékařsk	-10.801
▁Paul	-10.8011
▁bi	-10.8016
kar	-10.8017
▁bezprostředn	-10.8018
jako	-10.802
▁nezávislost	-10.8022
▁odsouzen	-10.8023
ide	-10.803
▁zjištěn	-10.8032
85	-10.8036
ij	-10.8036
▁Jelcina	-10.8038
▁grafický	-10.8052
▁škod	-10.8055
▁Svět	-10.8055
▁právník	-10.8061
▁poskytují	-10.8064
20	-10.807
razit	-10.8072
▁třetího	-10.8073
▁Viktor	-10.8075
jedině	-10.8075
▁chystá	-10.8076
▁dražší	-10.8076
▁krizi	-10.8076
▁nemohu	-10.8076
▁podporovat	-10.8076
▁přispět	-10.8076
▁sportovců	-10.8076
▁uskutečnit	-10.8076
▁vyřešit	-10.8076
▁Člověk	-10.8076
▁Poslanc	-10.8076
▁skončí	-10.8076
▁Osobn	-10.8076
▁nejnižší	-10.8076
▁turisty	-10.8076
▁mlýn	-10.8076
▁dohromady	-10.8076
▁sněhu	-10.8076
▁mld	-10.8076
▁obilí	-10.8076
▁dobrá	-10.8076
▁snažit	-10.8076
▁síti	-10.8076
▁atmosféry	-10.8077
▁těší	-10.8077
▁vypadat	-10.8077
▁formát	-10.8078
▁přesvědčit	-10.8078
▁Hradci	-10.8079
▁vedlejší	-10.8079
▁zbytečně	-10.8079
▁vybudovat	-10.8079
▁dala	-10.808
▁zhodnocení	-10.8081
▁pokračuje	-10.8082
▁porozumění	-10.8082
▁tr	-10.8082
▁ruky	-10.8082
▁tvorbě	-10.8083
▁všeobecně	-10.8083
▁připojit	-10.8084
▁Bruselu	-10.8086
▁srážek	-10.8088
▁přinést	-10.8095
▁rovině	-10.8095
nů	-10.8096
▁obsazení	-10.8096
▁poznamenal	-10.8096
▁vesnice	-10.8098
▁analýzy	-10.8098
▁34	-10.8101
▁Chorvatska	-10.8102
▁Senátu	-10.8105
ier	-10.8106
▁spolupracovníků	-10.8106
▁opustit	-10.8108
▁ztrát	-10.8109
▁Úřad	-10.8111
▁autobusy	-10.8113
▁kolektivní	-10.8116
počítá	-10.8117
▁silnice	-10.812
▁důchodu	-10.8122
▁Američané	-10.8122
▁zájmů	-10.8123
AV	-10.8129
TI	-10.8134
▁dovozu	-10.8135
▁zájemce	-10.8137
▁výkonný	-10.8147
▁Ca	-10.8147
▁Novotný	-10.8154
▁poli	-10.8154
▁Karla	-10.8157
▁požadované	-10.816
▁Mohl	-10.8162
▁bílé	-10.8165
ičtí	-10.8166
▁volných	-10.8167
▁grafu	-10.8168
▁nachází	-10.8168
▁zlom	-10.8169
šť	-10.8174
▁drobné	-10.8174
▁nevím	-10.8177
▁přivedl	-10.8178
▁tlaku	-10.8182
▁citliv	-10.8182
ton	-10.8183
▁nepříjemné	-10.8184
▁130	-10.8189
▁dalo	-10.8192
▁vědě	-10.8194
▁patnácti	-10.8194
▁experiment	-10.8194
▁průměrný	-10.8202
▁objemu	-10.8209
▁projektů	-10.8215
▁personální	-10.8218
▁Pe	-10.8224
bíhá	-10.8226
▁nástup	-10.8228
▁struktura	-10.8228
▁Ni	-10.8231
▁získan	-10.8232
▁členský	-10.8239
izace	-10.824
▁ekonom	-10.8251
▁Několik	-10.8252
TO	-10.8254
▁1,5	-10.8266
▁záznam	-10.8267
▁vedla	-10.8269
▁hledají	-10.8271
▁potenciál	-10.8272
▁hůře	-10.8274
bývají	-10.8276
▁průmysl	-10.8276
▁plno	-10.8279
▁konečný	-10.8281
▁Takový	-10.8281
▁úst	-10.8283
▁dostih	-10.8289
▁turistický	-10.8292
▁investic	-10.8299
trh	-10.8306
▁neb	-10.8307
eny	-10.8312
▁past	-10.8314
▁Jaký	-10.8315
▁nutnost	-10.8317
věřil	-10.8318
kat	-10.832
▁osobnost	-10.832
▁koupí	-10.8322
▁jmenován	-10.833
KO	-10.8331
▁král	-10.8335
▁prosadil	-10.8337
▁management	-10.8338
▁Kor	-10.8339
rop	-10.8349
▁překvapení	-10.835
▁čtyřiceti	-10.8353
▁dokumentu	-10.8356
▁vyšetřovatel	-10.8358
klo	-10.8365
denní	-10.8372
▁Jaká	-10.8374
▁neboli	-10.8377
▁výrazný	-10.8379
▁značný	-10.8381
▁zvíře	-10.8384
▁zvyk	-10.8385
hlížet	-10.8394
▁dělení	-10.8403
▁Mluvčí	-10.8409
▁dosažení	-10.8409
▁jednoduchá	-10.8409
▁metropoli	-10.8409
▁nechtějí	-10.8409
▁neutrální	-10.8409
▁pochopení	-10.8409
▁teorii	-10.8409
▁tradičně	-10.8409
▁výpověď	-10.8409
▁únoru	-10.8409
▁reakcí	-10.8409
▁Peníze	-10.8409
▁likvidace	-10.8409
▁Zástupc	-10.8409
▁Obdobn	-10.8409
▁restauraci	-10.8409
▁nevýhod	-10.8409
▁nejpozději	-10.8409
▁Rozdíl	-10.8409
▁jmění	-10.8409
▁Rudolf	-10.8409
▁dotace	-10.8409
▁operací	-10.841
▁dojít	-10.841
▁kabel	-10.8411
▁kategorii	-10.8411
▁dělají	-10.8411
▁výhodnější	-10.8412
▁mezd	-10.8412
▁elektráren	-10.8413
▁reformy	-10.8414
▁obsažen	-10.8414
▁sněmovně	-10.8416
▁podporuje	-10.8417
▁břehu	-10.8418
▁městech	-10.8419
▁vína	-10.842
▁realitní	-10.8421
▁udržení	-10.8424
padne	-10.8424
▁časopisů	-10.8424
▁oblačnost	-10.8425
▁přijdou	-10.8425
▁Zahraničn	-10.8427
▁sezónu	-10.8428
▁Tour	-10.843
▁prof	-10.8435
▁pochází	-10.8435
▁stíhání	-10.8436
▁skla	-10.8441
▁uložení	-10.8442
▁Jin	-10.8443
táhnout	-10.8444
dů	-10.8448
▁žádostí	-10.8449
▁otevřena	-10.8451
▁OH	-10.8451
88	-10.8451
▁hledal	-10.8456
▁kandidát	-10.8456
▁odborníky	-10.8456
▁hmoty	-10.8457
▁Paříži	-10.846
▁Bu	-10.8461
▁kvantov	-10.8464
5%	-10.8464
▁svobodu	-10.8467
▁staví	-10.8471
▁strom	-10.8472
▁využívání	-10.8473
▁mechanik	-10.8479
▁rodin	-10.848
▁posílen	-10.8483
álně	-10.8485
volat	-10.8488
▁obvodní	-10.8492
▁založení	-10.8495
▁žádosti	-10.8501
▁kont	-10.8503
▁Sun	-10.8503
▁domy	-10.8504
▁vystaven	-10.8508
▁záměru	-10.8512
▁ukázala	-10.8516
▁Bla	-10.852
rovná	-10.8521
nský	-10.8523
▁uspořáda	-10.8526
▁vešker	-10.8527
▁nemohli	-10.8527
▁škoda	-10.8539
▁Důležit	-10.8544
▁reprezentantů	-10.8551
▁mimořádné	-10.8553
▁šedesát	-10.8553
nce	-10.8557
▁vys	-10.8561
▁zákazníkům	-10.8565
▁Cha	-10.8567
▁ztráta	-10.8568
▁letecké	-10.8568
▁mini	-10.8569
▁platy	-10.8571
▁vydat	-10.8574
▁vydává	-10.8575
▁činu	-10.8579
▁Ital	-10.8582
▁provozní	-10.8584
▁požádal	-10.8587
▁zvýšené	-10.8596
▁řídící	-10.8596
▁hlad	-10.8597
nému	-10.8601
▁složitější	-10.8603
▁patřil	-10.8605
▁9.	-10.8605
bral	-10.8609
end	-10.8611
▁mladí	-10.8615
▁zvýšen	-10.8616
▁hal	-10.8617
nová	-10.8617
▁mluvčího	-10.862
ičky	-10.8631
▁týmy	-10.8635
běhu	-10.8636
▁monitor	-10.8638
▁zvuk	-10.8642
▁stanic	-10.8645
▁každému	-10.8649
▁děl	-10.8652
▁Per	-10.8653
▁čtvrtý	-10.8655
▁kompromis	-10.8656
▁zařazen	-10.8656
▁platnost	-10.866
▁pražský	-10.8664
šek	-10.8672
ačnou	-10.8675
šky	-10.8676
▁úmysl	-10.8676
▁95	-10.8676
▁úrovní	-10.8677
▁muse	-10.8677
▁výstup	-10.8681
pot	-10.8682
▁značn	-10.8682
▁podnikatelský	-10.8682
ického	-10.8685
▁monopol	-10.8685
▁podvod	-10.8688
▁nezaměstnanost	-10.8688
▁vývojové	-10.8695
▁snažil	-10.8696
AR	-10.8698
jedno	-10.8698
▁podílel	-10.87
'	-10.87
▁noc	-10.8701
oučástí	-10.8701
▁Plat	-10.8702
ON	-10.8702
▁vlád	-10.8703
▁chorob	-10.8706
▁Fa	-10.8707
▁Hol	-10.8708
▁Or	-10.871
sty	-10.8711
bývá	-10.8714
▁šéfa	-10.8717
▁poskytovat	-10.8726
níky	-10.8727
▁následn	-10.8735
▁herec	-10.8737
▁obecné	-10.8738
▁Vznik	-10.874
▁stačil	-10.8741
▁adresu	-10.8744
kovou	-10.8744
▁Mark	-10.8748
▁blízko	-10.8754
▁Ameriky	-10.8754
▁Bohužel	-10.8754
▁Plzni	-10.8754
▁SCSI	-10.8754
▁energii	-10.8754
▁instituce	-10.8754
▁kapitán	-10.8754
▁nejvýznamnější	-10.8754
▁podpořil	-10.8754
▁přirozené	-10.8754
▁chránit	-10.8754
▁koncepci	-10.8754
▁mládí	-10.8754
▁názvu	-10.8754
▁čtvrtfinále	-10.8754
▁rámeček	-10.8754
▁Včera	-10.8754
▁Nedávn	-10.8754
▁investování	-10.8754
▁Ladislav	-10.8754
▁zaujal	-10.8754
▁stabilní	-10.8754
▁Policisté	-10.8754
▁ekonomicky	-10.8754
▁trzích	-10.8754
▁klade	-10.8755
▁výrobek	-10.8755
▁zimě	-10.8756
▁obrázky	-10.8757
▁síla	-10.8757
▁Tentokrát	-10.8758
▁konat	-10.8758
tav	-10.8758
▁Londýně	-10.8758
▁tón	-10.8759
▁chodit	-10.876
▁tradici	-10.876
▁uznal	-10.876
▁bojovat	-10.8761
▁tělo	-10.8761
▁úvahy	-10.8762
▁David	-10.8762
▁Afriky	-10.8764
▁hlavou	-10.8764
▁hudby	-10.8764
děk	-10.8764
▁odstavce	-10.8764
boj	-10.8765
▁použil	-10.8766
▁lokální	-10.8766
▁pokusil	-10.8766
▁kritérií	-10.8767
▁právnické	-10.8767
dává	-10.8768
▁originální	-10.8768
▁umělecký	-10.8769
▁schůzky	-10.8771
▁požadují	-10.8772
▁způsobuje	-10.8773
▁scény	-10.8774
▁faktorů	-10.8775
▁parametrů	-10.8776
▁zbývající	-10.8777
▁Děti	-10.8778
KU	-10.8784
▁slíbil	-10.8785
▁spravedlnosti	-10.8785
▁vlasti	-10.8785
▁povede	-10.8785
▁zájemci	-10.8787
▁nezbytné	-10.8787
▁založené	-10.8788
▁uživatele	-10.8789
▁nalézt	-10.8791
▁úroky	-10.8791
▁třetinu	-10.8794
MI	-10.8795
▁vesmíru	-10.8795
▁zná	-10.8796
▁postupné	-10.8799
▁Dobr	-10.88
▁nemocných	-10.88
ika	-10.8803
▁světovou	-10.8804
▁úkolem	-10.8804
▁drahé	-10.8805
▁zaměření	-10.8806
▁okruhu	-10.8808
razí	-10.8808
▁ostře	-10.8811
▁grafick	-10.8811
▁způsobené	-10.8813
běhl	-10.8813
▁bot	-10.8813
▁sekund	-10.8814
▁paliva	-10.8815
leb	-10.8815
▁symbol	-10.8819
▁Klause	-10.882
▁Lidové	-10.882
▁Vol	-10.8821
▁bosenský	-10.8821
▁představí	-10.8825
▁přijel	-10.8825
▁společensk	-10.8826
platit	-10.8829
▁Zajímav	-10.8829
▁dokumentů	-10.8833
▁starosty	-10.8834
▁los	-10.8835
▁vybrané	-10.8835
vítá	-10.8837
▁dospěl	-10.8838
kládat	-10.8838
▁zásady	-10.8839
▁udržel	-10.8844
▁klidu	-10.8847
▁hradu	-10.8847
▁poukaz	-10.8848
▁úkolů	-10.8849
▁blíže	-10.8851
▁podat	-10.8853
▁uvedení	-10.8857
▁zásah	-10.8857
ng	-10.886
šly	-10.8863
▁výkonem	-10.8866
▁pouhé	-10.8868
elné	-10.887
▁konkrétně	-10.8877
▁výš	-10.8878
inter	-10.8883
lka	-10.8886
▁hovořil	-10.8888
▁29	-10.889
▁paláce	-10.8895
▁roze	-10.89
usi	-10.8906
rám	-10.8908
▁dalšímu	-10.891
▁zůstala	-10.8911
▁umělé	-10.8919
▁sklon	-10.8923
▁skutečný	-10.8926
▁společenský	-10.8926
▁rozhovor	-10.8928
▁odkud	-10.8928
eček	-10.8931
počet	-10.8943
▁parku	-10.8945
▁motor	-10.8946
▁biologické	-10.8956
▁Nevím	-10.8957
▁30.	-10.8957
kládal	-10.8961
▁lustrační	-10.8962
▁připojen	-10.8962
vnějších	-10.8965
▁pevný	-10.8969
▁filmy	-10.8969
▁oper	-10.8973
▁zahraničními	-10.8974
▁pokyn	-10.8974
▁školu	-10.8985
▁Britsk	-10.8992
▁jeví	-10.8994
▁výhod	-10.8996
ráže	-10.9004
▁potřebný	-10.9005
ab	-10.9005
▁výrok	-10.9006
▁nalezen	-10.9009
▁oceán	-10.9011
▁objevit	-10.9021
rum	-10.9021
▁díl	-10.9021
▁Ros	-10.9026
▁8.	-10.9027
▁česko	-10.903
▁svědomí	-10.9033
▁možný	-10.9035
▁vzduch	-10.904
▁hrob	-10.904
hodnou	-10.9051
▁divadelní	-10.9055
▁38	-10.9058
▁Tur	-10.9059
▁děj	-10.9059
LO	-10.9066
▁student	-10.9069
▁zastoupen	-10.9076
rab	-10.9077
▁exportní	-10.9078
▁standard	-10.9083
▁ochotni	-10.9087
▁přínos	-10.9088
▁platný	-10.9093
▁koně	-10.9098
▁agent	-10.9098
jel	-10.9099
kož	-10.9101
▁Auto	-10.9107
▁most	-10.9109
▁trans	-10.911
▁rytm	-10.9111
ačtyřicet	-10.9111
▁Alexandr	-10.9111
▁Barceloně	-10.9111
▁Británii	-10.9111
▁Nejlepší	-10.9111
▁Srbsk	-10.9111
▁březnu	-10.9111
▁déšť	-10.9111
▁fázi	-10.9111
▁instalaci	-10.9111
▁kratší	-10.9111
▁normy	-10.9111
▁následek	-10.9111
▁podmínkou	-10.9111
▁pomáhá	-10.9111
▁populární	-10.9111
▁požádat	-10.9111
▁pravidlo	-10.9111
▁tlačítka	-10.9111
▁tlačítkem	-10.9111
▁týdně	-10.9111
▁umožnit	-10.9111
▁divize	-10.9111
▁těžce	-10.9111
▁vrstvy	-10.9111
▁ploše	-10.9111
▁Část	-10.9111
▁likvidaci	-10.9111
▁značky	-10.9111
▁Soubor	-10.9111
▁někoho	-10.9111
▁pololetí	-10.9111
▁debat	-10.9111
▁kvalifikace	-10.9111
▁Robert	-10.9111
▁doposud	-10.9111
▁příslušníci	-10.9111
▁komisi	-10.9111
▁pozdější	-10.9112
▁ekonomice	-10.9112
▁klimatu	-10.9112
▁plynu	-10.9112
▁IFOR	-10.9113
▁uvažovat	-10.9113
▁desky	-10.9114
▁červenci	-10.9114
pálen	-10.9114
▁Her	-10.9115
▁drog	-10.9115
▁horách	-10.9115
▁Hodnot	-10.9116
▁Generální	-10.9116
▁ukázat	-10.9117
jeli	-10.9117
▁multimediální	-10.9117
▁právnických	-10.9118
▁zajímat	-10.912
▁vzorky	-10.9122
▁letiště	-10.9122
▁myšlenka	-10.9123
▁výstavbě	-10.9124
▁cenách	-10.9127
▁vyšel	-10.9128
▁vozy	-10.9129
▁Novotná	-10.9131
ODA	-10.9132
▁Cíle	-10.9132
▁pozorování	-10.9132
▁podílu	-10.9132
▁Karadžič	-10.9133
▁ukáže	-10.9133
▁potvrzení	-10.9135
▁pojem	-10.9135
▁JU	-10.9137
▁ohrožení	-10.9138
▁nep	-10.9138
▁lidsk	-10.9138
▁barvu	-10.9138
▁chyběl	-10.9141
áci	-10.9142
yl	-10.9143
▁účelem	-10.9146
▁parametry	-10.9147
▁obvyklé	-10.9149
▁věnuje	-10.9149
▁%)	-10.9151
▁ekonomika	-10.9151
▁Atlanty	-10.9151
OR	-10.9151
▁úvodu	-10.9152
▁plynů	-10.9152
▁kapacit	-10.9152
▁příspěvky	-10.9154
▁srážky	-10.9155
▁muzeum	-10.9156
šení	-10.9158
▁očekávání	-10.9159
▁národ	-10.9161
▁stupni	-10.9161
▁rostlin	-10.9161
▁držet	-10.9161
▁mezinárodním	-10.9162
▁Svazu	-10.9162
▁dvojí	-10.9164
▁sektoru	-10.9164
▁ono	-10.9164
▁působící	-10.9166
▁přírodovědecké	-10.9167
▁Často	-10.9169
▁důchodové	-10.9169
▁Dá	-10.917
nova	-10.917
měr	-10.9171
▁napsat	-10.9172
▁telefonu	-10.9172
▁styku	-10.9176
▁studenti	-10.9177
▁Kub	-10.9178
▁řeky	-10.918
▁potenciální	-10.9181
▁nahradit	-10.9183
▁varianty	-10.9183
▁uživatel	-10.9184
▁příjemné	-10.9186
▁třetina	-10.9186
▁obchodů	-10.9186
▁ztrátu	-10.9189
▁Organiza	-10.9192
▁hloub	-10.9193
▁Slovensk	-10.9193
41	-10.9195
▁průzkumu	-10.9196
,6	-10.92
▁španělské	-10.92
▁kus	-10.9203
ama	-10.9206
MU	-10.9209
▁cíli	-10.9211
▁zjevn	-10.9215
,8	-10.9215
▁jediného	-10.9218
tp	-10.9235
▁změnila	-10.9235
skutk	-10.9236
▁spokojeni	-10.9236
▁jednot	-10.9241
▁kontrola	-10.9245
▁černé	-10.9248
▁určitém	-10.9249
▁Velm	-10.9251
eb	-10.9252
▁nedostal	-10.9252
▁pořádá	-10.9256
▁zločin	-10.9263
▁stisk	-10.9266
▁hrála	-10.9266
▁výrazné	-10.9272
▁trvalé	-10.9277
▁založena	-10.9277
▁udělal	-10.9288
▁společném	-10.9292
▁katastrof	-10.9292
▁rychlý	-10.93
▁prost	-10.9302
▁představitel	-10.9302
▁chorvatské	-10.9303
▁specializované	-10.9305
▁Eva	-10.9305
▁stráž	-10.9306
▁osoba	-10.9313
pustil	-10.9318
tají	-10.9319
▁nějakým	-10.932
▁tvořen	-10.9324
▁Představ	-10.9325
▁důsledně	-10.9326
▁Františk	-10.9326
lis	-10.9329
▁park	-10.9334
▁zní	-10.934
▁úraz	-10.9346
▁Par	-10.935
▁menším	-10.9357
▁italský	-10.9362
▁dohod	-10.9363
nášet	-10.9372
národních	-10.9376
▁tábor	-10.9377
▁Les	-10.9378
▁Martina	-10.938
ŘE	-10.9382
▁75	-10.9382
ložil	-10.9398
▁pověst	-10.9409
ens	-10.9411
▁zájemců	-10.9412
▁devadesát	-10.9414
▁šestnáct	-10.9415
▁koupi	-10.9415
▁bariér	-10.9417
▁kupující	-10.9426
ejme	-10.9431
▁Podnikatel	-10.9431
RE	-10.9433
Ú	-10.9435
▁přesun	-10.9438
▁nastal	-10.9441
CA	-10.9443
▁náskok	-10.9454
▁vedoucího	-10.9455
▁Celk	-10.9456
▁gigant	-10.9459
▁Společn	-10.9466
žili	-10.9469
jmout	-10.9473
najdeme	-10.9474
▁min	-10.9474
▁Španěl	-10.948
▁humor	-10.9481
▁Ukrajiny	-10.9481
▁Zvláštní	-10.9481
▁burze	-10.9481
▁církví	-10.9481
▁galerie	-10.9481
▁náboženství	-10.9481
▁ovlivňuje	-10.9481
▁patrné	-10.9481
▁páteční	-10.9481
▁upozorňuje	-10.9481
▁určuje	-10.9481
▁šetření	-10.9481
▁Koaliční	-10.9481
▁naznačil	-10.9481
▁pronájem	-10.9481
▁IBM	-10.9481
▁oxidu	-10.9481
▁sdělovací	-10.9481
▁usilovat	-10.9481
▁držitel	-10.9481
▁podporou	-10.9481
▁příliv	-10.9481
▁fáze	-10.9481
▁vzestup	-10.9481
nutně	-10.9481
▁nedaleko	-10.9481
vázat	-10.9481
▁filozofie	-10.9481
▁integraci	-10.9481
▁Formát	-10.9481
▁zámku	-10.9482
▁1997	-10.9482
▁hutní	-10.9482
▁myšlenkou	-10.9482
▁slabší	-10.9482
▁svátky	-10.9482
▁duše	-10.9482
▁šíření	-10.9482
▁myšlenku	-10.9482
▁manželství	-10.9482
▁odbor	-10.9482
▁královn	-10.9482
▁srdeční	-10.9483
▁sílu	-10.9483
▁nízko	-10.9483
▁obrázků	-10.9483
▁přežití	-10.9483
pt	-10.9483
▁nehodlá	-10.9483
▁obnovu	-10.9483
▁Týr	-10.9483
▁podnicích	-10.9483
▁Původně	-10.9483
▁stanovit	-10.9484
▁hřiště	-10.9484
▁Správ	-10.9485
▁odhadnout	-10.9485
▁Ri	-10.9485
▁Komis	-10.9485
▁plod	-10.9486
▁testování	-10.9487
▁zdanění	-10.9487
▁znamenalo	-10.9487
▁dám	-10.9488
násob	-10.9488
▁potíží	-10.9488
▁prosazovat	-10.9489
hodlají	-10.949
▁sledování	-10.9491
▁polo	-10.9492
▁silnější	-10.9492
▁Nejde	-10.9495
▁mírové	-10.9495
▁doporučení	-10.9496
▁přístrojů	-10.9497
padlo	-10.9497
▁posoudit	-10.9498
▁olej	-10.9498
▁zákazníci	-10.9498
▁naposledy	-10.9499
▁akcionářů	-10.95
▁soustředění	-10.95
▁Labem	-10.9501
▁úlohu	-10.9502
▁úředníků	-10.9502
▁jistotu	-10.9502
▁následky	-10.9504
▁tvrdě	-10.9504
▁přehlídky	-10.9505
▁přinese	-10.9506
▁Fran	-10.9507
▁Nikd	-10.951
▁příslušníků	-10.9512
▁soudce	-10.9518
▁začínající	-10.9521
▁vládou	-10.9521
▁Byli	-10.9524
▁Naši	-10.9524
▁válka	-10.9525
▁pouště	-10.9527
eta	-10.9531
▁světov	-10.9532
▁Svat	-10.9534
padl	-10.9537
▁lidové	-10.954
▁americkém	-10.9545
▁zachoval	-10.9545
▁zápisu	-10.9548
▁hotelů	-10.9549
▁Platí	-10.9551
▁náročné	-10.9552
▁experti	-10.9554
▁díly	-10.9558
▁technika	-10.9562
▁předpoklady	-10.9562
MO	-10.9564
▁papírů	-10.9568
▁výbuchu	-10.9569
▁samotné	-10.957
▁moravsk	-10.9577
▁Cest	-10.9578
▁par	-10.9579
▁číst	-10.9582
poví	-10.9582
kolik	-10.9583
▁ikon	-10.9584
▁vrcholu	-10.9585
▁vložit	-10.9588
▁25.	-10.9589
▁zavře	-10.9589
▁týmem	-10.959
▁spory	-10.9592
▁výstavu	-10.9594
náší	-10.9596
čil	-10.9596
▁fotbalu	-10.9596
oucí	-10.9599
vní	-10.9602
▁rozlišení	-10.9603
▁krátký	-10.9604
▁spol	-10.9607
nechává	-10.9608
▁ziskem	-10.9609
pas	-10.961
▁procento	-10.9612
▁snahy	-10.9614
▁Malý	-10.9615
vyšších	-10.9619
▁světlo	-10.9625
▁technického	-10.9626
▁85	-10.9626
▁skladb	-10.9633
atel	-10.9635
▁Ši	-10.9637
▁měnové	-10.9641
▁All	-10.9644
zoval	-10.9645
▁vstupní	-10.9645
▁zákazu	-10.9648
▁osobě	-10.9652
▁připraveni	-10.9654
▁Výhod	-10.9654
▁červené	-10.9658
▁trvalo	-10.9662
▁vím	-10.9667
nc	-10.9668
▁typické	-10.9669
čně	-10.967
▁školení	-10.9683
▁soused	-10.9686
▁Dan	-10.9686
▁chová	-10.9689
▁vzdálené	-10.969
rot	-10.9692
▁programem	-10.9695
▁aktivita	-10.9702
out	-10.9708
▁úz	-10.9708
áni	-10.9711
▁kulturních	-10.9712
▁víkend	-10.9715
TU	-10.9717
▁našim	-10.9719
▁pivovar	-10.972
▁předal	-10.972
▁nedělní	-10.9726
▁republiku	-10.9728
ja	-10.973
vrácení	-10.9731
▁pohádk	-10.9738
rit	-10.9741
▁180	-10.9745
▁úspěšný	-10.9745
žení	-10.9746
▁14.	-10.9759
▁Nejs	-10.9765
▁Oznámil	-10.9765
▁per	-10.977
cky	-10.977
▁určena	-10.9771
▁dvoj	-10.9772
▁zaměstnanec	-10.9778
▁vzdálenost	-10.9779
znamenal	-10.9787
▁fanoušků	-10.9789
▁trati	-10.9791
šil	-10.9791
ani	-10.9795
▁podstatný	-10.9795
▁rozpor	-10.9798
▁kabinet	-10.98
▁Problém	-10.9801
▁praktický	-10.9802
▁výlet	-10.9802
▁Možnost	-10.9802
▁zabývají	-10.9802
taj	-10.9803
▁poskytnut	-10.9803
▁sortiment	-10.9805
▁malého	-10.9814
▁působil	-10.9821
▁1987	-10.9821
▁Ste	-10.9827
▁okrese	-10.9828
stické	-10.983
▁prozatím	-10.9831
▁Dom	-10.9833
▁snížen	-10.9836
▁vzhled	-10.984
▁zvolil	-10.984
▁přístroj	-10.9846
▁Pracovní	-10.9852
▁uměl	-10.9854
▁poznat	-10.9855
asi	-10.9857
▁základním	-10.9857
▁kvalifikovan	-10.9858
▁jádro	-10.9858
cházejí	-10.9861
ick	-10.9861
▁Ben	-10.9862
vání	-10.9863
▁Rád	-10.9865
▁Vedoucí	-10.9866
▁dodatečně	-10.9866
▁důležitá	-10.9866
▁fotoaparát	-10.9866
▁franků	-10.9866
▁instalace	-10.9866
▁konstrukce	-10.9866
▁majetkem	-10.9866
▁pohledávek	-10.9866
▁redakce	-10.9866
▁stupňů	-10.9866
▁upozornit	-10.9866
▁vyšetření	-10.9866
▁Bejbl	-10.9866
▁pojmů	-10.9866
▁přežít	-10.9866
▁stovek	-10.9866
▁DPH	-10.9866
▁vojsk	-10.9866
▁Asociac	-10.9866
▁jedince	-10.9866
▁uváděn	-10.9866
▁Řešení	-10.9866
▁certifikát	-10.9866
▁Prostě	-10.9866
▁restaurace	-10.9866
▁1984	-10.9866
▁kvalifikační	-10.9866
▁sněhov	-10.9866
▁formální	-10.9866
▁1968	-10.9866
▁1986	-10.9867
▁nejmenší	-10.9867
▁nohy	-10.9867
▁poznatků	-10.9867
▁inspekce	-10.9867
▁spolupracovat	-10.9867
▁legislativní	-10.9867
▁května	-10.9867
▁Tedy	-10.9867
▁Šest	-10.9868
▁nápis	-10.9868
▁Průměrn	-10.9868
▁mírový	-10.9869
▁žáků	-10.9869
▁marně	-10.9869
▁podzemní	-10.9869
▁chápat	-10.9869
▁Bill	-10.987
▁3,5	-10.987
▁III	-10.987
▁upravit	-10.9871
▁rychlejší	-10.9872
▁Sovětský	-10.9873
▁ruku	-10.9873
▁DEM	-10.9874
▁vyvolat	-10.9874
▁platební	-10.9875
▁užitek	-10.9875
▁manželka	-10.9875
▁Belgie	-10.9876
▁Potom	-10.9876
▁většího	-10.9876
kovat	-10.9879
▁elektřiny	-10.988
▁Nejen	-10.9881
▁rozložení	-10.9881
▁volbami	-10.9881
▁jevů	-10.9882
▁utrpěl	-10.9882
▁odstranění	-10.9883
▁polohy	-10.9884
▁Bur	-10.9884
▁bilance	-10.9886
▁oznámení	-10.9888
▁Lux	-10.989
art	-10.9892
▁návštěvy	-10.9892
▁Japonsku	-10.9893
stál	-10.9894
lení	-10.9897
▁ZA	-10.9898
▁sociálně	-10.9899
▁poslanecké	-10.99
▁osobností	-10.9901
▁Nejdřív	-10.9902
▁výstavbu	-10.9902
▁Německem	-10.9903
▁linky	-10.9904
▁gen	-10.9904
▁Fo	-10.9904
▁Jedná	-10.9905
▁koalici	-10.9907
▁ostrovy	-10.9911
▁měny	-10.9911
▁půdu	-10.9911
cení	-10.9912
▁hrubého	-10.9913
25	-10.9913
▁týdeník	-10.9915
▁demokratů	-10.9916
res	-10.9916
▁Výstava	-10.9918
▁složité	-10.9919
▁uplynulý	-10.992
iletý	-10.9922
▁orgánu	-10.9925
▁vedlo	-10.9929
▁nájemní	-10.9929
▁tráv	-10.9929
▁oborů	-10.9931
▁kapacity	-10.9933
▁stejná	-10.9935
▁bezprostřední	-10.9936
▁systematick	-10.9938
tisknout	-10.9939
▁potřebu	-10.9942
▁oceánu	-10.9943
▁monitoru	-10.9946
▁výběrem	-10.9948
▁pochyb	-10.9951
▁zvukové	-10.9953
▁češt	-10.9954
▁Mon	-10.9954
▁obvodu	-10.9955
▁šok	-10.9956
▁nájemce	-10.9957
▁Rady	-10.996
44	-10.9961
▁učí	-10.9965
▁reagoval	-10.9967
čan	-10.9968
cházelo	-10.9971
DA	-10.9971
▁hvězdy	-10.9985
▁primátora	-10.9988
▁lov	-10.9991
▁nastavit	-10.9991
▁metru	-10.9991
▁fotbalových	-10.9994
▁skutečností	-10.9995
▁velitel	-11
▁potřeb	-11.0001
▁obdobné	-11.0005
▁dokumenty	-11.0006
▁kultur	-11.0007
▁vůdce	-11.0008
▁skupinou	-11.0008
▁plány	-11.001
▁spoj	-11.0011
▁běh	-11.0012
race	-11.0014
▁základy	-11.0017
▁Celkov	-11.0025
▁plyne	-11.003
▁pohár	-11.0033
▁proud	-11.0033
psané	-11.0034
▁evropského	-11.0035
▁sedí	-11.0037
bíd	-11.0046
▁připustil	-11.0046
▁bohat	-11.005
ujícího	-11.0052
▁průměr	-11.0053
▁vzniknou	-11.0053
▁specializovan	-11.0053
▁sportovních	-11.0056
Ř	-11.0059
▁příbuzn	-11.0064
při	-11.0067
▁jmen	-11.007
ána	-11.0072
ruší	-11.0073
▁zlaté	-11.0076
▁Bílé	-11.0077
▁šedesáti	-11.0077
▁současném	-11.008
▁venkov	-11.0089
▁mořský	-11.0092
▁zdravotnický	-11.0092
70	-11.0097
▁rozvoji	-11.0098
nského	-11.0104
▁Jediný	-11.0104
ráží	-11.0115
▁listy	-11.0118
▁Ber	-11.0123
zákon	-11.0123
metr	-11.0127
jal	-11.0128
▁konečné	-11.0129
▁připravena	-11.0133
▁podklad	-11.0134
▁styk	-11.0137
▁odraz	-11.0141
▁dvojnásobn	-11.0152
▁svěřen	-11.0152
▁tich	-11.0154
▁třináct	-11.0161
▁silnic	-11.0161
▁51	-11.0166
číst	-11.0168
LU	-11.0172
▁dodavatele	-11.0174
▁700	-11.0177
▁prvé	-11.0179
hlásí	-11.0181
▁německá	-11.0182
▁fotbalov	-11.0183
▁alkohol	-11.0194
▁zápis	-11.0195
▁chci	-11.0196
▁hluboko	-11.0196
▁zastavil	-11.0197
▁původním	-11.0198
▁2,	-11.0199
slav	-11.0201
▁raket	-11.0202
▁minuty	-11.0203
▁klientů	-11.0206
▁rozvod	-11.0206
▁uvedeno	-11.021
▁sjezd	-11.0215
hruba	-11.0216
stávají	-11.0227
pos	-11.0227
▁zvěř	-11.0227
▁pomohl	-11.0235
letí	-11.0241
▁čistý	-11.0245
▁ozdob	-11.0246
89	-11.0249
ence	-11.0249
▁koš	-11.0249
▁nezávisl	-11.025
ávat	-11.0252
▁motocykl	-11.0252
▁hlubo	-11.0253
▁vstupné	-11.0254
▁doporučuje	-11.0255
pul	-11.0262
▁vysoko	-11.0263
▁postoje	-11.0265
▁Mas	-11.0265
▁spoluhráč	-11.0266
▁brambor	-11.0266
▁domnívají	-11.0266
▁hovořit	-11.0266
▁komponent	-11.0266
▁naštěstí	-11.0266
▁nežádoucí	-11.0266
▁označuje	-11.0266
▁převzít	-11.0266
▁uplatnit	-11.0266
▁zázemí	-11.0266
▁Poborský	-11.0266
▁Sociální	-11.0266
▁kamarád	-11.0266
▁nevědí	-11.0266
▁odlišný	-11.0266
▁Domácí	-11.0266
▁učinit	-11.0266
▁zásilk	-11.0266
▁redaktor	-11.0266
▁Musel	-11.0266
▁pokoušel	-11.0266
▁sněžení	-11.0266
▁slyšet	-11.0266
▁škál	-11.0266
▁nejrychlejší	-11.0266
▁forem	-11.0266
▁ztracen	-11.0266
▁prodlení	-11.0266
▁Slavii	-11.0266
▁vracet	-11.0266
▁efektivní	-11.0266
▁firmám	-11.0266
▁dlouhodobý	-11.0266
▁stránek	-11.0266
▁obrazovce	-11.0266
▁dubnu	-11.0266
▁Grand	-11.0266
▁radikální	-11.0267
▁studií	-11.0267
mor	-11.0267
▁podílejí	-11.0267
▁přál	-11.0267
▁přizpůsobit	-11.0267
▁občanství	-11.0267
▁Vesel	-11.0268
daných	-11.0268
▁posuzovat	-11.0268
▁fronty	-11.0268
▁obrázku	-11.027
▁Číny	-11.027
▁Okresní	-11.0273
▁stavbu	-11.0274
▁23.	-11.0274
▁dobách	-11.0276
▁pracovnice	-11.0276
▁rejstříku	-11.0276
▁Všechno	-11.0276
▁zaznamenal	-11.0277
▁podnikat	-11.0278
▁písemně	-11.0279
▁každodenní	-11.028
▁prodloužení	-11.0282
▁regulace	-11.0283
▁demokraté	-11.0283
▁znalostí	-11.0284
▁souhrn	-11.0284
▁osvobození	-11.0284
enství	-11.0284
▁rod	-11.0285
▁Roman	-11.0285
áno	-11.0285
▁náhradu	-11.0286
▁poslal	-11.0286
▁výjimky	-11.0286
▁rysy	-11.0287
▁Druhou	-11.0287
▁včerejším	-11.0288
▁zbrojní	-11.0289
▁Kalvoda	-11.0289
▁Wimbledonu	-11.0291
▁předmětů	-11.0292
▁teplotě	-11.0293
▁summitu	-11.0294
▁ukládání	-11.0295
▁kritéria	-11.0296
▁64	-11.0297
▁úplné	-11.0299
▁orientaci	-11.03
▁nemovitosti	-11.0303
3,	-11.0305
▁obchodníci	-11.0306
▁vůz	-11.0308
▁resortu	-11.031
▁tvaru	-11.031
▁ztrátou	-11.0313
▁všeobecné	-11.0314
žijí	-11.0315
▁módní	-11.0318
▁jednalo	-11.0318
▁předměty	-11.032
▁představil	-11.032
▁věty	-11.0321
▁13.	-11.0322
▁návštěva	-11.0325
▁divu	-11.0326
▁sboru	-11.0328
▁vybírá	-11.0329
▁Šéf	-11.0332
▁odbory	-11.0333
▁smích	-11.0335
▁sjezdu	-11.0338
▁kandidáty	-11.034
▁vstoupit	-11.0341
▁snažili	-11.0344
▁49	-11.0345
ologické	-11.0347
▁Čechů	-11.0348
▁zvuku	-11.0348
▁rud	-11.0351
▁konto	-11.0357
▁Pražského	-11.0357
▁světla	-11.0361
▁pop	-11.0361
▁důkazy	-11.0362
▁Moskva	-11.0371
▁mapy	-11.0372
čela	-11.0377
▁planety	-11.0378
iner	-11.038
▁celkovém	-11.0383
ickým	-11.0384
▁sestavení	-11.0386
▁Ján	-11.0386
▁úspory	-11.0388
▁známých	-11.0395
▁charakteru	-11.0395
▁Michaela	-11.0398
▁špičkové	-11.0399
▁požár	-11.04
▁úkoly	-11.0402
▁svobod	-11.0402
volal	-11.0406
▁klient	-11.0406
▁ovlivňují	-11.0406
▁předvolební	-11.0412
konala	-11.0413
▁investorů	-11.0413
▁zdi	-11.0414
▁bolest	-11.0416
▁ClipArt	-11.0416
stupující	-11.0421
▁von	-11.0423
▁Lit	-11.0424
▁některý	-11.0425
▁bojů	-11.0429
▁")	-11.0429
▁německém	-11.0436
▁neznám	-11.0437
Ile	-11.044
▁Kar	-11.045
▁daný	-11.0451
spal	-11.0451
▁metra	-11.0454
VA	-11.046
▁47	-11.0463
▁předchozích	-11.0463
mark	-11.0464
myslí	-11.0467
▁skládá	-11.0468
set	-11.0469
▁drah	-11.0472
▁naším	-11.0475
▁evropském	-11.0487
rušení	-11.0489
▁maďarský	-11.0489
▁ochotn	-11.0491
▁šel	-11.0492
ša	-11.0495
▁Rok	-11.0502
▁olympijsk	-11.0505
▁koupil	-11.051
▁páté	-11.0512
▁stop	-11.0515
▁typický	-11.0516
▁vystoupil	-11.0525
▁výkonů	-11.0528
▁kap	-11.0529
▁pracovníka	-11.0531
▁Karl	-11.0532
▁podílí	-11.0534
▁autora	-11.0535
ářské	-11.0541
nvestiční	-11.0544
▁objeven	-11.0548
volání	-11.0549
lín	-11.055
▁jevy	-11.0551
▁údaj	-11.0561
části	-11.0562
▁procesor	-11.0565
EC	-11.058
dávat	-11.058
schválila	-11.0583
▁Ří	-11.0584
čních	-11.0585
▁okolnost	-11.0586
▁fyzikální	-11.0588
▁nedal	-11.0589
▁sklo	-11.059
▁vámi	-11.0593
▁kuponov	-11.0595
cker	-11.0598
▁služební	-11.0598
▁žalob	-11.0602
▁obyvatele	-11.0604
▁Sovětském	-11.0604
▁Němců	-11.0604
▁vtip	-11.0607
▁nebezpečný	-11.0608
ES	-11.0608
▁Pražský	-11.0609
NO	-11.061
▁magistrát	-11.0611
▁počítačový	-11.0617
áhy	-11.0621
▁krajan	-11.0622
čern	-11.0623
▁Olomouc	-11.0624
▁uživatelů	-11.0626
▁mód	-11.0629
být	-11.0631
Severoatlantické	-11.0632
▁doklad	-11.0632
▁čtenářů	-11.0635
▁britsk	-11.0635
bla	-11.064
▁statistické	-11.0645
▁vyvíj	-11.0656
ino	-11.0656
▁mechanismu	-11.0657
▁vyhlášen	-11.0661
▁postav	-11.0662
stu	-11.0662
▁témat	-11.0664
▁oleje	-11.0665
▁Kam	-11.067
▁zhorš	-11.067
stupují	-11.0671
▁přev	-11.0679
kryt	-11.0681
▁statut	-11.0682
▁Lebeď	-11.0683
▁Pithart	-11.0683
▁Srbů	-11.0683
▁Zjuganov	-11.0683
▁asistent	-11.0683
▁bližší	-11.0683
▁církvi	-11.0683
▁konferencí	-11.0683
▁nejstarší	-11.0683
▁nárůst	-11.0683
▁odpovědí	-11.0683
▁ovlivněn	-11.0683
▁reagovat	-11.0683
▁schůzi	-11.0683
▁softwaru	-11.0683
▁strategii	-11.0683
▁zpátky	-11.0683
▁zálivu	-11.0683
▁říjnu	-11.0683
▁CADKON	-11.0683
▁nízká	-11.0683
▁žádoucí	-11.0683
▁nezaměstnaných	-11.0683
▁splnit	-11.0683
▁technologii	-11.0683
▁uzavírá	-11.0683
▁Mencl	-11.0683
▁Vídni	-11.0683
▁dědictví	-11.0683
▁zazněl	-11.0683
▁zůstanou	-11.0683
▁nábytku	-11.0683
▁stůl	-11.0683
▁kombinaci	-11.0683
▁navrhnout	-11.0683
▁Praktick	-11.0683
▁zařadil	-11.0683
▁maximum	-11.0683
▁Mazda	-11.0683
▁vrchní	-11.0683
▁kondom	-11.0683
▁komunikaci	-11.0683
▁délce	-11.0683
▁nastat	-11.0683
▁otevírá	-11.0684
▁bance	-11.0684
▁okresů	-11.0684
▁otec	-11.0684
▁Finanční	-11.0685
▁zvolit	-11.0685
▁komunální	-11.0686
▁vyrovnal	-11.0686
loni	-11.0686
▁kreslení	-11.0686
▁dokáží	-11.0687
▁odmítají	-11.0688
▁pohybovat	-11.0688
▁blesk	-11.0688
▁nejvýše	-11.0688
▁pochopit	-11.0689
▁Brazílie	-11.069
▁živočichů	-11.069
▁řešením	-11.069
▁Polsko	-11.069
▁Vít	-11.069
▁Stručně	-11.0691
▁obchodování	-11.0691
▁respektovat	-11.0692
▁ponechat	-11.0692
▁kilogramů	-11.0692
▁řidič	-11.0692
▁odejít	-11.0692
▁splatnosti	-11.0693
▁uložit	-11.0695
▁vkladů	-11.0695
▁Chci	-11.0696
▁dočasně	-11.07
▁Postup	-11.07
oprvé	-11.0706
▁Nic	-11.0706
▁Aleš	-11.0706
▁energetické	-11.0708
▁kontrole	-11.0709
▁jistou	-11.071
▁zakázky	-11.0713
▁poskytování	-11.0714
▁vozidla	-11.0714
▁zaplacení	-11.0714
▁potřebujeme	-11.0715
▁kongresu	-11.0718
▁Spor	-11.0718
▁zastavení	-11.0719
▁dokončení	-11.072
▁postižených	-11.072
▁Než	-11.0721
▁Karlový	-11.0721
▁anglické	-11.0723
lap	-11.0725
▁padesátých	-11.0726
daly	-11.0726
▁vyhlášení	-11.0727
▁titulů	-11.0729
▁Kniha	-11.0731
▁KB	-11.0732
net	-11.0734
▁projeví	-11.0734
▁kontakt	-11.0734
▁účinnosti	-11.0735
▁Intergraph	-11.0736
▁levé	-11.0736
▁míra	-11.0737
▁schématu	-11.0739
▁pádu	-11.0742
▁trpí	-11.0743
▁lidu	-11.0744
▁představoval	-11.0745
elná	-11.0746
snad	-11.0748
ložit	-11.0749
▁Stav	-11.0751
▁listů	-11.0752
▁katolické	-11.0752
▁bývají	-11.0752
jímá	-11.0753
▁soust	-11.0755
▁tip	-11.0756
▁valné	-11.0756
▁hale	-11.0758
▁vzá	-11.076
▁recept	-11.0761
pust	-11.0762
oji	-11.0763
▁Met	-11.0764
rob	-11.0766
▁specifické	-11.0768
▁rodinu	-11.077
pochyby	-11.0774
▁niž	-11.0776
zní	-11.0777
hodit	-11.0778
▁dokázali	-11.0779
▁podřízen	-11.0784
▁předpokladu	-11.0787
▁48	-11.0788
▁snaz	-11.0789
▁Hus	-11.079
▁nápady	-11.0795
▁hotely	-11.0797
klep	-11.0798
▁sousedů	-11.08
ston	-11.0802
jem	-11.0802
▁zabývající	-11.0806
▁čtenáři	-11.0806
▁klíče	-11.0813
dom	-11.0816
▁drobn	-11.0817
▁mal	-11.0819
▁růstem	-11.082
▁reprezentanti	-11.082
▁určení	-11.0823
▁spotřebitele	-11.0824
▁podnikatelsk	-11.0826
▁probíh	-11.0826
▁dynamick	-11.0827
▁Jedn	-11.0829
▁dosti	-11.0832
▁tváří	-11.0832
▁brankáře	-11.0835
▁předcházel	-11.0836
▁našli	-11.0838
▁jazyka	-11.0839
▁užit	-11.0839
padla	-11.0841
▁Jistě	-11.0841
▁církevní	-11.0841
▁Den	-11.0842
▁vědu	-11.0843
▁věk	-11.0846
▁sloup	-11.0847
▁proměn	-11.0848
▁21.	-11.085
▁pravidelné	-11.0853
▁vznikající	-11.0855
▁Moh	-11.0857
▁objevily	-11.0858
▁zvýšila	-11.086
losování	-11.0861
▁Lib	-11.0862
▁závodní	-11.0863
▁zvukov	-11.0864
▁neměly	-11.0865
▁šla	-11.0865
▁Prvním	-11.0867
jen	-11.0867
af	-11.0869
▁osudu	-11.087
ějším	-11.0872
▁pokusy	-11.0873
▁sever	-11.0874
▁přijala	-11.0876
▁přidal	-11.0878
▁společných	-11.0879
neme	-11.0882
▁obtížně	-11.0882
árně	-11.0885
▁Host	-11.0885
▁Volb	-11.0895
▁stála	-11.0896
▁ÚV	-11.0896
▁každým	-11.0898
▁odmítli	-11.09
▁stejných	-11.0902
▁uvede	-11.0906
▁rozumn	-11.0913
▁jakož	-11.0913
▁přítomn	-11.0924
▁zeměmi	-11.0926
▁tvrd	-11.0927
▁výchov	-11.0931
▁významn	-11.0935
▁odpovídal	-11.0936
▁zvířata	-11.0938
▁rozsáhlý	-11.0939
▁ekologický	-11.0939
▁uplynul	-11.0948
▁Johna	-11.0948
▁nemám	-11.0956
▁sehrál	-11.0959
lci	-11.0959
▁katalog	-11.0962
▁Sta	-11.0963
land	-11.0965
68	-11.097
hav	-11.0971
▁protein	-11.0971
▁známe	-11.0972
▁únik	-11.0972
tle	-11.0977
▁hmot	-11.0981
▁hráčem	-11.0982
▁zahrnut	-11.0982
▁moment	-11.0984
▁modern	-11.0984
vice	-11.0986
ička	-11.0988
▁zahájen	-11.0988
▁hladin	-11.0991
▁vládních	-11.0992
▁schéma	-11.0992
▁beze	-11.0992
jezd	-11.0993
kryje	-11.0993
ins	-11.0994
▁praví	-11.0995
▁66	-11.0999
▁návrhů	-11.0999
▁expert	-11.0999
▁pěst	-11.1006
▁podmíněn	-11.1006
▁Fotbal	-11.1008
▁císaře	-11.1009
▁Paříž	-11.1013
▁nebe	-11.1014
▁vázán	-11.1014
▁zrušil	-11.1016
▁znak	-11.1018
▁Chyb	-11.1019
▁odchod	-11.1019
▁zaměřen	-11.1021
12	-11.1022
valy	-11.1025
dění	-11.1029
kupovat	-11.1029
▁Zemana	-11.1031
▁reklam	-11.1032
▁jmenuje	-11.1033
▁hrdin	-11.1033
▁Sever	-11.1035
▁katolick	-11.1045
▁požadovaný	-11.1045
bin	-11.1046
▁cestující	-11.1048
▁nevěděl	-11.105
▁novinářů	-11.1051
▁dres	-11.1051
▁dividend	-11.1054
▁klíčový	-11.1056
▁umělecké	-11.1057
▁pokládá	-11.106
celku	-11.1062
▁existující	-11.1064
▁vytvořen	-11.1064
nské	-11.1067
▁pracující	-11.107
▁urychlen	-11.1071
▁získává	-11.1075
72	-11.1076
▁konkrétním	-11.1076
▁Divadl	-11.1083
▁členům	-11.1087
ůj	-11.1093
▁pohyboval	-11.1094
▁bomb	-11.1098
▁OD	-11.11
▁provedl	-11.1102
▁Svobod	-11.1102
▁premiéru	-11.1107
▁rizik	-11.1107
▁1994.	-11.1108
▁elektron	-11.1109
ŘÍ	-11.1111
▁říkají	-11.1114
▁pozdě	-11.1115
98	-11.1117
▁nejmodernější	-11.1117
dostatečnou	-11.1117
▁Bratislava	-11.1117
▁Dříve	-11.1117
▁Nedvěd	-11.1117
▁Ostatní	-11.1117
▁Tigrid	-11.1117
▁byznys	-11.1117
▁charakteristik	-11.1117
▁cizince	-11.1117
▁divadle	-11.1117
▁galerii	-11.1117
▁hlubší	-11.1117
▁hypotéz	-11.1117
▁kompetence	-11.1117
▁konstatuje	-11.1117
▁literární	-11.1117
▁metropole	-11.1117
▁nejznámější	-11.1117
▁nominální	-11.1117
▁polojasno	-11.1117
▁požadoval	-11.1117
▁požadovat	-11.1117
▁semifinále	-11.1117
▁složek	-11.1117
▁strategií	-11.1117
▁stránky	-11.1117
▁udržuje	-11.1117
▁vyhovuje	-11.1117
▁údolí	-11.1117
▁šablon	-11.1117
▁Majitel	-11.1117
▁otevřít	-11.1117
▁počínaj	-11.1117
▁doporučil	-11.1117
▁poplatek	-11.1117
▁Jugoslávie	-11.1117
▁Komerčn	-11.1117
▁představenstva	-11.1117
▁Prodej	-11.1117
▁stoupá	-11.1117
▁štáb	-11.1117
▁NDR	-11.1117
▁čtvrteční	-11.1117
▁nátlak	-11.1118
▁Mimo	-11.1118
▁fotografie	-11.1118
▁nejhorší	-11.1118
▁přijme	-11.1118
▁generací	-11.1118
▁malíř	-11.1118
▁ekonomická	-11.1118
▁vyhnout	-11.1118
▁Začal	-11.1118
▁jezdit	-11.1118
▁radnici	-11.1118
▁nižších	-11.1118
▁bohatství	-11.1118
▁Marie	-11.1118
▁logické	-11.1118
▁obřad	-11.1118
▁nedostatku	-11.1119
▁Ruml	-11.1119
▁dešti	-11.1119
▁uvědomit	-11.1119
▁Hrad	-11.1119
▁neděle	-11.1119
▁podobná	-11.112
▁vyrovnat	-11.112
▁peset	-11.1121
▁předcházející	-11.1123
▁přelom	-11.1123
▁novinách	-11.1123
▁podílet	-11.1124
▁armádě	-11.1124
▁prodejny	-11.1125
▁Africe	-11.1125
▁okresy	-11.1125
▁Jac	-11.1125
▁položky	-11.1126
▁překvapivě	-11.1126
vel	-11.1126
▁oborech	-11.1126
▁počkat	-11.1127
▁závazky	-11.1127
▁Maďarsku	-11.1128
▁uvádějí	-11.1128
▁centimetrů	-11.1129
▁změnám	-11.1129
▁fotbalisté	-11.1129
▁vyjde	-11.113
▁tabulka	-11.1131
▁plánování	-11.1131
▁kvalitou	-11.1132
▁návštěvnost	-11.1132
▁nemovitostí	-11.1135
▁dodržování	-11.1135
▁Dopravní	-11.114
▁univerzit	-11.114
▁skalní	-11.1141
▁seriálu	-11.1141
▁vojáci	-11.1142
▁novely	-11.1142
▁trenérů	-11.1143
▁vozu	-11.1144
▁zkušební	-11.1144
▁mládeže	-11.1145
▁zdravotním	-11.1147
▁řekne	-11.1148
▁tvarů	-11.1148
▁výměnu	-11.1149
▁zubní	-11.1149
▁ocenění	-11.1149
▁nevidí	-11.1152
▁přidat	-11.1152
▁referendum	-11.1153
▁přijatelné	-11.1153
▁Clinton	-11.1153
▁Ci	-11.1154
▁Excelu	-11.1154
▁dolů	-11.1155
▁Budou	-11.1156
▁menu	-11.1159
▁propojení	-11.1159
▁odešl	-11.116
▁potravinářské	-11.1161
nášel	-11.1161
▁budově	-11.1163
ickém	-11.1163
▁komu	-11.1163
▁zřízení	-11.1163
platí	-11.1164
▁hmotnosti	-11.1164
kan	-11.1166
▁dav	-11.1168
▁otevře	-11.1168
▁Rozhodn	-11.1171
▁Demokratick	-11.1173
▁montáž	-11.1173
▁Pre	-11.1175
níku	-11.1177
▁Stal	-11.1179
und	-11.118
▁hrou	-11.1181
áním	-11.1181
▁vystřídal	-11.1183
▁materiálem	-11.1185
▁stadiónu	-11.1187
▁tvrdil	-11.1189
▁týdenní	-11.1189
▁Mc	-11.119
▁vedoucích	-11.1192
▁magistrátu	-11.1193
▁studenty	-11.1194
har	-11.1195
▁ST	-11.1196
▁hráli	-11.1196
měnit	-11.1197
▁procesoru	-11.1197
přijeli	-11.1197
▁podzimní	-11.1197
CP	-11.1198
▁jest	-11.12
IC	-11.1202
▁známá	-11.1203
▁výhodu	-11.1206
▁básník	-11.1207
▁SV	-11.1208
▁Potřebuje	-11.1209
noví	-11.1214
▁energetický	-11.1215
▁narazil	-11.1216
ptal	-11.1216
▁zdát	-11.1217
▁ředitelem	-11.1217
▁volí	-11.1218
▁lesa	-11.1223
▁krokem	-11.1227
▁vyh	-11.1229
▁aktivitu	-11.1229
▁obchodníků	-11.1229
▁evropským	-11.1229
▁čínský	-11.1232
▁projevy	-11.1234
▁sestavy	-11.1234
▁zvýšily	-11.1237
▁záměry	-11.1237
▁strávil	-11.1238
IST	-11.1244
▁jugoslávské	-11.1245
visí	-11.1245
▁odpovědnosti	-11.1246
▁rozpočtové	-11.1248
▁přehledu	-11.125
▁úpravu	-11.1251
▁vloni	-11.1252
▁prázdnin	-11.1256
▁Št	-11.1257
▁barva	-11.1258
▁stávající	-11.1259
▁starého	-11.126
utí	-11.1261
▁ranní	-11.1261
▁snadné	-11.1263
▁El	-11.1265
▁celostátní	-11.1266
▁vytvořila	-11.1271
▁podpořit	-11.1271
▁Er	-11.1272
▁teplot	-11.1276
▁plocha	-11.1276
▁muselo	-11.1279
čné	-11.1286
▁jedenácti	-11.1287
ovanou	-11.1289
▁přírodního	-11.1292
pustí	-11.1303
▁syna	-11.1304
ďte	-11.1305
▁člověku	-11.1305
▁objevili	-11.131
lob	-11.1312
▁předchozím	-11.1313
▁jízd	-11.1314
▁sval	-11.1325
rok	-11.1325
▁procesy	-11.1326
ávají	-11.133
▁správce	-11.1334
▁Bor	-11.1341
▁závody	-11.1341
▁5000	-11.1346
▁struktur	-11.1353
far	-11.1353
▁datové	-11.1359
▁28.	-11.136
▁rozhodnutím	-11.1361
těl	-11.1362
:3	-11.1362
▁odborník	-11.1362
▁rozpad	-11.1363
▁západním	-11.1364
▁obrazy	-11.1364
rst	-11.1375
▁výtvarné	-11.1378
zaměstnan	-11.138
▁horské	-11.1381
▁Své	-11.1388
▁klasick	-11.1399
▁čtrnácti	-11.1404
▁kroku	-11.1405
▁přijímá	-11.1406
▁specifik	-11.1411
▁významným	-11.1414
▁kup	-11.1418
▁konkrétních	-11.1443
▁vědeck	-11.1444
▁jednáních	-11.1446
ité	-11.1446
▁závažný	-11.1448
▁Zlín	-11.1452
▁texty	-11.1454
▁taky	-11.1454
▁nesouhlas	-11.1456
novými	-11.1458
▁neumí	-11.1459
▁křiv	-11.1467
▁prodejem	-11.1472
plňuje	-11.1475
▁rovin	-11.1478
▁odborn	-11.1478
▁minulost	-11.1478
▁Kohl	-11.1478
▁testy	-11.1479
pustit	-11.1479
razil	-11.1492
▁No	-11.1493
▁zmíněn	-11.1494
▁způsobů	-11.1495
▁fakta	-11.1496
▁náročný	-11.1496
NI	-11.1498
▁Fond	-11.1499
▁stadión	-11.15
▁kg	-11.15
▁okruh	-11.15
▁sledoval	-11.1505
▁volebním	-11.1505
▁vyskytují	-11.1509
ško	-11.1511
▁sedmdesát	-11.1516
▁Rozhod	-11.1523
▁grafik	-11.1526
▁setká	-11.1528
▁žijí	-11.1528
▁260	-11.153
▁seminář	-11.1531
řazen	-11.1533
▁svobodné	-11.1533
▁mikro	-11.1535
pin	-11.1535
▁99	-11.1536
▁druhému	-11.1536
kombin	-11.1537
▁hlásí	-11.1539
rez	-11.154
▁každoročn	-11.1542
▁doplněn	-11.1543
▁vrstev	-11.1544
▁převážn	-11.1545
▁stole	-11.1546
povídá	-11.1548
▁kamer	-11.155
▁přesahuj	-11.1558
▁způsoben	-11.1562
▁pla	-11.1564
▁Graf	-11.1564
26	-11.1564
▁množ	-11.1569
▁zpěv	-11.1569
▁strážník	-11.1569
látka	-11.1571
▁1982	-11.1572
▁Dienstbier	-11.1572
▁Dosavadní	-11.1572
▁Fischer	-11.1572
▁Poldi	-11.1572
▁Siemens	-11.1572
▁Skupina	-11.1572
▁design	-11.1572
▁dodávek	-11.1572
▁družstvo	-11.1572
▁družstvu	-11.1572
▁geometrii	-11.1572
▁inflaci	-11.1572
▁konstrukcí	-11.1572
▁naznačuje	-11.1572
▁normálně	-11.1572
▁posléze	-11.1572
▁regenerace	-11.1572
▁rekonstrukce	-11.1572
▁rozšiřuje	-11.1572
▁rámečku	-11.1572
▁seznámit	-11.1572
▁shodují	-11.1572
▁skupenství	-11.1572
▁službě	-11.1572
▁stránku	-11.1572
▁vládnoucí	-11.1572
▁vstupenek	-11.1572
▁zákrok	-11.1572
▁zúčastnit	-11.1572
▁čistíren	-11.1572
▁Štědrý	-11.1572
▁Armád	-11.1572
▁Náklady	-11.1572
▁uznat	-11.1572
▁Bavor	-11.1572
▁nabídkou	-11.1572
▁žádat	-11.1572
▁usiluje	-11.1572
▁jindy	-11.1572
▁velvyslanectví	-11.1572
krácen	-11.1572
▁audio	-11.1572
▁Manžel	-11.1572
▁Varech	-11.1572
▁Dušan	-11.1572
▁směřuje	-11.1572
▁Slavia	-11.1572
▁integrace	-11.1572
▁duševní	-11.1572
▁salát	-11.1572
▁spoléha	-11.1572
▁transformační	-11.1572
▁rozmístěn	-11.1572
▁nesporn	-11.1572
▁regulační	-11.1573
střelen	-11.1573
▁ohně	-11.1573
▁Rozhodnutí	-11.1573
▁nejsem	-11.1573
▁stíhán	-11.1573
7,	-11.1573
▁turné	-11.1574
▁podrobnosti	-11.1574
▁napaden	-11.1574
ckner	-11.1574
allye	-11.1574
▁přejít	-11.1574
▁atmosféra	-11.1574
▁informován	-11.1574
▁nedošlo	-11.1574
▁památek	-11.1574
▁nepotřebuje	-11.1575
▁slunce	-11.1575
▁Bělohradský	-11.1575
▁Milán	-11.1576
▁přiznává	-11.1576
▁Těžko	-11.1577
ukce	-11.1579
▁zajistí	-11.158
▁Mečiar	-11.158
▁kůže	-11.158
▁souhlasit	-11.1581
▁matka	-11.1581
▁probíhal	-11.1582
▁středisko	-11.1582
▁Nadace	-11.1582
▁pravděpodobné	-11.1582
▁sedimentů	-11.1583
▁Krát	-11.1584
elů	-11.1584
ezi	-11.1586
▁pěkně	-11.1586
▁sedmdesátých	-11.1587
▁směn	-11.1587
▁přeměn	-11.1588
▁kdykoliv	-11.1588
▁plná	-11.1588
▁svazové	-11.1589
▁Los	-11.159
▁spojů	-11.1591
▁polské	-11.1591
▁armádu	-11.1591
▁upozornění	-11.1591
▁zveřejnění	-11.1591
ovaným	-11.1592
▁anglický	-11.1592
▁šedesátých	-11.1592
▁olympiádě	-11.1592
▁dokázat	-11.1592
▁zaslouží	-11.1593
▁středisku	-11.1594
▁švédské	-11.1595
▁moři	-11.1597
▁literatury	-11.1597
▁zbytky	-11.1597
▁uspořádal	-11.1599
▁dotazník	-11.16
▁neuspěl	-11.1601
▁záruky	-11.1601
▁prožil	-11.1603
▁sféry	-11.1603
▁slibuje	-11.1604
▁ohrožen	-11.1604
▁univerzitě	-11.1605
▁interní	-11.1606
▁dostaneme	-11.1606
▁velkoobchod	-11.1607
▁luxusní	-11.1608
▁uživatelé	-11.1608
▁fotbalista	-11.1612
▁faktory	-11.1615
▁zuby	-11.1618
▁samy	-11.1619
▁olympiády	-11.1619
▁postupovat	-11.1619
▁nešlo	-11.162
▁platné	-11.162
▁značná	-11.1621
▁zásadě	-11.1621
▁činů	-11.1621
▁složitý	-11.1623
▁senátní	-11.1624
▁zničení	-11.1627
stanou	-11.1628
▁závažné	-11.1628
▁popisuje	-11.1628
▁spojuje	-11.1629
▁tlakem	-11.163
▁zodpovědnost	-11.1631
▁náhlé	-11.1631
▁Případ	-11.1632
▁mise	-11.1633
dent	-11.1633
▁kontrolovat	-11.1634
▁rozhovorů	-11.1635
▁příspěvku	-11.1635
▁Fotbalist	-11.1636
▁zvaný	-11.1638
▁dividendy	-11.1639
▁zprávě	-11.1642
▁doklady	-11.1643
▁klienty	-11.1643
▁výstavní	-11.1644
▁metodou	-11.1645
například	-11.1646
▁měří	-11.1647
▁smluv	-11.1647
▁Konce	-11.1649
,4	-11.1651
▁stopy	-11.1651
▁alkoholu	-11.1654
▁Ex	-11.1656
▁Asie	-11.1656
▁ducha	-11.1659
▁proudu	-11.166
pad	-11.1664
▁Změny	-11.1665
▁nutnosti	-11.1666
▁silným	-11.1667
tvo	-11.1667
▁mateřské	-11.1669
▁pacienti	-11.1671
▁úspěchem	-11.1673
▁překlad	-11.1674
▁výnosy	-11.1674
▁argumenty	-11.1675
▁strategické	-11.1675
▁množstvím	-11.1676
▁Gr	-11.1677
ární	-11.1677
▁automobilový	-11.1678
▁garant	-11.168
staví	-11.168
▁hus	-11.168
▁obory	-11.1685
▁Lékaři	-11.1686
▁prezidentský	-11.1687
danou	-11.1688
teče	-11.169
▁nastala	-11.1691
▁městského	-11.1694
▁prohráli	-11.1695
▁Let	-11.1697
VI	-11.1701
▁přím	-11.1704
potřeb	-11.1707
otisk	-11.1709
▁klíčové	-11.171
▁přirozený	-11.1711
▁tělesné	-11.1711
lské	-11.1716
▁Vítěz	-11.1716
▁slovem	-11.172
▁manažerské	-11.1723
▁příslušného	-11.1725
▁trvání	-11.1728
▁přípravu	-11.1731
▁spotřebitel	-11.1732
▁pojistného	-11.1734
▁republikou	-11.1734
▁of	-11.1737
▁vlak	-11.1744
▁minutě	-11.1744
▁DO	-11.1746
díl	-11.1747
▁podepsali	-11.1748
▁závěrečném	-11.1749
▁Fin	-11.1749
▁nadcházející	-11.1751
▁daních	-11.1754
▁propadl	-11.1755
▁Mí	-11.1758
jasn	-11.1759
▁řek	-11.1761
▁zahájením	-11.1763
pek	-11.1764
▁souboj	-11.1765
▁smí	-11.1766
▁tenisové	-11.1767
▁špatný	-11.1768
▁tvrdý	-11.177
▁připraveny	-11.1777
ectví	-11.1778
tažení	-11.1778
▁1996	-11.178
2.	-11.1792
▁propad	-11.1798
dáme	-11.1798
vykl	-11.18
▁návrhem	-11.1805
kázal	-11.1806
▁žil	-11.1807
▁podlehl	-11.1808
▁úspěchy	-11.1808
▁vědom	-11.1808
splnění	-11.1809
▁stě	-11.1811
▁efektu	-11.1812
▁potřebn	-11.1813
▁poradensk	-11.1816
▁orgán	-11.1817
▁dělal	-11.1818
▁získaný	-11.1819
▁poklesl	-11.182
era	-11.1821
sed	-11.1821
istů	-11.1821
▁závodník	-11.1822
pit	-11.1822
▁dluh	-11.1827
▁fyzika	-11.1829
▁proveden	-11.1833
telné	-11.1835
kový	-11.1835
▁led	-11.1836
▁Mal	-11.1837
istický	-11.1842
▁reáln	-11.1844
▁CS	-11.1844
ečná	-11.1847
ložení	-11.1847
▁nejúspěšnější	-11.1853
CD	-11.1854
▁jinému	-11.1857
▁ekonomického	-11.1859
▁nájem	-11.1862
▁předmět	-11.1862
▁známým	-11.1863
▁nějakém	-11.1864
▁vražd	-11.1864
▁loňsk	-11.1867
▁takovému	-11.1869
zem	-11.187
tický	-11.1873
▁původ	-11.1879
▁red	-11.1879
▁Val	-11.1882
▁troj	-11.1882
▁kroků	-11.189
▁Win	-11.1892
▁nemohla	-11.1896
▁poz	-11.1898
▁Nemoh	-11.1902
▁Tomu	-11.1903
▁Poslanec	-11.1905
sadil	-11.1907
bil	-11.1917
▁Pal	-11.1925
▁Karadžiče	-11.1925
mana	-11.1925
▁Mel	-11.1927
▁personál	-11.1931
▁studoval	-11.1931
▁malým	-11.1935
▁Podstatn	-11.1937
▁volb	-11.1937
▁samot	-11.1938
dol	-11.1938
ováni	-11.1941
▁zvláštním	-11.1943
▁říkal	-11.1945
▁dosah	-11.1952
▁900	-11.1954
▁útočník	-11.1954
třel	-11.1958
bírá	-11.1959
▁dosavadních	-11.1965
AM	-11.1972
ust	-11.1972
▁Chip	-11.1974
▁pokrok	-11.1974
▁Washington	-11.1977
▁důvěry	-11.1977
▁prestiž	-11.198
ložili	-11.1981
▁prokázal	-11.1981
▁plném	-11.1987
dělit	-11.1987
▁úprava	-11.1987
▁priorit	-11.1989
cvič	-11.1991
▁svobodný	-11.1993
bývalo	-11.1995
▁toku	-11.1996
▁obal	-11.1996
▁balík	-11.1998
▁užívá	-11.2002
▁top	-11.2002
▁strop	-11.2004
▁sedmnáct	-11.2005
▁kapitálové	-11.2007
věřit	-11.2008
následoval	-11.2015
▁Východ	-11.2015
▁trvající	-11.2015
▁deficit	-11.2019
▁jakými	-11.2019
▁0,	-11.2019
měř	-11.202
▁Motor	-11.2022
▁nechá	-11.2022
rozměr	-11.2025
▁Věřím	-11.2025
▁Výrob	-11.2029
▁Objekt	-11.2029
▁všemu	-11.2032
▁inženýr	-11.2032
▁dokončen	-11.2034
▁filozof	-11.2035
▁ekologick	-11.2037
nejvýš	-11.2041
▁sektor	-11.2042
▁vašem	-11.2043
▁sbor	-11.2044
▁Zálež	-11.2047
▁organizáto	-11.2048
▁Jindřich	-11.2048
▁Michail	-11.2048
▁aplikaci	-11.2048
▁důležitou	-11.2048
▁kanalizace	-11.2048
▁kariéru	-11.2048
▁komunistů	-11.2048
▁konkurent	-11.2048
▁lehké	-11.2048
▁obrátit	-11.2048
▁ovlivnit	-11.2048
▁podmínkám	-11.2048
▁popularit	-11.2048
▁přirozeně	-11.2048
▁referenda	-11.2048
▁rubrik	-11.2048
▁snižovat	-11.2048
▁svědky	-11.2048
▁ubytovací	-11.2048
▁výpovědi	-11.2048
▁zneužití	-11.2048
▁jedinců	-11.2048
▁přírodu	-11.2048
▁stupeň	-11.2048
▁Atlantiku	-11.2048
▁válku	-11.2048
▁zbaven	-11.2048
▁budoucna	-11.2048
▁Boyle	-11.2048
▁Kreslení	-11.2048
▁týče	-11.2048
▁administrativní	-11.2048
▁antropologie	-11.2048
▁mzda	-11.2048
▁fosilní	-11.2048
▁kombinace	-11.2048
▁politicky	-11.2048
▁Lendl	-11.2048
▁přivezl	-11.2048
▁zkrátka	-11.2048
▁hokejisté	-11.2048
▁češtině	-11.2048
▁smečky	-11.2048
▁dívat	-11.2048
▁příjezd	-11.2048
▁dostupné	-11.2048
▁Španělska	-11.2049
▁stavět	-11.2049
▁Pel	-11.2049
▁nezmění	-11.2049
▁prapor	-11.2049
▁staletí	-11.2049
▁Intel	-11.2049
▁nezbývá	-11.2049
▁nohou	-11.2049
▁ocenil	-11.2049
▁Zdeňk	-11.2049
▁1980	-11.2049
▁zázrak	-11.2049
▁Minul	-11.205
▁Optima	-11.205
▁psů	-11.205
▁ligový	-11.205
▁plnit	-11.205
▁nápln	-11.2051
▁Říká	-11.2051
▁Příští	-11.2051
▁Peck	-11.2051
▁vítr	-11.2051
▁Konec	-11.2052
▁kontrakt	-11.2052
▁jídla	-11.2052
▁matky	-11.2052
▁varování	-11.2052
▁solidní	-11.2052
▁příznivců	-11.2052
▁Karpov	-11.2053
▁setkáváme	-11.2054
▁2,5	-11.2054
ria	-11.2055
▁hlasovat	-11.2055
stává	-11.2055
▁vyměnit	-11.2055
▁převést	-11.2055
konců	-11.2056
▁kurt	-11.2056
▁chybět	-11.2056
▁Škol	-11.2057
▁ráj	-11.2057
▁chuť	-11.2057
▁kontinentu	-11.2057
▁znečištění	-11.2057
▁EU	-11.2059
▁stavba	-11.2059
▁výraznější	-11.2059
▁etapě	-11.2061
pir	-11.2061
▁vystoupí	-11.2062
▁extrémní	-11.2063
▁vyřešen	-11.2064
▁zas	-11.2065
▁vojáky	-11.2065
▁knížky	-11.2065
▁liberální	-11.2065
▁vítěze	-11.2067
▁Říman	-11.2068
▁povahy	-11.2068
▁Belgii	-11.2069
▁důsledk	-11.207
▁polární	-11.207
▁kanálů	-11.207
▁př	-11.2072
▁vybudování	-11.2073
▁osnov	-11.2074
▁Hra	-11.2074
▁prodávající	-11.2075
▁uvolnění	-11.2076
▁částkou	-11.2076
▁detailní	-11.2076
▁oken	-11.2077
▁KDU	-11.2078
▁zvládnout	-11.208
▁učení	-11.2084
▁uzavřena	-11.2084
▁expertů	-11.2085
DOS	-11.2086
▁kořeny	-11.2087
▁volbou	-11.2088
▁tržby	-11.209
▁Blízké	-11.2091
▁nech	-11.2094
▁Maďarsko	-11.2095
▁krvi	-11.2096
▁37	-11.2096
▁uchazečů	-11.2096
▁podobným	-11.2096
▁sloužil	-11.2097
▁krevní	-11.2097
▁kapacitou	-11.2099
ičtější	-11.2099
umět	-11.2099
berg	-11.2099
▁starostí	-11.21
čel	-11.21
▁vyšla	-11.2101
▁arabské	-11.2101
▁uvedli	-11.2101
▁současným	-11.2101
▁čistě	-11.2104
▁brněnsk	-11.2104
▁úseku	-11.2104
▁stavbě	-11.2105
▁krajní	-11.2106
▁Předpokládá	-11.2109
ždyť	-11.2109
▁nemocí	-11.211
▁subjektů	-11.211
koro	-11.211
▁průměrně	-11.2112
▁Bank	-11.2116
▁Vesmíru	-11.2117
▁prestižní	-11.2117
▁play	-11.2117
místě	-11.2119
45	-11.2123
▁strukturu	-11.2125
dnes	-11.2127
▁Voda	-11.2127
▁spis	-11.2129
▁odběratelů	-11.2129
▁oceněn	-11.2133
▁zajímav	-11.2136
slovní	-11.2137
▁pr	-11.2143
▁okraji	-11.2143
▁obchodě	-11.2146
▁zásahu	-11.2147
▁mechaniku	-11.2151
▁Vlast	-11.2151
▁mozkov	-11.2151
▁fin	-11.2151
cem	-11.2159
▁hosty	-11.2162
▁logicky	-11.2163
▁vytvořili	-11.2164
▁právem	-11.2166
▁témata	-11.2168
hraje	-11.217
▁veškerý	-11.2172
▁manažerů	-11.218
▁turnaji	-11.218
▁elektronické	-11.2181
▁tvary	-11.2181
▁projevu	-11.2181
▁získáva	-11.2182
▁vlastními	-11.2183
▁německým	-11.2184
ozi	-11.2185
▁div	-11.2187
ues	-11.219
▁obhájce	-11.2191
▁Hr	-11.2198
▁přijali	-11.2198
▁vedly	-11.2198
▁zadní	-11.2199
▁krásné	-11.2199
▁záznamové	-11.22
▁počítačov	-11.2203
▁dějiny	-11.2204
▁ztratila	-11.2207
▁komentář	-11.2209
▁náhod	-11.221
.12.	-11.2211
▁majitelů	-11.2216
▁maďarské	-11.2217
▁HZDS	-11.2217
▁350	-11.2218
PS	-11.222
▁čist	-11.2225
skými	-11.2227
▁relativní	-11.2229
▁Masarykov	-11.2229
místo	-11.2234
▁vydala	-11.2235
dni	-11.2236
▁slev	-11.2239
jednat	-11.2239
▁zachován	-11.224
▁poměry	-11.2251
šetří	-11.2253
▁vel	-11.2254
▁jednal	-11.2257
▁Čtyři	-11.2259
▁statistik	-11.2259
▁přesný	-11.2261
šování	-11.2262
▁vítězů	-11.2263
řejmě	-11.2264
▁slabý	-11.2264
▁hotové	-11.2268
▁lék	-11.2268
▁vodě	-11.2269
▁Kla	-11.2279
▁občana	-11.2282
tedy	-11.2284
cová	-11.2287
▁automatické	-11.2289
▁náhle	-11.229
hý	-11.229
antní	-11.2291
▁Mag	-11.2291
zdrav	-11.2296
lék	-11.2297
▁horský	-11.2298
▁písmen	-11.2305
▁zabit	-11.2318
vir	-11.2319
▁elektronický	-11.232
bude	-11.2325
▁projednáva	-11.2328
▁kontaktu	-11.2329
OST	-11.233
▁obyčejný	-11.2332
▁předání	-11.2334
přes	-11.2335
▁1500	-11.2336
▁kmen	-11.2339
▁čištění	-11.2339
▁potvrdila	-11.2339
▁významně	-11.2345
▁historické	-11.2346
jdu	-11.2346
▁atomové	-11.2351
ívají	-11.2351
▁kritický	-11.2352
stupovat	-11.2357
ňoval	-11.2358
▁mís	-11.2366
▁vět	-11.2369
znamenat	-11.237
ong	-11.2375
▁důchod	-11.2382
vát	-11.2383
vedli	-11.2385
▁zpětn	-11.2386
▁jednotné	-11.2395
▁provozovatel	-11.2396
▁ráz	-11.2396
▁hromadné	-11.24
▁kostel	-11.2401
▁Husov	-11.2402
▁Sal	-11.241
dejme	-11.2411
▁kolektiv	-11.2415
dvacet	-11.2418
▁jugoslávsk	-11.2419
▁následujícím	-11.2424
prázdn	-11.2425
▁otevřený	-11.2431
ill	-11.2433
▁stanovené	-11.2435
▁smrtí	-11.2435
▁cenové	-11.2438
▁jednotlivým	-11.2439
▁kolech	-11.244
▁Staré	-11.244
měrně	-11.2442
jte	-11.2443
oma	-11.2443
▁image	-11.2443
ola	-11.2444
UJE	-11.2445
▁ocitl	-11.2446
▁týmů	-11.2449
▁klesl	-11.245
počíta	-11.2454
▁arabský	-11.2455
dělat	-11.2456
▁výprav	-11.2456
▁mandát	-11.2457
▁Pražsk	-11.2458
▁sponzor	-11.246
▁dolar	-11.2462
▁ledový	-11.2464
hem	-11.2464
▁jejími	-11.2464
▁budova	-11.2465
hradit	-11.2465
▁22.	-11.2466
▁staveb	-11.2469
▁zemědělců	-11.2472
▁pouští	-11.2474
▁index	-11.2474
▁Kazachstán	-11.2476
řádně	-11.2477
▁Svaz	-11.2477
▁předběžn	-11.2478
▁používal	-11.2481
íků	-11.2482
▁intenzit	-11.2483
▁předpis	-11.2483
▁rakovin	-11.2484
▁nejlepšího	-11.2485
▁týkají	-11.2487
VÍ	-11.2489
▁pokoj	-11.2491
▁spodní	-11.2493
▁moravské	-11.2495
▁jih	-11.2495
▁dával	-11.2498
▁ráda	-11.2499
dpověď	-11.25
▁přesné	-11.2502
rp	-11.2503
išť	-11.2505
▁odpovídají	-11.2505
▁blíží	-11.2508
▁medaili	-11.2508
▁mluvil	-11.2508
▁oddělen	-11.251
▁ceník	-11.2512
▁prst	-11.2512
▁publikován	-11.2518
▁Dokon	-11.2518
▁komunismu	-11.2523
▁vývojem	-11.2527
▁hrálo	-11.2527
▁sportovním	-11.2528
▁nádor	-11.253
▁výkonnost	-11.2534
▁norma	-11.2535
nutit	-11.2535
enc	-11.2536
▁Závěr	-11.2538
▁vzniklé	-11.2539
kových	-11.2546
▁Klepn	-11.2546
olicejní	-11.2547
▁dlouhodobě	-11.2547
peptid	-11.2548
▁anonymní	-11.2548
▁humanitární	-11.2548
▁mobilní	-11.2548
▁neúspěch	-11.2548
▁Doufám	-11.2548
▁LDS	-11.2548
▁MHz	-11.2548
▁Poborského	-11.2548
▁Výjimk	-11.2548
▁Výsledek	-11.2548
▁Wembley	-11.2548
▁cizinců	-11.2548
▁definovat	-11.2548
▁dětmi	-11.2548
▁evidenci	-11.2548
▁intenzivně	-11.2548
▁komfort	-11.2548
▁království	-11.2548
▁lhůty	-11.2548
▁nabídnut	-11.2548
▁otázkách	-11.2548
▁připomenout	-11.2548
▁revoluce	-11.2548
▁sankce	-11.2548
▁uhličitého	-11.2548
▁umístit	-11.2548
▁upozorňují	-11.2548
▁veřejnou	-11.2548
▁zajistil	-11.2548
▁zdravotně	-11.2548
▁zvyšovat	-11.2548
pomáhal	-11.2548
▁Komora	-11.2548
▁Mostaru	-11.2548
▁Názor	-11.2548
▁komisí	-11.2548
▁nepatří	-11.2548
▁skener	-11.2548
▁srpnu	-11.2548
▁série	-11.2548
▁řekněme	-11.2548
▁pátý	-11.2548
▁stačit	-11.2548
▁týdnu	-11.2548
▁užitečné	-11.2548
skočit	-11.2548
▁pozemků	-11.2548
▁vyhověl	-11.2548
▁Ústí	-11.2548
▁Prahu	-11.2548
▁projednávání	-11.2548
▁tvůrčí	-11.2548
▁zážitek	-11.2548
▁shluk	-11.2548
▁chemie	-11.2548
▁letišti	-11.2548
▁minimum	-11.2548
▁obránce	-11.2548
▁turisté	-11.2548
▁sportovci	-11.2548
▁modernizaci	-11.2548
▁nebrání	-11.2548
▁opačný	-11.2548
▁Bohemia	-11.2548
▁počáteční	-11.2548
▁vykonávat	-11.2548
▁zaslal	-11.2548
▁kostým	-11.2548
▁Filip	-11.2548
▁realizaci	-11.2548
▁karet	-11.2548
▁proběhla	-11.2549
▁román	-11.2549
▁sleduje	-11.2549
▁1948	-11.2549
▁HGF	-11.2549
▁převzetí	-11.2549
▁emise	-11.2549
▁diskusí	-11.2549
▁léčení	-11.2549
▁dovoluje	-11.2549
ingu	-11.2549
▁experimentální	-11.2549
▁tmav	-11.2549
▁dvojnásobek	-11.255
▁cítit	-11.255
▁atmosféru	-11.255
▁Chang	-11.255
▁výrobku	-11.255
▁videa	-11.255
▁půjčky	-11.255
▁rozdělit	-11.255
▁chlap	-11.255
▁budování	-11.2551
▁ošetření	-11.2551
▁přestane	-11.2551
▁ČZ	-11.2551
▁oblib	-11.2551
▁očima	-11.2552
▁Ukázal	-11.2552
▁prosím	-11.2553
▁tabulku	-11.2553
▁potřebovat	-11.2553
▁venku	-11.2554
▁nahoru	-11.2554
▁nechci	-11.2555
▁potravy	-11.2556
▁čelní	-11.2559
▁podruhé	-11.2559
▁astronomi	-11.256
▁akciov	-11.256
▁Pojišťovna	-11.2561
▁ušetří	-11.2561
▁centrem	-11.2562
▁ostrovů	-11.2563
▁prvek	-11.2563
dělování	-11.2564
▁stěžují	-11.2564
▁běže	-11.2565
▁policisty	-11.2566
▁diplomatické	-11.2567
▁Chorvat	-11.2569
▁přišly	-11.257
▁architektury	-11.257
▁podobnost	-11.257
▁vycházet	-11.2571
▁stanov	-11.2572
▁technikou	-11.2574
▁prostorách	-11.2574
▁Důvodem	-11.2574
▁opravu	-11.2576
▁národnostní	-11.2578
▁Lab	-11.2579
▁prodejně	-11.258
▁kontrolou	-11.258
▁užitku	-11.2582
▁odměny	-11.2583
▁problematiku	-11.2584
▁Seznam	-11.2584
▁stížnosti	-11.2584
CO	-11.2585
▁Švédsku	-11.2586
▁As	-11.2587
▁biologick	-11.259
▁semináře	-11.259
▁Smlouva	-11.259
▁novela	-11.2592
▁změnách	-11.2592
▁podoby	-11.2593
▁způsobit	-11.2593
▁Olomouce	-11.2594
vl	-11.2595
▁volit	-11.2597
▁sehnat	-11.2599
▁reklamní	-11.2599
▁Film	-11.2599
▁voliči	-11.2599
▁plní	-11.26
▁vydělal	-11.2602
▁vlastníkem	-11.2602
▁opravě	-11.2602
nete	-11.2604
▁zrušen	-11.2605
ňovat	-11.2606
▁dělníků	-11.2608
US	-11.261
▁vybere	-11.261
▁chladu	-11.2612
▁125	-11.2615
▁chybu	-11.2618
▁vzdal	-11.2618
▁požadavkům	-11.262
vádějí	-11.262
▁posil	-11.2622
▁Mac	-11.2624
▁rozpadu	-11.263
▁elektrický	-11.2631
▁vstupuje	-11.2632
▁viditeln	-11.2634
▁rostliny	-11.2637
▁novinářům	-11.2637
▁rozhovory	-11.2639
▁Dal	-11.2639
▁pracujících	-11.264
48	-11.264
▁krav	-11.264
▁izraelský	-11.2643
▁stromy	-11.2643
▁Lig	-11.2644
▁černo	-11.2646
▁udělali	-11.2647
▁nevíme	-11.2647
▁hovořili	-11.2648
▁Tým	-11.2648
▁odráž	-11.2653
▁případný	-11.2654
▁úmyslu	-11.2654
▁kruhy	-11.2656
▁ústavů	-11.2656
▁výjimečn	-11.2658
▁potenciálu	-11.2659
pracovat	-11.266
▁Nobelov	-11.2662
▁IV	-11.2663
▁zněl	-11.2664
▁Izraelsk	-11.2664
▁stříbrné	-11.2664
▁lize	-11.2665
▁mistry	-11.2667
▁klubem	-11.2668
▁tempo	-11.267
▁rozhodlo	-11.2671
▁procesů	-11.2672
▁ostravské	-11.2673
ker	-11.2673
▁43	-11.2674
▁Kup	-11.2674
▁domluv	-11.2675
▁kart	-11.2675
▁geny	-11.2676
▁závěrečný	-11.2679
▁rodné	-11.2681
ovce	-11.2683
▁plochu	-11.2683
▁naprosté	-11.2683
▁světu	-11.2685
▁komora	-11.2686
▁Výš	-11.2686
▁Egypt	-11.2691
▁výkladu	-11.2692
▁SD	-11.2692
▁pověřen	-11.2692
▁šestnácti	-11.2693
▁deníku	-11.2694
mořsk	-11.27
▁podoba	-11.2701
▁skvělé	-11.2701
▁věta	-11.2703
▁26.	-11.2703
▁27.	-11.2705
▁šíří	-11.2709
▁dle	-11.271
▁Počítá	-11.2712
▁vycházel	-11.2713
▁činila	-11.2715
▁obranné	-11.2719
▁140	-11.272
▁hostů	-11.272
▁hlasu	-11.2726
sté	-11.2728
▁soupeřů	-11.2729
▁papíry	-11.273
ica	-11.273
▁obdiv	-11.273
NC	-11.2731
▁jednoznačný	-11.2732
▁kovy	-11.2733
▁Kdybych	-11.2734
▁telefony	-11.274
▁položil	-11.2744
cími	-11.2755
▁kilometr	-11.2759
▁přírodověd	-11.276
▁Řekl	-11.2765
▁vážný	-11.2767
▁pocity	-11.2771
▁těle	-11.2772
▁24.	-11.2776
▁fa	-11.2777
▁efekty	-11.2782
▁nutný	-11.2784
poloviční	-11.279
▁Japonsko	-11.279
íček	-11.2791
▁budoucího	-11.2795
▁fotograf	-11.2797
▁Večer	-11.2804
▁mez	-11.2807
▁podrob	-11.2809
▁tvůrce	-11.281
iček	-11.2814
▁okraj	-11.2815
sídl	-11.2815
PT	-11.2816
▁podnikatelům	-11.2819
tito	-11.2819
▁subjekt	-11.2822
▁vyv	-11.2825
procentní	-11.2825
▁vydá	-11.2828
ruh	-11.2829
▁komor	-11.2833
▁naléhav	-11.2838
ER	-11.2839
▁vyhráli	-11.2841
▁Text	-11.2844
▁obává	-11.2846
▁prodá	-11.2847
▁procenty	-11.2849
▁Mé	-11.285
▁bohatý	-11.2855
▁příspěvk	-11.2863
▁pozornosti	-11.2864
▁běžn	-11.2868
▁popsán	-11.2874
▁agentur	-11.2875
▁Turist	-11.2879
▁Západ	-11.2883
▁zákoně	-11.2887
ork	-11.2888
▁průmyslov	-11.289
▁výhodn	-11.2891
▁obviněn	-11.2891
▁soupeři	-11.2896
▁Mat	-11.2904
▁zákonu	-11.2907
▁postupů	-11.2908
75	-11.2908
▁disket	-11.2909
▁nález	-11.2916
▁Světov	-11.2917
▁ČS	-11.2922
▁konzervativní	-11.2923
vala	-11.2924
ohledně	-11.2927
▁hol	-11.2931
projevilo	-11.2934
▁Odbor	-11.2937
▁odmítla	-11.294
▁zřízen	-11.2941
dají	-11.2945
▁duch	-11.2946
▁Všeobecn	-11.2947
íš	-11.2947
▁následuj	-11.2948
▁stolu	-11.2949
▁nepr	-11.2952
▁odpovědn	-11.2965
▁produktivit	-11.2973
▁zajištěn	-11.2974
▁chirurg	-11.2974
▁stálé	-11.2975
▁Argentin	-11.2975
polí	-11.2982
▁nezná	-11.2986
▁dvojic	-11.2987
▁placen	-11.2988
▁císař	-11.2992
lů	-11.2998
▁požadavků	-11.2999
▁napadl	-11.3
▁veřejný	-11.3001
▁aparát	-11.3002
▁veletrh	-11.3002
▁Zda	-11.3005
▁potrestán	-11.3006
▁účinnost	-11.3008
▁cigaret	-11.3009
▁bílkovin	-11.301
▁rozbor	-11.301
padal	-11.3011
▁výběrové	-11.3013
21	-11.3013
krytí	-11.3018
▁vyžadují	-11.3018
▁tank	-11.3019
těsn	-11.302
▁spolupracovník	-11.3024
▁strategický	-11.3025
prostřed	-11.3026
▁ženský	-11.3029
▁jednorázov	-11.303
ině	-11.3032
▁červen	-11.3033
▁ran	-11.3034
▁prováze	-11.3037
▁nestačil	-11.304
▁Angličan	-11.3045
▁Důvod	-11.3047
▁vytvářejí	-11.3048
▁Projekt	-11.3049
▁nejvyšších	-11.3052
▁Zd	-11.3052
alternativ	-11.3052
▁orchestr	-11.3057
▁výpočet	-11.3059
▁hrd	-11.3067
▁prud	-11.3067
▁neroz	-11.3068
charakterizuj	-11.307
▁mém	-11.3073
▁Benešov	-11.3074
▁Dvořák	-11.3074
▁Jednotliv	-11.3074
▁Lubomír	-11.3074
▁Náměst	-11.3074
▁Weizs	-11.3074
▁cizinci	-11.3074
▁cizině	-11.3074
▁deklarace	-11.3074
▁informovat	-11.3074
▁kmitočt	-11.3074
▁komunisté	-11.3074
▁lékáren	-11.3074
▁lístky	-11.3074
▁medailí	-11.3074
▁minerální	-11.3074
▁ministerstev	-11.3074
▁nahrazen	-11.3074
▁nemožné	-11.3074
▁nečekaně	-11.3074
▁opozici	-11.3074
▁oživení	-11.3074
▁redakci	-11.3074
▁restituční	-11.3074
▁skript	-11.3074
▁spánku	-11.3074
▁stadia	-11.3074
▁struktuře	-11.3074
▁svatební	-11.3074
▁tiskárna	-11.3074
▁uspokojení	-11.3074
▁výkyvy	-11.3074
▁zlepšil	-11.3074
▁zlepšit	-11.3074
▁zúčastní	-11.3074
▁letadlo	-11.3074
▁preventivn	-11.3074
▁válkou	-11.3074
▁doplnit	-11.3074
▁účinný	-11.3074
▁ovládat	-11.3074
▁potrvá	-11.3074
▁pozemky	-11.3074
▁slalom	-11.3074
▁porušil	-11.3074
▁zahájí	-11.3074
▁jídlo	-11.3074
▁čáry	-11.3074
▁jedinci	-11.3074
▁licence	-11.3074
▁Antonín	-11.3074
▁Trans	-11.3074
▁jedinečn	-11.3074
▁umístil	-11.3074
▁vyrábějí	-11.3074
pálil	-11.3075
▁nejsilnější	-11.3075
▁Něco	-11.3075
▁nebudu	-11.3075
▁ČSAV	-11.3075
▁kůži	-11.3075
▁návštěvníci	-11.3075
▁odvozen	-11.3075
▁Mazdy	-11.3075
▁nestalo	-11.3075
▁USD	-11.3075
▁tisíciletí	-11.3075
▁hornin	-11.3075
▁Maastrichtu	-11.3075
▁Schneider	-11.3075
▁koncentrací	-11.3075
▁dopředu	-11.3075
▁lodi	-11.3075
▁léčba	-11.3075
▁otřes	-11.3075
▁vyloučit	-11.3075
▁vracejí	-11.3076
▁setkat	-11.3076
▁úkor	-11.3076
▁Krkonoších	-11.3076
▁Juli	-11.3076
lákat	-11.3077
▁stručn	-11.3077
▁užívat	-11.3077
▁rusk	-11.3077
▁mikroorganismů	-11.3077
▁zkoušky	-11.3078
▁kancléř	-11.3078
▁Nesmí	-11.3078
▁základnu	-11.3078
▁chybějící	-11.3079
▁vykazuje	-11.3079
▁náročnější	-11.3079
novu	-11.3081
▁odškodnění	-11.3081
▁vydělat	-11.3081
▁závazků	-11.3081
▁SNS	-11.3082
bydlí	-11.3082
▁odmítnout	-11.3083
▁posouzení	-11.3083
▁přeháňky	-11.3083
▁víno	-11.3083
▁protokol	-11.3083
▁rozhodnuto	-11.3084
▁absurdní	-11.3085
▁záložník	-11.3086
▁hlavě	-11.3086
▁nemění	-11.3087
▁vidění	-11.3089
▁středně	-11.3089
▁Chorvatsko	-11.3089
▁linek	-11.309
▁Situace	-11.309
instalovat	-11.309
▁vyšetřovací	-11.309
krátko	-11.3092
▁měřítku	-11.3092
▁varoval	-11.3093
▁ukládat	-11.3094
▁mírou	-11.3094
▁rozhodujícím	-11.3095
▁Polsku	-11.3096
▁popsat	-11.3096
▁vztahuje	-11.3096
▁odvolal	-11.3097
▁soch	-11.3097
▁letoun	-11.3098
▁Star	-11.3098
kládání	-11.3099
▁řádek	-11.3099
▁různá	-11.31
▁městská	-11.31
▁myslíte	-11.3101
▁kartě	-11.3102
▁spokojenosti	-11.3103
dová	-11.3105
▁Miloše	-11.3106
▁boku	-11.3106
▁jádra	-11.3107
▁genů	-11.3109
EK	-11.3109
▁Slovinska	-11.3109
▁zájezdy	-11.3111
▁vybral	-11.3111
▁kádru	-11.3112
▁Zemanov	-11.3112
▁soukrom	-11.3113
▁kdybychom	-11.3114
▁tuzemských	-11.3115
▁matematiky	-11.3115
▁údržbu	-11.3116
▁rána	-11.3116
▁hovoru	-11.3116
▁islámské	-11.3119
▁počítají	-11.312
▁profil	-11.3121
▁zadání	-11.3121
ZE	-11.3123
▁Bójů	-11.3124
▁stačilo	-11.3126
▁Japonska	-11.3127
▁vyplývající	-11.3127
▁kanálu	-11.3128
▁hit	-11.3129
▁partnerem	-11.3129
▁nalezení	-11.313
▁terénu	-11.3131
▁fyziku	-11.3134
▁hromadn	-11.3134
▁Váš	-11.3136
staral	-11.3136
▁pracovním	-11.3138
▁jakkoli	-11.3138
▁subjekty	-11.3139
▁ruchu	-11.3144
▁délku	-11.3144
▁hranicích	-11.3144
▁zlata	-11.3146
▁účastníky	-11.3146
užit	-11.3148
ávání	-11.315
▁teoretické	-11.3151
▁Věr	-11.3154
▁slovník	-11.3155
letěl	-11.3155
▁schémat	-11.3156
▁přítele	-11.3159
▁řetěz	-11.3159
▁řidiči	-11.3159
tažením	-11.316
pouštějí	-11.3162
▁dresu	-11.3163
pustili	-11.3163
,7	-11.3164
stával	-11.3166
▁Doba	-11.3167
▁Kole	-11.3168
▁pevně	-11.3168
roj	-11.3169
▁volba	-11.3169
▁panel	-11.3169
yplývá	-11.3173
▁technick	-11.3173
slovensk	-11.3175
mus	-11.3176
zanedbateln	-11.3177
▁typick	-11.3178
▁kostela	-11.3179
▁okresech	-11.3179
ějších	-11.318
▁pouh	-11.3181
▁testů	-11.3182
zemní	-11.3182
▁standardu	-11.3182
strašně	-11.3182
▁rozliš	-11.3186
▁hospodářský	-11.319
▁postižení	-11.3195
part	-11.3197
▁variantu	-11.3197
▁znají	-11.32
▁bodem	-11.3203
▁stávají	-11.3204
▁informovali	-11.3207
▁uši	-11.3208
▁výnosu	-11.3209
▁iniciativa	-11.321
nder	-11.321
▁stěn	-11.3211
▁obsazen	-11.3212
▁hormon	-11.3214
▁Kolek	-11.3215
ručí	-11.3215
▁dopisy	-11.3218
▁určeno	-11.3219
▁hlava	-11.3221
▁bytí	-11.3226
hrají	-11.3226
vedou	-11.3228
▁aktiv	-11.323
▁členské	-11.323
jištěn	-11.3231
▁autobus	-11.3232
▁zůstaly	-11.3232
▁knihu	-11.3232
▁ukládá	-11.3233
▁chladn	-11.3235
▁metodu	-11.3236
▁trojic	-11.3236
▁servisu	-11.3238
▁hrubé	-11.3239
stane	-11.3239
▁opakovat	-11.324
trž	-11.3242
▁radu	-11.3245
▁linka	-11.3249
▁úzké	-11.3252
▁srovnatelné	-11.3252
▁číslem	-11.3258
hel	-11.3259
zích	-11.3262
▁přinesla	-11.3262
▁regul	-11.3262
▁přesvědčeni	-11.3263
▁manžela	-11.3267
▁ryby	-11.3269
ČNÍ	-11.327
▁pád	-11.327
dělal	-11.3271
▁Řek	-11.3277
▁Car	-11.3279
▁membrán	-11.3279
▁způsobila	-11.3279
▁válečné	-11.3279
▁momentáln	-11.3283
▁režiséra	-11.3285
▁tiskový	-11.3285
tická	-11.3287
▁velkém	-11.3288
▁časopise	-11.3289
▁předvedl	-11.3291
drží	-11.3296
▁domnívám	-11.3297
▁stromů	-11.3299
▁hradí	-11.33
éra	-11.3301
způsobují	-11.3302
▁52	-11.3308
▁cílů	-11.331
▁rozumné	-11.3311
▁kaly	-11.3314
▁drahá	-11.3316
DI	-11.3317
▁jdou	-11.3317
BA	-11.332
▁příznivé	-11.3321
likvid	-11.3324
slat	-11.3325
▁sešli	-11.3326
▁bit	-11.3326
▁jezdil	-11.3327
oba	-11.3331
ujte	-11.3331
hlédl	-11.3344
▁jakého	-11.3346
ánek	-11.3351
OP	-11.3351
pomínají	-11.3353
▁Stan	-11.3356
▁firmami	-11.3363
žije	-11.3364
▁směr	-11.3367
bírat	-11.3367
76	-11.3368
▁dřevěný	-11.3368
▁platu	-11.337
▁opor	-11.3371
▁manažera	-11.3372
▁speciálně	-11.3373
▁stiskn	-11.338
▁útvar	-11.3384
▁skryt	-11.3384
▁FIFA	-11.3387
▁magnet	-11.3387
▁přeprav	-11.3388
▁bytě	-11.3389
▁cit	-11.3389
▁spotřebu	-11.339
očí	-11.3391
▁kurzor	-11.3391
▁životnost	-11.3392
▁počátk	-11.3394
▁Boj	-11.3394
▁Jeli	-11.3396
▁bohaté	-11.3402
▁zabýval	-11.3407
bojí	-11.341
IL	-11.341
▁příště	-11.341
71	-11.3412
▁ostrov	-11.342
▁kapitálový	-11.342
▁samotný	-11.3426
▁Král	-11.3427
▁Test	-11.3439
▁využije	-11.344
▁Jelcinov	-11.3441
▁srovnatelný	-11.3442
měl	-11.3442
▁řekli	-11.3446
nějších	-11.3447
áček	-11.3448
▁chovat	-11.3457
▁lidový	-11.3459
▁technologický	-11.3463
etické	-11.3466
řídí	-11.3468
▁region	-11.347
mála	-11.3471
vých	-11.3471
býval	-11.3478
▁poločase	-11.3479
tisícov	-11.3481
lární	-11.3484
▁SI	-11.3486
ers	-11.3488
ph	-11.3492
enou	-11.3498
ěné	-11.3499
▁výtvarn	-11.3503
▁některého	-11.3506
▁92	-11.3511
▁paliv	-11.3513
ČSSD	-11.3513
▁chlad	-11.3515
▁zavedl	-11.3516
▁masov	-11.3517
▁poměrů	-11.352
poslední	-11.3522
▁architekt	-11.3523
▁vesnic	-11.3525
především	-11.3526
▁délk	-11.3536
dání	-11.3536
▁reklama	-11.3538
vající	-11.354
▁Atlant	-11.354
▁stali	-11.3546
▁Označ	-11.3547
bře	-11.355
▁chodu	-11.3551
▁Telecom	-11.3556
kova	-11.3559
▁velko	-11.356
▁očekával	-11.3563
▁Slovan	-11.3566
▁podnět	-11.3566
▁mladý	-11.3566
▁řez	-11.3567
▁úkon	-11.3567
loží	-11.3567
▁zákoník	-11.3568
▁kontrol	-11.3568
▁nejedn	-11.357
▁rozhlas	-11.3573
prodej	-11.3573
▁pravém	-11.3573
▁pochopil	-11.3575
▁29.	-11.3577
▁nabídne	-11.3578
▁kyselin	-11.3578
▁scénář	-11.3579
▁bývalém	-11.3582
áků	-11.3583
▁Cup	-11.3584
▁prů	-11.3584
▁klima	-11.3585
▁vezme	-11.3586
tika	-11.3592
mění	-11.3593
▁věnuj	-11.3593
▁Znám	-11.3594
jednala	-11.3594
▁absolvoval	-11.3597
▁uskutečnil	-11.3597
▁Chomutov	-11.3602
▁chalup	-11.3602
▁pokračují	-11.3602
znamená	-11.3603
▁oblačno	-11.3604
▁Počítač	-11.3604
▁odjel	-11.3604
▁umožňují	-11.3605
jížděl	-11.3606
▁účet	-11.3607
35	-11.3609
iletá	-11.3611
▁diagram	-11.3613
▁enzym	-11.3613
▁Republik	-11.3615
tickou	-11.3616
pomeňme	-11.3618
FS	-11.3618
▁Nor	-11.3619
▁překvapil	-11.3621
▁En	-11.3622
▁násiln	-11.3622
▁provozovat	-11.3625
vrátit	-11.3626
▁vkus	-11.3627
▁zjistí	-11.3627
cal	-11.3627
▁Lá	-11.3628
▁sovětský	-11.3629
▁zasvěcen	-11.3629
▁Nejčastěj	-11.363
▁Podívej	-11.363
▁imunitní	-11.363
▁Bezpečnost	-11.363
▁Evropou	-11.363
▁Island	-11.363
▁Jupiter	-11.363
▁Letošní	-11.363
▁Moderní	-11.363
▁Naštěstí	-11.363
▁Olszewsk	-11.363
▁Stehlík	-11.363
▁Ukrajina	-11.363
▁burzy	-11.363
▁energií	-11.363
▁kandidovat	-11.363
▁krátkodobé	-11.363
▁laboratorní	-11.363
▁mrtvé	-11.363
▁náleží	-11.363
▁následovat	-11.363
▁odlišné	-11.363
▁opozicí	-11.363
▁ozónu	-11.363
▁podotkl	-11.363
▁poskytne	-11.363
▁premiéře	-11.363
▁překážky	-11.363
▁seriózní	-11.363
▁stability	-11.363
▁televizor	-11.363
▁totalitní	-11.363
▁těžší	-11.363
▁viceprezident	-11.363
▁vzdělávání	-11.363
▁výkres	-11.363
▁výslovně	-11.363
▁zachránil	-11.363
▁znamení	-11.363
▁závislá	-11.363
▁získají	-11.363
▁Úspěšn	-11.363
▁úspěšnost	-11.363
▁Mandler	-11.363
▁Město	-11.363
▁Obvodní	-11.363
▁abeced	-11.363
▁dostatečné	-11.363
▁herečka	-11.363
▁položku	-11.363
▁příroda	-11.363
▁vyžádá	-11.363
▁zemědělci	-11.363
▁chápán	-11.363
▁nutná	-11.363
▁profese	-11.363
▁živnostenský	-11.363
▁MIDI	-11.363
▁naučit	-11.363
▁Hapal	-11.363
▁Vojenské	-11.363
▁výlučn	-11.363
▁charitativní	-11.363
▁kubismu	-11.363
▁vystupoval	-11.363
▁leccos	-11.363
▁diváci	-11.363
▁ČSAD	-11.363
▁druzí	-11.363
▁koncentraci	-11.363
▁přečetl	-11.363
▁Sedm	-11.363
▁vyjít	-11.363
▁slyší	-11.363
▁Softwar	-11.3631
▁chápe	-11.3631
▁nesměl	-11.3631
▁česky	-11.3631
▁filtr	-11.3631
▁studené	-11.3631
▁cítil	-11.3631
▁loď	-11.3631
▁kopané	-11.3631
▁obdrží	-11.3631
▁Spolu	-11.3631
▁duši	-11.3632
▁úder	-11.3632
▁balení	-11.3632
▁kámen	-11.3632
▁zvyklí	-11.3632
izaci	-11.3632
▁síni	-11.3632
▁skok	-11.3633
▁Obyvatel	-11.3633
▁rozumět	-11.3633
▁trůn	-11.3633
▁Soutěž	-11.3633
▁dostupný	-11.3633
▁publikace	-11.3633
▁vzorků	-11.3633
▁Potvrdil	-11.3634
▁písma	-11.3634
▁proměnliv	-11.3634
▁sbírky	-11.3634
▁prázdninách	-11.3634
▁simul	-11.3634
▁zanikl	-11.3635
▁Švýcarska	-11.3635
účtování	-11.3635
▁Vaše	-11.3637
▁zdůvodnil	-11.3637
▁biologie	-11.3639
▁náhodně	-11.3639
▁přihlásil	-11.3639
▁branku	-11.3639
▁prac	-11.3639
▁výměník	-11.3642
67	-11.3642
▁vysílání	-11.3643
▁porušování	-11.3643
▁Dukly	-11.3643
▁připravují	-11.3643
kování	-11.3643
▁tendenci	-11.3643
▁FC	-11.3644
▁plot	-11.3645
▁1950	-11.3646
▁Rumunsko	-11.3646
▁expozice	-11.3647
▁levné	-11.3648
▁kompletní	-11.3648
▁armádní	-11.3649
▁Maďarska	-11.3649
▁politikou	-11.3649
▁sídla	-11.3649
▁drobných	-11.3649
▁výrobou	-11.3649
▁pravomocí	-11.365
▁udává	-11.3651
▁odjezd	-11.3651
AG	-11.3651
▁vlk	-11.3651
▁osobám	-11.3652
▁prodejna	-11.3652
▁foto	-11.3653
▁stěží	-11.3653
nechávají	-11.3653
▁přerušení	-11.3654
▁alternativní	-11.3655
▁drav	-11.3655
▁vyrovnání	-11.3656
▁Politick	-11.3656
▁řádky	-11.3657
▁zasáhnout	-11.3658
vesel	-11.3659
▁Vložit	-11.3661
▁Příklad	-11.3661
▁léto	-11.3662
▁sídlí	-11.3662
▁izraelské	-11.3664
▁necelé	-11.3664
▁infekce	-11.3666
▁kraje	-11.3666
▁potřebujete	-11.3666
▁výměny	-11.3666
▁příslušníky	-11.3666
▁scénu	-11.3667
▁nasazení	-11.3667
▁Baník	-11.3667
▁psaní	-11.3669
▁56	-11.3669
▁jmenoval	-11.367
▁zajímá	-11.367
▁doplňk	-11.3671
▁zajímavá	-11.3672
▁zbytku	-11.3673
▁Žena	-11.3673
▁dohodli	-11.3674
▁Tvrdí	-11.3674
▁rodině	-11.3675
▁42	-11.3675
▁sudetský	-11.3675
▁hrub	-11.3677
soudit	-11.3677
▁dorazil	-11.3679
▁uplatňují	-11.3679
▁tvorba	-11.3679
▁nemocného	-11.368
▁váh	-11.368
▁pokryt	-11.3681
▁provozování	-11.3681
jednali	-11.3681
▁ToolBooku	-11.3682
▁odborů	-11.3683
▁textové	-11.3685
▁kláštera	-11.3685
▁hradě	-11.3687
▁neznámé	-11.369
▁obvinil	-11.3691
▁analýza	-11.3691
nin	-11.3691
▁výhodou	-11.3691
▁získávání	-11.3692
▁slavného	-11.3692
▁sdělit	-11.3693
▁uzavřené	-11.3696
hne	-11.3697
▁Koup	-11.3698
▁spojených	-11.3698
▁Buď	-11.37
▁rozhlasu	-11.3702
▁veden	-11.3703
▁utekl	-11.3703
▁příkazem	-11.3705
▁pozná	-11.3705
▁vraždy	-11.3705
▁Bro	-11.3706
▁Víme	-11.3706
▁veletrhu	-11.3707
▁mořské	-11.3708
▁grafiky	-11.3709
▁zvukových	-11.3709
▁pivovarů	-11.3711
▁zbývá	-11.3712
řad	-11.3712
▁prezidentovi	-11.3713
čila	-11.3713
▁hladiny	-11.3713
▁poradil	-11.3713
isty	-11.3714
▁anglického	-11.3714
▁výchovy	-11.3715
0.000	-11.3719
▁Optic	-11.372
SA	-11.372
▁vyrovnaný	-11.372
▁nešťastn	-11.3721
▁očích	-11.3722
▁poskytnutí	-11.3722
tlačit	-11.3724
▁opustil	-11.3724
▁ruch	-11.3725
▁dokonalé	-11.3725
▁aneb	-11.373
▁semen	-11.373
▁zásahy	-11.3733
padnout	-11.3733
▁Ostravsk	-11.3734
▁osobu	-11.3735
▁zařazeny	-11.3735
▁uživatelům	-11.3737
▁požádali	-11.3741
▁přenesen	-11.3741
▁platnosti	-11.3743
▁ryz	-11.3744
▁Výzkum	-11.3744
▁přímý	-11.3746
▁stromu	-11.3751
▁70.	-11.3752
▁obsadili	-11.3752
▁realizovat	-11.3753
▁Izraelem	-11.3754
▁vzkaz	-11.3756
▁Husa	-11.3761
▁zahrad	-11.3761
▁radní	-11.3762
koupí	-11.3762
▁takzvané	-11.3766
▁kruhu	-11.3766
▁nakupovat	-11.3768
stavení	-11.377
▁zásoby	-11.3771
▁proměnil	-11.3772
▁cel	-11.3772
▁Novém	-11.3774
▁naproti	-11.3778
nz	-11.3779
▁předčasné	-11.3784
▁cc	-11.3784
▁odstup	-11.3785
vezm	-11.3785
▁širok	-11.3786
▁vyjadřují	-11.3789
▁listin	-11.3791
▁genu	-11.3791
▁opačném	-11.3793
▁narazí	-11.3799
ících	-11.3801
▁zdravý	-11.3802
▁mozkové	-11.3802
▁přístupem	-11.3804
▁úrok	-11.3804
▁dopise	-11.3804
▁proviz	-11.3806
▁poledne	-11.3806
ini	-11.3806
▁jemu	-11.3807
▁východu	-11.3808
▁rozšířen	-11.381
▁ukázk	-11.3813
▁gólu	-11.3813
▁Carl	-11.3814
šp	-11.3817
▁plánované	-11.382
▁obyčejné	-11.3821
▁převeden	-11.3822
▁zadržen	-11.3824
▁bojoval	-11.3824
▁Uveden	-11.3825
▁zvítězila	-11.3827
▁OLE	-11.3827
▁komunistický	-11.383
řez	-11.3831
▁střet	-11.3833
▁Dag	-11.3834
▁pilot	-11.3839
▁nezískal	-11.3846
▁čekání	-11.3848
▁dodala	-11.385
▁soukromým	-11.385
▁částice	-11.3856
▁Chart	-11.386
▁závěry	-11.386
HA	-11.3864
▁hloubk	-11.3865
▁kritické	-11.3869
▁klimatické	-11.3869
▁připravila	-11.3872
▁kdež	-11.3873
▁snížila	-11.3874
▁autory	-11.3875
▁obsluh	-11.3878
▁190	-11.3878
▁kapitoly	-11.388
učili	-11.3884
nili	-11.3884
▁majitelem	-11.3887
▁dole	-11.389
příč	-11.3891
▁domova	-11.3891
▁osmé	-11.3895
▁softwarový	-11.3895
▁vítězk	-11.3898
▁skončily	-11.3898
ED	-11.3902
▁Čechy	-11.3904
▁Don	-11.3909
▁věřit	-11.3909
▁předpokládal	-11.3912
▁očekávané	-11.3913
▁bezpečnostních	-11.3918
▁vklad	-11.3919
řek	-11.3921
stru	-11.3924
▁Jean	-11.3925
▁časové	-11.393
▁známa	-11.3933
▁omezené	-11.3934
hoře	-11.3936
▁zajímavý	-11.3939
ivost	-11.3944
▁talent	-11.3946
▁Ře	-11.3948
▁bio	-11.3951
ČE	-11.3954
▁etický	-11.3954
▁ing	-11.3954
▁mladík	-11.3957
lic	-11.3959
▁propag	-11.396
▁elektro	-11.3963
▁daří	-11.3965
▁plic	-11.3968
▁speciálních	-11.3969
▁samé	-11.397
▁chyba	-11.3976
▁zájm	-11.3976
▁Horní	-11.3978
▁31	-11.3979
▁takzvaný	-11.3982
▁říkám	-11.3984
tických	-11.3987
▁štít	-11.3988
▁zdokonal	-11.3989
▁náboženské	-11.399
▁hrůz	-11.399
ash	-11.3991
389	-11.3993
▁důkladně	-11.3996
▁vyvolá	-11.3996
▁obran	-11.4001
▁bolesti	-11.4001
▁pokutu	-11.4003
palestinsk	-11.4012
▁podpoře	-11.4018
▁znal	-11.402
▁vyloučen	-11.4021
▁komentáře	-11.4022
▁prach	-11.4024
▁dohodnut	-11.4025
jo	-11.4025
▁oblíbený	-11.4035
▁zaměstnancům	-11.4038
▁pachatele	-11.4039
izovat	-11.4041
psat	-11.4042
▁Vesmír	-11.4042
▁středním	-11.4044
▁hlás	-11.4044
▁vznikne	-11.4045
▁dozvěděl	-11.4048
▁účastník	-11.4049
▁osmnáct	-11.405
▁chorvatský	-11.4052
▁vlastníků	-11.4054
▁pru	-11.4055
▁110	-11.4057
ézt	-11.4057
▁americkým	-11.4064
ME	-11.4078
▁vazeb	-11.4082
▁poslancům	-11.4083
▁profesionál	-11.4084
▁příjemný	-11.4089
90	-11.4094
▁rozum	-11.4095
▁dávn	-11.4101
▁prohlásila	-11.4101
▁letecký	-11.4103
▁figur	-11.4105
▁An	-11.4106
▁obrazovk	-11.4106
▁tvor	-11.4108
čené	-11.4109
▁běžným	-11.4111
líbil	-11.4113
▁slovu	-11.4116
▁očí	-11.4116
vázal	-11.4119
▁souvislost	-11.4119
▁náměstk	-11.4119
SP	-11.4121
povídal	-11.4121
▁zlé	-11.4123
icí	-11.4124
▁disciplín	-11.4126
▁společník	-11.4127
▁nabízen	-11.4127
▁černý	-11.4129
wi	-11.4129
▁jezer	-11.4134
▁popř	-11.4135
▁Stran	-11.4136
▁Kongres	-11.4136
▁72	-11.4138
▁Pozor	-11.4139
DU	-11.414
▁kamion	-11.4141
▁nepřátel	-11.4141
▁kolegů	-11.4142
▁muzeu	-11.4144
▁přístav	-11.4147
▁vesmír	-11.4147
▁závěrečné	-11.415
▁koncern	-11.4151
▁povolen	-11.4152
▁převoz	-11.4152
▁zvětš	-11.4153
nově	-11.4154
▁vteřin	-11.4154
▁pojistn	-11.4155
▁tělesn	-11.4157
drželi	-11.4158
▁prokurátor	-11.4159
▁zpěvák	-11.4164
▁rizikový	-11.4165
▁uzná	-11.4168
▁časový	-11.417
▁dělník	-11.417
▁společným	-11.4171
▁mládež	-11.4172
▁šed	-11.4172
čn	-11.4172
▁biskup	-11.4172
3.	-11.4174
▁leasing	-11.4177
▁uměle	-11.4177
krývají	-11.4177
▁podepsán	-11.4179
▁potvrzen	-11.4179
▁pokladn	-11.4181
▁jater	-11.4181
▁Moc	-11.4185
▁dialog	-11.4186
▁počítačem	-11.4188
KDU	-11.4188
▁zaplatil	-11.4189
▁Pen	-11.4189
▁Charles	-11.419
▁Mnichov	-11.419
▁vyrovnané	-11.4193
záběr	-11.4193
▁překvapen	-11.4195
▁nemocný	-11.4195
▁minutu	-11.4197
▁předkládá	-11.4197
kromě	-11.4201
▁Kap	-11.4205
▁srozumiteln	-11.4207
▁Švýcar	-11.4208
německou	-11.4212
▁výzkumné	-11.4212
zrcadl	-11.4214
mýšlí	-11.4215
▁krystal	-11.4215
▁tunel	-11.4215
▁Krkonoš	-11.4216
ředstavitelé	-11.4218
▁pátrá	-11.4218
doporučují	-11.4218
▁1981	-11.4218
▁Eduard	-11.4218
▁Městě	-11.4218
▁Poštovní	-11.4218
▁Rozhovor	-11.4218
▁Svorada	-11.4218
▁Vědci	-11.4218
▁bázi	-11.4218
▁doprovázen	-11.4218
▁ekvivalent	-11.4218
▁instance	-11.4218
▁inzerát	-11.4218
▁konfiguraci	-11.4218
▁mechanismy	-11.4218
▁ministerstvem	-11.4218
▁mužstvu	-11.4218
▁nejlevnější	-11.4218
▁nejvhodnější	-11.4218
▁ovlivňova	-11.4218
▁označují	-11.4218
▁očekávají	-11.4218
▁pohromadě	-11.4218
▁potvrdit	-11.4218
▁pouštní	-11.4218
▁protagonist	-11.4218
▁prvotní	-11.4218
▁složku	-11.4218
▁sluchátka	-11.4218
▁stabilitu	-11.4218
▁svědků	-11.4218
▁vyjadřova	-11.4218
▁výsledcích	-11.4218
▁zachránit	-11.4218
▁zaměstnává	-11.4218
▁zbraň	-11.4218
▁závazek	-11.4218
▁závislé	-11.4218
opakovaně	-11.4218
▁Výběr	-11.4218
▁displej	-11.4218
▁dráhu	-11.4218
▁odvahu	-11.4218
▁sazby	-11.4218
▁vazbě	-11.4218
režie	-11.4218
▁jedinec	-11.4218
▁otravy	-11.4218
▁sladk	-11.4218
▁sérii	-11.4218
▁vyjednávání	-11.4218
▁Reuter	-11.4218
▁lidstva	-11.4218
▁profesí	-11.4218
▁uplatnil	-11.4218
▁Gross	-11.4218
▁prohlašuje	-11.4218
▁postačí	-11.4218
▁Pořadatel	-11.4218
▁kolaps	-11.4218
▁partie	-11.4218
▁Radovan	-11.4218
▁počty	-11.4218
▁vpravo	-11.4218
▁finance	-11.4218
▁kombinací	-11.4218
▁Pentium	-11.4218
▁jarní	-11.4218
▁obezit	-11.4218
▁rozvržení	-11.4218
▁doplnil	-11.4218
▁léčbě	-11.4218
▁smečka	-11.4218
▁cvičení	-11.4218
▁zaměřuje	-11.4218
▁ohlas	-11.4218
▁sníží	-11.4219
▁Ford	-11.4219
▁sportovce	-11.4219
▁generaci	-11.4219
▁ekonomickou	-11.4219
▁nedostatkem	-11.4219
▁Vilém	-11.4219
▁filozofii	-11.4219
▁Baker	-11.4219
▁výhrady	-11.4219
▁konverz	-11.4219
▁Uvažuje	-11.4219
▁derby	-11.4219
▁výměr	-11.4219
▁1998	-11.4219
▁spoření	-11.4219
▁nezvykl	-11.4219
▁SNR	-11.4219
▁studii	-11.4219
▁Hráč	-11.422
▁pravdy	-11.422
▁správnou	-11.422
▁pravice	-11.422
▁Běloruska	-11.422
▁jednotlivců	-11.422
▁čelit	-11.422
▁členění	-11.422
▁Winter	-11.4221
▁ISO	-11.4221
▁děkan	-11.4221
▁překonat	-11.4221
▁památky	-11.4221
▁článků	-11.4222
▁lodí	-11.4222
▁nákladech	-11.4222
KDS	-11.4222
▁kampaň	-11.4222
▁sbírek	-11.4223
▁zvýhodněn	-11.4223
▁švýcarské	-11.4223
▁tvrdit	-11.4223
▁strojírenství	-11.4223
▁zastupitelstvo	-11.4223
▁podmínkami	-11.4223
▁dálkové	-11.4224
▁celky	-11.4224
▁poplatků	-11.4224
▁vyhleda	-11.4224
▁pracovišti	-11.4224
▁ušetřit	-11.4225
▁pití	-11.4225
nešní	-11.4225
▁základny	-11.4225
▁přijímat	-11.4226
▁vzdělávací	-11.4226
▁vydrží	-11.4226
▁plus	-11.4226
▁komentoval	-11.4226
▁hluboký	-11.4226
▁2:1	-11.4227
▁Polskem	-11.4227
▁organismů	-11.4227
▁Provoz	-11.4228
▁ideologick	-11.4228
▁tenkrát	-11.4228
IP	-11.4229
▁oteplení	-11.4229
▁nazval	-11.4229
▁ojediněle	-11.4229
▁Kolín	-11.4229
▁pomáhat	-11.423
▁branky	-11.423
▁domku	-11.423
▁okresu	-11.423
▁nepřijatelné	-11.4231
nda	-11.4231
▁alternativy	-11.4231
▁pozorovatelů	-11.4232
▁odcházejí	-11.4232
▁vybrán	-11.4233
▁námět	-11.4233
▁prosazuje	-11.4233
▁scéně	-11.4233
▁trase	-11.4233
▁silami	-11.4235
▁kliniky	-11.4236
▁sedmé	-11.4236
▁pětinu	-11.4236
▁přísně	-11.4236
▁Palác	-11.4237
▁záměrně	-11.4237
▁skupinách	-11.4238
▁anketě	-11.4239
▁obří	-11.424
▁ledové	-11.4241
▁pozdní	-11.4241
▁zárukou	-11.4241
▁hranicí	-11.4242
▁obchodech	-11.4242
▁domácností	-11.4242
▁objektiv	-11.4242
▁přibývá	-11.4243
▁vyznačen	-11.4243
▁mrtvých	-11.4243
▁vidíte	-11.4245
▁koordinac	-11.4245
▁odluk	-11.4245
▁Air	-11.4245
▁znamenala	-11.4246
▁přip	-11.4247
▁povahu	-11.4247
▁skutečnou	-11.4249
▁stranách	-11.4252
▁komunismus	-11.4253
▁termo	-11.4253
▁publikací	-11.4253
cz	-11.4255
▁jazyků	-11.4255
▁opravit	-11.4256
▁etapy	-11.4256
▁problematiky	-11.4256
▁NT	-11.4256
▁pat	-11.4256
▁desítká	-11.4257
▁využívající	-11.4258
▁slavné	-11.4258
▁špičkov	-11.4259
▁pes	-11.4259
▁prodejce	-11.4259
stihnout	-11.4259
▁MOV	-11.426
▁dnem	-11.4261
▁Nejsem	-11.4262
▁pobočk	-11.4262
▁přibylo	-11.4262
jíždějí	-11.4263
píší	-11.4264
▁družstevní	-11.4265
▁zeleni	-11.4265
▁odměnu	-11.4265
▁konfliktu	-11.4266
▁nadšen	-11.4266
▁perspektivní	-11.4267
▁reálná	-11.4268
▁Žádný	-11.427
▁pochybnosti	-11.427
▁těsné	-11.427
▁zkratk	-11.4271
▁Thomas	-11.4272
▁neviděl	-11.4272
sazení	-11.4273
▁západu	-11.4274
▁odpady	-11.4276
▁vaku	-11.4276
▁hromada	-11.4277
▁Rozhodl	-11.4277
▁jednotný	-11.4277
93	-11.4277
▁stínu	-11.4278
▁dialogové	-11.4278
▁podávání	-11.4278
▁cukru	-11.4282
▁správě	-11.4282
▁milión	-11.4283
▁rodinou	-11.4285
▁vhodných	-11.4286
▁prochází	-11.4286
▁zmenšen	-11.4287
budovat	-11.4289
▁nábožensk	-11.429
▁slabé	-11.4291
▁Severoatlantick	-11.4291
▁měnov	-11.4291
▁(5	-11.4293
▁samostatnost	-11.4295
▁Španělsko	-11.4295
▁slevy	-11.4296
hání	-11.4297
▁historického	-11.4297
▁maličkost	-11.4299
▁jmenování	-11.43
▁polského	-11.43
▁77	-11.43
▁prázdniny	-11.4304
▁skleníkový	-11.4304
▁Kazachstánu	-11.4304
▁otevřenou	-11.4305
▁Sol	-11.4307
▁dlužníka	-11.4308
▁Přibyl	-11.4308
▁osmnácti	-11.4309
▁předloh	-11.431
▁skoku	-11.431
▁britských	-11.4313
▁zajímavých	-11.4314
▁hub	-11.4315
▁1991.	-11.4315
▁zařazení	-11.4316
▁jist	-11.4317
bírají	-11.4321
▁začínal	-11.4325
▁stavy	-11.4326
▁mezer	-11.4329
▁spolehlivě	-11.4329
▁Voj	-11.4332
▁čekal	-11.4335
▁časopis	-11.4336
▁kapacitu	-11.4337
▁mostu	-11.434
program	-11.4341
▁zájemcům	-11.4341
▁suroviny	-11.4341
▁vybaveny	-11.4343
▁oprávnění	-11.4344
▁hokejové	-11.4344
▁azyl	-11.4345
ota	-11.4345
▁smyslem	-11.4345
▁hospodářských	-11.4346
▁záznamu	-11.4348
▁manuál	-11.4349
▁Geo	-11.4351
▁tepelné	-11.4352
▁slavný	-11.4354
▁zahájena	-11.4355
▁levný	-11.4356
▁překvapením	-11.4356
▁poznal	-11.4358
▁závodníků	-11.4359
▁podpisu	-11.4362
▁odehráv	-11.437
▁případem	-11.4373
▁vzniklo	-11.4374
▁půd	-11.4375
▁účelu	-11.4375
▁automobilu	-11.4376
▁novináře	-11.4377
87	-11.438
▁určitým	-11.4381
▁procentní	-11.4382
▁vynesl	-11.4383
▁pozval	-11.4384
oví	-11.4385
běhne	-11.4389
▁kandidáta	-11.4391
byl	-11.4392
▁historik	-11.4393
▁VE	-11.4393
▁vyšším	-11.4394
▁vyvoláva	-11.4397
▁mm	-11.4399
▁potraviny	-11.44
stoupit	-11.4401
▁vznikal	-11.4402
▁pravý	-11.4404
▁pokračovala	-11.4404
▁cenami	-11.4405
ung	-11.4408
▁technologické	-11.4412
▁najdou	-11.4413
▁spojeno	-11.4414
▁vlna	-11.4417
▁vrátili	-11.442
▁součásti	-11.4422
▁průvodce	-11.4422
▁místním	-11.4427
týdenní	-11.4427
▁devatenáct	-11.4429
▁manažery	-11.4434
▁Norsk	-11.4435
▁Vod	-11.4437
nášejí	-11.4437
▁nevznik	-11.4438
▁Brněnsk	-11.444
▁samozřejm	-11.4443
jov	-11.4444
▁cenné	-11.4444
▁hlasováním	-11.4444
▁Mil	-11.4445
▁vývojový	-11.4445
▁vzdálen	-11.4449
▁mask	-11.445
tice	-11.4452
kraji	-11.4452
▁převrat	-11.4459
▁vizi	-11.446
▁daného	-11.446
IE	-11.4461
▁polský	-11.4462
▁textů	-11.4463
▁tituly	-11.4479
▁240	-11.448
▁britský	-11.448
▁základu	-11.4487
▁vědec	-11.449
dělení	-11.4491
leva	-11.4493
obdržela	-11.4494
▁povrchov	-11.4494
plynul	-11.4494
▁atomov	-11.4495
▁podnikateli	-11.4496
reál	-11.4497
▁řídit	-11.4504
▁91	-11.4506
ovského	-11.4508
LOV	-11.4508
eme	-11.4508
▁světl	-11.4517
▁nizozemsk	-11.4518
▁jakéhokoli	-11.4518
▁světem	-11.4518
▁poškozen	-11.4519
▁1)	-11.452
▁palác	-11.452
▁naučil	-11.4521
▁přesvědč	-11.4524
▁povrchové	-11.4529
▁čtvrtin	-11.4529
▁přibyl	-11.453
▁Ročn	-11.4534
▁Sen	-11.4536
▁nabízený	-11.4536
▁Kur	-11.4541
▁zařízením	-11.4545
▁činy	-11.4551
▁Plán	-11.4553
▁poloviční	-11.4553
ŽE	-11.4554
▁zápasem	-11.4555
stávat	-11.456
▁známou	-11.4565
▁psycholog	-11.4567
kého	-11.457
▁neštěstí	-11.4572
kých	-11.4576
▁olympiád	-11.4576
▁třetin	-11.4577
57	-11.4579
▁aktivac	-11.4581
▁nadměrn	-11.4585
▁čínské	-11.4586
▁zvrat	-11.4588
▁prováděn	-11.4591
▁jejímu	-11.4592
ručně	-11.4595
tovat	-11.4597
tát	-11.4598
▁průběžn	-11.46
▁žánr	-11.4606
▁zakladatel	-11.4608
▁neobvyklé	-11.4609
▁ja	-11.4622
▁Nemá	-11.4629
▁pěkný	-11.4629
7%	-11.463
stroj	-11.4634
▁hvězda	-11.4641
▁stranické	-11.4641
tání	-11.4642
▁ligové	-11.4642
▁Rakousk	-11.4642
▁nud	-11.4644
▁Závod	-11.4645
▁historick	-11.4652
▁samospráv	-11.4652
anti	-11.4654
▁přirozeným	-11.4654
▁pedagog	-11.4654
▁koalic	-11.4655
▁symbolick	-11.4655
▁Novotn	-11.4655
▁přesvědčil	-11.4658
▁vyplněn	-11.4663
▁žlut	-11.4664
▁míče	-11.4665
▁úsek	-11.4666
▁přidělen	-11.4667
▁Obsah	-11.4667
▁perspektiv	-11.467
▁nepříjemný	-11.4672
▁zvolený	-11.4674
kání	-11.4677
▁automat	-11.4679
▁žádným	-11.468
▁fakult	-11.4681
▁formul	-11.4681
▁KON	-11.4689
jedná	-11.4693
lčí	-11.4694
▁občanům	-11.4694
LED	-11.4696
▁Velký	-11.4697
▁hrozn	-11.4703
▁MU	-11.4704
wan	-11.4705
▁odmítnut	-11.4709
střelil	-11.4711
jevit	-11.4711
▁tiskov	-11.4713
▁výtečn	-11.4717
▁úvod	-11.4719
▁bosen	-11.472
▁dostaly	-11.4721
▁Občansk	-11.4722
platné	-11.4725
sovětsk	-11.4726
▁čte	-11.4726
▁Ter	-11.4727
kají	-11.4727
▁národním	-11.4732
▁inspektor	-11.4733
▁občansk	-11.4735
▁hráčům	-11.4736
▁parametr	-11.4739
okres	-11.474
▁spojit	-11.4745
▁Trh	-11.4748
MF	-11.4749
▁bojovn	-11.4754
hraniční	-11.4757
▁nesmysl	-11.4757
uskutečnila	-11.4759
▁Histori	-11.4763
hodinové	-11.4765
CK	-11.4765
▁dveří	-11.4767
atřicet	-11.4767
▁EuroTel	-11.4769
▁kategorií	-11.4769
mentálně	-11.4769
▁finančním	-11.477
▁Mlad	-11.4771
▁remíz	-11.4776
▁krásn	-11.4778
▁krev	-11.478
▁záloh	-11.478
▁Ostravar	-11.4781
▁sláv	-11.4784
▁volič	-11.4786
▁Žid	-11.4786
▁elektrick	-11.4787
▁dobrého	-11.4789
▁projektor	-11.4791
▁vystupuj	-11.4792
▁dřev	-11.4793
▁hmotnost	-11.4793
▁triumf	-11.4795
▁vidím	-11.4795
17	-11.4798
▁využívají	-11.4801
▁dvor	-11.4802
▁vánoc	-11.4804
třeba	-11.4805
▁krut	-11.4805
▁uvolněn	-11.4807
▁kraj	-11.481
bíhají	-11.4811
ejít	-11.4812
▁vyřazen	-11.4813
▁Lac	-11.4818
▁ukončen	-11.482
konalo	-11.482
▁dávat	-11.4822
▁smrteln	-11.4822
▁vazba	-11.4823
▁obnovit	-11.4823
▁dívá	-11.4824
▁centimetr	-11.4827
tiky	-11.4828
▁vlivu	-11.4828
▁sam	-11.4829
▁Thajsk	-11.483
ikonu	-11.4831
ight	-11.4831
▁dramat	-11.4831
lidov	-11.4837
▁krále	-11.4838
▁Neu	-11.4839
▁podporují	-11.4839
sadit	-11.4839
▁využíván	-11.4841
▁risk	-11.4842
▁Vždy	-11.4842
▁účinně	-11.4842
hlédne	-11.4842
▁Tchaj	-11.4843
atlantick	-11.4843
Cagiva	-11.4843
▁Apple	-11.4843
▁Barcelony	-11.4843
▁Budinský	-11.4843
▁Honecker	-11.4843
▁Liverpool	-11.4843
▁Lobkowicz	-11.4843
▁Moskvy	-11.4843
▁Opět	-11.4843
▁Stráský	-11.4843
▁TNF	-11.4843
▁Větší	-11.4843
▁angličtiny	-11.4843
▁atribut	-11.4843
▁databázový	-11.4843
▁dosaženo	-11.4843
▁dětství	-11.4843
▁epidemie	-11.4843
▁evoluce	-11.4843
▁extremist	-11.4843
▁intenzivní	-11.4843
▁jménu	-11.4843
▁kosmické	-11.4843
▁lhůtě	-11.4843
▁lůžek	-11.4843
▁nabízel	-11.4843
▁nabízet	-11.4843
▁nelíbí	-11.4843
▁nesmějí	-11.4843
▁pohledávky	-11.4843
▁polštář	-11.4843
▁poskytovan	-11.4843
▁pozůstatk	-11.4843
▁počínání	-11.4843
▁pronájmu	-11.4843
▁redakční	-11.4843
▁ropovod	-11.4843
▁rozšiřování	-11.4843
▁seznámil	-11.4843
▁skrývá	-11.4843
▁spekulace	-11.4843
▁spekulací	-11.4843
▁svědectví	-11.4843
▁tlačítek	-11.4843
▁trápí	-11.4843
▁vztazích	-11.4843
▁výdělečn	-11.4843
▁zdůrazňuje	-11.4843
▁ÚSES	-11.4843
▁Luboš	-11.4843
▁PŘED	-11.4843
▁Schumacher	-11.4843
▁Vánoční	-11.4843
▁bydliště	-11.4843
▁mrtvol	-11.4843
▁nekončí	-11.4843
▁prodavač	-11.4843
▁profesní	-11.4843
▁výzvu	-11.4843
▁Haagu	-11.4843
▁plakát	-11.4843
▁přiznat	-11.4843
▁uváděl	-11.4843
▁Vánoce	-11.4843
▁pojmy	-11.4843
▁Easy	-11.4843
▁pokouší	-11.4843
▁spektrum	-11.4843
▁demisi	-11.4843
▁pryč	-11.4843
týkat	-11.4843
▁komplikace	-11.4843
▁levicov	-11.4843
▁mutace	-11.4843
▁nevadí	-11.4843
▁praxí	-11.4843
týkal	-11.4843
▁Kyjev	-11.4843
▁zastupování	-11.4843
▁něčím	-11.4843
▁bezespor	-11.4843
▁Myslíte	-11.4843
▁nejmladší	-11.4843
▁ledovce	-11.4843
▁vyrobil	-11.4843
▁eventuáln	-11.4843
▁Neznám	-11.4843
▁usiloval	-11.4843
▁inteligentní	-11.4843
▁Group	-11.4843
▁bydlet	-11.4843
▁reprezentuje	-11.4843
▁zastupitelství	-11.4844
▁bát	-11.4844
▁pohlaví	-11.4844
▁teplé	-11.4844
▁mezisklad	-11.4844
▁ocas	-11.4844
▁slyšel	-11.4844
▁interpretace	-11.4844
▁neodpovídá	-11.4844
pravdě	-11.4844
▁levněji	-11.4844
kontinentální	-11.4844
▁komunikací	-11.4844
▁strážníci	-11.4844
▁stolní	-11.4844
tahuje	-11.4844
▁léčby	-11.4844
▁veterán	-11.4844
míří	-11.4844
▁ČSTK	-11.4844
▁nezajímá	-11.4844
▁Olg	-11.4844
▁někam	-11.4844
▁vyčleněn	-11.4844
▁norem	-11.4844
▁Thun	-11.4844
▁Berger	-11.4844
▁sousedství	-11.4844
▁stoprocentní	-11.4844
▁námitky	-11.4845
▁určí	-11.4845
▁HDP	-11.4845
▁sumy	-11.4845
KDH	-11.4845
▁střechy	-11.4845
▁Prohlásil	-11.4846
▁úředníci	-11.4846
▁Nemůže	-11.4846
▁dílčí	-11.4846
▁pozitivně	-11.4846
▁zkoušku	-11.4846
▁teplý	-11.4847
▁šíř	-11.4847
▁kinematografie	-11.4847
▁přestávce	-11.4847
▁rozv	-11.4847
▁novinkou	-11.4848
▁NOV	-11.4848
▁prodejců	-11.4848
▁Neměl	-11.4848
rozuměl	-11.4848
▁datum	-11.4848
▁Libor	-11.4848
▁švýcarský	-11.4848
▁hluk	-11.4848
▁selekčn	-11.4849
▁Grafová	-11.4849
▁omezování	-11.485
▁účelům	-11.485
▁sídlo	-11.485
▁myslet	-11.4851
▁hektarů	-11.4851
▁přenést	-11.4851
▁Tatra	-11.4852
▁rozměrů	-11.4853
▁vykázal	-11.4853
▁450	-11.4853
▁efektivnosti	-11.4853
▁Původní	-11.4853
▁posuzování	-11.4854
▁odhaduje	-11.4854
▁Postupně	-11.4854
▁dějinách	-11.4854
▁socialistické	-11.4855
▁Izraele	-11.4855
▁uložen	-11.4855
▁poškodil	-11.4855
▁10%	-11.4856
▁ohrozit	-11.4857
▁sestra	-11.4857
▁zapsán	-11.4857
▁Alma	-11.4858
prv	-11.4858
▁trik	-11.4858
▁povinné	-11.4858
▁filozofické	-11.4859
▁odpad	-11.4859
▁špičkových	-11.486
▁učební	-11.486
sáhnout	-11.486
▁uznává	-11.486
▁disponuje	-11.4861
▁Pardubice	-11.4862
▁Zpočátku	-11.4862
▁hygienické	-11.4863
▁považoval	-11.4863
▁úsměvem	-11.4864
▁přírodním	-11.4864
spěje	-11.4865
▁předpokládají	-11.4866
▁Dukla	-11.4867
▁Římě	-11.4867
atřicetilet	-11.4867
▁svazek	-11.4869
▁Určitě	-11.4869
▁motocyklů	-11.4869
▁badatelé	-11.487
▁drát	-11.487
▁LID	-11.4871
▁zvířete	-11.4873
▁dálnice	-11.4874
▁zvon	-11.4874
▁Londýna	-11.4874
▁minulou	-11.4875
▁herci	-11.4875
▁invalidní	-11.4876
▁ostrově	-11.4877
▁vyplácení	-11.4877
▁prázdné	-11.4878
▁fotbalisty	-11.4879
▁kritiky	-11.488
▁Listin	-11.4884
▁kompresi	-11.4884
▁Výrobc	-11.4884
▁spuštění	-11.4885
▁posádky	-11.4887
▁nahradí	-11.4888
▁sond	-11.4889
▁zrodil	-11.489
▁vyhlášky	-11.4891
▁přistoupil	-11.4891
▁OK	-11.4892
▁sněmovna	-11.4892
▁dáno	-11.4892
▁převodu	-11.4892
▁sporů	-11.4893
▁Kremlu	-11.4893
▁azbestu	-11.4893
▁provede	-11.4893
ičku	-11.4893
▁schránky	-11.4895
skop	-11.4895
▁klepnutím	-11.4896
▁zakázku	-11.4896
▁iniciativy	-11.4896
▁zvané	-11.4897
▁bazénu	-11.4897
▁Těm	-11.4898
▁pružn	-11.4898
▁Paříže	-11.4899
▁zakázal	-11.4899
▁vlastník	-11.4902
▁slavn	-11.4903
▁zásobník	-11.4904
▁výuky	-11.4904
▁Pravda	-11.4905
▁akcionáři	-11.4905
▁pořádně	-11.4905
▁problémech	-11.4906
▁doprovodu	-11.4906
▁učitelé	-11.4907
jmenovaný	-11.4908
▁nevhodné	-11.4909
▁povrchem	-11.4909
▁ekonomickým	-11.4909
▁vteřiny	-11.4912
▁doplnění	-11.4913
▁odpadu	-11.4913
▁Benda	-11.4913
▁olympiádu	-11.4918
▁vidíme	-11.4918
▁dech	-11.4919
▁Nizozemska	-11.492
36	-11.492
▁dialogu	-11.492
▁tunelu	-11.4921
▁zaručen	-11.4922
pozn	-11.4922
tratil	-11.4924
96	-11.4924
▁pomocník	-11.4924
pír	-11.4924
▁paktu	-11.4926
▁hostin	-11.4929
▁vytvořený	-11.493
▁složitost	-11.493
▁mzdové	-11.493
▁okamžité	-11.4931
Finsko	-11.4932
▁příkladu	-11.4932
▁volném	-11.4933
▁Sex	-11.4934
▁geografick	-11.4934
▁jednotn	-11.4935
▁dolaru	-11.4935
▁závažn	-11.4936
▁slevu	-11.4937
▁poplatníků	-11.4937
▁etnick	-11.4939
▁List	-11.494
▁předmětu	-11.4941
Vesmír	-11.4942
▁údaji	-11.4943
▁prodávají	-11.4943
▁jízdu	-11.4945
▁stanovil	-11.4946
▁procesory	-11.4947
▁(2	-11.4947
▁systémech	-11.4947
▁plzeňské	-11.4948
▁postupuje	-11.4949
▁Nova	-11.4949
▁náměstka	-11.4949
▁zbožím	-11.495
▁nákladné	-11.495
▁předešl	-11.495
▁používané	-11.4951
▁zvol	-11.4952
vládne	-11.4953
▁silnici	-11.4953
slouží	-11.4954
▁zaujím	-11.4957
▁choroby	-11.496
▁vrah	-11.4961
▁lese	-11.4961
▁sortimentu	-11.4964
▁otázkami	-11.4964
▁kouř	-11.4965
graf	-11.4966
▁útvarů	-11.4966
▁tváře	-11.4968
▁Bre	-11.497
přineslo	-11.497
▁monopolní	-11.4971
taž	-11.4972
▁koná	-11.4973
mět	-11.4974
▁nazvaný	-11.4975
▁pacienty	-11.4976
▁vyhrazen	-11.4976
▁ukázaly	-11.4977
▁zemřelo	-11.4983
▁užití	-11.4984
▁Ivo	-11.4985
přestává	-11.4986
▁oddíl	-11.4986
▁leteck	-11.4988
▁omezeným	-11.4988
▁Radnic	-11.499
▁zvolí	-11.4996
▁Tito	-11.4996
▁Har	-11.4997
počtu	-11.4999
▁RAM	-11.5
▁věřím	-11.5001
▁230	-11.5001
▁Web	-11.5002
▁hodí	-11.5003
Pro	-11.5007
▁vysílač	-11.501
USA	-11.5012
▁fyzik	-11.5013
▁vzali	-11.5014
▁Švéd	-11.5016
▁národa	-11.5018
jeden	-11.5019
▁Die	-11.5021
▁podstat	-11.5021
škodí	-11.5022
▁Med	-11.5023
jistá	-11.5023
▁odběratele	-11.5025
▁soutěžích	-11.5026
▁přežil	-11.5027
▁korunu	-11.5028
nar	-11.5028
▁Spíš	-11.5031
rel	-11.5032
▁zažil	-11.5038
▁porazili	-11.5038
▁Dole	-11.504
▁dnešním	-11.5041
▁největšího	-11.5041
▁zůstali	-11.5042
▁právním	-11.5042
▁zbytečný	-11.5043
▁Tan	-11.5045
áty	-11.5047
▁Přím	-11.5048
ovaném	-11.5049
▁lev	-11.505
▁oprávněné	-11.5052
ht	-11.5053
▁doufám	-11.5056
▁dokázala	-11.5062
▁slovenského	-11.5064
▁příkazu	-11.5066
▁kritizoval	-11.507
▁neobyčejn	-11.5073
kreslen	-11.5074
▁Tisk	-11.5075
▁ptát	-11.5077
▁tvůrc	-11.5082
▁převyšuj	-11.5083
▁6,	-11.5084
▁zastávk	-11.5086
bran	-11.5094
▁geolog	-11.5095
▁příklady	-11.5095
kově	-11.5096
▁Američanů	-11.5098
▁matematické	-11.5101
▁činitel	-11.5104
▁vyvážen	-11.5104
▁Václavské	-11.5107
▁dramatické	-11.5108
▁místopředsedy	-11.5109
▁útoků	-11.511
▁vložené	-11.5112
▁tradičních	-11.5117
▁automobilové	-11.5118
▁hory	-11.5119
tvořily	-11.5123
bov	-11.5123
▁deviz	-11.5127
▁tkání	-11.5128
znal	-11.5131
▁rozdílné	-11.5133
13	-11.5135
▁způsobí	-11.514
▁nebýval	-11.5142
▁dlužník	-11.5143
▁stálý	-11.5144
▁souhlasil	-11.5147
stavovat	-11.5149
▁varianta	-11.515
▁milost	-11.5152
▁186	-11.5154
krás	-11.5156
▁vlastníka	-11.5162
▁příjemně	-11.5169
rážky	-11.5177
▁nedoved	-11.5181
▁rozumí	-11.5186
hrnul	-11.5191
▁dobro	-11.5191
věří	-11.5194
mann	-11.5204
▁prokázán	-11.5205
NSK	-11.5206
▁rekordní	-11.5208
svědčil	-11.5208
živí	-11.5211
▁nejlepšími	-11.5217
▁Pokus	-11.5219
▁skutečným	-11.522
▁evoluční	-11.5224
▁pomohla	-11.5225
▁světle	-11.5229
stran	-11.5229
▁demokrat	-11.5234
▁síťové	-11.5238
▁resort	-11.5242
dáte	-11.5245
pouštět	-11.5252
▁soustav	-11.5268
▁stimul	-11.5276
▁hodině	-11.5277
▁vhodný	-11.528
pera	-11.528
▁malém	-11.5282
▁kout	-11.5284
▁doufá	-11.5288
▁aspekt	-11.5291
obr	-11.5292
▁použitím	-11.5295
▁Obchod	-11.5296
▁Žádn	-11.5298
▁uvědomil	-11.5299
▁položen	-11.5306
alba	-11.5307
trhl	-11.5309
svědčuje	-11.5309
vědčí	-11.531
▁párů	-11.5311
tové	-11.5311
▁opačné	-11.5317
▁vyjadřuj	-11.5321
▁uživatelské	-11.5323
obyčejně	-11.5326
▁výuk	-11.5335
▁AC	-11.5343
▁politickým	-11.5343
▁továrn	-11.5348
▁postoupil	-11.5353
bez	-11.5359
▁Vznikl	-11.5359
▁nepříjemn	-11.536
▁jede	-11.536
▁bytový	-11.536
rová	-11.5361
čkách	-11.5364
6.	-11.5373
▁potěš	-11.5373
▁ženské	-11.5374
▁široký	-11.5378
▁Svobodn	-11.5381
podivu	-11.5383
▁Vysok	-11.5386
▁kontrast	-11.539
lip	-11.5401
▁přírodovědeck	-11.5404
▁cítím	-11.5404
▁vyvinul	-11.5409
▁konstatova	-11.5413
▁znalost	-11.5414
▁vzrostl	-11.5415
▁ostr	-11.5417
▁leckd	-11.542
▁Morav	-11.5421
▁astronom	-11.5422
evropský	-11.5423
▁Rakušan	-11.5428
▁laboratoř	-11.5431
čítat	-11.5431
▁klobouk	-11.5433
▁násilí	-11.5434
▁čtvereční	-11.5434
▁ideál	-11.5434
▁kodex	-11.5435
▁tratí	-11.5435
▁Word	-11.5436
▁cukr	-11.5437
▁pocházejí	-11.5438
▁terén	-11.5438
▁svatb	-11.5438
▁dán	-11.5438
morav	-11.5441
▁Kan	-11.5441
▁cement	-11.5442
▁autorit	-11.5444
beton	-11.5444
▁připomínk	-11.5445
▁dohad	-11.5447
vydržel	-11.5447
▁rytíř	-11.5448
marketing	-11.5448
▁William	-11.5449
▁uplatňuj	-11.5451
▁fyzick	-11.5452
hlížel	-11.5453
hodinový	-11.5454
▁závislost	-11.5454
RS	-11.5461
▁výhodný	-11.5462
▁obchodník	-11.5464
▁trvalý	-11.5465
▁Kraj	-11.5467
▁infekc	-11.5467
pojit	-11.5467
▁použije	-11.5467
▁Každé	-11.5468
bezpeč	-11.5469
rej	-11.5469
▁vzrůst	-11.5471
rovnání	-11.5473
▁kluk	-11.5478
▁označován	-11.5479
▁pozván	-11.548
▁fenomén	-11.5481
▁Určit	-11.5486
▁uplatňova	-11.5487
štění	-11.549
▁stálo	-11.549
▁měřit	-11.5491
▁Kolumbi	-11.5491
▁penzi	-11.5492
▁reaktor	-11.5493
▁sediment	-11.5493
▁les	-11.5494
▁uzavřený	-11.5495
▁elektrod	-11.5496
▁Eli	-11.5498
vážet	-11.5503
▁komunik	-11.5504
▁Jenom	-11.5508
▁KSČ	-11.5508
▁jakoukoli	-11.5508
▁obchodovat	-11.551
▁plošný	-11.551
JPEG	-11.551
▁Austrálie	-11.551
▁Ludvík	-11.551
▁Návrat	-11.551
▁Pistol	-11.551
▁Saúdsk	-11.551
▁Vešker	-11.551
▁WWW	-11.551
▁bankovnictví	-11.551
▁definice	-11.551
▁deklaraci	-11.551
▁důležitější	-11.551
▁federaci	-11.551
▁fungování	-11.551
▁hardwarov	-11.551
▁infarkt	-11.551
▁interiér	-11.551
▁kampaně	-11.551
▁konfigurace	-11.551
▁konkurovat	-11.551
▁literatuře	-11.551
▁nenávist	-11.551
▁neškodn	-11.551
▁nukleární	-11.551
▁odpovědět	-11.551
▁pojišťovnou	-11.551
▁populaci	-11.551
▁problematice	-11.551
▁prozradil	-11.551
▁předpovědi	-11.551
▁přerozdělování	-11.551
▁rekreaci	-11.551
▁rubrice	-11.551
▁symplektick	-11.551
▁tiskáren	-11.551
▁tolerance	-11.551
▁trénovat	-11.551
▁vypráví	-11.551
▁východoevropský	-11.551
▁zapomenout	-11.551
▁zaručit	-11.551
▁zodpovězen	-11.551
▁zákulisí	-11.551
▁Četrans	-11.551
▁špatnou	-11.551
▁1983	-11.551
▁Mitterrand	-11.551
▁Právo	-11.551
▁makléř	-11.551
▁předvánoční	-11.551
▁reagují	-11.551
▁vláken	-11.551
▁vzbudil	-11.551
▁účinné	-11.551
přízeň	-11.551
▁Ctrl	-11.551
▁Francií	-11.551
▁Oldřich	-11.551
▁praktik	-11.551
▁stráví	-11.551
▁ujistil	-11.551
▁zastupuje	-11.551
▁Kurzy	-11.551
▁Michel	-11.551
▁jednodušší	-11.551
▁značku	-11.551
▁ustavující	-11.551
▁vybojoval	-11.551
▁elementární	-11.551
▁mikrofon	-11.551
▁přípustn	-11.551
▁nabídek	-11.551
▁povolební	-11.551
▁rozdělí	-11.551
▁taxonomie	-11.551
▁multi	-11.551
▁vrstva	-11.551
▁úložiště	-11.551
▁desek	-11.551
▁ovládací	-11.551
▁Pivovar	-11.551
▁popředí	-11.551
▁rozvíjet	-11.551
▁uplatňován	-11.551
▁bezpečně	-11.551
▁rozsáhlejší	-11.551
▁lázní	-11.551
▁učiní	-11.551
▁realizace	-11.551
▁poušti	-11.551
▁FBIS	-11.551
▁zánět	-11.551
▁vyžadovat	-11.551
▁firmách	-11.551
▁Moravia	-11.551
▁češtiny	-11.551
▁léčbu	-11.5511
▁Soulu	-11.5511
ford	-11.5511
▁šipk	-11.5511
▁komunikační	-11.5511
▁poptávku	-11.5511
▁fází	-11.5511
▁Setkání	-11.5511
▁mediální	-11.5511
▁zabránil	-11.5511
▁dotaci	-11.5511
▁konsensus	-11.5511
▁komunit	-11.5511
▁bankrot	-11.5511
▁robot	-11.5511
▁1976	-11.5511
▁Značn	-11.5511
▁spotřeba	-11.5511
▁sníh	-11.5511
▁Nechci	-11.5511
▁holub	-11.5511
▁fakticky	-11.5511
▁nominaci	-11.5511
▁toxické	-11.5512
▁faul	-11.5512
▁distribuční	-11.5512
▁touží	-11.5512
▁kameny	-11.5512
▁pestr	-11.5512
▁Cítí	-11.5512
▁vyslovit	-11.5512
▁ČSD	-11.5512
▁publikaci	-11.5512
▁Vzá	-11.5512
▁vyprávěl	-11.5512
▁plaz	-11.5512
▁líčí	-11.5512
▁vysloužil	-11.5513
▁podobnou	-11.5513
▁všední	-11.5514
chybějí	-11.5514
▁bál	-11.5514
▁vystavuje	-11.5515
▁produkcí	-11.5515
▁Data	-11.5515
▁dvoudenní	-11.5515
▁mezistátní	-11.5516
▁nepamatuj	-11.5516
sit	-11.5516
▁stád	-11.5516
▁vynutil	-11.5516
▁Maďarskem	-11.5516
▁Informace	-11.5516
▁zjednodušen	-11.5517
▁novotvary	-11.5517
▁hepatocytů	-11.5517
▁přijatelná	-11.5517
▁umělci	-11.5517
▁zajišťující	-11.5518
▁volající	-11.5518
▁seskupení	-11.5519
▁zimy	-11.5519
▁kardinál	-11.5519
▁desetkrát	-11.5519
▁připraví	-11.5519
▁cestách	-11.5519
▁hospodaří	-11.552
▁spektra	-11.552
▁nestátní	-11.552
▁palubě	-11.552
▁Kladně	-11.552
▁výšky	-11.552
▁významnější	-11.552
▁vlasy	-11.5521
▁tendence	-11.5521
entní	-11.5521
▁vydávat	-11.5521
▁ředitelství	-11.5521
▁předloží	-11.5522
▁odsoudil	-11.5522
▁vyhodnocení	-11.5523
▁marketingu	-11.5523
▁pozoruhodné	-11.5524
▁zelený	-11.5524
▁altruismus	-11.5525
▁vysílací	-11.5525
▁zúčastněný	-11.5525
▁konání	-11.5526
▁cokoli	-11.5526
▁zajímavost	-11.5526
▁distributor	-11.5527
rý	-11.5527
▁ekonomikou	-11.5528
▁zvířecí	-11.5528
▁virus	-11.5529
▁nouze	-11.5529
▁pomáhají	-11.5529
▁komentátor	-11.553
▁jistotou	-11.553
▁jednotlivce	-11.5531
▁zatížení	-11.5531
▁pokrýt	-11.5532
ousek	-11.5532
▁pořádek	-11.5532
▁vyhrát	-11.5533
▁hudbu	-11.5533
▁krajině	-11.5534
▁nástupce	-11.5534
▁zkušen	-11.5534
▁různě	-11.5534
▁Janov	-11.5535
▁prokázat	-11.5535
▁dosáhne	-11.5535
▁trasy	-11.5536
sloučenin	-11.5536
▁evropskou	-11.5536
▁zeď	-11.5537
▁modelování	-11.5537
▁řádku	-11.5537
▁pozorovatelé	-11.5538
▁Číně	-11.5538
▁faktorem	-11.5538
▁analýze	-11.5538
▁desetin	-11.5539
▁řetězce	-11.5539
▁Hel	-11.5539
▁oceánické	-11.554
▁Šlo	-11.5541
▁předkol	-11.5541
▁pásmu	-11.5542
▁59	-11.5542
▁sumu	-11.5542
▁vědce	-11.5542
▁Vstup	-11.5543
▁startovat	-11.5544
▁pomst	-11.5544
▁ekonomiku	-11.5544
▁porod	-11.5544
▁autobusem	-11.5544
▁přesností	-11.5544
▁61	-11.5545
▁ránu	-11.5546
▁sestaven	-11.5546
▁soukromí	-11.5547
▁uchazeč	-11.5547
ební	-11.5547
▁dřevěné	-11.5549
▁vyloučeno	-11.5549
ván	-11.555
▁badatel	-11.5551
▁dodavatelů	-11.5551
kontroluje	-11.5551
▁mlhy	-11.5552
▁vyřazení	-11.5552
▁směřující	-11.5553
▁kurzů	-11.5553
▁zmínil	-11.5554
▁bránil	-11.5555
▁uvítal	-11.5555
▁podepsání	-11.5555
▁nuly	-11.5555
ovitých	-11.5555
▁Domnívám	-11.5556
▁dopisů	-11.5557
▁středoevropské	-11.5559
ismem	-11.556
izování	-11.556
▁technickou	-11.556
▁hormonů	-11.556
ativní	-11.5561
▁motorem	-11.5561
▁návštěvníky	-11.5562
▁Ger	-11.5562
▁Chebu	-11.5563
▁nedokáže	-11.5563
▁středověku	-11.5565
▁kalendářní	-11.5566
▁zvykem	-11.5566
▁předák	-11.5566
▁odstoupil	-11.5566
▁zastává	-11.5568
▁úhradu	-11.5568
dána	-11.5568
▁Alžběta	-11.5569
▁Bratinka	-11.5569
▁diváky	-11.5571
▁kanály	-11.5571
▁slavnosti	-11.5571
▁dodávat	-11.5572
▁válečný	-11.5573
▁Lidový	-11.5573
▁Syn	-11.5574
▁větru	-11.5574
▁účinků	-11.5575
▁telefonů	-11.5577
díval	-11.5578
▁rozpočtový	-11.5579
▁vyloučení	-11.5579
▁přispívají	-11.5581
▁pokladny	-11.5583
▁disciplíny	-11.5583
▁citeln	-11.5584
▁Jež	-11.5584
▁dozvěděli	-11.5588
▁listiny	-11.5588
▁diplomatický	-11.5589
▁délky	-11.5589
▁hosté	-11.559
átory	-11.559
uf	-11.5591
▁přístavu	-11.5593
▁dospělých	-11.5595
▁Francouzský	-11.5595
▁stoupla	-11.5596
▁Historick	-11.5597
▁táhn	-11.5598
▁odvezl	-11.5598
▁autobusové	-11.5598
▁opakuje	-11.5599
▁vybrali	-11.56
▁útvaru	-11.56
▁nositel	-11.56
▁staro	-11.5601
▁Anna	-11.5601
▁následné	-11.5603
▁dluhy	-11.5603
▁aparátu	-11.5603
▁šťastný	-11.5605
▁návratnost	-11.5608
ance	-11.5609
poškozené	-11.5609
▁vzrostla	-11.5612
▁pořádání	-11.5614
▁postaví	-11.5614
▁městem	-11.5614
▁vědecky	-11.5615
▁nevěděli	-11.5615
▁aplikacemi	-11.5615
▁Min	-11.5616
▁etapa	-11.5617
▁horké	-11.562
▁ledu	-11.562
▁svěřil	-11.5621
▁odstupné	-11.5621
▁černého	-11.5624
▁hladinu	-11.5624
▁katalogu	-11.5625
▁proteinu	-11.5625
▁zobraz	-11.5625
▁katastrofy	-11.5625
▁samotného	-11.5625
▁zločiny	-11.5629
▁nastane	-11.5629
bytová	-11.5629
▁Ren	-11.563
▁Možnosti	-11.563
▁zvolení	-11.5631
▁ostrova	-11.5634
▁kulturu	-11.5634
▁vyhledá	-11.5635
▁Cor	-11.5635
hodná	-11.5635
▁tématu	-11.5635
▁možnostech	-11.5636
jíždí	-11.5636
UM	-11.5637
▁titulem	-11.5638
▁filmař	-11.5638
▁nahoře	-11.564
▁Hilla	-11.564
▁řešil	-11.5642
▁nejbližším	-11.5643
▁sub	-11.5643
▁úspěšných	-11.5644
▁liga	-11.5645
▁přísné	-11.5645
▁klesla	-11.5645
▁Fakt	-11.5646
▁vysokým	-11.5647
ess	-11.5648
▁investici	-11.5649
▁Ir	-11.5651
munist	-11.5652
▁druhých	-11.5652
▁dramatick	-11.5652
▁psa	-11.5652
▁chaty	-11.5654
▁nazvané	-11.5654
▁Park	-11.5655
▁zabezpeč	-11.5655
▁nemáte	-11.5655
▁nezávislosti	-11.5656
▁signály	-11.5656
▁obchodníky	-11.5656
▁Muži	-11.5657
▁pohybů	-11.5661
▁objevilo	-11.5662
▁rezervy	-11.5665
rně	-11.5666
▁tréninku	-11.5668
▁nepod	-11.5669
▁zaměstnavateli	-11.5672
▁děd	-11.5677
▁kurzy	-11.5678
▁statistick	-11.5679
panuje	-11.5681
▁představila	-11.5682
▁dovnitř	-11.5683
▁editoru	-11.5684
▁rock	-11.5686
▁dobrém	-11.5688
▁sbír	-11.569
▁odklad	-11.569
▁náboženský	-11.5693
víz	-11.5693
▁radí	-11.5694
▁udělala	-11.5696
▁Dne	-11.5696
▁nechtěli	-11.5698
▁nepřímo	-11.5699
▁odporu	-11.5704
▁kanceláři	-11.5704
▁góly	-11.5706
lizace	-11.5708
▁dopadl	-11.5708
▁založili	-11.5709
▁dotazy	-11.5712
▁vyjádřen	-11.5712
▁kursu	-11.5712
hořel	-11.5714
▁Gen	-11.5715
▁přítel	-11.5715
uad	-11.5717
▁vítězem	-11.5717
▁požádala	-11.5721
▁podzimu	-11.5721
▁slovensk	-11.5723
děláme	-11.5726
atrně	-11.5733
▁Perské	-11.5733
psaný	-11.5736
▁středo	-11.5736
▁krásný	-11.5737
▁Prof	-11.5738
▁dotazu	-11.5739
▁volání	-11.574
▁off	-11.5742
▁Americké	-11.5745
▁známy	-11.5746
hradil	-11.5747
▁zápasech	-11.5752
EP	-11.5757
lová	-11.5758
▁umělý	-11.5758
▁vlastníky	-11.5761
▁nedělním	-11.5762
▁zub	-11.5764
▁povol	-11.5764
▁osobním	-11.577
pokládat	-11.5771
▁nabídla	-11.5772
jedna	-11.5772
dával	-11.5775
trpěl	-11.5775
▁Dán	-11.5776
▁samém	-11.5777
méno	-11.5778
▁jasný	-11.5779
kupuje	-11.5781
▁Černé	-11.5784
příště	-11.5784
31	-11.5785
skému	-11.5789
▁generálním	-11.5796
▁dokonalý	-11.5796
▁bitv	-11.5797
gan	-11.58
▁kapacita	-11.58
▁královské	-11.5805
večer	-11.5809
▁českému	-11.5809
▁českými	-11.581
▁majetkové	-11.581
JE	-11.5811
▁Způsob	-11.5812
▁nacházejí	-11.5814
▁logik	-11.5818
▁prostý	-11.5818
izované	-11.5823
▁Jejím	-11.5824
čištění	-11.5824
▁časy	-11.5828
ovku	-11.5828
▁cizím	-11.5832
▁upravené	-11.5832
▁krátkém	-11.5832
▁nařídil	-11.5834
▁disky	-11.584
který	-11.5841
počítat	-11.5841
97	-11.5842
▁poradenské	-11.5851
▁vložil	-11.5855
▁přiměřen	-11.5859
▁knihovn	-11.5859
nej	-11.586
▁představa	-11.5863
▁stres	-11.5863
četné	-11.587
▁obecný	-11.5871
▁obcích	-11.5873
jela	-11.5874
▁faktor	-11.5874
▁dosáhli	-11.5875
▁jakosti	-11.5876
▁šetřit	-11.5878
obec	-11.5884
▁vyroben	-11.5886
▁Žen	-11.5886
▁Casimir	-11.589
▁uvolni	-11.5892
▁nedělá	-11.5894
▁vytvořené	-11.5898
▁pravým	-11.5907
▁Bab	-11.591
▁nacházel	-11.5915
▁vypracoval	-11.5916
▁měnil	-11.5917
▁Alb	-11.5921
▁moderního	-11.5922
▁Borise	-11.5922
▁starších	-11.5923
▁předků	-11.5927
▁hodnotit	-11.5928
▁budoucím	-11.5929
▁veliká	-11.593
▁jednáním	-11.5935
vodí	-11.5939
hlédnout	-11.594
zkoumat	-11.5942
▁kapitol	-11.5947
▁prah	-11.595
▁maso	-11.5951
▁nabízené	-11.5957
▁Hodn	-11.5958
▁náhradník	-11.5961
▁osobou	-11.5961
sadili	-11.5964
▁mužem	-11.5965
▁Hans	-11.5966
▁chyt	-11.5966
▁omyl	-11.5966
hodné	-11.5966
▁dávky	-11.5966
členný	-11.5968
▁prodával	-11.5968
ding	-11.5969
izraelsk	-11.5969
▁chud	-11.5972
▁4000	-11.5975
▁velitele	-11.5977
▁Zkus	-11.598
▁minima	-11.5982
▁svalov	-11.5985
▁sluch	-11.5987
▁Výstav	-11.5989
▁Mladiče	-11.599
▁dostával	-11.5992
▁stín	-11.5993
▁zřetelně	-11.5994
▁doprovod	-11.5998
▁sobotním	-11.6
▁trávi	-11.6009
▁slušný	-11.6011
▁překonal	-11.6011
▁dodá	-11.6017
▁kanál	-11.6025
▁Druh	-11.6025
▁Las	-11.6029
▁logický	-11.603
▁Kanad	-11.6031
pomíná	-11.6033
ocel	-11.6033
káže	-11.6033
▁bra	-11.6035
▁socialist	-11.6035
▁divák	-11.6039
▁podrobně	-11.6043
▁udělen	-11.6043
▁vrácen	-11.6045
▁Jir	-11.6046
LET	-11.6047
▁Ken	-11.6053
drobnější	-11.6056
▁94	-11.6058
▁zmizel	-11.6058
▁splněn	-11.6069
ura	-11.6076
▁výplat	-11.6085
jednává	-11.6085
1%	-11.6085
▁strašn	-11.6086
▁Kos	-11.6087
▁kříže	-11.6088
▁obrovsk	-11.6089
▁Zelen	-11.6091
▁Daně	-11.6091
konaly	-11.6091
▁žádají	-11.6093
▁ovlivnil	-11.6094
1972	-11.6094
▁spolehliv	-11.6094
▁jídel	-11.6095
▁Hill	-11.6096
▁poražen	-11.6098
hru	-11.6099
ůbec	-11.61
▁pane	-11.6103
▁problémům	-11.6104
Přerov	-11.6107
▁kapel	-11.6108
▁charakterizova	-11.6108
▁racionální	-11.6109
▁poplatník	-11.6117
▁Real	-11.6118
▁uzavře	-11.6118
▁Bob	-11.612
muslimské	-11.612
poskytla	-11.612
▁vězni	-11.6121
tržení	-11.6121
▁spustí	-11.6122
▁zveřejnil	-11.6122
▁sovět	-11.6123
▁domácnost	-11.6123
▁nemovitost	-11.6129
▁připravenost	-11.613
staly	-11.6131
delov	-11.6131
▁pozic	-11.6133
▁politickém	-11.6138
hrával	-11.6138
▁žádného	-11.6139
▁televizním	-11.615
▁doprav	-11.615
▁chaos	-11.615
NU	-11.6151
▁něčem	-11.6151
▁myš	-11.6153
▁Podpor	-11.6153
střílel	-11.6155
▁poslání	-11.6156
▁ovládá	-11.6156
▁interval	-11.6157
▁kosti	-11.6158
▁spravedlnost	-11.6158
▁bývalým	-11.616
▁chrání	-11.6162
▁53	-11.6164
bitový	-11.6165
▁verzí	-11.6168
▁poskytován	-11.617
gramů	-11.6172
▁zklamán	-11.6173
vlas	-11.6173
▁propojen	-11.6174
čkem	-11.6177
▁tržb	-11.6179
▁zatčen	-11.6179
vodně	-11.618
malý	-11.618
▁naplněn	-11.618
vané	-11.6181
▁způsobeno	-11.6181
▁rovnost	-11.6182
▁pout	-11.6182
▁nemocné	-11.6183
▁občanský	-11.6185
▁honorář	-11.6186
povídat	-11.6186
plyn	-11.6187
▁bilanc	-11.6187
▁Víc	-11.6189
▁TV	-11.6189
▁komet	-11.6191
▁Míst	-11.6192
▁zoufal	-11.6193
▁doporučen	-11.6195
▁zvyšují	-11.6197
▁odvet	-11.6199
SKO	-11.62
▁Dohod	-11.6203
nutil	-11.6204
▁fundamentalist	-11.6204
▁šesté	-11.6205
▁trhů	-11.6205
▁kilogram	-11.6208
čínsk	-11.6211
▁Mistr	-11.6212
▁mechanick	-11.6213
platila	-11.6213
▁teplá	-11.6214
rozhodoval	-11.6218
AC	-11.6218
čková	-11.6219
▁berou	-11.622
árek	-11.6222
▁optim	-11.6222
▁učit	-11.6222
▁lacin	-11.6223
▁konzerv	-11.6223
▁Dlouho	-11.6224
▁vycházejí	-11.6224
▁velvyslanec	-11.6224
▁Pálffy	-11.6224
▁Teplice	-11.6224
▁inzulín	-11.6224
▁katalyzátor	-11.6224
▁komodit	-11.6224
▁Černomyrdin	-11.6224
International	-11.6224
▁Akademie	-11.6224
▁Albertville	-11.6224
▁Bratislavy	-11.6224
▁Delphi	-11.6224
▁Dennett	-11.6224
▁Digital	-11.6224
▁General	-11.6224
▁Hospodářsk	-11.6224
▁Netanjahu	-11.6224
▁Němce	-11.6224
▁Princip	-11.6224
▁Reichel	-11.6224
▁SPIRIT	-11.6224
▁TWA	-11.6224
▁Vynikající	-11.6224
▁brožur	-11.6224
▁databáze	-11.6224
▁databázi	-11.6224
▁dveřmi	-11.6224
▁emitent	-11.6224
▁havárii	-11.6224
▁informuje	-11.6224
▁kanalizací	-11.6224
▁komedie	-11.6224
▁komisař	-11.6224
▁kompetencí	-11.6224
▁lehký	-11.6224
▁lidstvo	-11.6224
▁milisekund	-11.6224
▁nechybí	-11.6224
▁nesrovnateln	-11.6224
▁nosorožců	-11.6224
▁obyvatelstvo	-11.6224
▁odpolední	-11.6224
▁olomoucké	-11.6224
▁omezit	-11.6224
▁pohodlné	-11.6224
▁pojišťoven	-11.6224
▁pojišťovně	-11.6224
▁portfeje	-11.6224
▁pořizovací	-11.6224
▁poštovní	-11.6224
▁pátku	-11.6224
▁přeplněn	-11.6224
▁přísluší	-11.6224
▁raketoplán	-11.6224
▁sféře	-11.6224
▁splátek	-11.6224
▁těhotenství	-11.6224
▁vrtulník	-11.6224
▁zahájit	-11.6224
▁zaručuje	-11.6224
▁zdůraznit	-11.6224
▁zneužívání	-11.6224
▁zopakoval	-11.6224
▁zpracovává	-11.6224
▁záruční	-11.6224
▁účinnou	-11.6224
▁Československý	-11.6224
▁železné	-11.6224
▁Kovohut	-11.6224
▁SGI	-11.6224
▁chystají	-11.6224
▁odstavec	-11.6224
▁smířit	-11.6224
▁svrchované	-11.6224
▁tekutin	-11.6224
▁kultuře	-11.6224
▁loupež	-11.6224
▁podepsat	-11.6224
▁Automatick	-11.6224
▁James	-11.6224
▁Kadlec	-11.6224
▁Zajímal	-11.6224
▁dávek	-11.6224
▁nejblíže	-11.6224
▁někomu	-11.6224
▁Prahou	-11.6224
▁netrpěliv	-11.6224
▁nikomu	-11.6224
▁odhalit	-11.6224
▁přetížen	-11.6224
▁Mlýn	-11.6224
▁poznámky	-11.6224
▁prováděl	-11.6224
▁mutací	-11.6224
▁provinci	-11.6224
▁PŘI	-11.6224
LSNS	-11.6224
▁Bohuslav	-11.6224
▁legendární	-11.6224
▁umírněn	-11.6224
▁vybudoval	-11.6224
▁Fuchs	-11.6224
▁Zpráv	-11.6224
▁hokejistů	-11.6224
▁něčeho	-11.6224
▁Front	-11.6224
▁Louis	-11.6224
▁FMV	-11.6224
▁ceremoniál	-11.6224
▁formálně	-11.6224
▁mocenské	-11.6224
▁dědeček	-11.6224
▁nedaleké	-11.6224
▁Opava	-11.6224
▁fotografií	-11.6224
▁implantát	-11.6224
▁lákav	-11.6224
▁Samotn	-11.6224
▁kapsy	-11.6224
▁chleba	-11.6224
▁usedl	-11.6224
▁nazvat	-11.6224
▁Účastníci	-11.6224
▁diktátor	-11.6224
▁Kouba	-11.6224
hánějí	-11.6225
▁stromeček	-11.6225
▁1979	-11.6225
▁registrační	-11.6225
▁vyhořelé	-11.6225
▁zmizí	-11.6225
▁paměť	-11.6225
▁štědr	-11.6225
▁Hledá	-11.6225
▁nepodaří	-11.6225
▁podporoval	-11.6225
▁nejsme	-11.6225
▁oblouk	-11.6225
▁pojmu	-11.6225
▁kopií	-11.6225
▁písmo	-11.6225
▁stimulaci	-11.6225
▁transport	-11.6225
▁Zápas	-11.6225
▁ležel	-11.6225
▁Španělsku	-11.6225
▁málokdo	-11.6225
▁účinnější	-11.6225
▁ultra	-11.6225
▁zakázek	-11.6225
▁Následující	-11.6225
▁odezv	-11.6225
▁nikam	-11.6225
▁jinam	-11.6225
▁vejce	-11.6225
▁1970	-11.6226
▁protestant	-11.6226
▁blokád	-11.6226
▁zády	-11.6226
▁umělců	-11.6226
▁nikde	-11.6226
▁Suková	-11.6226
▁pískov	-11.6226
▁zranil	-11.6226
▁hraček	-11.6226
▁bohatší	-11.6226
▁střelec	-11.6227
▁Přenos	-11.6227
▁posílit	-11.6227
▁kouření	-11.6227
▁starat	-11.6227
▁Jaw	-11.6227
▁stanovisku	-11.6227
▁KGB	-11.6227
▁třídenní	-11.6227
▁Obavy	-11.6227
▁koncept	-11.6227
▁topení	-11.6227
▁vyzkoušet	-11.6227
▁Kováč	-11.6228
▁sněmu	-11.6228
▁Stef	-11.6228
▁vyhledávání	-11.6228
zdobí	-11.6228
vracení	-11.6228
▁Jágr	-11.6228
▁lékařství	-11.6228
▁odnětí	-11.6228
▁železnice	-11.6228
▁inteligence	-11.6229
▁dovednost	-11.6229
▁manželkou	-11.6229
▁Boha	-11.6229
▁deště	-11.6229
▁palet	-11.6229
▁Snah	-11.6229
▁příloh	-11.6229
▁zelené	-11.623
▁Dostál	-11.623
▁přenáší	-11.623
▁řadič	-11.6231
▁Ježek	-11.6231
▁okně	-11.6231
▁deska	-11.6231
▁vracel	-11.6231
▁výsad	-11.6231
▁články	-11.6231
▁neznají	-11.6231
přát	-11.6232
▁kolegové	-11.6232
▁překonání	-11.6232
▁vyprš	-11.6232
▁Indián	-11.6233
▁terč	-11.6234
▁oběhové	-11.6234
▁protín	-11.6234
extrémně	-11.6234
▁ordinace	-11.6234
▁odstoupení	-11.6234
▁jasná	-11.6235
▁zkoumání	-11.6235
▁vyrazil	-11.6235
▁konstantní	-11.6236
▁spolupracuje	-11.6236
▁dostání	-11.6236
▁organismy	-11.6236
▁koncov	-11.6237
▁srovnateln	-11.6237
SM	-11.6237
▁šancí	-11.6237
▁602	-11.6238
▁lahví	-11.6238
▁stadiu	-11.6238
▁stěžuje	-11.6239
▁oběť	-11.6239
▁novinky	-11.6239
formulovat	-11.6239
▁radikálně	-11.624
▁France	-11.624
▁křesťanské	-11.624
▁Januš	-11.6241
▁případném	-11.6241
▁Dvou	-11.6241
▁sešla	-11.6242
▁rozměry	-11.6242
▁říční	-11.6242
▁rozsáhlou	-11.6242
▁adaptace	-11.6243
▁Čína	-11.6243
▁plánuje	-11.6243
▁závazku	-11.6243
▁zařadit	-11.6243
▁nedají	-11.6243
▁nehraje	-11.6244
▁výměně	-11.6244
▁známky	-11.6244
▁obdobím	-11.6244
▁sloučení	-11.6245
▁nechut	-11.6245
▁stáj	-11.6245
▁příznaky	-11.6246
▁regionů	-11.6246
▁odletěl	-11.6246
▁cla	-11.6247
▁půlnoci	-11.6247
▁dobrovolně	-11.6247
▁stížností	-11.6247
▁Student	-11.6247
▁záchranu	-11.6248
▁představovat	-11.6249
▁odhalení	-11.625
▁teroristický	-11.625
▁Švédsko	-11.625
point	-11.6252
▁ropy	-11.6252
▁dodržovat	-11.6252
▁skrz	-11.6252
ografie	-11.6252
▁způsobilosti	-11.6252
▁výměnou	-11.6253
▁Open	-11.6253
▁pitné	-11.6253
▁Dovol	-11.6253
▁ucho	-11.6255
▁neuvažuje	-11.6256
▁Místopředsed	-11.6256
psání	-11.6257
▁Alp	-11.6257
▁činitelé	-11.6257
▁teoreticky	-11.6257
▁Karlov	-11.6257
▁pozorovatel	-11.6257
▁ponechal	-11.6258
▁funkcionářů	-11.6258
▁basketbalist	-11.6258
▁Mnichově	-11.6258
▁hudba	-11.6258
▁bodech	-11.6259
▁Clintonová	-11.6259
▁ČESK	-11.6259
▁kolena	-11.626
▁dopravou	-11.626
▁svatého	-11.6262
▁honoráře	-11.6263
▁stručně	-11.6263
▁Rakousko	-11.6263
▁prodejen	-11.6264
▁vzdálený	-11.6265
ázev	-11.6265
▁věcech	-11.6265
▁předpokladů	-11.6266
▁vnímá	-11.6266
▁pojmem	-11.6267
▁ukazatel	-11.6267
▁Chorvatsku	-11.6268
▁vídeňské	-11.6269
▁Střední	-11.6269
▁vlastnostmi	-11.6269
▁mřížky	-11.627
▁dostanete	-11.627
▁psací	-11.627
▁znakem	-11.6271
▁provádění	-11.6272
▁větě	-11.6272
▁rakouských	-11.6272
▁zdálo	-11.6272
▁působnost	-11.6273
▁pětatřicet	-11.6273
▁náhrada	-11.6274
▁soukromá	-11.6274
▁spořitelny	-11.6274
▁lokality	-11.6275
▁tématem	-11.6275
▁drsn	-11.6275
▁pleti	-11.6276
▁zklamání	-11.6276
▁Bonnu	-11.6276
▁etapu	-11.6276
▁neshody	-11.6276
▁porážky	-11.6277
▁dovedl	-11.6277
▁nervové	-11.6277
▁zájezdů	-11.6278
▁zpožděním	-11.6278
▁kůry	-11.6279
▁svazk	-11.628
▁zakládání	-11.628
▁kostr	-11.6281
▁hrací	-11.6282
▁symbolem	-11.6282
▁rohu	-11.6283
▁publikum	-11.6284
smluvně	-11.6285
▁sedmnácti	-11.6287
▁teplotou	-11.6289
▁Kanady	-11.6289
▁buněčné	-11.629
▁Výborný	-11.6291
▁jednorázové	-11.6291
▁schopný	-11.6292
▁hezké	-11.6293
▁ověřit	-11.6293
▁uloženy	-11.6294
▁Adam	-11.6295
▁had	-11.6296
▁směsi	-11.6296
▁Červen	-11.6298
▁kostele	-11.6298
zemědělská	-11.6299
▁popsal	-11.6299
▁thajské	-11.63
▁činitelů	-11.6301
▁organismus	-11.6302
▁přesněji	-11.6303
▁Strany	-11.6304
▁finálové	-11.6304
▁lidskou	-11.6304
▁paláci	-11.6304
▁většinový	-11.6305
▁podob	-11.6306
▁popel	-11.6306
▁čtverečních	-11.6306
▁programech	-11.6307
▁Západní	-11.6308
▁kyseliny	-11.6308
▁srbské	-11.6309
▁hormony	-11.631
▁umožnilo	-11.6311
▁nepříznivý	-11.6311
▁pochopili	-11.6312
▁přestupu	-11.6313
▁diskety	-11.6314
▁Brod	-11.6314
▁modré	-11.6315
▁gólem	-11.6315
▁kolegům	-11.6318
▁Prů	-11.6319
▁autobusu	-11.6321
▁POD	-11.6323
▁Typ	-11.6325
▁zajišťoval	-11.6325
▁skoky	-11.6325
▁zmizela	-11.6325
▁spuštěn	-11.6326
▁ostré	-11.6333
▁Jelcinovi	-11.6333
▁ceníku	-11.6334
▁koncepčn	-11.6335
▁použito	-11.6336
▁dluhu	-11.6337
▁startem	-11.6338
konkurenceschopn	-11.634
▁kontaktů	-11.634
▁kdybych	-11.6341
▁okolnosti	-11.6343
▁Řím	-11.6344
▁výměna	-11.6345
▁nemůžete	-11.6347
▁vynález	-11.6347
▁navázal	-11.6349
▁teplotu	-11.635
▁skladby	-11.6352
▁částech	-11.6354
žívají	-11.6357
▁odhadů	-11.6357
▁Vysoké	-11.6359
reform	-11.6361
▁oslavil	-11.6362
▁boty	-11.6363
vážil	-11.6365
▁záznamy	-11.6365
▁kancelářské	-11.6368
▁klientům	-11.6369
▁Západoevropsk	-11.6369
nových	-11.6369
▁měnící	-11.6371
▁Firmy	-11.6372
▁hrobu	-11.6373
▁peče	-11.6375
▁čerstvé	-11.6376
bíral	-11.6376
▁útoky	-11.6379
▁nastává	-11.638
▁kamenné	-11.6381
▁mimořádného	-11.6382
▁pokusili	-11.6383
▁Kro	-11.6383
▁Bulharsk	-11.6383
▁novinka	-11.6385
ladit	-11.6386
▁Map	-11.6389
▁čtyřlet	-11.639
vým	-11.6391
▁kult	-11.6391
▁hrdina	-11.6393
▁investory	-11.6394
běhnout	-11.6395
▁dohodnuté	-11.6402
socialistický	-11.6403
▁vkládání	-11.6404
▁vníma	-11.6404
▁olympijském	-11.6406
▁trendy	-11.6406
▁vyřešil	-11.6409
▁kulturním	-11.6415
▁dobrým	-11.6417
pracovala	-11.6418
▁zúčastnili	-11.6419
▁zřídka	-11.6421
pec	-11.6423
▁poločas	-11.6424
▁účastí	-11.6424
▁projevů	-11.6425
▁Skutečn	-11.6425
kdy	-11.6427
▁Obsahuj	-11.643
placení	-11.6433
▁hmotné	-11.6435
▁připravili	-11.6442
▁třídu	-11.6443
čnost	-11.6443
▁kapaliny	-11.6443
▁ČT	-11.6444
▁1:	-11.6444
500	-11.6445
▁nároku	-11.6445
▁desetiletích	-11.6449
▁dopisu	-11.645
line	-11.645
vojí	-11.6456
▁lékařského	-11.6456
▁oboustrann	-11.6458
▁slab	-11.6458
▁objektem	-11.6464
▁Začátk	-11.6466
▁manželů	-11.6467
dávání	-11.6469
▁předností	-11.647
▁zničen	-11.6472
▁tyči	-11.6472
což	-11.6473
čov	-11.6473
pisuje	-11.6475
sáhl	-11.6478
lle	-11.6479
▁listopad	-11.6479
▁Národního	-11.6484
terak	-11.6486
▁akciový	-11.649
▁vhodným	-11.649
78	-11.6492
slyš	-11.6493
kladem	-11.6494
▁odvod	-11.6495
▁čar	-11.6498
▁nástrojem	-11.6499
▁chybou	-11.65
léhá	-11.6501
▁různ	-11.6506
▁Nemám	-11.6507
bylo	-11.6509
▁potvrdily	-11.6513
▁atletické	-11.6513
▁podnikem	-11.6513
▁známého	-11.6515
▁Gorbačova	-11.6516
▁zobrazen	-11.652
▁provedené	-11.6521
▁trestu	-11.6521
▁3,	-11.6523
▁divákům	-11.6523
▁zasáhl	-11.6523
▁úrokové	-11.6524
▁studentům	-11.6526
▁úvěru	-11.6526
▁dáma	-11.6529
▁Ul	-11.6529
▁uvolnil	-11.6533
luje	-11.6537
tex	-11.6541
daná	-11.6542
míněn	-11.6542
▁váhy	-11.6543
ničím	-11.6546
tkání	-11.6549
▁ministry	-11.6549
▁přechodné	-11.6553
▁hr	-11.6559
končit	-11.6559
▁motorový	-11.6561
▁Mont	-11.6561
▁chladné	-11.6563
▁vypadl	-11.6564
rodil	-11.6567
LN	-11.6567
imochodem	-11.6569
▁pevn	-11.657
95	-11.6574
nesla	-11.6577
▁zodpovědn	-11.6578
▁otazník	-11.6578
▁bezmocn	-11.6579
▁specifický	-11.658
▁lékařům	-11.6582
▁slavnost	-11.6591
▁majiteli	-11.6592
▁čestné	-11.6593
▁Bub	-11.6596
▁snížením	-11.6598
eně	-11.6603
víme	-11.661
▁stavem	-11.6611
▁poctiv	-11.6612
▁Výkon	-11.6615
▁životem	-11.6617
▁jakýkoli	-11.6618
▁neprav	-11.6619
▁Evropan	-11.662
92	-11.6623
▁nekonečn	-11.6624
▁červený	-11.6626
▁vstoupí	-11.6628
BU	-11.6628
▁brzd	-11.663
střih	-11.6631
▁Zájemc	-11.6632
dor	-11.6633
▁technik	-11.6634
▁zlat	-11.6636
▁stán	-11.6637
▁starým	-11.6637
nucen	-11.6638
▁tenisový	-11.6639
▁přesnost	-11.6641
▁centrál	-11.6645
▁sociálním	-11.6648
▁prezidentské	-11.6651
rovnávání	-11.6652
▁iniciativ	-11.6659
▁panu	-11.6666
▁závazný	-11.6668
▁výtvarný	-11.667
▁bere	-11.6676
dvacetiletý	-11.6677
členné	-11.6678
▁známost	-11.668
ukázky	-11.6687
▁Slov	-11.6692
svit	-11.6693
▁kolečk	-11.6698
▁nasazen	-11.67
hladov	-11.6703
▁vůdc	-11.6712
▁tepeln	-11.6713
cházející	-11.6713
▁We	-11.6715
jan	-11.6715
▁očekávaný	-11.6716
▁vlast	-11.6717
▁zvukový	-11.6717
▁příznivý	-11.6718
▁pětadvacet	-11.672
dík	-11.6721
▁schopné	-11.6724
▁meziroční	-11.6725
rah	-11.6727
▁pouč	-11.6727
▁Dynam	-11.6728
▁pouhým	-11.673
▁1300	-11.6733
▁piv	-11.6735
▁cenový	-11.6742
vládnout	-11.6743
▁dcer	-11.6749
soudí	-11.675
které	-11.6758
rovné	-11.676
▁bezplatn	-11.6764
růstá	-11.6765
označí	-11.677
▁vítězstvím	-11.6771
▁Nebude	-11.6772
▁chodil	-11.6773
žití	-11.6777
vaná	-11.6779
▁JAK	-11.6786
▁Nebe	-11.6787
▁plánovaný	-11.679
▁Char	-11.679
▁odp	-11.6791
▁kated	-11.6791
▁úrokový	-11.6792
14	-11.6792
▁Spart	-11.6804
▁Lys	-11.6807
▁obrace	-11.6808
▁dělit	-11.681
▁Škod	-11.681
▁čtvrti	-11.6814
1992	-11.6815
▁Hal	-11.6815
▁pozorně	-11.6815
▁skutečn	-11.682
▁popisu	-11.6821
▁dovážen	-11.6822
▁ptá	-11.6823
▁zisky	-11.6824
držet	-11.6825
▁akcionáře	-11.6828
▁mateřsk	-11.6828
▁adapt	-11.6829
▁fotbale	-11.683
ámek	-11.6831
47	-11.6831
▁zbyl	-11.6831
▁odhadu	-11.6832
▁statistický	-11.6837
▁hrubý	-11.6842
▁autorov	-11.6845
▁minul	-11.6846
▁lékařem	-11.6846
▁manipul	-11.6848
▁neomezen	-11.6849
▁severním	-11.6853
▁detail	-11.6853
▁odpovědný	-11.6853
▁závad	-11.6854
▁západ	-11.6855
▁chemick	-11.6858
▁reálném	-11.6863
▁hustot	-11.6866
▁mála	-11.6867
loha	-11.6868
▁průhledn	-11.6869
▁maxim	-11.687
▁výdaj	-11.687
tvoří	-11.6872
▁Opti	-11.6873
nických	-11.6875
▁penězi	-11.6883
▁9000	-11.6885
▁fan	-11.6889
▁úlev	-11.689
kazuje	-11.6893
▁tramvaj	-11.6894
▁stoupl	-11.6894
▁strav	-11.6896
▁otevřeno	-11.69
▁Nedo	-11.6904
▁šampionát	-11.6906
▁Ann	-11.691
▁Bój	-11.6915
▁Ekonomick	-11.6915
▁dosahují	-11.6916
▁požadovan	-11.6918
▁tribunál	-11.6919
▁nálad	-11.6919
▁atentát	-11.692
▁náprav	-11.692
▁ToolBook	-11.6921
▁Senát	-11.6922
lít	-11.6927
▁orientac	-11.6927
▁náročn	-11.6929
▁schránk	-11.693
plácet	-11.6932
▁penzion	-11.6932
▁nepřítel	-11.6933
▁neexistují	-11.6934
▁větr	-11.6935
▁poruše	-11.6938
OLE	-11.6941
▁pochybnost	-11.6941
rušit	-11.6942
▁kytar	-11.6948
▁patent	-11.6949
▁Zásad	-11.695
▁interak	-11.6951
▁nádob	-11.6952
▁soustředěn	-11.6953
▁formulář	-11.6958
▁řemesl	-11.6958
▁městečk	-11.6959
▁vytvářen	-11.6959
▁zemní	-11.696
ALE	-11.6963
▁meteorolog	-11.6963
čátek	-11.6964
▁kořen	-11.6964
▁rozprav	-11.6965
skok	-11.6966
▁anket	-11.6966
▁totemismu	-11.6968
úpln	-11.697
▁osvobozen	-11.6971
▁Či	-11.6976
▁tabulátor	-11.6976
▁archív	-11.6976
▁senát	-11.6977
▁jeskyn	-11.6979
▁třem	-11.6979
ěsíční	-11.698
radioaktivní	-11.698
ografické	-11.698
▁interpret	-11.6981
efektivnost	-11.6981
▁odstín	-11.6984
krýt	-11.6987
▁muzik	-11.6988
▁Del	-11.699
erie	-11.699
▁prospěšn	-11.699
▁Budějovic	-11.6992
▁výrobním	-11.6992
▁projevují	-11.6993
▁výcvik	-11.6993
neobsahuje	-11.6993
restrukturalizac	-11.6993
vyskytuje	-11.6993
▁Australan	-11.6993
▁Chvalovský	-11.6993
▁Dlouhý	-11.6993
▁Gretzky	-11.6993
▁Hercegovin	-11.6993
▁Holbrooke	-11.6993
▁Klient	-11.6993
▁Kravčuk	-11.6993
▁Margaret	-11.6993
▁Marseille	-11.6993
▁MicroStation	-11.6993
▁Oxfordu	-11.6993
▁Očekává	-11.6993
▁Parlament	-11.6993
▁Plzně	-11.6993
▁Pospíšil	-11.6993
▁Rangers	-11.6993
▁Sládka	-11.6993
▁Zeitung	-11.6993
▁analytik	-11.6993
▁antropogenní	-11.6993
▁cyklů	-11.6993
▁definován	-11.6993
▁delikt	-11.6993
▁disident	-11.6993
▁dodávku	-11.6993
▁dominantní	-11.6993
▁domnívat	-11.6993
▁doporučit	-11.6993
▁elektrárna	-11.6993
▁epizod	-11.6993
▁fanoušci	-11.6993
▁fázové	-11.6993
▁havárie	-11.6993
▁hypoték	-11.6993
▁hájit	-11.6993
▁hřbet	-11.6993
▁instalační	-11.6993
▁izolační	-11.6993
▁kariéry	-11.6993
▁křesla	-11.6993
▁legální	-11.6993
▁libovolné	-11.6993
▁lístku	-11.6993
▁manažeři	-11.6993
▁navštívit	-11.6993
▁nejčastější	-11.6993
▁nervozit	-11.6993
▁náznak	-11.6993
▁odcházel	-11.6993
▁perfektní	-11.6993
▁poliklinik	-11.6993
▁portrét	-11.6993
▁poselství	-11.6993
▁posuzoval	-11.6993
▁prezentován	-11.6993
▁připomínal	-11.6993
▁příchozí	-11.6993
▁reprezentovat	-11.6993
▁službách	-11.6993
▁stránkách	-11.6993
▁středisek	-11.6993
▁substantiv	-11.6993
▁tabák	-11.6993
▁tiskárnu	-11.6993
▁trolejbus	-11.6993
▁turistiky	-11.6993
▁uspokojit	-11.6993
▁veterinární	-11.6993
▁vyrobit	-11.6993
▁výchozí	-11.6993
▁všelijak	-11.6993
▁zlepšování	-11.6993
▁zvážit	-11.6993
▁zásuvk	-11.6993
▁útlum	-11.6993
▁čtvrtletně	-11.6993
▁Frýdku	-11.6993
▁Silvestr	-11.6993
▁barokní	-11.6993
▁hesla	-11.6993
▁iniciátor	-11.6993
▁knihkupectví	-11.6993
▁nepůjde	-11.6993
▁názvy	-11.6993
▁odhodlán	-11.6993
▁politici	-11.6993
▁recese	-11.6993
▁roztříštěn	-11.6993
▁srovnávat	-11.6993
▁studijní	-11.6993
▁ušlechtil	-11.6993
▁vizuální	-11.6993
▁vůdčí	-11.6993
▁úklid	-11.6993
pište	-11.6993
▁chápou	-11.6993
▁investoři	-11.6993
▁licenci	-11.6993
▁látku	-11.6993
▁nebytový	-11.6993
▁podmínku	-11.6993
▁prověrk	-11.6993
▁rovnou	-11.6993
▁sváteční	-11.6993
▁vyřeší	-11.6993
▁Příprav	-11.6993
▁afrických	-11.6993
▁delegací	-11.6993
▁netuší	-11.6993
▁položek	-11.6993
▁přijede	-11.6993
▁stránka	-11.6993
▁OpenScript	-11.6993
▁certifikace	-11.6993
▁sazba	-11.6993
▁vypovězen	-11.6993
▁provází	-11.6993
glaciál	-11.6993
▁Pechar	-11.6993
▁Snímek	-11.6993
▁konektor	-11.6993
▁laskav	-11.6993
▁Belgičan	-11.6993
▁krizí	-11.6993
▁mléko	-11.6993
▁dráze	-11.6993
▁návaznost	-11.6993
▁ideologie	-11.6993
▁postranní	-11.6993
▁Štěpán	-11.6993
▁Pravidl	-11.6993
▁smíšený	-11.6993
▁Francis	-11.6994
▁šperk	-11.6994
▁obrátí	-11.6994
▁podporovan	-11.6994
▁Údaj	-11.6994
▁poezie	-11.6994
▁odrůd	-11.6994
▁motýl	-11.6994
▁mléka	-11.6994
▁útěk	-11.6994
▁emisí	-11.6994
▁juniorů	-11.6994
▁iluze	-11.6994
▁prostředkem	-11.6994
▁letadel	-11.6994
▁Nynější	-11.6994
▁biologii	-11.6994
▁setkávají	-11.6994
▁akutní	-11.6994
▁zkrácení	-11.6994
▁reprezentaci	-11.6994
▁rámec	-11.6994
▁masa	-11.6994
▁nevyhnul	-11.6994
▁udělil	-11.6994
▁nepochopil	-11.6994
▁Trnav	-11.6994
▁linie	-11.6994
▁krabic	-11.6994
▁Obvykl	-11.6994
▁profesi	-11.6994
▁přizpůsobení	-11.6994
▁vztek	-11.6994
▁říkat	-11.6994
ŠTÍ	-11.6994
▁láska	-11.6994
▁zdražení	-11.6994
▁hladovku	-11.6994
▁dárek	-11.6994
▁zaměstnanosti	-11.6994
▁aukcí	-11.6994
▁spolkové	-11.6995
▁důchodců	-11.6995
▁Příčin	-11.6995
▁rozpočtů	-11.6995
tlačil	-11.6995
▁výpis	-11.6995
▁Boston	-11.6995
▁Zlatý	-11.6995
▁gard	-11.6995
abilní	-11.6995
▁zpravodajství	-11.6995
▁smyslupln	-11.6995
▁vyvíjet	-11.6995
▁poučení	-11.6995
▁polohách	-11.6995
▁právnick	-11.6995
▁motivace	-11.6996
▁schvalování	-11.6996
▁Hrál	-11.6996
▁Nováček	-11.6996
bajt	-11.6996
▁Hotel	-11.6996
▁ekologie	-11.6996
▁média	-11.6996
▁Botan	-11.6996
▁záchod	-11.6996
▁zátěž	-11.6996
věřuje	-11.6996
▁krouž	-11.6997
▁Japonci	-11.6997
▁lidech	-11.6997
interpretaci	-11.6997
▁Řadič	-11.6997
▁utrpení	-11.6997
▁památku	-11.6997
▁upravuje	-11.6997
▁unikl	-11.6997
▁jezdce	-11.6997
▁silnicích	-11.6997
▁třicátých	-11.6998
▁síle	-11.6998
▁stanoviska	-11.6998
▁shoda	-11.6998
soustřeďuje	-11.6998
▁Kontrol	-11.6998
▁Lan	-11.6998
▁čistot	-11.6998
▁vyhnul	-11.6999
▁slovinsk	-11.6999
▁pasáž	-11.6999
▁odcizi	-11.6999
[...]
