<unk>	0
<s>	0
</s>	0
<doc>	0
</doc>	0
<head>	0
</head>	0
<phr>	0
</phr>	0
▁	-1.77296
,	-3.39678
.	-3.53608
a	-4.47186
u	-4.47219
▁a	-4.47777
▁v	-4.51537
▁se	-4.62393
m	-4.64194
▁na	-4.71451
y	-4.7513
i	-4.76012
ch	-4.94285
▁je	-5.15884
▁z	-5.27549
▁s	-5.27603
ho	-5.31903
▁"	-5.34905
o	-5.3631
▁že	-5.41293
e	-5.41985
á	-5.42246
s	-5.48722
í	-5.5637
▁do	-5.57713
▁o	-5.61289
ou	-5.65225
t	-5.67794
em	-5.71593
ě	-5.72287
é	-5.73146
▁za	-5.75125
▁pro	-5.76768
ů	-5.7739
▁po	-5.78877
ž	-5.92552
▁-	-5.93211
▁k	-5.98642
to	-6.00281
▁V	-6.02755
▁to	-6.11385
z	-6.12285
▁ve	-6.14325
▁(	-6.15437
mi	-6.19802
ý	-6.22254
▁by	-6.25647
ní	-6.27
▁od	-6.28866
▁i	-6.31245
p	-6.3229
d	-6.35009
▁ale	-6.35212
l	-6.35532
>	-6.36764
v	-6.40062
ně	-6.41828
▁při	-6.43082
▁si	-6.44956
k	-6.45893
▁ne	-6.4804
r	-6.48532
▁S	-6.50856
ých	-6.5305
▁jsou	-6.54306
▁jako	-6.56362
ce	-6.56408
▁vy	-6.57196
▁které	-6.59512
na	-6.61949
te	-6.63634
)	-6.6572
▁však	-6.67236
b	-6.70312
me	-6.70971
▁:	-6.7114
▁tak	-6.71664
li	-6.73748
ka	-6.74713
▁který	-6.78857
x	-6.78996
▁Po	-6.81627
la	-6.81742
né	-6.84756
ku	-6.8491
▁nebo	-6.85405
ná	-6.86006
▁před	-6.86394
▁jeho	-6.87789
▁bude	-6.88731
č	-6.89405
le	-6.89414
▁A	-6.89586
ci	-6.91064
?	-6.91318
▁jen	-6.95253
ové	-6.9651
n	-6.9754
▁Z	-7.01206
ky	-7.02589
▁než	-7.03151
st	-7.03589
▁má	-7.03683
▁Na	-7.04476
š	-7.05008
ého	-7.05017
it	-7.05447
mu	-7.05538
lo	-7.06011
▁už	-7.08355
c	-7.10083
j	-7.10751
h	-7.11201
▁aby	-7.11596
▁jak	-7.12931
▁byl	-7.14002
▁jejich	-7.15116
ech	-7.15303
uje	-7.15834
▁jsem	-7.16449
▁být	-7.16667
▁až	-7.1824
ovat	-7.20073
▁P	-7.20623
▁která	-7.2116
▁také	-7.21853
▁Je	-7.22653
▁O	-7.24029
▁podle	-7.2452
▁jsme	-7.25127
▁<	-7.26266
nou	-7.26277
ek	-7.27443
▁K	-7.27863
▁pře	-7.28688
ni	-7.29123
▁ze	-7.30387
ří	-7.3194
en	-7.33402
al	-7.33928
ová	-7.34031
cí	-7.34337
f	-7.34704
g	-7.35171
▁co	-7.35322
in	-7.36117
vá	-7.36553
že	-7.37969
no	-7.38239
▁mezi	-7.38247
▁není	-7.38571
ým	-7.39007
ře	-7.40448
▁bylo	-7.41783
jí	-7.42094
▁své	-7.4328
▁ani	-7.43333
▁či	-7.43984
▁ještě	-7.44547
ze	-7.44797
▁již	-7.45465
ný	-7.45846
▁když	-7.46615
il	-7.47222
▁let	-7.47605
▁může	-7.47683
po	-7.47754
▁byla	-7.49878
kud	-7.50827
▁toho	-7.51625
/	-7.53128
▁pod	-7.53502
▁korun	-7.53608
ta	-7.54052
▁Ne	-7.54305
ování	-7.54667
ra	-7.55212
ti	-7.55307
ách	-7.56971
).	-7.57931
ne	-7.58353
▁pak	-7.5862
ro	-7.58898
▁To	-7.59396
ské	-7.59743
▁další	-7.60263
▁bez	-7.61401
▁kteří	-7.62233
ř	-7.62531
▁kde	-7.62654
▁roz	-7.62822
ň	-7.63037
▁tím	-7.6335
▁M	-7.6374
on	-7.641
ko	-7.64324
ují	-7.65617
lu	-7.65917
▁více	-7.65981
ných	-7.66063
ru	-7.6607
vě	-7.66207
▁té	-7.67917
ových	-7.68057
ost	-7.68332
▁tedy	-7.68537
va	-7.68688
▁první	-7.68819
pl	-7.6886
▁roku	-7.68867
▁H	-7.71487
▁nich	-7.73483
▁Do	-7.73607
▁U	-7.73809
ům	-7.73857
ři	-7.74305
),	-7.74405
kou	-7.74632
čí	-7.7534
ov	-7.76117
▁D	-7.77295
da	-7.77462
▁Za	-7.77954
vý	-7.78047
▁mají	-7.78077
▁I	-7.79047
▁kdy	-7.80128
ovi	-7.80208
el	-7.80261
▁J	-7.81318
▁tu	-7.8187
▁proti	-7.8192
▁Pro	-7.82191
▁roce	-7.82905
-	-7.83105
▁pouze	-7.83171
▁musí	-7.83381
če	-7.84644
at	-7.85077
▁tom	-7.85131
▁ob	-7.85574
ny	-7.85636
▁proto	-7.8608
ma	-7.86618
▁tomu	-7.86739
ví	-7.87334
cích	-7.8787
or	-7.88486
▁ke	-7.88924
nu	-7.89422
▁nad	-7.89629
▁budou	-7.89925
▁třeba	-7.90983
▁li	-7.91431
▁protože	-7.92309
ba	-7.92467
▁totiž	-7.93036
je	-7.93688
▁nás	-7.93997
děl	-7.94751
▁přes	-7.94964
▁lze	-7.95428
vol	-7.96071
▁asi	-7.96756
▁vlastní	-7.96866
ri	-7.97105
lá	-7.97385
ly	-7.97505
tu	-7.98052
lí	-7.99093
▁její	-7.99107
S	-8.0011
▁byly	-8.00387
▁poslední	-8.00432
▁velmi	-8.00499
▁měl	-8.00588
či	-8.00702
▁Při	-8.009
▁zatím	-8.01071
▁nej	-8.01275
vi	-8.01349
▁řekl	-8.01447
ový	-8.02228
tr	-8.0247
er	-8.02732
D	-8.02939
hr	-8.03393
▁G	-8.0373
co	-8.03906
ty	-8.04508
ného	-8.04855
de	-8.05069
oval	-8.0532
M	-8.05718
▁B	-8.05765
▁včera	-8.05786
P	-8.05933
du	-8.06558
▁T	-8.06572
ním	-8.07474
se	-8.07697
osti	-8.077
ém	-8.08014
ší	-8.08884
re	-8.09141
by	-8.09302
▁dnes	-8.09861
▁všech	-8.09935
nost	-8.1018
tě	-8.10367
6	-8.1071
ově	-8.10945
T	-8.111
▁firmy	-8.11187
▁dva	-8.12094
kr	-8.12732
▁ty	-8.13044
▁F	-8.13172
▁především	-8.13504
▁tisíc	-8.13518
5	-8.14217
ská	-8.15223
▁ji	-8.15892
▁případě	-8.15978
ha	-8.16011
ry	-8.16248
od	-8.1656
ků	-8.16747
▁Podl	-8.16798
▁'	-8.16858
an	-8.17134
ovou	-8.17427
▁například	-8.17626
▁Ve	-8.17848
▁dvou	-8.17984
▁procent	-8.1836
2	-8.19019
si	-8.19218
▁nám	-8.19288
▁rok	-8.19888
▁Co	-8.20532
K	-8.20541
ami	-8.20619
še	-8.20646
▁době	-8.2069
▁tři	-8.20693
▁nyní	-8.2087
ích	-8.211
▁mít	-8.21679
R	-8.22323
3	-8.22878
ká	-8.2361
▁C	-8.2397
za	-8.24379
N	-8.24781
▁ú	-8.25347
▁lidí	-8.2585
▁jim	-8.2585
pr	-8.2607
▁společnosti	-8.26072
▁práce	-8.26236
▁jeden	-8.26404
▁mohou	-8.265
▁L	-8.26575
▁zda	-8.26628
ních	-8.26796
▁stále	-8.26836
4	-8.27336
▁těchto	-8.27453
▁ovšem	-8.2758
B	-8.27683
▁všechny	-8.27853
ového	-8.27861
▁Jak	-8.28062
ení	-8.28508
ský	-8.28904
7	-8.29081
právě	-8.29111
ží	-8.29296
▁několik	-8.30073
hl	-8.30225
ám	-8.30232
▁Ko	-8.30732
C	-8.31217
▁něm	-8.31414
bu	-8.31699
▁kterou	-8.31959
...	-8.32228
ve	-8.32232
▁Ale	-8.32234
is	-8.3247
▁což	-8.32488
us	-8.32561
ými	-8.32605
spo	-8.32852
I	-8.32894
kem	-8.3314
tá	-8.33651
ských	-8.33687
ným	-8.34419
▁tento	-8.34756
dr	-8.35238
▁R	-8.35442
lé	-8.35515
V	-8.35564
nější	-8.35567
ace	-8.36648
▁možné	-8.37032
▁jednání	-8.37087
▁de	-8.37087
tra	-8.37998
▁České	-8.38231
1	-8.38563
ského	-8.38799
▁dalších	-8.39092
ar	-8.39106
▁mě	-8.39339
▁Od	-8.39398
cela	-8.39636
▁nové	-8.39906
ec	-8.39933
ši	-8.40548
ť	-8.40676
▁naše	-8.41502
ující	-8.41502
▁ČR	-8.41607
▁měla	-8.41654
▁kdo	-8.41775
▁Praze	-8.42377
L	-8.42449
pa	-8.42451
stav	-8.42509
▁zejména	-8.42967
téměř	-8.43304
▁základní	-8.4338
▁větší	-8.43452
▁zařízení	-8.43764
▁jde	-8.43789
▁svou	-8.43989
ur	-8.44273
ova	-8.44286
ců	-8.44821
▁10	-8.45247
ím	-8.45377
ální	-8.45457
fi	-8.45758
▁Proto	-8.4579
▁strany	-8.46033
▁část	-8.46366
nosti	-8.46834
▁možnost	-8.47355
▁naši	-8.4739
dí	-8.47635
▁prostředí	-8.47765
dy	-8.48344
▁letech	-8.48538
▁Š	-8.48801
ila	-8.48826
▁sice	-8.49017
ické	-8.49139
▁dvě	-8.49436
▁Kdy	-8.49466
ili	-8.4955
▁svého	-8.49737
kon	-8.49762
O	-8.5016
aci	-8.50379
▁každý	-8.504
▁svých	-8.5087
▁jiné	-8.51053
▁Vy	-8.51164
pra	-8.51228
w	-8.51292
et	-8.51342
ji	-8.51684
▁nejen	-8.52104
vod	-8.52144
ští	-8.52154
A	-8.52449
ční	-8.53001
tí	-8.53472
▁3	-8.53628
hu	-8.53661
▁místo	-8.53711
▁země	-8.5377
vo	-8.54246
os	-8.54402
str	-8.54449
▁uvedl	-8.54753
ter	-8.54811
▁světa	-8.55007
▁tomto	-8.55129
ol	-8.5528
pe	-8.55553
0	-8.56326
▁W	-8.56377
▁Tak	-8.56483
9	-8.56567
▁pří	-8.56697
U	-8.56758
lit	-8.5682
▁druhé	-8.57054
vr	-8.57095
▁nez	-8.57771
br	-8.57832
ob	-8.58148
▁čas	-8.58521
▁zde	-8.58561
▁000	-8.58564
8	-8.58593
▁milionů	-8.58872
▁stát	-8.58928
ované	-8.59126
▁systém	-8.59432
▁zákon	-8.59734
ot	-8.59955
▁něco	-8.60111
▁vlády	-8.60186
vy	-8.60268
lou	-8.60315
▁svým	-8.6041
▁nic	-8.60412
E	-8.61287
ing	-8.6133
▁stejně	-8.61739
▁říká	-8.61986
let	-8.62332
ají	-8.62432
▁neu	-8.6267
ační	-8.62837
val	-8.63019
sti	-8.63185
▁kolem	-8.6327
▁některé	-8.63294
▁ceny	-8.63978
Z	-8.64158
zí	-8.64228
▁E	-8.64292
▁zákona	-8.64769
Á	-8.64853
▁zboží	-8.64855
▁tam	-8.65077
ání	-8.65175
▁nepo	-8.65794
▁pracovní	-8.66155
há	-8.66229
▁19	-8.66507
▁oblasti	-8.66761
es	-8.67192
▁dobře	-8.67304
▁příliš	-8.67384
▁patří	-8.6752
▁svět	-8.67981
▁finanční	-8.67992
▁svůj	-8.68184
▁dosud	-8.68191
pat	-8.68283
▁program	-8.68294
man	-8.68307
▁některých	-8.68562
▁práci	-8.68863
▁firma	-8.69203
▁zemí	-8.69272
▁nevy	-8.69348
▁1	-8.69449
▁re	-8.70082
▁vůbec	-8.70287
▁Jan	-8.70363
▁byli	-8.70393
▁opět	-8.70563
ant	-8.70628
▁ten	-8.70796
ovali	-8.7081
▁několika	-8.70944
vat	-8.71259
▁mu	-8.71323
▁vždy	-8.7146
▁sociální	-8.71477
▁5	-8.71744
▁období	-8.71976
▁osob	-8.72005
▁N	-8.72421
ič	-8.72478
▁neboť	-8.72829
sp	-8.73158
▁2	-8.73816
ací	-8.75067
▁nejsou	-8.76289
▁pět	-8.76313
skou	-8.76459
▁prezident	-8.76474
sk	-8.76533
gr	-8.7654
▁střední	-8.76545
▁často	-8.76589
ček	-8.76613
ul	-8.76702
▁vyšší	-8.76795
▁nemá	-8.77465
sta	-8.77782
ga	-8.78008
▁jež	-8.7803
▁systému	-8.7803
▁%	-8.78217
ú	-8.78358
▁dokonce	-8.78513
▁USA	-8.78522
ovací	-8.7881
▁vše	-8.78889
▁jste	-8.78902
▁přímo	-8.79078
▁hodin	-8.79088
ější	-8.79422
%	-8.79842
án	-8.79867
▁společnost	-8.79934
▁měli	-8.80235
sku	-8.80312
▁čtyři	-8.80316
▁sám	-8.80393
▁nedo	-8.80434
00	-8.80507
▁jedn	-8.80571
ali	-8.80701
▁sebe	-8.80853
▁Kč	-8.80873
bě	-8.81084
▁lidé	-8.81192
▁Js	-8.81256
▁ředitel	-8.81276
▁celé	-8.81355
op	-8.8152
▁části	-8.81647
▁doby	-8.8201
▁nebude	-8.82115
F	-8.82173
▁Ch	-8.82186
během	-8.82222
▁den	-8.82226
▁postup	-8.82258
stup	-8.82292
▁4	-8.82313
▁obchodní	-8.82448
as	-8.82542
▁rovněž	-8.82731
▁Te	-8.82867
▁snad	-8.82942
▁níž	-8.83175
▁informace	-8.83513
▁trhu	-8.83699
▁1992	-8.83735
▁vám	-8.83788
▁Ty	-8.838
men	-8.84008
▁První	-8.84311
▁nimi	-8.84317
▁počet	-8.84354
pis	-8.84394
ste	-8.8472
rt	-8.8477
vůli	-8.84778
čka	-8.8484
▁zahraniční	-8.85013
včetně	-8.8511
ovým	-8.85142
▁tří	-8.85207
zřejmě	-8.85355
▁půl	-8.85432
▁kon	-8.85471
▁situace	-8.85505
▁Ta	-8.85538
▁takže	-8.85645
nov	-8.85658
▁Re	-8.85663
▁6	-8.85948
▁život	-8.8598
kové	-8.86054
▁Ro	-8.86066
nit	-8.86084
▁zahraničí	-8.86313
▁Bo	-8.86348
zn	-8.86457
▁mohl	-8.86481
ství	-8.86539
ven	-8.86633
tato	-8.87116
ice	-8.87269
▁Před	-8.87297
nik	-8.87459
mat	-8.87986
▁návrh	-8.87995
▁méně	-8.8848
ního	-8.88584
té	-8.88683
▁např	-8.88775
▁ministr	-8.88891
▁mnoho	-8.88901
▁současné	-8.88973
▁státní	-8.89
▁Evropy	-8.89194
▁peníze	-8.89194
▁řešení	-8.89249
žen	-8.89269
ovala	-8.89522
▁takové	-8.8969
▁sto	-8.89972
▁víc	-8.90052
▁Zatím	-8.90054
▁Ma	-8.90268
kov	-8.90292
▁něj	-8.90542
▁nes	-8.9086
do	-8.91019
▁chce	-8.91032
▁Pa	-8.91144
▁největší	-8.91149
▁způsobem	-8.91174
▁velké	-8.91662
▁člověk	-8.91872
▁spolu	-8.92054
▁spíše	-8.92165
rad	-8.9217
▁české	-8.92326
▁dále	-8.92388
▁republiky	-8.92402
klad	-8.92535
▁Mo	-8.92579
▁jednotlivý	-8.9262
▁dost	-8.92697
▁velký	-8.93022
▁rozdíl	-8.93039
ad	-8.93131
▁znamená	-8.93422
▁navíc	-8.93462
▁přitom	-8.93502
▁rozhodnutí	-8.93527
jší	-8.93709
▁dobu	-8.93781
ud	-8.9383
ik	-8.94045
mluv	-8.94128
▁vlastně	-8.94372
nout	-8.94462
▁šest	-8.94569
▁mimo	-8.94587
▁problémy	-8.94659
▁neza	-8.94731
▁jednoho	-8.94752
ák	-8.94789
▁naopak	-8.95219
hled	-8.95366
H	-8.95606
▁množství	-8.95664
▁chyb	-8.9627
cen	-8.96457
▁naší	-8.9702
jde	-8.97065
▁zájem	-8.97177
▁letošní	-8.97341
▁skutečně	-8.97576
▁města	-8.97631
▁Petr	-8.97654
▁20	-8.97871
▁Se	-8.97925
▁straně	-8.98217
▁Tr	-8.9827
▁většinou	-8.98371
▁znovu	-8.9838
kl	-8.98432
ník	-8.98616
vedl	-8.98742
▁zhruba	-8.98892
ev	-8.99033
ck	-8.99153
▁stav	-8.99235
▁1.	-8.99414
▁pan	-8.99559
▁dlouho	-8.99739
id	-9.00297
▁životní	-9.00307
rů	-9.00342
▁vláda	-9.0046
▁jej	-9.00682
▁území	-9.00686
▁řízení	-9.00711
:	-9.00864
▁soud	-9.00992
▁Jiří	-9.01157
▁jiných	-9.01165
▁platí	-9.012
▁podíl	-9.01256
▁minut	-9.01636
▁celý	-9.01637
▁nelze	-9.01667
rod	-9.01897
▁zase	-9.0192
▁15	-9.02059
krát	-9.0221
▁začal	-9.02283
ář	-9.02322
▁bych	-9.02414
▁cen	-9.02872
▁letos	-9.03166
▁způsob	-9.03232
▁pa	-9.03234
▁smlouvy	-9.03536
▁tzv	-9.03567
▁dolarů	-9.03598
▁Le	-9.04015
▁bo	-9.04021
▁vedoucí	-9.0407
▁Ob	-9.0427
▁pěti	-9.04395
nes	-9.04568
form	-9.04638
▁Václav	-9.04818
▁jedné	-9.0493
▁pomocí	-9.05269
▁deset	-9.05368
ber	-9.0541
▁lepší	-9.05485
per	-9.05562
▁trh	-9.05655
▁obě	-9.05899
▁plán	-9.05966
▁Byl	-9.06149
▁roky	-9.06158
▁činnosti	-9.06289
up	-9.06305
nt	-9.06352
hal	-9.06383
▁prohlásil	-9.06581
ed	-9.06598
ném	-9.06633
olog	-9.06768
▁problém	-9.06918
▁znám	-9.07071
▁jedna	-9.07073
▁Přesto	-9.0758
▁Ka	-9.07609
Í	-9.07655
ském	-9.07724
čin	-9.07779
▁moc	-9.07797
ován	-9.08008
▁vás	-9.08034
▁jednou	-9.08038
▁Li	-9.08109
▁St	-9.08335
pro	-9.08359
▁světě	-9.08462
▁různých	-9.08516
▁později	-9.08986
▁americké	-9.09
▁hlavní	-9.09117
▁konce	-9.09203
▁30	-9.09596
rán	-9.09637
▁mezinárodní	-9.09824
▁státu	-9.09854
▁nemůže	-9.09913
lin	-9.09998
▁můžete	-9.10171
▁vedení	-9.10408
▁ČSFR	-9.10522
šlo	-9.11005
bou	-9.11022
▁bývalé	-9.1104
ón	-9.11115
jezd	-9.11171
ran	-9.11194
▁programu	-9.11247
dob	-9.11271
les	-9.11283
▁člověka	-9.11389
ův	-9.11518
▁Evropě	-9.11561
▁století	-9.12089
▁podniku	-9.12098
▁prodej	-9.12111
▁di	-9.12227
▁skupiny	-9.12279
ovaných	-9.1234
▁tým	-9.12342
▁služby	-9.12611
be	-9.12659
▁věci	-9.12762
▁autor	-9.12802
▁7	-9.12965
▁text	-9.13134
nice	-9.13141
hy	-9.13215
▁Má	-9.13295
▁málo	-9.13316
▁domácí	-9.1348
▁činnost	-9.13511
ému	-9.13542
▁funkce	-9.13674
▁jinak	-9.13676
▁prý	-9.13754
▁jaké	-9.13805
▁význam	-9.13848
▁vývoj	-9.13918
▁dál	-9.14177
▁mělo	-9.14278
▁zároveň	-9.14395
▁kole	-9.14608
nými	-9.14692
▁situaci	-9.14744
ště	-9.14777
▁škol	-9.15195
▁dnešní	-9.15288
▁dobré	-9.15303
▁malé	-9.1546
▁obou	-9.1554
íme	-9.15581
bor	-9.15639
▁základ	-9.1581
▁připraven	-9.15828
▁možná	-9.15828
▁snímku	-9.1583
▁La	-9.16162
▁náklady	-9.16216
▁stojí	-9.16396
▁provoz	-9.16564
▁prostor	-9.1657
ač	-9.16579
vin	-9.16592
▁CD	-9.16602
▁přesto	-9.16673
▁fakt	-9.16684
▁100	-9.16707
▁prvním	-9.17179
▁stran	-9.17357
▁jedno	-9.17358
▁Ten	-9.1742
▁místní	-9.17426
čení	-9.17552
▁republik	-9.17723
▁máme	-9.17781
mysl	-9.17902
▁tvrdí	-9.17909
▁nepři	-9.17952
kla	-9.17964
▁firem	-9.18015
▁cenu	-9.18015
▁1993	-9.18032
▁děti	-9.18033
▁mohli	-9.18092
▁měly	-9.1819
tek	-9.18336
▁nových	-9.18391
ilo	-9.18554
kol	-9.18712
▁Al	-9.1877
iště	-9.18881
▁Ú	-9.18935
iny	-9.19116
▁získat	-9.19153
▁Praha	-9.19153
▁11	-9.19327
▁plat	-9.19682
šel	-9.19739
nutí	-9.19803
bychom	-9.19848
plat	-9.19992
▁států	-9.20027
▁určité	-9.20063
▁nejlepší	-9.20089
ct	-9.20191
▁majetku	-9.20286
▁nakonec	-9.20286
gen	-9.20309
▁slov	-9.2037
▁toto	-9.20393
▁podnik	-9.20402
▁těch	-9.20414
▁všechno	-9.20475
sko	-9.20755
ner	-9.20823
▁nikdy	-9.20862
▁Mar	-9.209
G	-9.21074
▁právní	-9.21653
ig	-9.2169
▁já	-9.21745
dle	-9.21778
▁premiér	-9.21868
▁výši	-9.21891
▁podniků	-9.22084
▁řád	-9.22102
sky	-9.22381
▁kam	-9.22383
▁svém	-9.22545
▁pár	-9.22654
▁místě	-9.22935
▁vliv	-9.23235
▁lety	-9.2326
▁dříve	-9.23301
▁obyvatel	-9.23435
▁ex	-9.23445
▁dne	-9.23504
▁osm	-9.23561
gu	-9.23609
▁vody	-9.2372
▁třetí	-9.23753
álně	-9.2376
▁nového	-9.23826
▁možnosti	-9.23845
ložit	-9.23874
▁proč	-9.23904
▁zdá	-9.2429
▁Prahy	-9.24356
▁sobotu	-9.24429
vede	-9.24557
dl	-9.24573
▁čtyř	-9.24654
raz	-9.24706
▁nebyl	-9.24719
▁nutné	-9.24952
▁kdyby	-9.25075
▁stavu	-9.25106
ovém	-9.25419
▁odbor	-9.25759
▁týden	-9.25832
▁Vý	-9.25833
▁25	-9.26026
▁Br	-9.2607
dní	-9.2623
▁předseda	-9.2628
▁parlamentu	-9.26295
ící	-9.2639
ovaný	-9.26426
ver	-9.26542
del	-9.26557
čky	-9.26628
▁zisk	-9.26953
rn	-9.26996
▁Tento	-9.2702
dit	-9.27097
▁přece	-9.27194
▁Pře	-9.2726
▁zemi	-9.27304
ající	-9.27308
▁ministerstva	-9.27368
▁pohled	-9.2737
▁Pod	-9.27395
itel	-9.27564
ována	-9.2773
▁bychom	-9.2794
▁vítěz	-9.27968
čet	-9.28148
▁In	-9.28189
tře	-9.28297
▁trenér	-9.2834
▁Tato	-9.28374
▁obraz	-9.28407
▁menší	-9.285
▁informací	-9.28599
▁policie	-9.28599
▁všichni	-9.28599
▁organizace	-9.286
▁plyn	-9.28607
▁samozřejmě	-9.28669
▁telefon	-9.28675
▁potom	-9.28681
▁zdravotní	-9.28719
▁Další	-9.29041
▁poté	-9.29108
CH	-9.29122
▁Není	-9.29126
▁rychle	-9.29186
▁nikdo	-9.29224
koli	-9.29259
▁přístup	-9.29352
▁můžeme	-9.29382
▁vod	-9.29384
▁vyh	-9.29533
viz	-9.29539
▁nový	-9.29724
▁Pří	-9.29757
▁hlavně	-9.29863
ej	-9.29873
▁Lu	-9.29963
▁poměrně	-9.30021
▁druhý	-9.30024
var	-9.30213
▁původní	-9.30225
ir	-9.30284
▁českých	-9.30305
▁Kromě	-9.30474
▁nižší	-9.30474
▁skupin	-9.30616
▁dodal	-9.30742
▁věcí	-9.30865
atel	-9.30931
RA	-9.31079
▁sdružení	-9.31107
trochu	-9.31107
▁prezidenta	-9.31181
▁cena	-9.31213
▁dvěma	-9.31217
▁něho	-9.31345
▁Ba	-9.31432
▁14	-9.31524
ST	-9.31562
J	-9.3164
▁krok	-9.31689
ických	-9.32028
▁výkon	-9.3204
he	-9.32303
▁SSSR	-9.32385
▁sobě	-9.32394
▁efekt	-9.3241
nebo	-9.32533
▁Jana	-9.32596
ily	-9.32702
▁8	-9.32846
nění	-9.32979
▁prohlášení	-9.3303
▁Mezi	-9.3304
slov	-9.33052
▁dat	-9.3307
NÍ	-9.33132
dním	-9.33151
prve	-9.33152
fr	-9.33156
ska	-9.33279
▁200	-9.3328
▁ode	-9.33397
vní	-9.33484
▁Ná	-9.33545
ární	-9.33554
and	-9.33568
▁podmínky	-9.33679
▁komise	-9.3368
▁Jestli	-9.3368
▁někdy	-9.33681
▁Nej	-9.33709
▁Jako	-9.33716
▁žádné	-9.33791
pol	-9.33813
lek	-9.34023
bl	-9.34039
▁večer	-9.34168
ge	-9.34555
jich	-9.34575
▁základě	-9.34728
▁50	-9.34966
▁výroby	-9.34991
▁akce	-9.35054
▁zemích	-9.35067
▁určen	-9.35157
▁západní	-9.3518
ovy	-9.35247
▁Evropské	-9.35304
▁13	-9.35312
▁mnoh	-9.3547
▁došlo	-9.35482
▁kromě	-9.35502
▁neo	-9.35644
▁většina	-9.35653
nul	-9.35702
kul	-9.35971
nem	-9.36067
▁projev	-9.36289
▁podporu	-9.36317
▁čím	-9.36338
zen	-9.36348
▁Da	-9.36434
▁růst	-9.36539
▁ostatní	-9.36584
byl	-9.36647
▁místa	-9.36657
ického	-9.3688
rak	-9.36992
▁hned	-9.37003
▁De	-9.37095
▁Ti	-9.37309
▁9	-9.3744
▁šesti	-9.37445
tur	-9.37454
▁mnoha	-9.37517
▁peněz	-9.37667
▁tvoří	-9.37678
▁výrazně	-9.37727
▁obchod	-9.37753
▁dokument	-9.3777
▁nejvyšší	-9.37773
▁malý	-9.37896
▁kom	-9.38123
▁miliard	-9.3816
▁jich	-9.38288
▁života	-9.38305
▁tehdy	-9.38347
▁názor	-9.38353
▁jistě	-9.38354
▁rozpočtu	-9.38356
▁pomoc	-9.38471
▁list	-9.38483
voz	-9.385
▁pokus	-9.38522
▁objekt	-9.38633
kách	-9.38713
▁sil	-9.38806
▁Pr	-9.38844
▁sedm	-9.38867
▁hry	-9.38963
▁Ho	-9.38988
mohlo	-9.39014
▁vysoké	-9.39032
ic	-9.39078
tor	-9.39103
▁deseti	-9.39205
ským	-9.3927
▁1991	-9.3928
nos	-9.39309
▁Č	-9.39338
ovány	-9.39395
▁východní	-9.39451
ina	-9.39519
▁nějak	-9.39558
▁40	-9.39564
▁členů	-9.39619
mohla	-9.39632
▁hlas	-9.39718
▁dosavadní	-9.39721
▁vítězství	-9.39738
▁teď	-9.39742
potřeb	-9.39755
▁svaz	-9.39784
▁milionu	-9.40051
▁práv	-9.40108
proti	-9.40153
▁her	-9.40254
▁nebylo	-9.40271
▁Zá	-9.40402
▁prosince	-9.40416
▁poprvé	-9.40421
▁prostředky	-9.40425
ér	-9.40473
▁Kr	-9.40553
▁úřad	-9.40558
▁12	-9.40562
ment	-9.40593
tvo	-9.40704
šť	-9.40755
▁spor	-9.41051
▁konkrétní	-9.41115
▁unie	-9.41123
▁18	-9.41125
jedná	-9.41474
▁žádný	-9.41615
▁film	-9.41638
▁led	-9.41694
▁spolupráci	-9.41819
▁výsledky	-9.41819
▁opatření	-9.4182
▁teprve	-9.41844
▁hra	-9.41855
vu	-9.41857
van	-9.41891
▁16	-9.41952
▁rozvoj	-9.41975
átor	-9.42002
▁titul	-9.42089
vil	-9.42111
plav	-9.42317
▁času	-9.42327
▁prav	-9.42355
iz	-9.42437
ková	-9.42714
vou	-9.42738
▁politické	-9.42744
rát	-9.42832
zo	-9.42852
▁stal	-9.42944
▁jenž	-9.42985
▁1994	-9.43243
▁prakticky	-9.43298
▁stál	-9.43307
▁ODS	-9.43353
▁vnitřní	-9.43358
fe	-9.43541
ak	-9.43621
ická	-9.43652
▁stejné	-9.437
▁skutečnost	-9.43927
▁hlediska	-9.43962
▁prostřednictví	-9.43963
▁utkání	-9.44003
▁projekt	-9.44429
▁šéf	-9.44466
▁republice	-9.44687
pravidla	-9.44687
▁velice	-9.44695
nil	-9.44828
▁celou	-9.44951
▁ministra	-9.44973
Č	-9.45069
▁procenta	-9.45106
níci	-9.45141
▁celkové	-9.45185
▁nena	-9.45239
lem	-9.45241
▁dostal	-9.45363
▁někdo	-9.45418
ností	-9.45445
▁daně	-9.45572
aj	-9.45585
▁nemoc	-9.45679
▁start	-9.45719
▁úspěch	-9.45737
čil	-9.45828
▁představ	-9.46075
▁dispozici	-9.46152
měř	-9.46253
▁souvislosti	-9.46407
▁Ku	-9.46408
tů	-9.46445
▁jejím	-9.465
▁vyp	-9.46535
díky	-9.46538
▁Jen	-9.466
dra	-9.46656
▁24	-9.46697
▁sestav	-9.46706
ovaly	-9.46727
stal	-9.46727
trž	-9.46887
▁1990	-9.46893
ovalo	-9.4696
▁typu	-9.46977
bar	-9.47137
▁řadu	-9.47201
ický	-9.47225
▁kterým	-9.47284
▁Rad	-9.47318
▁nepro	-9.47429
▁pořád	-9.47533
▁změny	-9.47638
▁rámci	-9.47646
▁záměr	-9.4768
▁ledna	-9.4778
▁hor	-9.47802
▁prostě	-9.48004
ké	-9.48063
▁bod	-9.48193
▁osobní	-9.48241
kládá	-9.48343
▁nejméně	-9.48409
▁podařilo	-9.485
bal	-9.4854
kor	-9.48557
Š	-9.48558
hn	-9.4857
▁vět	-9.48582
▁budeme	-9.48585
▁musel	-9.48601
▁mne	-9.48723
▁sta	-9.48915
ď	-9.48952
brán	-9.49061
▁sebou	-9.49146
▁jednot	-9.49181
▁společné	-9.49253
▁loni	-9.49283
▁roli	-9.49284
ang	-9.4944
▁my	-9.49469
▁všem	-9.495
▁dá	-9.49507
denní	-9.49696
▁státy	-9.49771
▁různé	-9.49836
hle	-9.49842
▁Například	-9.49912
▁podnikání	-9.49957
▁míst	-9.49973
▁mo	-9.50009
Ž	-9.5002
▁proces	-9.50037
ostí	-9.50092
▁čs	-9.50096
▁doma	-9.50214
ele	-9.50252
▁Roz	-9.50351
ard	-9.50351
ó	-9.50387
pt	-9.50399
OV	-9.50446
ať	-9.50462
ujeme	-9.50484
mír	-9.50544
▁minulý	-9.50686
▁opravdu	-9.50715
▁tolik	-9.50825
▁Jde	-9.50866
▁pís	-9.50908
▁výše	-9.50932
kami	-9.50942
port	-9.50945
cký	-9.5104
▁výzkum	-9.51085
▁volební	-9.51197
▁právo	-9.51206
▁oprav	-9.51443
▁miliónů	-9.51457
▁smlouvu	-9.51457
▁funkci	-9.51459
▁snaží	-9.5146
▁nedávno	-9.51509
▁boj	-9.51529
▁služeb	-9.51555
▁náš	-9.51667
▁vládní	-9.51679
▁Ha	-9.51833
▁věd	-9.51856
cím	-9.51881
ster	-9.52014
▁Dnes	-9.52313
▁zvýšení	-9.52427
mer	-9.52555
pokoj	-9.52703
fo	-9.52803
▁model	-9.52823
nka	-9.5283
▁účast	-9.52875
▁získal	-9.52995
▁okolí	-9.5303
▁věc	-9.53039
ovaná	-9.53066
▁Kdo	-9.5317
▁dal	-9.53204
▁Klaus	-9.53216
▁měsíců	-9.53245
▁vede	-9.53286
▁neod	-9.53458
nské	-9.53596
▁střed	-9.5373
▁slova	-9.53783
▁muž	-9.53818
▁ministerstvo	-9.53819
▁koaliční	-9.53819
▁chtějí	-9.53819
▁zvláštní	-9.53833
▁chování	-9.53881
slav	-9.53962
▁pojištění	-9.53985
▁dnech	-9.53996
den	-9.54112
▁nepře	-9.54124
▁bývalý	-9.54155
▁středu	-9.54166
dávají	-9.54235
▁byt	-9.54292
▁přednost	-9.54348
▁objevil	-9.54357
▁Ž	-9.54374
▁případ	-9.54383
▁jiného	-9.54549
▁Windows	-9.54619
▁Zeman	-9.5464
AN	-9.54746
▁ekonomické	-9.54747
stoupil	-9.54795
▁národní	-9.54826
▁metrů	-9.549
▁postupně	-9.54955
▁úřadu	-9.54983
▁zahraničních	-9.55254
▁hráčů	-9.55308
šli	-9.55375
dává	-9.5538
nc	-9.55415
▁zpět	-9.55425
▁společenství	-9.55476
▁rady	-9.55529
▁dr	-9.55654
št	-9.56079
▁podobně	-9.56239
uji	-9.5626
▁vztah	-9.56289
▁disk	-9.56364
elný	-9.56364
▁vzor	-9.56489
▁svazu	-9.56595
▁čeká	-9.566
▁2.	-9.56837
▁vz	-9.56895
un	-9.56932
py	-9.56944
▁gen	-9.56944
▁nemusí	-9.57059
rob	-9.5707
ici	-9.57075
▁číslo	-9.57103
▁Pak	-9.57163
▁Dr	-9.57456
▁Zde	-9.57559
▁pracovníků	-9.5765
rat	-9.57736
▁poslanců	-9.57884
▁přibližn	-9.57884
▁zástupce	-9.57884
▁nadále	-9.57887
▁host	-9.57891
▁ročně	-9.57891
▁MS	-9.579
▁živ	-9.5792
▁kulturní	-9.57935
▁Be	-9.57991
▁evropské	-9.58062
hla	-9.5808
▁tržní	-9.58126
▁pu	-9.58135
▁klubu	-9.58194
▁post	-9.58213
▁Bude	-9.58318
▁klub	-9.58326
len	-9.58376
SK	-9.58399
jící	-9.58569
▁odmítl	-9.58718
▁výhod	-9.58941
dění	-9.58978
▁vznikl	-9.59067
▁Já	-9.59105
inu	-9.59146
▁dalším	-9.59198
▁každ	-9.5931
▁poměr	-9.59314
oč	-9.59347
▁uměl	-9.59399
nk	-9.59494
▁Většin	-9.59558
▁jazyk	-9.59558
▁nabídky	-9.59558
▁hospodářství	-9.59558
▁lépe	-9.5957
▁Že	-9.59616
▁Če	-9.5965
nek	-9.59659
▁hodně	-9.59669
▁zásad	-9.59684
go	-9.59764
ško	-9.59801
▁vstup	-9.59894
▁počtu	-9.59901
čku	-9.59914
▁podniky	-9.60015
stává	-9.60077
nic	-9.60088
ok	-9.60096
▁generální	-9.60102
▁manažer	-9.6014
▁spojen	-9.60214
▁manžel	-9.6027
▁spoj	-9.60353
▁umožňuje	-9.60406
nský	-9.60409
tah	-9.60441
▁podstatně	-9.60451
SE	-9.60483
▁jenom	-9.60523
▁přesně	-9.60539
▁týmu	-9.60543
▁přijat	-9.60553
ca	-9.6061
▁sami	-9.60624
▁závod	-9.60718
▁problémů	-9.61001
▁olympijské	-9.61147
ovými	-9.61229
žení	-9.61239
▁považuje	-9.6126
▁začíná	-9.61262
▁hrál	-9.61293
▁fondu	-9.61313
▁případech	-9.61348
▁musíme	-9.61358
▁Už	-9.61409
icky	-9.61417
der	-9.61425
▁Ani	-9.61429
▁říci	-9.6143
▁potvrdil	-9.61436
▁novou	-9.61473
znal	-9.61551
▁městě	-9.61585
▁občanů	-9.61938
▁22	-9.62094
▁obvykle	-9.62122
▁banky	-9.62126
▁sítě	-9.62133
▁majitel	-9.62181
▁oddělení	-9.6222
▁českého	-9.62272
▁pomoci	-9.62344
son	-9.62461
▁možností	-9.62472
▁řada	-9.62486
ben	-9.62521
▁Di	-9.62532
▁vedle	-9.626
▁změn	-9.62907
▁nebyla	-9.62931
▁dopis	-9.62963
▁otázku	-9.62992
▁výrobků	-9.62992
EN	-9.62998
tem	-9.63062
▁bank	-9.63127
▁měst	-9.63153
▁politiky	-9.63273
▁17	-9.63294
▁průběhu	-9.63359
▁uzavře	-9.63449
pit	-9.63467
alo	-9.63608
áři	-9.63628
▁nějaké	-9.63722
000	-9.63751
▁Ze	-9.63762
▁ryb	-9.63813
▁hvězd	-9.63869
▁nabízí	-9.63869
▁vrchol	-9.63869
▁nemají	-9.63993
sídl	-9.64044
▁výbor	-9.6407
▁ulici	-9.64112
▁miliardy	-9.64112
▁Ar	-9.64129
▁zdrojů	-9.64177
▁kterém	-9.64324
íky	-9.64401
Dr	-9.64422
pen	-9.64493
ené	-9.6452
ěte	-9.64522
▁60	-9.64523
▁moci	-9.64622
▁otázka	-9.64754
▁otázky	-9.64754
▁úrovni	-9.64754
▁celkem	-9.64754
▁chvíli	-9.64755
▁Česká	-9.64785
▁takto	-9.64809
ává	-9.64816
▁uvádí	-9.6488
ký	-9.64894
▁mil	-9.6499
pil	-9.65018
tní	-9.65036
ané	-9.65181
▁moderní	-9.65224
óz	-9.65398
▁pražské	-9.65429
šti	-9.65567
▁rodin	-9.65594
▁mistrovství	-9.65647
▁An	-9.65647
▁předchozí	-9.65649
▁tvar	-9.65742
▁jednom	-9.65802
por	-9.65828
▁kontrol	-9.65829
▁postavení	-9.65852
▁schopn	-9.65946
nici	-9.66057
▁každém	-9.66114
▁dohody	-9.66141
ložil	-9.6615
ovo	-9.66157
▁objektů	-9.66157
ned	-9.66207
▁každé	-9.66213
rop	-9.66218
▁názoru	-9.66254
▁automobil	-9.66404
▁tr	-9.66544
▁energie	-9.66548
▁dětí	-9.66548
▁sportovní	-9.66548
▁zaměstnanců	-9.6655
▁NATO	-9.6655
▁cestu	-9.66676
▁vyz	-9.66849
▁vznik	-9.66854
▁pozornost	-9.66887
tel	-9.66967
▁prv	-9.66972
tal	-9.67024
vají	-9.67039
▁textu	-9.67063
▁počítače	-9.67151
tím	-9.67267
▁chtěl	-9.6731
kli	-9.67397
▁prů	-9.67436
▁odhad	-9.67454
▁finále	-9.67457
▁společností	-9.67472
▁kterých	-9.67585
nese	-9.676
býval	-9.67649
▁nep	-9.67671
▁měsíce	-9.67682
▁představuje	-9.67692
ovaného	-9.67723
▁listopadu	-9.67748
▁obsah	-9.67761
▁vybavení	-9.6788
▁setkání	-9.67891
▁zůstal	-9.67899
▁působí	-9.67913
▁takový	-9.6794
▁strana	-9.67951
▁nikoli	-9.68226
cké	-9.68237
▁díl	-9.68237
▁budoucí	-9.68241
▁Izrael	-9.68374
▁prostředků	-9.68379
▁21	-9.68389
▁Země	-9.68394
▁čtvrtek	-9.6843
▁cizí	-9.68431
▁svobod	-9.68491
▁Ještě	-9.685
▁Tím	-9.68522
▁trest	-9.68527
▁sama	-9.68528
▁parlament	-9.68546
▁světové	-9.68572
▁řad	-9.68588
▁současně	-9.68609
▁obchodního	-9.68639
▁lékař	-9.6874
▁řadě	-9.6875
▁příští	-9.68753
▁vů	-9.68908
▁provozu	-9.69088
▁platit	-9.69176
▁Čí	-9.6921
▁test	-9.6928
▁výrobky	-9.693
▁Navíc	-9.69301
▁Nyní	-9.69306
▁OSN	-9.69317
▁produkce	-9.69356
▁skupina	-9.6936
tky	-9.69419
▁Sa	-9.69495
dla	-9.69528
tivní	-9.69532
▁atd	-9.69616
▁neděli	-9.69651
rád	-9.69829
vání	-9.69842
▁druhém	-9.69874
▁kal	-9.69956
bývá	-9.69969
bud	-9.70009
▁Jedno	-9.70198
▁Josef	-9.70235
▁federální	-9.70235
▁zasedání	-9.70243
▁motor	-9.70257
▁dobrý	-9.70312
▁zdroje	-9.70317
▁muset	-9.70361
▁skutečnosti	-9.70418
inter	-9.70602
▁hlavním	-9.70603
▁hrát	-9.7062
ika	-9.70639
▁porad	-9.70652
stran	-9.70728
▁kvalitní	-9.70806
▁akci	-9.70824
fer	-9.70853
▁kterého	-9.70981
▁Ru	-9.70987
díl	-9.71088
pad	-9.71161
▁prezentace	-9.71178
▁začátku	-9.71178
▁kapacit	-9.71179
▁srovnání	-9.71179
▁speciální	-9.7119
zní	-9.71216
▁tlak	-9.71241
ismu	-9.71423
▁zápas	-9.71451
▁výboru	-9.71459
▁jiný	-9.71486
▁oba	-9.71577
▁součástí	-9.71582
eb	-9.71599
▁auto	-9.7161
jev	-9.71642
▁mluvčí	-9.71645
▁akcií	-9.71728
ala	-9.71746
▁obchodu	-9.7177
▁použití	-9.71824
▁hodnoty	-9.71842
jem	-9.71924
nické	-9.71943
kovi	-9.71961
▁přiče	-9.71996
▁Hor	-9.72009
cházejí	-9.72109
▁teorie	-9.72131
▁přírodní	-9.72132
▁buď	-9.72136
▁1989	-9.72136
▁privatizace	-9.72139
▁apod	-9.72164
ření	-9.7229
▁jasné	-9.724
▁konci	-9.72437
res	-9.72486
▁plně	-9.72627
▁školy	-9.72717
lék	-9.72817
▁vyhrál	-9.729
▁těm	-9.72997
▁stejn	-9.73102
sil	-9.73148
vz	-9.73233
star	-9.73258
▁ostrov	-9.73364
▁domů	-9.73364
▁metod	-9.73465
▁dopravy	-9.73485
▁ME	-9.73493
▁kolik	-9.73543
▁jednotlivé	-9.73637
▁Cen	-9.73739
▁objektu	-9.73742
pas	-9.73744
▁samo	-9.7375
▁našem	-9.7381
▁závěr	-9.73831
▁možno	-9.73953
▁Jelcin	-9.74023
▁veřejné	-9.74063
▁zdravotnictví	-9.74063
▁variant	-9.74063
▁umění	-9.74065
▁Někter	-9.74066
▁Martin	-9.74072
LA	-9.74085
▁div	-9.7409
▁zvolen	-9.74127
▁Ivan	-9.74144
▁bran	-9.74186
▁papír	-9.74262
▁následující	-9.74315
ten	-9.74327
vé	-9.74573
▁chod	-9.74702
50	-9.74772
▁novin	-9.74783
▁student	-9.74812
▁údaje	-9.74814
▁Bylo	-9.75004
▁gól	-9.75044
▁nebezpečí	-9.75044
puštěn	-9.75047
▁podobě	-9.75047
▁Pavel	-9.75055
hlav	-9.7507
▁poně	-9.75073
▁rozhodující	-9.75099
▁ostatních	-9.75114
dů	-9.75133
▁Podobn	-9.75142
ejte	-9.75144
▁ploch	-9.75163
drží	-9.7521
▁telefonní	-9.75251
▁investice	-9.75292
▁státního	-9.75315
▁celého	-9.75321
▁opak	-9.75418
▁noci	-9.75544
▁kultury	-9.75559
aly	-9.75592
▁nějaký	-9.7566
▁práva	-9.75688
nd	-9.75701
IN	-9.75852
▁pla	-9.75879
▁spojení	-9.75902
▁zákaz	-9.75993
▁metr	-9.75993
▁rozum	-9.76083
▁společně	-9.76193
19	-9.76247
▁vzájemn	-9.76264
▁aktivit	-9.76313
ík	-9.76316
▁soutěže	-9.76379
▁zájmu	-9.76393
píše	-9.76405
▁politických	-9.76514
nci	-9.76532
▁výstav	-9.76553
ren	-9.76592
▁snadno	-9.766
▁smrti	-9.76629
nec	-9.76739
▁Proč	-9.76754
▁nová	-9.76795
▁vys	-9.77028
▁televizní	-9.77034
▁jméno	-9.77036
▁Miloš	-9.77038
▁lev	-9.77045
th	-9.77046
▁syn	-9.77052
např	-9.77135
▁Bu	-9.77212
▁Toto	-9.77228
řitom	-9.77232
zv	-9.77265
▁počítač	-9.77266
▁střel	-9.77292
▁tisíce	-9.7731
věří	-9.77322
▁stud	-9.77372
vláště	-9.77519
mar	-9.77705
▁ba	-9.77739
W	-9.77913
▁Čech	-9.77918
isté	-9.7798
▁Gr	-9.78029
▁předpoklad	-9.78044
▁John	-9.78044
▁snímek	-9.78046
svoji	-9.78057
▁hnutí	-9.78069
▁Stejn	-9.78078
▁zdraví	-9.7808
šek	-9.7813
chází	-9.78132
▁lidi	-9.78171
▁vidí	-9.78183
▁nejvíce	-9.78287
▁důvodů	-9.78303
jat	-9.78368
▁zas	-9.78396
▁vytvoření	-9.78427
ena	-9.78476
▁český	-9.78478
psal	-9.78535
▁trvá	-9.78715
nů	-9.78762
jet	-9.78769
▁Star	-9.78883
ismus	-9.78906
rovna	-9.78995
▁plné	-9.7904
▁Jaroslav	-9.79064
▁motiv	-9.79065
▁jisté	-9.7909
▁vzhledem	-9.79094
▁pás	-9.79119
CE	-9.79164
▁předem	-9.79243
ke	-9.79443
eta	-9.79463
▁hotel	-9.79509
▁velkou	-9.79509
▁stanoven	-9.79521
ujících	-9.79525
▁mužů	-9.79642
est	-9.79845
▁hráči	-9.7985
▁Tu	-9.79876
▁povrch	-9.79988
her	-9.80011
▁zvýšil	-9.80095
▁těžko	-9.80096
▁planet	-9.80101
▁okolo	-9.80102
▁podobný	-9.80126
▁nákup	-9.80185
▁pocit	-9.80191
OR	-9.80286
▁daleko	-9.80302
▁rád	-9.80302
▁typ	-9.80303
▁Český	-9.80482
▁soudu	-9.80557
▁spíš	-9.80692
však	-9.8075
▁hru	-9.80777
íte	-9.80909
▁celkov	-9.81099
▁náměstí	-9.81137
▁zástupci	-9.81137
▁přátel	-9.81144
▁delší	-9.81146
▁někteří	-9.81147
hi	-9.81173
▁září	-9.81173
▁zaměstnání	-9.81182
▁rukou	-9.81204
▁70	-9.81209
ováním	-9.81216
▁kilometrů	-9.8123
▁obsahuje	-9.81243
lů	-9.81268
cího	-9.81381
▁hodiny	-9.81462
▁stanov	-9.81635
▁Bez	-9.81665
▁pre	-9.81853
▁oboru	-9.8188
▁věku	-9.81883
▁koncem	-9.82105
▁smysl	-9.8214
nictví	-9.82159
▁výsledek	-9.82189
▁cestovní	-9.8219
půjč	-9.82212
▁tvář	-9.82236
▁polo	-9.82297
▁mohly	-9.82335
▁světový	-9.82395
▁přišel	-9.82494
▁způsobil	-9.82495
▁druhů	-9.82533
▁tenis	-9.82567
cházet	-9.82571
▁kandidát	-9.82574
▁zkušenosti	-9.8269
▁ředitele	-9.82969
▁popis	-9.82975
▁přechod	-9.83181
koliv	-9.83188
▁aplikace	-9.83253
▁existuje	-9.83253
▁nejbližší	-9.83253
▁podmínek	-9.83253
▁nebudou	-9.83254
▁Může	-9.83255
▁zůstává	-9.83255
ickou	-9.83272
▁dnů	-9.83287
ška	-9.83339
dom	-9.8334
▁Kčs	-9.83345
▁koalice	-9.83374
▁olympijský	-9.83482
▁objekty	-9.83542
▁hospodářské	-9.83691
ton	-9.83814
padl	-9.83858
▁stavební	-9.83943
▁fond	-9.83951
▁každého	-9.83958
EL	-9.83993
čně	-9.84086
▁založen	-9.84101
ER	-9.84101
▁příprav	-9.84201
▁výměn	-9.84227
▁termín	-9.84254
▁adres	-9.84267
▁úroveň	-9.84328
▁dospěl	-9.84328
dají	-9.84333
▁starší	-9.84334
▁výnos	-9.84343
▁společný	-9.84359
▁tady	-9.84369
▁smyslu	-9.84414
▁rozhodl	-9.84473
▁pracovat	-9.84476
ger	-9.84532
▁úprav	-9.84541
▁případně	-9.84549
ováno	-9.84571
▁dosáhl	-9.84609
▁minulosti	-9.84633
▁Ber	-9.84642
▁hrad	-9.84671
▁Ni	-9.84943
30	-9.8498
ide	-9.84991
ance	-9.84993
ění	-9.85075
▁příklad	-9.8514
▁materiál	-9.85181
▁běžné	-9.85181
▁rychlost	-9.85202
▁neměl	-9.85226
▁prodeje	-9.85281
lík	-9.85361
zu	-9.85402
▁poslanci	-9.85415
▁pátek	-9.85416
▁praxi	-9.85417
▁jediný	-9.85561
▁dává	-9.85586
▁určitě	-9.85605
▁Každý	-9.85659
▁Brně	-9.85737
▁fotbal	-9.85884
▁soukrom	-9.85911
▁skončil	-9.85982
▁sklad	-9.85993
řad	-9.86035
▁německé	-9.86151
stál	-9.86172
▁Nové	-9.86206
klo	-9.86291
▁kraj	-9.86348
▁dotaz	-9.86364
šení	-9.86388
▁NE	-9.864
▁druh	-9.86407
▁účel	-9.8643
▁prvního	-9.86474
▁Pan	-9.86488
▁důležité	-9.86514
▁vidět	-9.86514
▁rekord	-9.86515
▁šanci	-9.86515
▁příkaz	-9.86517
▁strom	-9.86549
▁přijal	-9.86626
zem	-9.86671
▁mám	-9.86705
▁kvality	-9.87023
▁podnikatel	-9.87073
▁lékaře	-9.87102
▁tun	-9.87171
AR	-9.87251
▁oblast	-9.87416
nky	-9.87587
▁data	-9.8761
▁výrobce	-9.87625
▁zvířat	-9.87625
▁síly	-9.87641
psat	-9.87654
▁loňské	-9.87659
▁volbách	-9.87667
▁července	-9.87708
▁Kar	-9.87708
▁stačí	-9.87717
▁odpovídá	-9.87721
▁léta	-9.87791
▁nikoliv	-9.8784
▁dny	-9.87853
ler	-9.87856
▁kap	-9.87862
▁nárok	-9.87887
▁změnit	-9.87921
mž	-9.87926
▁Ra	-9.87934
set	-9.8803
▁Přes	-9.88084
▁Německa	-9.88218
▁knihy	-9.88309
▁členy	-9.88425
▁hráče	-9.88446
▁hráč	-9.8846
ňování	-9.88672
kar	-9.88703
▁zemřel	-9.88751
▁Du	-9.88773
raději	-9.88781
▁Jeden	-9.88822
▁podstatě	-9.88937
třech	-9.89019
▁zranění	-9.89163
▁nákladů	-9.89221
▁doba	-9.89291
kryt	-9.89345
ROM	-9.8938
vané	-9.89405
ij	-9.8953
sáhl	-9.89667
ion	-9.89668
▁osmi	-9.89669
bře	-9.89756
▁potřebuje	-9.89793
dal	-9.89805
▁Ministerstv	-9.89885
▁oprávněn	-9.89885
▁technologie	-9.89885
▁výrobu	-9.89885
▁tepla	-9.89888
stoupit	-9.8989
▁vrátil	-9.89904
▁úplně	-9.89909
din	-9.89927
▁dělat	-9.89939
▁tisku	-9.89946
▁představitelé	-9.89993
▁investiční	-9.89997
▁koncert	-9.90034
▁užit	-9.90042
▁23	-9.90044
▁zkouš	-9.90051
▁přehled	-9.90066
zení	-9.90127
▁rozšíření	-9.90151
▁druhou	-9.90258
▁voleb	-9.90278
RO	-9.90394
▁podobné	-9.90536
▁techniky	-9.90545
▁Již	-9.90552
▁vývoje	-9.90595
vykl	-9.9082
▁činí	-9.90903
▁staré	-9.9101
▁družstev	-9.91035
▁příspěvk	-9.91035
▁síť	-9.91045
stoupí	-9.91053
▁příjem	-9.91069
držel	-9.91164
▁úkol	-9.91176
▁celá	-9.91205
lení	-9.91217
▁podnikatele	-9.91251
▁míry	-9.91256
▁dějin	-9.91261
▁polovin	-9.91379
▁jakým	-9.91404
▁výrobní	-9.91469
▁Nový	-9.91549
▁omezen	-9.91558
▁zprávy	-9.91564
▁rad	-9.91612
▁Ca	-9.91646
▁použit	-9.91647
▁žen	-9.91732
▁volby	-9.9176
razil	-9.91854
▁klid	-9.91923
▁čtvrt	-9.91945
▁výběr	-9.91965
dělal	-9.92047
▁bohat	-9.9207
leč	-9.92081
▁80	-9.92084
▁jízd	-9.92105
značně	-9.92106
▁olympiád	-9.92197
▁vytvořit	-9.92198
▁úspor	-9.92201
pře	-9.92209
pír	-9.92227
▁pochyb	-9.92232
▁dvakrát	-9.92271
▁slab	-9.92327
skoro	-9.92346
antní	-9.92353
▁podnikatelů	-9.92415
▁chcete	-9.92573
▁(1	-9.92634
▁vlastnosti	-9.92746
šil	-9.92747
nému	-9.92871
▁těles	-9.92884
měr	-9.92954
▁domu	-9.92957
▁ruské	-9.92975
nce	-9.93003
▁vaše	-9.93016
▁národ	-9.93017
▁čin	-9.93121
▁též	-9.93158
▁bytů	-9.93159
ňuje	-9.93207
jdou	-9.93343
▁financí	-9.93374
▁vývoz	-9.93425
▁konečně	-9.9346
▁Kdyby	-9.93497
▁slavn	-9.93522
▁dvacet	-9.93553
rit	-9.93581
▁partner	-9.9362
ita	-9.93721
▁roze	-9.93748
▁Hrad	-9.9376
▁soupeř	-9.93834
▁počítá	-9.93905
jasn	-9.93955
ených	-9.93988
▁Asi	-9.94075
šit	-9.9414
▁seznam	-9.94142
▁SR	-9.94209
▁jít	-9.94217
prostřed	-9.94241
pel	-9.94275
▁Její	-9.94277
▁návrhu	-9.94294
▁jaký	-9.94443
▁přízniv	-9.94542
▁federace	-9.94564
▁firmě	-9.94564
▁výsledků	-9.94564
▁použít	-9.94565
▁Všechny	-9.94565
▁současnosti	-9.94594
▁reprezentant	-9.94617
▁evropských	-9.94632
zhledem	-9.94635
▁dvaceti	-9.94668
▁zpracování	-9.94676
ovu	-9.94733
▁park	-9.94735
eny	-9.94876
▁včerejší	-9.949
▁obrany	-9.95008
▁průmyslu	-9.95072
▁hranice	-9.95078
▁klient	-9.95117
▁Německu	-9.95194
▁změnil	-9.95218
▁bodů	-9.95275
▁ním	-9.95316
▁bezpečnostní	-9.95337
▁ústav	-9.95337
myšlen	-9.95483
▁vojenské	-9.95552
vnitř	-9.95576
▁snah	-9.95612
▁občan	-9.95623
▁fotbalové	-9.95695
▁pokles	-9.95759
▁Společenství	-9.95769
▁Vladimír	-9.95769
▁Právě	-9.9577
▁nejlépe	-9.95771
▁zbraní	-9.95773
▁relativn	-9.95775
▁pravděpodobně	-9.95778
vali	-9.95797
▁Běh	-9.95825
▁dostat	-9.95827
řízení	-9.95844
▁původně	-9.95852
kovou	-9.95932
rozměr	-9.95993
▁Měl	-9.96001
▁objeví	-9.96067
▁autobus	-9.96106
▁dokázal	-9.96124
▁ochran	-9.96194
áni	-9.96281
▁náklad	-9.96348
▁export	-9.96354
▁člen	-9.9639
▁Firma	-9.96399
▁amerických	-9.964
lat	-9.96428
jak	-9.96547
ávat	-9.96558
▁cílem	-9.96596
kových	-9.96657
stické	-9.96671
▁Mi	-9.96671
▁kancelář	-9.96766
▁důvod	-9.96767
▁disku	-9.96873
10	-9.9689
▁roční	-9.96953
▁dlouhé	-9.96989
▁předpokládá	-9.96989
▁udělat	-9.96989
▁patrně	-9.97003
násob	-9.97071
kat	-9.97105
▁dokáže	-9.97107
▁dostane	-9.97135
tovat	-9.972
▁sněmovny	-9.97243
▁slovo	-9.97315
▁vhodné	-9.97418
▁správ	-9.97533
▁osoby	-9.97556
▁pohyb	-9.97621
▁někter	-9.97699
ený	-9.9774
▁pole	-9.97744
▁pracuje	-9.97781
TA	-9.97903
▁kurz	-9.98018
▁úvěr	-9.98166
▁informační	-9.98223
▁hovoří	-9.98224
▁čísla	-9.98224
▁brzy	-9.98225
▁využití	-9.98225
▁kanál	-9.98239
▁armád	-9.98283
▁pravda	-9.98299
▁prostoru	-9.9833
▁těmi	-9.98453
▁hodnot	-9.98467
▁volné	-9.98572
▁proud	-9.98608
nského	-9.98617
▁ženy	-9.98623
▁čist	-9.98683
▁obr	-9.98926
uto	-9.9894
▁lidský	-9.99022
▁čtenář	-9.99024
▁veřejnosti	-9.99062
▁rokem	-9.99067
▁Japonsk	-9.99083
▁růstu	-9.99108
rou	-9.99177
▁záznam	-9.99249
▁severní	-9.99296
▁zisku	-9.99329
▁ústavu	-9.9941
▁bývá	-9.99435
▁dovolenou	-9.99473
▁většinu	-9.99473
▁jinde	-9.99474
▁péče	-9.99474
▁oceán	-9.99481
▁nemohou	-9.99512
▁začne	-9.99513
ovský	-9.99533
▁místopředsed	-9.99554
▁vědět	-9.99648
obec	-9.99663
▁vládě	-9.99664
▁souhlas	-9.99801
ani	-9.99816
▁molekul	-9.99852
tit	-9.99906
▁denně	-10.0005
dávat	-10.0008
▁čele	-10.0017
ivé	-10.0023
▁Kub	-10.0024
▁takovou	-10.0025
▁budov	-10.0026
▁národního	-10.0027
▁příslušné	-10.0031
▁témat	-10.0039
▁mění	-10.0066
▁poslanec	-10.0071
▁vědecké	-10.0074
▁pokračovat	-10.0074
▁podepsal	-10.0074
▁pozadí	-10.0074
▁látky	-10.0075
bin	-10.0077
▁nechce	-10.0078
▁kruh	-10.0078
ES	-10.0081
čné	-10.0082
▁pracovník	-10.0083
▁prací	-10.0084
▁2000	-10.0084
pustil	-10.0085
▁sluneční	-10.0086
▁stala	-10.009
▁90	-10.0091
▁500	-10.0093
▁New	-10.0098
▁snížení	-10.01
OU	-10.0103
▁vytvořil	-10.0107
▁1,	-10.0115
▁veřejnost	-10.0116
▁stejný	-10.0119
mor	-10.012
▁čem	-10.0125
▁podrob	-10.013
▁potřebné	-10.0152
▁kop	-10.0158
dat	-10.017
sed	-10.0181
▁pojistné	-10.0194
▁respekt	-10.0195
▁Ke	-10.0195
▁stalo	-10.0197
▁UEFA	-10.0202
▁demokracie	-10.0202
▁důležitý	-10.0202
▁hodnocení	-10.0202
▁oficiální	-10.0202
▁označil	-10.0202
▁televizi	-10.0202
▁naprosto	-10.0202
▁důkaz	-10.0202
▁Spojený	-10.0202
▁Havel	-10.0203
▁kurs	-10.0203
▁nijak	-10.0203
kládat	-10.0206
▁NA	-10.0208
▁vodní	-10.0211
AD	-10.0213
▁návštěv	-10.0213
▁okamžitě	-10.0215
▁současn	-10.0216
▁ukazuje	-10.0218
▁pacient	-10.0221
▁300	-10.0225
▁rod	-10.0229
▁míru	-10.0235
pak	-10.0238
▁zabývá	-10.0248
vel	-10.0248
▁proměn	-10.0248
kový	-10.0248
HO	-10.0254
▁bezpečnosti	-10.0256
▁nebyly	-10.0262
▁kolo	-10.0263
LE	-10.0265
▁procesu	-10.0266
▁rada	-10.027
▁pozor	-10.027
lid	-10.0272
leté	-10.0274
níků	-10.0275
▁28	-10.0275
taj	-10.0277
▁cesty	-10.0286
▁Kon	-10.0297
▁fotbalist	-10.0306
▁téma	-10.0307
rovná	-10.0317
▁PO	-10.0321
▁dát	-10.0322
▁ČSSD	-10.033
▁majetek	-10.0332
▁počasí	-10.0332
▁řečeno	-10.0332
net	-10.0334
KO	-10.0335
cem	-10.0339
▁novel	-10.0341
▁členové	-10.0342
procesor	-10.0351
▁potřeby	-10.036
▁stanice	-10.0363
▁vzniku	-10.0364
▁body	-10.0366
kázal	-10.0369
▁prost	-10.0377
▁kanceláře	-10.0385
dával	-10.0397
▁vládu	-10.0401
▁vytvořen	-10.0414
rem	-10.0416
▁zvyk	-10.0423
ozi	-10.0424
KA	-10.0428
▁tisk	-10.0437
řídí	-10.0444
▁posl	-10.045
▁lékaři	-10.0454
▁Lib	-10.0454
▁odborné	-10.0461
▁onemocnění	-10.0464
▁požadavky	-10.0464
▁příjmy	-10.0464
▁rozhodně	-10.0464
▁názvem	-10.0464
lka	-10.0466
▁35	-10.0467
▁nemohl	-10.0472
▁učitel	-10.0472
▁řady	-10.0474
▁lidem	-10.0476
▁dosáhnout	-10.0482
ovské	-10.0489
bere	-10.049
▁standard	-10.049
OH	-10.0497
áci	-10.0498
▁Slovensku	-10.0505
sad	-10.0506
▁systémů	-10.0509
▁získá	-10.0509
▁zahájení	-10.0518
▁Dva	-10.0523
▁dodává	-10.0529
▁výš	-10.0544
▁ekonomiky	-10.0545
klep	-10.055
▁postoj	-10.0556
ll	-10.0572
▁zákony	-10.0575
▁potravin	-10.058
▁nejde	-10.0586
▁Oba	-10.059
▁hlavního	-10.0593
▁konference	-10.0597
▁televize	-10.0597
▁vánoční	-10.0597
▁policejní	-10.0598
▁ligy	-10.0598
▁funkcí	-10.0601
loží	-10.0608
▁Me	-10.0615
▁soubor	-10.0621
▁slib	-10.0628
▁Státní	-10.0628
▁vztahu	-10.0629
▁My	-10.063
60	-10.0634
▁Pe	-10.0634
ona	-10.0642
▁jednak	-10.0643
▁celém	-10.0644
▁reklam	-10.0645
áno	-10.0646
kám	-10.0649
ávání	-10.0649
▁třicet	-10.065
nové	-10.0654
ckých	-10.0657
▁mechaniky	-10.0668
▁vybaven	-10.0669
▁Sta	-10.0687
▁přenos	-10.0689
▁společného	-10.069
NA	-10.0692
par	-10.0696
▁přístupu	-10.071
▁str	-10.0712
před	-10.0718
▁map	-10.0723
▁soutěž	-10.0724
▁zásah	-10.0732
▁Prezident	-10.0732
▁poskytuje	-10.0732
▁Československu	-10.0732
▁připravil	-10.0732
▁příbuzn	-10.0732
▁zločin	-10.0732
▁trans	-10.0732
▁vnitra	-10.0733
▁velká	-10.0733
ros	-10.0733
▁cíl	-10.074
dis	-10.0744
▁nechal	-10.0752
▁PowerPoint	-10.0753
▁osud	-10.0753
věřil	-10.0757
▁Společnost	-10.076
izovat	-10.0765
šp	-10.0779
▁rychlostí	-10.078
▁škody	-10.0783
▁Vše	-10.0786
▁druhá	-10.0787
▁Cel	-10.0789
▁aktiv	-10.0791
▁Nová	-10.0794
▁Velk	-10.0797
vad	-10.0798
▁struktur	-10.0808
▁Bar	-10.0808
počítá	-10.0809
▁Aby	-10.081
▁parlamentní	-10.0811
▁řekla	-10.0821
▁obrat	-10.0827
▁druhého	-10.083
▁Velké	-10.083
▁Fa	-10.0832
▁cit	-10.0835
FS	-10.0837
osud	-10.0841
onu	-10.0842
▁cest	-10.0843
▁teplo	-10.0845
▁měsíc	-10.0845
▁hotov	-10.0846
▁souboru	-10.0849
ickým	-10.0849
▁léč	-10.0853
▁radost	-10.0854
brž	-10.0855
▁teplot	-10.0867
▁Francouz	-10.0869
▁Sovětské	-10.0869
▁kláves	-10.0869
▁spotřebitel	-10.0869
▁zemědělství	-10.0869
▁servis	-10.0869
▁látek	-10.0871
▁ohledu	-10.0871
▁měsících	-10.0872
▁desítky	-10.0872
▁najít	-10.0874
▁druhu	-10.0874
▁Čechách	-10.0877
▁Atlantě	-10.0877
▁odpad	-10.0883
plnění	-10.0886
▁povinnost	-10.0886
vádí	-10.0887
▁zaplatí	-10.089
NO	-10.089
▁závěru	-10.0894
▁zákoníku	-10.0897
▁lékařů	-10.0899
▁trestní	-10.0905
▁vydání	-10.091
ologie	-10.091
▁hladin	-10.0915
▁myslí	-10.092
▁jinou	-10.0924
izace	-10.0944
▁město	-10.0945
▁počátku	-10.0946
▁daní	-10.0947
fu	-10.0959
▁dopravní	-10.0964
▁správy	-10.0967
▁takového	-10.097
▁27	-10.0971
▁Američan	-10.0975
ive	-10.0976
odpovědn	-10.0984
méně	-10.099
▁obcí	-10.0994
▁napsal	-10.0996
pustí	-10.0998
prázdn	-10.1001
kům	-10.1001
▁Jin	-10.1005
▁výběru	-10.1005
▁hudební	-10.1008
▁schopen	-10.1008
▁tradiční	-10.1008
▁ustanovení	-10.1008
▁výrobců	-10.1008
▁těžký	-10.1008
▁Francie	-10.1008
▁Národní	-10.1008
▁nabídku	-10.1008
▁snímků	-10.1008
▁pořadatel	-10.1009
▁sbír	-10.101
▁nápad	-10.1011
▁zákonů	-10.1013
▁uplatnění	-10.1016
MA	-10.1021
▁ES	-10.1026
▁současný	-10.1028
▁sever	-10.1031
dali	-10.1031
▁oznámil	-10.1032
▁důsled	-10.1036
dání	-10.1041
▁poz	-10.1042
▁státech	-10.1045
▁ráno	-10.105
▁dalšího	-10.1051
▁přijde	-10.1056
▁jednotliv	-10.1059
letý	-10.1062
▁charakter	-10.1064
▁minulé	-10.108
▁ekonomik	-10.1082
▁přesvědčen	-10.1086
▁hranic	-10.1092
ckého	-10.1093
ast	-10.1094
▁pra	-10.1096
lep	-10.1107
hlásil	-10.1109
▁zásob	-10.1117
ěji	-10.1119
▁rezerv	-10.1121
▁začali	-10.1122
pul	-10.1123
wa	-10.1125
▁nově	-10.1125
▁ztrát	-10.1132
▁památ	-10.1142
▁subjekt	-10.1149
▁těžké	-10.1149
▁využít	-10.1149
▁přijetí	-10.1149
▁řešit	-10.115
▁odměn	-10.115
▁působení	-10.115
▁rozpočet	-10.1151
▁hodlá	-10.1152
▁školství	-10.1152
staví	-10.1156
▁tentokrát	-10.1156
▁převážně	-10.1159
▁zajistit	-10.116
▁protest	-10.1168
▁domov	-10.1172
▁rozhovor	-10.1177
▁řeč	-10.1178
▁Takže	-10.1179
▁%.	-10.1181
▁pořadí	-10.1184
▁útok	-10.1184
vedou	-10.1185
blíž	-10.1187
▁vysokou	-10.1191
dané	-10.1192
▁vyplývá	-10.1192
▁fyzik	-10.1194
▁částky	-10.1196
MU	-10.1203
▁knih	-10.1205
▁okamžiku	-10.1206
DO	-10.1209
áme	-10.1211
▁slovenské	-10.1214
▁nim	-10.1217
▁ceně	-10.1219
▁změna	-10.1226
▁stroj	-10.1232
▁jiná	-10.1233
užit	-10.1237
tisk	-10.124
▁městské	-10.1266
▁chybí	-10.1272
▁takovém	-10.1272
▁mimořádn	-10.1277
▁chtěli	-10.1284
bran	-10.1285
▁smrt	-10.1287
▁nesmí	-10.1288
▁bohužel	-10.1292
▁družstva	-10.1292
▁nejrůznější	-10.1292
▁spolupráce	-10.1292
dostatečně	-10.1292
▁Mezinárodní	-10.1292
řídil	-10.1295
▁povolení	-10.1303
▁seznamu	-10.1306
▁místech	-10.1307
▁moře	-10.1314
▁poloh	-10.1314
▁udělal	-10.1317
tav	-10.1318
▁směrem	-10.1318
AL	-10.1319
něk	-10.1326
▁jednat	-10.1328
▁údajů	-10.1329
▁cestou	-10.133
▁názory	-10.1331
čel	-10.1333
řka	-10.1344
ista	-10.1356
išť	-10.1356
▁400	-10.1358
hodný	-10.1364
▁Fin	-10.1369
placení	-10.1372
▁zdroj	-10.1373
oje	-10.1374
▁Sv	-10.1375
LI	-10.1378
rd	-10.1379
▁demokratické	-10.1381
og	-10.1387
▁Bud	-10.1395
▁blok	-10.14
kyně	-10.14
▁hromad	-10.141
měl	-10.1414
▁chlad	-10.1417
front	-10.1422
NÁ	-10.1424
ovaným	-10.1424
▁mistr	-10.1429
▁zvuk	-10.143
▁jestli	-10.1432
▁pondělí	-10.1437
▁prezentaci	-10.1437
▁průzkum	-10.1437
▁jistot	-10.1437
▁devět	-10.1437
▁vyslovil	-10.1437
▁smluvní	-10.1438
▁mikro	-10.1439
▁měsíční	-10.1445
▁máte	-10.1445
▁dvanáct	-10.1449
▁pravidelně	-10.1451
vát	-10.1452
▁předtím	-10.1454
▁příslušn	-10.1458
kan	-10.1471
▁kola	-10.1472
ju	-10.1474
RE	-10.1483
▁Per	-10.1483
▁myslím	-10.1484
▁par	-10.149
▁výzkumu	-10.1507
▁žádn	-10.1521
kají	-10.1532
číst	-10.1535
ivost	-10.1536
▁turnaj	-10.1537
▁armády	-10.1538
▁případů	-10.1538
koupil	-10.1545
řídit	-10.1546
▁systémy	-10.1559
▁odbyt	-10.1563
,5	-10.1566
▁uvedla	-10.1568
▁volb	-10.1576
▁HIV	-10.1584
▁Poslední	-10.1584
▁konferenci	-10.1584
▁podmínkách	-10.1584
▁příjmů	-10.1584
▁úrovně	-10.1584
▁června	-10.1584
▁detail	-10.1584
▁spoust	-10.1585
▁radnice	-10.1586
har	-10.1586
▁Mlad	-10.1587
metr	-10.1589
▁Pavl	-10.159
▁Zákon	-10.1591
▁závěrečn	-10.1593
▁vztahy	-10.1593
▁rostlin	-10.1595
▁styk	-10.1597
▁LN	-10.1604
▁podpis	-10.1604
▁výjimkou	-10.1605
ickém	-10.1606
▁vědy	-10.1607
▁Kol	-10.1618
▁půd	-10.162
rab	-10.1624
▁Bra	-10.1627
▁změnu	-10.1631
CI	-10.1632
▁daňové	-10.1635
▁němu	-10.1637
ovanou	-10.164
▁akt	-10.1642
▁částku	-10.1643
▁taková	-10.1644
▁soukromé	-10.1646
▁velikost	-10.1646
▁politiku	-10.1647
ama	-10.1647
stru	-10.1651
▁německý	-10.166
▁vysoký	-10.166
▁mechanika	-10.1661
▁politický	-10.1661
▁váš	-10.1676
▁Par	-10.1682
▁technik	-10.1683
▁vydal	-10.1691
▁jím	-10.1691
▁očekává	-10.1692
dvacet	-10.1696
▁součást	-10.1697
TI	-10.1697
▁konkurence	-10.1698
▁Každ	-10.17
jmenován	-10.1705
▁Jedna	-10.172
▁sedmi	-10.1723
▁rodiny	-10.173
▁architekt	-10.1732
▁Největší	-10.1733
▁Současn	-10.1733
▁účetnictví	-10.1733
▁většině	-10.1733
▁jedenáct	-10.1733
▁kapitol	-10.1733
▁války	-10.1733
▁aliance	-10.1733
▁tvrzení	-10.1735
ence	-10.1736
▁směru	-10.1737
▁míč	-10.1738
ávají	-10.1741
▁centra	-10.1742
hem	-10.1746
▁daň	-10.1747
▁Naše	-10.1752
cení	-10.1755
▁dané	-10.1758
▁museli	-10.1759
▁nerv	-10.1763
▁padesát	-10.1766
čních	-10.1769
boj	-10.1773
▁jednoznačně	-10.1776
zoval	-10.1776
▁neví	-10.1781
ble	-10.1784
mj	-10.1791
▁známé	-10.1799
kraji	-10.1801
▁tiskové	-10.1806
▁vln	-10.1807
▁skupině	-10.1812
▁styl	-10.1823
▁výraz	-10.1826
▁Han	-10.1827
▁Rusko	-10.1832
▁26	-10.1833
▁postižen	-10.1849
padá	-10.1849
▁aktivity	-10.1865
▁Nov	-10.1869
▁obvod	-10.187
▁hodnotu	-10.1873
dem	-10.1882
▁polovinu	-10.1883
▁Evropa	-10.1884
▁Gorbačov	-10.1884
▁většiny	-10.1884
▁politice	-10.1884
▁vždycky	-10.1884
▁prohrál	-10.1884
▁záruk	-10.1885
▁schéma	-10.1885
▁začít	-10.1886
▁PRO	-10.1886
▁uvedené	-10.189
▁pravé	-10.1893
▁třemi	-10.1894
řek	-10.1895
▁leží	-10.1897
▁Jenže	-10.1898
▁nemocnice	-10.1901
▁individuální	-10.1903
▁pořádku	-10.1908
▁odpovědnost	-10.191
▁východ	-10.1912
▁dělá	-10.1916
▁Německo	-10.1918
▁náhrad	-10.192
▁svá	-10.1923
▁hlasování	-10.1929
▁pracovníci	-10.1931
▁ODA	-10.1936
▁Václava	-10.1939
IS	-10.1939
žije	-10.194
▁liber	-10.194
▁uživatel	-10.1942
▁změně	-10.1943
pir	-10.1947
▁předsedy	-10.1948
DE	-10.1949
▁diváků	-10.1958
▁budoucnosti	-10.1958
▁nutno	-10.1959
▁univerzity	-10.1967
▁oslav	-10.1971
IT	-10.1974
▁slouží	-10.1974
▁proveden	-10.1976
▁průměrn	-10.1982
▁náhod	-10.1983
běžně	-10.1995
RU	-10.2
▁životě	-10.2009
rp	-10.2016
▁AIDS	-10.2038
▁Británie	-10.2038
▁publika	-10.2038
▁obyvatelstva	-10.2038
▁vzdělání	-10.2038
▁srpna	-10.2038
▁Možná	-10.2038
▁stop	-10.2044
▁nástup	-10.2045
▁Vždyť	-10.2046
▁konec	-10.2051
OS	-10.2056
▁trval	-10.2057
▁ostr	-10.2059
tvrdil	-10.206
rez	-10.2065
bral	-10.2067
přes	-10.2068
▁čase	-10.2072
▁studentů	-10.2075
snad	-10.2076
▁3.	-10.2079
▁známý	-10.208
▁lidské	-10.2083
▁Škoda	-10.2083
▁demokratick	-10.2087
▁miliony	-10.2095
▁paní	-10.2096
▁údajn	-10.2097
▁sport	-10.2098
▁důsledku	-10.2101
▁posun	-10.2104
▁hmot	-10.2106
▁hlasů	-10.2108
▁složení	-10.211
▁nutnost	-10.212
kazuje	-10.212
▁mnohé	-10.2124
▁používá	-10.2131
▁pán	-10.2132
ároveň	-10.2139
20	-10.2139
tický	-10.2142
▁princip	-10.2145
▁mal	-10.2147
▁aktivní	-10.2148
▁běžný	-10.2151
▁tvrd	-10.2151
▁soudní	-10.2153
▁takových	-10.216
nějších	-10.2162
▁koupit	-10.2165
40	-10.217
▁Ot	-10.2173
▁státních	-10.2175
▁orgán	-10.2179
EM	-10.2181
ívají	-10.2184
▁jejího	-10.2188
▁katastrof	-10.2194
▁připravuje	-10.2194
▁tajemství	-10.2194
▁očekávat	-10.2194
▁silniční	-10.2194
▁Vol	-10.2194
▁čísle	-10.2195
▁piva	-10.2195
▁název	-10.2195
▁buněk	-10.2195
▁Západ	-10.2196
▁verze	-10.2198
směs	-10.2198
▁tráv	-10.22
▁prázdnin	-10.2202
▁zásadní	-10.2205
▁uspořádání	-10.2207
▁průměru	-10.2207
mět	-10.2208
▁zdalek	-10.2209
▁odpor	-10.2212
▁zařazen	-10.2213
▁úřady	-10.2234
▁příčin	-10.2237
▁pobyt	-10.2242
▁chceme	-10.2242
▁poznání	-10.2245
▁příštím	-10.2248
▁dochází	-10.2254
árně	-10.2264
▁významný	-10.2269
▁počítačů	-10.2275
▁smí	-10.2275
ick	-10.2278
▁americký	-10.2283
▁kvalitu	-10.229
▁jiným	-10.2291
▁pokut	-10.2292
▁povinnosti	-10.2296
▁150	-10.2311
▁výkonu	-10.2315
▁určitý	-10.2317
pek	-10.2318
rot	-10.2326
▁dohod	-10.2329
▁Ste	-10.2329
▁banka	-10.2336
▁technické	-10.2345
▁zápase	-10.2346
▁uveden	-10.2351
▁argument	-10.2353
▁režisér	-10.2353
▁zpravodaj	-10.2353
▁zřejmé	-10.2353
▁dialog	-10.2353
▁zůstat	-10.2353
▁občas	-10.2353
▁pachatel	-10.2353
▁přírody	-10.2353
▁trend	-10.2354
▁privatizaci	-10.2354
art	-10.2355
▁marek	-10.2355
▁sdělil	-10.2358
▁Karel	-10.236
▁článku	-10.236
bil	-10.2362
▁vyžaduje	-10.2374
▁okresní	-10.2378
▁stroje	-10.238
▁sovětské	-10.238
▁vánoce	-10.2381
▁jaderné	-10.2382
▁muži	-10.2383
▁sam	-10.2383
▁odborníků	-10.2386
▁projektu	-10.2388
▁agentury	-10.239
▁šíř	-10.239
NI	-10.2391
▁premiéra	-10.2392
▁zajímavé	-10.2394
▁úvahu	-10.2395
▁Tři	-10.2399
▁jaká	-10.2399
▁vyjádřil	-10.241
75	-10.2411
níky	-10.2411
vala	-10.2412
▁formul	-10.2413
▁Fr	-10.2413
▁Ri	-10.2414
▁pozitivní	-10.2414
klád	-10.2417
▁částí	-10.242
▁hlavních	-10.2421
šly	-10.2427
▁univerzit	-10.2427
▁kart	-10.2435
nova	-10.2436
▁příštího	-10.2439
▁zákazník	-10.2441
▁předmět	-10.2443
graf	-10.2445
▁stane	-10.2446
▁mini	-10.2449
▁údaj	-10.2452
▁jaderný	-10.2453
▁známo	-10.2453
ČS	-10.2464
▁hod	-10.2465
▁přísn	-10.2469
elné	-10.2479
ša	-10.2491
▁uvědom	-10.2497
▁týká	-10.2498
▁96	-10.2502
▁spol	-10.2503
▁hokej	-10.2514
▁Miroslav	-10.2514
▁Myslím	-10.2514
▁jména	-10.2514
▁organizací	-10.2514
▁perspektiv	-10.2514
▁tlačítko	-10.2514
▁zahájil	-10.2514
▁požádal	-10.2514
▁věnovat	-10.2515
▁historii	-10.2515
▁válce	-10.2515
▁následn	-10.2515
▁rozhlas	-10.2515
▁Inter	-10.252
▁Rozhod	-10.2521
▁roste	-10.2521
elná	-10.2526
▁vaší	-10.2533
skok	-10.2536
▁Česko	-10.2541
▁ztratil	-10.2543
▁Kor	-10.2544
85	-10.2547
roj	-10.2553
▁dar	-10.256
▁liší	-10.2566
▁politika	-10.2584
▁přesun	-10.2584
▁kontakt	-10.259
▁Ši	-10.2598
▁Bi	-10.2598
hrát	-10.26
▁jakou	-10.2604
▁soutěži	-10.2606
▁programy	-10.2612
▁vývoji	-10.2613
▁přeprav	-10.2615
▁Hol	-10.2618
▁režimu	-10.2618
gan	-10.262
tud	-10.2623
čan	-10.2624
lín	-10.2629
▁jediné	-10.263
JE	-10.2639
▁druhy	-10.2644
▁nedá	-10.2646
ins	-10.2653
▁doklad	-10.2662
padal	-10.2668
▁mechanik	-10.2671
tion	-10.2672
▁úst	-10.2672
ěkteří	-10.2677
▁obor	-10.2678
▁1995	-10.2678
▁jednoduché	-10.2678
▁nabízejí	-10.2678
▁považován	-10.2678
▁Někd	-10.2678
▁Základní	-10.2678
sloužil	-10.2678
▁snížil	-10.2679
▁špatné	-10.2679
▁zůstane	-10.2679
▁zvíře	-10.2679
dělit	-10.2679
▁tajemník	-10.2679
▁hormon	-10.2679
▁pivovar	-10.2679
celku	-10.2679
▁doktor	-10.2679
▁fa	-10.268
▁super	-10.2681
▁zimní	-10.2681
áním	-10.2683
▁pravidel	-10.2684
▁riziko	-10.269
ána	-10.2695
▁hotelu	-10.2698
▁úřadů	-10.2698
slovensk	-10.2699
▁abych	-10.2702
▁smlouva	-10.2706
▁déle	-10.272
/2	-10.2721
▁Stál	-10.2722
▁porazil	-10.2725
▁signál	-10.2729
▁programů	-10.2734
▁cesta	-10.2739
▁pevn	-10.2745
▁Ex	-10.2746
▁kultur	-10.2748
▁typů	-10.2752
▁Mám	-10.2752
▁hraje	-10.2756
lib	-10.2757
▁veškeré	-10.2776
▁zákazníků	-10.278
mark	-10.278
▁hranici	-10.2782
▁normální	-10.2783
▁barev	-10.2783
EC	-10.28
▁per	-10.2803
pustit	-10.2811
▁chud	-10.282
padají	-10.2824
držet	-10.2826
▁typy	-10.2827
jel	-10.283
out	-10.2834
▁Hlavní	-10.2837
▁pacientů	-10.2838
pracovat	-10.2838
▁republika	-10.2841
▁postih	-10.2841
▁existují	-10.2845
▁závazk	-10.2845
▁globální	-10.2845
▁monitor	-10.2845
▁sponzor	-10.2845
▁řidič	-10.2845
▁úterý	-10.2845
▁výbuch	-10.2845
▁iniciativ	-10.2845
▁kapalin	-10.2845
▁Lidé	-10.2845
▁včas	-10.2846
▁někdejší	-10.2846
▁Letos	-10.2847
▁šance	-10.2847
▁Fran	-10.285
▁pořad	-10.2851
▁žije	-10.2852
▁jestliže	-10.2852
▁lednu	-10.2854
▁budu	-10.2859
▁odst	-10.2865
▁Františ	-10.2867
věřit	-10.2867
▁končí	-10.2868
pořád	-10.2868
budete	-10.2872
▁soudí	-10.2872
▁muže	-10.2875
▁ruce	-10.288
tají	-10.2885
ony	-10.2887
▁stranu	-10.2895
▁hledání	-10.2899
▁symbol	-10.2901
▁malá	-10.2902
▁oblastí	-10.2904
▁kol	-10.2911
▁OS	-10.2911
▁Kam	-10.2912
▁dům	-10.2914
produkt	-10.2919
▁profesionální	-10.2921
▁získala	-10.2922
▁spokojen	-10.2925
▁jmen	-10.2928
▁skutečné	-10.2937
ičky	-10.2943
▁značné	-10.2945
▁Ci	-10.295
▁kapitálu	-10.295
jedno	-10.2954
▁problémem	-10.2959
▁Změn	-10.2962
▁podnikatelské	-10.2962
▁psa	-10.2964
▁bytu	-10.2965
▁fotbalový	-10.2973
▁4.	-10.2979
▁bit	-10.2984
▁novým	-10.2994
stávají	-10.2994
trh	-10.2998
▁patnáct	-10.3008
bytek	-10.301
znamená	-10.301
▁svému	-10.3012
▁vrátit	-10.3014
▁Federální	-10.3015
▁nejdříve	-10.3015
▁používat	-10.3015
▁trénink	-10.3015
▁Lékař	-10.3015
▁útvar	-10.3015
▁potíže	-10.3015
▁verzi	-10.3015
▁pěkn	-10.3015
▁mzdy	-10.3015
▁najednou	-10.3016
▁členství	-10.3017
praví	-10.3017
▁tabulky	-10.3018
▁výklad	-10.3018
▁shromáždění	-10.3018
▁vystoupení	-10.3021
▁Zdá	-10.3021
▁studie	-10.3022
operační	-10.3022
▁úmysl	-10.3023
▁zvlášť	-10.3024
▁sluš	-10.3027
▁odpověď	-10.3037
▁programové	-10.304
sty	-10.3043
▁třetím	-10.3045
yl	-10.3046
▁rozdělení	-10.3049
▁důchod	-10.305
▁investor	-10.3052
▁děje	-10.3056
ička	-10.3059
▁Chce	-10.3064
▁aut	-10.307
▁Nebo	-10.3076
▁lékařské	-10.308
▁probíh	-10.3081
▁Her	-10.3086
▁centru	-10.3089
izaci	-10.309
▁deník	-10.3091
▁starost	-10.3099
▁označení	-10.31
váží	-10.3101
▁vznikla	-10.3101
▁krajin	-10.3102
neme	-10.3109
▁sv	-10.3112
▁těsně	-10.3112
▁akcí	-10.3117
▁zprávu	-10.3118
▁délk	-10.3123
▁dávno	-10.3123
utí	-10.3124
▁vztahů	-10.3125
▁akcie	-10.3129
▁časem	-10.3138
▁nezbytn	-10.3154
▁počítači	-10.3162
hav	-10.3165
▁fin	-10.3176
▁případné	-10.318
▁Michael	-10.3187
▁katalog	-10.3187
▁primátor	-10.3187
▁prospěch	-10.3187
▁rozhodne	-10.3187
▁umožnil	-10.3187
▁výrobci	-10.3187
▁Československa	-10.3187
▁hospodaření	-10.3187
▁paragraf	-10.3187
▁domnívá	-10.3187
▁odpovídající	-10.3187
▁Nicméně	-10.3187
▁zaměstnanci	-10.3189
ČSL	-10.3189
rok	-10.3197
▁spočívá	-10.3198
▁nalezen	-10.3199
▁MB	-10.3201
▁sjezd	-10.3209
▁Sb	-10.321
▁soukromých	-10.3211
oma	-10.3217
▁záznamník	-10.322
▁pozici	-10.322
▁odpadů	-10.3227
▁vnější	-10.3235
▁počítat	-10.324
▁schopnost	-10.3245
▁pohybu	-10.3249
▁zaměstnavatel	-10.3252
▁objem	-10.3255
▁12.	-10.3258
▁scén	-10.3272
▁analýz	-10.3274
DA	-10.3275
▁podzim	-10.328
san	-10.3287
▁týdne	-10.329
▁posledním	-10.329
nesou	-10.3291
▁silné	-10.3302
▁prac	-10.331
též	-10.3316
šky	-10.3324
▁pracoval	-10.3328
▁umí	-10.3337
▁škole	-10.3342
▁britské	-10.3343
kázat	-10.3343
▁drah	-10.3348
rej	-10.3352
třel	-10.3359
vést	-10.3362
▁ruský	-10.3362
▁odběratel	-10.3362
▁odvětví	-10.3362
▁uchazeč	-10.3362
▁firmu	-10.3362
▁hrozí	-10.3362
▁mozku	-10.3362
▁Tomáš	-10.3363
▁propag	-10.3363
▁Dále	-10.3363
▁hovor	-10.3364
▁Pohár	-10.3365
▁hledat	-10.3366
▁DNA	-10.3369
▁prvků	-10.337
race	-10.337
▁horší	-10.337
▁mnozí	-10.3373
▁dluh	-10.3374
▁Čern	-10.3374
zaměstnan	-10.3376
▁získali	-10.3378
▁Nad	-10.3381
razit	-10.3398
▁půdě	-10.3402
▁letošním	-10.3409
Ř	-10.3412
▁ukázal	-10.3416
▁vědomí	-10.3421
▁region	-10.3423
ór	-10.3424
▁poměru	-10.3428
▁Bur	-10.3428
▁platnost	-10.3432
▁dovoz	-10.3443
náší	-10.3449
▁budoucnost	-10.3455
▁díla	-10.3461
ičtí	-10.3465
▁Rus	-10.3467
▁poháru	-10.3469
volal	-10.3474
▁teploty	-10.348
▁jiném	-10.3492
▁zemědělské	-10.3495
▁vědeck	-10.3499
▁uložen	-10.35
▁lov	-10.3501
▁rozvoje	-10.3502
ráže	-10.3509
razí	-10.3512
▁uzavření	-10.3518
▁metody	-10.3523
▁neroz	-10.3525
ativní	-10.353
▁ochranu	-10.3531
znamenat	-10.3541
▁aplikací	-10.3541
▁problematik	-10.3541
▁upozornil	-10.3541
▁zdůraznil	-10.3541
▁Československo	-10.3541
▁Existuj	-10.3541
▁natolik	-10.3541
▁výrobě	-10.3541
▁informoval	-10.3541
▁výroba	-10.3541
▁rodiče	-10.3541
▁tudíž	-10.3541
▁podpory	-10.3541
▁nechtěl	-10.3541
▁bankovní	-10.3541
jedině	-10.3542
▁reprezentace	-10.3542
▁zmíněné	-10.3543
koupí	-10.3547
▁limit	-10.355
▁částečně	-10.3551
▁vytváření	-10.3552
▁obecně	-10.3555
▁účasti	-10.3558
▁křiv	-10.3558
řez	-10.3559
hraje	-10.3559
stane	-10.3564
čili	-10.3566
▁zad	-10.3568
▁vlastností	-10.3579
▁centrální	-10.3586
▁zavedení	-10.3588
▁Poté	-10.3593
▁rizik	-10.3596
▁záležitost	-10.3597
▁zpráva	-10.3605
▁režim	-10.3607
land	-10.3611
▁Švédsk	-10.3619
ůj	-10.3624
jíž	-10.3629
jen	-10.363
▁karty	-10.364
▁hospodářsk	-10.3647
inak	-10.3653
▁účastníků	-10.3653
jímá	-10.3656
tickou	-10.366
▁dílo	-10.3662
počátku	-10.3665
▁umístěn	-10.367
padlo	-10.3672
telné	-10.3673
působit	-10.3675
MI	-10.3691
▁pohledu	-10.3702
▁dalšími	-10.3702
▁přinesl	-10.3704
▁Hus	-10.3708
brat	-10.3709
▁různ	-10.371
▁důvodu	-10.3711
▁Fo	-10.3715
rám	-10.372
▁neexistuje	-10.3723
▁odpoledne	-10.3723
▁připojištění	-10.3723
▁rozhodčí	-10.3723
▁paměti	-10.3723
▁stimul	-10.3723
▁pomalu	-10.3723
▁vyloučen	-10.3723
▁kvalifikaci	-10.3724
▁Americk	-10.3724
▁Milan	-10.3728
▁česká	-10.3729
▁připomíná	-10.373
tát	-10.373
▁měnit	-10.3731
▁anti	-10.3732
▁Musí	-10.3733
▁oblastech	-10.3736
dostala	-10.3737
▁svědčí	-10.3739
ňují	-10.374
▁povinn	-10.374
žijí	-10.374
▁organismu	-10.3741
▁nynější	-10.3752
▁Ústav	-10.3764
▁kapitál	-10.3774
▁směr	-10.3777
▁kup	-10.378
▁Slovenska	-10.3781
▁19.	-10.3783
▁pop	-10.3784
▁zkušenost	-10.3784
▁materiálů	-10.3789
▁mé	-10.379
▁kvalit	-10.3791
bývají	-10.3795
ité	-10.3804
ica	-10.381
▁významné	-10.381
dor	-10.3812
▁pozná	-10.3813
▁potřeba	-10.3825
nést	-10.3826
▁loňském	-10.3828
pětí	-10.3829
▁ztráty	-10.3835
▁radi	-10.3836
izované	-10.3838
▁zraněn	-10.384
▁Nejs	-10.3842
▁vyrovná	-10.3849
▁brněnské	-10.3851
▁dohodu	-10.3858
▁The	-10.3862
▁poloviny	-10.3862
▁nejvíc	-10.3863
▁náhradní	-10.3865
▁vzájemné	-10.3865
bel	-10.3867
▁děj	-10.3872
TE	-10.3874
▁obrazu	-10.3882
und	-10.3882
▁graf	-10.3897
▁kód	-10.39
▁forma	-10.3903
▁chat	-10.3906
▁rádi	-10.3906
▁Itálie	-10.3908
▁Ovšem	-10.3908
▁Program	-10.3908
▁konflikt	-10.3908
▁rozliš	-10.3908
▁spolehliv	-10.3908
▁výhradn	-10.3908
▁zveřejněn	-10.3908
▁úspěšně	-10.3908
▁neustále	-10.3908
▁stránce	-10.3908
▁minimální	-10.3908
▁rychlé	-10.3908
▁desetiletí	-10.3908
▁snažil	-10.3908
▁praxe	-10.3908
▁záchran	-10.3908
▁chorob	-10.3908
▁vysíla	-10.3908
▁dodnes	-10.3908
hlédnout	-10.3908
▁KSČM	-10.3909
▁pouhý	-10.3909
▁regionální	-10.391
▁úsek	-10.391
▁nicméně	-10.3911
▁vyjádření	-10.3911
▁desítek	-10.3912
▁Ministr	-10.3916
▁zdejší	-10.3916
▁přístroje	-10.3916
▁Ostravě	-10.3919
▁Ital	-10.392
▁vybrat	-10.3924
▁žena	-10.3938
▁činitel	-10.3941
▁slev	-10.3943
▁určitou	-10.3944
▁silnic	-10.3945
▁ročník	-10.3965
áků	-10.3968
▁vlastnost	-10.3974
▁roh	-10.3978
▁návrat	-10.3981
▁soustavy	-10.3983
KU	-10.3984
▁musím	-10.3993
▁kont	-10.4
▁Nez	-10.4001
▁nastal	-10.4001
▁Bre	-10.4002
▁voda	-10.4012
▁Or	-10.4029
▁určit	-10.4044
▁občanské	-10.4045
▁vzal	-10.4052
▁Tam	-10.4052
▁standardní	-10.4058
▁rozhovoru	-10.4059
▁autorů	-10.4062
kář	-10.4071
▁Char	-10.4072
▁odboru	-10.4075
▁značn	-10.4081
bili	-10.4084
▁vývozu	-10.4091
▁zpráv	-10.4093
IC	-10.4096
▁Olymp	-10.4097
▁Karadžič	-10.4097
▁Všichni	-10.4097
▁náměstek	-10.4097
▁poptávky	-10.4097
▁profesor	-10.4097
▁zvítězil	-10.4097
▁zúčastnil	-10.4097
▁jednoduchý	-10.4097
▁špatně	-10.4097
▁teoretick	-10.4097
▁Naopak	-10.4097
▁skvěl	-10.4097
▁jediná	-10.4097
▁poslance	-10.4097
▁Snad	-10.4098
▁čtení	-10.4099
▁odborníci	-10.4099
▁kostel	-10.41
▁zaměstnance	-10.41
▁video	-10.41
▁nabídl	-10.4102
▁koncentrace	-10.4103
▁potřebují	-10.4103
▁měření	-10.4103
▁Výstav	-10.4104
▁registr	-10.4104
▁okna	-10.4105
▁produktů	-10.4105
ller	-10.4107
▁atlet	-10.4109
hání	-10.4116
čila	-10.4122
▁drobn	-10.4123
MO	-10.413
▁II	-10.4131
▁přestup	-10.4131
oři	-10.4135
▁totem	-10.4137
▁záležitostí	-10.4138
▁italské	-10.4139
▁vychází	-10.4143
ekonomický	-10.4143
▁stovky	-10.4145
▁problému	-10.4154
▁automaticky	-10.4155
▁zrušení	-10.4162
▁závodu	-10.4163
▁vzduchu	-10.4164
níku	-10.4174
▁pohár	-10.4176
▁29	-10.4179
▁rozsahu	-10.4182
▁reálné	-10.4193
ovky	-10.4198
▁dopad	-10.4201
▁nástroj	-10.4202
▁představují	-10.4212
ňovat	-10.4214
▁lidsk	-10.4214
▁zlom	-10.4226
▁optim	-10.4232
▁činností	-10.4238
bla	-10.424
▁neměli	-10.4249
▁čekají	-10.4249
▁ústavní	-10.425
tická	-10.4256
valy	-10.4257
ovského	-10.4258
▁zajímav	-10.4281
▁Evropsk	-10.4288
▁investovat	-10.4289
▁Ředitel	-10.4289
▁upraven	-10.4289
▁mladé	-10.4289
▁historie	-10.4289
▁zakázk	-10.4289
▁turistů	-10.4289
▁zbraně	-10.4289
▁bydlení	-10.4289
bavit	-10.4289
▁věnoval	-10.4289
povídají	-10.429
▁domácím	-10.429
▁pojetí	-10.429
▁zápis	-10.429
▁nechat	-10.4291
▁řádu	-10.4295
▁lidmi	-10.4295
▁krátce	-10.4299
▁dodávky	-10.4304
▁pohybuje	-10.4305
▁rozpad	-10.4308
▁filmu	-10.4308
▁zákonem	-10.4308
sát	-10.4311
▁pozice	-10.4311
▁soutěží	-10.4318
▁vlastním	-10.4324
▁No	-10.4324
▁šampionátu	-10.4331
▁obecní	-10.4335
▁dob	-10.4335
▁hodnota	-10.4336
▁domě	-10.434
70	-10.4342
▁Soud	-10.4349
▁voličů	-10.4358
▁Sam	-10.4362
TO	-10.4364
vítá	-10.4378
▁dostává	-10.4381
▁17.	-10.4387
▁provedení	-10.4387
▁Ad	-10.4395
▁omezení	-10.4397
▁Olomouc	-10.4398
▁úspěchu	-10.4399
▁silný	-10.4401
▁postav	-10.4403
VA	-10.4406
bezpeč	-10.4407
▁Kla	-10.4411
▁výchov	-10.4419
▁ano	-10.442
▁mně	-10.4421
▁využívá	-10.4425
▁obviněn	-10.4426
▁činil	-10.4428
▁dodavatel	-10.443
rst	-10.4431
▁investic	-10.4435
▁objev	-10.4436
▁nejdůležitější	-10.4438
▁troj	-10.4441
jal	-10.4442
▁rychlosti	-10.4444
sadil	-10.4447
▁nájemné	-10.4449
rní	-10.445
▁jinými	-10.4451
▁námi	-10.4456
SA	-10.4464
▁podstat	-10.447
48	-10.4472
▁přestáv	-10.4473
▁zub	-10.4478
▁distribu	-10.4484
▁Především	-10.4485
▁elektrárny	-10.4485
▁měsíčně	-10.4485
▁umožní	-10.4485
▁úspěšné	-10.4485
▁Richard	-10.4485
▁minimálně	-10.4485
▁snížit	-10.4485
▁Spojené	-10.4485
▁zvýšit	-10.4485
▁úsilí	-10.4485
▁srovnateln	-10.4485
▁seminář	-10.4486
▁dní	-10.4486
▁snímky	-10.4486
▁setkal	-10.4486
▁tvorbu	-10.4486
▁míře	-10.4486
▁doslova	-10.4486
▁poškození	-10.4487
▁kritik	-10.4487
▁Češi	-10.4491
▁nucen	-10.4492
▁celek	-10.4493
▁pravdu	-10.4494
▁myší	-10.4495
▁materiálu	-10.4496
▁nejlepším	-10.4499
▁osmdesát	-10.4499
▁ochot	-10.4502
iletý	-10.4504
ečná	-10.4506
▁zobrazení	-10.4508
▁návrhy	-10.4508
▁správně	-10.4512
▁okolností	-10.4514
pust	-10.4522
▁různým	-10.4522
▁sobotní	-10.4523
▁anglické	-10.4523
▁samotné	-10.4526
▁konstru	-10.4532
▁cestě	-10.4533
▁žádném	-10.4533
pád	-10.4535
▁policistů	-10.4536
▁černé	-10.4544
▁žádná	-10.4545
▁potenciál	-10.4546
▁červen	-10.4547
▁rozvod	-10.4548
▁mistrů	-10.4551
▁znát	-10.4551
▁domácích	-10.4556
▁cítí	-10.4559
▁Ano	-10.4562
ier	-10.4568
▁moravsk	-10.4574
ral	-10.4578
▁třídy	-10.4581
▁festivalu	-10.4581
vající	-10.4588
ON	-10.459
▁600	-10.4593
▁technick	-10.4597
▁centrum	-10.4598
▁zjistil	-10.4598
▁nese	-10.4598
lze	-10.4605
▁konstatoval	-10.4605
hel	-10.4606
▁soupeře	-10.4607
entní	-10.4607
mile	-10.4609
▁dodat	-10.4615
▁temp	-10.4622
▁neznám	-10.4628
▁vést	-10.4638
děk	-10.464
ŘE	-10.4646
▁vzniká	-10.4648
▁PowerPointu	-10.4653
▁dítě	-10.4659
▁oper	-10.466
▁poklesu	-10.4674
šování	-10.4678
▁polovina	-10.4684
▁existence	-10.4685
▁konkurenční	-10.4685
▁matematik	-10.4685
▁pojišťovny	-10.4685
▁rozhodování	-10.4685
▁ČNR	-10.4685
▁Samozřejmě	-10.4685
▁úspěšný	-10.4685
▁širší	-10.4685
▁divadla	-10.4685
▁editor	-10.4685
▁půjde	-10.4685
▁výskyt	-10.4685
▁sdělení	-10.4685
▁nabídka	-10.4685
▁úvodní	-10.4685
▁Řad	-10.4686
▁Vznik	-10.4689
▁obsadil	-10.469
▁mysli	-10.469
▁celní	-10.469
kin	-10.4691
▁strach	-10.4691
▁představení	-10.4693
▁úraz	-10.4695
▁Muž	-10.4697
▁dobrovoln	-10.4698
▁nezávislých	-10.4701
▁myšlení	-10.4701
okr	-10.4704
▁letní	-10.4705
▁povrchu	-10.4707
▁společenské	-10.4711
▁výdaje	-10.4713
ějším	-10.4713
▁nastoupil	-10.4717
▁krásn	-10.4718
hladov	-10.4719
LO	-10.472
▁nemoci	-10.472
kož	-10.4735
▁technický	-10.4744
▁podnikatelé	-10.4745
▁generál	-10.4758
istů	-10.476
▁Proti	-10.4762
▁klima	-10.4767
ologické	-10.4774
▁nebyli	-10.4777
▁vysokých	-10.4783
▁fan	-10.4794
▁zákazníky	-10.4796
▁zaměřen	-10.4798
▁Indi	-10.4801
▁půdy	-10.4805
▁Ře	-10.4806
▁posíl	-10.4815
▁Slovensko	-10.4831
▁okraj	-10.4833
▁resort	-10.4837
▁klade	-10.4837
kládání	-10.484
▁úpravy	-10.4849
▁skupinu	-10.4852
státní	-10.4853
hodil	-10.4864
mot	-10.4867
▁uspořáda	-10.4868
počíta	-10.4878
▁bezpečnost	-10.488
padne	-10.488
▁společn	-10.488
▁chemické	-10.4882
rna	-10.4888
▁Němci	-10.4889
▁alkohol	-10.4889
▁církve	-10.4889
▁nábožensk	-10.4889
▁týdny	-10.4889
▁usnesení	-10.4889
▁surovin	-10.4889
▁nízké	-10.4889
▁odmítá	-10.4889
▁fotograf	-10.4889
▁kolegy	-10.4889
▁zapotřebí	-10.489
▁přišla	-10.489
▁vražd	-10.489
▁1988	-10.489
▁privatizační	-10.4891
▁zbytk	-10.4891
▁prodá	-10.4893
▁Teď	-10.4893
▁létě	-10.4894
kombin	-10.4895
▁maximáln	-10.4898
▁hodinu	-10.4899
▁StB	-10.49
ujte	-10.4913
▁účastní	-10.4915
soci	-10.4917
▁žijící	-10.4924
▁vůle	-10.4925
▁výuk	-10.4929
▁mladých	-10.4934
▁postaven	-10.4935
lis	-10.4936
▁odpadní	-10.494
▁tříd	-10.4942
▁armáda	-10.4943
▁přímé	-10.4945
▁zájmy	-10.4946
▁rozporu	-10.4951
▁porušení	-10.4951
▁představitelů	-10.4953
▁důsledky	-10.4954
▁cm	-10.4957
letěl	-10.4958
▁pomohl	-10.4959
kupní	-10.4959
▁Chorvatsk	-10.4961
▁lidského	-10.4965
▁založil	-10.4966
▁Internetu	-10.4975
▁čisté	-10.4977
▁německého	-10.4983
han	-10.4986
▁uvedený	-10.4987
▁původu	-10.4988
▁německých	-10.4989
▁Kde	-10.4994
▁regul	-10.4994
▁automobilů	-10.5
▁velikosti	-10.5009
▁daňový	-10.5019
volat	-10.5021
vodí	-10.503
▁nehod	-10.5033
▁předsed	-10.5033
▁mluví	-10.5038
dol	-10.5039
▁dřív	-10.505
zemní	-10.5051
▁formát	-10.5052
▁20.	-10.5053
▁prodejní	-10.5061
▁částka	-10.5069
spal	-10.5092
▁speciali	-10.5095
▁33	-10.5095
▁Egypt	-10.5097
▁Moskvě	-10.5097
▁firmou	-10.5097
▁nabízen	-10.5097
▁pokračoval	-10.5097
▁technologií	-10.5097
▁zvyšuje	-10.5097
▁Druhý	-10.5097
▁mužstva	-10.5097
▁populace	-10.5097
▁třináct	-10.5097
▁vynikající	-10.5097
▁dětské	-10.5098
▁spisovatel	-10.5098
▁Třetí	-10.5098
▁devíti	-10.5098
▁dovolené	-10.5098
KDU	-10.5098
▁štěstí	-10.5098
▁ihned	-10.5098
▁Francii	-10.5098
▁Předseda	-10.5098
▁Pomuku	-10.5098
▁Bush	-10.5098
▁funkční	-10.5098
▁reprezentační	-10.5098
▁tábor	-10.5099
objednáv	-10.51
vzdor	-10.51
▁spotřební	-10.51
běhl	-10.5101
vir	-10.5101
▁Více	-10.5102
▁Boris	-10.5103
▁mluvit	-10.5105
▁bomb	-10.5105
▁obce	-10.5107
▁obětí	-10.5107
▁Místo	-10.5109
▁šok	-10.511
▁vyrovnan	-10.5111
▁rozhodla	-10.5112
▁úmrtnosti	-10.5115
▁úrok	-10.5117
▁Avšak	-10.5119
ticky	-10.512
▁podklad	-10.5124
▁stačil	-10.5125
▁18.	-10.5126
▁přichází	-10.5131
▁těla	-10.5134
▁barevné	-10.5135
▁představy	-10.5137
▁nemocnici	-10.5137
ston	-10.5139
▁zastoupení	-10.5141
▁obavy	-10.516
▁všeho	-10.5171
▁směn	-10.5178
▁příležitost	-10.5184
▁Dobr	-10.5187
▁řeči	-10.5188
▁Jižní	-10.5189
hlásí	-10.5191
psané	-10.5195
▁prodává	-10.5196
▁správné	-10.5197
bírá	-10.5202
▁oni	-10.5211
▁studiu	-10.5214
▁lesní	-10.5223
▁nepod	-10.5228
▁0,	-10.5233
znamenal	-10.5236
▁molekuly	-10.5244
▁realit	-10.5246
▁ročníku	-10.5246
▁doprav	-10.525
▁jednoznačn	-10.5252
▁nebezpečn	-10.5257
▁pražsk	-10.5257
▁příštích	-10.5263
▁Belgi	-10.5265
▁hrají	-10.5268
▁Spo	-10.5276
▁setká	-10.5283
▁Val	-10.5284
▁krátké	-10.5287
▁pražském	-10.5287
▁dostih	-10.5296
kládají	-10.5299
▁vážně	-10.5303
▁českým	-10.5307
▁Španěl	-10.5308
▁financování	-10.531
▁konkurenci	-10.531
▁magistrát	-10.531
▁nakladatelství	-10.531
▁sledovat	-10.531
▁tehdejší	-10.531
▁transformace	-10.531
▁výsledkem	-10.531
▁zlepšení	-10.531
▁úmrtí	-10.531
▁mládež	-10.531
▁negativní	-10.531
▁rozhodnout	-10.531
▁budoucnu	-10.531
▁příjmu	-10.531
▁civilní	-10.531
▁zabránit	-10.531
▁souvisí	-10.531
▁Vláda	-10.531
▁cukr	-10.531
▁Slavie	-10.5311
▁jedinou	-10.5311
▁Kanad	-10.5311
▁Zájem	-10.5312
▁velkým	-10.5313
▁dlužník	-10.5313
▁PCB	-10.5313
▁Euro	-10.5313
▁mladí	-10.5313
▁překvapení	-10.5313
▁operace	-10.5313
▁střet	-10.5313
▁Wales	-10.5313
▁takzvan	-10.5316
80	-10.5322
▁Vedle	-10.5322
▁postupu	-10.5322
▁přítel	-10.5325
týká	-10.5334
▁jižní	-10.5334
▁formou	-10.5337
▁zaplatit	-10.5338
▁produktu	-10.5339
▁výhodné	-10.5345
▁(2	-10.5349
▁vyzval	-10.535
▁UK	-10.536
skal	-10.5365
▁prodat	-10.5368
▁byty	-10.5371
▁povinností	-10.5372
▁jezdí	-10.5376
▁výstavb	-10.5378
▁snaha	-10.538
faktor	-10.5381
lidov	-10.5383
▁starých	-10.5387
▁celkový	-10.5388
▁největším	-10.5389
▁kroky	-10.5391
▁3000	-10.5397
▁příležitosti	-10.5398
▁zbytečné	-10.5403
pracuje	-10.5405
▁zvukov	-10.5412
▁modern	-10.5413
hodnotí	-10.5418
▁napětí	-10.5419
▁vlád	-10.5419
▁vstupu	-10.542
hřeb	-10.5432
▁hře	-10.5436
kova	-10.5439
▁novém	-10.5442
▁západ	-10.5442
▁soustav	-10.5444
▁komor	-10.5458
▁jakých	-10.5462
▁zobraz	-10.5464
▁partnery	-10.547
ejména	-10.5472
▁účely	-10.5482
ráží	-10.5484
▁škola	-10.5484
▁dojde	-10.5487
▁32	-10.549
působil	-10.5492
▁ekonom	-10.5492
hradí	-10.5494
▁klíč	-10.5495
dařilo	-10.5504
▁noviny	-10.5505
lární	-10.5505
▁Obě	-10.5509
▁zápasy	-10.551
▁On	-10.5512
▁historické	-10.5518
▁pracovníky	-10.5519
▁někde	-10.5527
▁Ostatně	-10.5528
▁Plzeň	-10.5528
▁Sdružení	-10.5528
▁astronom	-10.5528
▁služba	-10.5528
▁záleží	-10.5528
▁červnu	-10.5528
▁rekreační	-10.5528
▁přiznání	-10.5528
▁účetní	-10.5528
▁porovnání	-10.5528
▁krize	-10.5528
▁navrhl	-10.5528
▁sítí	-10.553
▁výrok	-10.553
▁Výbor	-10.5532
Švýcarsk	-10.5533
▁Ačkoli	-10.5533
▁místnosti	-10.5534
▁úzk	-10.5535
▁obrázek	-10.5536
▁zahrad	-10.5539
▁neměla	-10.5541
fyzikální	-10.5542
chůd	-10.5543
▁požár	-10.5546
▁195	-10.5546
▁začátkem	-10.5548
▁přináší	-10.5548
ria	-10.5551
▁udržet	-10.5553
tických	-10.5557
▁jednotky	-10.5557
▁pozorovatel	-10.5566
sion	-10.5568
▁znalosti	-10.557
▁zápasu	-10.5574
▁příslušný	-10.5574
▁dostali	-10.5577
Ú	-10.5579
▁Washingtonu	-10.558
▁jasně	-10.5584
▁prodávat	-10.5585
▁hodnotě	-10.5586
▁starý	-10.5587
▁lesy	-10.5593
▁způsoben	-10.5593
▁strojů	-10.5596
▁turnaje	-10.5597
ouze	-10.5602
▁nemáme	-10.5604
▁dán	-10.5605
▁historický	-10.5609
▁Moravy	-10.5612
▁nákladní	-10.5624
▁školní	-10.5628
▁past	-10.5632
▁dvoj	-10.5633
stával	-10.5634
▁Firm	-10.5634
při	-10.5641
▁staro	-10.5646
▁Man	-10.5648
▁nezávislost	-10.5651
skými	-10.5654
▁Ruska	-10.5656
▁váh	-10.5657
stavit	-10.566
▁pražského	-10.566
▁třiceti	-10.5662
▁Bor	-10.5679
mého	-10.5686
▁všemi	-10.5686
▁schválen	-10.5692
▁vědom	-10.5694
▁120	-10.5713
▁elektro	-10.5715
▁trenéra	-10.5721
▁hlad	-10.5721
▁tamní	-10.5727
▁americk	-10.5734
▁vedením	-10.5737
▁oči	-10.5738
NS	-10.5745
▁vyspělý	-10.5745
▁Bratislavě	-10.575
▁dividend	-10.575
▁kompromis	-10.575
▁monopol	-10.575
▁odpověděl	-10.575
▁otázce	-10.575
▁stadión	-10.575
▁týdnů	-10.575
▁uskuteční	-10.575
▁nabídnout	-10.575
▁Návrh	-10.575
▁Nakonec	-10.575
▁stížnost	-10.575
▁péči	-10.575
▁Graf	-10.575
▁podpora	-10.575
▁žalob	-10.575
▁interak	-10.575
▁dovolit	-10.575
▁server	-10.5751
▁nepodařilo	-10.5752
▁kategorie	-10.5752
nášejí	-10.5753
▁žlut	-10.5754
▁okno	-10.5754
▁Podnik	-10.5755
▁nedostatek	-10.5756
▁připravit	-10.576
▁vložen	-10.5762
▁modelů	-10.5767
ismem	-10.5767
▁partnerů	-10.5768
▁prvky	-10.5772
▁Brno	-10.5774
▁stará	-10.5776
povídá	-10.5777
▁zjistit	-10.5781
▁místy	-10.5782
▁PC	-10.5782
▁vyvíj	-10.5783
▁tajné	-10.5783
▁jaterní	-10.5784
▁provést	-10.579
▁přiznal	-10.5793
▁nezaměstnanosti	-10.5806
▁bot	-10.5806
▁návštěvě	-10.5807
▁buňky	-10.5809
▁malou	-10.581
▁získání	-10.5817
▁něž	-10.5817
▁domácnosti	-10.582
▁stanici	-10.5829
▁vědecký	-10.5833
▁hledá	-10.5836
▁okrese	-10.5837
▁vojenský	-10.5846
▁případu	-10.5848
▁událost	-10.5851
pálen	-10.5852
▁osobně	-10.5856
▁Morav	-10.5857
▁česko	-10.586
▁víkend	-10.5861
▁Evropský	-10.587
▁expert	-10.5876
▁prodal	-10.5876
ební	-10.588
▁nevím	-10.5881
far	-10.5885
▁druhým	-10.5888
86	-10.5895
▁stejném	-10.5904
▁přeměn	-10.5918
▁slovy	-10.5923
▁přítomn	-10.5934
vádějí	-10.5957
IL	-10.5959
hovořil	-10.5962
▁partnera	-10.5971
▁Slov	-10.5974
▁začalo	-10.5977
▁existenci	-10.5977
▁funguje	-10.5977
▁křesťan	-10.5977
▁otevření	-10.5977
▁otázek	-10.5977
▁pojišťovna	-10.5977
▁rozhodovat	-10.5977
▁vyšetřování	-10.5977
▁advokát	-10.5977
▁poskytnut	-10.5977
▁Slunce	-10.5977
▁lokalit	-10.5977
▁ostatně	-10.5977
▁přání	-10.5977
▁vytvoří	-10.5977
▁vyberte	-10.5977
▁situací	-10.5977
▁legend	-10.5977
▁islám	-10.5977
▁Znamen	-10.5977
▁letadla	-10.5977
▁zůstávají	-10.5977
▁dlouhodobé	-10.5978
▁žádá	-10.5978
▁stáří	-10.5978
▁molekulární	-10.5979
▁aktuální	-10.5979
▁operaci	-10.598
▁pochod	-10.5981
▁míní	-10.5982
▁SRN	-10.5982
pozoruhodn	-10.5983
▁církev	-10.5983
▁protein	-10.5984
▁Obecn	-10.5986
▁vystudoval	-10.5987
▁státním	-10.5988
LU	-10.5989
cc	-10.5989
▁zájemců	-10.5989
▁fakultě	-10.5989
▁realiz	-10.5993
▁filmů	-10.5996
▁Mat	-10.5996
bíd	-10.5997
▁případy	-10.5998
▁širok	-10.6
▁vypadá	-10.6001
▁západních	-10.6002
▁doplň	-10.6002
▁sezóně	-10.6003
▁formě	-10.6004
OVÁ	-10.6004
▁změní	-10.6007
▁Rusk	-10.6009
▁fakulty	-10.6009
▁16.	-10.601
▁koruny	-10.6012
▁tiskov	-10.6022
▁potřeboval	-10.6026
munist	-10.6028
▁zjištění	-10.603
▁Brna	-10.6032
▁El	-10.6033
▁nájemného	-10.6037
▁členem	-10.6041
▁dobrou	-10.6042
ováni	-10.6044
▁nástroje	-10.6044
éměř	-10.6044
▁trvale	-10.6045
▁návštěvníků	-10.6054
kovat	-10.6058
▁Mark	-10.6061
▁přicházejí	-10.6062
▁komory	-10.607
▁složen	-10.6073
▁odstup	-10.6091
▁spojené	-10.6092
▁víkendu	-10.6094
▁docela	-10.6099
▁most	-10.6101
▁ministrů	-10.6104
▁obyvatelé	-10.6106
▁označen	-10.6107
▁čeho	-10.6112
tání	-10.6121
▁struktury	-10.6125
▁brankář	-10.6129
▁metoda	-10.6145
▁pobytu	-10.6146
part	-10.6151
▁vojensk	-10.6152
platí	-10.6157
ZE	-10.6159
▁takovým	-10.6161
▁cíle	-10.6164
▁Německ	-10.6168
▁přístroj	-10.6169
▁začaly	-10.6172
nických	-10.6176
▁Auto	-10.618
▁Mal	-10.618
age	-10.6183
▁zjištěn	-10.6189
▁škod	-10.6193
ložení	-10.6193
▁církevní	-10.6203
Sc	-10.6208
▁laboratoř	-10.621
▁Anglie	-10.621
▁Nejvyšší	-10.621
▁disciplín	-10.621
▁institucí	-10.621
▁literatur	-10.621
▁mladší	-10.621
▁nejčastěji	-10.621
▁příspěvek	-10.621
▁software	-10.621
▁přispěl	-10.621
▁rodičů	-10.621
▁nestačí	-10.621
▁pochopitelně	-10.621
▁organizační	-10.621
▁účinnost	-10.621
▁přinejmenším	-10.621
▁předpisů	-10.621
▁souboj	-10.621
▁vlastnictví	-10.621
▁Polici	-10.621
▁dráhy	-10.6211
▁přijít	-10.6211
▁tvorby	-10.6212
▁zabezpečení	-10.6212
▁podobu	-10.6212
▁rozdíly	-10.6214
▁výplat	-10.6214
▁poruch	-10.6215
▁vrátí	-10.6215
▁kontrolu	-10.6215
▁Střed	-10.6216
▁vědců	-10.6217
▁poznatky	-10.6217
▁Stačí	-10.6217
▁klubů	-10.6221
▁přijmout	-10.6225
▁Bosně	-10.6225
▁ekonomických	-10.6226
▁zničen	-10.6229
hodnou	-10.6229
▁modelu	-10.6229
▁produk	-10.6231
▁Králové	-10.6233
▁vozů	-10.6234
▁nemusel	-10.6235
▁policisté	-10.624
ejme	-10.624
▁postižené	-10.6244
cker	-10.6244
▁hodinách	-10.6244
▁uznání	-10.6246
▁předsedou	-10.6251
▁nezávisl	-10.6253
▁levnější	-10.6253
▁George	-10.6253
▁smut	-10.6255
▁dohoda	-10.6258
▁obsahu	-10.626
▁léky	-10.6261
▁obrazovky	-10.6264
▁Er	-10.6267
áček	-10.6276
▁věk	-10.6276
izační	-10.6277
ěřitel	-10.6278
▁komplexní	-10.6286
▁ideální	-10.6287
▁Št	-10.6293
▁Olomouci	-10.6314
▁uvažuje	-10.6318
▁čekal	-10.632
▁Hr	-10.6321
staral	-10.6324
▁skutečný	-10.633
▁starosti	-10.6332
▁festival	-10.6332
▁sekund	-10.6332
▁českou	-10.6334
▁obran	-10.6339
▁prostory	-10.635
▁českém	-10.6351
▁fyziky	-10.6355
▁zápasů	-10.636
▁obdobn	-10.6363
průměr	-10.6364
nedávn	-10.637
▁prodeji	-10.6375
▁zvýšen	-10.6383
▁vydává	-10.6386
může	-10.639
▁Har	-10.6397
▁ministrem	-10.6402
▁auta	-10.6406
musela	-10.6406
▁milion	-10.641
▁vlast	-10.6411
▁původ	-10.6411
▁věděl	-10.6412
▁novinářů	-10.6416
▁Stát	-10.6418
dostanou	-10.6419
▁plochy	-10.642
▁pojme	-10.6422
▁volně	-10.6422
▁Kap	-10.6422
▁pacienta	-10.6422
▁vzrostl	-10.6427
ODS	-10.6428
▁krátk	-10.6435
▁částic	-10.6438
ruší	-10.6439
tak	-10.6442
15	-10.6446
▁Anglii	-10.6448
▁Jaromír	-10.6448
▁Microsoft	-10.6448
▁NHL	-10.6448
▁duchovní	-10.6448
▁francouzské	-10.6448
▁jménem	-10.6448
▁medaile	-10.6448
▁navzájem	-10.6448
▁odpovědi	-10.6448
▁sortiment	-10.6448
▁tvůrc	-10.6448
▁uzavřít	-10.6448
▁veřejně	-10.6448
▁využívat	-10.6448
▁zabývat	-10.6448
▁zástupců	-10.6448
▁článek	-10.6448
▁manipul	-10.6448
▁mužstvo	-10.6448
▁Major	-10.6448
▁měřítk	-10.6448
▁asociace	-10.6448
▁poskytují	-10.6448
▁řetěz	-10.6448
▁konzul	-10.6448
▁dětem	-10.6448
▁ČEZ	-10.6448
▁chvíle	-10.6448
▁sfér	-10.6448
▁požadavek	-10.6448
▁bolest	-10.6448
▁zhorš	-10.6449
▁Chtěl	-10.645
▁okolní	-10.6453
▁risk	-10.6454
▁venkov	-10.6458
▁Odbor	-10.6458
▁hrob	-10.6459
▁výpočetní	-10.646
▁třikrát	-10.6462
▁Slav	-10.6462
▁dres	-10.6465
▁vzdálen	-10.6465
▁disket	-10.6465
▁red	-10.6465
▁Prav	-10.6467
ány	-10.649
soudil	-10.6491
bod	-10.6496
▁týkající	-10.6499
▁Paul	-10.65
▁ulice	-10.6501
volání	-10.6504
▁zemské	-10.6507
▁sloup	-10.6507
▁majitele	-10.6509
▁pracující	-10.6513
rum	-10.6517
▁umístění	-10.652
12	-10.6521
▁obecné	-10.6521
▁praktické	-10.6524
▁osobnosti	-10.6525
▁účastník	-10.6533
stupovat	-10.6534
▁Jedin	-10.6535
▁Takové	-10.6536
▁250	-10.6543
▁Dvě	-10.6544
▁používání	-10.6545
▁55	-10.6547
spraš	-10.6549
▁výstavby	-10.6549
▁Profitu	-10.6554
▁fondů	-10.6563
▁žádost	-10.6565
▁minulém	-10.6567
▁obsahující	-10.6569
▁stanovení	-10.6569
▁vklad	-10.6576
▁stanoví	-10.6577
▁chodí	-10.6578
▁samostatné	-10.6586
▁hus	-10.6586
▁hran	-10.6588
▁podal	-10.659
▁sousední	-10.6593
▁občansk	-10.6599
likvid	-10.6599
TU	-10.6602
▁kritéri	-10.6623
▁čtvrté	-10.6631
▁pokusil	-10.6636
▁mistra	-10.6641
▁San	-10.6641
▁rozdělen	-10.6642
histor	-10.6644
míněn	-10.6645
▁Alb	-10.665
▁ekologické	-10.6651
▁obratu	-10.6653
▁výjimk	-10.6656
ujícího	-10.6656
▁trhy	-10.6664
▁dvanácti	-10.667
▁prezidentem	-10.6671
▁hospod	-10.6676
▁společensk	-10.6681
mus	-10.6685
▁komunik	-10.6685
▁pracují	-10.6688
šetřit	-10.6692
▁Důležit	-10.6692
▁expozi	-10.6692
▁kongres	-10.6692
▁považuji	-10.6692
▁souladu	-10.6692
▁související	-10.6692
▁údržb	-10.6692
▁dlouhý	-10.6692
▁generace	-10.6692
▁ministři	-10.6692
▁vyhlášk	-10.6692
▁vysoká	-10.6692
▁Polska	-10.6692
▁Žádn	-10.6692
▁obrátil	-10.6692
▁organizaci	-10.6692
▁Michal	-10.6692
▁chtít	-10.6692
▁motocykl	-10.6692
▁doping	-10.6692
▁vlajk	-10.6692
▁Možnost	-10.6693
ŘÍ	-10.6693
▁vystaven	-10.6694
▁studia	-10.6694
▁nejspíš	-10.6695
▁tepeln	-10.6695
▁územní	-10.6695
▁omyl	-10.6696
▁nedělní	-10.6697
▁hospodářský	-10.6699
zdrav	-10.67
AV	-10.67
▁sluch	-10.6701
▁dolar	-10.6703
▁skončila	-10.6705
▁počítačové	-10.6706
▁vyplatí	-10.6708
▁Ří	-10.671
▁ukazují	-10.6711
71	-10.6711
▁odborných	-10.6711
▁neznamená	-10.6715
▁obchodním	-10.6716
▁předložil	-10.6721
▁Zlín	-10.6725
▁lesů	-10.6727
vest	-10.6728
▁významu	-10.6729
▁nástrojů	-10.6732
skočil	-10.6733
▁Představ	-10.6738
▁vystoupil	-10.6739
▁vyhrála	-10.6741
▁zajištění	-10.6742
čené	-10.6746
učili	-10.6747
▁kdysi	-10.6747
▁vydá	-10.6749
▁ačkoli	-10.6752
▁prst	-10.6753
procentní	-10.6756
▁hluboko	-10.6758
▁občané	-10.6759
tažení	-10.6762
▁silně	-10.6762
▁možných	-10.6763
▁Obchodní	-10.6764
oji	-10.6765
▁nedávné	-10.6767
ukce	-10.6768
▁časopisu	-10.6771
▁noční	-10.6772
lezl	-10.6772
▁panelu	-10.6776
▁Karlovy	-10.6777
▁ZA	-10.6785
▁nechá	-10.679
▁Konce	-10.6794
▁uživatelů	-10.6796
▁skončilo	-10.6799
▁nemělo	-10.68
▁vědě	-10.6801
▁rodinné	-10.6808
▁Slovenské	-10.681
▁sekundu	-10.6812
▁získáva	-10.6815
pravují	-10.6822
▁černo	-10.6823
▁schopnosti	-10.6823
ovce	-10.6827
▁čt	-10.6828
▁zahájen	-10.6839
▁uzavřel	-10.6843
▁regionu	-10.6853
▁Poslaneck	-10.6858
▁dostalo	-10.6859
reform	-10.6859
▁dosah	-10.6859
▁politického	-10.6866
▁značný	-10.6867
▁zákazníka	-10.687
▁možný	-10.687
▁ochrany	-10.6871
íček	-10.6872
▁ústavy	-10.6872
▁souvislost	-10.6874
▁pohybují	-10.6883
▁průmyslový	-10.6892
▁nepříjemn	-10.69
vlas	-10.6903
▁přenosu	-10.6904
72	-10.6905
▁Met	-10.6909
▁zpěv	-10.6909
▁pojištěn	-10.691
▁získává	-10.6913
▁samé	-10.6914
▁široké	-10.6918
kazují	-10.692
▁nedostat	-10.6921
▁některým	-10.6924
jmout	-10.6926
▁dokonale	-10.6936
▁min	-10.694
▁způsobu	-10.6941
ovněž	-10.6942
▁zato	-10.6942
▁atmosféře	-10.6942
▁delegace	-10.6942
▁dozvěděl	-10.6942
▁inflace	-10.6942
▁oblíben	-10.6942
▁poptávka	-10.6942
▁sedmnáct	-10.6942
▁službu	-10.6942
▁francouzský	-10.6942
▁nejnovější	-10.6942
▁očekávan	-10.6942
▁vysokoškol	-10.6942
▁Skutečn	-10.6942
▁badatel	-10.6942
▁mandát	-10.6942
▁považují	-10.6942
▁stanovisko	-10.6942
▁všude	-10.6942
▁Viktor	-10.6942
▁přírodě	-10.6942
▁penzijní	-10.6942
▁politická	-10.6942
▁doprovod	-10.6942
▁zábav	-10.6942
▁Popper	-10.6942
▁vyšetřovatel	-10.6942
▁Karlov	-10.6942
▁dohodnut	-10.6942
▁čísel	-10.6942
▁devadesát	-10.6942
▁tvořen	-10.6942
▁Podnikatel	-10.6943
▁citliv	-10.6943
▁květnu	-10.6943
▁vysloven	-10.6943
▁velitel	-10.6944
▁podaří	-10.6944
▁mimořádné	-10.6945
▁rytm	-10.6946
▁dřívější	-10.6947
▁výstup	-10.6948
▁vysvětlit	-10.6948
EK	-10.6948
▁vrací	-10.6948
▁čemu	-10.6949
běhu	-10.6949
▁vysvětlení	-10.6949
▁brát	-10.6949
▁mínění	-10.695
rah	-10.6951
▁myši	-10.6951
▁Nejvíce	-10.6953
▁zlato	-10.6954
▁řeší	-10.6957
▁prosadit	-10.6958
▁Čas	-10.6959
▁stupně	-10.696
▁Chceme	-10.6961
▁přechodu	-10.6962
▁dobou	-10.6963
▁léků	-10.6968
▁grafik	-10.6973
▁opravy	-10.6973
▁kamer	-10.6973
▁vědci	-10.6975
▁slovenských	-10.6977
▁dosahuje	-10.6978
▁vysvětlil	-10.6979
▁představit	-10.6979
▁podílel	-10.6983
▁překvap	-10.6984
▁Kolik	-10.6984
▁nedostal	-10.6986
jedou	-10.6987
25	-10.699
▁znaků	-10.6993
▁projekty	-10.6994
▁zkušeností	-10.6996
▁kvalita	-10.7007
slyš	-10.7009
▁ukázalo	-10.701
▁Postup	-10.7014
▁přípravě	-10.702
▁zbytek	-10.7025
▁nesouhlasí	-10.7026
platit	-10.7028
koupit	-10.703
▁odchodu	-10.7044
▁mnohd	-10.7049
▁dám	-10.7051
▁800	-10.7052
▁místem	-10.7054
▁dojem	-10.7055
▁tuzemsk	-10.7057
nete	-10.7058
pisuje	-10.7067
▁stanic	-10.7072
▁nebe	-10.7077
čtí	-10.7078
▁orgánů	-10.708
▁závodě	-10.708
▁rozsah	-10.7083
▁Dán	-10.7085
▁mimořádný	-10.7091
▁Cha	-10.7092
▁Car	-10.7093
▁Ostrava	-10.7096
▁policist	-10.7099
orku	-10.71
▁titulu	-10.7101
▁třídě	-10.7104
▁role	-10.7112
▁Paříž	-10.7113
▁sval	-10.7114
▁volič	-10.7121
počet	-10.7121
▁Čs	-10.7122
pana	-10.7122
pravděpodobností	-10.7129
ecká	-10.713
▁CS	-10.7134
▁viděl	-10.7136
▁Novák	-10.7138
▁kanceláří	-10.714
▁vodou	-10.7144
▁materiály	-10.7147
hnal	-10.7149
skému	-10.7152
kupovat	-10.7155
▁koho	-10.7155
▁herec	-10.7178
logický	-10.7178
▁RN	-10.7184
▁větším	-10.7186
▁Pal	-10.7187
▁přírodověd	-10.7198
hlížet	-10.7198
▁Výsledk	-10.7198
▁atraktivní	-10.7198
▁blízké	-10.7198
▁milióny	-10.7198
▁montáž	-10.7198
▁požadavků	-10.7198
▁rozšířit	-10.7198
▁telekomunikační	-10.7198
▁tiskárny	-10.7198
▁Zajímav	-10.7198
▁dlouhá	-10.7198
▁používají	-10.7198
▁předpokládat	-10.7198
▁rozhraní	-10.7198
▁složky	-10.7198
▁chráněn	-10.7198
▁externí	-10.7198
▁koncepce	-10.7198
▁Důvod	-10.7198
▁nabídce	-10.7198
ičtější	-10.7198
▁vysoce	-10.7198
▁závisí	-10.7198
▁naděje	-10.7198
▁muzea	-10.7199
▁vozidl	-10.7199
▁barvy	-10.7199
▁učinil	-10.72
▁mozkov	-10.72
▁žebříčku	-10.7201
▁Knih	-10.7203
▁unii	-10.7204
▁vysvětluje	-10.7205
▁naději	-10.7205
▁propad	-10.7208
▁osobních	-10.7208
▁názorů	-10.7209
▁Ben	-10.7211
▁Chyb	-10.7212
▁Irsk	-10.7214
▁umožňující	-10.7217
▁plný	-10.7219
▁můj	-10.7224
▁jimi	-10.7225
▁uvést	-10.7227
▁Nebyl	-10.7228
▁jakékoli	-10.723
▁Nikdo	-10.7231
▁čtyřech	-10.7234
▁dvojice	-10.7236
ctví	-10.7238
▁totéž	-10.7238
▁Stran	-10.7239
pamatuj	-10.724
▁kniha	-10.7246
▁čtenáře	-10.7246
▁stín	-10.7247
▁cenou	-10.7248
▁Sparty	-10.7248
tematick	-10.7251
▁reáln	-10.7256
▁nemůžeme	-10.7263
▁špičk	-10.7265
▁Autor	-10.7269
VI	-10.7273
▁agentura	-10.7277
▁grafické	-10.7286
11	-10.7287
▁podstatné	-10.729
▁čtyřmi	-10.7292
▁akciové	-10.7296
isty	-10.7301
ME	-10.7302
▁výstava	-10.7304
▁šat	-10.7315
▁bytové	-10.7317
▁studium	-10.7318
prodej	-10.7325
ňující	-10.7328
enství	-10.7331
rušení	-10.7332
▁stěn	-10.7339
▁Mik	-10.7339
▁Svobod	-10.7346
▁Profit	-10.7346
▁finančn	-10.7346
▁divák	-10.7349
▁Tur	-10.7349
▁britský	-10.7349
kládal	-10.7352
▁světového	-10.736
▁zaměstnavatele	-10.7362
projevuje	-10.7366
▁podání	-10.737
▁komplex	-10.7376
▁budovy	-10.7379
▁potřebný	-10.7385
▁stranou	-10.7389
▁představu	-10.739
elů	-10.7392
▁nároky	-10.7403
▁Nizozemsk	-10.7405
▁uzná	-10.7406
AM	-10.7409
▁polské	-10.7409
okres	-10.7413
▁bi	-10.7413
▁fotbalistů	-10.7413
▁způsoby	-10.7414
▁experiment	-10.7417
▁nebezpečné	-10.7417
▁skladb	-10.7418
OLE	-10.7419
▁okolnost	-10.7424
▁návštěvu	-10.7429
▁geolog	-10.7435
ocel	-10.7437
▁nachází	-10.7439
▁patřil	-10.7441
▁představil	-10.7447
31	-10.7449
ávali	-10.7449
▁Hra	-10.7449
▁pivo	-10.746
favorit	-10.7461
▁Itálii	-10.7461
▁divadelní	-10.7461
▁inženýr	-10.7461
▁komentář	-10.7461
▁obligace	-10.7461
▁otevřené	-10.7461
▁peněžní	-10.7461
▁požaduje	-10.7461
▁snižování	-10.7461
▁vojáků	-10.7461
▁výjimečn	-10.7461
▁Miloslav	-10.7461
▁komplet	-10.7461
▁zjistí	-10.7461
▁přirozený	-10.7461
▁rychlý	-10.7461
▁úrovní	-10.7461
▁odsouzen	-10.7461
▁skončení	-10.7461
▁povinen	-10.7461
▁nevěděl	-10.7461
▁absolvent	-10.7461
▁průkaz	-10.7461
▁podívat	-10.7461
▁menšin	-10.7461
▁Jugoslávii	-10.7462
▁důkladn	-10.7462
▁Čtyř	-10.7462
▁najevo	-10.7463
▁zaplatil	-10.7464
▁hmotnost	-10.7464
▁zavře	-10.7465
▁Peter	-10.7466
▁jistý	-10.7467
▁říct	-10.7467
▁plát	-10.7468
▁vybírat	-10.7469
▁nesmírn	-10.7477
▁pořádá	-10.7478
▁agent	-10.7478
▁fax	-10.748
▁strav	-10.748
poví	-10.748
▁odvolání	-10.7483
▁Lin	-10.7486
▁systémem	-10.7488
▁kusů	-10.7493
▁povolání	-10.7497
▁cyklus	-10.7499
▁japonské	-10.7499
▁Den	-10.75
▁Moravě	-10.75
▁pokyn	-10.7504
▁Počet	-10.751
▁noc	-10.7511
▁hlavu	-10.7515
▁předmětem	-10.7517
árek	-10.7522
▁Cena	-10.7523
▁dálnic	-10.7523
▁tisíci	-10.7525
AC	-10.7533
▁důvodem	-10.7535
▁mak	-10.7536
▁Dalším	-10.7541
▁úvěrů	-10.7553
▁resp	-10.7558
▁podnikové	-10.7576
▁dramatick	-10.7579
▁dílem	-10.758
važoval	-10.7582
tisícov	-10.7582
▁politik	-10.7594
▁průmysl	-10.7595
▁Fotbal	-10.7598
▁dohodl	-10.7604
▁nájemní	-10.7605
áhy	-10.7605
▁klientů	-10.7606
ess	-10.7608
▁profesionál	-10.7609
čovat	-10.761
▁31.	-10.7613
izovan	-10.7616
▁listu	-10.762
▁vlny	-10.7621
cházející	-10.7623
nových	-10.7637
▁klasick	-10.7639
▁působ	-10.7639
▁podřízen	-10.764
▁starosta	-10.7644
▁schválil	-10.7645
▁pražský	-10.7645
▁Pre	-10.7653
▁Ruské	-10.7655
▁kartu	-10.7656
▁národů	-10.7659
držení	-10.7661
▁předložen	-10.7663
▁Moh	-10.7663
▁velko	-10.7666
▁Kovo	-10.7667
▁neznámý	-10.7667
▁objektiv	-10.7677
▁přípravy	-10.768
istický	-10.768
▁obsazen	-10.7685
▁zaveden	-10.7687
▁klepn	-10.7692
▁výstavy	-10.7699
▁zajištěn	-10.77
▁rovin	-10.7705
PS	-10.7707
▁Např	-10.7708
nder	-10.7709
ěsíční	-10.7715
▁Kazachstán	-10.7732
▁Oznámil	-10.7732
▁Univerzit	-10.7732
▁existovat	-10.7732
▁informaci	-10.7732
▁obtížné	-10.7732
▁prezentací	-10.7732
▁stříbrn	-10.7732
▁svědomí	-10.7732
▁vyjádřit	-10.7732
▁vytvářet	-10.7732
▁zdánlivě	-10.7732
▁ztrácí	-10.7732
▁komerční	-10.7732
▁poskytovat	-10.7732
▁Několik	-10.7732
▁Problém	-10.7732
▁bariér	-10.7732
▁komunismu	-10.7732
▁ubytování	-10.7732
▁československé	-10.7732
▁střediska	-10.7732
▁veletrh	-10.7732
▁února	-10.7732
▁zmizel	-10.7732
záběr	-10.7732
▁Slovinsk	-10.7732
▁pěst	-10.7732
▁vlákn	-10.7732
▁kvantov	-10.7732
▁předpisy	-10.7732
▁junio	-10.7733
▁komunikace	-10.7734
▁optimální	-10.7735
▁udělá	-10.7735
najdete	-10.7736
▁vybraný	-10.7736
▁uvolněn	-10.7736
▁náskok	-10.7737
▁zítra	-10.7737
úpln	-10.7738
střelil	-10.7738
▁prováděn	-10.7738
▁zmíněný	-10.774
▁Bójové	-10.774
▁bezplatn	-10.774
▁továrn	-10.774
▁rychleji	-10.7741
▁zvolil	-10.7746
▁hrách	-10.7746
▁průběh	-10.7746
▁sále	-10.7747
▁znak	-10.7748
▁kupující	-10.7757
▁závodech	-10.7758
▁tradice	-10.7759
▁klimatický	-10.7762
▁nákupu	-10.7762
▁jednotek	-10.7763
▁objevuje	-10.7763
▁volný	-10.7767
▁ústřední	-10.7768
▁hrdin	-10.7768
▁slavnostní	-10.7769
nozí	-10.7771
▁vesnici	-10.7771
▁atomov	-10.7773
▁hlavy	-10.7774
▁zaznamenal	-10.7774
▁Voj	-10.7775
ill	-10.7775
▁Mnoho	-10.7777
▁nadace	-10.7781
▁novinář	-10.7784
▁podvod	-10.7785
▁bodu	-10.7788
▁dohodě	-10.7789
▁všeobecné	-10.779
▁dostávají	-10.7796
▁fyzické	-10.78
▁překr	-10.7804
▁narodil	-10.7807
▁teplota	-10.7809
▁schopna	-10.7811
▁pevné	-10.7812
▁vzdálenosti	-10.7813
▁filmový	-10.7813
▁obvinění	-10.7814
▁brání	-10.7817
▁vznikají	-10.7817
▁souborů	-10.7819
▁trestný	-10.7821
▁politiků	-10.7824
▁účt	-10.7827
▁uplynul	-10.7829
44	-10.7833
▁Vlastní	-10.7842
▁hledají	-10.7847
▁mírové	-10.7849
▁Svoboda	-10.7852
týdenní	-10.7855
▁elektron	-10.7856
▁příběh	-10.7861
▁kalů	-10.7867
▁chyt	-10.7879
těl	-10.7882
▁připoj	-10.7883
▁Internet	-10.7895
▁závodník	-10.7895
▁ostatními	-10.7896
▁návratu	-10.7901
▁jasno	-10.7902
▁rizika	-10.7905
▁čtyřicet	-10.7922
▁domácnost	-10.7923
▁signálu	-10.7924
▁bloku	-10.7927
▁Sun	-10.7928
▁důvody	-10.793
▁boji	-10.7939
▁dělník	-10.794
▁konečné	-10.7949
▁zajímavý	-10.795
▁filozof	-10.7957
▁34	-10.7959
▁češt	-10.7963
sáhnout	-10.7971
▁porážk	-10.7979
alternativ	-10.7985
▁správu	-10.7991
▁prach	-10.7991
▁kontroly	-10.7994
lob	-10.7998
▁kontinent	-10.7998
případě	-10.7999
▁mohu	-10.8002
▁privatiz	-10.8003
▁ClipArt	-10.8009
▁demokracii	-10.8009
▁fanoušků	-10.8009
▁lustrační	-10.8009
▁navštívil	-10.8009
▁nepochybn	-10.8009
▁nádraží	-10.8009
▁obligací	-10.8009
▁opoziční	-10.8009
▁otevřel	-10.8009
▁otázkou	-10.8009
▁ovzduší	-10.8009
▁pracoviště	-10.8009
▁prokurátor	-10.8009
▁vyrábí	-10.8009
▁železniční	-10.8009
▁jednoduše	-10.8009
▁osmnáct	-10.8009
poloviční	-10.8009
▁pobřeží	-10.8009
▁častěji	-10.8009
▁Rumunsk	-10.8009
▁Pracovní	-10.8009
▁statut	-10.801
▁příchod	-10.801
stěhoval	-10.801
▁odstranit	-10.801
▁knize	-10.801
▁modul	-10.801
▁knížk	-10.801
▁věnován	-10.801
▁záření	-10.801
▁obnoven	-10.801
▁Tehd	-10.8011
▁blízkosti	-10.8011
▁vážné	-10.8012
▁dohodnout	-10.8012
▁závodů	-10.8012
▁raket	-10.8013
▁oblečení	-10.8013
▁poradensk	-10.8014
▁pečlivě	-10.8015
▁scénář	-10.8015
▁říkal	-10.8016
▁Motor	-10.8017
▁přínos	-10.8017
▁písmen	-10.8019
▁několikrát	-10.8019
nutil	-10.802
▁Rád	-10.802
▁tvrdé	-10.802
▁chyběl	-10.8021
▁sedmdesát	-10.8024
myslet	-10.8024
▁pramen	-10.8026
▁Pět	-10.803
▁státě	-10.8031
▁cenný	-10.8032
krás	-10.8032
▁komunistické	-10.8033
▁ovládání	-10.8033
▁společník	-10.8035
▁přijímá	-10.8035
▁vyvolal	-10.8036
wan	-10.8038
líbil	-10.8039
▁připadá	-10.804
▁pomůže	-10.8047
▁přizpůsob	-10.8048
▁dopravě	-10.8053
▁uprostřed	-10.8056
▁velkého	-10.8056
dél	-10.8059
▁kvalitě	-10.8059
▁chladn	-10.8059
hodnotit	-10.8059
▁Kraj	-10.8063
▁Pražské	-10.8072
▁Taková	-10.8078
▁výpravy	-10.8078
▁žít	-10.8084
▁nejlepších	-10.8087
▁jakém	-10.8088
▁novináři	-10.81
▁psycholog	-10.8103
▁znaky	-10.8103
▁převzal	-10.8104
▁viděli	-10.8105
▁správný	-10.8105
▁Rakousku	-10.8108
▁horní	-10.811
stroj	-10.8111
ezi	-10.8112
▁chemický	-10.8114
▁Lon	-10.8121
▁1000	-10.8126
▁blíží	-10.813
▁mezinárodních	-10.8132
▁tajný	-10.8138
končit	-10.8142
▁spis	-10.8152
▁obrazů	-10.8154
▁určitých	-10.8161
▁Lá	-10.8162
▁doprava	-10.8163
▁aminokyselin	-10.8167
ohledem	-10.8169
41	-10.817
▁Rusku	-10.8175
▁fyzick	-10.8175
▁okamžik	-10.818
▁odchod	-10.8181
▁sportu	-10.8182
▁měsíci	-10.8188
▁přijel	-10.8197
▁určené	-10.8205
▁úvěry	-10.821
▁magnet	-10.8214
▁adapt	-10.8222
▁souhlasí	-10.8224
▁automatick	-10.8228
dent	-10.8231
▁samostatný	-10.8237
▁kus	-10.8239
▁boje	-10.8239
▁císař	-10.8239
▁začínají	-10.8239
▁fondy	-10.8241
▁přerušen	-10.8246
plynul	-10.8256
řazen	-10.8257
rent	-10.8266
▁král	-10.8277
▁Musím	-10.8281
:3	-10.8283
▁Eva	-10.8287
ung	-10.8288
▁Mil	-10.8291
▁dopoledne	-10.8295
▁doporučuje	-10.8295
▁ministerstvu	-10.8295
▁nejrychleji	-10.8295
▁partneři	-10.8295
▁považovat	-10.8295
▁rekonstrukci	-10.8295
▁rozhoduje	-10.8295
▁strategie	-10.8295
▁Americe	-10.8295
▁kompres	-10.8295
▁spravedliv	-10.8295
▁dveře	-10.8295
▁neobvykl	-10.8295
▁policii	-10.8295
▁reakce	-10.8295
▁summit	-10.8295
▁vyrábět	-10.8295
▁taneční	-10.8295
▁Trenér	-10.8295
▁dubna	-10.8295
▁úhrad	-10.8295
▁majetkov	-10.8295
▁Havla	-10.8295
▁politickou	-10.8295
▁sledoval	-10.8295
▁sloužit	-10.8295
▁srdce	-10.8295
▁muzik	-10.8295
▁jaře	-10.8296
nášet	-10.8296
▁areálu	-10.8296
▁Excel	-10.8296
▁humor	-10.8296
▁Klub	-10.8297
čištění	-10.8298
▁vězení	-10.8298
▁penze	-10.8298
▁vzít	-10.8299
▁psát	-10.83
▁rozlišení	-10.83
škodliv	-10.83
spektr	-10.8301
▁krve	-10.8302
▁poskytnout	-10.8303
▁dotací	-10.8304
▁zachovat	-10.8304
▁výlet	-10.8304
▁trvat	-10.8305
▁Konečn	-10.8305
▁klesl	-10.8306
▁patnácti	-10.8307
▁čekat	-10.8307
▁termínu	-10.8315
▁větr	-10.8316
▁kořen	-10.8317
▁dřev	-10.8318
▁ukončení	-10.8318
▁obsahovat	-10.8319
▁stavby	-10.8321
ářské	-10.8322
▁elektrické	-10.8323
▁produkty	-10.8325
▁provádět	-10.8326
▁vyhlásil	-10.8327
▁právník	-10.8328
▁vydat	-10.8332
▁sovětských	-10.8333
▁dítěte	-10.8338
▁narození	-10.8338
▁zastavit	-10.8339
▁mírně	-10.8339
▁událostí	-10.8345
▁postavit	-10.835
▁sezón	-10.8351
▁připojení	-10.8351
▁přišli	-10.8355
▁cestující	-10.8362
▁vším	-10.8363
▁pokládá	-10.8368
▁zjevn	-10.837
▁schválení	-10.837
▁objektivní	-10.8375
▁kabinetu	-10.8382
CD	-10.8384
▁příkladem	-10.8385
omín	-10.8389
BA	-10.839
▁managementu	-10.8395
▁stati	-10.8397
▁události	-10.8406
▁cosi	-10.8407
▁placen	-10.8409
▁posil	-10.8416
▁vašeho	-10.8419
▁sociálního	-10.8419
▁zjistili	-10.8421
▁maximální	-10.8423
daných	-10.8423
▁samostatně	-10.8435
▁Celkov	-10.8441
▁vlak	-10.8441
IP	-10.8445
gel	-10.8445
▁přesvědčení	-10.8446
▁vstupné	-10.8449
▁kontakty	-10.8451
▁orgány	-10.8458
▁principy	-10.8459
▁Lab	-10.8463
▁38	-10.8469
▁pozitiv	-10.8477
▁Vlast	-10.8483
▁soubory	-10.8486
▁pravomoc	-10.8502
vládnout	-10.8503
▁občany	-10.8507
▁Let	-10.8507
▁Mag	-10.851
▁obci	-10.8512
▁Clinton	-10.8517
▁techniku	-10.8518
▁rozšířen	-10.852
US	-10.852
▁rozhodli	-10.853
▁útoku	-10.8533
▁oznámila	-10.8538
▁testu	-10.8539
▁Malé	-10.8539
▁Mnoh	-10.8542
▁severu	-10.8543
▁cyklu	-10.8547
▁poskytl	-10.855
▁rostou	-10.8552
▁večerní	-10.8556
vádět	-10.8557
▁dopravu	-10.8557
▁46	-10.8557
▁průmyslové	-10.8558
▁Ros	-10.856
tiky	-10.8563
▁souhlasu	-10.8564
legislativ	-10.8574
▁člena	-10.8574
▁odkaz	-10.8575
DI	-10.8582
▁En	-10.8585
▁blízko	-10.8587
▁Stanislav	-10.8589
▁Wimbledon	-10.8589
▁geometrie	-10.8589
▁inspekto	-10.8589
▁miliónu	-10.8589
▁nepřízniv	-10.8589
▁opozice	-10.8589
▁producent	-10.8589
▁referendu	-10.8589
▁snižuje	-10.8589
▁vstříc	-10.8589
▁výsledku	-10.8589
▁zahrnuje	-10.8589
▁zásluh	-10.8589
▁závazn	-10.8589
zapomněl	-10.8589
▁účinky	-10.8589
▁března	-10.8589
▁zahynul	-10.8589
▁čtvrtletí	-10.8589
▁rozmezí	-10.8589
▁funkcionář	-10.8589
▁šťastn	-10.8589
▁aparát	-10.8589
▁páté	-10.8589
▁sotva	-10.8589
▁využil	-10.8589
▁zvýší	-10.859
▁kupónov	-10.859
▁středověk	-10.859
▁klesá	-10.859
▁nositel	-10.859
▁necelý	-10.859
▁morální	-10.859
▁rakouské	-10.859
▁terén	-10.859
▁knihovn	-10.859
▁praktický	-10.8591
▁Fond	-10.8591
▁stejným	-10.8591
▁duchu	-10.8592
▁pověst	-10.8592
▁téhož	-10.8593
▁útočník	-10.8593
▁kmen	-10.8595
▁diskusi	-10.8597
▁Šest	-10.8598
▁nesmysl	-10.8598
▁dělí	-10.8602
tivnější	-10.8602
▁výhody	-10.8603
▁Kur	-10.8605
▁kluby	-10.8605
17	-10.8606
▁zajišťuje	-10.8607
▁návod	-10.8608
▁žil	-10.861
▁únik	-10.8618
▁nedovol	-10.8618
▁školách	-10.862
▁činit	-10.8621
▁vybral	-10.8621
▁věnuje	-10.8624
▁zachování	-10.8631
ánek	-10.8633
padla	-10.8638
▁vzpomíná	-10.864
▁přestal	-10.8647
end	-10.865
▁potřebu	-10.8653
▁Svět	-10.8654
▁formátu	-10.8654
nický	-10.8656
▁poradce	-10.8657
▁příčinou	-10.8658
▁provádí	-10.8659
▁představiteli	-10.866
skutk	-10.8661
▁kovů	-10.8662
▁prokázal	-10.8662
▁hlasy	-10.8667
▁los	-10.8669
▁pravomoci	-10.8677
▁stráž	-10.8679
▁130	-10.8679
▁rodina	-10.868
zákon	-10.868
▁formy	-10.8681
drželi	-10.8683
▁krajan	-10.8689
▁Zemi	-10.8689
▁pražských	-10.869
ejít	-10.8693
příliš	-10.87
▁vstoupil	-10.8715
▁Tad	-10.8716
zie	-10.8716
▁soust	-10.8718
▁běžn	-10.872
▁vysvětl	-10.8723
ložený	-10.8725
▁urychlen	-10.8728
▁vlně	-10.8729
▁účtu	-10.8736
▁padesáti	-10.8737
▁skutečn	-10.8753
▁leteck	-10.8764
▁Bla	-10.8764
▁obrovské	-10.8766
▁ozbrojený	-10.8766
▁kandidátů	-10.8781
▁personál	-10.8786
▁slep	-10.879
▁rodinný	-10.8791
▁ostře	-10.8796
▁minulost	-10.8806
▁čistý	-10.8807
▁následujících	-10.8813
▁daném	-10.8819
▁obsahují	-10.8822
▁Klause	-10.8823
▁Občanské	-10.8824
▁zásadně	-10.8826
▁projevil	-10.8833
▁volbu	-10.8835
edení	-10.8835
biologick	-10.8843
▁Jelcinov	-10.8846
▁jediným	-10.8852
▁formu	-10.8853
▁Rada	-10.8858
mála	-10.8863
▁vzdálenost	-10.8864
Vesmír	-10.8873
▁poznat	-10.8883
▁reakci	-10.8885
čková	-10.8887
▁implant	-10.8891
hlédn	-10.8891
▁rovnová	-10.8892
▁Otázka	-10.8892
▁definitivně	-10.8892
▁digitální	-10.8892
▁důvěru	-10.8892
▁gigant	-10.8892
▁hřišti	-10.8892
▁jednorázov	-10.8892
▁kyslíku	-10.8892
▁navrhuje	-10.8892
▁otevřený	-10.8892
▁označit	-10.8892
▁pokračování	-10.8892
▁prognóz	-10.8892
▁rozšířil	-10.8892
▁sekretář	-10.8892
▁softwarov	-10.8892
▁transformaci	-10.8892
▁vyjadřuj	-10.8892
▁vězňů	-10.8892
▁divadlo	-10.8892
▁infekc	-10.8892
▁předvolební	-10.8892
▁výročí	-10.8892
▁zemědělců	-10.8892
▁používal	-10.8892
▁sexuální	-10.8892
▁zvyšování	-10.8892
▁prozatím	-10.8892
▁vozidel	-10.8892
▁Československé	-10.8892
▁Třeba	-10.8892
▁prosinci	-10.8892
▁vyskytují	-10.8892
▁dětský	-10.8892
▁náměstk	-10.8892
▁využívají	-10.8892
▁října	-10.8892
▁Býval	-10.8892
▁vazby	-10.8892
▁opačné	-10.8892
▁vteřin	-10.8892
▁poplatky	-10.8892
▁počtem	-10.8892
▁statistik	-10.8892
▁rozsáhlé	-10.8892
▁Práce	-10.8892
▁nastavení	-10.8892
▁obvyklé	-10.8893
▁nikoho	-10.8893
▁rakovin	-10.8893
▁Pomoc	-10.8893
▁hluboké	-10.8893
▁Prostě	-10.8893
▁Východ	-10.8893
▁koordin	-10.8893
▁Tvrd	-10.8893
▁svoje	-10.8893
▁uplatňuj	-10.8893
▁myšlenky	-10.8896
▁přispíva	-10.8896
▁zastavil	-10.8897
▁vybudován	-10.8897
▁plno	-10.8897
plňuje	-10.8898
▁Člen	-10.8901
▁Hill	-10.8903
▁začátek	-10.8905
látka	-10.8906
▁Cest	-10.8908
HA	-10.8908
▁výdajů	-10.891
▁Karl	-10.8912
▁neplatí	-10.8914
▁Hlavním	-10.8921
▁poradit	-10.8922
▁mechanismus	-10.8923
▁tunel	-10.8924
▁Uvedl	-10.8924
▁stručn	-10.8926
▁modely	-10.8927
▁čtrnáct	-10.8928
▁oběti	-10.8931
▁rostoucí	-10.8931
▁představitele	-10.8932
▁zrušit	-10.8933
příště	-10.8935
▁třetiny	-10.8936
zemědělských	-10.8938
▁stán	-10.8939
▁bratr	-10.8945
▁papíru	-10.8948
▁příležitostí	-10.8949
▁loňský	-10.895
▁barevný	-10.8952
▁sídle	-10.8957
▁východě	-10.8959
nášel	-10.8959
▁schopností	-10.8964
▁ceník	-10.8966
▁odešl	-10.8967
▁snaz	-10.8968
▁chtěla	-10.8977
▁kapel	-10.8978
▁zabýval	-10.8979
▁přítomnosti	-10.8981
vrácení	-10.8982
▁obchody	-10.8983
▁sezóny	-10.8985
▁uvaž	-10.8997
▁Rakouska	-10.9001
▁opustil	-10.9003
mořsk	-10.9005
▁objevují	-10.9009
▁majitelé	-10.901
▁staveb	-10.901
▁průměrné	-10.9024
▁tuzemsku	-10.9027
▁Jaké	-10.9032
89	-10.9038
▁záležitosti	-10.9041
▁Spor	-10.9042
vlastn	-10.9043
▁výborů	-10.9045
▁zůstalo	-10.9053
▁krajiny	-10.9055
logicky	-10.906
▁vědí	-10.9061
▁pokuty	-10.9064
▁vlasti	-10.9065
▁dílů	-10.9067
▁dramat	-10.9068
▁výtvarn	-10.9068
bírají	-10.9071
▁diplomat	-10.9074
▁postavil	-10.9083
▁písemn	-10.9086
▁výrobních	-10.9086
blok	-10.9089
▁reklamy	-10.9093
88	-10.9104
▁provedl	-10.9109
▁Mont	-10.9127
▁Němec	-10.9127
▁pravděpodobnost	-10.9128
▁stylu	-10.9132
▁zdravotního	-10.9143
▁výkonný	-10.9155
▁důraz	-10.9156
nili	-10.9157
5%	-10.9161
▁jih	-10.9172
▁přítomnost	-10.9174
▁koncertu	-10.9174
▁znění	-10.9177
▁životním	-10.9178
▁svobody	-10.9183
▁ostatním	-10.9186
▁soused	-10.9189
▁Bój	-10.9195
počtů	-10.9203
▁zájm	-10.9204
ografie	-10.9205
▁Angličan	-10.9205
▁Argentin	-10.9205
▁Evropu	-10.9205
▁Mechanik	-10.9205
▁Mečiar	-10.9205
▁Němců	-10.9205
▁Premiér	-10.9205
▁Staroměstské	-10.9205
▁Systém	-10.9205
▁absolutní	-10.9205
▁definitivní	-10.9205
▁kilobajtů	-10.9205
▁kyselin	-10.9205
▁paradox	-10.9205
▁podezření	-10.9205
▁potvrzuje	-10.9205
▁připomněl	-10.9205
▁sjednocení	-10.9205
▁smlouvě	-10.9205
▁teorií	-10.9205
▁vyžádal	-10.9205
▁zastupitelstva	-10.9205
▁Vývoj	-10.9205
▁poločas	-10.9205
▁tvořit	-10.9205
▁účinek	-10.9205
máhat	-10.9205
▁GSM	-10.9205
▁komplikov	-10.9205
▁pochopil	-10.9205
▁režii	-10.9205
▁tabulce	-10.9205
▁schůze	-10.9205
▁aspekt	-10.9205
▁pohádk	-10.9205
▁Druhá	-10.9205
▁lehce	-10.9205
▁zrušil	-10.9205
▁zdarma	-10.9205
▁celků	-10.9205
▁ukončil	-10.9205
▁čerstv	-10.9205
▁membrán	-10.9205
▁pokrok	-10.9205
▁nález	-10.9205
▁špatný	-10.9205
▁Jihlav	-10.9205
▁existující	-10.9205
▁tramvaj	-10.9206
▁střetnutí	-10.9206
▁hustot	-10.9206
▁podepsán	-10.9207
▁vyřešen	-10.9207
▁spotřeby	-10.9207
▁("	-10.9208
▁živé	-10.9208
▁pověřen	-10.9208
▁nádor	-10.9208
▁nedokázal	-10.9208
▁vězni	-10.921
▁nejenom	-10.921
▁projednáva	-10.9211
▁bránit	-10.9211
▁diskuse	-10.9214
▁Mas	-10.9214
▁Cíle	-10.9214
▁ovoce	-10.9215
tratil	-10.9218
▁produkci	-10.9218
▁balík	-10.9219
▁kódování	-10.922
▁Dodal	-10.922
▁kamion	-10.9221
▁dostatek	-10.9224
▁Řeck	-10.9226
▁přístav	-10.9228
▁dosáhla	-10.9229
▁vyvolává	-10.923
▁vaši	-10.9231
▁běh	-10.9233
▁systematick	-10.9234
▁státem	-10.9236
▁Úřadu	-10.9239
▁Jednání	-10.9239
táhne	-10.9241
▁akademie	-10.9244
▁závislosti	-10.9245
▁nahradil	-10.9246
▁veřejných	-10.9248
jeli	-10.9251
▁pokladn	-10.9252
▁dolní	-10.9254
▁překlad	-10.9257
▁čtenářů	-10.926
▁menších	-10.926
▁předložit	-10.9262
▁fakultu	-10.9263
▁zvěře	-10.9263
▁strážník	-10.9265
VÍ	-10.9267
▁listin	-10.9273
▁koupi	-10.9276
▁klasický	-10.9277
lezsk	-10.9277
ňoval	-10.9278
▁užívání	-10.9278
▁náhodou	-10.928
▁věda	-10.9282
▁OD	-10.9283
▁přímý	-10.9288
jedna	-10.9296
▁Sparta	-10.9298
▁189	-10.93
▁Světové	-10.9304
▁Severní	-10.9309
▁živnost	-10.9309
▁KB	-10.9311
▁výstavě	-10.9312
▁určený	-10.9313
▁výkony	-10.9315
▁obrovský	-10.9319
▁Stal	-10.9319
LOV	-10.9322
▁náročn	-10.9326
▁anglický	-10.9327
▁nezávislé	-10.9328
▁nájemník	-10.9328
▁zdravotnické	-10.933
▁týdnech	-10.9337
▁podobného	-10.9344
▁zdravé	-10.9344
▁poznal	-10.9346
dáme	-10.9346
▁Šp	-10.9352
PI	-10.9357
▁filmové	-10.9359
▁škodu	-10.9363
▁Jaký	-10.9368
▁exportu	-10.9375
příč	-10.9378
tika	-10.938
ODA	-10.938
▁trenérem	-10.938
▁příčiny	-10.9383
stupují	-10.9393
▁ulic	-10.9395
▁Vlk	-10.9395
▁ukázk	-10.9397
▁základem	-10.9403
▁klidně	-10.9405
▁vzduch	-10.9412
rgi	-10.9412
▁obav	-10.942
cal	-10.9426
pozn	-10.9429
▁Mel	-10.943
ačnou	-10.944
▁principu	-10.9442
▁pohyboval	-10.9443
hodné	-10.9447
▁bezprostředn	-10.9452
▁Či	-10.9454
▁výkonné	-10.9464
▁Ústavní	-10.9467
ED	-10.9476
▁třetího	-10.9477
jako	-10.9479
▁ponech	-10.948
▁stiskn	-10.9489
▁analog	-10.9492
▁okamžit	-10.9494
▁Úřad	-10.9495
ohra	-10.9507
ontrol	-10.9508
▁karta	-10.951
▁moment	-10.9512
▁olej	-10.9513
▁důstojn	-10.9516
ÁT	-10.952
▁bio	-10.9522
▁recept	-10.9527
ačtyřicet	-10.9527
pomeňme	-10.9527
▁Bruselu	-10.9527
▁ToolBook	-10.9527
▁demonstra	-10.9527
▁dohromady	-10.9527
▁nejnižší	-10.9527
▁pokračuje	-10.9527
▁přispět	-10.9527
▁sportovců	-10.9527
▁spořiteln	-10.9527
▁uskutečnit	-10.9527
▁volejbal	-10.9527
▁Člověk	-10.9527
▁Určit	-10.9527
▁dražší	-10.9527
▁dynamick	-10.9527
▁pokračují	-10.9527
▁snažit	-10.9527
▁Poslanc	-10.9527
▁index	-10.9527
▁nemohu	-10.9527
▁podporovat	-10.9527
▁každoročn	-10.9527
▁medaili	-10.9527
▁vyřešit	-10.9527
▁bílkovin	-10.9527
▁chystá	-10.9527
▁krizi	-10.9527
▁vybudovat	-10.9527
▁vypadat	-10.9527
sáhne	-10.9527
▁Mnichov	-10.9527
▁uvidí	-10.9527
▁Vysok	-10.9527
▁hůře	-10.9527
▁srážek	-10.9527
▁Osobn	-10.9527
▁turisty	-10.9527
▁Vítěz	-10.9528
▁doufá	-10.9528
▁skončí	-10.9528
▁mlýn	-10.9528
▁kolegů	-10.9528
▁mzdov	-10.9528
▁sněhu	-10.9528
▁tvorbě	-10.9529
▁zhodnocení	-10.9529
▁dobrá	-10.9529
▁obilí	-10.953
▁mld	-10.953
▁umělecké	-10.9531
počítat	-10.9531
▁pouští	-10.9532
▁chlap	-10.9532
▁vedlejší	-10.9532
▁sběr	-10.9533
▁ráz	-10.9533
▁síti	-10.9534
▁dcer	-10.9535
▁porozumění	-10.9535
▁přesvědčit	-10.9536
▁těší	-10.9537
▁atmosféry	-10.9537
▁firemní	-10.9538
▁spodní	-10.9538
▁Form	-10.9539
vázal	-10.9539
▁penzion	-10.9539
▁dešti	-10.954
▁čestn	-10.9542
▁deviz	-10.9543
▁vyřazen	-10.9545
▁všeobecně	-10.9547
▁závodní	-10.9548
▁jiní	-10.9552
▁vesnice	-10.9553
▁Hradci	-10.9555
▁zbytečně	-10.9557
▁připojit	-10.9557
▁přinést	-10.9558
třída	-10.9562
▁Krát	-10.9562
▁tělo	-10.9563
▁úkon	-10.9563
▁foto	-10.9564
▁klasické	-10.9566
▁tuzemské	-10.9566
ptal	-10.9567
▁rovině	-10.9567
▁ruky	-10.9571
▁spolupracovníků	-10.9573
▁Cup	-10.9573
▁Senátu	-10.9575
▁poznamenal	-10.9577
▁statistick	-10.958
▁prosadil	-10.9581
▁sub	-10.9582
▁stávající	-10.9585
▁obsazení	-10.9585
▁Jelcina	-10.959
▁městský	-10.9594
▁loňsk	-10.9601
▁platil	-10.9604
▁Američané	-10.9605
▁Novotný	-10.9612
▁silnice	-10.9613
▁opustit	-10.9616
▁koně	-10.9624
▁stranick	-10.9627
▁Rakousk	-10.9627
▁nadšen	-10.9629
▁čtyřiceti	-10.963
▁volných	-10.9631
pomínají	-10.9632
▁členský	-10.9634
▁palác	-10.9637
▁personální	-10.9641
▁zájemce	-10.9643
▁kontrolní	-10.9644
▁postoje	-10.9645
▁získan	-10.9645
▁přivedl	-10.9645
▁zájmů	-10.9649
▁samozřejm	-10.9653
▁požadované	-10.9655
▁kolektivní	-10.9658
noví	-10.9659
▁Mir	-10.9662
▁mlh	-10.9662
▁grafický	-10.9666
▁koní	-10.9675
▁dovozu	-10.9677
▁odraz	-10.9682
nutně	-10.9685
▁Karla	-10.9685
▁kapitálové	-10.9688
▁analýzy	-10.9693
▁Šv	-10.9711
▁Chorvatska	-10.9713
▁odborník	-10.9716
▁reagoval	-10.9719
▁počítačový	-10.9719
čela	-10.972
▁kolektiv	-10.9728
▁management	-10.9744
▁objemu	-10.9747
▁důchodu	-10.9751
▁vedla	-10.9755
▁Sever	-10.976
▁osobnost	-10.9763
▁autobusy	-10.9767
hraniční	-10.9771
▁buňk	-10.9775
▁grafu	-10.9775
▁muse	-10.9777
▁mladý	-10.9788
▁dalo	-10.9794
▁technologick	-10.9803
▁Pen	-10.9806
▁Kohl	-10.9815
▁drobné	-10.982
jan	-10.9824
▁časové	-10.9824
▁projektů	-10.9844
▁ideál	-10.9845
▁panel	-10.9854
nvestiční	-10.9857
▁Nic	-10.986
▁Mluvčí	-10.9861
▁Pardubic	-10.9861
▁Rudolf	-10.9861
▁elektráren	-10.9861
▁intenzit	-10.9861
▁jednoduchá	-10.9861
▁metropoli	-10.9861
▁nechtějí	-10.9861
▁nejpozději	-10.9861
▁obsažen	-10.9861
▁otevřena	-10.9861
▁pochopení	-10.9861
▁výpověď	-10.9861
▁dosažení	-10.9861
▁teorii	-10.9861
▁tradičně	-10.9861
▁hrozb	-10.9861
▁neutrální	-10.9861
plácet	-10.9861
▁únoru	-10.9861
▁jmění	-10.9861
▁vysílá	-10.9861
▁složitější	-10.9861
▁Peníze	-10.9861
▁reakcí	-10.9861
▁Moskva	-10.9861
táhnout	-10.9861
▁očekával	-10.9861
▁Divadl	-10.9861
▁likvidace	-10.9861
▁vzácn	-10.9861
▁anket	-10.9861
▁břehu	-10.9862
▁hezk	-10.9862
▁nevýhod	-10.9862
▁restauraci	-10.9862
▁poplatník	-10.9862
▁Zástupc	-10.9862
▁úlev	-10.9863
▁Rozdíl	-10.9863
▁Obdobn	-10.9864
▁dotace	-10.9864
▁Nor	-10.9865
▁operací	-10.9865
▁dojít	-10.9865
▁kabel	-10.9865
▁kategorii	-10.9866
▁dělají	-10.9867
▁svobodné	-10.9867
▁1,5	-10.9868
cvič	-10.9868
▁výhodnější	-10.987
▁vtip	-10.9871
▁Slovan	-10.9871
▁utrpěl	-10.9877
▁mezd	-10.9878
▁reformy	-10.9881
▁podporuje	-10.9882
visí	-10.9883
▁předběžn	-10.9883
▁vešker	-10.9884
▁udržení	-10.9885
▁sněmovně	-10.9887
vláda	-10.9889
jov	-10.9892
▁bytost	-10.9892
▁městech	-10.9893
▁vykoná	-10.9893
▁konečný	-10.9893
▁množ	-10.9894
▁stíhání	-10.9895
▁oblačnost	-10.9896
▁obyčejn	-10.9899
▁účinně	-10.9901
▁časopisů	-10.9904
▁Win	-10.9906
▁přijdou	-10.9908
▁Dan	-10.9909
▁žádostí	-10.9915
▁zabezpeč	-10.9916
▁tradici	-10.9916
▁nepříjemné	-10.9916
▁Dokon	-10.9919
nická	-10.993
▁Nemá	-10.9936
▁řídící	-10.9945
▁vína	-10.9945
▁Tour	-10.9949
▁Takový	-10.9951
▁dodá	-10.9951
▁odborníky	-10.9952
▁trestné	-10.9953
▁bílé	-10.9953
▁realitní	-10.9964
▁využívání	-10.9965
▁pochází	-10.9968
▁mechanick	-10.997
▁Paříži	-10.9976
▁dokonč	-10.9977
▁Bank	-10.9979
▁šedesát	-10.9982
▁žádosti	-10.9982
▁tank	-10.9987
▁průměrný	-10.9992
▁výrazný	-10.9992
▁sezónu	-10.9996
▁vzpomínk	-11.0009
▁stisk	-11.001
▁popř	-11.0015
▁hledal	-11.0016
▁uložení	-11.0019
▁obal	-11.002
▁nastavit	-11.002
▁vyvolá	-11.0035
▁mluvčího	-11.004
▁úrokov	-11.004
▁mluvil	-11.0042
▁hmoty	-11.0053
▁textový	-11.0058
▁zákazníkům	-11.0072
hrává	-11.0074
▁reálný	-11.0081
▁levé	-11.0083
▁budova	-11.0084
▁škoda	-11.0084
▁nemohli	-11.0085
▁ukázala	-11.0085
tkání	-11.0089
▁domy	-11.0093
národních	-11.01
atřicet	-11.01
▁založení	-11.0101
▁Plat	-11.0114
▁časopise	-11.0115
▁Svat	-11.0118
▁nezaměstnanost	-11.0119
▁ekologick	-11.0122
▁grafick	-11.013
▁struktura	-11.0138
▁vlk	-11.0145
oučástí	-11.0147
▁narozen	-11.0154
▁ohrožen	-11.0158
dpověď	-11.016
měnit	-11.0163
▁čtrnácti	-11.0165
ďte	-11.0167
ectví	-11.0171
▁kilometr	-11.0174
67	-11.0181
▁zvětš	-11.019
▁reprezentantů	-11.019
▁potřebn	-11.0198
pravit	-11.0198
▁pochopit	-11.0203
▁Afriky	-11.0205
▁Ameriky	-11.0205
▁Bohužel	-11.0205
▁Ladislav	-11.0205
▁Nedávn	-11.0205
▁Plzni	-11.0205
▁SCSI	-11.0205
▁Telecom	-11.0205
▁devatenáct	-11.0205
▁energii	-11.0205
▁gymnázi	-11.0205
▁instituce	-11.0205
▁investování	-11.0205
▁konkrétně	-11.0205
▁nejúspěšnější	-11.0205
▁nizozemsk	-11.0205
▁plzeňsk	-11.0205
▁rámeček	-11.0205
▁strojírensk	-11.0205
▁výrobek	-11.0205
▁čtvrtfinále	-11.0205
▁nejvýznamnější	-11.0205
▁podpořil	-11.0205
▁přirozené	-11.0205
▁čtvereční	-11.0205
▁hloubk	-11.0205
▁hudby	-11.0205
▁lokální	-11.0205
▁požadují	-11.0205
▁předčasn	-11.0205
▁Policisté	-11.0205
▁garant	-11.0205
▁kapitán	-11.0205
▁ohrožuj	-11.0205
▁chránit	-11.0205
▁mládí	-11.0205
▁názvu	-11.0206
▁pobočk	-11.0206
▁ztráce	-11.0206
▁koncepci	-11.0206
▁trzích	-11.0206
▁nalézt	-11.0206
▁David	-11.0206
máhají	-11.0206
▁schránk	-11.0206
▁Včera	-11.0206
▁Všeobecn	-11.0206
▁pouhé	-11.0206
▁léčebn	-11.0206
▁odstavce	-11.0206
▁okénk	-11.0206
▁umělecký	-11.0206
▁závad	-11.0206
▁dražb	-11.0206
▁zaujal	-11.0206
▁použil	-11.0206
▁zimě	-11.0206
▁ekonomicky	-11.0206
▁klasifik	-11.0207
▁Chip	-11.0207
▁vybrané	-11.0207
▁stabilní	-11.0207
ight	-11.0208
▁věnovan	-11.0209
▁obrázky	-11.0209
mítnout	-11.0209
najdeme	-11.0211
▁nadcházející	-11.0211
▁Tentokrát	-11.0213
▁Britsk	-11.0213
▁sklon	-11.0213
beton	-11.0214
▁dvojic	-11.0214
▁koncern	-11.0215
▁Nevím	-11.0215
▁zvýšené	-11.0215
▁kategorií	-11.0219
▁síla	-11.0221
▁opravdov	-11.0221
▁faktorů	-11.0223
▁lamp	-11.0226
OP	-11.0227
▁hlavou	-11.0228
▁49	-11.0228
JÍ	-11.0229
▁plod	-11.023
▁právnické	-11.023
▁navazuj	-11.0231
▁důsledk	-11.0233
▁Londýně	-11.0234
▁světovou	-11.0235
▁chodit	-11.0238
▁parametrů	-11.024
▁bojovat	-11.0241
▁tón	-11.0246
▁originální	-11.0247
▁spravedlnosti	-11.0247
▁připojen	-11.0249
▁vyvoláva	-11.025
▁Děti	-11.025
▁konat	-11.0253
▁zbývající	-11.0258
▁relac	-11.0261
stihnout	-11.0263
▁Zahraničn	-11.0265
▁letecké	-11.0267
▁způsobuje	-11.0269
▁schůzky	-11.0269
▁třetinu	-11.0271
▁nezbytné	-11.0273
'	-11.0273
▁vesmíru	-11.0274
▁úvahy	-11.0277
▁slíbil	-11.028
▁zájemci	-11.0285
▁nemocných	-11.0286
▁uznal	-11.0288
▁obvodní	-11.0292
▁okruhu	-11.0294
▁ztráta	-11.0298
▁kritérií	-11.0304
▁paliva	-11.0307
▁uživatele	-11.0309
▁úkolem	-11.0309
jednat	-11.0309
▁blíže	-11.031
▁Japon	-11.0315
▁mírn	-11.0317
▁biologické	-11.0319
▁provozní	-11.0325
▁drahé	-11.0337
▁organ	-11.0338
▁51	-11.0339
▁uvedení	-11.0341
mlouva	-11.0343
▁úroky	-11.0354
▁výkonnost	-11.0355
▁způsobené	-11.0359
▁zaměření	-11.0365
▁turistický	-11.0371
▁bosenský	-11.0373
▁objevit	-11.0381
▁scény	-11.0383
▁starosty	-11.0387
▁podnikatelský	-11.039
▁výkonem	-11.039
▁konve	-11.0391
▁povede	-11.0392
▁nekonečn	-11.0393
▁zahraničními	-11.0396
CP	-11.0402
▁udržel	-11.0415
▁Lidové	-11.0417
CA	-11.0422
PT	-11.0426
▁úkolů	-11.0432
▁nesouhlas	-11.0443
▁čtvrtin	-11.0444
▁podat	-11.0444
▁paláce	-11.0445
▁listopad	-11.0448
cestoval	-11.0448
▁představí	-11.0455
▁180	-11.0465
vnějších	-11.0466
▁výprav	-11.0475
▁mez	-11.0477
▁odložen	-11.0484
▁poukaz	-11.0487
rodil	-11.0491
▁časopis	-11.0495
▁šestnáct	-11.0495
▁čtvrtý	-11.0496
▁chemick	-11.0497
vodně	-11.0499
▁stovk	-11.0501
▁Stav	-11.0503
pojit	-11.0505
psychologick	-11.0506
▁dokumentů	-11.0508
▁zastoupen	-11.0514
▁řízen	-11.0524
▁akademi	-11.0528
▁Bend	-11.0533
▁Mohl	-11.0537
▁pouč	-11.054
reprezenta	-11.0558
palestinsk	-11.0563
▁Alexandr	-11.0563
▁Barceloně	-11.0563
▁Británii	-11.0563
▁IFOR	-11.0563
▁Nejlepší	-11.0563
▁Portugalsk	-11.0563
▁cigaret	-11.0563
▁honorář	-11.0563
▁instalaci	-11.0563
▁multimediální	-11.0563
▁následek	-11.0563
▁podmínkou	-11.0563
▁požádat	-11.0563
▁publikován	-11.0563
▁tlačítka	-11.0563
▁tlačítkem	-11.0563
▁týdně	-11.0563
▁umožnit	-11.0563
▁úsměv	-11.0563
▁1987	-11.0563
▁Bohemia	-11.0563
▁Bělehrad	-11.0563
▁azbest	-11.0563
▁chorvatské	-11.0563
▁fázi	-11.0563
▁normy	-11.0563
▁pravidlo	-11.0563
nápověd	-11.0563
▁1996	-11.0563
▁březnu	-11.0563
▁pomáhá	-11.0563
▁populární	-11.0563
▁Organiza	-11.0563
▁bazén	-11.0563
▁déšť	-11.0563
▁kratší	-11.0563
▁vrstvy	-11.0563
▁pololetí	-11.0563
▁naléhav	-11.0563
▁příslušníci	-11.0563
▁ploše	-11.0563
▁zklamán	-11.0563
▁chalup	-11.0563
▁Srbsk	-11.0563
▁těžce	-11.0563
spěje	-11.0563
▁doposud	-11.0563
▁kanadsk	-11.0563
▁divize	-11.0563
▁Robert	-11.0563
▁Věřím	-11.0563
▁provozovatel	-11.0563
▁zajímat	-11.0563
▁sociálně	-11.0563
▁Soubor	-11.0563
▁úvodu	-11.0563
▁Část	-11.0563
▁značky	-11.0563
▁někoho	-11.0563
▁likvidaci	-11.0563
▁barvu	-11.0563
▁ocitl	-11.0563
▁pozdější	-11.0564
▁prodávající	-11.0564
▁stoupl	-11.0564
▁kvalifikace	-11.0565
▁ekonomice	-11.0565
▁komisi	-11.0565
▁Hodnot	-11.0565
▁prud	-11.0565
▁debat	-11.0566
▁Případ	-11.0566
▁nutný	-11.0566
▁historik	-11.0567
▁Med	-11.0567
▁Jenom	-11.0568
▁klimatu	-11.0569
▁zeleni	-11.057
▁termo	-11.0571
▁uvažovat	-11.0571
▁drog	-11.0573
▁Generální	-11.0573
abilní	-11.0574
▁právnických	-11.0574
▁99	-11.0577
▁děd	-11.0577
▁ukáže	-11.0581
kolik	-11.0581
▁červenci	-11.0581
▁odpovídal	-11.0581
▁desky	-11.0582
krýt	-11.0583
▁zjednoduš	-11.0584
▁poklesl	-11.0585
pouštějí	-11.0587
čátkem	-11.0588
▁Novotná	-11.0589
▁pozorování	-11.0589
▁horách	-11.059
▁zvlád	-11.0591
▁posílen	-11.0592
▁rozbor	-11.0596
▁potvrzení	-11.0596
▁lékařsk	-11.0599
▁Často	-11.06
▁letiště	-11.0602
▁vydělá	-11.0603
▁vzorky	-11.0603
▁ukázat	-11.0605
▁myšlenka	-11.0607
mann	-11.0611
▁ohrožení	-11.0612
mínil	-11.0613
▁parametry	-11.0613
▁JU	-11.0613
čern	-11.0613
▁cenách	-11.0614
▁Atlanty	-11.0619
▁Znám	-11.062
▁vánoc	-11.0622
▁výstavbě	-11.0622
▁muzeum	-11.0622
měrně	-11.0622
▁fyzický	-11.0623
lizace	-11.0628
▁%)	-11.0628
▁Slovensk	-11.0629
▁nahradit	-11.0629
▁obrovsk	-11.0634
▁absolvoval	-11.0639
bíhají	-11.064
▁vozy	-11.0643
▁přírodovědecké	-11.0643
▁Svazu	-11.0646
▁plet	-11.0648
▁třetina	-11.0656
▁sektoru	-11.0659
▁řeky	-11.0659
▁představitel	-11.0661
▁očekávání	-11.0662
▁vyšel	-11.0663
polí	-11.0673
▁jediného	-11.0674
▁účelem	-11.0675
▁vývojové	-11.0679
▁dvojí	-11.0691
▁poledn	-11.0696
▁srážky	-11.0701
iletá	-11.0702
▁pojem	-11.0704
večer	-11.0704
▁průmyslov	-11.0707
krývají	-11.0717
bíral	-11.0727
▁kouř	-11.0729
▁nedokáž	-11.0729
▁Die	-11.0733
dejme	-11.0735
▁zbytečn	-11.0738
▁spokojeni	-11.0751
▁skryt	-11.0753
▁plynů	-11.0755
▁britsk	-11.0761
▁neznámé	-11.0765
▁bíl	-11.0774
▁stupni	-11.0777
▁desít	-11.0795
▁Velm	-11.08
▁obchodů	-11.0806
▁potenciální	-11.0818
▁Vít	-11.0822
yplývá	-11.0826
▁hlubo	-11.083
▁specializované	-11.0838
▁ochotni	-11.0839
▁poškoz	-11.084
▁založené	-11.0842
.12.	-11.0845
▁Správ	-11.0847
čkách	-11.0851
▁Společn	-11.0856
▁pouště	-11.086
▁vymezen	-11.086
▁koš	-11.0861
ézt	-11.0863
posled	-11.0864
SO	-11.0867
etické	-11.0869
▁historick	-11.0878
▁cíli	-11.088
▁návštěvník	-11.0885
▁výrazné	-11.0885
▁Nikd	-11.0888
▁figur	-11.089
▁působící	-11.089
riti	-11.0903
IA	-11.0907
▁mírový	-11.0908
▁zjednodušen	-11.091
▁interpret	-11.0918
jíždějí	-11.0919
▁zdi	-11.092
▁nájem	-11.0921
vesel	-11.0925
▁masov	-11.0926
povídal	-11.0927
▁španělské	-11.0928
▁představoval	-11.0928
▁příjemné	-11.093
▁antropolog	-11.0933
▁Chomutov	-11.0933
▁Ukrajiny	-11.0933
▁Zvláštní	-11.0933
▁akcionářů	-11.0933
▁církví	-11.0933
▁galerie	-11.0933
▁hřiště	-11.0933
▁náboženství	-11.0933
▁ovladač	-11.0933
▁ovlivňuje	-11.0933
▁potrestán	-11.0933
▁priorit	-11.0933
▁produktivit	-11.0933
▁prosazovat	-11.0933
▁upozorňuje	-11.0933
▁zpracováva	-11.0933
▁deficit	-11.0933
▁obsluh	-11.0933
▁orchestr	-11.0933
▁páteční	-11.0933
▁sledování	-11.0933
▁srdeční	-11.0933
▁1997	-11.0933
▁Koaliční	-11.0933
▁držitel	-11.0933
▁naznačil	-11.0933
▁posádk	-11.0933
▁specifik	-11.0933
▁bronz	-11.0933
▁dveří	-11.0933
▁nepřátel	-11.0933
▁určuje	-11.0933
▁šetření	-11.0933
▁IBM	-11.0933
▁Původně	-11.0933
▁středoevropsk	-11.0933
▁burze	-11.0933
▁příznak	-11.0933
▁vrstev	-11.0933
▁enzym	-11.0933
▁oxidu	-11.0933
▁usilovat	-11.0933
▁patrné	-11.0933
připravovan	-11.0933
▁podporou	-11.0933
▁podnicích	-11.0933
▁potíží	-11.0933
▁proslul	-11.0933
▁příslušníků	-11.0933
▁Tchaj	-11.0933
▁pronájem	-11.0933
▁nedaleko	-11.0933
▁fáze	-11.0933
▁sdělovací	-11.0933
▁Formát	-11.0933
▁kritické	-11.0933
▁filozofie	-11.0933
▁Tureck	-11.0933
▁příliv	-11.0933
▁královn	-11.0934
▁Situac	-11.0934
▁vzestup	-11.0934
▁Word	-11.0934
▁naposledy	-11.0934
▁lyžař	-11.0934
▁zámku	-11.0934
vázat	-11.0935
hodlají	-11.0935
▁svátky	-11.0935
▁integraci	-11.0935
▁obrázků	-11.0935
▁myšlenkou	-11.0935
▁násilí	-11.0936
▁hutní	-11.0936
▁těžb	-11.0936
střih	-11.0937
▁hostitel	-11.0938
▁společenský	-11.0938
▁odhadnout	-11.0939
▁válka	-11.0939
▁myšlenku	-11.0939
▁Kreml	-11.0939
▁manželství	-11.0939
▁nehodlá	-11.0939
▁Týr	-11.094
▁přežití	-11.094
▁sílu	-11.094
▁uhlí	-11.0941
▁šíření	-11.0941
▁tratí	-11.0941
▁měnové	-11.0942
▁duše	-11.0942
▁nevhodn	-11.0943
▁slabší	-11.0943
▁prováze	-11.0944
▁vážný	-11.0944
▁dlouhodobě	-11.0944
▁obnovu	-11.0944
▁profil	-11.0945
▁podnět	-11.0945
▁nízko	-11.0947
▁znamenalo	-11.0947
▁zákazníci	-11.0951
▁zdanění	-11.0951
▁doporučení	-11.0953
▁posoudit	-11.0954
▁testování	-11.0955
studoval	-11.0956
▁Komis	-11.0959
▁soustředění	-11.0959
▁stanovit	-11.0967
▁silnější	-11.0976
▁Labem	-11.0977
▁důchodové	-11.0978
▁jádro	-11.0981
▁přístrojů	-11.0984
▁úředníků	-11.0986
▁poslání	-11.0991
▁následky	-11.0995
▁vládou	-11.0996
▁úlohu	-11.1002
▁přinese	-11.1003
▁přehlídky	-11.1005
▁Nejde	-11.1006
▁ochotn	-11.1006
▁začínající	-11.1006
▁Nizozem	-11.1013
▁tvrdě	-11.1013
▁jezer	-11.1015
▁vymez	-11.102
▁totožn	-11.1021
▁předvedl	-11.1022
řád	-11.1028
▁Jac	-11.103
▁kvalifik	-11.1033
▁tvrdý	-11.1043
kryl	-11.1044
▁soudce	-11.1049
▁umělé	-11.1052
▁vzdá	-11.1055
▁KON	-11.1056
dělování	-11.1059
▁evropsk	-11.1063
▁Naši	-11.1069
▁technického	-11.1069
▁pevný	-11.1071
▁Platí	-11.1074
▁zachoval	-11.1074
▁nasazení	-11.108
▁světlo	-11.1091
▁specifick	-11.1091
▁italský	-11.1093
▁případný	-11.1094
▁experti	-11.1101
▁Celk	-11.1102
berg	-11.1103
▁volit	-11.1109
▁slovník	-11.1112
▁Lidov	-11.1113
▁agentur	-11.1119
▁Tisk	-11.1127
ALI	-11.1144
ČE	-11.115
▁66	-11.115
▁kvalifikovan	-11.1151
části	-11.1154
počtu	-11.1154
demokratick	-11.1155
▁hotelů	-11.116
▁trvalo	-11.1164
▁papírů	-11.1171
▁náročné	-11.1171
98	-11.1188
▁lidové	-11.1193
▁kabinet	-11.1201
▁vysoko	-11.1202
▁postupné	-11.1204
▁Malý	-11.1205
SKO	-11.1218
▁zabývají	-11.1219
▁centrál	-11.122
▁Výhod	-11.1224
▁rozpor	-11.1225
▁srážk	-11.1229
tivně	-11.1231
▁obrazovk	-11.1233
korun	-11.1237
▁doplněn	-11.1238
nechává	-11.124
▁snížen	-11.1242
▁tarif	-11.1252
rážky	-11.1254
▁špičkov	-11.1262
jištěn	-11.1264
▁zrušen	-11.1266
▁52	-11.1267
▁pravý	-11.1274
▁zaměstnanec	-11.1277
kupuje	-11.1283
▁trati	-11.1284
▁výběrové	-11.1288
▁vzhled	-11.1293
▁obtížně	-11.1312
▁inteligen	-11.1317
▁Nejdřív	-11.1318
▁Rakušan	-11.1318
▁Republik	-11.1318
▁Vedoucí	-11.1318
▁dodatečně	-11.1318
▁důležitá	-11.1318
▁fotoaparát	-11.1318
▁franků	-11.1318
▁inspekce	-11.1318
▁instalace	-11.1318
▁majetkem	-11.1318
▁nezměnil	-11.1318
▁oznámení	-11.1318
▁pohledávek	-11.1318
▁redakce	-11.1318
▁upozornit	-11.1318
▁vyšetření	-11.1318
radioaktivní	-11.1318
▁1968	-11.1318
▁DPH	-11.1318
▁Sovětský	-11.1318
▁Temelín	-11.1318
▁Thajsk	-11.1318
▁Výzkum	-11.1318
▁nejmenší	-11.1318
▁1984	-11.1318
▁zoufal	-11.1318
▁Bejbl	-11.1318
▁stupňů	-11.1318
▁hrubého	-11.1318
▁konstrukce	-11.1318
▁zakladatel	-11.1318
tvrzují	-11.1318
▁Průměrn	-11.1318
▁certifikát	-11.1318
▁period	-11.1318
▁ordinac	-11.1318
▁pojmů	-11.1318
▁zkratk	-11.1318
▁vyvinul	-11.1318
▁stovek	-11.1318
▁dvojnásobn	-11.1318
▁jedince	-11.1318
▁Bílé	-11.1318
▁vojsk	-11.1318
▁zajímavost	-11.1318
▁přežít	-11.1318
▁teplá	-11.1318
▁pružn	-11.1318
▁Sokol	-11.1318
▁sehrál	-11.1318
▁chápat	-11.1318
▁audio	-11.1318
▁ozdob	-11.1318
▁zkoumá	-11.1319
▁Řešení	-11.1319
▁Asociac	-11.1319
▁vyroben	-11.1319
▁restaurace	-11.1319
▁kvalifikační	-11.132
▁platební	-11.132
▁sněhov	-11.132
▁uváděn	-11.132
▁formální	-11.1321
▁spolupracovat	-11.1321
▁Plán	-11.1321
▁1986	-11.1321
▁poznatků	-11.1321
▁německá	-11.1321
▁modem	-11.1322
▁něčem	-11.1322
▁vázán	-11.1322
ČNÍ	-11.1322
▁III	-11.1323
▁zatížen	-11.1323
▁kuponov	-11.1323
pravicov	-11.1324
▁složité	-11.1325
IST	-11.1325
▁volbami	-11.1326
▁3,5	-11.1326
▁poslanecké	-11.1326
▁nohy	-11.1326
▁rychlejší	-11.1326
▁května	-11.1326
▁rozložení	-11.1328
losování	-11.1328
▁podzemní	-11.1329
▁žáků	-11.1329
▁marně	-11.1329
▁ČZ	-11.133
▁zlaté	-11.133
▁Cheb	-11.133
nutit	-11.1331
▁DEM	-11.1331
▁Bill	-11.1332
▁odstranění	-11.1335
▁nápis	-11.1336
▁legislativní	-11.1337
▁nájemce	-11.1338
▁Potom	-11.1339
▁typické	-11.1339
▁upravit	-11.134
▁Tedy	-11.134
▁bilance	-11.1342
▁užitek	-11.1347
▁vyvolat	-11.1347
cházelo	-11.1348
off	-11.135
▁linky	-11.1351
▁týdeník	-11.1351
▁daný	-11.1352
▁sláv	-11.1353
▁Jedná	-11.1359
▁elektřiny	-11.1365
▁připustil	-11.1369
▁osobností	-11.1372
žití	-11.1373
▁manželka	-11.1374
▁Nejen	-11.1374
▁Ter	-11.1374
▁Německem	-11.1378
▁věrn	-11.138
▁měny	-11.1381
▁uvedeno	-11.1382
▁jevů	-11.1384
▁ruku	-11.1387
▁demokratů	-11.1388
▁vedlo	-11.1391
▁Lux	-11.1392
bývající	-11.1395
▁koalici	-11.1399
▁Belgie	-11.14
▁samotný	-11.1404
skop	-11.1417
▁bezprostřední	-11.1417
▁specializovan	-11.1419
těsn	-11.1421
▁Mon	-11.1425
▁výběrem	-11.1432
▁neshod	-11.144
dvacetiletý	-11.1453
▁vůdce	-11.1458
▁tvor	-11.1468
▁spotřebu	-11.1469
▁oborů	-11.1473
tisknout	-11.148
▁ozbrojen	-11.148
atrně	-11.1481
▁pes	-11.1482
▁Dub	-11.1488
▁svěřen	-11.1488
MF	-11.1496
▁podstatný	-11.1497
vyšších	-11.15
▁hydro	-11.1505
▁700	-11.1514
▁vstupní	-11.1516
svědčil	-11.1523
▁charakterizova	-11.1526
bojí	-11.1535
▁červené	-11.154
▁pozván	-11.1545
▁přenosov	-11.1546
▁vzp	-11.1548
▁turistick	-11.1555
▁šedesáti	-11.1556
konala	-11.1559
▁Smlouv	-11.1574
▁zdravotnický	-11.1577
▁Škod	-11.1584
▁Jediný	-11.1601
▁paliv	-11.1603
káže	-11.1603
▁rud	-11.1619
▁Obča	-11.1628
▁vysla	-11.1636
▁IV	-11.1648
▁rozhodnut	-11.1654
▁vyplácen	-11.1658
▁vzdálené	-11.1659
hruba	-11.1663
▁Františk	-11.1666
▁vzrůst	-11.167
▁Jedn	-11.167
▁olympijsk	-11.1684
psaný	-11.1684
▁Londýn	-11.1684
▁vybírá	-11.1686
poslední	-11.169
▁mořský	-11.1693
▁zřetel	-11.1695
trpěl	-11.1698
plyn	-11.1701
▁All	-11.1701
▁stole	-11.1705
▁zálož	-11.1706
žívání	-11.1711
▁Norsk	-11.1713
▁desetin	-11.1714
▁Vždy	-11.1716
▁EuroTel	-11.1718
▁Kalvoda	-11.1718
▁Okresní	-11.1718
▁Sociální	-11.1718
▁brambor	-11.1718
▁domnívají	-11.1718
▁energetik	-11.1718
▁firmám	-11.1718
▁hovořit	-11.1718
▁komponent	-11.1718
▁naštěstí	-11.1718
▁nejrychlejší	-11.1718
▁ovlivňují	-11.1718
▁označuje	-11.1718
▁posuzovat	-11.1718
▁pracovnice	-11.1718
▁publiku	-11.1718
▁převzít	-11.1718
▁připomínk	-11.1718
▁redaktor	-11.1718
▁rejstříku	-11.1718
▁vyhlídk	-11.1718
zanedbateln	-11.1718
▁Domácí	-11.1718
▁kalendář	-11.1718
▁nežádoucí	-11.1718
▁náležit	-11.1718
▁spoluhráč	-11.1718
▁zbrojní	-11.1718
▁zázemí	-11.1718
▁dubnu	-11.1718
▁radikální	-11.1718
▁uplatnit	-11.1718
▁Elektr	-11.1718
▁přál	-11.1718
▁Druhou	-11.1718
▁odlišný	-11.1718
▁souhrn	-11.1718
▁Českomoravsk	-11.1718
▁Poborský	-11.1718
▁efektivní	-11.1718
▁kamarád	-11.1718
▁pokoušel	-11.1718
▁zásilk	-11.1718
▁nevědí	-11.1718
▁Všechno	-11.1718
▁osvobození	-11.1718
▁viditeln	-11.1718
▁záloh	-11.1718
▁Musel	-11.1718
▁učinit	-11.1718
▁fungují	-11.1718
▁invalid	-11.1718
▁celostátní	-11.1718
▁nestačil	-11.1718
▁navržen	-11.1718
▁Šéf	-11.1718
▁sněžení	-11.1718
▁forem	-11.1718
▁slyšet	-11.1718
▁prodlení	-11.1718
▁vracet	-11.1718
▁dlouhodobý	-11.1719
▁ztracen	-11.1719
▁samospráv	-11.1719
▁stránek	-11.1719
▁Slavii	-11.1719
▁rysy	-11.1719
▁obrazovce	-11.1719
▁škál	-11.1719
▁přijatelné	-11.1719
▁podílejí	-11.172
▁Objekt	-11.172
▁studií	-11.1721
▁Grand	-11.1721
žádají	-11.1722
▁občanství	-11.1722
biologie	-11.1723
▁obrázku	-11.1724
▁neprav	-11.1724
▁Vesel	-11.1725
lepnutím	-11.1727
jistit	-11.1727
▁dohad	-11.173
▁přizpůsobit	-11.1731
▁vezme	-11.1731
▁Číny	-11.1735
▁Roman	-11.1738
▁demokraté	-11.1738
▁dobách	-11.1739
▁prodloužení	-11.174
ujme	-11.1742
▁podnikat	-11.1743
léhá	-11.1745
▁regulace	-11.1747
▁stavbu	-11.1748
▁celo	-11.175
místě	-11.1752
▁znalostí	-11.1753
hodnost	-11.1754
▁viděn	-11.1756
▁ukládání	-11.1757
▁ÚV	-11.1757
▁Dohod	-11.1759
▁fronty	-11.176
▁převoz	-11.176
▁písemně	-11.1762
▁orientaci	-11.1763
▁každodenní	-11.1764
▁nemovitosti	-11.1766
▁dávk	-11.177
▁zpěvák	-11.177
▁Zelen	-11.1774
ENÍ	-11.1794
▁Pražského	-11.1797
▁jednalo	-11.18
▁trvalé	-11.1817
▁ztrátou	-11.1822
▁teplotě	-11.1827
▁módní	-11.1828
▁obchodníci	-11.183
▁Ger	-11.183
▁vyhlášen	-11.183
▁předmětů	-11.1841
atřicetilet	-11.1841
▁úplné	-11.1844
▁světla	-11.1855
▁vůz	-11.1872
bund	-11.1882
▁Králov	-11.1883
▁Test	-11.1893
▁vnímá	-11.1894
ařské	-11.1895
▁odehráv	-11.1901
▁hit	-11.1944
▁poslal	-11.1948
▁přiměřen	-11.1954
▁překvapil	-11.1954
▁Dal	-11.1955
▁64	-11.1956
▁maďarský	-11.1957
▁tip	-11.1962
splnění	-11.1974
▁Ostravar	-11.1979
▁přidal	-11.1993
▁koalic	-11.2001
▁platný	-11.2002
▁sněmovn	-11.2013
▁mód	-11.2022
▁krátký	-11.2025
▁investorů	-11.2041
erie	-11.2047
▁osvět	-11.205
▁Prac	-11.2067
▁Pražský	-11.2079
▁integr	-11.2091
▁mechanismu	-11.2092
▁špičkové	-11.2095
rušit	-11.2099
▁komunisti	-11.212
novými	-11.2124
ifikace	-11.2128
▁dobro	-11.213
▁administra	-11.2134
mýšlí	-11.2134
rehabilit	-11.2134
▁Alžbět	-11.2134
▁CADKON	-11.2134
▁Finanční	-11.2134
▁Intergraph	-11.2134
▁Lebeď	-11.2134
▁Nejčastěj	-11.2134
▁Pithart	-11.2134
▁Zjuganov	-11.2134
▁altruismu	-11.2134
▁bližší	-11.2134
▁církvi	-11.2134
▁dědictví	-11.2134
▁fenomén	-11.2134
▁hektar	-11.2134
▁komunální	-11.2134
▁konferencí	-11.2134
▁leasing	-11.2134
▁lázeňsk	-11.2134
▁nejstarší	-11.2134
▁nepřetržit	-11.2134
▁neschopnost	-11.2134
▁nábytku	-11.2134
▁odmítají	-11.2134
▁odpovědí	-11.2134
▁ovlivněn	-11.2134
▁psychiatr	-11.2134
▁reagovat	-11.2134
▁schůzi	-11.2134
▁softwaru	-11.2134
▁strategii	-11.2134
▁technologii	-11.2134
▁triumf	-11.2134
▁ukazatel	-11.2134
▁uzavírá	-11.2134
▁vytvářejí	-11.2134
▁zpoždění	-11.2134
▁zpátky	-11.2134
▁zálivu	-11.2134
▁živočichů	-11.2134
▁žádoucí	-11.2134
▁Srbů	-11.2134
▁Vídni	-11.2134
▁asistent	-11.2134
▁otevírá	-11.2134
▁jazz	-11.2134
▁nárůst	-11.2134
▁atentát	-11.2134
▁říjnu	-11.2134
▁dovednost	-11.2134
▁nezaměstnaných	-11.2134
▁Mencl	-11.2134
▁Bratink	-11.2134
▁Mazda	-11.2134
▁splatnosti	-11.2134
▁vyvinut	-11.2134
▁nízká	-11.2134
▁navrhnout	-11.2134
▁zastavení	-11.2134
▁Polsko	-11.2134
▁podpoře	-11.2134
▁vyznačuj	-11.2134
▁zpomal	-11.2134
▁Jistě	-11.2134
▁zůstanou	-11.2134
▁dokáží	-11.2134
▁mřížk	-11.2134
▁splnit	-11.2135
▁diagram	-11.2135
▁multi	-11.2135
▁maximum	-11.2135
▁kombinaci	-11.2135
▁jistou	-11.2135
▁zazněl	-11.2135
▁Praktick	-11.2135
▁náprav	-11.2135
▁stůl	-11.2135
▁zvolit	-11.2136
▁Andre	-11.2136
▁přednášk	-11.2136
▁Nabídk	-11.2136
▁rozsáhlý	-11.2136
▁Mimo	-11.2136
▁zařadil	-11.2136
▁brzd	-11.2136
▁zahrnut	-11.2137
▁vrchní	-11.2137
▁trpí	-11.2137
▁vyrovnal	-11.2137
▁Charles	-11.2137
▁délce	-11.2138
▁ligové	-11.2138
▁komunikaci	-11.2138
▁Sedm	-11.2138
▁Zálež	-11.2138
kryje	-11.2139
jíždí	-11.214
▁ponechat	-11.214
▁kreslení	-11.214
▁nastat	-11.2141
▁nejvýše	-11.2141
▁kondom	-11.2142
▁simul	-11.2142
▁okresů	-11.2143
▁nakažen	-11.2143
▁Stručně	-11.2144
▁Bonn	-11.2144
▁podmíněn	-11.2144
stávat	-11.2145
▁Technick	-11.2145
▁otec	-11.2146
oprvé	-11.2147
▁interval	-11.2147
▁bance	-11.2147
▁kilogramů	-11.2153
▁jmenuje	-11.2154
▁blesk	-11.2156
chytit	-11.2157
▁dočasně	-11.2159
▁respektovat	-11.2159
▁pohybovat	-11.2161
▁Čechů	-11.2162
▁oleje	-11.2162
▁odejít	-11.2162
▁Brazílie	-11.2162
▁vzniknou	-11.2162
charakterizuj	-11.2162
▁mrav	-11.2164
▁obchodování	-11.2168
▁energetické	-11.217
▁Data	-11.2173
▁předcházel	-11.2173
▁květin	-11.2175
▁Mír	-11.2176
▁postižených	-11.2176
▁pádu	-11.2177
▁poskytování	-11.2179
▁padesátých	-11.2179
▁dokončení	-11.218
▁potřebujeme	-11.2183
▁vyhledá	-11.2188
▁trik	-11.219
▁vkladů	-11.2193
▁vyhlášení	-11.2194
▁zřízen	-11.2207
▁šestnácti	-11.2213
▁katolické	-11.2229
▁rusk	-11.2234
▁typický	-11.2242
▁fotbalov	-11.2244
▁nedal	-11.2245
stanou	-11.2248
jmenovaný	-11.2255
IG	-11.2259
▁šla	-11.2259
▁zaplacení	-11.2263
schválila	-11.227
▁zvěř	-11.2273
▁Boj	-11.2276
▁350	-11.2281
▁brankáře	-11.2284
▁nazýva	-11.2287
▁míra	-11.229
ářských	-11.2293
být	-11.2294
▁jezdil	-11.2294
▁obdobné	-11.2299
▁objeven	-11.2301
▁probíhal	-11.2307
▁vaku	-11.2311
▁obecný	-11.2314
▁valné	-11.2314
▁královsk	-11.2322
▁sousedů	-11.2326
íčko	-11.2331
svědčení	-11.2332
▁plic	-11.2332
vládne	-11.2336
▁typick	-11.235
▁zabývající	-11.2358
▁překvapivě	-11.2364
▁úvah	-11.2365
▁prvé	-11.2369
▁Siln	-11.2385
▁specifické	-11.2386
▁čínské	-11.2387
▁klíče	-11.2403
▁maz	-11.2405
▁zvukové	-11.2421
▁rozpočtov	-11.2424
▁jasný	-11.2435
▁uplynulý	-11.2443
▁vznikající	-11.2445
▁včerejš	-11.2445
▁pout	-11.2449
▁sektor	-11.2454
▁symbolick	-11.2456
▁soli	-11.2459
▁pedagog	-11.246
▁mís	-11.2462
▁katolick	-11.2471
▁900	-11.2474
členné	-11.248
▁190	-11.2489
▁akciov	-11.2489
▁pravidelné	-11.2509
▁textové	-11.2512
▁služební	-11.2513
▁požadovaný	-11.2518
stoupení	-11.252
▁Invest	-11.2532
▁zkušen	-11.2541
článk	-11.2541
pomíná	-11.2552
pochyby	-11.2557
▁říkají	-11.2564
▁pozdě	-11.2566
▁Pozor	-11.2569
▁Bratislava	-11.2569
▁Casimir	-11.2569
▁Demokratick	-11.2569
▁Jindřich	-11.2569
▁Počítač	-11.2569
▁Tigrid	-11.2569
▁cizince	-11.2569
▁dodržování	-11.2569
▁galerii	-11.2569
▁hlubší	-11.2569
▁hypotéz	-11.2569
▁identifik	-11.2569
▁konstatuje	-11.2569
▁metropole	-11.2569
▁mikroorganism	-11.2569
▁nejmodernější	-11.2569
▁nejznámější	-11.2569
▁nominální	-11.2569
▁otevřít	-11.2569
▁podpořit	-11.2569
▁požadovat	-11.2569
▁prohlídk	-11.2569
▁představenstva	-11.2569
▁reaktor	-11.2569
▁semifinále	-11.2569
▁strategií	-11.2569
▁udržuje	-11.2569
▁vojáci	-11.2569
▁výsledn	-11.2569
▁wimbledonsk	-11.2569
▁zveřejnil	-11.2569
▁zúčastněn	-11.2569
▁šablon	-11.2569
dostatečnou	-11.2569
▁Africe	-11.2569
▁Dopravní	-11.2569
▁NDR	-11.2569
▁Nedvěd	-11.2569
▁Ostatní	-11.2569
▁byznys	-11.2569
▁charakteristik	-11.2569
▁generací	-11.2569
▁kompetence	-11.2569
▁literární	-11.2569
▁polojasno	-11.2569
▁požadoval	-11.2569
▁přitažliv	-11.2569
▁složek	-11.2569
▁vydavatel	-11.2569
▁žadatel	-11.2569
▁Majitel	-11.2569
▁Podstatn	-11.2569
▁nátlak	-11.2569
▁stránky	-11.2569
▁strávil	-11.2569
▁vyhovuje	-11.2569
▁kodex	-11.2569
střílel	-11.2569
▁Dříve	-11.2569
▁údolí	-11.2569
▁vystřídal	-11.2569
▁čtvrteční	-11.2569
▁divadle	-11.2569
▁patřičn	-11.2569
▁položky	-11.2569
▁rytíř	-11.2569
▁nevidí	-11.2569
▁nízký	-11.2569
▁doporučil	-11.2569
▁logické	-11.2569
▁Městsk	-11.2569
▁poplatek	-11.2569
▁informovan	-11.2569
▁počínaj	-11.2569
▁vyrovnat	-11.2569
▁Jugoslávie	-11.2569
chlazení	-11.2569
▁stoupá	-11.2569
▁podobná	-11.2569
▁účinku	-11.2569
▁Prodej	-11.257
▁nejhorší	-11.257
▁Komerčn	-11.257
▁štáb	-11.257
▁potravinářské	-11.257
povídat	-11.257
▁splnil	-11.257
▁fotografie	-11.257
▁Rychl	-11.257
▁přijme	-11.257
▁Maďarsku	-11.257
▁počkat	-11.257
▁rakouský	-11.2571
▁ekonomická	-11.2571
▁korekc	-11.2571
▁ničem	-11.2571
▁zaručen	-11.2571
▁nápoj	-11.2572
▁Marie	-11.2572
▁doplňk	-11.2573
▁radnici	-11.2573
▁Začal	-11.2573
▁malíř	-11.2573
▁verzí	-11.2573
▁vstupenk	-11.2574
▁barva	-11.2574
▁bohatství	-11.2574
▁neděle	-11.2575
▁dozor	-11.2576
▁lodi	-11.2577
▁Ruml	-11.2578
▁vyhnout	-11.2579
▁teple	-11.2579
řádně	-11.2579
▁Uveden	-11.258
▁odhalen	-11.258
▁peset	-11.2581
▁divok	-11.2583
▁jezdit	-11.2583
▁změnám	-11.2584
▁cement	-11.2585
▁obřad	-11.2586
▁předcházející	-11.2587
▁nedostatku	-11.2588
▁podílet	-11.2591
▁centimetrů	-11.2591
▁oborech	-11.2592
▁odvet	-11.2593
▁nemovitostí	-11.2593
▁řekne	-11.2593
▁uvědomit	-11.2594
▁okresy	-11.2594
▁novinách	-11.2594
▁zlatý	-11.2596
▁EU	-11.26
▁tabulka	-11.2601
▁přelom	-11.2601
▁prodejny	-11.2604
▁uvádějí	-11.2607
▁Žid	-11.2611
▁ocenění	-11.2614
▁zvaný	-11.2615
▁složitý	-11.2617
▁plánování	-11.2618
▁krut	-11.2621
▁prožil	-11.2624
▁zkušební	-11.2624
stupující	-11.2625
následuj	-11.2627
▁propojení	-11.2628
▁přidat	-11.263
▁Brod	-11.263
▁procesoru	-11.2637
▁nemocný	-11.2644
▁skalní	-11.2646
padesát	-11.2649
▁správce	-11.2651
▁Děl	-11.2655
▁císaře	-11.2655
▁5000	-11.2662
▁energetický	-11.2665
▁Potřebuje	-11.2675
▁biolog	-11.2684
▁zkresl	-11.2685
▁obchodníků	-11.2691
▁Výrob	-11.2693
▁dodavatele	-11.2694
▁obuv	-11.2696
▁šed	-11.2698
▁optick	-11.2704
▁čínský	-11.2712
▁evropským	-11.2715
▁hrd	-11.2722
▁Vaše	-11.2745
▁jugoslávské	-11.2746
Severoatlantické	-11.2754
▁ekologický	-11.2754
▁básník	-11.2756
▁přesvědč	-11.2771
který	-11.2776
▁černý	-11.278
▁podzimní	-11.278
▁chodb	-11.2788
DOS	-11.2797
Gar	-11.28
▁bojovn	-11.2809
▁návštěvnost	-11.2826
▁Spart	-11.2836
▁zubní	-11.2838
▁konečn	-11.2855
▁klíčový	-11.2861
▁krále	-11.2862
▁přesvědčiv	-11.2865
▁ranní	-11.2876
▁průběžn	-11.2886
díval	-11.2895
schopné	-11.2898
▁260	-11.2899
▁znalost	-11.2902
▁okruh	-11.2907
ářství	-11.2909
▁43	-11.291
▁dav	-11.2931
▁přehlídk	-11.2935
▁statistické	-11.2952
▁úředník	-11.2959
▁basketbal	-11.2963
trhl	-11.2968
▁stíhán	-11.2977
▁velkoobchod	-11.298
▁Ján	-11.2989
▁převážn	-11.2991
▁automat	-11.2998
▁norma	-11.3004
▁přesahuj	-11.3017
příkladu	-11.3017
▁Manažer	-11.3024
FIFA	-11.3024
▁Budějovic	-11.3024
▁Bulharsk	-11.3024
▁Dienstbier	-11.3024
▁Dosavadní	-11.3024
▁Fischer	-11.3024
▁Kongres	-11.3024
▁Návštěv	-11.3024
▁Siemens	-11.3024
▁Skupina	-11.3024
▁Těžko	-11.3024
▁design	-11.3024
▁disponuj	-11.3024
▁družstvo	-11.3024
▁družstvu	-11.3024
▁geometrii	-11.3024
▁inflaci	-11.3024
▁luxusní	-11.3024
▁naznačuje	-11.3024
▁neuspěl	-11.3024
▁normálně	-11.3024
▁označován	-11.3024
▁regenerace	-11.3024
▁rekonstrukce	-11.3024
▁rozšiřuje	-11.3024
▁rámečku	-11.3024
▁seznámit	-11.3024
▁skupenství	-11.3024
▁službě	-11.3024
▁strategické	-11.3024
▁transformační	-11.3024
▁zajistí	-11.3024
▁zúčastnit	-11.3024
▁Štědrý	-11.3024
▁1982	-11.3024
▁byrokrat	-11.3024
▁chirurg	-11.3024
▁obličej	-11.3024
▁přiznává	-11.3024
▁čistíren	-11.3024
připravoval	-11.3024
▁biskup	-11.3024
▁shodují	-11.3024
▁Poldi	-11.3024
▁dodávek	-11.3024
▁neomezen	-11.3024
▁posuzován	-11.3024
▁stránku	-11.3024
▁Červen	-11.3024
▁zákrok	-11.3024
▁velvyslanectví	-11.3024
▁vládnoucí	-11.3024
▁vstupenek	-11.3024
▁středisko	-11.3024
▁posléze	-11.3024
▁uprchl	-11.3024
▁Dušan	-11.3024
▁nabídkou	-11.3024
▁žádat	-11.3024
▁Armád	-11.3024
▁Náklady	-11.3024
▁informován	-11.3024
▁usiluje	-11.3024
▁konstrukcí	-11.3024
▁uznat	-11.3024
▁skromn	-11.3024
▁vazeb	-11.3024
▁Bavor	-11.3024
▁vazba	-11.3024
▁zastánc	-11.3024
▁Manžel	-11.3024
▁udržova	-11.3024
▁jindy	-11.3024
▁tribunál	-11.3024
▁Varech	-11.3024
▁Otevř	-11.3024
▁salát	-11.3024
▁leckd	-11.3024
▁hrůz	-11.3024
▁spoléha	-11.3025
▁nabídne	-11.3025
▁přejít	-11.3025
▁senátní	-11.3025
▁náhlé	-11.3025
▁duševní	-11.3025
▁Projekt	-11.3025
▁nepotřebuje	-11.3025
▁rozmístěn	-11.3025
▁Slavia	-11.3025
▁zodpovědnost	-11.3026
▁směřuje	-11.3026
▁chaos	-11.3026
▁chuť	-11.3026
▁integrace	-11.3026
▁Rozhodnutí	-11.3026
▁trvající	-11.3026
krácen	-11.3027
▁Oprav	-11.3027
▁nesporn	-11.3027
▁kated	-11.3027
▁Bělohradský	-11.3028
▁regulační	-11.3028
▁zvon	-11.3028
▁nejsem	-11.3028
hrádk	-11.3028
▁ohně	-11.3029
střelen	-11.303
allye	-11.303
▁Nadace	-11.3031
▁Váš	-11.3031
▁podrobnosti	-11.3031
blížení	-11.3032
▁vyspěl	-11.3033
▁nezákonn	-11.3033
přijeli	-11.3033
ckner	-11.3034
▁turné	-11.3037
▁nedošlo	-11.3037
▁Závod	-11.3038
▁napaden	-11.304
▁neumí	-11.304
▁Milán	-11.3041
▁kdykoliv	-11.3042
▁atmosféra	-11.3043
▁strop	-11.3043
▁šedesátých	-11.3044
pořádat	-11.3044
▁sedimentů	-11.3045
▁slunce	-11.3046
▁tmav	-11.3046
▁památek	-11.3047
▁pravděpodobné	-11.3047
▁zaslouží	-11.3047
▁sedmdesátých	-11.3048
▁svatb	-11.305
▁upozornění	-11.3051
▁kůže	-11.3053
▁faktory	-11.3056
Přerov	-11.3057
▁souhlasit	-11.3057
▁pozic	-11.3058
▁kontrolovat	-11.3062
▁Kolek	-11.3065
▁dostaneme	-11.3073
▁matka	-11.3079
zývají	-11.3084
▁vyhodnocen	-11.3087
▁Los	-11.3088
▁plná	-11.3092
▁dotazník	-11.3095
▁moři	-11.3095
▁závažné	-11.31
kurzor	-11.3105
▁švédské	-11.3107
▁horské	-11.3109
▁interní	-11.3111
▁závažný	-11.3117
▁mise	-11.3124
▁zatčen	-11.3125
▁slibuje	-11.3131
▁Clintonov	-11.3138
▁Volb	-11.3142
▁mateřské	-11.315
▁brněnsk	-11.3168
▁datové	-11.3169
▁vystupuj	-11.3176
natý	-11.3177
▁rozpočtové	-11.3178
▁Poslanec	-11.318
rovné	-11.3193
▁elektronický	-11.3193
hrával	-11.3201
▁výtvarné	-11.3207
například	-11.3221
▁nebezpečný	-11.3241
▁násiln	-11.3245
▁Fotbalist	-11.3255
hodinové	-11.3259
▁světeln	-11.326
▁tělesné	-11.3262
▁Nemoh	-11.3277
▁urychl	-11.3277
▁svěřenc	-11.3295
▁spojuje	-11.3302
▁ČT	-11.3312
▁získaný	-11.3328
▁podnikatelsk	-11.3328
▁prestiž	-11.3333
▁počátk	-11.3347
▁Označ	-11.3376
▁Washington	-11.3384
▁důvěry	-11.3385
▁nasazen	-11.3386
▁Věr	-11.339
▁nemocnic	-11.3399
▁schůzk	-11.3411
▁užívá	-11.3413
kreslen	-11.3431
▁samostatn	-11.3439
atmosfér	-11.3445
▁klíčové	-11.3445
▁oceněn	-11.3453
šetří	-11.3481
▁náročný	-11.3487
nejvýš	-11.3492
▁organizáto	-11.3499
▁Blízké	-11.35
▁Gabčíkov	-11.35
▁Kreslení	-11.35
▁aplikaci	-11.35
▁důležitou	-11.35
▁filharmoni	-11.35
▁kariéru	-11.35
▁konkurent	-11.35
▁neexistují	-11.35
▁nepřítel	-11.35
▁ovlivnit	-11.35
▁podmínkám	-11.35
▁popularit	-11.35
▁přirozeně	-11.35
▁referenda	-11.35
▁svědky	-11.35
▁vynález	-11.35
▁výpovědi	-11.35
▁zneužití	-11.35
▁zázrak	-11.35
▁Předpokládá	-11.35
▁fosilní	-11.35
▁kanalizace	-11.35
▁paralel	-11.35
▁předpokládal	-11.35
▁snižovat	-11.35
▁ubytovací	-11.35
▁Michail	-11.35
▁komunistů	-11.35
▁lehké	-11.35
▁pomůck	-11.35
▁setkáváme	-11.35
atlantick	-11.35
▁obrátit	-11.35
▁rubrik	-11.35
▁etapě	-11.35
▁kontrakt	-11.35
▁přivezl	-11.35
▁stupeň	-11.35
zřídka	-11.35
▁jedinců	-11.35
▁zvyšují	-11.35
▁československý	-11.35
▁Atlantiku	-11.35
▁klobouk	-11.35
▁nezmění	-11.35
▁přídav	-11.35
▁politicky	-11.35
▁povahy	-11.35
▁talent	-11.35
▁Dynam	-11.35
▁Trans	-11.35
▁válku	-11.35
▁přírodu	-11.35
▁češtině	-11.35
imochodem	-11.35
▁budoucna	-11.35
▁zbaven	-11.35
▁týče	-11.35
▁antropologie	-11.35
▁staletí	-11.35
hlíží	-11.35
▁Karpov	-11.35
▁smečky	-11.35
▁zkrátka	-11.35
▁administrativní	-11.35
▁výtečn	-11.35
▁image	-11.3501
▁Lendl	-11.3501
▁kombinace	-11.3501
▁Boyle	-11.3501
▁obzor	-11.3501
▁chybět	-11.3501
▁vyšla	-11.3501
▁mzda	-11.3501
▁hračk	-11.3501
▁hokejisté	-11.3501
▁stavět	-11.3501
průchod	-11.3502
▁vytížen	-11.3502
▁Španělska	-11.3502
▁rumunsk	-11.3502
▁kritický	-11.3502
▁Zdeňk	-11.3503
▁vyráběn	-11.3503
▁Středisk	-11.3503
▁arabské	-11.3503
▁distributor	-11.3503
▁induk	-11.3503
▁Říman	-11.3504
▁1980	-11.3504
▁dostupné	-11.3504
▁poražen	-11.3504
▁nálad	-11.3504
▁převah	-11.3504
▁Optima	-11.3505
▁prapor	-11.3505
▁Minul	-11.3505
▁dívat	-11.3505
▁JAK	-11.3505
▁ocenil	-11.3505
▁nohou	-11.3505
▁jídla	-11.3505
▁rozprav	-11.3506
▁solidní	-11.3506
▁Intel	-11.3507
▁liberální	-11.3507
▁Maďarsko	-11.3507
▁psů	-11.3508
▁2,5	-11.3509
▁příznivců	-11.3509
ukční	-11.3509
▁Říká	-11.3509
▁plnit	-11.351
▁nezbývá	-11.351
▁zabit	-11.351
kcionáři	-11.3511
▁arabský	-11.3512
▁tabu	-11.3512
▁znečištění	-11.3513
▁Spolu	-11.3513
▁ligový	-11.3514
▁Peck	-11.3514
▁Pokus	-11.3515
bydlí	-11.3515
▁Příští	-11.3516
zkoušet	-11.3516
▁příjezd	-11.3518
▁převést	-11.3519
▁oken	-11.352
▁ohni	-11.3521
▁osnov	-11.3521
▁Konec	-11.3521
▁varování	-11.3521
hodná	-11.3522
▁euro	-11.3522
▁vyměnit	-11.3522
▁sáze	-11.3523
rovnávací	-11.3523
▁ráj	-11.3523
▁matky	-11.3524
▁Škol	-11.3525
▁výraznější	-11.3525
následoval	-11.3526
▁nápln	-11.353
▁vítr	-11.3531
▁Vesmíru	-11.3531
▁adresář	-11.3532
▁Krist	-11.3532
kazil	-11.3532
▁stád	-11.3534
▁Jir	-11.3548
zřetelně	-11.3548
přesněji	-11.3552
▁slun	-11.3552
sadit	-11.3553
▁stavba	-11.3554
▁elektronické	-11.3556
▁podoba	-11.3557
▁kurt	-11.356
▁vzdal	-11.3566
▁genetick	-11.3569
▁vyprš	-11.3572
▁uznávan	-11.3574
escu	-11.3578
▁zachován	-11.3579
▁Slovák	-11.3582
▁dokončen	-11.3588
▁zdokonal	-11.3595
jadern	-11.3597
▁komet	-11.3599
▁extrémní	-11.3604
▁slyší	-11.3605
▁zved	-11.361
▁elektrický	-11.361
▁absolv	-11.3616
konců	-11.3622
▁krevní	-11.3638
▁kluk	-11.3639
▁zobrazen	-11.3647
▁Ekonomick	-11.3652
▁manažerské	-11.3653
▁1500	-11.3668
▁veškerý	-11.3669
▁prestižní	-11.3669
řejmě	-11.3676
niknout	-11.3681
▁italsk	-11.3696
OST	-11.3702
▁krav	-11.3709
▁krvi	-11.3721
▁maďarské	-11.3764
▁Král	-11.3764
UJE	-11.3765
▁jugoslávsk	-11.38
tvrdí	-11.3806
místo	-11.3808
▁had	-11.3812
▁archeolog	-11.3825
▁svalov	-11.3829
▁Pražsk	-11.3854
AG	-11.386
▁125	-11.3877
▁převlád	-11.3877
▁Svaz	-11.3889
▁týkají	-11.3893
▁totemismu	-11.3913
▁japon	-11.3915
▁terorist	-11.3936
▁řešen	-11.3943
▁oddělen	-11.395
▁tenisové	-11.3955
▁svobodný	-11.396
dávky	-11.397
▁registrac	-11.3979
funk	-11.3981
▁Závěr	-11.3983
▁záznamové	-11.3993
olicejní	-11.3997
▁42	-11.3999
▁konzerv	-11.3999
▁obdiv	-11.3999
peptid	-11.4
▁Doufám	-11.4
▁Výsledek	-11.4
▁Wembley	-11.4
▁Zdravotn	-11.4
▁anonymní	-11.4
▁cizinců	-11.4
▁definovat	-11.4
▁dvojnásobek	-11.4
▁evidenci	-11.4
▁humanitární	-11.4
▁intenzivně	-11.4
▁komfort	-11.4
▁kriminál	-11.4
▁království	-11.4
▁lhůty	-11.4
▁nabídnut	-11.4
▁neúspěch	-11.4
▁otázkách	-11.4
▁ošetření	-11.4
▁podruhé	-11.4
▁pohotovost	-11.4
▁počáteční	-11.4
▁převzetí	-11.4
▁připomenout	-11.4
▁revoluce	-11.4
▁strategický	-11.4
▁tvůrčí	-11.4
▁týdnu	-11.4
▁uhličitého	-11.4
▁upozorňují	-11.4
▁veřejnou	-11.4
▁zdravotně	-11.4
▁zvyšovat	-11.4
▁zážitek	-11.4
neštěstí	-11.4
▁Boleslav	-11.4
▁HGF	-11.4
▁PŘED	-11.4
▁dětmi	-11.4
▁projednávání	-11.4
▁uskutečň	-11.4
▁užitečné	-11.4
▁výrobku	-11.4
▁zajistil	-11.4
▁zloděj	-11.4
▁řekněme	-11.4
▁Poborského	-11.4
▁Strakoni	-11.4
▁Výjimk	-11.4
▁ostravské	-11.4
▁sankce	-11.4
▁sportovci	-11.4
▁Havlov	-11.4
▁LDS	-11.4
▁série	-11.4
▁Nobelov	-11.4
▁umístit	-11.4
▁mobilní	-11.4
▁skener	-11.4
▁souprav	-11.4
▁srpnu	-11.4
▁Mostaru	-11.4
▁krystal	-11.4
▁opačný	-11.4
▁pátý	-11.4
▁sleduje	-11.4
pomáhal	-11.4
▁MHz	-11.4
▁potravy	-11.4
▁odevzda	-11.4
▁komisí	-11.4
▁zhoubn	-11.4
▁centrem	-11.4
▁kompost	-11.4
▁chemie	-11.4
▁nepatří	-11.4
▁stěžují	-11.4
▁Názor	-11.4
▁Komora	-11.4
▁stačit	-11.4
▁pozemků	-11.4
▁rozvinut	-11.4
skočit	-11.4
▁národnostní	-11.4
▁letišti	-11.4
▁minimum	-11.4
▁konzervativní	-11.4
▁sehnat	-11.4
záhad	-11.4
▁veličin	-11.4
▁Ústí	-11.4
▁Filip	-11.4
▁Počítá	-11.4
▁Prahu	-11.4
▁Úprav	-11.4
▁shluk	-11.4
▁promítá	-11.4
▁obnovit	-11.4
▁popsán	-11.4
▁obránce	-11.4
▁turisté	-11.4001
▁modernizaci	-11.4001
▁kostým	-11.4001
▁vyhověl	-11.4001
▁proběhla	-11.4001
▁nebrání	-11.4001
▁remíz	-11.4001
▁román	-11.4001
▁karet	-11.4002
vážet	-11.4002
▁vykonávat	-11.4002
▁emise	-11.4003
▁podobnost	-11.4003
▁azyl	-11.4003
▁pilot	-11.4003
▁diskusí	-11.4003
▁moudr	-11.4004
▁experimentální	-11.4004
▁Klepn	-11.4004
▁podoby	-11.4004
▁zaslal	-11.4005
▁1948	-11.4005
▁realizaci	-11.4005
▁chrání	-11.4005
▁cítit	-11.4005
ford	-11.4006
▁vylepš	-11.4007
▁videa	-11.4007
▁španělsk	-11.4007
▁půjčky	-11.4007
▁dovoluje	-11.4008
▁potřebovat	-11.4009
▁odmítnut	-11.401
▁dárk	-11.401
▁Chang	-11.401
▁nechci	-11.4011
▁Mistr	-11.4011
▁očima	-11.4012
▁budování	-11.4012
▁Bosn	-11.4013
▁POD	-11.4013
▁léčení	-11.4014
rozuměj	-11.4014
▁tabulku	-11.4015
▁bát	-11.4015
▁rozdělit	-11.4015
▁nádob	-11.4018
▁útočn	-11.4018
▁Ukázal	-11.4019
▁nahoru	-11.402
▁ušetří	-11.4021
▁atmosféru	-11.4021
určují	-11.4021
▁přestane	-11.4022
▁dovolí	-11.4022
▁formulář	-11.4024
rychlostní	-11.4025
▁obává	-11.4026
▁oblib	-11.403
▁Masarykov	-11.4031
▁prosím	-11.4032
▁změnách	-11.4033
▁hovořili	-11.4033
▁venku	-11.4034
hradit	-11.4038
▁vzpomín	-11.4043
▁kolekc	-11.4044
▁Seznam	-11.4046
▁Chorvat	-11.4048
▁vkus	-11.405
▁pták	-11.4062
▁věčn	-11.4063
▁Řekl	-11.4067
0.000	-11.4071
▁láh	-11.4074
▁náhle	-11.4078
důrazně	-11.4079
▁čelní	-11.4085
▁hromadné	-11.4093
▁diplomatické	-11.4093
eckém	-11.4102
▁běže	-11.4103
sazování	-11.4105
▁uspořádal	-11.4114
▁izraelský	-11.412
jížděl	-11.414
▁samotn	-11.4143
bírat	-11.4157
▁Večer	-11.4161
▁Koup	-11.4164
cestovat	-11.4195
▁klinick	-11.4209
▁aneb	-11.422
▁vycházel	-11.4263
▁organick	-11.4272
▁140	-11.4277
▁uvolnil	-11.428
▁obyčejný	-11.4289
morav	-11.4321
▁automobilový	-11.4325
izraelsk	-11.4345
▁Turist	-11.437
▁obranné	-11.4383
▁zemědělsk	-11.4395
ohledně	-11.4396
▁šampionát	-11.441
mohou	-11.4417
▁vyžadují	-11.442
▁psycho	-11.4431
▁následk	-11.4438
▁spolupracovník	-11.4451
▁veřejný	-11.4453
svit	-11.4464
▁těle	-11.4466
▁povolen	-11.4496
▁výpočet	-11.45
▁Maďar	-11.4516
▁příslušnost	-11.4516
projevilo	-11.4517
▁integrovan	-11.4523
ografii	-11.4525
▁uzávěr	-11.4526
sekretariát	-11.4526
zrcadl	-11.4526
▁Dvořák	-11.4526
▁Lubomír	-11.4526
▁Maastrichtu	-11.4526
▁Sarajev	-11.4526
▁Schneider	-11.4526
▁Vinohrad	-11.4526
▁bratislavsk	-11.4526
▁cizinci	-11.4526
▁deklarace	-11.4526
▁evoluční	-11.4526
▁institut	-11.4526
▁kancléř	-11.4526
▁kmitočt	-11.4526
▁lékáren	-11.4526
▁medailí	-11.4526
▁ministerstev	-11.4526
▁nemožné	-11.4526
▁opozici	-11.4526
▁oslaben	-11.4526
▁oživení	-11.4526
▁portfoli	-11.4526
▁posouzení	-11.4526
▁přeháňky	-11.4526
▁redakci	-11.4526
▁restituční	-11.4526
▁skript	-11.4526
▁struktuře	-11.4526
▁tabulátor	-11.4526
▁univerzáln	-11.4526
▁uspokojení	-11.4526
▁vyloučit	-11.4526
▁zúčastní	-11.4526
▁Antonín	-11.4526
▁Bayern	-11.4526
▁Benešov	-11.4526
▁Jednotliv	-11.4526
▁Náměst	-11.4526
▁archív	-11.4526
▁cizině	-11.4526
▁informovat	-11.4526
▁komunisté	-11.4526
▁nejsilnější	-11.4526
▁nevznik	-11.4526
▁nečekaně	-11.4526
▁spánku	-11.4526
▁tiskárna	-11.4526
▁zlepšit	-11.4526
▁altruist	-11.4526
▁minerální	-11.4526
▁ohlášen	-11.4526
▁princezn	-11.4526
▁přidružen	-11.4526
▁stadia	-11.4526
▁svatební	-11.4526
▁výkyvy	-11.4526
▁zlepšil	-11.4526
▁tisíciletí	-11.4526
instalovat	-11.4526
▁Weizs	-11.4526
▁krádež	-11.4526
▁stoupenc	-11.4526
šetřil	-11.4526
▁Libanon	-11.4526
▁Mazdy	-11.4526
▁družic	-11.4526
▁lístky	-11.4526
▁nahrazen	-11.4526
▁zasvěcen	-11.4526
▁řemesl	-11.4526
▁letadlo	-11.4526
▁preventivn	-11.4526
▁porušil	-11.4526
▁válkou	-11.4526
▁ČSAV	-11.4526
▁licence	-11.4526
▁ohrom	-11.4526
▁slalom	-11.4526
▁jídlo	-11.4526
▁kádru	-11.4526
▁neuvažuj	-11.4526
hlédl	-11.4526
▁Něco	-11.4526
▁čáry	-11.4526
▁vydělat	-11.4526
▁doplnit	-11.4526
▁ovládat	-11.4526
rozhodoval	-11.4526
▁jedinci	-11.4526
▁pozemky	-11.4526
▁jedinečn	-11.4526
▁penalt	-11.4526
▁Polsku	-11.4526
▁zahájí	-11.4526
▁dealer	-11.4526
▁odškodnění	-11.4526
▁vyrábějí	-11.4526
▁Odhad	-11.4527
▁užívat	-11.4527
▁využije	-11.4527
▁účinný	-11.4527
▁potrvá	-11.4527
▁veliká	-11.4527
štejn	-11.4527
▁umístil	-11.4527
▁nestalo	-11.4527
▁USD	-11.4527
▁kůži	-11.4527
▁nebudu	-11.4527
šňů	-11.4527
pálil	-11.4527
▁žánr	-11.4528
▁hlášen	-11.4528
▁nemění	-11.4528
▁dopředu	-11.4528
▁městečk	-11.4528
▁Holub	-11.4528
▁hornin	-11.4528
▁odvozen	-11.4528
▁setkat	-11.4528
▁vracejí	-11.4528
▁uklid	-11.4528
▁Hlas	-11.4528
▁koncentrací	-11.4529
▁Krkonoších	-11.4529
▁přečte	-11.4529
▁návštěvníci	-11.4529
▁dřevěný	-11.453
▁Zásad	-11.453
▁otřes	-11.453
▁restaurací	-11.453
▁východisk	-11.4531
dražil	-11.4531
▁zlata	-11.4532
▁chybějící	-11.4532
▁dešťov	-11.4533
▁ruchu	-11.4533
▁masa	-11.4533
▁řešil	-11.4534
▁jádra	-11.4534
▁Juli	-11.4534
přát	-11.4535
▁Nesmí	-11.4536
▁zakončen	-11.4536
▁spokojenosti	-11.4536
▁odstín	-11.4538
▁náročnější	-11.4539
▁přenesen	-11.4539
▁léčba	-11.4541
▁záložník	-11.4542
▁převeden	-11.4542
lákat	-11.4544
▁realizovat	-11.4544
▁úkor	-11.4547
▁stres	-11.455
▁obrace	-11.4552
▁vyšetřovací	-11.4553
▁kytarist	-11.4557
LED	-11.456
▁letoun	-11.4564
▁Byt	-11.4571
▁drát	-11.4571
▁oceňuj	-11.4572
▁střelec	-11.4577
▁počítají	-11.4579
méno	-11.4584
▁právnick	-11.4595
▁potka	-11.4616
▁varoval	-11.4616
▁vyplývající	-11.4619
▁nespokojenost	-11.4626
▁bezpečně	-11.4627
▁Hodn	-11.4649
▁Ann	-11.4658
strašně	-11.4667
▁zněl	-11.4681
oporu	-11.4696
▁Syn	-11.4697
▁91	-11.4713
▁Husov	-11.4722
▁členské	-11.4738
ždyť	-11.4765
▁jeskyn	-11.477
▁smrteln	-11.4773
▁svazové	-11.4797
▁uskutečnil	-11.4807
▁Světov	-11.4815
▁kvalitativn	-11.4817
▁Severoatlantick	-11.4849
print	-11.4851
▁Barn	-11.4855
▁kapitálový	-11.4862
mentálně	-11.4895
▁překvapiv	-11.4908
sovětsk	-11.4926
jednala	-11.4928
▁všeobecn	-11.4929
▁speciálně	-11.4943
▁Potřeb	-11.4947
▁magi	-11.4951
▁Atlant	-11.496
▁Ostrav	-11.4982
▁zákoník	-11.4984
edmdesát	-11.5022
▁oblačno	-11.5023
▁zhodnoc	-11.5028
▁věnuj	-11.5029
▁kapr	-11.503
▁umožňují	-11.5039
▁Masaryk	-11.5047
▁dočasn	-11.5048
jišťuje	-11.5049
▁sovětský	-11.5071
ejzajímavější	-11.5082
populárnější	-11.5082
▁Bezpečnost	-11.5082
▁Bierhoff	-11.5082
▁Evropou	-11.5082
▁Jackson	-11.5082
▁Jupiter	-11.5082
▁Karadžic	-11.5082
▁Letošní	-11.5082
▁Litvínov	-11.5082
▁Naštěstí	-11.5082
▁Obyvatel	-11.5082
▁Olszewsk	-11.5082
▁Sněmovn	-11.5082
▁Softwar	-11.5082
▁Stehlík	-11.5082
▁arcibiskup	-11.5082
▁burzy	-11.5082
▁celosvětov	-11.5082
▁charitativní	-11.5082
▁chorvatský	-11.5082
▁dirigent	-11.5082
▁energií	-11.5082
▁kandidovat	-11.5082
▁krátkodobé	-11.5082
▁laboratorní	-11.5082
▁leccos	-11.5082
▁londýn	-11.5082
▁nahrávk	-11.5082
▁neexistoval	-11.5082
▁nešťastn	-11.5082
▁následovat	-11.5082
▁opozicí	-11.5082
▁premiéře	-11.5082
▁prezervativ	-11.5082
▁prokuratur	-11.5082
▁překážky	-11.5082
▁restitucí	-11.5082
▁seriózní	-11.5082
▁stability	-11.5082
▁sudetský	-11.5082
▁televizor	-11.5082
▁viceprezident	-11.5082
▁vzdělávání	-11.5082
▁zdůvodnil	-11.5082
▁závislá	-11.5082
▁Úspěšn	-11.5082
▁úspěšnost	-11.5082
škráb	-11.5082
▁Madrid	-11.5082
▁Podívej	-11.5082
▁Soutěž	-11.5082
▁incident	-11.5082
▁kontext	-11.5082
▁ozónu	-11.5082
▁podotkl	-11.5082
▁poskytne	-11.5082
▁preferenc	-11.5082
▁tendenci	-11.5082
▁totalitní	-11.5082
▁učebnic	-11.5082
▁výkres	-11.5082
▁výslovně	-11.5082
▁zakázán	-11.5082
▁záleže	-11.5082
▁získají	-11.5082
▁Čtvrt	-11.5082
Standard	-11.5082
▁Ukrajina	-11.5082
▁dostatečné	-11.5082
▁imunitní	-11.5082
▁odlišné	-11.5082
▁socialismu	-11.5082
▁Město	-11.5082
▁výrobou	-11.5082
▁Křesťan	-11.5082
▁Moderní	-11.5082
▁kapitul	-11.5082
▁zachránil	-11.5082
▁Pražan	-11.5082
▁mrtvé	-11.5082
▁náleží	-11.5082
▁těžší	-11.5082
▁porušování	-11.5082
▁vyměnil	-11.5082
▁znamení	-11.5082
burgu	-11.5082
▁Atleti	-11.5082
▁Mandler	-11.5082
▁abeced	-11.5082
▁filtr	-11.5082
▁herečka	-11.5082
▁laserov	-11.5082
▁zemědělci	-11.5082
▁Kopřiv	-11.5082
▁vyžádá	-11.5082
▁Island	-11.5082
▁profese	-11.5082
▁Dukly	-11.5082
▁MIDI	-11.5082
▁chápán	-11.5082
▁položku	-11.5082
▁živnostenský	-11.5082
▁naučit	-11.5082
▁Obvodní	-11.5082
▁nutná	-11.5082
▁ČSAD	-11.5082
▁hrozil	-11.5082
▁druzí	-11.5082
▁příroda	-11.5082
▁Vojenské	-11.5082
▁obvinil	-11.5082
▁Dlouho	-11.5082
▁zajímal	-11.5082
▁převažuj	-11.5082
▁stěží	-11.5082
▁necelé	-11.5082
▁Hapal	-11.5082
▁výlučn	-11.5082
▁rozumět	-11.5082
▁kubismu	-11.5083
▁uplatňova	-11.5083
▁Maďarska	-11.5083
▁mýtu	-11.5083
▁Akci	-11.5083
▁vystupoval	-11.5083
▁koncentraci	-11.5084
▁zvrat	-11.5084
▁frakc	-11.5084
sudek	-11.5084
▁Berger	-11.5085
▁diváci	-11.5085
ampión	-11.5085
▁přečetl	-11.5085
▁vyjít	-11.5085
▁kopané	-11.5085
▁utajen	-11.5085
vrátit	-11.5085
▁proměnliv	-11.5086
▁poctiv	-11.5086
▁studené	-11.5087
▁kláštera	-11.5087
▁tvorba	-11.5087
▁kresb	-11.5087
▁nesměl	-11.5089
▁česky	-11.5089
ČSSD	-11.5089
▁cítil	-11.5091
▁balení	-11.5092
▁ČESK	-11.5092
▁loď	-11.5093
píší	-11.5094
▁Příklad	-11.5094
háněl	-11.5094
▁kámen	-11.5096
▁duši	-11.5097
▁síni	-11.5097
▁1950	-11.5097
▁zvyklí	-11.5098
▁přidělen	-11.5098
▁očích	-11.5101
týž	-11.5101
▁Politick	-11.5101
především	-11.5101
poškozené	-11.5101
▁důstojník	-11.5102
▁Obsah	-11.5103
systém	-11.5103
▁utekl	-11.5106
▁plot	-11.5108
▁chápe	-11.5111
▁trůn	-11.5111
▁dostupný	-11.5112
účtování	-11.5115
ůstek	-11.5117
▁zanikl	-11.5119
▁Prag	-11.5119
▁pojistn	-11.5119
ografické	-11.5123
nechávají	-11.5127
▁alternativní	-11.513
▁výměník	-11.5139
▁izraelské	-11.5141
▁předsednictv	-11.5146
▁mistrovsk	-11.5149
▁čaj	-11.5149
ikonu	-11.5154
▁lacin	-11.5158
hořel	-11.5168
▁pětadvacet	-11.5175
▁výživ	-11.5176
▁technologický	-11.518
▁dosahují	-11.5187
▁vníma	-11.5192
▁částečn	-11.5193
▁Baník	-11.52
▁Optic	-11.5211
▁zadržen	-11.5216
ower	-11.5224
▁Geo	-11.5226
▁230	-11.5234
▁nezískal	-11.5243
▁Buď	-11.5252
▁přesvědčil	-11.5254
▁trojic	-11.5255
▁slovenský	-11.5256
▁jmenoval	-11.5259
▁drav	-11.526
▁mořské	-11.5265
ázev	-11.5268
▁ověřen	-11.5271
archeologi	-11.528
▁nálož	-11.5287
způsobují	-11.5288
jednali	-11.5299
▁horský	-11.5308
▁touh	-11.5314
▁momentáln	-11.5315
▁Občansk	-11.5325
▁Zákaz	-11.5329
ogenní	-11.5339
▁prezidentský	-11.5345
▁Karlový	-11.5349
soudit	-11.538
▁hlás	-11.5383
bytová	-11.5388
významn	-11.5414
tlačit	-11.5415
padnout	-11.5419
▁zdravý	-11.5423
▁závažn	-11.5452
tvořily	-11.5458
pracování	-11.5471
elektrick	-11.5477
▁tradic	-11.5513
čínsk	-11.5515
▁dávn	-11.5516
▁tečk	-11.5522
vezm	-11.5547
▁vesmír	-11.5554
▁muzeu	-11.5574
▁jater	-11.5583
▁vesnic	-11.5596
▁zapsán	-11.5598
▁Ostravsk	-11.5598
▁nejedn	-11.5604
▁potvrzen	-11.5618
▁rostl	-11.564
▁začínal	-11.5642
389	-11.5654
▁Švýcar	-11.5655
▁srozumiteln	-11.5657
▁restaur	-11.566
vyjádřen	-11.566
německou	-11.5661
▁květ	-11.5663
▁klášte	-11.5664
▁Krkonoš	-11.5667
nešní	-11.5668
▁Jugosláv	-11.5669
▁úměrn	-11.5669
svobozen	-11.567
doporučují	-11.567
egyptsk	-11.567
▁Běloruska	-11.567
▁Hrdličk	-11.567
▁Jihoafrick	-11.567
▁Manchester	-11.567
▁Pentium	-11.567
▁Polskem	-11.567
▁Poštovní	-11.567
▁Pravděpodobn	-11.567
▁Rozhovor	-11.567
▁Svorada	-11.567
▁Významn	-11.567
▁asteroid	-11.567
▁displej	-11.567
▁doprovázen	-11.567
▁ekvivalent	-11.567
▁gramotnost	-11.567
▁hřbitov	-11.567
▁konfiguraci	-11.567
▁kooperac	-11.567
▁lidstva	-11.567
▁mechanismy	-11.567
▁ministerstvem	-11.567
▁mrtvých	-11.567
▁nejlevnější	-11.567
▁nejvhodnější	-11.567
▁nepřijatelné	-11.567
▁nesprávn	-11.567
▁organismů	-11.567
▁oteplení	-11.567
▁ovlivňova	-11.567
▁podmínkami	-11.567
▁pohromadě	-11.567
▁potvrdit	-11.567
▁pracovišti	-11.567
▁prohlašuje	-11.567
▁protagonist	-11.567
▁redukci	-11.567
▁sluchátka	-11.567
▁stabilitu	-11.567
▁strojírenství	-11.567
▁svědků	-11.567
▁uskutečněn	-11.567
▁vyjadřova	-11.567
▁výhrady	-11.567
▁výsledcích	-11.567
▁zachránit	-11.567
▁zaměstnává	-11.567
▁zastupitelstvo	-11.567
▁zastávk	-11.567
▁zvýhodněn	-11.567
▁závazek	-11.567
▁závislé	-11.567
▁švýcarské	-11.567
▁1981	-11.567
▁Eduard	-11.567
▁Kepler	-11.567
▁Městě	-11.567
▁Niederl	-11.567
▁Pořadatel	-11.567
▁Uvažuje	-11.567
▁generaci	-11.567
▁instance	-11.567
▁inzerát	-11.567
▁kampaň	-11.567
▁mužstvu	-11.567
▁odehrál	-11.567
▁označují	-11.567
▁rozvržení	-11.567
▁spolupracují	-11.567
▁ubytovn	-11.567
▁vyjednávání	-11.567
▁vyvrchol	-11.567
▁vzdělávací	-11.567
▁zbraň	-11.567
▁Thomas	-11.567
▁Vědci	-11.567
▁bázi	-11.567
▁složku	-11.567
▁kliniky	-11.567
▁prokázán	-11.567
▁pátrá	-11.567
přihlášk	-11.567
▁Balkán	-11.567
▁komentoval	-11.567
▁očekávají	-11.567
▁profesí	-11.567
▁Výběr	-11.567
▁sazby	-11.567
▁kosmický	-11.567
▁obtíže	-11.567
▁pouštní	-11.567
▁Právní	-11.567
▁kontrast	-11.567
▁překonat	-11.567
▁vazbě	-11.567
omputer	-11.567
▁čistírn	-11.567
▁Baker	-11.567
▁hmyz	-11.567
▁jedinec	-11.567
▁vyřešil	-11.567
▁podléha	-11.567
▁poplatků	-11.567
▁sérii	-11.567
režie	-11.567
▁SNR	-11.567
▁dráhu	-11.567
opakovaně	-11.567
▁přijímat	-11.567
▁ojediněle	-11.567
▁prvotní	-11.567
▁převrat	-11.567
▁přehrad	-11.567
▁odvahu	-11.567
▁zahrnují	-11.567
▁neviděl	-11.567
▁Gross	-11.567
▁otravy	-11.567
▁Smith	-11.567
▁partie	-11.567
▁uplatnil	-11.567
KDS	-11.567
▁kolaps	-11.567
▁povahu	-11.567
▁Reuter	-11.567
▁absenc	-11.567
hlížel	-11.567
▁sladk	-11.567
▁2:1	-11.567
▁nadějn	-11.567
▁jarní	-11.567
▁postačí	-11.567
▁obezit	-11.5671
▁kombinací	-11.5671
▁etapy	-11.5671
▁cvičení	-11.5671
▁sportovce	-11.5671
▁velkolep	-11.5671
▁liberalizac	-11.5671
▁patent	-11.5671
▁Radovan	-11.5671
▁vpravo	-11.5671
▁doplnil	-11.5671
▁smečka	-11.5671
▁počty	-11.5671
hlédnutí	-11.5671
obdržela	-11.5671
▁Kučer	-11.5671
▁ekonomickou	-11.5671
▁dimenz	-11.5671
▁Vilém	-11.5671
▁filozofii	-11.5671
▁afér	-11.5672
▁ohlas	-11.5672
▁finance	-11.5672
▁Kvalit	-11.5672
▁Ford	-11.5672
▁konverz	-11.5672
▁koncentr	-11.5672
▁1998	-11.5673
▁spoření	-11.5673
▁Španělsko	-11.5673
ohrozil	-11.5673
▁zaměřuje	-11.5673
▁sníží	-11.5673
▁lůžk	-11.5673
▁hluboký	-11.5673
▁členění	-11.5673
▁dvor	-11.5673
▁Krás	-11.5673
běhne	-11.5673
▁derby	-11.5674
▁děkan	-11.5674
▁zmenšen	-11.5674
pravdě	-11.5674
▁studii	-11.5674
▁Hráč	-11.5675
▁WAV	-11.5675
▁výměr	-11.5675
▁nedostatkem	-11.5676
ředstavitelé	-11.5677
▁léčbě	-11.5677
▁ISO	-11.5679
▁retro	-11.5679
▁jednotlivců	-11.568
▁běží	-11.568
▁nezvykl	-11.568
▁vzkaz	-11.5681
▁mezer	-11.5682
▁dozví	-11.5683
▁pravice	-11.5683
▁článků	-11.5684
▁předloh	-11.5684
▁pestr	-11.5684
▁trase	-11.5684
▁tureck	-11.5685
▁zvláštnost	-11.5685
▁vynesl	-11.5686
▁usilují	-11.5687
▁jakéhokoli	-11.5688
eportáž	-11.5688
▁vyzván	-11.5688
▁salon	-11.5691
▁protivník	-11.5697
▁udělen	-11.5697
▁vyplni	-11.5699
▁mohutn	-11.5704
▁námět	-11.5706
▁ideologick	-11.571
▁vyhleda	-11.571
▁dýcha	-11.5712
▁porost	-11.5719
▁vyznačen	-11.5724
▁pomník	-11.5729
▁pozdní	-11.5729
▁nazval	-11.573
▁Kolín	-11.5733
▁lidový	-11.5737
▁zkrac	-11.5739
▁Palác	-11.5744
▁počítačov	-11.5746
▁myln	-11.5751
▁maličkost	-11.576
▁těsné	-11.5766
▁zažil	-11.577
▁odluk	-11.5775
▁pozval	-11.5776
dáte	-11.5792
kromě	-11.5801
▁polský	-11.5806
▁opon	-11.5822
ktické	-11.5828
program	-11.5832
sazení	-11.5836
reál	-11.5837
▁samostatnost	-11.5839
▁desítká	-11.5868
▁stabiliz	-11.5868
▁třetin	-11.5928
▁anglick	-11.5931
▁muslimsk	-11.5933
▁dvaadvacet	-11.5953
pouštět	-11.597
▁skleník	-11.5974
▁skleníkový	-11.5981
▁maxim	-11.5989
▁bosen	-11.5998
OSTI	-11.6011
▁Jih	-11.6054
▁fakult	-11.6056
▁Novotn	-11.6087
▁nadměrn	-11.6097
▁hrozn	-11.6109
▁krev	-11.6125
▁parametr	-11.6143
▁Histori	-11.6159
TON	-11.6174
▁úloh	-11.6182
▁ústřed	-11.6209
obrazit	-11.6229
▁ovládá	-11.624
▁ukončen	-11.6244
smdesát	-11.625
▁centimetr	-11.6263
▁algoritm	-11.6279
▁Brněnsk	-11.6282
podivu	-11.629
▁Hub	-11.6291
▁koordinac	-11.6293
členný	-11.6295
Cagiva	-11.6295
▁Apple	-11.6295
▁Barcelony	-11.6295
▁Dudajev	-11.6295
▁Frankfurt	-11.6295
▁Honecker	-11.6295
▁Konkrétn	-11.6295
▁Liverpool	-11.6295
▁Lobkowicz	-11.6295
▁Moskvy	-11.6295
▁Myslíte	-11.6295
▁Schumacher	-11.6295
▁Stráský	-11.6295
▁angličtiny	-11.6295
▁atribut	-11.6295
▁cizinec	-11.6295
▁dosaženo	-11.6295
▁dětství	-11.6295
▁efektivnosti	-11.6295
▁epidemie	-11.6295
▁eventuáln	-11.6295
▁exhibic	-11.6295
▁extremist	-11.6295
▁fundamentalist	-11.6295
▁hollywoodsk	-11.6295
▁intenzivní	-11.6295
▁jménu	-11.6295
▁kinematografie	-11.6295
▁komplikace	-11.6295
▁kriminalist	-11.6295
▁kritizoval	-11.6295
▁lhůtě	-11.6295
▁metabolick	-11.6295
▁mláďat	-11.6295
▁nabízel	-11.6295
▁nabízet	-11.6295
▁nejmladší	-11.6295
▁nelíbí	-11.6295
▁nesmějí	-11.6295
▁notebook	-11.6295
▁ohrozit	-11.6295
▁pohledávky	-11.6295
▁pozůstatk	-11.6295
▁počínání	-11.6295
▁pronájmu	-11.6295
▁pódiu	-11.6295
▁rozšiřování	-11.6295
▁separatist	-11.6295
▁skrývá	-11.6295
▁spekulace	-11.6295
▁spekulací	-11.6295
▁svědectví	-11.6295
▁tlačítek	-11.6295
▁trápí	-11.6295
▁vyčleněn	-11.6295
▁vztazích	-11.6295
▁výdělečn	-11.6295
▁zastupitelství	-11.6295
▁zdůrazňuje	-11.6295
▁ÚSES	-11.6295
▁úředníci	-11.6295
▁ČSTK	-11.6295
▁Čarnogursk	-11.6295
▁Luboš	-11.6295
▁Měsíc	-11.6295
▁Větší	-11.6295
▁databázový	-11.6295
▁evoluce	-11.6295
▁expanz	-11.6295
▁konkurs	-11.6295
▁poloostrov	-11.6295
▁polštář	-11.6295
▁redakční	-11.6295
▁seznámil	-11.6295
▁znepokojen	-11.6295
generační	-11.6295
▁Harrachov	-11.6295
▁Opět	-11.6295
▁TNF	-11.6295
▁bydliště	-11.6295
▁hnízd	-11.6295
▁levněji	-11.6295
▁omezování	-11.6295
▁profesní	-11.6295
▁předpokládají	-11.6295
▁stadion	-11.6295
▁švýcarský	-11.6295
▁lůžek	-11.6295
▁nazývá	-11.6295
▁ropovod	-11.6295
kontaminac	-11.6295
▁Budinský	-11.6295
▁bezespor	-11.6295
Oscar	-11.6295
▁plynáren	-11.6295
▁prodavač	-11.6295
▁HDP	-11.6295
▁rozmnož	-11.6295
▁Vánoční	-11.6295
▁poskytovan	-11.6295
▁kosmické	-11.6295
▁učební	-11.6295
▁nerozumí	-11.6295
kompenz	-11.6295
▁výzvu	-11.6295
▁Haagu	-11.6295
▁matematické	-11.6295
▁mrtvol	-11.6295
▁terminologi	-11.6295
▁šlecht	-11.6295
▁přiznat	-11.6295
KDH	-11.6295
▁nekončí	-11.6295
▁skandál	-11.6295
▁Vánoce	-11.6295
▁sdružuj	-11.6295
▁belgick	-11.6295
▁pojmy	-11.6295
▁nazvaný	-11.6295
▁demisi	-11.6295
▁minulou	-11.6295
▁pronajat	-11.6295
▁převyšuj	-11.6295
▁recenze	-11.6295
▁odlišuj	-11.6295
▁praxí	-11.6295
▁Easy	-11.6295
▁mezisklad	-11.6295
▁spektrum	-11.6295
▁plakát	-11.6295
▁nevadí	-11.6295
▁uváděl	-11.6295
▁pokouší	-11.6295
▁trojnásobn	-11.6295
▁hygienické	-11.6295
▁pryč	-11.6295
▁Kyjev	-11.6295
týkat	-11.6295
šplha	-11.6295
major	-11.6295
▁koupě	-11.6295
▁mutace	-11.6295
▁napodob	-11.6296
▁stereo	-11.6296
▁Solid	-11.6296
▁Římě	-11.6296
▁žádal	-11.6296
▁reprezentuje	-11.6296
▁snižují	-11.6296
▁zastupování	-11.6296
▁Neznám	-11.6296
týkal	-11.6296
kročit	-11.6296
▁PŘI	-11.6296
▁levicov	-11.6296
▁usiloval	-11.6296
▁něčím	-11.6296
▁veterán	-11.6296
▁bydlet	-11.6296
▁inteligentní	-11.6296
▁vyvážen	-11.6296
▁strážníci	-11.6297
▁pohlaví	-11.6297
▁inkas	-11.6297
2:0	-11.6297
▁Vodičk	-11.6297
▁neodpovídá	-11.6297
▁ledovce	-11.6297
▁ocas	-11.6297
▁spuštění	-11.6297
▁námitky	-11.6297
▁rovnost	-11.6298
▁Group	-11.6298
▁teplé	-11.6298
▁součin	-11.6298
▁sousedství	-11.6298
▁střechy	-11.6298
▁LID	-11.6298
▁prudké	-11.6298
▁slyšel	-11.6298
▁vyrobil	-11.6298
▁stoprocentní	-11.6299
▁výtisk	-11.6299
▁interpretace	-11.6299
▁někam	-11.6299
▁rozlož	-11.6299
▁vápenc	-11.63
▁průhledn	-11.63
▁nezajímá	-11.63
▁pyšn	-11.63
▁komunikací	-11.63
▁grant	-11.63
▁sumy	-11.6301
▁norem	-11.6301
▁Dukla	-11.6302
▁Nájem	-11.6302
▁běžc	-11.6302
▁Olg	-11.6302
STAV	-11.6302
▁stolní	-11.6303
▁kníže	-11.6303
▁složitost	-11.6304
▁Thun	-11.6304
uskutečnila	-11.6305
jistá	-11.6308
▁přežil	-11.631
bajt	-11.6313
▁Lys	-11.6313
▁ustaven	-11.6313
▁teplý	-11.6314
▁geografick	-11.6315
Finsko	-11.6318
▁selekčn	-11.6321
kontinentální	-11.6321
▁předešl	-11.6326
▁hluk	-11.633
▁Polák	-11.6339
▁vozov	-11.6341
▁socialistické	-11.635
▁vzrost	-11.6353
pracovala	-11.6354
rozuměl	-11.6356
▁starožitnost	-11.636
▁zvolí	-11.6371
▁Zkus	-11.6373
▁vyhrazen	-11.6409
▁filozofické	-11.6413
▁zásobník	-11.6439
psání	-11.6448
▁demokrat	-11.6461
▁jakoukoli	-11.6531
▁zlikvidov	-11.6538
slouží	-11.6539
rovnávání	-11.6552
▁konstatova	-11.6554
vládní	-11.6577
1992	-11.6581
které	-11.6599
▁ilustrac	-11.661
▁řecké	-11.6616
růstá	-11.6625
sunut	-11.6627
▁uvolni	-11.6628
▁neobyčejn	-11.6668
▁Švéd	-11.6669
▁nepřinesl	-11.6699
▁William	-11.6705
▁Obchod	-11.6763
obyčejně	-11.68
▁etnick	-11.68
▁přírodovědeck	-11.6811
vědčí	-11.6818
▁Opti	-11.6825
▁poruše	-11.6839
▁naplněn	-11.6868
▁závislost	-11.6874
▁zkušebn	-11.6876
▁Míst	-11.688
čítat	-11.6886
tabulk	-11.6889
▁táhn	-11.6896
▁Začátk	-11.6903
▁zaplacen	-11.6904
▁Dět	-11.6912
▁Brazíli	-11.6916
▁Způsob	-11.6921
▁dvacát	-11.6926
▁sediment	-11.693
▁penzi	-11.6938
chybějí	-11.6955
▁KSČ	-11.6958
▁Účast	-11.6961
certifik	-11.6961
ntelektuál	-11.6961
JPEG	-11.6961
sloučenin	-11.6961
▁Austrálie	-11.6961
▁Domnívám	-11.6961
▁FBIS	-11.6961
▁Hamburk	-11.6961
▁Informace	-11.6961
▁Oldřich	-11.6961
▁Pivovar	-11.6961
▁Saúdsk	-11.6961
▁Vešker	-11.6961
▁Vídeň	-11.6961
▁WWW	-11.6961
▁bankovnictví	-11.6961
▁deklaraci	-11.6961
▁důležitější	-11.6961
▁elementární	-11.6961
▁federaci	-11.6961
▁firmách	-11.6961
▁fungování	-11.6961
▁hardwarov	-11.6961
▁infarkt	-11.6961
▁komentátor	-11.6961
▁konfigurace	-11.6961
▁konkurovat	-11.6961
▁kosmonaut	-11.6961
▁literatuře	-11.6961
▁marketingu	-11.6961
▁mediální	-11.6961
▁nacionalism	-11.6961
▁nominaci	-11.6961
▁novotvary	-11.6961
▁nukleární	-11.6961
▁odpovědět	-11.6961
▁pneumatik	-11.6961
▁pojišťovnou	-11.6961
▁poptávku	-11.6961
▁problematice	-11.6961
▁pseudo	-11.6961
▁předpovědi	-11.6961
▁předvánoční	-11.6961
▁přerozdělování	-11.6961
▁racionální	-11.6961
▁referát	-11.6961
▁rekreaci	-11.6961
▁rozsáhlejší	-11.6961
▁rubrice	-11.6961
▁symplektick	-11.6961
▁trénovat	-11.6961
▁vypráví	-11.6961
▁vyžadovat	-11.6961
▁zapomenout	-11.6961
▁zaručit	-11.6961
▁zavražděn	-11.6961
▁zodpovězen	-11.6961
▁zákulisí	-11.6961
▁úložiště	-11.6961
▁Četrans	-11.6961
▁červnov	-11.6961
▁1983	-11.6962
▁Harvard	-11.6962
▁Ludvík	-11.6962
▁Mitterrand	-11.6962
▁Pistol	-11.6962
▁definice	-11.6962
▁jednodušší	-11.6962
▁krasobruslař	-11.6962
▁kvót	-11.6962
▁médií	-11.6962
▁nenávist	-11.6962
▁prozradil	-11.6962
▁rozvíjejí	-11.6962
▁rozvíjet	-11.6962
▁rozčleněn	-11.6962
▁seskupení	-11.6962
▁tolerance	-11.6962
▁vláken	-11.6962
▁východoevropský	-11.6962
▁1976	-11.6962
▁Maďarskem	-11.6962
▁Návrat	-11.6962
▁domorodc	-11.6962
▁palubě	-11.6962
▁přihlášen	-11.6962
▁stěžovat	-11.6962
▁tiskáren	-11.6962
▁špatnou	-11.6962
▁interiér	-11.6962
▁populaci	-11.6962
▁procedur	-11.6962
▁cementárn	-11.6962
▁funkčnost	-11.6962
▁osaměl	-11.6962
▁plošný	-11.6962
▁rozsudk	-11.6962
▁kampaně	-11.6962
▁otazník	-11.6962
▁povolební	-11.6962
▁tendence	-11.6962
▁zjišťova	-11.6962
▁infikova	-11.6962
▁pozměň	-11.6962
▁analytick	-11.6962
▁milimetr	-11.6962
▁archiv	-11.6962
▁makléř	-11.6962
▁odvezl	-11.6962
▁Právo	-11.6962
▁neškodn	-11.6962
▁vzbudil	-11.6962
▁Veřejn	-11.6962
▁placentál	-11.6962
▁uvítal	-11.6962
▁Kladně	-11.6962
▁mikrofon	-11.6962
▁účinků	-11.6962
▁fází	-11.6962
▁reagují	-11.6962
▁taxonomie	-11.6962
▁praktik	-11.6962
▁vyslovit	-11.6962
znamenají	-11.6962
▁Francií	-11.6962
▁stráví	-11.6962
▁nabídek	-11.6962
▁domníval	-11.6962
▁finalist	-11.6962
▁vrstva	-11.6962
▁Ctrl	-11.6962
▁hospodaří	-11.6962
▁komunit	-11.6962
přízeň	-11.6962
▁Michel	-11.6962
▁účinné	-11.6962
▁amatér	-11.6962
▁ujistil	-11.6962
▁Irák	-11.6962
▁podobnou	-11.6962
▁biochemi	-11.6962
▁Kurzy	-11.6962
▁zastupuje	-11.6962
▁povstal	-11.6962
▁vybojoval	-11.6962
▁značku	-11.6962
▁chaotick	-11.6962
▁popředí	-11.6962
▁ustavující	-11.6962
▁dřevěné	-11.6962
▁Marián	-11.6962
▁Nemoc	-11.6962
▁zánět	-11.6962
▁přehnan	-11.6962
▁pól	-11.6962
▁aridní	-11.6963
▁Prokop	-11.6963
▁desek	-11.6963
▁tragick	-11.6963
▁ovládací	-11.6963
▁směřující	-11.6963
▁plastik	-11.6963
▁narkom	-11.6963
▁konsensus	-11.6963
▁nazvané	-11.6963
▁fixac	-11.6963
▁přípustn	-11.6963
▁vystavuje	-11.6963
▁trasy	-11.6963
zkoumat	-11.6964
▁brazilsk	-11.6964
▁rozdělí	-11.6964
▁ČSD	-11.6964
▁virus	-11.6964
▁učiní	-11.6964
▁Super	-11.6964
▁Setkání	-11.6964
▁uplatňován	-11.6964
▁češtiny	-11.6964
▁střídají	-11.6964
▁Proces	-11.6964
▁poušti	-11.6965
▁Moravia	-11.6965
▁oboustrann	-11.6965
▁jednostrann	-11.6965
▁profesi	-11.6965
▁Soulu	-11.6965
▁bankrot	-11.6966
▁robot	-11.6966
▁Cítí	-11.6966
▁architektonick	-11.6966
▁zimy	-11.6966
▁Nechci	-11.6966
▁holub	-11.6966
▁rockov	-11.6967
▁lázní	-11.6967
▁zabránil	-11.6967
▁nedělá	-11.6967
▁dotaci	-11.6967
▁spotřeba	-11.6968
▁zničil	-11.6968
▁Značn	-11.6969
▁nepřesnost	-11.6969
dražit	-11.6969
▁toxické	-11.6971
▁obstará	-11.6971
▁šipk	-11.6973
▁příznačn	-11.6974
▁vyprávěl	-11.6974
▁zajišťující	-11.6975
yplynulo	-11.6975
▁Aktiv	-11.6981
1972	-11.6982
rábě	-11.6983
▁Hleda	-11.6989
▁lebk	-11.699
▁uheln	-11.6992
▁výtvarník	-11.6992
věřuje	-11.6993
magnetické	-11.6998
▁bál	-11.7003
evropský	-11.7005
svědčuje	-11.7012
azeta	-11.7022
▁poškozený	-11.7037
ALE	-11.7042
hodinový	-11.7042
▁zelený	-11.7042
symetri	-11.7048
plácení	-11.7064
▁maso	-11.7097
▁předsedkyn	-11.7104
▁zoologick	-11.7105
▁Fakt	-11.7107
▁Historick	-11.7109
▁diplomatický	-11.7131
▁protějš	-11.7131
▁pedagogick	-11.7133
▁optimismu	-11.7161
▁filmař	-11.7172
▁ukáz	-11.7183
▁Podpor	-11.7195
▁socialist	-11.7231
▁nacházel	-11.7247
▁modifik	-11.7271
kontroluje	-11.7299
▁jakýkoli	-11.7328
▁definovan	-11.7342
▁citeln	-11.7349
▁mask	-11.7362
▁osazen	-11.7366
ometrick	-11.7369
nsen	-11.7401
1991	-11.7413
▁vrácen	-11.7463
▁ovlivnil	-11.7477
▁Výrobc	-11.7483
▁strašn	-11.7487
přineslo	-11.7495
▁splněn	-11.7497
▁překonal	-11.7523
panuje	-11.7541
▁nemovitost	-11.7549
istického	-11.7557
ůbec	-11.7564
hradil	-11.7576
▁propojen	-11.7578
▁elektřin	-11.7587
▁spravedlnost	-11.7588
▁poskytován	-11.7599
▁technic	-11.7603
gramů	-11.7621
▁bilanc	-11.7632
▁doporučen	-11.7636
▁učit	-11.7637
▁kilogram	-11.7644
glaciál	-11.7676
▁velvyslanec	-11.7676
▁Kuvajt	-11.7676
▁Muslim	-11.7676
▁SPIRIT	-11.7676
▁delegát	-11.7676
▁drůbež	-11.7676
▁holding	-11.7676
▁inzulín	-11.7676
▁katalyzátor	-11.7676
▁novorozen	-11.7676
▁ofsajd	-11.7676
▁raketoplán	-11.7676
▁vlhkost	-11.7676
▁vyzkoušel	-11.7676
▁vyčerpán	-11.7676
▁zajišťoval	-11.7676
LSNS	-11.7676
ýpovědní	-11.7676
▁Akademie	-11.7676
▁Albertville	-11.7676
▁Bohuslav	-11.7676
▁Bratislavy	-11.7676
▁Delphi	-11.7676
▁Digital	-11.7676
▁General	-11.7676
▁Hospodářsk	-11.7676
▁Netanjahu	-11.7676
▁Princip	-11.7676
▁Pálffy	-11.7676
▁Reichel	-11.7676
▁TWA	-11.7676
▁Vynikající	-11.7676
▁brožur	-11.7676
▁bulharsk	-11.7676
▁buněčné	-11.7676
▁ceremoniál	-11.7676
▁databáze	-11.7676
▁databázi	-11.7676
▁diktátor	-11.7676
▁dveřmi	-11.7676
▁dědeček	-11.7676
▁finálové	-11.7676
▁havárii	-11.7676
▁kanalizací	-11.7676
▁komedie	-11.7676
▁kompetencí	-11.7676
▁kultuře	-11.7676
▁lidstvo	-11.7676
▁milisekund	-11.7676
▁nechybí	-11.7676
▁nosorožců	-11.7676
▁olomoucké	-11.7676
▁organismy	-11.7676
▁paměť	-11.7676
▁paradigma	-11.7676
▁podezřelý	-11.7676
▁pojišťoven	-11.7676
▁pojišťovně	-11.7676
▁portfeje	-11.7676
▁pořizovací	-11.7676
▁poštovní	-11.7676
▁prospěšn	-11.7676
▁přibližuj	-11.7676
▁přísluší	-11.7676
▁severozápad	-11.7676
▁splátek	-11.7676
▁telekomunikací	-11.7676
▁těhotenství	-11.7676
▁vrtulník	-11.7676
▁vídeňské	-11.7676
▁zahájit	-11.7676
▁zakázek	-11.7676
▁zaručuje	-11.7676
▁zdůraznit	-11.7676
▁zneužívání	-11.7676
▁zpracovává	-11.7676
▁záruční	-11.7676
▁zázračn	-11.7676
▁Černomyrdin	-11.7676
▁Život	-11.7676
▁železnice	-11.7676
▁1979	-11.7676
▁Teplice	-11.7676
▁bezmocn	-11.7676
▁kazašsk	-11.7676
▁komisař	-11.7676
▁konstantní	-11.7676
▁odpolední	-11.7676
▁omezit	-11.7676
▁pohodlné	-11.7676
▁pátku	-11.7676
▁radikálně	-11.7676
▁sféře	-11.7676
▁stěžuje	-11.7676
▁thajské	-11.7676
▁zopakoval	-11.7676
▁Němce	-11.7676
▁emitent	-11.7676
▁prodluž	-11.7676
▁Československý	-11.7676
▁FMV	-11.7676
▁KGB	-11.7676
▁injekc	-11.7676
▁málokdo	-11.7676
▁nesrovnateln	-11.7676
▁překonání	-11.7676
▁stadiu	-11.7676
▁tekutin	-11.7676
▁účinnou	-11.7676
▁lehký	-11.7676
▁Dokument	-11.7676
▁PET	-11.7676
▁SGI	-11.7676
▁Zpráv	-11.7676
▁poválečn	-11.7676
▁stromeček	-11.7676
▁Student	-11.7676
▁Západoevropsk	-11.7676
▁obyvatelstvo	-11.7676
▁informuje	-11.7676
▁lahví	-11.7676
▁nejblíže	-11.7676
▁trénuj	-11.7676
▁kolegové	-11.7676
▁komodit	-11.7676
▁smířit	-11.7676
▁James	-11.7676
▁Zajímal	-11.7676
▁rozsáhlou	-11.7676
▁svrchované	-11.7676
▁odstavec	-11.7676
▁udržován	-11.7676
▁chystají	-11.7676
▁vyústi	-11.7676
▁dávek	-11.7676
▁polymer	-11.7676
▁sloučení	-11.7676
▁Prahou	-11.7676
▁přeplněn	-11.7676
▁někomu	-11.7676
▁netrpěliv	-11.7676
▁nikomu	-11.7676
▁umírněn	-11.7676
▁podepsat	-11.7676
▁Holandsk	-11.7676
▁loupež	-11.7676
▁Automatick	-11.7676
▁železné	-11.7676
▁srbské	-11.7676
▁nepodaří	-11.7676
▁vzdělan	-11.7676
▁poznámky	-11.7676
▁Kadlec	-11.7676
▁mutací	-11.7676
▁odhalit	-11.7676
▁podporoval	-11.7676
▁Louis	-11.7676
▁Mlýn	-11.7676
▁nedaleké	-11.7676
▁tvořiv	-11.7676
▁chleba	-11.7676
▁Fuchs	-11.7676
▁oběhové	-11.7676
▁něčeho	-11.7677
běhnout	-11.7677
▁přetížen	-11.7677
▁Následující	-11.7677
▁modré	-11.7677
▁Účastníci	-11.7677
▁prováděl	-11.7677
▁úchyt	-11.7677
▁šancí	-11.7677
▁mocenské	-11.7677
▁sochař	-11.7677
▁vybudoval	-11.7677
▁fotografií	-11.7677
▁vyhledávání	-11.7677
▁dovážen	-11.7677
▁hokejistů	-11.7677
▁odvážn	-11.7677
opouštěl	-11.7677
▁Front	-11.7677
▁Opava	-11.7678
▁Suková	-11.7678
▁kopií	-11.7678
▁Bartoš	-11.7678
▁kamión	-11.7678
▁implantát	-11.7678
▁nejsme	-11.7678
▁vyhořelé	-11.7678
▁kapsy	-11.7678
▁formálně	-11.7678
▁příloh	-11.7678
▁kamenné	-11.7678
▁Kouba	-11.7679
▁Ježek	-11.7679
▁zmizí	-11.7679
▁Týden	-11.7679
▁vyplatil	-11.7679
hánějí	-11.7679
▁pojmu	-11.7679
▁Samotn	-11.7679
▁lehko	-11.7679
▁hlučn	-11.7679
▁lákav	-11.768
▁metan	-11.768
▁písmo	-11.768
▁usedl	-11.7681
▁neuron	-11.7681
▁nikam	-11.7681
▁princ	-11.7681
▁Zvýšen	-11.7681
▁jízdenk	-11.7682
▁nereáln	-11.7682
▁topení	-11.7684
▁Jaw	-11.7684
▁Klasick	-11.7684
▁neznají	-11.7684
smluvně	-11.7685
▁nosič	-11.7685
▁zranil	-11.7685
▁ležel	-11.7686
▁rovný	-11.7686
▁oblouk	-11.7686
▁Hledá	-11.7686
▁únosn	-11.7687
▁Místopředsed	-11.7689
▁Januš	-11.7689
vracení	-11.769
▁republikánsk	-11.769
▁odnětí	-11.769
ničím	-11.7691
▁vázan	-11.7692
vážil	-11.7696
▁odnesl	-11.7696
▁koncepčn	-11.7697
▁Kováč	-11.7698
▁nechut	-11.7701
▁Esc	-11.7703
▁nádrž	-11.7703
▁vracel	-11.7707
přestává	-11.7708
▁koncov	-11.7713
▁zelené	-11.7716
▁Snah	-11.7736
▁protín	-11.7739
extrémně	-11.775
▁neplatn	-11.7762
tvrze	-11.7768
▁teroristický	-11.7768
▁basketbalist	-11.7773
tažené	-11.7793
formulovat	-11.7811
▁zmiňuj	-11.7816
▁stáj	-11.7824
Komensk	-11.7845
konkurenceschopn	-11.7852
▁důvěryhodn	-11.7852
▁drsn	-11.7903
point	-11.7903
bitový	-11.7912
živí	-11.7925
▁vyrůst	-11.7939
▁Běl	-11.7944
zemědělská	-11.7945
▁meziroční	-11.796
▁regulac	-11.7985
▁vyplněn	-11.8005
působí	-11.8016
značení	-11.803
▁nulov	-11.8039
socialistický	-11.8076
▁animac	-11.8104
muslimské	-11.8109
▁individu	-11.8128
▁Nebude	-11.8169
▁vůdc	-11.8181
▁požadovan	-11.8228
▁mateřsk	-11.8231
hlídce	-11.8279
▁dechov	-11.8286
▁meteorolog	-11.8303
▁poprav	-11.8303
▁Senát	-11.8329
▁mušk	-11.8331
▁každodenn	-11.8354
▁výdaj	-11.8356
▁orientac	-11.8357
▁vápn	-11.8363
▁souvisl	-11.8383
▁soustředěn	-11.8389
poskytla	-11.839
▁Vietnam	-11.8391
▁vytvářen	-11.8398
▁kytar	-11.8403
čátek	-11.8412
cionálně	-11.8445
▁bezšňůrov	-11.8445
▁prvoligov	-11.8445
deutsche	-11.8445
korespond	-11.8445
navrhovatel	-11.8445
restrukturalizac	-11.8445
soustřeďuje	-11.8445
▁Australan	-11.8445
▁Bedřich	-11.8445
▁Chvalovský	-11.8445
▁Dlouhý	-11.8445
▁Frýdku	-11.8445
▁Gretzky	-11.8445
▁Hendrix	-11.8445
▁Hercegovin	-11.8445
▁Holbrooke	-11.8445
▁Hovořil	-11.8445
▁Kravčuk	-11.8445
▁Margaret	-11.8445
▁Marseille	-11.8445
▁MicroStation	-11.8445
▁Navrátil	-11.8445
▁OpenScript	-11.8445
▁Oxfordu	-11.8445
▁Padesát	-11.8445
▁Pospíšil	-11.8445
▁Rangers	-11.8445
▁Silvestr	-11.8445
▁Sládka	-11.8445
▁Stockholm	-11.8445
▁Varšav	-11.8445
▁Zeitung	-11.8445
▁biosfér	-11.8445
▁biotechnologi	-11.8445
▁cyklů	-11.8445
▁delegací	-11.8445
▁deregulac	-11.8445
▁diktatur	-11.8445
▁disident	-11.8445
▁dominantní	-11.8445
▁doporučit	-11.8445
▁elektrárna	-11.8445
▁epizod	-11.8445
▁fanoušci	-11.8445
▁fyziologick	-11.8445
▁handicap	-11.8445
▁havárie	-11.8445
▁horizontu	-11.8445
▁hypoték	-11.8445
▁hřbet	-11.8445
▁instalační	-11.8445
▁investoři	-11.8445
▁izolační	-11.8445
▁jihovýchodní	-11.8445
▁kariéry	-11.8445
▁karlovarsk	-11.8445
▁knihkupectví	-11.8445
▁konvertibilit	-11.8445
▁lukrativní	-11.8445
▁manažeři	-11.8445
▁navštívit	-11.8445
▁nejčastější	-11.8445
▁návaznost	-11.8445
▁odcházel	-11.8445
▁osamostatn	-11.8445
▁perfektní	-11.8445
▁podmínku	-11.8445
▁podrážděn	-11.8445
▁poliklinik	-11.8445
▁portrét	-11.8445
▁poselství	-11.8445
▁povzbuz	-11.8445
▁prezentován	-11.8445
▁připomínal	-11.8445
▁půvab	-11.8445
▁reprezentovat	-11.8445
▁rovnoběž	-11.8445
▁rovnoměrn	-11.8445
▁službách	-11.8445
▁stránkách	-11.8445
▁substantiv	-11.8445
▁tiskárnu	-11.8445
▁trolejbus	-11.8445
▁turistiky	-11.8445
▁třicátých	-11.8445
▁uspokojit	-11.8445
▁utrpení	-11.8445
▁ušlechtil	-11.8445
▁veterinární	-11.8445
▁výcvik	-11.8445
▁začátečn	-11.8445
▁zákonodárn	-11.8445
▁západoevropský	-11.8445
▁zásuvk	-11.8445
▁závislý	-11.8445
▁Štěpán	-11.8445
vyskytuje	-11.8445
ŠTÍ	-11.8445
▁Bukureš	-11.8445
▁Giovanni	-11.8445
▁Kralup	-11.8445
▁Očekává	-11.8445
▁Památk	-11.8445
▁Parlament	-11.8445
▁Plzně	-11.8445
▁Překvap	-11.8445
▁Sportovní	-11.8445
▁Stráž	-11.8445
▁analytik	-11.8445
▁antropogenní	-11.8445
▁diskrimin	-11.8445
▁křesla	-11.8445
▁libovolné	-11.8445
▁medvěd	-11.8445
▁média	-11.8445
▁příchozí	-11.8445
▁revoluci	-11.8445
▁roztříštěn	-11.8445
▁schvalování	-11.8445
▁tělovýchov	-11.8445
▁upravuje	-11.8445
▁zlepšování	-11.8445
▁zvážit	-11.8445
▁Klient	-11.8445
▁definován	-11.8445
▁domnívat	-11.8445
▁posuzoval	-11.8445
▁středisek	-11.8445
▁všelijak	-11.8445
▁zapomenut	-11.8445
▁čtvrtletně	-11.8445
▁Solidarit	-11.8445
▁evidentn	-11.8445
▁konektor	-11.8445
▁legální	-11.8445
▁nevyhnul	-11.8445
▁odhodlán	-11.8445
▁výchozí	-11.8445
pište	-11.8445
▁Kultur	-11.8445
▁Záhřebu	-11.8445
▁dodávku	-11.8445
▁iniciátor	-11.8445
▁nepůjde	-11.8445
▁převezme	-11.8445
▁útlum	-11.8445
▁Kontakt	-11.8445
▁fázové	-11.8445
▁hájit	-11.8445
▁náznak	-11.8445
▁srovnávat	-11.8445
▁pařížsk	-11.8445
▁studijní	-11.8445
▁tabák	-11.8445
▁vizuální	-11.8445
▁neskončil	-11.8445
▁politici	-11.8445
▁intelektuální	-11.8445
▁lístku	-11.8445
▁ministerský	-11.8445
▁vhodnější	-11.8445
▁sazba	-11.8445
▁chápou	-11.8445
▁delikt	-11.8445
▁vůdčí	-11.8445
▁nervozit	-11.8445
▁sváteční	-11.8445
▁shodli	-11.8445
▁vyrobit	-11.8445
▁barokní	-11.8445
▁hesla	-11.8445
▁nebytový	-11.8445
▁romantick	-11.8445
▁recese	-11.8445
▁afrických	-11.8445
▁monarchi	-11.8445
▁licenci	-11.8445
▁organizován	-11.8445
▁židovské	-11.8445
▁názvy	-11.8445
▁položek	-11.8445
▁úklid	-11.8445
▁rovnou	-11.8445
▁fašismu	-11.8445
▁přijede	-11.8445
▁vybuchl	-11.8445
▁Vytvořen	-11.8445
▁látku	-11.8445
▁stránka	-11.8445
▁netuší	-11.8445
▁dovezen	-11.8445
▁prověrk	-11.8445
▁vypovězen	-11.8445
▁vyřeší	-11.8445
▁dráze	-11.8445
▁krizí	-11.8445
▁Pechar	-11.8445
▁certifikace	-11.8446
▁Snímek	-11.8446
▁smíšený	-11.8446
▁provází	-11.8446
▁trošk	-11.8446
▁zátěž	-11.8446
▁Žije	-11.8446
▁ideologie	-11.8446
▁Soros	-11.8446
▁hloup	-11.8446
▁mrzí	-11.8446
▁zachycuj	-11.8446
▁zkrácení	-11.8446
▁motýl	-11.8446
▁poezie	-11.8446
▁klasik	-11.8446
▁mléko	-11.8446
ručením	-11.8446
▁letadel	-11.8446
▁pohodlně	-11.8446
▁Příprav	-11.8446
chovávat	-11.8446
▁biologii	-11.8446
▁obklop	-11.8446
▁obrátí	-11.8446
▁Francis	-11.8446
▁záchod	-11.8447
▁Albert	-11.8447
▁Pravidl	-11.8447
▁emisí	-11.8447
▁Nynější	-11.8447
▁podporovan	-11.8447
▁opatrně	-11.8447
▁čtyřnásobn	-11.8447
▁Diana	-11.8447
▁laskav	-11.8447
▁útul	-11.8447
▁odcizi	-11.8447
▁akutní	-11.8447
▁šperk	-11.8447
▁mléka	-11.8447
▁iluze	-11.8447
▁úročen	-11.8448
▁dědičn	-11.8448
▁postranní	-11.8448
▁Údaj	-11.8448
▁krabic	-11.8448
▁odrůd	-11.8448
▁pasáž	-11.8449
▁nepočítal	-11.8449
ladil	-11.8449
▁nedokonč	-11.8449
▁Zlatý	-11.845
▁Uhersk	-11.8451
▁podceňova	-11.8451
▁určován	-11.8451
▁aukcí	-11.8453
▁útěk	-11.8454
tlačil	-11.8454
▁Atén	-11.8454
▁odolnost	-11.8455
▁udělil	-11.8455
▁Lenn	-11.8455
obtížnější	-11.8456
▁Hrál	-11.8457
▁Popov	-11.8457
▁pozemkov	-11.8457
▁smyslupln	-11.8458
▁Trnav	-11.8459
▁principiáln	-11.846
dokonalejší	-11.8463
▁hymn	-11.8463
▁krouž	-11.8464
▁sólo	-11.8468
▁obměn	-11.8468
interpretaci	-11.8471
▁Botan	-11.8473
▁slovinsk	-11.848
▁unikl	-11.8483
podstatnější	-11.8486
Místku	-11.8487
▁odebíra	-11.8489
▁Kraus	-11.8491
▁kytic	-11.8498
▁šál	-11.8499
▁Čísl	-11.8502
pravdivost	-11.8512
▁nerozhodn	-11.8521
▁Radnic	-11.8525
milionový	-11.8529
▁Květ	-11.8533
▁potravinářský	-11.8543
opádn	-11.8544
divné	-11.8574
▁zbylý	-11.858
světlení	-11.859
▁neposkyt	-11.8607
▁garáž	-11.8623
▁tenistk	-11.8641
mnohých	-11.8648
▁vypracován	-11.8654
růstající	-11.867
▁přicházel	-11.8691
podnik	-11.8807
▁nedoved	-11.8808
▁vnesen	-11.8816
nekonečně	-11.8828
▁ilustr	-11.887
▁zpracoval	-11.8878
▁vycház	-11.8893
▁spouště	-11.8896
▁modifikac	-11.8902
▁kolečk	-11.8926
drobnější	-11.8959
kreslí	-11.8979
▁stabilizovan	-11.9001
▁ledový	-11.9006
sledují	-11.9096
nezávislý	-11.9104
cházely	-11.9106
švédsk	-11.9125
▁vyplývají	-11.9131
▁Georg	-11.9134
dvacátého	-11.9174
yžaduje	-11.918
▁slavnostn	-11.9183
▁společenstv	-11.9225
▁uplatněn	-11.9227
▁prodloužen	-11.923
▁Hlavn	-11.9238
▁odstraněn	-11.9239
▁public	-11.9244
▁Obsahuj	-11.9247
oblečen	-11.9269
▁Agassi	-11.9278
▁Bruntál	-11.9278
▁EVROP	-11.9278
▁Hamilton	-11.9278
▁Institut	-11.9278
▁Komárk	-11.9278
▁Kratochvíl	-11.9278
▁MPEG	-11.9278
▁Nazarbajev	-11.9278
▁Příslušn	-11.9278
▁Suchopár	-11.9278
▁Umožňuje	-11.9278
▁Uživatel	-11.9278
▁doporučí	-11.9278
▁hierarchi	-11.9278
▁ovlivňován	-11.9278
▁spolumajitel	-11.9278
▁středoškolsk	-11.9278
▁štafet	-11.9278
▁živočišn	-11.9278
emigrant	-11.9278
endotoxin	-11.9278
inflační	-11.9278
ymfocyty	-11.9278
▁Galerie	-11.9278
▁Grimaux	-11.9278
▁Leopold	-11.9278
▁Nejdůležitější	-11.9278
▁Palestinců	-11.9278
▁Podmínkou	-11.9278
▁Později	-11.9278
▁Přibliž	-11.9278
▁Vladislav	-11.9278
▁Vltavy	-11.9278
▁Wernisch	-11.9278
▁absolutně	-11.9278
▁bosenskosrbsk	-11.9278
▁celoživotní	-11.9278
▁civilizace	-11.9278
▁demokracií	-11.9278
▁financovat	-11.9278
▁fungovat	-11.9278
▁impuls	-11.9278
▁indián	-11.9278
▁inscenace	-11.9278
▁interview	-11.9278
▁jihozápad	-11.9278
▁kambodžsk	-11.9278
▁kolísání	-11.9278
▁komplikuje	-11.9278
▁konfrontace	-11.9278
▁kontinuit	-11.9278
▁kopírování	-11.9278
▁lékárny	-11.9278
▁matematice	-11.9278
▁monument	-11.9278
▁nejjednodušší	-11.9278
▁neobejde	-11.9278
▁nepřístup	-11.9278
▁netradiční	-11.9278
▁nevrátí	-11.9278
▁nezměněn	-11.9278
▁následovn	-11.9278
▁olympionik	-11.9278
▁onemocněl	-11.9278
▁opodstatněn	-11.9278
▁otázkám	-11.9278
▁peněženk	-11.9278
▁pochlubit	-11.9278
▁podvojné	-11.9278
▁pokaždé	-11.9278
▁posluchačů	-11.9278
▁preparát	-11.9278
▁prezentovat	-11.9278
▁problematické	-11.9278
▁předpokládané	-11.9278
▁přetrvávají	-11.9278
▁příslušenství	-11.9278
▁relikvi	-11.9278
▁restituce	-11.9278
▁revoluční	-11.9278
▁schůzce	-11.9278
▁splátky	-11.9278
▁spolehnout	-11.9278
▁státoprávní	-11.9278
▁stříbra	-11.9278
▁televizí	-11.9278
▁trinitron	-11.9278
▁usilovně	-11.9278
▁uskupení	-11.9278
▁velvyslance	-11.9278
▁videozáznam	-11.9278
▁virtuální	-11.9278
▁vytvářel	-11.9278
▁zdůrazňují	-11.9278
▁zveřejnit	-11.9278
▁Úspěch	-11.9278
▁Ústřední	-11.9278
▁3:0	-11.9278
▁Amerika	-11.9278
▁Kredba	-11.9278
▁Plečnik	-11.9278
▁United	-11.9278
▁VLÁD	-11.9278
▁besedy	-11.9278
▁fanoušky	-11.9278
▁heslem	-11.9278
▁hnojiv	-11.9278
▁ledovců	-11.9278
▁můstku	-11.9278
▁navštěvuj	-11.9278
▁navždy	-11.9278
▁nepřál	-11.9278
▁omezuje	-11.9278
▁paprsky	-11.9278
▁poskytoval	-11.9278
▁posloužit	-11.9278
▁prosazoval	-11.9278
▁pěveck	-11.9278
▁připouští	-11.9278
▁reaguje	-11.9278
▁rezoluc	-11.9278
▁rámečky	-11.9278
▁užitečný	-11.9278
▁vytápěn	-11.9278
▁kritizuj	-11.9278
▁novoroční	-11.9278
▁pasivní	-11.9278
▁svrchovaný	-11.9278
▁Kovařík	-11.9278
▁majoritní	-11.9278
▁policií	-11.9278
▁různorod	-11.9278
▁Ženevě	-11.9278
▁kampani	-11.9278
▁mikroskopick	-11.9278
▁příslib	-11.9278
▁senzor	-11.9278
trénoval	-11.9278
▁Opavy	-11.9278
▁nenápadn	-11.9278
▁vězeň	-11.9278
▁zeptat	-11.9278
▁špatná	-11.9278
▁předchůdce	-11.9278
▁tělocvičn	-11.9278
▁Čtenář	-11.9278
buněčný	-11.9278
▁Kambodž	-11.9278
▁dálniční	-11.9278
▁licenční	-11.9278
▁nerentabiln	-11.9278
▁půjdou	-11.9278
▁rozvíjen	-11.9278
▁směnitelnost	-11.9278
▁dceřin	-11.9278
▁dívky	-11.9278
▁nesplnil	-11.9278
▁nářadí	-11.9278
▁paušál	-11.9278
▁uprchlíků	-11.9278
▁zatykač	-11.9278
OECD	-11.9278
▁Vyšší	-11.9278
▁Lepší	-11.9278
▁potřetí	-11.9278
stěhovat	-11.9278
▁nalézá	-11.9278
▁stěžoval	-11.9278
▁Galás	-11.9278
▁potravu	-11.9278
▁vyjmut	-11.9278
▁sazeb	-11.9278
▁shodně	-11.9278
ejdražší	-11.9278
▁renomovan	-11.9278
▁Chariton	-11.9279
▁Komory	-11.9279
▁nečekané	-11.9279
vyplácí	-11.9279
▁striktn	-11.9279
▁Zahrad	-11.9279
hlížejí	-11.9279
▁VZP	-11.9279
▁nevyloučil	-11.9279
▁rozhořč	-11.9279
▁detektiv	-11.9279
▁ukončí	-11.9279
▁uniform	-11.9279
▁skládky	-11.9279
▁mítinku	-11.9279
▁ohranič	-11.9279
▁Začíná	-11.9279
▁křídle	-11.9279
▁mozek	-11.9279
▁oheň	-11.9279
▁sérií	-11.9279
čerpat	-11.9279
▁středeční	-11.9279
▁Fiala	-11.9279
▁vyvolané	-11.9279
▁žalud	-11.9279
▁Pokles	-11.9279
▁elektroniky	-11.9279
▁natáčet	-11.9279
Science	-11.9279
▁omezil	-11.9279
▁facto	-11.9279
▁vážnou	-11.9279
▁rozloučil	-11.9279
▁lichenolog	-11.9279
▁Přechod	-11.9279
▁hájil	-11.9279
▁večeři	-11.9279
▁zajímají	-11.9279
ejtěžší	-11.9279
CHOD	-11.9279
díváme	-11.9279
▁Pakosta	-11.9279
▁přiblížil	-11.9279
▁projednání	-11.9279
▁nedaří	-11.9279
konvenční	-11.9279
▁neúměrn	-11.9279
▁osminásobn	-11.9279
▁Basikov	-11.9279
▁omluvit	-11.9279
▁Oblast	-11.9279
▁bojkot	-11.9279
▁1:1	-11.9279
▁projekc	-11.928
▁papež	-11.928
▁necítí	-11.928
▁neočekáv	-11.928
▁Tabul	-11.928
▁alfa	-11.928
▁ztratí	-11.928
Soft	-11.928
▁jara	-11.928
▁vězně	-11.9281
▁krvav	-11.9281
▁úpadk	-11.9281
▁rentabilit	-11.9281
▁ustálen	-11.9281
krývat	-11.9281
▁Instala	-11.9282
▁emisní	-11.9282
▁kouzeln	-11.9282
▁Rabac	-11.9282
▁nabídká	-11.9282
▁Považuj	-11.9282
▁náhlý	-11.9283
PRAV	-11.9284
▁lokaliz	-11.9284
▁Trestn	-11.9284
▁poznámka	-11.9286
▁potěšen	-11.9286
▁pečuj	-11.9287
▁hlavičk	-11.9288
▁odečt	-11.9289
▁Daňov	-11.9292
razítk	-11.9293
▁tajemn	-11.9293
▁Černovic	-11.9295
▁mravenc	-11.9295
▁syrov	-11.9299
▁bibli	-11.9299
▁zpřístupněn	-11.9299
ejlépe	-11.9303
postoupili	-11.9303
▁vyslán	-11.9304
pravděpodobnější	-11.9306
▁publicist	-11.9313
▁celoročn	-11.9316
Liaz	-11.9316
▁Lidsk	-11.9317
▁podepíš	-11.9319
▁opětovn	-11.9322
▁vyučova	-11.9326
▁iniciova	-11.934
▁skřín	-11.9342
▁politolog	-11.9361
▁chovají	-11.9377
profit	-11.9383
znamuje	-11.942
▁obzvláš	-11.9444
ýkonný	-11.9465
bílých	-11.9474
nejdůležitějších	-11.9486
▁vyprávěn	-11.9503
▁nakupova	-11.9512
▁Stavebn	-11.9522
▁objednal	-11.9534
hrozně	-11.9558
▁nenechá	-11.961
milionové	-11.9662
otemismus	-11.9674
pravděpodobnosti	-11.976
▁extrém	-11.9894
▁sobot	-11.9894
▁nekonal	-11.9948
▁vyložen	-11.9971
odporuje	-12.0018
▁pravděpodobn	-12.0075
▁vypsán	-12.0098
▁vyplacen	-12.0101
uživatelské	-12.0102
hodinovou	-12.0104
▁uspořádán	-12.0114
kategori	-12.0128
počívá	-12.0132
▁zdravotnick	-12.0144
▁zaměstnán	-12.0146
▁Minist	-12.0149
▁pečliv	-12.017
realistick	-12.0176
▁nepřiměřen	-12.0185
▁půldruh	-12.0187
▁zahraničně	-12.0187
Vancouver	-12.0187
▁Astronom	-12.0187
▁Basketbal	-12.0187
▁Frederi	-12.0187
▁Johannes	-12.0187
▁Lebedě	-12.0187
▁Litomyšl	-12.0187
▁agresivit	-12.0187
▁baseball	-12.0187
▁expedic	-12.0187
▁hypertext	-12.0187
▁komprim	-12.0187
▁kormidelník	-12.0187
▁nacionalist	-12.0187
▁občerstvení	-12.0187
▁pardubick	-12.0187
▁prozkoumán	-12.0187
▁středoškolá	-12.0187
▁vyhrožoval	-12.0187
Gabriel	-12.0187
Netscape	-12.0187
avrančíková	-12.0187
emětřesení	-12.0187
mýšlejí	-12.0187
onfederace	-12.0187
▁ATAPI	-12.0187
▁Allianz	-12.0187
▁Angeles	-12.0187
▁Austrálii	-12.0187
▁BUDE	-12.0187
▁Bangkoku	-12.0187
▁Beethoven	-12.0187
▁Corser	-12.0187
▁EGAP	-12.0187
▁Einstein	-12.0187
▁Helmut	-12.0187
▁Hájek	-12.0187
▁Inspekt	-12.0187
▁Jozef	-12.0187
▁Kancelář	-12.0187
▁Lisabon	-12.0187
▁Mandlíkov	-12.0187
▁Mexiku	-12.0187
▁Miloševič	-12.0187
▁Nejstarší	-12.0187
▁Pochopitelně	-12.0187
▁Privatizace	-12.0187
▁Shift	-12.0187
▁Skuhravý	-12.0187
▁Sládek	-12.0187
▁Stratton	-12.0187
▁Studie	-12.0187
▁Vogts	-12.0187
▁Vyšetřovatel	-12.0187
▁Werich	-12.0187
▁Zdůraznil	-12.0187
▁abstraktní	-12.0187
▁angličtině	-12.0187
▁baktérie	-12.0187
▁bouřliv	-12.0187
▁cílevědom	-12.0187
▁diagnostick	-12.0187
▁dodávkách	-12.0187
▁efektivnější	-12.0187
▁epimerace	-12.0187
▁eukleidovsk	-12.0187
▁evidence	-12.0187
▁falešné	-12.0187
▁frekvence	-12.0187
▁frekvenci	-12.0187
▁humanitní	-12.0187
▁hypoteční	-12.0187
▁izolace	-12.0187
▁izolaci	-12.0187
▁jazyce	-12.0187
▁jihoafrické	-12.0187
▁kompatibilní	-12.0187
▁konfekční	-12.0187
▁konkurencí	-12.0187
▁koupaliště	-12.0187
▁kruzích	-12.0187
▁lhostejn	-12.0187
▁lokomotiv	-12.0187
▁lustrací	-12.0187
▁makroskopick	-12.0187
▁mechanismem	-12.0187
▁medicíny	-12.0187
▁mezimolekulární	-12.0187
▁mučedník	-12.0187
▁nehrozí	-12.0187
▁neobjevil	-12.0187
▁neoprávněné	-12.0187
▁neoprávněně	-12.0187
▁netrouf	-12.0187
▁neuvěřitelné	-12.0187
▁olomoucký	-12.0187
▁orientované	-12.0187
▁osmifinále	-12.0187
▁paprsků	-12.0187
▁perfektně	-12.0187
▁pomalejší	-12.0187
▁porcelán	-12.0187
▁potrubí	-12.0187
▁povědomí	-12.0187
▁pracovištích	-12.0187
▁prohlížeč	-12.0187
▁prokazateln	-12.0187
▁prosperity	-12.0187
▁prémie	-12.0187
▁předměstí	-12.0187
▁přemýšlet	-12.0187
▁přihlásit	-12.0187
▁přijímací	-12.0187
▁přispívá	-12.0187
▁přistěhovalců	-12.0187
▁reciproční	-12.0187
▁režijní	-12.0187
▁smlouvou	-12.0187
▁soustředit	-12.0187
▁stoupající	-12.0187
▁suverénní	-12.0187
▁terminál	-12.0187
▁tragédie	-12.0187
▁upozorňova	-12.0187
▁výkyvů	-12.0187
▁výpovědí	-12.0187
▁zakořeněn	-12.0187
▁zdvojnásob	-12.0187
▁zlepšuje	-12.0187
▁záhrobní	-12.0187
▁Ázerbájdžán	-12.0187
▁úspěšná	-12.0187
▁ČVUT	-12.0187
▁Šapošnikov	-12.0187
▁Šumperk	-12.0187
▁Curych	-12.0187
▁Impac	-12.0187
▁Lewis	-12.0187
▁Máčala	-12.0187
▁Opatření	-12.0187
▁Průmyslov	-12.0187
▁Připravuje	-12.0187
▁Typickým	-12.0187
▁Zjednoduš	-12.0187
▁Zjistil	-12.0187
▁besedě	-12.0187
▁geometrické	-12.0187
▁hazard	-12.0187
▁nedostatečné	-12.0187
▁nepovažuje	-12.0187
▁nádhern	-12.0187
▁odkázán	-12.0187
▁oltáře	-12.0187
▁trenéři	-12.0187
▁zvyšoval	-12.0187
1393	-12.0187
stěhuje	-12.0187
▁1939	-12.0187
▁1946	-12.0187
▁1969	-12.0187
▁Centrum	-12.0187
▁Předpoklad	-12.0187
▁defekt	-12.0187
pokročilejší	-12.0187
▁albánsk	-12.0187
▁ambici	-12.0187
▁geometrický	-12.0187
▁kosmetick	-12.0187
▁lístků	-12.0187
▁narychlo	-12.0187
▁novodob	-12.0187
▁plážové	-12.0187
▁pondělní	-12.0187
▁překážek	-12.0187
▁zajišťován	-12.0187
▁TBC	-12.0187
▁atropin	-12.0187
▁kuchyně	-12.0187
▁nejvýrazněj	-12.0187
▁pamětí	-12.0187
▁populační	-12.0187
▁savců	-12.0187
▁skleněn	-12.0187
▁využívan	-12.0187
▁Gračov	-12.0187
▁Tradičn	-12.0187
▁opouští	-12.0187
▁zamítl	-12.0187
▁zkusit	-12.0187
▁populací	-12.0188
▁zástupkyn	-12.0188
organizoval	-12.0188
▁National	-12.0188
▁východoněmeck	-12.0188
▁Špaček	-12.0188
▁Slunci	-12.0188
▁instrukc	-12.0188
▁instrument	-12.0188
▁konstrukci	-12.0188
▁neměnn	-12.0188
▁přízemí	-12.0188
▁uchovává	-12.0188
▁výhře	-12.0188
▁upřímně	-12.0188
▁Rázl	-12.0188
▁přiblížit	-12.0188
▁úskalí	-12.0188
▁Dukovan	-12.0188
▁ministerské	-12.0188
▁variace	-12.0188
▁nejcennější	-12.0188
▁pesimist	-12.0188
▁vztyčen	-12.0188
▁cítění	-12.0188
▁interglaciál	-12.0188
▁knižní	-12.0188
▁převzat	-12.0188
▁Markoman	-12.0188
▁Shell	-12.0188
▁databank	-12.0188
▁potravní	-12.0188
▁úvaze	-12.0188
▁Sampras	-12.0188
▁Vondra	-12.0188
▁specialisté	-12.0188
přijatelnou	-12.0188
▁Sobot	-12.0188
▁svátků	-12.0188
▁rektor	-12.0188
▁zanechal	-12.0188
▁spermat	-12.0188
▁továren	-12.0188
▁rychlá	-12.0188
▁Zkrátka	-12.0188
▁překročil	-12.0188
▁nájmu	-12.0188
▁Celsia	-12.0188
▁milovník	-12.0188
▁sledovaný	-12.0188
všudy	-12.0188
▁chvílí	-12.0188
▁poranění	-12.0188
▁Smetan	-12.0188
▁obchodovateln	-12.0188
▁zpestř	-12.0188
▁Burian	-12.0188
▁Nutno	-12.0188
▁Uhde	-12.0188
▁postřeh	-12.0188
▁učiněn	-12.0188
▁brestsk	-12.0188
▁hvězdárn	-12.0188
▁zkoumají	-12.0188
▁zakoupen	-12.0188
▁Uhrin	-12.0188
▁Strahov	-12.0188
▁Děčín	-12.0188
▁Liberec	-12.0188
▁Igor	-12.0188
▁embarg	-12.0188
▁Pohyb	-12.0188
Pérez	-12.0189
speed	-12.0189
hřát	-12.0189
▁Vítkovic	-12.0189
▁deváté	-12.0189
▁mohyl	-12.0189
▁rolník	-12.0189
▁pohrom	-12.0189
▁jmenovit	-12.0189
▁patron	-12.019
▁namátko	-12.019
▁Korejsk	-12.019
▁erupc	-12.0191
▁neznalost	-12.0191
▁mléčn	-12.0191
▁Brazilc	-12.0191
▁přemístěn	-12.0192
▁sériov	-12.0192
▁Soukrom	-12.0192
fašist	-12.0192
▁návyk	-12.0193
vrhnou	-12.0193
▁jabl	-12.0193
▁směřoval	-12.0194
▁specializac	-12.0194
▁drtiv	-12.0196
▁zaměřil	-12.0197
▁svržen	-12.0198
▁úseč	-12.0201
▁petic	-12.0202
▁zaznamenán	-12.0202
▁antén	-12.0202
▁stezk	-12.0205
▁plášt	-12.0206
▁klesají	-12.021
říkajíc	-12.0232
▁dotčen	-12.0248
▁pekař	-12.0274
zabývala	-12.0279
▁vypouště	-12.0279
▁drastick	-12.0288
▁vyslovuj	-12.0295
▁politič	-12.0298
▁produkuj	-12.0301
účtovat	-12.0303
▁udeř	-12.0308
hlasovali	-12.0317
bydlel	-12.033
▁nevídan	-12.0417
kreslit	-12.0438
vládnutí	-12.0464
▁Ročn	-12.0478
šéfem	-12.0482
▁neporuš	-12.0496
▁adaptovan	-12.0497
▁neurolog	-12.0517
milionář	-12.0528
▁rukopis	-12.0549
▁potlač	-12.0604
uskutečnilo	-12.0647
▁prevenc	-12.0722
dovozce	-12.0836
mítnut	-12.0859
energetick	-12.0878
IČK	-12.0916
svědčit	-12.0929
přinesly	-12.0933
▁vyjíždě	-12.097
▁úmrtnost	-12.1101
vlášť	-12.1111
▁putuj	-12.1142
▁Nejvíc	-12.1143
▁otevíra	-12.1155
oncentrace	-12.1159
▁hygienic	-12.1173
▁přirážk	-12.1182
tabilita	-12.1185
▁tribun	-12.1186
prezentují	-12.1187
▁Nedostat	-12.1187
▁Havlíčk	-12.1187
eřejnoprávní	-12.1187
posluchači	-12.1187
shromáždil	-12.1187
spolupracoval	-12.1187
zprostředkovatel	-12.1187
▁Arábii	-12.1187
▁Calgary	-12.1187
▁College	-12.1187
▁DIVADL	-12.1187
▁Dortmund	-12.1187
▁FOTBALOV	-12.1187
▁Gordon	-12.1187
▁Hospital	-12.1187
▁Kanaďan	-12.1187
▁Kočárník	-12.1187
▁Kriminalisté	-12.1187
▁Moldavsk	-12.1187
▁Mongolsk	-12.1187
▁Myšlenk	-12.1187
▁Neexistuje	-12.1187
▁Office	-12.1187
▁Picass	-12.1187
▁Rekonstrukc	-12.1187
▁Stejskal	-12.1187
▁Třebíč	-12.1187
▁Zieleniec	-12.1187
▁angažmá	-12.1187
▁aplikovat	-12.1187
▁brigád	-12.1187
▁deklarovan	-12.1187
▁doporučuji	-12.1187
▁dosažiteln	-12.1187
▁doživotn	-12.1187
▁družstvech	-12.1187
▁důležitost	-12.1187
▁elegans	-12.1187
▁entropie	-12.1187
▁evidují	-12.1187
▁exponáty	-12.1187
▁farmaceut	-12.1187
▁financuje	-12.1187
▁gynekolog	-12.1187
▁halogenovan	-12.1187
▁hlístice	-12.1187
▁homosexuál	-12.1187
▁hospodařit	-12.1187
▁infekční	-12.1187
▁instanci	-12.1187
▁interpelace	-12.1187
▁izotop	-12.1187
▁kompetenční	-12.1187
▁kontaminovan	-12.1187
▁kontroverzní	-12.1187
▁korupci	-12.1187
▁kvartéru	-12.1187
▁libovolný	-12.1187
▁makroekonomick	-12.1187
▁manifest	-12.1187
▁merkaptan	-12.1187
▁monoklonální	-12.1187
▁navštíví	-12.1187
▁nejkratší	-12.1187
▁nejrozšířenější	-12.1187
▁nejvýhodnější	-12.1187
▁nekompromisn	-12.1187
▁nelegální	-12.1187
▁neopakovateln	-12.1187
▁neuroprotéz	-12.1187
▁nezúčastnil	-12.1187
▁námořnictv	-12.1187
▁obhajob	-12.1187
▁odjinud	-12.1187
▁odměňuje	-12.1187
▁odpůrce	-12.1187
▁oznámit	-12.1187
▁paleontolog	-12.1187
▁pasažér	-12.1187
▁periferní	-12.1187
▁podotknout	-12.1187
▁postěžoval	-12.1187
▁pracovišť	-12.1187
▁pracovněprávní	-12.1187
▁primitivní	-12.1187
▁prohloubení	-12.1187
▁prohlásit	-12.1187
▁prémií	-12.1187
▁přihlášek	-12.1187
▁připravovat	-12.1187
▁příbuzensk	-12.1187
▁rekonstrukcí	-12.1187
▁rekonstruovat	-12.1187
▁rekvalifik	-12.1187
▁repertoár	-12.1187
▁reproduktory	-12.1187
▁rozpočtem	-12.1187
▁signalizuje	-12.1187
▁skříňky	-12.1187
▁sparťan	-12.1187
▁stagnuje	-12.1187
▁starožitnictví	-12.1187
▁suverenit	-12.1187
▁testosteron	-12.1187
▁uzavírat	-12.1187
▁velmoci	-12.1187
▁vzpěrač	-12.1187
▁výslech	-12.1187
▁zodpovědět	-12.1187
▁zpochybněn	-12.1187
▁úspěšní	-12.1187
▁Špindlerov	-12.1187
▁Železný	-12.1187
▁Žižkov	-12.1187
cyklistické	-12.1187
▁1999	-12.1187
▁Advokát	-12.1187
▁Darwin	-12.1187
▁Hirsch	-12.1187
▁Kalifornie	-12.1187
▁Krajicek	-12.1187
▁NAŠI	-12.1187
▁Srbové	-12.1187
▁Ukrajinu	-12.1187
▁Záznam	-12.1187
▁definuje	-12.1187
▁důvěra	-12.1187
▁epidemiolog	-12.1187
▁hasičsk	-12.1187
▁hledisek	-12.1187
▁kongener	-12.1187
▁nemožnost	-12.1187
▁neuzavř	-12.1187
▁nevadilo	-12.1187
▁střešní	-12.1187
▁trofej	-12.1187
▁zvýrazněn	-12.1187
▁ázerbájdžánsk	-12.1187
explozi	-12.1187
geochemi	-12.1187
▁747	-12.1187
▁Agentur	-12.1187
▁Holding	-12.1187
▁Ježíšek	-12.1187
▁KOVO	-12.1187
▁Moldan	-12.1187
▁Nástroje	-12.1187
▁Prostřed	-12.1187
▁Termín	-12.1187
▁legálně	-12.1187
▁nadvlád	-12.1187
▁odmítal	-12.1187
▁postulát	-12.1187
▁pouliční	-12.1187
▁protiprávn	-12.1187
▁pátrají	-12.1187
▁přiznávají	-12.1187
▁upřesnil	-12.1187
▁využíval	-12.1187
▁1966	-12.1187
▁Olympijský	-12.1187
▁Sigmy	-12.1187
▁Urban	-12.1187
▁celistv	-12.1187
▁chystané	-12.1187
▁mládě	-12.1187
▁nezávadn	-12.1187
▁ochránce	-12.1187
▁zakázaný	-12.1187
kopírovat	-12.1187
▁Komunisté	-12.1187
▁Olympijské	-12.1187
▁charakterizován	-12.1187
▁jednomyslně	-12.1187
▁nohama	-12.1187
▁střílet	-12.1187
▁výdělek	-12.1187
▁investoval	-12.1187
▁kolébk	-12.1187
▁žralok	-12.1187
komunistickou	-12.1187
přijatelnější	-12.1187
▁Hovoří	-12.1187
▁Liberci	-12.1187
▁Náhorní	-12.1187
▁vyhraněn	-12.1187
▁zlepšova	-12.1187
▁ďábl	-12.1187
▁Hokej	-12.1188
▁Talíř	-12.1188
▁mozaik	-12.1188
▁mužstev	-12.1188
▁remizoval	-12.1188
▁rublů	-12.1188
▁subjektivní	-12.1188
▁alianci	-12.1188
▁bádání	-12.1188
▁málokdy	-12.1188
▁těžká	-12.1188
▁Naděje	-12.1188
▁konzultace	-12.1188
▁ložisk	-12.1188
▁odškodn	-12.1188
▁licencí	-12.1188
▁obohac	-12.1188
▁platformě	-12.1188
▁vypravil	-12.1188
▁závěs	-12.1188
▁Mimořádn	-12.1188
▁žalostn	-12.1188
▁podjednotk	-12.1188
▁směšn	-12.1188
▁šroub	-12.1188
▁instalován	-12.1188
▁nezůstal	-12.1188
zmrzl	-12.1188
▁akceptoval	-12.1188
podrobněji	-12.1188
▁pochopí	-12.1188
charakteristické	-12.1188
▁replik	-12.1188
▁revizní	-12.1188
▁vazbu	-12.1188
▁vesničk	-12.1188
▁Koukal	-12.1188
▁neutron	-12.1188
▁nejistý	-12.1188
▁pobaltsk	-12.1188
▁vyrostl	-12.1188
▁pamětní	-12.1188
▁složka	-12.1188
libyjsk	-12.1188
▁čerpá	-12.1188
▁instituci	-12.1188
▁tropické	-12.1188
▁subvenc	-12.1188
▁zřítil	-12.1188
▁značkov	-12.1188
▁stokorunov	-12.1188
▁Snažím	-12.1188
▁předplatitel	-12.1188
▁svébytn	-12.1188
▁kapesní	-12.1188
▁těhotn	-12.1188
▁zachycen	-12.1188
▁dopisovatel	-12.1188
▁černošské	-12.1188
receptory	-12.1188
▁instalovan	-12.1188
▁Simon	-12.1188
▁nahrazuj	-12.1188
irácké	-12.1188
▁novověk	-12.1188
▁morfologi	-12.1188
▁Jičín	-12.1188
▁dodávaný	-12.1189
▁startovní	-12.1189
▁1:2	-12.1189
▁Němk	-12.1189
▁odlišně	-12.1189
▁podporován	-12.1189
▁okupovan	-12.1189
▁srpnov	-12.1189
fauny	-12.1189
▁vyráběl	-12.1189
▁překročen	-12.1189
▁vyučován	-12.1189
▁kojenc	-12.119
▁šachové	-12.119
▁System	-12.119
▁Očekáva	-12.1191
napůl	-12.1191
apadesátilet	-12.1191
organizovat	-12.1192
▁rameno	-12.1192
▁dominují	-12.1193
▁mnohonásobn	-12.1193
▁papírenské	-12.1193
▁nadprůměrn	-12.1194
▁preferuj	-12.1194
▁provozovn	-12.1195
▁lyrick	-12.1196
dočkali	-12.1197
charakteristický	-12.1197
▁identick	-12.1198
AŠE	-12.1199
▁zaslán	-12.1199
▁podepsan	-12.1204
▁doručen	-12.1208
▁Tvoř	-12.1209
japonských	-12.1212
▁skotsk	-12.1214
▁mudrc	-12.1215
▁žhář	-12.1216
kopíruj	-12.1226
▁půlroční	-12.1231
▁indick	-12.1236
▁Škodovk	-12.1236
▁předepsan	-12.1249
▁znehodnoc	-12.126
jízdn	-12.1272
▁Následuj	-12.1275
▁vinárn	-12.1311
označované	-12.1334
klidný	-12.1383
získaly	-12.1417
▁individuáln	-12.1488
sílil	-12.1502
majitelům	-12.1507
zvlášt	-12.1517
▁básní	-12.1821
▁nereagoval	-12.1821
▁Stavovsk	-12.1834
▁dostatečný	-12.184
▁praktick	-12.1843
ročním	-12.1876
převzali	-12.1914
telefonovat	-12.1914
▁nespokojen	-12.2085
▁originál	-12.2161
▁půlhodin	-12.2166
▁maďarsk	-12.2166
▁slunečn	-12.2186
společen	-12.2186
▁systemati	-12.219
▁mezinárodn	-12.2228
▁maličk	-12.2237
brázek	-12.2253
zajišťují	-12.2276
▁žebříč	-12.2289
▁střízliv	-12.2293
▁konsens	-12.2296
evadesát	-12.2296
cyklisty	-12.2296
ředchozí	-12.2298
▁pokročil	-12.2299
▁Konstatoval	-12.2299
▁Ransdorf	-12.2299
▁Rokycan	-12.2299
▁Skandinávi	-12.2299
▁Srebreni	-12.2299
▁anabolick	-12.2299
▁betlém	-12.2299
▁civilizovan	-12.2299
▁demagogi	-12.2299
▁demonstroval	-12.2299
▁dispečink	-12.2299
▁doprovázejí	-12.2299
▁dorozumívá	-12.2299
▁hygienik	-12.2299
▁házenkář	-12.2299
▁kultivova	-12.2299
▁mladoboleslavsk	-12.2299
▁newyorsk	-12.2299
▁ohodnoc	-12.2299
▁prvorozen	-12.2299
▁spoluúčast	-12.2299
▁Čelákovic	-12.2299
GATT	-12.2299
ašedesátilet	-12.2299
běloruské	-12.2299
jordánsk	-12.2299
kilometrové	-12.2299
olychlorovan	-12.2299
onadotropin	-12.2299
orientovat	-12.2299
plácejí	-12.2299
publikovat	-12.2299
silvestrovsk	-12.2299
▁Canaria	-12.2299
▁Chemapol	-12.2299
▁Církev	-12.2299
▁Daventree	-12.2299
▁Definitivn	-12.2299
▁Delors	-12.2299
▁Džbán	-12.2299
▁Expozice	-12.2299
▁Grygárek	-12.2299
▁Hořovic	-12.2299
▁Jablonec	-12.2299
▁Jihočesk	-12.2299
▁KLDR	-12.2299
▁Kaktus	-12.2299
▁Konkurenc	-12.2299
▁Konzervati	-12.2299
▁Káhiře	-12.2299
▁Lindros	-12.2299
▁Lékárn	-12.2299
▁Maďaři	-12.2299
▁Mikuláše	-12.2299
▁Minolta	-12.2299
▁Mubarak	-12.2299
▁Mukařov	-12.2299
▁Nejjednodušší	-12.2299
▁Nepomuckého	-12.2299
▁Následn	-12.2299
▁Němeček	-12.2299
▁OligoLactoria	-12.2299
▁Regionální	-12.2299
▁Riziko	-12.2299
▁Saddám	-12.2299
▁Servis	-12.2299
▁Sociálně	-12.2299
▁Spoluprác	-12.2299
▁Spořitelní	-12.2299
▁Stoičkov	-12.2299
▁Sybase	-12.2299
▁SyndiCUT	-12.2299
▁Volkswagen	-12.2299
▁Zimbabwe	-12.2299
▁australské	-12.2299
▁autonomní	-12.2299
▁bezúročn	-12.2299
▁bruselské	-12.2299
▁cyklem	-12.2299
▁desetitisíce	-12.2299
▁disciplinární	-12.2299
▁dluhopisů	-12.2299
▁exkluzivní	-12.2299
▁falešný	-12.2299
▁guvernér	-12.2299
▁hektolitrů	-12.2299
▁identity	-12.2299
▁inscenaci	-12.2299
▁jednoduchost	-12.2299
▁kompetenci	-12.2299
▁kosmetik	-12.2299
▁kosmodrom	-12.2299
▁laureát	-12.2299
▁magazín	-12.2299
▁maloobchod	-12.2299
▁minimalizova	-12.2299
▁moskevské	-12.2299
▁mužstvem	-12.2299
▁napomoci	-12.2299
▁nejistoty	-12.2299
▁nekvalitní	-12.2299
▁nenávratn	-12.2299
▁nepředvídateln	-12.2299
▁nepřítomnost	-12.2299
▁nevylučuje	-12.2299
▁nezvládl	-12.2299
▁nominován	-12.2299
▁návrzích	-12.2299
▁obezřetn	-12.2299
▁ochránců	-12.2299
▁odlišnou	-12.2299
▁ofenzív	-12.2299
▁orientačn	-12.2299
▁paprsek	-12.2299
▁papíře	-12.2299
▁perforací	-12.2299
▁plýtvání	-12.2299
▁podezřelé	-12.2299
▁podezřelí	-12.2299
▁požadavku	-12.2299
▁prozradit	-12.2299
▁předpokládaný	-12.2299
▁představenstvo	-12.2299
▁reliéf	-12.2299
▁rezignoval	-12.2299
▁rovnocenn	-12.2299
▁rukojmí	-12.2299
▁sarajevsk	-12.2299
▁spolupracovníc	-12.2299
▁syndrom	-12.2299
▁tatínek	-12.2299
▁teritoria	-12.2299
▁teritoriu	-12.2299
▁třetihor	-12.2299
▁umožňoval	-12.2299
▁uspokojivé	-12.2299
▁vehementně	-12.2299
▁vertikální	-12.2299
▁zhodnotil	-12.2299
▁znázorněn	-12.2299
▁západoevropské	-12.2299
▁závratn	-12.2299
▁Úroveň	-12.2299
▁Čalfa	-12.2299
▁Řidič	-12.2299
▁Švýcaři	-12.2299
▁šifrování	-12.2299
▁Živnostensk	-12.2299
korektní	-12.2299
▁3:1	-12.2299
▁6:4	-12.2299
▁Chalupa	-12.2299
▁DNES	-12.2299
▁Doporučuj	-12.2299
▁Heinrich	-12.2299
▁Příbrami	-12.2299
▁Sergej	-12.2299
▁australský	-12.2299
▁baterie	-12.2299
▁celovečerní	-12.2299
▁diplomacie	-12.2299
▁důvěře	-12.2299
▁emigroval	-12.2299
▁gruzínsk	-12.2299
▁holčičk	-12.2299
▁ilegální	-12.2299
▁kuloár	-12.2299
▁kvartil	-12.2299
▁křesel	-12.2299
▁křeslo	-12.2299
▁manekýn	-12.2299
▁nadřízený	-12.2299
▁neblahé	-12.2299
▁negativně	-12.2299
▁neúnosn	-12.2299
▁odstartoval	-12.2299
▁oznámí	-12.2299
▁pravdivé	-12.2299
▁prosperující	-12.2299
▁připomene	-12.2299
▁retrospektiv	-12.2299
▁rezidenc	-12.2299
▁severovýchod	-12.2299
▁severočeský	-12.2299
▁skleničk	-12.2299
▁stipendi	-12.2299
▁uspět	-12.2299
▁zacházení	-12.2299
▁zastupitelský	-12.2299
▁žlouten	-12.2299
▁Oficiáln	-12.2299
▁Písek	-12.2299
▁dovolená	-12.2299
▁fasád	-12.2299
▁omlouvá	-12.2299
▁opomíj	-12.2299
▁posmrtn	-12.2299
▁pozastaven	-12.2299
▁písniček	-12.2299
▁rozšiřují	-12.2299
▁uctíván	-12.2299
▁Úřední	-12.2299
▁černobíl	-12.2299
▁1964	-12.2299
▁Použít	-12.2299
▁aritmetick	-12.2299
▁bezchybn	-12.2299
▁fungoval	-12.2299
▁kabát	-12.2299
▁kázeň	-12.2299
▁napojení	-12.2299
[...]
