<unk>	0
<s>	0
</s>	0
<doc>	0
</doc>	0
<head>	0
</head>	0
<phr>	0
</phr>	0
▁	-1.73492
,	-3.30639
.	-3.45403
▁a	-4.37794
▁v	-4.4438
▁se	-4.5455
a	-4.56294
▁na	-4.66303
u	-4.75427
m	-4.76382
i	-4.92204
ch	-4.94434
y	-4.95299
▁je	-5.07045
ho	-5.233
▁"	-5.25515
▁z	-5.31755
▁že	-5.32508
▁s	-5.32605
e	-5.52217
á	-5.56947
o	-5.57234
▁do	-5.57704
▁o	-5.58219
ou	-5.62436
í	-5.74341
▁pro	-5.77248
em	-5.78336
s	-5.79997
é	-5.80179
▁za	-5.81354
▁-	-5.83887
ě	-5.84267
▁po	-5.93205
▁k	-5.94006
▁to	-6.03164
t	-6.03472
▁(	-6.05848
▁ve	-6.06498
▁V	-6.0655
ů	-6.06586
to	-6.07491
▁i	-6.11665
ž	-6.14958
▁by	-6.15788
mi	-6.22614
▁ale	-6.25729
>	-6.27374
ý	-6.33891
▁si	-6.34928
▁od	-6.41808
▁jsou	-6.44916
▁jako	-6.47907
▁které	-6.5007
▁při	-6.50449
ých	-6.56004
)	-6.56993
▁však	-6.57882
ní	-6.58164
▁:	-6.6084
▁tak	-6.64098
▁který	-6.69459
▁ne	-6.70066
z	-6.73632
me	-6.76519
▁nebo	-6.77741
▁jeho	-6.78617
▁S	-6.79087
▁bude	-6.79731
?	-6.81928
l	-6.82682
x	-6.82912
▁jen	-6.85544
ně	-6.86482
te	-6.88878
p	-6.90279
▁Po	-6.90968
v	-6.92538
▁A	-6.92767
▁než	-6.93668
▁má	-6.95098
r	-6.95321
d	-6.96394
ce	-6.97552
▁před	-6.97555
▁Na	-7.00204
▁už	-7.00545
▁aby	-7.0198
▁byl	-7.03796
▁vy	-7.03908
k	-7.04086
▁jejich	-7.05732
▁jak	-7.06541
▁jsem	-7.07059
▁být	-7.07292
▁až	-7.07862
ka	-7.07998
▁která	-7.11865
▁také	-7.12417
mu	-7.13215
▁jsme	-7.15737
▁Z	-7.15745
▁<	-7.16876
▁podle	-7.16949
ého	-7.1805
▁Je	-7.18576
ové	-7.192
▁ze	-7.19231
li	-7.28504
▁co	-7.28695
▁není	-7.28944
na	-7.30286
▁O	-7.30811
▁mezi	-7.31469
▁bylo	-7.32542
▁P	-7.32774
▁ani	-7.33437
ky	-7.3408
▁či	-7.34115
▁ještě	-7.35102
▁své	-7.35255
č	-7.36175
▁již	-7.36402
▁když	-7.3718
ech	-7.37524
la	-7.37736
ci	-7.37772
▁může	-7.38022
ná	-7.38846
▁byla	-7.40165
▁let	-7.4035
▁toho	-7.42365
▁K	-7.43489
kud	-7.44093
ku	-7.44116
▁korun	-7.44404
né	-7.45605
/	-7.45696
).	-7.50304
že	-7.50358
▁pak	-7.50487
▁další	-7.5208
ek	-7.52083
b	-7.52124
▁kteří	-7.52843
▁tím	-7.5338
▁kde	-7.55244
ým	-7.5551
▁té	-7.55818
▁více	-7.5766
n	-7.58159
▁To	-7.58271
ová	-7.59011
▁roku	-7.59291
▁první	-7.59365
▁tedy	-7.59579
ovat	-7.60451
it	-7.60476
cí	-7.61078
▁bez	-7.61963
š	-7.63509
▁pod	-7.63633
▁nich	-7.63991
le	-7.64334
j	-7.64775
uje	-7.64914
),	-7.66937
lo	-7.67788
▁mají	-7.68513
▁tu	-7.70695
▁pře	-7.70942
nou	-7.71003
st	-7.7285
▁Ne	-7.72859
▁roce	-7.73495
▁pouze	-7.73777
▁musí	-7.74108
-	-7.75011
▁tom	-7.75109
▁kdy	-7.75675
c	-7.76736
▁tomu	-7.76995
▁Za	-7.78219
▁ke	-7.78724
▁proto	-7.79242
ách	-7.80727
▁budou	-7.80745
▁li	-7.80916
ň	-7.8103
ni	-7.8165
▁třeba	-7.82088
▁proti	-7.82233
▁M	-7.82258
en	-7.82509
ný	-7.82574
▁I	-7.82697
▁protože	-7.82909
▁totiž	-7.83645
ze	-7.84488
▁nás	-7.84982
▁lze	-7.86124
h	-7.86945
▁U	-7.87492
jí	-7.88211
▁nad	-7.88808
ování	-7.89654
▁D	-7.90243
il	-7.90411
▁byly	-7.9054
ům	-7.90591
▁měl	-7.90733
in	-7.90757
▁poslední	-7.91101
▁velmi	-7.91105
▁asi	-7.91322
ovi	-7.91494
▁její	-7.91633
al	-7.91985
▁zatím	-7.92014
ových	-7.92128
▁Pro	-7.94732
▁řekl	-7.95325
f	-7.9548
▁včera	-7.96396
▁roz	-7.98381
ost	-7.984
▁ty	-7.99147
ské	-7.99684
▁J	-8.0009
▁Podl	-8.00367
▁dnes	-8.01029
▁firmy	-8.01797
▁H	-8.01911
▁přes	-8.02698
▁dva	-8.02953
▁Do	-8.03124
ra	-8.03986
▁Při	-8.04013
▁především	-8.04142
on	-8.04214
ří	-8.04283
co	-8.04952
▁tisíc	-8.05247
▁vlastní	-8.0529
ne	-8.05395
no	-8.06285
▁případě	-8.06625
cích	-8.06998
▁všech	-8.07406
▁'	-8.07515
ře	-8.07784
ných	-8.08236
▁například	-8.0827
ují	-8.08581
po	-8.09004
g	-8.09256
▁nám	-8.1061
▁rok	-8.10802
▁době	-8.11242
▁nyní	-8.11454
ta	-8.12057
▁mít	-8.12284
ři	-8.13328
▁Ve	-8.13943
▁ji	-8.14374
▁tři	-8.15236
▁jim	-8.1643
▁lidí	-8.1643
▁společnosti	-8.16605
▁práce	-8.16846
▁mohou	-8.17141
▁stále	-8.17799
▁těchto	-8.18056
▁zda	-8.18163
kou	-8.18175
▁ovšem	-8.1819
▁všechny	-8.18502
▁jeden	-8.19044
lu	-8.19601
vá	-8.19885
▁G	-8.2049
ko	-8.20767
▁několik	-8.20788
▁dvou	-8.20789
osti	-8.21166
▁procent	-8.22346
▁kterou	-8.22569
▁což	-8.22926
▁něm	-8.23864
...	-8.24513
ru	-8.24723
ro	-8.24853
ř	-8.25095
je	-8.25303
▁tento	-8.25339
právě	-8.2615
▁Co	-8.27282
ový	-8.27285
▁možné	-8.27642
at	-8.27753
ovou	-8.28492
vě	-8.2856
▁České	-8.28701
S	-8.28793
▁Ale	-8.28952
▁jde	-8.2904
pl	-8.29231
▁nové	-8.29322
▁Jak	-8.29494
▁dalších	-8.29679
cela	-8.30065
el	-8.30067
or	-8.30096
▁T	-8.30276
ém	-8.30721
či	-8.30964
ny	-8.31105
▁nej	-8.31243
ti	-8.31297
▁měla	-8.32035
▁ČR	-8.32211
▁Praze	-8.32987
▁jednání	-8.33353
ými	-8.3337
▁zejména	-8.33573
téměř	-8.33859
▁naše	-8.34031
▁Od	-8.34229
ly	-8.34234
se	-8.34265
▁zařízení	-8.34331
▁svou	-8.34478
ov	-8.34546
ami	-8.34732
▁kdo	-8.35351
va	-8.3603
▁Proto	-8.36284
▁strany	-8.36504
M	-8.36545
▁B	-8.36828
če	-8.3691
▁prostředí	-8.38361
▁sice	-8.39071
▁letech	-8.39093
er	-8.39387
▁L	-8.39784
lí	-8.39958
▁dvě	-8.40019
▁Kdy	-8.40093
D	-8.40266
▁základní	-8.40443
▁svého	-8.40445
da	-8.41158
▁větší	-8.41271
▁svých	-8.41504
oval	-8.41926
▁možnost	-8.42339
▁R	-8.42559
▁nejen	-8.42641
ám	-8.43017
▁jiné	-8.43505
T	-8.43983
ově	-8.43999
spo	-8.44497
▁naši	-8.44955
▁světa	-8.4522
▁tomto	-8.457
▁místo	-8.46055
tu	-8.46411
▁Tak	-8.46486
ty	-8.47407
▁každý	-8.47616
ích	-8.47668
si	-8.48389
▁000	-8.48688
de	-8.49174
▁nic	-8.49286
▁část	-8.49388
▁druhé	-8.49443
▁milionů	-8.49471
ská	-8.49638
▁zde	-8.50032
lá	-8.50099
▁něco	-8.50701
▁vlády	-8.50753
▁stát	-8.50821
▁svým	-8.50925
▁C	-8.5146
tr	-8.51562
us	-8.51678
▁uvedl	-8.51748
▁říká	-8.52573
▁stejně	-8.52664
an	-8.53022
děl	-8.53297
▁mu	-8.53782
čí	-8.54213
▁ceny	-8.54215
ví	-8.54383
ného	-8.5445
R	-8.54684
▁zákona	-8.55027
▁systém	-8.55189
▁kolem	-8.55232
▁ob	-8.55371
▁zboží	-8.55475
A	-8.56063
ri	-8.56144
▁tam	-8.56204
ující	-8.56246
nu	-8.56635
3	-8.5664
ového	-8.56804
ním	-8.56807
K	-8.56829
▁N	-8.56923
▁oblasti	-8.57302
▁země	-8.57616
▁dobře	-8.57845
▁10	-8.58016
▁příliš	-8.58084
▁patří	-8.58121
L	-8.5828
▁finanční	-8.58583
▁dosud	-8.58796
▁svůj	-8.5881
▁2	-8.59093
▁některých	-8.59219
▁pracovní	-8.59233
ští	-8.59321
▁práci	-8.59473
▁byli	-8.59506
▁některé	-8.59681
▁zemí	-8.59845
tě	-8.60259
kr	-8.60328
du	-8.60399
ry	-8.60884
▁vůbec	-8.60901
▁opět	-8.61184
re	-8.61487
ba	-8.61575
ným	-8.61744
ský	-8.6196
▁1	-8.62238
▁sociální	-8.62532
▁období	-8.62586
▁vždy	-8.62724
▁%	-8.62752
B	-8.62786
ší	-8.63347
▁neboť	-8.63394
▁F	-8.64407
▁mě	-8.64731
▁několika	-8.65287
ma	-8.65558
I	-8.65781
▁firma	-8.6632
▁jež	-8.66551
▁střední	-8.66678
▁nejsou	-8.66898
▁často	-8.67121
ků	-8.67389
by	-8.67442
▁vyšší	-8.67572
2	-8.67643
tá	-8.68152
▁systému	-8.68243
P	-8.6907
▁dokonce	-8.69123
ec	-8.6915
▁3	-8.69257
▁jste	-8.69505
▁Jan	-8.69531
ského	-8.69677
nost	-8.69866
▁USA	-8.70139
V	-8.70312
od	-8.7032
▁den	-8.70413
▁měli	-8.70439
▁sám	-8.70694
▁společnost	-8.70734
▁Js	-8.71101
▁čas	-8.71185
vol	-8.71328
▁Kč	-8.71336
▁ten	-8.71559
hl	-8.71765
kem	-8.71767
▁lidé	-8.71795
C	-8.71824
▁celé	-8.71916
ských	-8.72005
za	-8.72591
▁nebude	-8.72797
▁přímo	-8.72891
▁doby	-8.72891
ha	-8.72903
během	-8.73156
dr	-8.73236
▁rovněž	-8.7334
▁níž	-8.73351
tí	-8.73604
ních	-8.73785
▁trhu	-8.73989
▁informace	-8.74123
▁nimi	-8.74815
▁počet	-8.75119
vůli	-8.75354
▁zákon	-8.75405
4	-8.75467
ova	-8.7566
včetně	-8.75716
ji	-8.75879
zřejmě	-8.7594
▁pět	-8.76076
▁situace	-8.76116
▁části	-8.76178
▁takže	-8.76182
▁hodin	-8.76368
ť	-8.76566
▁zahraničí	-8.76924
▁státní	-8.76992
▁Ty	-8.77122
et	-8.77872
ím	-8.77951
▁mohl	-8.78259
▁Vy	-8.78494
hr	-8.78682
tato	-8.78811
▁sebe	-8.78877
▁5	-8.79254
▁méně	-8.79314
tra	-8.79332
N	-8.79339
▁ministr	-8.7957
▁např	-8.79717
▁vše	-8.79769
▁Evropy	-8.79805
▁peníze	-8.79805
ká	-8.79815
vý	-8.80292
▁nepo	-8.80493
ení	-8.80641
▁Zatím	-8.80658
▁víc	-8.80668
nější	-8.80745
▁jednotlivý	-8.80745
▁něj	-8.81075
▁chce	-8.81209
▁vám	-8.81333
▁znamená	-8.81477
ve	-8.81551
pr	-8.81574
▁způsobem	-8.81698
▁největší	-8.81822
Z	-8.81892
▁takové	-8.81953
is	-8.82052
▁ředitel	-8.82472
▁spíše	-8.82614
▁republiky	-8.82673
▁nemá	-8.83128
▁velký	-8.83356
▁čtyři	-8.83389
▁de	-8.83637
▁dále	-8.83905
▁dobu	-8.8394
▁navíc	-8.8407
▁přitom	-8.84098
ob	-8.84344
w	-8.8457
▁První	-8.84709
▁české	-8.84785
▁půl	-8.84785
▁obchodní	-8.8485
1	-8.84891
▁vlastně	-8.84963
še	-8.85021
▁problémy	-8.85074
▁prezident	-8.85247
▁snad	-8.85302
▁jednoho	-8.85377
▁Š	-8.8564
▁naopak	-8.85829
lé	-8.86053
▁řízení	-8.87712
▁20	-8.87789
▁zájem	-8.87889
os	-8.87919
▁města	-8.87947
▁letošní	-8.87977
▁skutečně	-8.88117
▁mnoho	-8.88159
▁straně	-8.88755
ši	-8.88765
▁život	-8.88966
▁znovu	-8.89031
▁zahraniční	-8.89275
ají	-8.89322
▁většinou	-8.89327
▁zhruba	-8.89498
vi	-8.89623
▁životní	-8.89725
▁platí	-8.89728
▁jej	-8.89828
bu	-8.89973
▁vláda	-8.90046
ží	-8.9015
▁řešení	-8.90263
▁současné	-8.90397
▁šest	-8.90504
▁program	-8.91133
▁území	-8.91296
▁rozdíl	-8.91365
▁jiných	-8.91723
▁Jiří	-8.91766
▁mimo	-8.91869
▁Ko	-8.92037
▁nelze	-8.9227
▁celý	-8.92535
▁člověk	-8.92688
▁bych	-8.92883
▁velké	-8.93017
lou	-8.93141
▁začal	-8.93274
5	-8.93613
▁1992	-8.93697
U	-8.93728
▁letos	-8.93739
▁tří	-8.93883
▁stav	-8.93913
▁smlouvy	-8.94147
▁tzv	-8.94162
▁dolarů	-8.94174
val	-8.94194
▁rozhodnutí	-8.94248
9	-8.9452
▁zase	-8.95207
▁jedné	-8.95387
▁Před	-8.95617
▁E	-8.95654
ův	-8.95801
ické	-8.96032
▁Petr	-8.96065
▁lepší	-8.96094
▁sto	-8.96123
▁pomocí	-8.96177
▁množství	-8.96353
ila	-8.96354
ili	-8.96767
▁činnosti	-8.96768
Á	-8.96977
ar	-8.97368
E	-8.9746
▁1.	-8.97514
ovali	-8.97695
▁naší	-8.98062
0	-8.98112
▁Přesto	-8.98167
▁vás	-8.98304
▁roky	-8.9833
▁pan	-8.98795
▁světě	-8.98868
▁různých	-8.991
00	-8.99131
▁jednou	-8.99208
▁hlavní	-8.99509
▁svět	-8.9969
▁později	-8.9998
▁státu	-8.9998
ců	-9.00487
ste	-9.00524
▁můžete	-9.00629
▁nevy	-9.00696
let	-9.00764
vr	-9.01034
▁programu	-9.01063
▁vedení	-9.01125
▁ČSFR	-9.01132
▁dost	-9.01425
▁člověka	-9.01754
▁Evropě	-9.02171
▁podniku	-9.02378
▁skupiny	-9.0259
▁století	-9.02701
▁bývalé	-9.02946
▁věci	-9.03127
▁služby	-9.03221
▁Václav	-9.03383
▁deset	-9.03393
▁moc	-9.03557
▁dlouho	-9.0356
▁jedn	-9.03563
▁W	-9.03594
▁málo	-9.03595
ční	-9.03851
▁spolu	-9.039
▁domácí	-9.03929
▁soud	-9.03977
▁funkce	-9.04283
▁jinak	-9.04284
▁činnost	-9.04302
▁prý	-9.04321
▁mělo	-9.04486
pe	-9.04604
▁zároveň	-9.04992
6	-9.05113
▁obou	-9.05244
lit	-9.05262
▁situaci	-9.05354
ur	-9.05437
op	-9.05786
ální	-9.05813
▁dnešní	-9.05897
▁prohlásil	-9.05927
▁snímku	-9.06439
▁trh	-9.06449
ing	-9.06454
▁náklady	-9.06588
▁problém	-9.06754
▁pěti	-9.06838
▁možná	-9.06967
▁přesto	-9.07086
▁návrh	-9.07099
▁osob	-9.07253
▁CD	-9.07387
▁místní	-9.07598
▁prvním	-9.07618
dy	-9.07621
▁cenu	-9.07742
▁nových	-9.07863
▁nemůže	-9.07876
▁stojí	-9.07946
▁měly	-9.08225
▁máme	-9.08261
O	-9.08276
dí	-9.08317
▁100	-9.08353
▁jaké	-9.08401
▁tvrdí	-9.08449
▁mohli	-9.08514
▁děti	-9.08642
▁1993	-9.08643
ací	-9.08796
▁firem	-9.09031
pra	-9.09037
pa	-9.09049
ter	-9.09244
ační	-9.09524
▁4	-9.09582
ol	-9.09668
▁získat	-9.09763
▁Praha	-9.09763
ější	-9.09901
▁jedna	-9.10027
ad	-9.10248
ace	-9.104
▁toto	-9.10452
▁států	-9.10471
▁neu	-9.10643
str	-9.10733
▁Byl	-9.10879
▁těch	-9.1088
▁majetku	-9.10896
▁nakonec	-9.10953
▁všechno	-9.11064
▁jedno	-9.11454
▁nikdy	-9.11469
stav	-9.11841
ované	-9.12029
▁výši	-9.12297
▁podniků	-9.12552
▁lety	-9.12686
▁svém	-9.12705
mat	-9.12796
▁konce	-9.12942
▁právní	-9.13055
▁nez	-9.1317
▁Má	-9.13432
▁proč	-9.13542
▁místě	-9.13623
▁vody	-9.13787
▁vliv	-9.13807
▁americké	-9.14062
▁možnosti	-9.14106
▁třetí	-9.14373
man	-9.14456
▁nového	-9.14502
▁Ta	-9.14616
▁30	-9.14691
▁dříve	-9.14726
es	-9.14857
▁Prahy	-9.14966
▁stavu	-9.15003
▁dobré	-9.15012
▁sobotu	-9.15021
fi	-9.15378
▁obě	-9.15404
▁nutné	-9.15561
▁kdyby	-9.15632
▁nebyl	-9.15719
▁mezinárodní	-9.15937
ovým	-9.16007
%	-9.16463
▁stran	-9.16586
▁15	-9.16599
br	-9.16623
▁parlamentu	-9.16718
H	-9.16718
▁bychom	-9.1698
▁týden	-9.17011
▁přece	-9.17176
▁osm	-9.17197
▁předseda	-9.17233
▁Tento	-9.17587
▁postup	-9.17607
▁zemi	-9.17661
▁pohled	-9.17926
▁ministerstva	-9.17978
aci	-9.18746
▁50	-9.18807
▁Tato	-9.18839
▁informací	-9.19209
▁všichni	-9.19209
▁policie	-9.19209
▁organizace	-9.19209
hu	-9.1922
▁Není	-9.19225
▁samozřejmě	-9.19245
▁potom	-9.19262
nosti	-9.1928
▁poté	-9.1942
▁prostor	-9.19453
▁Další	-9.19536
▁rychle	-9.19804
▁podnik	-9.19808
▁Se	-9.19816
▁nikdo	-9.19832
▁Ten	-9.19905
▁můžeme	-9.19944
▁malé	-9.2018
zí	-9.20277
cen	-9.20305
▁nový	-9.20377
▁hlavně	-9.20461
ven	-9.20498
▁poměrně	-9.20553
▁druhý	-9.20596
▁českých	-9.20881
▁já	-9.20882
ice	-9.20896
▁Kromě	-9.21085
skou	-9.21161
▁způsob	-9.21292
▁prezidenta	-9.21317
▁věcí	-9.21332
▁podíl	-9.21382
▁něho	-9.21439
nebo	-9.21529
▁sdružení	-9.21735
trochu	-9.21736
▁6	-9.21748
▁dvěma	-9.21776
▁pár	-9.22378
▁vedoucí	-9.22382
▁Jana	-9.22862
▁SSSR	-9.22995
▁sobě	-9.22999
▁dál	-9.23016
▁Re	-9.23474
bychom	-9.23547
8	-9.23621
▁Mezi	-9.23645
▁prohlášení	-9.23652
jich	-9.23758
▁žádné	-9.24174
▁Jako	-9.24178
dl	-9.24289
▁Jestli	-9.2429
▁podmínky	-9.2429
▁komise	-9.2429
▁někdy	-9.24292
▁jí	-9.24701
▁200	-9.24749
▁Le	-9.24936
▁večer	-9.24995
▁základě	-9.25095
ovala	-9.25112
jší	-9.25153
▁Evropské	-9.25617
▁výroby	-9.25647
▁zemích	-9.25669
▁došlo	-9.2591
ému	-9.26086
rt	-9.26188
▁kromě	-9.26202
▁čím	-9.26257
▁většina	-9.26263
pat	-9.26687
▁premiér	-9.26865
▁čtyř	-9.27008
▁místa	-9.27104
▁ostatní	-9.27231
▁Tr	-9.27403
▁určité	-9.27508
dním	-9.27514
▁hned	-9.27607
▁význam	-9.27653
▁Ro	-9.27706
mohlo	-9.27769
▁nejlepší	-9.27798
▁peněz	-9.28277
▁výrazně	-9.28311
▁života	-9.28571
▁tehdy	-9.28957
▁rozpočtu	-9.28961
▁ú	-9.29035
▁miliard	-9.29098
ck	-9.29126
▁neza	-9.29141
▁hry	-9.29177
▁jistě	-9.29205
ik	-9.29237
zn	-9.295
▁jich	-9.29605
▁vysoké	-9.29642
▁mnoha	-9.29658
▁nes	-9.29754
▁východní	-9.29819
▁tvoří	-9.29821
▁1991	-9.29963
▁cena	-9.29973
▁vývoj	-9.30005
▁teď	-9.3034
▁vítězství	-9.30374
ran	-9.30468
▁milionu	-9.30578
▁nebylo	-9.30796
sk	-9.30889
há	-9.30895
▁prosince	-9.31026
▁prostředky	-9.31028
▁poprvé	-9.31029
▁40	-9.31068
▁dne	-9.31159
ali	-9.31367
id	-9.31602
▁názor	-9.31648
▁unie	-9.31729
▁času	-9.31901
▁přístup	-9.31952
ovací	-9.32015
F	-9.32091
▁stejné	-9.3218
▁žádný	-9.32186
kové	-9.32223
▁spolupráci	-9.3243
▁výsledky	-9.32443
▁teprve	-9.32455
▁opatření	-9.32464
▁nějak	-9.32496
nutí	-9.32508
rad	-9.32769
▁jenž	-9.32794
ga	-9.33123
ství	-9.33167
▁dodal	-9.33181
▁nedo	-9.33231
sta	-9.33574
ul	-9.33674
▁St	-9.33807
▁prakticky	-9.33898
do	-9.33969
▁vnitřní	-9.33981
▁politické	-9.34155
▁ODS	-9.34158
▁mnoh	-9.34335
▁hlediska	-9.34573
▁prostřednictví	-9.34573
▁akce	-9.34602
▁utkání	-9.34629
án	-9.3464
▁zdravotní	-9.34669
nit	-9.34797
▁text	-9.34865
▁procenta	-9.34903
ič	-9.34942
ák	-9.34948
ník	-9.35008
sp	-9.35211
▁republice	-9.35297
▁velice	-9.354
▁11	-9.35459
▁celou	-9.35487
▁Ch	-9.35558
ován	-9.35586
hle	-9.35608
▁zisk	-9.35641
▁ministra	-9.3565
vat	-9.35752
▁Ma	-9.35805
▁re	-9.35904
▁stal	-9.35956
▁někdo	-9.36028
▁daně	-9.36077
gr	-9.36352
▁provoz	-9.36607
▁dispozici	-9.36765
▁nižší	-9.36774
▁souvislosti	-9.36854
díky	-9.36915
▁kterým	-9.37094
ání	-9.37132
▁minut	-9.37258
▁řadu	-9.37371
▁typu	-9.37377
▁1990	-9.37505
▁deseti	-9.37681
vo	-9.37713
sti	-9.37787
▁bo	-9.37858
▁šesti	-9.38043
▁změny	-9.38098
▁osobní	-9.38108
▁obyvatel	-9.38141
nými	-9.3821
▁kam	-9.38223
▁rámci	-9.38252
▁ledna	-9.38279
▁prostě	-9.38402
nik	-9.38485
mohla	-9.38605
▁19	-9.38657
dle	-9.38782
▁mne	-9.38822
▁původní	-9.38854
▁nejméně	-9.39015
▁budeme	-9.39088
▁podařilo	-9.39106
▁sebou	-9.39214
▁menší	-9.39424
▁doma	-9.3947
čka	-9.39764
▁objekt	-9.39772
▁roli	-9.39798
nout	-9.39867
▁státy	-9.39966
▁různé	-9.3997
▁čs	-9.40167
vy	-9.40268
▁Například	-9.40522
▁podnikání	-9.40547
▁dat	-9.40915
▁Jen	-9.40961
ant	-9.41122
▁opravdu	-9.41301
▁výše	-9.41317
▁tolik	-9.41361
▁pomoc	-9.41371
▁Jde	-9.4138
bě	-9.41479
▁úřad	-9.41503
▁právo	-9.41582
▁západní	-9.41949
▁miliónů	-9.42067
▁smlouvu	-9.42067
▁snaží	-9.42067
▁nejvyšší	-9.42113
▁nedávno	-9.42125
▁náš	-9.42135
▁minulý	-9.42172
▁trenér	-9.42222
ot	-9.423
▁kole	-9.42338
Í	-9.42439
▁služeb	-9.42696
▁funkci	-9.42849
▁loni	-9.42872
▁Dnes	-9.42904
▁zdá	-9.42905
▁zvýšení	-9.42957
▁chyb	-9.43568
▁okolí	-9.43637
▁Kdo	-9.43707
▁Klaus	-9.43735
▁měsíců	-9.43807
▁středu	-9.43954
▁chování	-9.44027
▁fakt	-9.44044
▁Pře	-9.44193
len	-9.44417
▁koaliční	-9.44429
▁ministerstvo	-9.44429
▁chtějí	-9.44429
▁dnech	-9.44451
▁pojištění	-9.44567
pro	-9.44715
▁cen	-9.44756
▁ta	-9.44761
▁růst	-9.44852
▁25	-9.44998
▁získal	-9.45017
▁úřadu	-9.45095
▁jiného	-9.45187
ního	-9.45236
▁národní	-9.45311
▁metrů	-9.4533
▁postupně	-9.45367
▁Windows	-9.45502
▁rady	-9.45622
▁zahraničních	-9.4568
proti	-9.46057
▁společenství	-9.46077
▁dosavadní	-9.46115
šlo	-9.4617
▁slova	-9.46212
▁svazu	-9.46527
▁bývalý	-9.46589
7	-9.46638
▁členů	-9.46924
▁Pak	-9.47237
▁18	-9.47273
▁malý	-9.4728
krát	-9.47364
▁ti	-9.4738
▁12	-9.47498
▁výkon	-9.47528
▁2.	-9.47534
▁16	-9.47641
▁nemusí	-9.47669
▁číslo	-9.47693
▁Nej	-9.47919
▁Zde	-9.47925
▁pracovníků	-9.48059
up	-9.48193
▁podobně	-9.48353
▁klubu	-9.48375
sku	-9.48384
▁podporu	-9.48422
▁zástupce	-9.48506
▁nadále	-9.486
▁tržní	-9.48629
▁Bude	-9.48843
per	-9.48947
▁počtu	-9.4907
▁míst	-9.49074
ovy	-9.49287
čin	-9.49324
▁Bo	-9.49342
▁8	-9.49381
▁vů	-9.49456
▁Pa	-9.49707
olog	-9.49962
▁ročně	-9.49972
ící	-9.4998
as	-9.50051
▁Ba	-9.50096
▁týmu	-9.50153
▁Většin	-9.50168
▁nabídky	-9.50169
▁hospodářství	-9.50169
▁lépe	-9.50172
▁hodně	-9.50222
▁podniky	-9.50295
▁sedm	-9.50298
▁škol	-9.50312
▁dostal	-9.50337
▁MS	-9.5037
▁projekt	-9.50371
▁přesně	-9.50549
CH	-9.5055
▁každ	-9.506
▁mo	-9.50642
▁ním	-9.50899
▁7	-9.5098
▁umožňuje	-9.51016
▁podstatně	-9.51032
ic	-9.51042
▁Ani	-9.51044
▁jenom	-9.51086
▁přibližn	-9.51192
▁problémů	-9.51333
ber	-9.5136
J	-9.51429
▁olympijské	-9.51456
bou	-9.51654
▁fondu	-9.51696
nice	-9.51769
ostí	-9.51772
▁vod	-9.5181
▁považuje	-9.51871
▁začíná	-9.51871
ily	-9.519
▁musíme	-9.51904
▁říci	-9.5192
▁případech	-9.51929
▁novou	-9.51969
▁her	-9.51978
ilo	-9.52029
▁městě	-9.52039
▁1994	-9.52077
▁14	-9.52164
▁přednost	-9.52337
▁dá	-9.52422
▁ex	-9.52503
▁banky	-9.52515
▁pomoci	-9.52683
▁řada	-9.5273
▁obvykle	-9.52733
▁sítě	-9.52737
ském	-9.52777
nov	-9.52803
▁oddělení	-9.52812
bal	-9.52835
▁možností	-9.5284
▁českého	-9.52936
▁vedle	-9.5315
G	-9.53262
▁nebyla	-9.53386
žen	-9.5346
kách	-9.53518
▁otázku	-9.53602
▁výrobků	-9.53606
▁politiky	-9.53657
▁vede	-9.53828
Dr	-9.53836
▁průběhu	-9.53879
dob	-9.53899
▁nabízí	-9.54479
▁miliardy	-9.54513
▁nemají	-9.54538
▁tým	-9.54599
▁ulici	-9.54614
prve	-9.54617
▁zdrojů	-9.54735
kon	-9.54742
▁skupin	-9.54811
▁kterém	-9.54854
▁moci	-9.5488
hal	-9.54919
▁celkové	-9.55015
▁takto	-9.55056
čky	-9.55121
▁obraz	-9.55142
▁skutečnost	-9.55199
▁sil	-9.55331
▁otázky	-9.55364
▁úrovni	-9.55364
▁chvíli	-9.55364
▁celkem	-9.55368
▁Česká	-9.55374
▁změn	-9.55377
▁uvádí	-9.55446
ina	-9.55486
▁moderní	-9.55557
ať	-9.55609
▁řád	-9.55686
▁cestu	-9.55764
▁výzkum	-9.55775
▁Mar	-9.55849
▁pražské	-9.55971
vod	-9.56065
▁mistrovství	-9.56261
nt	-9.56346
▁názoru	-9.56464
▁dohody	-9.5648
▁postavení	-9.56481
▁Už	-9.56514
ú	-9.56571
▁jednom	-9.56602
▁objektů	-9.5662
▁textu	-9.56691
▁jejím	-9.56801
ář	-9.57004
▁energie	-9.57158
▁dětí	-9.57158
▁NATO	-9.5716
ud	-9.57189
ovaných	-9.57292
té	-9.57459
▁nepři	-9.5755
zen	-9.57638
▁pokus	-9.57701
▁strana	-9.57729
del	-9.57734
▁oba	-9.5784
▁Ze	-9.5787
▁Ob	-9.57921
▁společností	-9.57929
▁finále	-9.58067
▁kterých	-9.5815
▁představuje	-9.58163
▁pří	-9.58182
▁takový	-9.582
▁listopadu	-9.58215
▁republik	-9.58267
▁měsíce	-9.583
▁působí	-9.58337
▁všem	-9.58352
nos	-9.58405
▁setkání	-9.58407
▁sama	-9.586
▁každé	-9.58751
▁obsah	-9.58768
▁vybavení	-9.58836
▁nikoli	-9.58892
ována	-9.58917
▁světové	-9.5895
ed	-9.58956
▁prostředků	-9.58985
▁čtvrtek	-9.59015
▁skupina	-9.5902
▁Ještě	-9.59041
▁hrát	-9.59053
▁Tím	-9.59062
▁cizí	-9.59078
pis	-9.5913
▁současně	-9.59164
▁obchodního	-9.59197
▁řadě	-9.59241
▁hráčů	-9.59291
▁příští	-9.59367
ver	-9.59373
▁platit	-9.5956
▁slov	-9.59627
▁musel	-9.59662
▁obchodu	-9.59757
tře	-9.59824
▁Navíc	-9.59911
▁Nyní	-9.59914
▁výrobky	-9.59916
▁OSN	-9.5992
▁produkce	-9.59927
▁parlament	-9.59969
▁volební	-9.59996
▁atd	-9.60021
ických	-9.60068
▁neděli	-9.60196
bl	-9.60428
▁provozu	-9.60446
▁sami	-9.60451
and	-9.60655
▁skutečnosti	-9.60681
mluv	-9.60702
ct	-9.60764
▁Josef	-9.60845
▁federální	-9.60845
▁zasedání	-9.60849
▁dobrý	-9.60884
▁kvalitní	-9.60907
▁muset	-9.60925
▁my	-9.61067
▁zdroje	-9.61166
slov	-9.61213
čení	-9.61303
▁poně	-9.61317
▁výboru	-9.61477
▁hlavním	-9.6151
▁čeká	-9.61514
viz	-9.61572
▁přiče	-9.61817
▁začátku	-9.61834
▁srovnání	-9.61864
▁neo	-9.61867
ač	-9.61905
▁vládní	-9.61915
▁součástí	-9.62089
▁jiný	-9.62105
▁akcií	-9.62126
▁mluvčí	-9.62199
▁hodnoty	-9.62288
▁prezentace	-9.62303
▁bank	-9.62427
▁La	-9.62459
▁kterého	-9.62567
▁školy	-9.62588
hy	-9.62701
▁teorie	-9.62741
▁buď	-9.62742
▁privatizace	-9.62743
▁1989	-9.62743
▁apod	-9.62751
iny	-9.62779
▁Mo	-9.62809
▁jasné	-9.62825
▁zvláštní	-9.62932
▁Te	-9.6301
gen	-9.6306
▁společné	-9.63076
▁případ	-9.63306
▁těm	-9.63359
var	-9.63399
▁ME	-9.63466
▁Země	-9.63716
▁generální	-9.6375
▁60	-9.63764
mysl	-9.63774
▁poslanců	-9.63791
▁efekt	-9.63808
▁dopravy	-9.6381
▁objektu	-9.63833
▁domů	-9.63851
▁plně	-9.63899
▁chtěl	-9.63901
▁dr	-9.63961
▁jednotlivé	-9.63983
▁šéf	-9.64032
▁kolik	-9.64116
rn	-9.64228
fr	-9.64317
▁telefonní	-9.64367
▁našem	-9.64481
▁možno	-9.64621
▁ekonomické	-9.64663
▁veřejné	-9.64673
▁zdravotnictví	-9.64673
▁umění	-9.64674
▁Někter	-9.64676
▁Ivan	-9.64717
▁svaz	-9.64908
mž	-9.64909
▁údaje	-9.65028
▁věc	-9.65077
řitom	-9.65176
▁Ha	-9.65188
▁Ú	-9.6527
▁Bylo	-9.65333
▁Jelcin	-9.65543
▁Ti	-9.65615
▁24	-9.65647
▁nebezpečí	-9.65654
▁podobě	-9.65655
▁Pavel	-9.65658
▁práva	-9.65682
▁Podobn	-9.6569
ev	-9.65705
▁ostatních	-9.65721
▁investice	-9.65812
▁kultury	-9.6593
▁mil	-9.65941
▁noci	-9.65961
▁státního	-9.66011
▁celého	-9.66062
▁spojení	-9.66112
▁dává	-9.66255
▁dalším	-9.66271
▁model	-9.66593
▁vstup	-9.66743
▁společně	-9.66746
▁snadno	-9.66865
▁občanů	-9.66892
▁soutěže	-9.66907
▁zájmu	-9.66913
např	-9.66942
ón	-9.66992
▁smrti	-9.66999
▁Proč	-9.67004
▁politických	-9.6703
ovány	-9.6715
▁vzájemn	-9.67344
▁Toto	-9.67519
ig	-9.67588
▁televizní	-9.67644
▁jméno	-9.67645
▁tisíce	-9.67678
RA	-9.67815
▁Pod	-9.67827
ěte	-9.67842
▁13	-9.6791
▁klub	-9.67988
ický	-9.68235
▁předem	-9.68325
men	-9.68343
ném	-9.68399
▁nepro	-9.68427
▁trvá	-9.68448
kl	-9.68574
bor	-9.68579
▁snímek	-9.68655
▁Stejn	-9.68661
▁hnutí	-9.68664
▁zdraví	-9.6868
▁Vý	-9.68698
▁lidi	-9.68723
▁důvodů	-9.68846
▁vytvoření	-9.68849
▁nejvíce	-9.68874
▁práv	-9.68899
▁Roz	-9.69006
▁Ka	-9.69289
▁list	-9.69329
▁vztah	-9.69363
kla	-9.69378
ík	-9.6949
▁Jaroslav	-9.69674
ovém	-9.69688
▁pracovat	-9.6974
000	-9.69743
▁vzhledem	-9.69758
nem	-9.69824
▁velkou	-9.69851
▁připraven	-9.6989
▁zpět	-9.6999
▁mužů	-9.70041
van	-9.70088
▁konkrétní	-9.70112
▁Český	-9.70122
▁jisté	-9.70124
▁počítače	-9.70207
Š	-9.70248
▁hráči	-9.70297
▁soudu	-9.70322
kov	-9.70423
▁schopn	-9.70478
▁otázka	-9.70494
▁film	-9.70552
však	-9.7056
▁světový	-9.70677
▁těžko	-9.70706
▁okolo	-9.70707
▁potvrdil	-9.70769
▁trest	-9.70814
▁Ná	-9.70904
▁zápas	-9.70937
sky	-9.70942
▁daleko	-9.71017
▁nákup	-9.7105
▁spíš	-9.7135
▁byt	-9.71407
▁hodiny	-9.71499
NÍ	-9.71502
▁typ	-9.71551
ček	-9.71568
svoji	-9.71683
▁náměstí	-9.71747
▁delší	-9.71751
▁někteří	-9.71753
▁zástupci	-9.71754
▁září	-9.7176
▁rukou	-9.71769
▁zaměstnání	-9.71785
rán	-9.71812
▁obsahuje	-9.71813
▁kilometrů	-9.71814
pokoj	-9.71839
▁oboru	-9.72104
▁věku	-9.7217
▁přijat	-9.72238
▁koncem	-9.72249
▁Li	-9.72274
hn	-9.72369
▁kulturní	-9.72381
▁Br	-9.72382
tek	-9.72465
ková	-9.72491
▁mohly	-9.7251
▁výsledek	-9.72799
▁cestovní	-9.72799
▁přišel	-9.72949
rů	-9.72953
▁celkov	-9.73032
▁druhů	-9.73036
ložit	-9.73116
▁zkušenosti	-9.73131
▁Kčs	-9.73642
▁hospodářské	-9.73763
▁vzor	-9.73767
▁objekty	-9.73792
šel	-9.73811
▁nějaké	-9.73823
▁existuje	-9.73863
▁nejbližší	-9.73863
▁podmínek	-9.73863
▁nebudou	-9.73864
▁zůstává	-9.73864
▁Může	-9.73864
he	-9.73871
▁dnů	-9.73877
▁prodej	-9.7392
▁Kr	-9.73951
▁olympijský	-9.73953
▁koalice	-9.73972
vní	-9.74053
▁zaměstnanců	-9.74057
▁Pr	-9.74106
▁stavební	-9.7413
stup	-9.74206
▁český	-9.74237
ovaný	-9.74269
▁rozvoj	-9.7436
▁17	-9.74503
▁Lu	-9.74561
▁smyslu	-9.74584
▁každého	-9.7459
▁běžné	-9.74809
št	-9.7481
▁počítač	-9.74891
▁úroveň	-9.74939
▁starší	-9.74941
▁disk	-9.74967
▁tady	-9.74968
:	-9.75036
íky	-9.75082
▁fond	-9.751
▁mám	-9.75106
▁minulosti	-9.75114
▁termín	-9.7515
▁tun	-9.75578
sko	-9.7558
▁bod	-9.75589
pravidla	-9.75601
čet	-9.75714
form	-9.75858
▁případně	-9.75878
▁rychlost	-9.76019
▁poslanci	-9.76025
▁pátek	-9.76026
▁praxi	-9.76026
▁Já	-9.76068
▁jediný	-9.76101
znal	-9.76116
▁loňské	-9.76164
▁plyn	-9.76181
cký	-9.76184
▁určitě	-9.7619
iz	-9.76193
▁Každý	-9.762
▁účast	-9.76267
▁pozornost	-9.76395
▁nena	-9.76418
▁Brně	-9.76519
les	-9.76604
ment	-9.76643
ovými	-9.76703
dávají	-9.76712
▁bývá	-9.76734
▁70	-9.76905
▁řad	-9.76912
▁budoucí	-9.77072
▁důležité	-9.77124
▁vidět	-9.77124
▁šanci	-9.77126
▁lékaře	-9.77139
▁konci	-9.77175
▁kvality	-9.77194
ovaly	-9.77247
▁Bez	-9.77306
▁prvního	-9.77455
raz	-9.77476
▁muž	-9.77483
rát	-9.77561
▁použití	-9.77595
▁di	-9.77657
▁krok	-9.77786
jící	-9.77926
lek	-9.78189
▁síly	-9.78243
▁druhém	-9.78245
▁volbách	-9.78245
▁výrobce	-9.7825
▁doba	-9.78257
Č	-9.78259
▁stačí	-9.7826
▁července	-9.78271
▁dny	-9.78309
▁odpovídá	-9.78319
klad	-9.78347
▁nikoliv	-9.7836
ujeme	-9.78363
▁dvacet	-9.78364
▁změnit	-9.78447
▁lékař	-9.78467
koli	-9.78508
▁obchod	-9.78547
▁knihy	-9.78576
▁nárok	-9.78649
voz	-9.78761
▁Německa	-9.78769
▁členy	-9.78788
vin	-9.79312
▁podstatě	-9.79485
▁nákladů	-9.79546
iště	-9.79679
▁zranění	-9.797
▁speciální	-9.79764
ROM	-9.79794
tur	-9.79929
▁tisku	-9.80007
ak	-9.80294
▁činí	-9.80428
▁Ministerstv	-9.80495
▁technologie	-9.80496
▁tepla	-9.80497
▁úplně	-9.80511
Ž	-9.8057
▁výrobu	-9.80593
▁představitelé	-9.80594
▁investiční	-9.80615
▁techniky	-9.80652
▁ruské	-9.80674
mar	-9.80684
▁rozšíření	-9.80716
▁druhou	-9.80834
▁Zá	-9.80849
▁počítá	-9.80872
ická	-9.80998
ským	-9.81052
▁podobné	-9.81101
▁Dr	-9.81102
▁Nový	-9.81126
▁Al	-9.81318
▁Již	-9.8132
▁majitel	-9.81332
▁Pan	-9.81397
nil	-9.81584
▁podnikatele	-9.81587
▁míry	-9.81738
▁dal	-9.81788
▁Jedno	-9.81796
▁volby	-9.81818
▁voleb	-9.8182
▁celá	-9.81826
▁pracuje	-9.81922
uji	-9.81932
▁léta	-9.82012
be	-9.82021
▁domu	-9.82028
jet	-9.82059
▁zprávy	-9.82062
▁výrobní	-9.82221
atel	-9.82346
▁polovin	-9.82517
▁vznikl	-9.82607
ster	-9.82747
▁dvakrát	-9.82854
▁vytvořit	-9.82872
ner	-9.82939
▁80	-9.8298
▁titul	-9.83009
▁Ho	-9.83027
vede	-9.83027
▁chcete	-9.83099
ovalo	-9.83121
▁vlastnosti	-9.83146
▁žen	-9.83155
ovo	-9.83167
▁Sa	-9.8323
vláště	-9.83312
▁bytů	-9.83378
▁návrhu	-9.83483
▁autor	-9.83492
▁výběr	-9.83557
skoro	-9.83576
ené	-9.83616
▁Tu	-9.83618
▁též	-9.83639
▁In	-9.83666
▁financí	-9.83984
▁konečně	-9.84054
▁každém	-9.84246
▁závěr	-9.84259
alo	-9.8434
▁SR	-9.84397
▁Její	-9.84531
▁fotbalové	-9.84574
▁vyhrál	-9.8464
▁plat	-9.84684
▁dělat	-9.84831
▁jít	-9.84836
níci	-9.85052
un	-9.85065
▁dvaceti	-9.8515
zhledem	-9.85173
▁federace	-9.85175
▁firmě	-9.85175
▁použít	-9.85175
▁výsledků	-9.85198
▁Jeden	-9.85202
▁evropských	-9.85214
▁Všechny	-9.85239
nic	-9.85245
▁současnosti	-9.8527
▁zpracování	-9.85283
▁hranice	-9.85394
▁průmyslu	-9.85547
▁bodů	-9.85565
▁seznam	-9.85591
▁Německu	-9.85642
▁Zeman	-9.85755
▁vojenské	-9.85792
10	-9.85798
▁hráč	-9.85842
jde	-9.85932
nka	-9.8595
nek	-9.86081
OV	-9.86107
▁hlas	-9.86167
▁údajn	-9.86292
ovaná	-9.86292
▁rozhodující	-9.86322
nul	-9.86372
▁Společenství	-9.86379
▁Vladimír	-9.86379
▁Právě	-9.8638
▁zbraní	-9.8638
▁nejlépe	-9.86381
▁pravděpodobně	-9.86393
▁Běh	-9.86404
▁původně	-9.86416
▁osmi	-9.86446
▁Měl	-9.86485
▁lidský	-9.86529
itel	-9.86549
▁objeví	-9.866
▁ředitele	-9.86641
nd	-9.86691
▁osoby	-9.86735
▁Firma	-9.86776
▁rád	-9.86836
▁neod	-9.86836
▁nepře	-9.86843
▁amerických	-9.8686
▁ryb	-9.86907
▁cílem	-9.86975
ge	-9.86995
▁přírodní	-9.87051
▁následující	-9.87139
▁slovo	-9.87215
▁ženy	-9.87294
třech	-9.87334
hled	-9.87341
cké	-9.8742
▁dlouhé	-9.87599
▁udělat	-9.87638
▁sněmovny	-9.87666
▁dokáže	-9.87679
inu	-9.878
▁jaký	-9.87811
▁vhodné	-9.87815
nici	-9.87899
▁důvod	-9.8793
▁prostoru	-9.88082
▁vítěz	-9.88084
značně	-9.88153
▁Č	-9.88172
▁pa	-9.88308
ška	-9.88382
kor	-9.88429
▁popis	-9.88461
pil	-9.88539
▁těmi	-9.88728
▁22	-9.88771
▁roční	-9.88795
▁patrně	-9.88827
▁informační	-9.88834
▁hovoří	-9.88834
▁čísla	-9.88834
▁brzy	-9.88834
▁pravda	-9.88845
▁druh	-9.88847
▁pokles	-9.88912
▁růstu	-9.88934
▁využití	-9.88966
▁závod	-9.89015
▁úvěr	-9.89021
▁Miloš	-9.89025
lin	-9.89041
▁zisku	-9.8907
▁obrany	-9.89205
▁severní	-9.89329
▁ústavu	-9.89354
ště	-9.89431
▁rokem	-9.89504
▁veřejnosti	-9.89544
▁úspěch	-9.89586
▁poměr	-9.89593
tím	-9.89662
▁přechod	-9.89718
▁sta	-9.89766
30	-9.89767
▁akci	-9.89878
vou	-9.89917
▁vodní	-9.89943
ající	-9.90014
raději	-9.90075
▁Rad	-9.90082
▁většinu	-9.90084
▁jinde	-9.90084
▁péče	-9.90084
▁začne	-9.90105
▁nemohou	-9.90114
▁vědecké	-9.90143
▁základ	-9.90144
▁dovolenou	-9.90144
▁vědět	-9.90178
▁vládě	-9.9022
▁plán	-9.90226
▁start	-9.90263
▁denně	-9.90445
▁čele	-9.90501
tem	-9.90565
▁data	-9.90734
▁takovou	-9.9076
▁prací	-9.90804
ala	-9.90823
▁stala	-9.90889
▁čem	-9.90899
nese	-9.90929
▁národního	-9.9093
▁Že	-9.90938
SK	-9.90966
ben	-9.91236
▁aplikace	-9.91248
▁pokračovat	-9.91349
▁pozadí	-9.9135
▁látky	-9.91353
▁sluneční	-9.91457
▁500	-9.9153
▁snížení	-9.9156
▁stanoven	-9.91605
▁rada	-9.91715
nk	-9.91837
▁veřejnost	-9.91899
▁potřebné	-9.91966
▁stalo	-9.92152
▁smysl	-9.9216
▁procesu	-9.92169
▁dosáhl	-9.92258
CE	-9.92264
▁výbor	-9.92378
▁kolo	-9.92434
go	-9.92508
sil	-9.92529
▁telefon	-9.92535
▁300	-9.92608
▁UEFA	-9.92631
▁demokracie	-9.92631
▁důležitý	-9.92631
▁oficiální	-9.92631
▁označil	-9.92631
▁televizi	-9.92631
▁Spojený	-9.92632
▁kurs	-9.92634
▁Havel	-9.92636
▁nijak	-9.92637
zo	-9.92643
▁hodnocení	-9.92669
gu	-9.9267
▁ukazuje	-9.9267
▁okamžitě	-9.92688
vedl	-9.92734
▁míru	-9.92759
▁zabývá	-9.92781
▁spojen	-9.92788
▁kon	-9.92798
son	-9.92817
▁nebyly	-9.92876
▁Da	-9.92892
▁plné	-9.92986
▁naprosto	-9.93046
▁cesty	-9.9305
▁Ke	-9.93079
▁bezpečnosti	-9.93086
▁papír	-9.93098
▁oblast	-9.93182
▁pocit	-9.9323
▁určen	-9.93284
▁ba	-9.93301
mor	-9.93375
▁vzniku	-9.93405
▁odmítl	-9.93418
tah	-9.9343
▁body	-9.93542
▁dát	-9.93644
▁odborné	-9.93727
▁2000	-9.9382
▁majetek	-9.9393
▁řečeno	-9.9393
▁počasí	-9.93932
▁členové	-9.93999
▁potřeby	-9.94034
▁ČSSD	-9.94098
▁stanice	-9.94127
▁téma	-9.9414
▁kanceláře	-9.94177
W	-9.94235
▁vládu	-9.9435
▁dotaz	-9.94361
▁Čech	-9.94388
▁ES	-9.94391
ST	-9.94481
19	-9.94605
▁respekt	-9.94693
tky	-9.94776
▁lékaři	-9.94784
vu	-9.94805
▁řady	-9.94819
ici	-9.94877
▁Přes	-9.9498
▁zákony	-9.94994
▁Nové	-9.95047
▁De	-9.95047
▁podobný	-9.95098
▁vývoje	-9.95138
▁názvem	-9.95246
▁onemocnění	-9.95246
▁požadavky	-9.95246
▁příjmy	-9.95246
▁rozhodně	-9.95246
▁nějaký	-9.95253
▁systémů	-9.95266
▁lidem	-9.95313
▁dosáhnout	-9.95335
▁ekonomiky	-9.95368
▁Martin	-9.95543
▁Slovensku	-9.95559
▁dodává	-9.95565
▁pole	-9.95569
pen	-9.9568
▁Cen	-9.95727
▁třicet	-9.95804
ele	-9.95968
▁počátku	-9.95974
▁postoj	-9.96148
ska	-9.96152
ca	-9.96163
cházet	-9.96501
kami	-9.96511
rovna	-9.96556
▁konference	-9.96579
▁televize	-9.96579
▁vánoční	-9.9658
▁ligy	-9.96582
▁policejní	-9.96584
▁dostat	-9.96599
▁funkcí	-9.96608
▁hlavního	-9.96659
▁9	-9.96703
▁Státní	-9.96775
▁slib	-9.96796
▁jednak	-9.96809
AN	-9.96838
▁přístupu	-9.96888
▁mechaniky	-9.96952
aj	-9.9698
▁hodnot	-9.96982
▁koncert	-9.96995
nů	-9.96997
▁nová	-9.97021
brán	-9.97135
▁proces	-9.9714
▁celém	-9.97142
▁soubor	-9.97358
▁společného	-9.97372
ej	-9.97379
zv	-9.97425
rod	-9.97449
HO	-9.97487
▁21	-9.97488
▁Ž	-9.97496
▁prodeje	-9.97535
šli	-9.97587
▁řekla	-9.97763
▁poskytuje	-9.97931
▁Československu	-9.97931
▁vnitra	-9.97933
▁Prezident	-9.97934
▁velká	-9.97934
▁New	-9.98068
▁trestní	-9.98138
uto	-9.98153
letý	-9.98177
▁Společnost	-9.98216
nění	-9.98223
▁škody	-9.9823
íte	-9.98236
▁nechal	-9.98248
jev	-9.98282
▁Aby	-9.9831
▁rychlostí	-9.98334
▁ochran	-9.98352
▁druhá	-9.98353
plav	-9.98363
brž	-9.98421
▁PowerPoint	-9.98429
▁skončil	-9.98499
th	-9.98563
▁Velké	-9.98593
▁radost	-9.98617
mj	-9.98675
▁parlamentní	-9.98686
port	-9.98692
▁spoj	-9.98723
▁souboru	-9.98804
cím	-9.98828
▁obrat	-9.9886
▁druhu	-9.98883
▁závěru	-9.98927
▁získá	-9.98972
▁druhého	-9.9905
ir	-9.99085
▁post	-9.99148
▁lékařů	-9.99179
fo	-9.99201
▁měsíc	-9.99269
▁kláves	-9.993
▁zemědělství	-9.993
▁látek	-9.99305
▁desítky	-9.99308
vil	-9.99314
▁najít	-9.9932
▁měsících	-9.99324
▁ohledu	-9.99335
▁Čechách	-9.99347
▁Atlantě	-9.99372
▁správy	-9.99387
▁zaplatí	-9.99398
▁zákoníku	-9.99512
▁vydání	-9.99512
▁dopravní	-9.99513
▁jinou	-9.99617
▁živ	-9.99625
méně	-9.99637
▁povinnost	-9.99644
▁město	-9.99659
ér	-9.99675
měř	-9.99684
▁hvězd	-9.99802
▁vývoz	-9.9981
▁zákonů	-9.99831
▁ode	-9.99863
▁rozhodl	-9.99895
▁napsal	-10.0004
▁motor	-10.002
▁takového	-10.0022
▁Cel	-10.0027
▁výběru	-10.0032
šť	-10.0043
ó	-10.0047
▁zemřel	-10.0056
▁síť	-10.0056
▁hudební	-10.0069
▁schopen	-10.0069
▁Francie	-10.0069
▁těžký	-10.0069
▁nabídku	-10.0069
▁ustanovení	-10.0069
▁snímků	-10.0069
▁výrobců	-10.0069
▁evropské	-10.0071
▁uplatnění	-10.0076
bar	-10.0082
▁přijde	-10.0086
▁chod	-10.0092
▁ráno	-10.0092
▁státech	-10.0098
ovaného	-10.0101
▁oznámil	-10.0103
lem	-10.0104
▁auto	-10.0114
dal	-10.0117
čil	-10.0119
ten	-10.0126
▁nim	-10.0132
▁nově	-10.0135
▁začali	-10.0143
kli	-10.0144
ického	-10.0149
▁dalšího	-10.0157
▁hráče	-10.0169
▁hra	-10.0176
▁ceně	-10.0178
▁Kar	-10.0198
zní	-10.0199
▁těžké	-10.021
▁využít	-10.021
▁přijetí	-10.021
▁působení	-10.021
▁řešit	-10.021
▁školství	-10.0211
▁hodlá	-10.0211
▁rozpočet	-10.0211
▁tentokrát	-10.0214
kul	-10.0217
▁zajistit	-10.0218
▁převážně	-10.0219
▁pořadí	-10.0234
▁Takže	-10.0237
▁vysokou	-10.0239
▁částky	-10.024
▁vyplývá	-10.0242
▁změna	-10.0243
▁soukromé	-10.0249
▁okamžiku	-10.0253
▁jiná	-10.0254
ion	-10.0265
▁chybí	-10.0268
▁Ra	-10.0289
▁pís	-10.0289
šit	-10.0291
dra	-10.0291
kovi	-10.0291
▁chtěli	-10.0317
▁jednat	-10.0321
tel	-10.0326
▁znám	-10.0327
dat	-10.0328
▁minulé	-10.033
▁potřebuje	-10.0332
▁člen	-10.0335
▁90	-10.0336
plat	-10.034
EN	-10.034
▁předpokládá	-10.034
▁seznamu	-10.0347
▁nesmí	-10.035
▁vztahu	-10.0352
▁bohužel	-10.0353
▁nejrůznější	-10.0353
▁spolupráce	-10.0353
▁družstva	-10.0353
▁Mezinárodní	-10.0353
▁názory	-10.0355
▁povolení	-10.0361
▁místech	-10.0364
▁moře	-10.0365
▁%.	-10.0365
▁údajů	-10.0366
▁směrem	-10.0371
▁podnikatel	-10.0371
▁cestou	-10.0376
▁nejde	-10.038
tivní	-10.0381
▁Hor	-10.0382
▁vznik	-10.0391
▁boj	-10.0392
▁zdroj	-10.0406
▁máte	-10.0437
fer	-10.0437
▁řeč	-10.0449
ard	-10.045
ismus	-10.0458
▁myslím	-10.0459
nes	-10.0468
▁dní	-10.0478
rop	-10.0484
isté	-10.0488
▁výzkumu	-10.0493
▁jestli	-10.0495
▁pondělí	-10.0498
▁prezentaci	-10.0498
▁vyslovil	-10.0498
▁měsíční	-10.0503
▁Hrad	-10.0504
ena	-10.0506
▁pravidelně	-10.0507
▁pořád	-10.0509
▁předtím	-10.0509
▁armády	-10.0514
stoupil	-10.0515
▁smluvní	-10.0516
rád	-10.0524
▁systémy	-10.0525
▁uvedla	-10.0546
tní	-10.0549
▁stane	-10.0557
▁vědy	-10.056
ita	-10.0564
▁případů	-10.0569
EL	-10.0585
▁odhad	-10.0586
▁zákaz	-10.059
▁hotel	-10.0591
▁vztahy	-10.06
▁teplo	-10.0606
▁němu	-10.061
▁kom	-10.0611
vnitř	-10.0615
řka	-10.0621
▁žádn	-10.0627
ovu	-10.063
▁mechanika	-10.0631
▁dostane	-10.0632
▁daňové	-10.0634
▁těles	-10.064
▁změnu	-10.0641
▁HIV	-10.0645
▁Poslední	-10.0645
▁konferenci	-10.0645
▁podmínkách	-10.0645
▁příjmů	-10.0645
▁úrovně	-10.0645
▁června	-10.0645
▁spoust	-10.0645
▁radnice	-10.0645
kat	-10.0649
▁tr	-10.065
▁blok	-10.0651
kládá	-10.0652
ujících	-10.0653
▁výjimkou	-10.0653
▁taková	-10.0655
▁politiku	-10.0656
▁neměl	-10.0659
▁tenis	-10.0665
▁měst	-10.0666
▁dvanáct	-10.0669
LA	-10.067
▁částku	-10.0673
▁tiskové	-10.0675
▁rodiny	-10.0684
óz	-10.069
star	-10.0696
py	-10.0722
TA	-10.0724
▁velikost	-10.0725
▁zásad	-10.073
▁podnikatelů	-10.073
▁současn	-10.0745
▁směru	-10.0747
dali	-10.0748
▁konkurence	-10.0755
▁očekává	-10.0765
▁museli	-10.0765
▁disku	-10.0766
▁Naše	-10.0768
tů	-10.0776
▁Jedna	-10.0779
ejte	-10.0792
▁Největší	-10.0794
▁Současn	-10.0794
▁většině	-10.0794
▁války	-10.0794
▁účetnictví	-10.0794
▁aliance	-10.0794
▁tvrzení	-10.0795
jat	-10.0807
áři	-10.0813
▁sedmi	-10.0818
▁jednoznačně	-10.082
stal	-10.0836
pol	-10.0836
▁zvířat	-10.0838
▁mimořádn	-10.0839
▁3.	-10.084
ovský	-10.0841
▁skupině	-10.0844
▁aktivity	-10.0858
tor	-10.0863
řídit	-10.0865
▁volné	-10.0866
▁padesát	-10.0867
▁jakým	-10.0873
dával	-10.088
ění	-10.0883
▁Vše	-10.0886
nci	-10.0887
▁styl	-10.0888
▁hodnotu	-10.0891
hi	-10.0901
▁Rusko	-10.0902
▁bezpečnostní	-10.0902
IN	-10.0905
▁polovinu	-10.0906
▁kola	-10.0914
▁poslanec	-10.0917
▁ODA	-10.0922
▁uvedené	-10.0926
▁400	-10.0935
▁nechce	-10.0939
▁Václava	-10.0943
▁většiny	-10.0945
▁politice	-10.0945
▁začít	-10.0946
▁vždycky	-10.0946
▁daň	-10.095
▁pořádku	-10.0952
▁nemocnice	-10.0954
▁Jenže	-10.0957
▁individuální	-10.0961
▁centra	-10.0962
▁třemi	-10.0965
▁Německo	-10.0972
▁pracovníci	-10.0974
kol	-10.0976
▁kop	-10.0979
▁mění	-10.0982
▁předsedy	-10.0985
▁diváků	-10.0986
▁LN	-10.0989
zení	-10.0989
▁univerzity	-10.0989
▁žije	-10.1
▁budoucnosti	-10.1008
her	-10.1015
▁sklad	-10.1016
▁Ar	-10.1022
bud	-10.1022
▁sportovní	-10.1022
▁hraje	-10.1023
▁čase	-10.1025
▁bran	-10.1027
▁soudní	-10.1034
▁studentů	-10.1034
▁Kdyby	-10.1035
▁životě	-10.1044
vad	-10.1045
▁pre	-10.1046
íme	-10.1063
▁staré	-10.1068
▁přehled	-10.1068
▁jím	-10.1068
▁Ku	-10.1068
▁paní	-10.1069
▁hrál	-10.1075
ď	-10.1076
ký	-10.108
ává	-10.1085
▁motiv	-10.1091
▁nutno	-10.1094
▁AIDS	-10.1099
▁Británie	-10.1099
▁vzdělání	-10.1099
▁srpna	-10.1099
▁obyvatelstva	-10.1099
▁Zákon	-10.1102
▁Možná	-10.1104
▁lidské	-10.1105
▁objevil	-10.1105
▁Vždyť	-10.1107
▁německé	-10.1115
▁manžel	-10.1115
▁dob	-10.1121
dla	-10.1123
▁hlasů	-10.1129
▁důsledku	-10.113
▁vyh	-10.1131
▁miliony	-10.1145
▁mnohé	-10.1146
▁aktivní	-10.1149
▁složení	-10.115
nský	-10.1151
ený	-10.1152
▁Bu	-10.1154
▁oprav	-10.1157
▁předchozí	-10.1157
stoupí	-10.1158
▁zásadní	-10.1162
▁demokratické	-10.1168
▁automobil	-10.1173
ide	-10.1179
▁představ	-10.1179
▁trval	-10.1182
▁takových	-10.1186
SE	-10.119
▁týká	-10.1195
▁35	-10.1203
ároveň	-10.1204
ností	-10.121
▁používá	-10.1211
▁místopředsed	-10.1211
ang	-10.1212
▁vaše	-10.1227
▁státních	-10.123
der	-10.1235
▁úřady	-10.1243
▁samo	-10.1246
▁očekávat	-10.1255
▁připravuje	-10.1255
▁silniční	-10.1255
▁buněk	-10.1256
▁tajemství	-10.1256
▁název	-10.1256
▁verze	-10.1257
▁zdalek	-10.1262
▁výkonu	-10.1264
▁průměru	-10.1265
▁kvalitu	-10.1268
▁uspořádání	-10.1269
▁koupit	-10.1269
▁piva	-10.1277
▁jejího	-10.1278
▁Ot	-10.1279
▁vrátil	-10.128
▁poznání	-10.1285
▁souhlas	-10.1287
▁dochází	-10.1287
stoupit	-10.1292
▁příštím	-10.1294
potřeb	-10.1298
▁chceme	-10.13
sad	-10.1302
▁vyp	-10.1304
▁John	-10.1307
jdou	-10.131
▁počítačů	-10.1318
ral	-10.1321
▁zajímavé	-10.1328
▁pobyt	-10.1328
šti	-10.1331
▁jiným	-10.1339
▁povinnosti	-10.1341
▁banka	-10.1348
lík	-10.1349
budete	-10.1352
▁150	-10.1353
▁projektu	-10.1354
mír	-10.1359
▁kap	-10.1361
▁technické	-10.1374
▁muži	-10.1379
▁premiéra	-10.138
▁obcí	-10.1382
▁konec	-10.1394
▁stroje	-10.1399
▁dokument	-10.1402
▁příklad	-10.1404
▁devět	-10.1412
▁občas	-10.1414
▁zřejmé	-10.1414
▁přírody	-10.1414
▁zůstat	-10.1414
▁privatizaci	-10.1415
▁marek	-10.1416
▁sdělil	-10.1416
▁článku	-10.1416
▁Karel	-10.1417
▁okresní	-10.1421
▁částí	-10.1422
▁pozitivní	-10.1424
▁vyžaduje	-10.1425
▁jaderné	-10.1426
▁Mám	-10.1438
▁vánoce	-10.1439
▁soutěž	-10.1441
▁Dva	-10.1442
▁odborníků	-10.1442
▁agentury	-10.1444
▁úvahu	-10.1446
▁přenos	-10.1453
▁Oba	-10.1454
▁sovětské	-10.1456
▁jaderný	-10.1463
▁stál	-10.1466
▁Asi	-10.1472
▁hlavních	-10.1481
CI	-10.1484
ismu	-10.1491
ké	-10.1498
▁programy	-10.1501
▁relativn	-10.1504
▁příštího	-10.1508
ivé	-10.1523
▁díl	-10.1531
▁vyjádřil	-10.1532
rit	-10.1544
▁programové	-10.1545
ír	-10.1561
ckých	-10.1568
▁úkol	-10.157
▁jména	-10.1576
▁organizací	-10.1576
▁zahájil	-10.1576
▁věnovat	-10.1576
▁historii	-10.1576
▁válce	-10.1576
▁manažer	-10.1576
▁Myslím	-10.1577
▁roste	-10.1578
▁vaší	-10.1583
ive	-10.1585
▁vývoji	-10.1585
▁aut	-10.1587
▁politika	-10.1591
net	-10.1593
▁přeprav	-10.1594
▁Škoda	-10.1597
▁4.	-10.16
▁soutěži	-10.16
▁liší	-10.1601
▁změně	-10.1604
▁Bi	-10.1605
▁uveden	-10.1613
▁republika	-10.1629
▁cesta	-10.1631
▁výraz	-10.1634
fe	-10.1635
▁Nová	-10.164
▁režimu	-10.1653
vz	-10.1656
▁pracovník	-10.1661
▁Miroslav	-10.1664
▁druhy	-10.1669
▁hotelu	-10.1672
▁družstev	-10.1685
▁jediné	-10.1686
▁čtvrt	-10.169
koliv	-10.1693
ováno	-10.1696
▁tlačítko	-10.17
▁programů	-10.1709
▁Bra	-10.1715
vádí	-10.1716
leté	-10.1717
dává	-10.1719
▁úřadů	-10.1721
▁23	-10.1731
▁budu	-10.1734
ěkteří	-10.1739
▁1995	-10.1739
▁jednoduché	-10.1739
▁považován	-10.1739
▁špatné	-10.1739
▁nabízejí	-10.1739
▁zůstane	-10.1739
▁Někd	-10.174
▁tajemník	-10.1741
▁zimní	-10.1745
▁Základní	-10.1749
▁smlouva	-10.1751
▁Stál	-10.1753
▁NA	-10.1757
▁déle	-10.1757
▁příslušné	-10.1759
▁Tři	-10.1762
▁abych	-10.1763
▁rekord	-10.1764
/2	-10.1765
nec	-10.1773
▁doktor	-10.178
ané	-10.1782
▁hranici	-10.1782
vání	-10.179
▁typů	-10.1798
tit	-10.1799
ler	-10.1802
▁příprav	-10.1812
ton	-10.1812
▁pacientů	-10.1813
padá	-10.1817
▁veškeré	-10.1821
▁stranu	-10.1821
jak	-10.1827
▁skutečné	-10.1829
din	-10.1832
▁normální	-10.1832
nky	-10.1838
▁zákazníků	-10.1839
ani	-10.184
▁bytu	-10.1842
KO	-10.1852
▁typy	-10.1858
átor	-10.1871
▁zvolen	-10.1872
▁Hlavní	-10.1883
▁dopis	-10.1883
šek	-10.1885
▁povrch	-10.1885
▁led	-10.1886
▁reprezentant	-10.1894
▁patnáct	-10.19
▁odbyt	-10.1902
▁úterý	-10.1906
▁Lidé	-10.1906
▁včas	-10.1906
▁někdejší	-10.1907
▁šance	-10.1907
▁Letos	-10.1907
▁lednu	-10.1909
▁globální	-10.1909
▁končí	-10.191
▁jestliže	-10.1913
▁ruce	-10.1918
▁OS	-10.1932
▁malá	-10.1932
▁přátel	-10.1933
▁96	-10.1933
▁dům	-10.1935
▁Sb	-10.1936
▁žena	-10.1937
▁stejný	-10.1942
▁hledání	-10.1942
▁podnikatelské	-10.1943
▁dělá	-10.1946
▁oblastí	-10.1948
ickou	-10.1953
▁profesionální	-10.1955
▁značné	-10.1957
▁získala	-10.1958
řez	-10.1965
nické	-10.1967
▁neví	-10.197
tal	-10.197
▁kapitálu	-10.1972
▁svému	-10.1973
blíž	-10.1979
▁spokojen	-10.1999
▁molekul	-10.2001
▁vnější	-10.2001
▁zločin	-10.2003
▁problémem	-10.2003
▁nedá	-10.2007
▁existují	-10.2028
20	-10.2041
▁Di	-10.2045
ření	-10.2046
▁Fr	-10.2064
icky	-10.2066
▁vznikla	-10.2066
▁Pavl	-10.2075
▁používat	-10.2076
▁Federální	-10.2076
▁verzi	-10.2076
▁mzdy	-10.2076
▁potíže	-10.2076
▁najednou	-10.2076
▁členství	-10.2077
▁vystoupení	-10.2077
▁tabulky	-10.2077
▁včerejší	-10.2078
▁studie	-10.2079
▁nejdříve	-10.208
▁shromáždění	-10.2081
▁zvlášť	-10.2084
▁Chce	-10.2086
▁někter	-10.2087
▁novým	-10.2089
▁třetím	-10.209
▁odpověď	-10.2091
▁vrátit	-10.2099
váží	-10.2102
▁rozdělení	-10.2105
▁fotbal	-10.2107
▁ruský	-10.2111
ární	-10.2111
před	-10.2116
▁tisk	-10.2121
▁liber	-10.2122
▁věd	-10.2124
▁akcí	-10.2126
dané	-10.2127
▁Bar	-10.2128
▁známé	-10.2128
▁označení	-10.2132
▁My	-10.2135
▁časem	-10.214
rak	-10.2146
▁vztahů	-10.215
▁akcie	-10.2151
▁zprávu	-10.2151
zu	-10.2151
▁jazyk	-10.2161
▁potravin	-10.2165
pel	-10.2171
▁centru	-10.2176
▁nemohl	-10.218
▁Františ	-10.218
▁NE	-10.2186
▁MB	-10.2188
▁počítači	-10.2192
▁Ru	-10.2201
▁Izrael	-10.2203
▁silné	-10.2205
▁dávno	-10.221
▁zvyk	-10.2213
též	-10.2217
KA	-10.2223
▁prv	-10.2228
dostatečně	-10.2235
▁paragraf	-10.2248
▁prospěch	-10.2248
▁rozhodne	-10.2248
▁Československa	-10.2248
▁hospodaření	-10.2248
▁Nicméně	-10.2248
▁zaměstnanci	-10.2248
▁výrobci	-10.2249
▁soukromých	-10.2255
▁riziko	-10.2258
▁spočívá	-10.2258
▁odpadů	-10.2262
▁12.	-10.2266
▁pozici	-10.2266
▁záznamník	-10.2268
▁odpovídající	-10.2273
▁soudí	-10.228
EM	-10.2282
▁stroj	-10.2296
▁vybaven	-10.2298
▁příkaz	-10.2302
ij	-10.2309
▁posledním	-10.2317
▁pohybu	-10.2321
den	-10.2323
▁schopnost	-10.2323
▁Národní	-10.2325
▁britské	-10.2327
▁Česko	-10.2327
ěji	-10.2332
▁počítat	-10.2334
▁občan	-10.2335
▁objem	-10.2338
dělal	-10.2338
▁podepsal	-10.2349
▁týdne	-10.2351
▁použit	-10.2353
▁vys	-10.2356
klo	-10.236
▁pracoval	-10.2368
▁poměru	-10.2369
▁rozvoje	-10.2371
▁díla	-10.2373
pustit	-10.2383
▁pojistné	-10.2386
rat	-10.2389
ovské	-10.2398
myšlen	-10.24
▁získali	-10.2408
ke	-10.2411
est	-10.2412
dostala	-10.2414
▁firmu	-10.2423
▁hrozí	-10.2423
▁odvětví	-10.2423
▁mozku	-10.2423
▁Tomáš	-10.2424
▁Pohár	-10.2424
▁hledat	-10.2424
▁horší	-10.2425
▁prvků	-10.2426
▁Dále	-10.2426
▁Jin	-10.2426
▁DNA	-10.2426
▁střel	-10.2431
▁mnozí	-10.2433
▁rod	-10.2437
▁půdě	-10.2437
▁pás	-10.2439
▁standard	-10.2442
▁občanské	-10.245
▁teploty	-10.2455
▁letošním	-10.246
▁uzavření	-10.2464
▁zemědělské	-10.2465
lib	-10.2468
▁vědomí	-10.2472
▁materiál	-10.2472
▁poháru	-10.2473
▁Američan	-10.2473
▁metody	-10.2486
▁graf	-10.2486
▁PO	-10.2491
rok	-10.2492
▁pu	-10.2508
▁stud	-10.2515
▁tradiční	-10.2528
▁budoucnost	-10.2529
▁ochranu	-10.2536
▁dovoz	-10.2542
▁účasti	-10.2543
▁Velk	-10.2551
▁slouží	-10.2553
puštěn	-10.2559
▁planet	-10.2565
lat	-10.2571
▁snah	-10.2572
tud	-10.2589
▁čtenář	-10.2589
▁gól	-10.259
▁pořadatel	-10.259
psal	-10.2597
▁Existuj	-10.2602
▁aplikací	-10.2602
▁natolik	-10.2602
▁upozornil	-10.2602
▁zdůraznil	-10.2602
▁Československo	-10.2602
▁rodiče	-10.2602
▁podpory	-10.2602
▁tudíž	-10.2602
▁bankovní	-10.2602
▁založen	-10.2602
▁reprezentace	-10.2603
jedině	-10.2603
▁Zdá	-10.2603
▁Fa	-10.2606
ger	-10.2607
▁výrobě	-10.2607
▁limit	-10.2607
ováním	-10.2609
▁částečně	-10.2611
▁Čí	-10.2612
▁vytváření	-10.2612
▁výroba	-10.2621
▁Poté	-10.2624
▁vlastností	-10.2625
▁centrální	-10.2631
AD	-10.2634
▁významné	-10.2635
▁zpráva	-10.2638
▁zavedení	-10.2641
▁jaká	-10.265
▁dílo	-10.2651
▁karty	-10.2657
▁účastníků	-10.2664
▁protest	-10.2674
▁pohledu	-10.2678
▁záležitost	-10.2681
▁účel	-10.2691
▁voda	-10.2692
▁dalšími	-10.2694
▁režim	-10.2697
▁měnit	-10.2699
onu	-10.2703
álně	-10.2705
▁str	-10.2706
▁leží	-10.2712
▁par	-10.2714
▁akt	-10.2715
▁pozor	-10.2726
▁prů	-10.2728
▁důvodu	-10.273
▁zmíněné	-10.2734
▁společný	-10.2734
▁slovenské	-10.2737
RE	-10.2739
▁umístěn	-10.2739
▁Me	-10.2739
▁letní	-10.274
▁Musí	-10.2753
čku	-10.2759
▁Kub	-10.2766
cího	-10.2773
vali	-10.2775
▁obrazu	-10.278
▁neexistuje	-10.2784
▁paměti	-10.2784
▁připojištění	-10.2784
▁rozhodčí	-10.2784
▁pomalu	-10.2784
▁kvalifikaci	-10.2784
▁česká	-10.2786
▁odpoledne	-10.2787
elný	-10.2787
hla	-10.2788
▁připomíná	-10.2789
vé	-10.2791
▁oblastech	-10.2793
▁nynější	-10.2794
▁svědčí	-10.2799
▁budov	-10.2805
OR	-10.2813
▁materiálů	-10.2816
▁vz	-10.2821
▁potřeba	-10.2836
▁Slovenska	-10.2837
▁vzájemné	-10.2839
▁ztráty	-10.2839
▁dohodu	-10.284
▁odboru	-10.2845
▁brněnské	-10.2854
tion	-10.2859
MU	-10.2866
▁An	-10.2867
▁jakou	-10.287
ok	-10.2872
▁politický	-10.2876
pětí	-10.288
▁Ústav	-10.2887
▁Če	-10.2892
▁hor	-10.2892
▁19.	-10.2893
řídil	-10.2894
▁poloviny	-10.2897
▁loňském	-10.2899
▁zahájení	-10.2899
▁technický	-10.2903
▁musím	-10.2911
cení	-10.2911
▁rádi	-10.2911
měr	-10.2913
▁zraněn	-10.2913
▁Be	-10.2917
▁spor	-10.292
▁kapitol	-10.2927
▁nejvíc	-10.2929
▁autorů	-10.2956
držel	-10.2958
NÁ	-10.2966
▁Itálie	-10.2969
▁Ovšem	-10.2969
▁Program	-10.2969
▁stránce	-10.2969
▁minimální	-10.2969
▁rychlé	-10.2969
▁praxe	-10.2969
▁regionální	-10.297
▁desítek	-10.297
▁vyjádření	-10.2972
▁nicméně	-10.2972
▁Ministr	-10.2974
▁zdejší	-10.2975
▁vybrat	-10.2975
▁neustále	-10.2976
▁Ostravě	-10.2978
▁domov	-10.298
▁přístroje	-10.2981
▁obecně	-10.2981
▁dodnes	-10.2983
IS	-10.2986
▁ročník	-10.2992
wa	-10.2996
kyně	-10.3003
▁určitou	-10.3005
▁výhradn	-10.301
▁soustavy	-10.3013
▁rozhovoru	-10.3015
▁osud	-10.3017
lep	-10.3022
šení	-10.3025
jem	-10.3037
▁pochyb	-10.304
▁standardní	-10.3043
▁příčin	-10.3047
▁sponzor	-10.3048
slav	-10.3059
▁mně	-10.3063
mer	-10.3067
▁Pří	-10.307
▁váš	-10.3079
▁problému	-10.3079
▁dané	-10.308
▁národ	-10.3083
▁důkaz	-10.3085
▁vývozu	-10.3087
▁takovém	-10.3087
▁ústavní	-10.309
▁pohyb	-10.309
▁úspor	-10.3096
ika	-10.3097
▁závodu	-10.31
bere	-10.3102
▁omezen	-10.3105
▁kandidát	-10.3108
jel	-10.3109
▁demokratick	-10.3111
▁Evropa	-10.3122
eb	-10.3132
▁host	-10.3133
▁sv	-10.3143
▁KSČM	-10.3154
▁řádu	-10.3156
▁italské	-10.3157
▁Všichni	-10.3158
▁jednoduchý	-10.3158
▁náměstek	-10.3158
▁poptávky	-10.3158
▁profesor	-10.3158
▁špatně	-10.3158
▁Naopak	-10.3158
▁poslance	-10.3158
▁Snad	-10.3158
▁jediná	-10.3158
▁odborníci	-10.3158
▁zaměstnance	-10.3159
▁okna	-10.316
▁potřebují	-10.316
▁těsně	-10.316
▁export	-10.3163
▁koncentrace	-10.3163
▁měření	-10.317
▁totem	-10.3171
násob	-10.3173
▁vychází	-10.3177
▁II	-10.3179
▁produktů	-10.3185
▁výnos	-10.3189
ned	-10.3191
▁záležitostí	-10.3192
▁pán	-10.3196
▁stovky	-10.3196
▁obr	-10.3197
▁zrušení	-10.3202
LI	-10.3203
nské	-10.3203
▁vzduchu	-10.3204
▁filmu	-10.3205
▁automaticky	-10.3206
dnu	-10.3216
lze	-10.3219
▁rozsahu	-10.3222
ených	-10.3223
pře	-10.3224
▁přesvědčen	-10.3225
rem	-10.323
san	-10.3233
bral	-10.3239
▁syn	-10.3245
▁soupeře	-10.325
▁neměli	-10.3252
▁činností	-10.3275
▁záměr	-10.3289
▁úspěchu	-10.3291
nc	-10.3291
▁daní	-10.3294
mile	-10.3295
par	-10.3304
▁Každ	-10.3307
▁zákonem	-10.3311
byl	-10.3313
▁oslav	-10.3318
▁aktiv	-10.332
padlo	-10.3321
▁hodnota	-10.3332
půjč	-10.3345
▁investovat	-10.335
▁historie	-10.335
▁mladé	-10.335
▁Ředitel	-10.335
▁turistů	-10.335
▁věnoval	-10.335
▁bydlení	-10.335
▁pojetí	-10.335
▁Pe	-10.3351
▁lidmi	-10.3354
▁krátce	-10.3354
bavit	-10.3355
▁pohybuje	-10.3358
▁pozice	-10.3362
▁dodávky	-10.3363
▁určit	-10.3364
pustí	-10.3364
▁proud	-10.3365
▁dostává	-10.3369
▁současný	-10.337
▁17.	-10.337
▁vést	-10.337
▁barev	-10.3372
▁set	-10.3374
ast	-10.3378
▁čisté	-10.3378
▁voličů	-10.338
▁šampionátu	-10.3382
▁domě	-10.3382
▁Ano	-10.3383
▁Soud	-10.3389
▁adres	-10.3394
▁muže	-10.3399
▁hospodářsk	-10.3403
▁omezení	-10.3405
nesou	-10.3408
▁návrhy	-10.3408
▁domácím	-10.341
▁vyz	-10.3417
▁provedení	-10.3429
▁tlak	-10.3431
neme	-10.3433
▁kurz	-10.3435
nce	-10.3443
▁materiálu	-10.3445
▁různým	-10.3446
▁pravé	-10.3447
pt	-10.3449
▁obecní	-10.3456
▁aktivit	-10.3464
▁vrchol	-10.3465
▁podpis	-10.3468
▁Evropsk	-10.3474
▁rychlosti	-10.3481
▁student	-10.3483
▁28	-10.3489
▁hotov	-10.3489
▁PRO	-10.349
▁Han	-10.3491
▁jinými	-10.3491
rou	-10.3491
▁opak	-10.3492
▁nájemné	-10.35
▁vln	-10.3501
DO	-10.3507
LE	-10.3512
▁zpráv	-10.3517
▁nejdůležitější	-10.3518
kovou	-10.3538
▁zákazník	-10.3538
▁Především	-10.3546
▁Richard	-10.3546
▁Spojené	-10.3546
▁elektrárny	-10.3546
▁minimálně	-10.3546
▁měsíčně	-10.3546
▁snížit	-10.3546
▁umožní	-10.3546
▁úspěšné	-10.3546
▁zvýšit	-10.3546
▁úsilí	-10.3546
▁snímky	-10.3546
▁čtení	-10.3546
▁míře	-10.3547
▁setkal	-10.3547
▁doslova	-10.3547
▁Češi	-10.3548
▁pravdu	-10.3548
inak	-10.3549
kám	-10.355
▁celek	-10.3552
▁policistů	-10.3553
pád	-10.3555
▁myší	-10.3561
▁tvorbu	-10.3561
▁okolností	-10.3561
▁zobrazení	-10.3564
60	-10.3564
▁poškození	-10.3564
▁zvýšil	-10.3566
▁cestě	-10.3572
▁sestav	-10.3572
▁zlom	-10.3581
▁mistrů	-10.3584
padl	-10.3587
▁Du	-10.3597
▁žádná	-10.3598
▁Nad	-10.3599
kar	-10.3603
▁třídy	-10.3604
▁nemoci	-10.3612
▁domácích	-10.3617
▁festivalu	-10.3618
▁žádném	-10.3622
dávat	-10.3623
▁lov	-10.3624
▁konstatoval	-10.3625
▁jižní	-10.3629
▁600	-10.363
▁vzniká	-10.363
▁nechat	-10.3631
▁námi	-10.3641
▁součást	-10.3642
▁Kon	-10.3642
▁centrum	-10.3646
rab	-10.3646
▁oni	-10.3648
▁tvář	-10.3648
▁povrchu	-10.3649
▁sever	-10.3649
▁chud	-10.3659
pit	-10.3663
▁správně	-10.3664
▁dějin	-10.3672
▁zjistil	-10.3672
▁PowerPointu	-10.3673
▁známo	-10.3674
▁odpadní	-10.3677
▁nastoupil	-10.3678
▁objev	-10.368
▁poklesu	-10.3685
DA	-10.3687
▁Or	-10.3692
▁klid	-10.3695
pak	-10.37
▁FS	-10.37
vel	-10.3704
▁společenské	-10.3706
▁znát	-10.3714
▁map	-10.3715
▁kal	-10.3716
padne	-10.3721
▁dítě	-10.3723
cc	-10.3725
▁polovina	-10.3726
ickým	-10.3728
▁nástup	-10.3733
směs	-10.3734
▁skupinu	-10.3742
▁městské	-10.3745
▁divadla	-10.3746
▁existence	-10.3746
▁pojišťovny	-10.3746
▁rozhodování	-10.3746
▁ČNR	-10.3746
▁širší	-10.3746
▁Samozřejmě	-10.3746
▁půjde	-10.3746
▁výskyt	-10.3746
▁sdělení	-10.3746
▁nabídka	-10.3746
▁konkurenční	-10.3748
▁úraz	-10.3748
▁cm	-10.375
▁způsobil	-10.3753
▁myšlení	-10.3756
▁nezávislých	-10.3757
osud	-10.3758
ávat	-10.3759
▁míč	-10.3766
▁představení	-10.377
čel	-10.3772
▁výdaje	-10.3774
▁princip	-10.3774
▁Proti	-10.3776
▁hodinu	-10.3777
něk	-10.3779
▁úvodní	-10.3779
▁Francouz	-10.3781
▁půdy	-10.3784
▁podnikatelé	-10.3789
MA	-10.3791
▁nebyli	-10.3792
▁proveden	-10.3793
▁armáda	-10.3795
trž	-10.3798
▁vysokých	-10.3803
bil	-10.3806
▁nezbytn	-10.3809
▁úpravy	-10.3816
▁zákazníky	-10.382
OS	-10.3821
▁chemické	-10.3825
klep	-10.383
áci	-10.3831
▁metod	-10.3832
▁vidí	-10.3844
▁Tam	-10.3846
▁jedná	-10.3852
▁stejn	-10.3856
▁smrt	-10.3864
▁hlasování	-10.3868
▁prodejní	-10.3869
▁záznam	-10.3877
▁trend	-10.3877
RU	-10.3878
▁generál	-10.3887
▁celní	-10.39
eny	-10.3909
▁mé	-10.3913
▁hře	-10.3914
▁maximáln	-10.3916
▁výš	-10.3923
▁Slovensko	-10.3923
▁kol	-10.3928
▁pořad	-10.3929
▁Nebo	-10.3932
▁Rusk	-10.3937
sty	-10.3939
▁porad	-10.3942
▁Němci	-10.395
▁církve	-10.395
▁týdny	-10.395
▁nízké	-10.395
▁odmítá	-10.395
▁kolegy	-10.395
▁usnesení	-10.395
▁zapotřebí	-10.395
▁přišla	-10.395
▁1988	-10.3951
▁privatizační	-10.3951
▁Teď	-10.3951
▁létě	-10.3952
pul	-10.3955
▁StB	-10.3956
kryt	-10.3957
▁daňový	-10.3964
žijí	-10.3964
▁úprav	-10.3966
▁vůle	-10.3966
▁správné	-10.397
▁postaven	-10.3975
▁děje	-10.3976
▁žijící	-10.3976
▁ústav	-10.398
ložil	-10.3983
▁důsledky	-10.3985
▁porušení	-10.3986
▁Inter	-10.3993
▁příslušný	-10.3993
▁mladých	-10.3994
▁zájmy	-10.3996
▁rozporu	-10.3996
▁uměl	-10.4
▁původu	-10.4002
▁Kde	-10.4003
▁automobilů	-10.4003
▁výstav	-10.4005
▁nucen	-10.4007
▁představitelů	-10.4008
▁mluví	-10.4012
▁Internetu	-10.4014
▁obce	-10.4019
▁německých	-10.4019
▁mistr	-10.4021
▁signál	-10.4021
▁německého	-10.4024
▁lidského	-10.4028
kan	-10.4039
▁myslí	-10.404
▁bezpečnost	-10.4042
níků	-10.4043
▁představy	-10.4045
▁velikosti	-10.4052
▁Man	-10.4053
80	-10.4054
volat	-10.4054
hlav	-10.4054
▁běžný	-10.406
▁nástroj	-10.4062
▁částka	-10.4064
▁posl	-10.407
lid	-10.4076
▁přímé	-10.4077
▁postih	-10.4082
aly	-10.4083
▁Sovětské	-10.4087
▁účastní	-10.4088
▁posun	-10.4088
▁strach	-10.4091
AR	-10.4104
▁rozhodla	-10.4108
čili	-10.4115
kupní	-10.4115
▁uvedený	-10.4116
chází	-10.4125
▁barevné	-10.4144
▁metr	-10.4148
▁18.	-10.4156
▁cit	-10.4156
▁Moskvě	-10.4159
▁firmou	-10.4159
▁populace	-10.4159
▁třináct	-10.4159
▁vynikající	-10.4159
▁Třetí	-10.4159
▁štěstí	-10.4159
▁technologií	-10.4159
▁Francii	-10.4159
▁Předseda	-10.4159
▁ihned	-10.4159
▁mužstva	-10.4159
▁Bush	-10.4159
▁Ber	-10.4159
▁funkční	-10.4159
hodil	-10.4159
▁tábor	-10.4159
▁spisovatel	-10.4159
▁spotřební	-10.4159
▁reprezentační	-10.4159
vzdor	-10.4159
ČSL	-10.416
▁Pomuku	-10.416
▁mluvit	-10.4161
stávají	-10.4161
▁šok	-10.4162
▁obětí	-10.4165
▁Milan	-10.4165
▁zvyšuje	-10.4165
▁podklad	-10.4168
▁dovolené	-10.4168
▁vytvořen	-10.4169
zem	-10.4171
▁Více	-10.4172
▁úmrtnosti	-10.4173
▁přichází	-10.4174
padají	-10.4175
▁těla	-10.4176
▁nemocnici	-10.4177
▁Avšak	-10.4179
nové	-10.4184
▁zastoupení	-10.4187
▁ochot	-10.4195
▁odpor	-10.4201
▁lesní	-10.4204
▁Ši	-10.4205
▁obavy	-10.4208
▁Druhý	-10.4212
▁vět	-10.4215
▁Jižní	-10.422
dů	-10.4221
▁všeho	-10.4224
hlásí	-10.4226
▁odst	-10.4226
▁dětské	-10.4228
pek	-10.4229
▁škola	-10.4233
jezd	-10.4234
▁řeči	-10.4234
▁partner	-10.4239
fu	-10.4242
▁20.	-10.4244
▁polo	-10.4245
▁molekuly	-10.4247
▁vědecký	-10.425
▁byty	-10.4252
jíž	-10.4259
ckého	-10.4261
oč	-10.4264
▁příležitost	-10.4265
▁váh	-10.4267
▁ročníku	-10.4267
▁hran	-10.4279
▁Západ	-10.4284
▁studiu	-10.4285
▁vlastním	-10.4292
▁kroky	-10.4295
▁turnaj	-10.4297
▁představují	-10.4297
▁oprávněn	-10.4304
▁postupu	-10.4305
▁prodává	-10.4305
▁určitý	-10.4306
▁detail	-10.4307
▁The	-10.4316
▁příštích	-10.4324
▁pražsk	-10.4325
▁učitel	-10.4325
mého	-10.4327
▁snaha	-10.4334
▁střed	-10.4339
DE	-10.434
▁pražském	-10.4353
▁realit	-10.4358
lení	-10.4359
▁projev	-10.4364
loží	-10.4368
▁konkurenci	-10.4371
▁nakladatelství	-10.4371
▁negativní	-10.4371
▁sledovat	-10.4371
▁tehdejší	-10.4371
▁transformace	-10.4371
▁zlepšení	-10.4371
▁úmrtí	-10.4371
▁budoucnu	-10.4371
▁civilní	-10.4371
▁příjmu	-10.4371
▁zabránit	-10.4371
▁Vláda	-10.4371
▁souvisí	-10.4371
▁Slavie	-10.4371
▁hod	-10.4372
▁jedinou	-10.4372
▁Wales	-10.4372
▁střet	-10.4372
▁operace	-10.4372
▁PCB	-10.4373
▁výsledkem	-10.4373
▁kód	-10.4374
▁financování	-10.4374
▁školní	-10.4375
rovná	-10.4377
▁rozhodnout	-10.4377
▁charakter	-10.4378
▁Vedle	-10.438
▁formou	-10.4384
▁jezdí	-10.4385
▁vyzval	-10.4386
▁lékařské	-10.4388
▁výhodné	-10.4393
▁zaplatit	-10.4396
▁americký	-10.4397
dol	-10.4398
▁osmdesát	-10.4403
▁celkový	-10.4405
▁zbytečné	-10.4407
▁přijal	-10.4415
▁postižen	-10.4416
▁největším	-10.4418
▁prodat	-10.442
▁povinností	-10.4422
▁starých	-10.4425
▁noviny	-10.4432
▁dojde	-10.444
▁vyspělý	-10.4443
▁partnery	-10.4444
▁příležitosti	-10.4446
▁německý	-10.445
▁produktu	-10.4457
▁účely	-10.4459
▁Obě	-10.4465
čné	-10.447
bel	-10.4473
píše	-10.4475
▁napětí	-10.4484
▁řídí	-10.4485
▁nákladní	-10.4492
tvo	-10.4496
▁vydal	-10.4497
RO	-10.4499
slovensk	-10.4502
▁tamní	-10.4502
pad	-10.4504
▁pracovníky	-10.4506
▁formát	-10.451
▁velkým	-10.4513
▁zůstal	-10.4515
▁kapalin	-10.4515
▁zápasy	-10.452
▁3000	-10.4524
▁neměla	-10.4525
out	-10.4526
▁Fo	-10.4531
sed	-10.4531
▁novém	-10.4532
věřil	-10.4537
čtí	-10.4537
ejména	-10.4537
áno	-10.4537
ony	-10.4539
▁pop	-10.4544
▁pachatel	-10.4548
▁zápasu	-10.4553
▁33	-10.4557
▁dostali	-10.4564
hrát	-10.457
sloužil	-10.4579
▁někde	-10.4588
▁turnaje	-10.4588
▁Ostatně	-10.4589
▁Sdružení	-10.4589
▁rekreační	-10.4589
▁krize	-10.4589
▁navrhl	-10.4589
▁červnu	-10.4589
▁výrok	-10.4589
▁sítí	-10.459
▁video	-10.4591
15	-10.4591
▁místnosti	-10.4591
▁přiznání	-10.4592
▁Ačkoli	-10.4593
▁požár	-10.4595
▁jednotky	-10.4596
▁obrázek	-10.4597
▁porovnání	-10.4597
▁historický	-10.46
▁nemoc	-10.46
▁udržet	-10.4601
▁přináší	-10.4603
▁uzavřel	-10.4603
ble	-10.4606
▁placení	-10.4608
▁věří	-10.4608
▁začátkem	-10.4612
▁0	-10.4613
▁lesy	-10.4614
ll	-10.462
▁účetní	-10.4621
▁prodávat	-10.4624
▁znalosti	-10.4625
▁dar	-10.4626
▁Washingtonu	-10.4628
stavit	-10.463
▁jasně	-10.4631
▁strojů	-10.4632
▁Her	-10.4633
▁hodnotě	-10.4637
▁Moravy	-10.4638
vést	-10.4645
▁32	-10.4647
▁všemi	-10.4655
kin	-10.4666
ine	-10.4666
oři	-10.4666
▁trenéra	-10.4666
▁nemáme	-10.467
▁pravidla	-10.4675
▁klíč	-10.4681
▁kapitál	-10.4683
praví	-10.4689
por	-10.469
▁Kor	-10.4706
▁Gr	-10.4709
▁Ruska	-10.4711
bili	-10.4723
▁čísle	-10.4723
▁partnerů	-10.4726
▁něž	-10.4728
▁sport	-10.4728
▁pražského	-10.4731
▁koruny	-10.4733
▁perspektiv	-10.4737
▁vedením	-10.4745
▁porazil	-10.475
▁vědom	-10.4755
▁záleží	-10.4758
▁kontrolu	-10.4758
▁modelů	-10.4758
▁schválen	-10.4763
▁anti	-10.4777
▁místy	-10.4779
jedno	-10.4783
ES	-10.4788
▁případu	-10.4789
▁slovy	-10.4791
▁případné	-10.4796
mark	-10.4796
nského	-10.481
vát	-10.4811
▁Bratislavě	-10.4811
▁Návrh	-10.4811
▁otázce	-10.4811
▁týdnů	-10.4811
▁uskuteční	-10.4811
▁kompromis	-10.4811
▁nabídnout	-10.4811
▁péči	-10.4811
▁podpora	-10.4811
▁dovolit	-10.4811
▁žalob	-10.4811
▁server	-10.4811
▁nedostatek	-10.4812
▁kategorie	-10.4812
▁okno	-10.4812
▁nepodařilo	-10.4812
▁Nakonec	-10.4813
ovaným	-10.4814
povídá	-10.4815
iletý	-10.4816
▁1,	-10.4817
har	-10.4818
▁připravit	-10.4818
▁Brno	-10.4818
TO	-10.4818
▁prvky	-10.482
▁tajné	-10.4821
▁návštěvě	-10.4823
▁stará	-10.4825
▁Podnik	-10.4829
ju	-10.4829
▁býval	-10.4829
▁hledá	-10.4829
boj	-10.4831
ier	-10.4831
▁jaterní	-10.4832
▁zjistit	-10.4833
▁buňky	-10.4837
zemní	-10.4839
▁UK	-10.4839
▁investor	-10.4839
▁domácnosti	-10.4842
▁přiznal	-10.4842
▁provést	-10.4843
▁malou	-10.4844
res	-10.4845
▁cest	-10.4847
▁osobně	-10.4854
▁získání	-10.4857
▁nezaměstnanosti	-10.4858
psané	-10.486
▁stanici	-10.486
inter	-10.4871
▁km	-10.4874
▁vojenský	-10.4875
níku	-10.4883
▁hlad	-10.4885
žení	-10.4888
▁Evropský	-10.4888
musela	-10.4894
▁spotřebitel	-10.4894
ňuje	-10.4899
▁druhým	-10.4905
izace	-10.4909
▁klient	-10.4918
▁operační	-10.4921
▁partnera	-10.4923
▁postav	-10.4929
▁režisér	-10.493
▁událost	-10.4932
▁spojené	-10.4932
▁pra	-10.4941
▁Bur	-10.4942
▁trénink	-10.4949
pustil	-10.4955
šp	-10.4958
▁filmů	-10.4963
▁prohrál	-10.4964
vítá	-10.4971
tak	-10.4975
▁Rus	-10.4976
▁případy	-10.4979
▁odpověděl	-10.4984
▁příjem	-10.4985
▁devíti	-10.4987
▁dřív	-10.4987
▁začalo	-10.4993
▁umožnil	-10.4999
vala	-10.5006
▁16.	-10.5007
▁prodal	-10.5019
trh	-10.5019
▁západních	-10.5022
▁přicházejí	-10.5023
kář	-10.5025
▁změnil	-10.5025
TE	-10.5027
▁změní	-10.503
▁oficiálně	-10.5033
▁státním	-10.5036
ins	-10.5036
art	-10.5037
▁úspěšně	-10.5037
▁významný	-10.5037
▁Slunce	-10.5038
▁existenci	-10.5038
▁funguje	-10.5038
▁otázek	-10.5038
▁pojišťovna	-10.5038
▁rozhodovat	-10.5038
▁advokát	-10.5038
▁ostatně	-10.5038
▁Znamen	-10.5038
▁situací	-10.5038
▁letadla	-10.5038
▁stáří	-10.5038
▁dlouhodobé	-10.5038
▁žádá	-10.5038
▁molekulární	-10.5039
▁operaci	-10.5039
yl	-10.504
▁pochod	-10.504
▁aktuální	-10.504
▁přání	-10.504
▁zůstávají	-10.504
▁vytvoří	-10.5041
▁vyšetřování	-10.5041
▁SRN	-10.5041
dělit	-10.5042
▁Místo	-10.5044
▁vystudoval	-10.5044
▁fakultě	-10.5049
▁formě	-10.5049
▁vypadá	-10.5052
▁sezóně	-10.5054
▁Brna	-10.5055
▁potřeboval	-10.5057
▁vstupu	-10.5057
af	-10.5063
▁fakulty	-10.5064
éměř	-10.5065
▁vyberte	-10.5065
▁návštěvníků	-10.5069
▁zjištění	-10.507
▁dobrou	-10.5074
dařilo	-10.5078
▁0,	-10.5079
▁americk	-10.5081
▁komory	-10.5081
▁otevření	-10.5085
▁stejném	-10.5086
ale	-10.5086
▁členem	-10.5088
▁východ	-10.5094
▁stává	-10.5099
▁struktury	-10.5103
▁nájemného	-10.5103
▁víkendu	-10.5103
▁cíle	-10.5106
▁soupeř	-10.5114
▁ministrů	-10.5114
▁čeho	-10.512
▁pla	-10.512
▁Per	-10.5121
▁modelu	-10.5124
▁dokázal	-10.5125
▁církev	-10.5128
▁postižené	-10.5128
▁obyvatelé	-10.5133
muž	-10.5139
,5	-10.5147
▁tvar	-10.5152
▁věděl	-10.5153
▁začaly	-10.5153
▁docela	-10.5158
▁rozdíly	-10.5162
▁jedenáct	-10.5162
▁snížil	-10.5164
▁pobytu	-10.5165
ouze	-10.5167
▁průměrn	-10.5171
▁produkt	-10.5175
12	-10.5176
pana	-10.5179
▁svobod	-10.518
▁církevní	-10.518
▁katalog	-10.5181
▁dohoda	-10.5183
▁brankář	-10.5184
▁knih	-10.5187
▁27	-10.5191
▁Egypt	-10.5192
▁Německ	-10.5196
▁odpovědnost	-10.5202
▁prodeji	-10.5205
▁Dom	-10.5211
▁klubů	-10.5218
▁takovým	-10.523
▁přístroj	-10.5232
utí	-10.5245
▁nehod	-10.5247
▁obsahu	-10.5251
nictví	-10.5257
KU	-10.526
▁vklad	-10.5268
▁Ital	-10.527
▁kart	-10.5271
▁Anglie	-10.5271
▁Nejvyšší	-10.5271
▁institucí	-10.5271
▁mladší	-10.5271
▁nejčastěji	-10.5271
▁příspěvek	-10.5271
▁software	-10.5271
▁nestačí	-10.5271
▁přispěl	-10.5271
▁rodičů	-10.5271
▁organizační	-10.5271
▁pochopitelně	-10.5271
▁přinejmenším	-10.5271
▁vlastnictví	-10.5271
▁Polici	-10.5271
▁souboj	-10.5271
▁přijít	-10.5271
▁výplat	-10.5272
▁dráhy	-10.5272
▁podobu	-10.5272
▁zabezpečení	-10.5272
kázal	-10.5272
▁Stačí	-10.5272
▁vědců	-10.5272
▁poruch	-10.5273
▁vrátí	-10.5273
▁policisté	-10.5275
▁poznatky	-10.5276
dní	-10.5281
▁přijmout	-10.5282
▁vozů	-10.5283
klád	-10.5284
▁Bosně	-10.5284
▁Králové	-10.5285
▁Par	-10.5285
▁tvorby	-10.5286
▁uznání	-10.5286
▁přední	-10.5287
▁ano	-10.5287
▁levnější	-10.5287
▁PC	-10.5288
▁předpisů	-10.5291
náší	-10.5293
▁hodinách	-10.5296
▁předsedou	-10.5302
▁svá	-10.5306
▁prostory	-10.5306
▁Mal	-10.5307
▁fyziky	-10.5307
▁George	-10.5312
▁obrazovky	-10.5315
▁nejlepším	-10.5316
▁vytváří	-10.5317
▁komplexní	-10.5318
▁vojensk	-10.5319
dit	-10.532
▁ideální	-10.5322
▁kancelář	-10.5322
▁Olomouci	-10.5324
▁uložen	-10.5325
▁připravil	-10.5325
▁ekonomických	-10.5327
▁českou	-10.5329
▁léky	-10.5331
IT	-10.5332
▁starosti	-10.5335
▁120	-10.5341
▁plochy	-10.5341
vir	-10.5342
▁No	-10.5346
▁podal	-10.535
▁servis	-10.535
▁nemusel	-10.5354
▁dodat	-10.5358
▁prac	-10.5359
rot	-10.5366
▁pacienta	-10.5368
▁podzim	-10.5368
age	-10.537
▁ztrát	-10.5376
kům	-10.538
AL	-10.5381
mot	-10.5383
▁cenný	-10.5384
čně	-10.5385
jen	-10.5385
▁zápasů	-10.5388
▁rodinné	-10.5389
▁Ci	-10.5389
dor	-10.5393
▁nápad	-10.5395
▁oper	-10.5398
▁zkušenost	-10.5398
und	-10.5398
▁zaměstnavatel	-10.5399
▁zásob	-10.54
▁obran	-10.54
▁hrad	-10.5407
▁ploch	-10.5407
ODS	-10.5409
▁45	-10.541
▁jiném	-10.5416
▁zemské	-10.5421
ány	-10.5421
▁festival	-10.5422
▁sekund	-10.5422
▁hmot	-10.5426
ičky	-10.5431
ren	-10.5432
nedávn	-10.5432
dostanou	-10.5433
▁náhradní	-10.5436
ista	-10.5436
věřit	-10.5437
▁auta	-10.544
LO	-10.5441
staví	-10.5442
▁denní	-10.5442
▁čtvrté	-10.5444
▁ministrem	-10.545
áš	-10.5456
11	-10.5457
han	-10.5459
počítá	-10.5459
▁oči	-10.5459
▁rad	-10.5461
ráže	-10.5467
ZE	-10.5474
▁On	-10.5489
▁CO	-10.5494
▁chodí	-10.5497
▁test	-10.5505
níky	-10.5506
▁Anglii	-10.5509
▁Microsoft	-10.5509
▁NHL	-10.5509
▁jménem	-10.5509
▁medaile	-10.5509
▁mužstvo	-10.5509
▁navzájem	-10.5509
▁odpovědi	-10.5509
▁uzavřít	-10.5509
▁veřejně	-10.5509
▁využívat	-10.5509
▁článek	-10.5509
▁Major	-10.5509
▁asociace	-10.5509
▁duchovní	-10.5509
▁chvíle	-10.5509
▁dětem	-10.5509
▁Jaromír	-10.5509
▁ČEZ	-10.5509
▁požadavek	-10.5509
▁zástupců	-10.5509
▁Chtěl	-10.551
▁okolní	-10.551
▁Nez	-10.5513
▁užit	-10.5514
▁zabývat	-10.5515
▁třikrát	-10.5517
▁výpočetní	-10.5518
▁venkov	-10.5518
šil	-10.5522
▁Paul	-10.5523
▁ulice	-10.5539
▁výstavby	-10.5549
ola	-10.5549
▁Dvě	-10.5549
▁týkající	-10.5551
▁Lib	-10.5557
běhu	-10.5565
▁osobnosti	-10.5566
▁250	-10.5567
▁umístění	-10.5569
▁sloup	-10.5571
▁milion	-10.5572
▁praktické	-10.5572
▁Takové	-10.5575
▁významu	-10.5577
▁používání	-10.5578
kládat	-10.5581
bře	-10.5582
áme	-10.5587
▁Profitu	-10.5588
▁francouzské	-10.5589
▁stanovení	-10.5595
set	-10.5596
▁trhy	-10.56
▁sousední	-10.5601
▁kruh	-10.5602
▁fondů	-10.5604
▁obsahující	-10.5608
▁Jedin	-10.5608
▁směr	-10.5618
▁samostatné	-10.5625
▁čekají	-10.5629
▁mistra	-10.5632
kový	-10.5634
tav	-10.5642
▁žádost	-10.5646
▁minulém	-10.5647
ruší	-10.5654
▁obratu	-10.5663
▁průzkum	-10.5665
▁obchodním	-10.5665
šky	-10.5669
Ř	-10.567
▁ztratil	-10.5672
vest	-10.5674
něte	-10.5675
▁řidič	-10.5678
▁zato	-10.568
▁prezidentem	-10.5682
▁ekologické	-10.5683
▁prav	-10.5683
▁útok	-10.5685
▁náklad	-10.5689
▁skončila	-10.5696
▁mnohd	-10.5701
▁Plzeň	-10.5702
průměr	-10.5703
▁křiv	-10.571
▁rozdělen	-10.5711
▁počítačové	-10.5712
▁dvanácti	-10.5713
86	-10.5713
▁organismu	-10.5721
razit	-10.5722
ros	-10.5724
▁vyhrála	-10.5725
▁nechtěl	-10.5731
▁ačkoli	-10.5731
▁Stát	-10.5732
▁značný	-10.5744
▁způsobu	-10.5745
čan	-10.5748
▁dlouhý	-10.5753
▁ministři	-10.5753
▁považuji	-10.5753
▁souladu	-10.5753
▁vysoká	-10.5753
▁obrátil	-10.5753
▁organizaci	-10.5753
▁Michal	-10.5753
▁chtít	-10.5753
▁generace	-10.5753
▁nejspíš	-10.5753
▁studia	-10.5754
▁územní	-10.5754
▁super	-10.5754
▁omyl	-10.5755
přes	-10.5758
▁vyplatí	-10.5758
▁neznamená	-10.576
▁ukazují	-10.5762
▁volně	-10.5764
▁lesů	-10.5766
▁Polska	-10.5767
ologie	-10.5767
▁uzavře	-10.5768
▁vystoupil	-10.5769
skočil	-10.5769
▁související	-10.577
▁široké	-10.5771
▁noční	-10.5777
▁Bor	-10.578
▁nástrojů	-10.5781
▁styk	-10.5781
▁prst	-10.5781
▁odborných	-10.5782
▁Sam	-10.5786
▁silně	-10.5786
lů	-10.5787
▁kdysi	-10.5792
▁Karlovy	-10.5792
▁zajištění	-10.5794
▁občané	-10.5796
▁možných	-10.5802
▁ukázal	-10.5809
▁časopisu	-10.5812
▁panelu	-10.5812
▁proměn	-10.5814
▁plný	-10.5816
▁nemělo	-10.5817
▁nedávné	-10.5818
▁skončilo	-10.5822
▁Obchodní	-10.5827
ab	-10.5829
ša	-10.5833
▁ústavy	-10.5838
▁Zlín	-10.5842
▁sekundu	-10.5843
▁průmyslový	-10.5845
AM	-10.585
▁předložil	-10.5851
▁jednotliv	-10.5851
▁Poslaneck	-10.5852
▁Americk	-10.5853
▁Slovenské	-10.5854
▁společensk	-10.5855
zb	-10.586
▁schopnosti	-10.5863
▁opravy	-10.5866
▁dostalo	-10.5869
OH	-10.5874
▁ochrany	-10.5883
▁zákazníka	-10.5885
▁přenosu	-10.5886
▁(1	-10.5892
▁stanoví	-10.5893
▁Ca	-10.5895
▁třiceti	-10.5896
▁vystaven	-10.59
volání	-10.5901
▁RN	-10.5901
▁univerzit	-10.5901
hav	-10.5912
▁10.	-10.5914
▁přechodu	-10.5925
▁desetiletí	-10.5929
volal	-10.5932
▁třídě	-10.5935
▁titulu	-10.5937
▁zápase	-10.5937
ór	-10.5939
▁důsled	-10.594
▁politického	-10.5942
▁dobou	-10.5946
▁kvalita	-10.5948
▁reálné	-10.5959
▁projekty	-10.5964
▁pojištěn	-10.5971
▁míní	-10.5972
▁Novák	-10.5974
▁pracují	-10.5984
graf	-10.5986
▁čemu	-10.5996
MO	-10.5996
rozměr	-10.5998
▁kultur	-10.5998
▁Gorbačov	-10.5999
koupit	-10.6001
▁per	-10.6002
▁atmosféře	-10.6003
▁delegace	-10.6003
▁francouzský	-10.6003
▁inflace	-10.6003
▁přírodě	-10.6003
▁službu	-10.6003
▁všude	-10.6003
▁Viktor	-10.6003
▁nejnovější	-10.6003
▁považují	-10.6003
▁vysokoškol	-10.6003
▁mandát	-10.6003
▁penzijní	-10.6003
▁Popper	-10.6003
▁park	-10.6003
▁čísel	-10.6003
▁poptávka	-10.6003
▁vyšetřovatel	-10.6003
▁politická	-10.6003
▁květnu	-10.6003
▁podaří	-10.6003
▁stanovisko	-10.6004
▁výstup	-10.6004
▁vysvětlit	-10.6005
▁brát	-10.6005
▁vrací	-10.6006
▁citliv	-10.6006
▁regionu	-10.6006
▁mínění	-10.6006
▁vysvětlení	-10.6007
▁řeší	-10.6007
▁stupně	-10.6007
▁dokonale	-10.6008
▁Nejvíce	-10.6013
▁Kolik	-10.6014
▁dřívější	-10.6015
▁nedostal	-10.6018
▁představit	-10.6019
▁vysvětlil	-10.6019
▁forma	-10.6019
▁prosadit	-10.6019
▁SE	-10.602
▁Chceme	-10.6021
▁podílel	-10.6021
▁dosahuje	-10.6022
▁hodnotí	-10.6027
▁dopad	-10.6028
▁znaků	-10.6029
▁myši	-10.6033
▁léků	-10.6033
▁slovenských	-10.6037
▁zkušeností	-10.6038
▁ukázalo	-10.6042
ovněž	-10.6046
▁lev	-10.6046
jedou	-10.6047
▁přípravě	-10.6048
▁zbytek	-10.6052
▁umí	-10.6052
▁odchodu	-10.6053
▁obvod	-10.6059
▁nese	-10.606
▁dojem	-10.6061
▁dospěl	-10.6061
▁trvale	-10.6065
▁nesouhlasí	-10.607
▁Mark	-10.6073
ance	-10.6073
taj	-10.6074
▁orgánů	-10.6075
▁vysoký	-10.6077
▁struktur	-10.6077
▁Čs	-10.6078
▁obec	-10.608
▁role	-10.6081
ovanou	-10.6082
▁novin	-10.6083
▁kanceláří	-10.6086
nést	-10.6088
platit	-10.6091
▁závodě	-10.6092
▁mimořádný	-10.6094
▁jimi	-10.6095
▁místem	-10.6099
▁bytové	-10.6101
▁materiály	-10.6105
▁roze	-10.6105
▁dají	-10.6115
▁800	-10.6121
▁mechanik	-10.6123
▁vlastnost	-10.6133
▁vodou	-10.6134
▁domnívá	-10.6136
▁Ri	-10.6148
▁pacient	-10.6148
▁Mi	-10.6149
pravděpodobností	-10.6151
▁rizik	-10.6156
▁Fran	-10.6158
og	-10.616
▁výstava	-10.6164
▁stop	-10.6167
▁výklad	-10.6172
▁rozsah	-10.6172
▁obor	-10.6173
▁pevné	-10.6175
▁26	-10.6176
▁deník	-10.6176
▁kniha	-10.6176
▁větším	-10.6176
Sc	-10.6176
▁cenou	-10.6179
▁zúčastnil	-10.6184
▁pozná	-10.6189
▁odbor	-10.619
při	-10.6191
ujte	-10.6193
▁Ostrava	-10.6193
▁Představ	-10.6195
ona	-10.6202
▁grafické	-10.621
▁nalezen	-10.6217
ete	-10.622
▁přestup	-10.6223
▁vydává	-10.6228
▁názorů	-10.6228
▁představu	-10.623
kových	-10.6231
▁čtenáře	-10.6234
vají	-10.6235
▁San	-10.6237
72	-10.6237
▁zbraně	-10.6238
vádějí	-10.6243
▁vážně	-10.6258
orku	-10.6258
▁osobních	-10.6258
50	-10.6259
hlížet	-10.6259
▁atraktivní	-10.6259
▁dlouhá	-10.6259
▁milióny	-10.6259
▁montáž	-10.6259
▁rozhraní	-10.6259
▁telekomunikační	-10.6259
▁tiskárny	-10.6259
▁Výsledk	-10.6259
▁externí	-10.6259
▁chráněn	-10.6259
▁koncepce	-10.6259
▁nabídce	-10.6259
▁používají	-10.6259
▁závisí	-10.6259
▁naděje	-10.6259
▁blízké	-10.626
▁učinil	-10.626
▁muzea	-10.626
▁rozšířit	-10.626
▁žebříčku	-10.626
▁unii	-10.6261
▁vysvětluje	-10.6262
▁vzal	-10.6262
▁předpokládat	-10.6263
▁Chyb	-10.6263
▁složen	-10.6263
▁podstat	-10.6263
▁uživatel	-10.6264
▁vysoce	-10.6264
▁naději	-10.6265
▁složky	-10.627
tají	-10.627
▁můj	-10.6271
▁umožňující	-10.6275
▁uvést	-10.6277
▁barvy	-10.6279
▁čtyřech	-10.6285
▁Nikdo	-10.6286
▁dvojice	-10.6292
▁způsoby	-10.6293
▁Autor	-10.6294
▁zaměstnavatele	-10.6296
projevuje	-10.6297
psat	-10.6298
lis	-10.6299
▁Sparty	-10.63
▁návštěvu	-10.63
▁fotbalistů	-10.6301
▁totéž	-10.6302
pálen	-10.6315
▁nemůžeme	-10.6316
ama	-10.6318
▁akciové	-10.632
▁nebezpečné	-10.6321
▁agentura	-10.6331
▁podání	-10.6338
▁čtyřmi	-10.634
▁pravidel	-10.6342
▁podstatné	-10.6349
áhy	-10.6358
▁budovy	-10.6361
šl	-10.6361
▁studium	-10.6365
▁nebe	-10.6365
▁jakékoli	-10.637
▁Fin	-10.6371
procentní	-10.6373
▁vědci	-10.6377
entní	-10.6377
▁návrat	-10.6379
▁nachází	-10.638
▁Obecn	-10.6385
▁55	-10.6388
▁SP	-10.6389
šly	-10.6395
▁potřebný	-10.6397
běhl	-10.6397
ill	-10.6399
NI	-10.6406
nová	-10.6406
prázdn	-10.6411
▁nabídl	-10.6418
rd	-10.6419
▁finančn	-10.6422
▁podnikové	-10.6422
NA	-10.6426
▁nároky	-10.6426
▁stranou	-10.6426
▁světového	-10.6428
▁věk	-10.6432
▁mysli	-10.6433
▁Profit	-10.6438
▁předložen	-10.644
▁listu	-10.6442
▁úst	-10.6443
▁mini	-10.6445
▁teplota	-10.6447
▁chorob	-10.6449
▁tisíci	-10.6457
hnal	-10.6459
▁nechá	-10.6466
▁komplex	-10.6472
▁Cena	-10.6472
▁Vol	-10.6474
▁neznámý	-10.6488
TI	-10.6494
ívají	-10.6497
▁filmový	-10.6502
▁zas	-10.6504
▁přeměn	-10.6506
▁následn	-10.6511
▁patřil	-10.6511
▁systémem	-10.6514
nému	-10.6515
▁zkouš	-10.6518
favorit	-10.6522
▁Itálii	-10.6522
▁Miloslav	-10.6522
▁inženýr	-10.6522
▁obligace	-10.6522
▁peněžní	-10.6522
▁snižování	-10.6522
▁výjimečn	-10.6522
▁úrovní	-10.6522
▁rychlý	-10.6522
▁odsouzen	-10.6522
▁povinen	-10.6522
▁menšin	-10.6522
▁průkaz	-10.6522
▁podívat	-10.6522
▁Jugoslávii	-10.6522
bývá	-10.6523
▁najevo	-10.6523
▁Irsk	-10.6523
▁říct	-10.6524
▁Peter	-10.6524
čních	-10.6525
▁požaduje	-10.6526
▁vybírat	-10.6527
▁skončení	-10.6529
▁agent	-10.6529
▁nesmírn	-10.6529
▁vojáků	-10.6529
bytek	-10.653
▁fax	-10.6531
stické	-10.6531
▁celku	-10.6533
▁chemický	-10.6533
▁Moh	-10.6535
▁japonské	-10.6536
▁past	-10.6537
KDU	-10.6537
▁pivo	-10.6538
cem	-10.654
▁předmětem	-10.654
▁divadelní	-10.6541
▁hlavu	-10.6542
▁pokyn	-10.6544
▁kusů	-10.6546
▁Moravě	-10.6547
▁Počet	-10.6547
ráží	-10.6548
▁cyklus	-10.655
▁povolání	-10.6552
▁orgán	-10.6556
▁pouhý	-10.6557
▁odvolání	-10.6557
▁jednot	-10.6559
▁podřízen	-10.6564
▁koupí	-10.6566
▁Sv	-10.6569
▁bodu	-10.6571
▁některým	-10.6578
dem	-10.6578
▁dílem	-10.6579
▁tříd	-10.6589
▁důvodem	-10.6591
▁(2	-10.6591
▁úvěrů	-10.6596
▁neroz	-10.6606
▁stisk	-10.6607
▁dostih	-10.6613
▁výstavy	-10.6615
ňování	-10.6619
▁vlny	-10.6621
stran	-10.6621
hel	-10.6622
▁kartu	-10.6622
▁Ad	-10.6624
▁škole	-10.6624
▁ekonom	-10.6625
děk	-10.6626
▁starosta	-10.6626
▁rodin	-10.6628
▁poz	-10.6633
NO	-10.6633
▁národů	-10.6633
▁češt	-10.6635
▁Nebyl	-10.6635
▁přípravy	-10.6637
ěřitel	-10.6639
▁fotbalový	-10.664
▁vlád	-10.6641
istů	-10.6642
▁trestný	-10.6643
týdenní	-10.6648
▁upraven	-10.6648
▁Dalším	-10.665
▁Den	-10.6657
▁Tad	-10.6657
▁Hra	-10.6659
tovat	-10.6659
▁českým	-10.6663
▁otevřené	-10.6672
▁Ruské	-10.6673
▁symbol	-10.6675
40	-10.6679
lka	-10.6685
▁jakých	-10.6693
▁stanov	-10.6695
▁pražský	-10.6699
▁hrají	-10.6703
▁profesionál	-10.6713
íček	-10.6716
▁informoval	-10.6718
▁Lékař	-10.6718
▁tvrdé	-10.6726
oje	-10.6729
gel	-10.6732
▁zaveden	-10.6743
▁jistý	-10.6743
▁nákupu	-10.6747
▁obsazen	-10.6754
pust	-10.6758
sídl	-10.6759
▁horní	-10.6759
▁volný	-10.6762
▁zajištěn	-10.6762
okr	-10.6765
▁rovin	-10.6765
áček	-10.6765
▁rozvod	-10.6775
▁Např	-10.6775
▁uspořáda	-10.678
MI	-10.678
▁průběh	-10.6786
▁min	-10.6786
▁boji	-10.6786
▁schválil	-10.6787
▁starost	-10.6788
▁jasno	-10.6789
▁Řad	-10.6791
nozí	-10.6792
▁Oznámil	-10.6793
▁Problém	-10.6793
▁Univerzit	-10.6793
▁bariér	-10.6793
▁existovat	-10.6793
▁informaci	-10.6793
▁obtížné	-10.6793
▁prezentací	-10.6793
▁svědomí	-10.6793
▁vyjádřit	-10.6793
▁vytvářet	-10.6793
▁ztrácí	-10.6793
▁února	-10.6793
▁Několik	-10.6793
▁ubytování	-10.6793
▁pěst	-10.6793
▁komunikace	-10.6793
▁optimální	-10.6793
▁vybraný	-10.6794
▁hus	-10.6794
kají	-10.6794
▁náskok	-10.6794
střelil	-10.6795
▁zítra	-10.6795
▁Bójové	-10.6795
▁továrn	-10.6795
▁zdánlivě	-10.6796
▁ona	-10.6796
řek	-10.6797
nova	-10.6797
▁hrách	-10.6798
sadil	-10.6798
▁schopna	-10.6798
▁nebezpečn	-10.6799
▁rychleji	-10.68
▁koupil	-10.68
bíd	-10.6801
▁zlato	-10.6801
▁tradice	-10.6801
▁československé	-10.6801
▁jednotek	-10.6801
▁kupující	-10.6803
▁fyzické	-10.6807
▁závodech	-10.6807
ávají	-10.6808
▁podvod	-10.6808
▁hlavy	-10.6809
▁střediska	-10.6812
▁stěn	-10.6812
▁politiků	-10.6813
▁správu	-10.6814
▁nadace	-10.6814
▁objevuje	-10.6816
▁ústřední	-10.6817
▁samotné	-10.6819
▁dohodě	-10.682
ug	-10.6821
▁správný	-10.6823
▁narodil	-10.6826
▁hledají	-10.6826
▁vesnici	-10.6828
▁obvinění	-10.6829
▁předpisy	-10.6831
▁brání	-10.6836
▁Změn	-10.6838
tát	-10.684
ičtí	-10.684
▁kus	-10.6841
▁kontroly	-10.6843
▁kalů	-10.6844
▁dostávají	-10.6844
íka	-10.6846
▁prach	-10.6848
měl	-10.6848
▁slavnostní	-10.6849
▁vzdálenosti	-10.686
▁Svoboda	-10.686
▁souborů	-10.6863
▁Ex	-10.6865
▁zvolil	-10.6875
▁Sun	-10.6875
▁vysloven	-10.6882
rob	-10.6883
▁návratu	-10.6884
▁sobotní	-10.6886
▁udělá	-10.6886
▁katastrof	-10.6887
▁soutěží	-10.6888
▁zaznamenal	-10.6888
▁pomohl	-10.6891
▁Vlastní	-10.6901
▁rizika	-10.6906
izovat	-10.6907
▁signálu	-10.6908
▁rezerv	-10.6911
▁vznikají	-10.6913
▁náhod	-10.6914
▁Er	-10.6919
▁předsed	-10.6919
áků	-10.6919
kládají	-10.6922
▁sále	-10.6923
▁průmysl	-10.693
▁příbuzn	-10.6932
OU	-10.6934
pas	-10.6934
▁nep	-10.6939
▁ostatními	-10.6942
▁částic	-10.6942
▁boje	-10.6943
držet	-10.6947
▁sval	-10.6948
▁Pre	-10.695
▁investic	-10.695
▁El	-10.6951
▁JE	-10.6953
▁důvody	-10.6953
▁spis	-10.6958
počátku	-10.6958
▁drží	-10.6962
▁závodů	-10.6966
25	-10.6967
▁konečné	-10.6967
▁bi	-10.6969
rst	-10.697
▁mírně	-10.6973
razí	-10.698
případě	-10.698
▁Internet	-10.6984
IL	-10.6984
▁ZA	-10.6984
▁uchazeč	-10.6987
▁klade	-10.6994
▁čtyřicet	-10.6997
najdete	-10.6997
▁cíl	-10.7
▁právník	-10.7
▁pivovar	-10.7001
▁určený	-10.7002
▁lidsk	-10.7003
▁jakém	-10.7018
padal	-10.7021
držení	-10.7027
▁černé	-10.703
▁argument	-10.7034
▁mírové	-10.7039
▁rodinný	-10.704
▁určené	-10.7042
▁čin	-10.7043
▁státě	-10.7055
▁ozbrojený	-10.7056
▁mohu	-10.7068
▁Euro	-10.7068
▁demokracii	-10.707
▁fanoušků	-10.707
▁jednoduše	-10.707
▁lustrační	-10.707
▁navštívil	-10.707
▁nepochybn	-10.707
▁nádraží	-10.707
▁obligací	-10.707
▁otázkou	-10.707
▁ovzduší	-10.707
▁pobřeží	-10.707
▁pracoviště	-10.707
▁prokurátor	-10.707
▁vyrábí	-10.707
▁železniční	-10.707
▁častěji	-10.707
▁Pracovní	-10.707
▁odstranit	-10.707
▁obnoven	-10.7071
▁Tehd	-10.7071
▁knize	-10.7071
▁modul	-10.7071
▁věnován	-10.7071
▁záření	-10.7071
▁vážné	-10.7071
▁blízkosti	-10.7071
▁raket	-10.7071
▁dohodnout	-10.7071
řízení	-10.7072
▁říkal	-10.7072
▁přínos	-10.7073
▁písmen	-10.7073
▁oblečení	-10.7074
▁chyběl	-10.7074
izaci	-10.7075
▁pramen	-10.7076
▁několikrát	-10.7077
▁kvalitě	-10.7078
▁opoziční	-10.7078
▁uprostřed	-10.708
áním	-10.708
▁vyvolal	-10.7082
▁příchod	-10.7083
land	-10.7083
poloviční	-10.7083
▁dopravě	-10.7083
myslet	-10.7087
▁ovládání	-10.7087
▁pomůže	-10.7088
▁nejlepších	-10.7091
▁komunistické	-10.7091
▁cítí	-10.7095
▁novináři	-10.7096
▁připadá	-10.7096
▁klimatický	-10.7097
▁žít	-10.7098
▁mal	-10.7098
▁Švédsk	-10.7098
▁sportu	-10.71
▁velkého	-10.7109
▁bloku	-10.7117
▁doprava	-10.7117
▁znaky	-10.7117
▁Pražské	-10.7118
▁tajný	-10.7119
pír	-10.7121
eta	-10.7121
▁Taková	-10.7122
▁dění	-10.7123
▁výpravy	-10.7126
▁působit	-10.7132
tvrdil	-10.7134
▁mezinárodních	-10.7135
▁viděli	-10.7142
▁zavře	-10.7143
▁Rakousku	-10.7144
▁obrazů	-10.7145
▁Lin	-10.7147
ško	-10.7147
▁vstupné	-10.7148
bin	-10.7161
▁blíží	-10.7161
ČS	-10.7167
▁automatick	-10.7181
▁společn	-10.7181
▁hru	-10.7183
▁určitých	-10.7187
▁zásah	-10.7194
dis	-10.7196
▁metoda	-10.7196
▁noc	-10.7196
▁udělal	-10.7197
▁souhlasí	-10.7199
▁Rusku	-10.72
ON	-10.7204
▁využívá	-10.7208
ovského	-10.7215
ana	-10.722
▁měsíci	-10.7222
▁testu	-10.7222
17	-10.7222
▁všechn	-10.7232
▁úvěry	-10.7234
býval	-10.7239
▁1000	-10.7242
ence	-10.7244
▁čist	-10.7248
▁zvítězil	-10.7248
▁převzal	-10.7254
▁fondy	-10.7258
▁pohybují	-10.7265
▁večerní	-10.7266
▁editor	-10.7267
▁okamžik	-10.7269
▁samostatný	-10.728
▁Vznik	-10.7282
▁úspěšný	-10.7282
▁kritik	-10.7284
▁Muž	-10.7291
▁vytvořil	-10.7294
metr	-10.7295
▁termínu	-10.73
skal	-10.7307
ohledem	-10.7311
▁začínají	-10.7313
▁aminokyselin	-10.7316
řazen	-10.7319
dvacet	-10.7324
▁komerční	-10.7326
koupil	-10.7332
▁31.	-10.7334
▁dopravu	-10.7335
▁Sta	-10.7339
▁viděl	-10.7343
▁Americe	-10.7356
▁dopoledne	-10.7356
▁dveře	-10.7356
▁ministerstvu	-10.7356
▁nejrychleji	-10.7356
▁partneři	-10.7356
▁považovat	-10.7356
▁reakce	-10.7356
▁rekonstrukci	-10.7356
▁rozhoduje	-10.7356
▁strategie	-10.7356
▁vyrábět	-10.7356
▁Havla	-10.7356
▁Trenér	-10.7356
▁sloužit	-10.7356
▁policii	-10.7356
▁srdce	-10.7356
nášet	-10.7356
▁jaře	-10.7356
▁areálu	-10.7357
▁Klub	-10.7357
▁psát	-10.7357
▁rozlišení	-10.7358
▁vzít	-10.7358
▁penze	-10.7358
▁vězení	-10.7358
▁politickou	-10.7358
▁dubna	-10.7358
▁krve	-10.7359
▁5.	-10.7359
▁výlet	-10.7359
▁trvat	-10.7359
▁čekat	-10.7359
▁dotací	-10.736
▁Konečn	-10.736
▁zachovat	-10.7361
▁poskytnout	-10.7361
▁dohod	-10.7362
▁Čas	-10.7364
▁stavby	-10.7368
čištění	-10.737
▁fyzick	-10.7372
▁obsahovat	-10.7372
íci	-10.7373
denní	-10.7374
▁ukončení	-10.7375
▁vydat	-10.7376
▁provádět	-10.7377
▁ClipArt	-10.738
▁narození	-10.7382
▁elektrické	-10.7383
▁cestující	-10.7389
▁přišli	-10.7389
▁zjevn	-10.7389
▁objektivní	-10.7389
▁dítěte	-10.7391
▁pas	-10.7391
▁píše	-10.7393
▁Mnoho	-10.7394
▁sovětských	-10.7395
▁zastavit	-10.7397
▁vším	-10.7397
počet	-10.7397
▁událostí	-10.7398
▁postavit	-10.7399
▁taneční	-10.74
▁připojení	-10.7401
▁techniku	-10.7405
▁kontakty	-10.7405
▁Musím	-10.7407
▁Bud	-10.7407
▁příkladem	-10.7413
▁zahrad	-10.7417
plňuje	-10.7418
▁schválení	-10.7418
▁výhody	-10.742
▁obci	-10.7421
▁kabinetu	-10.7421
ust	-10.7422
ller	-10.7422
TU	-10.7423
▁vodu	-10.7425
▁sídle	-10.7425
▁formu	-10.7429
▁nerv	-10.7431
▁managementu	-10.7432
▁hluboko	-10.7433
▁orgány	-10.7433
ovce	-10.7434
▁čistý	-10.7434
AC	-10.7435
▁cosi	-10.7435
▁vedou	-10.7442
▁přesvědčení	-10.7447
▁události	-10.7451
▁Ni	-10.7451
▁produkty	-10.7452
▁vašeho	-10.7457
▁principy	-10.7459
▁útoku	-10.746
▁maximální	-10.746
▁zjistili	-10.7463
ickém	-10.7464
▁předpoklad	-10.7465
▁rodina	-10.7472
▁hal	-10.7474
▁občany	-10.7475
▁plánu	-10.7477
▁hranic	-10.7481
▁severu	-10.7486
▁vyhlásil	-10.7487
tisk	-10.7488
▁samostatně	-10.7493
▁znamenat	-10.7494
▁los	-10.7497
pir	-10.7499
▁Malé	-10.7499
▁soubory	-10.7511
▁rozhodli	-10.7511
▁průmyslové	-10.7513
▁kmen	-10.7513
▁sociálního	-10.7517
▁souhlasu	-10.7517
▁stejným	-10.7521
▁otevřel	-10.7521
▁15.	-10.7523
▁běžně	-10.7526
rej	-10.7527
▁hlasy	-10.7528
nějších	-10.7529
▁kont	-10.7531
rní	-10.7531
▁dělí	-10.7534
▁povinn	-10.7535
▁Vlast	-10.7537
▁bohat	-10.7541
41	-10.7552
,8	-10.7552
ick	-10.7553
▁Val	-10.7553
▁zmíněný	-10.7557
▁projevil	-10.7557
▁Zájem	-10.7562
▁monitor	-10.7562
▁obrovské	-10.7564
▁kluby	-10.7564
▁odkaz	-10.7566
▁člena	-10.7571
▁oznámila	-10.7577
▁černo	-10.758
elné	-10.7583
▁příslušn	-10.7583
▁gen	-10.7586
AV	-10.7587
▁vstoupil	-10.7599
rna	-10.7606
ejme	-10.7609
▁Mnoh	-10.7612
eprve	-10.7614
▁rozšířen	-10.7614
▁pečlivě	-10.7616
▁placen	-10.7618
▁nástroje	-10.7619
▁cyklu	-10.762
▁založil	-10.762
▁rostou	-10.7622
▁Bla	-10.7625
▁přinesl	-10.7633
legislativ	-10.7641
▁65	-10.7643
▁praktický	-10.7643
▁formátu	-10.7648
▁příběh	-10.765
▁Stanislav	-10.765
▁března	-10.765
▁geometrie	-10.765
▁miliónu	-10.765
▁opozice	-10.765
▁producent	-10.765
▁snižuje	-10.765
▁zahrnuje	-10.765
▁účinky	-10.765
▁zahynul	-10.765
▁rozmezí	-10.765
▁páté	-10.765
▁sotva	-10.765
▁kupónov	-10.765
▁rakouské	-10.765
▁knihovn	-10.765
▁klesá	-10.765
▁využil	-10.765
▁čtvrtletí	-10.765
▁morální	-10.7651
▁pověst	-10.7651
▁Fond	-10.7651
▁směn	-10.7652
▁blízko	-10.7652
▁téhož	-10.7653
▁Šest	-10.7654
▁návod	-10.7654
▁diskusi	-10.7655
▁výsledku	-10.7657
▁účt	-10.7659
▁patnácti	-10.7661
▁Lon	-10.7662
▁zásluh	-10.7665
▁školách	-10.7666
▁zajišťuje	-10.7667
▁anglické	-10.7667
▁průměrné	-10.7667
ŘE	-10.767
▁Rada	-10.767
▁poradce	-10.767
▁zvýší	-10.7671
▁přestal	-10.7671
▁6.	-10.7672
▁krajan	-10.7673
brat	-10.7674
▁kovů	-10.7677
příliš	-10.7681
▁kamer	-10.7682
▁činit	-10.7685
▁pravomoci	-10.7685
▁formy	-10.7685
▁48	-10.7689
▁zachování	-10.7696
▁vzpomíná	-10.7697
▁resp	-10.7699
▁poskytl	-10.77
▁postupy	-10.7703
▁volbu	-10.7704
zdrav	-10.7705
▁vědeck	-10.7707
▁provádí	-10.7708
▁král	-10.7708
▁příčinou	-10.7709
ávání	-10.7709
▁duchu	-10.771
▁představiteli	-10.771
▁věnuje	-10.7715
▁Let	-10.7715
▁odpad	-10.7723
ovky	-10.7734
▁Zemi	-10.774
▁výkonné	-10.7742
▁kandidátů	-10.7745
▁pražských	-10.7751
▁zásadně	-10.7753
čila	-10.7756
asi	-10.7759
▁Št	-10.776
cker	-10.7763
stál	-10.7763
▁Cha	-10.7765
▁padesáti	-10.7767
race	-10.7769
▁plno	-10.7771
▁zpravodaj	-10.7773
▁Boris	-10.7774
ologické	-10.7774
▁slep	-10.7776
part	-10.7785
▁sam	-10.7792
▁daném	-10.7793
▁krajin	-10.7799
▁7.	-10.7799
▁odešl	-10.7803
kož	-10.7825
▁Občanské	-10.7826
▁klasický	-10.7826
▁dvoj	-10.7828
▁následujících	-10.7829
▁žlut	-10.7832
▁pokut	-10.7837
cházejí	-10.7838
▁obchody	-10.7843
▁Michael	-10.7846
▁papíru	-10.7853
▁výbuch	-10.7865
▁úsek	-10.7865
▁modely	-10.7868
▁soustav	-10.7874
pot	-10.7878
▁krátké	-10.7883
▁1992.	-10.7885
▁personál	-10.7889
▁živé	-10.789
▁obsahují	-10.789
▁výuk	-10.7895
▁vzdálenost	-10.7906
▁vstříc	-10.7908
▁46	-10.7912
▁loňský	-10.7912
▁neznám	-10.7915
▁Klause	-10.7917
▁Hol	-10.7921
▁chyby	-10.7923
▁klepn	-10.7929
edení	-10.7929
▁reakci	-10.793
▁služba	-10.7932
▁jediným	-10.7933
▁Slov	-10.7934
EC	-10.7937
Vesmír	-10.7938
▁uvažuje	-10.7943
▁poznat	-10.7946
▁potřebn	-10.7946
▁věda	-10.7948
SA	-10.7948
▁Španěl	-10.7951
▁Svět	-10.7952
▁Otázka	-10.7953
▁definitivně	-10.7953
▁digitální	-10.7953
▁divadlo	-10.7953
▁důvěru	-10.7953
▁gigant	-10.7953
▁hřišti	-10.7953
▁kyslíku	-10.7953
▁označit	-10.7953
▁pokračování	-10.7953
▁prognóz	-10.7953
▁předvolební	-10.7953
▁sekretář	-10.7953
▁transformaci	-10.7953
▁výročí	-10.7953
▁vězňů	-10.7953
▁zvyšování	-10.7953
▁vozidel	-10.7953
▁října	-10.7953
▁Býval	-10.7953
▁prosinci	-10.7953
▁Československé	-10.7953
▁vazby	-10.7953
▁rozsáhlé	-10.7953
▁počtem	-10.7953
▁Práce	-10.7953
▁nikoho	-10.7953
▁svoje	-10.7954
▁zastavil	-10.7955
▁myšlenky	-10.7955
▁hluboké	-10.7955
▁dělení	-10.7956
▁chat	-10.7956
▁nájemník	-10.7957
▁Člen	-10.7957
▁sedmdesát	-10.7957
příště	-10.796
▁Cest	-10.796
▁navrhuje	-10.796
▁poradit	-10.7961
▁sexuální	-10.7962
▁neplatí	-10.7962
▁prozatím	-10.7965
▁začátek	-10.7965
▁poplatky	-10.7965
▁výdajů	-10.7967
zemědělských	-10.7969
▁oběti	-10.7969
▁rozšířil	-10.7972
▁Třeba	-10.7973
▁zrušit	-10.7973
▁majitele	-10.7973
▁mechanismus	-10.7975
▁Mil	-10.7976
▁chtěla	-10.7982
▁rostoucí	-10.7983
▁bratr	-10.7988
▁třetiny	-10.7989
▁Uvedl	-10.7992
▁čtrnáct	-10.7992
▁východě	-10.7993
▁kapel	-10.7994
▁36	-10.7995
▁příležitostí	-10.8
▁barevný	-10.8003
▁tuzemsku	-10.8003
▁reklamy	-10.8004
▁sezóny	-10.8005
▁zůstalo	-10.8008
▁Hlavním	-10.8008
▁schopností	-10.8013
vykl	-10.8015
▁vědí	-10.8016
▁představitele	-10.8017
▁Jaké	-10.802
▁nastavení	-10.8022
vrácení	-10.8025
▁pokuty	-10.8026
▁dílů	-10.8027
jeli	-10.8027
▁krajiny	-10.8027
▁přítomnosti	-10.8028
▁majitelé	-10.8036
▁výborů	-10.8039
▁filmové	-10.8039
▁Clinton	-10.8042
▁statistik	-10.8047
▁svobody	-10.8048
▁Rakouska	-10.8052
ité	-10.8052
▁našel	-10.8054
▁víkend	-10.8057
▁nezávislé	-10.8059
▁startu	-10.8061
▁starý	-10.8065
▁nastal	-10.8067
▁činil	-10.807
▁pohár	-10.8071
▁objevují	-10.8074
▁znění	-10.8077
▁postavil	-10.8077
▁záležitosti	-10.8079
▁vedl	-10.8082
▁ekonomický	-10.8083
▁herec	-10.8089
▁Mont	-10.8091
▁červen	-10.8094
VÍ	-10.81
▁necelý	-10.8103
▁koní	-10.8103
ána	-10.8107
▁odraz	-10.811
▁známý	-10.8115
jedná	-10.8116
▁koncertu	-10.8118
▁Jaká	-10.8121
▁Vlk	-10.8121
▁stylu	-10.8133
ria	-10.8139
▁oceán	-10.814
▁účtu	-10.8147
▁prof	-10.8148
▁výrobních	-10.8148
▁primátor	-10.8159
▁fan	-10.8161
▁českém	-10.8164
ička	-10.817
áni	-10.8171
▁Pomoc	-10.8173
▁obrovský	-10.8173
▁diplomat	-10.8181
▁zdravotního	-10.8187
▁čtenářů	-10.8189
oji	-10.8191
▁surovin	-10.8193
▁obsadil	-10.8193
▁víme	-10.8195
▁žil	-10.8197
▁přítomn	-10.8202
▁exportu	-10.8203
▁existující	-10.8209
▁důraz	-10.821
▁dosáhla	-10.821
▁Světové	-10.8214
▁Morav	-10.8224
▁výkony	-10.8225
▁14.	-10.8226
▁Výbor	-10.8234
▁38	-10.8235
týká	-10.8237
▁přítomnost	-10.8238
▁dodavatel	-10.8238
▁ostatním	-10.8247
▁variant	-10.8249
stu	-10.825
jmout	-10.8251
▁obav	-10.8252
▁tuzemské	-10.8254
▁vlně	-10.8254
ME	-10.8256
▁označen	-10.8256
▁menších	-10.8257
▁děj	-10.8262
▁atlet	-10.8264
▁trans	-10.8266
▁Evropu	-10.8266
▁Mechanik	-10.8266
▁Němců	-10.8266
▁Premiér	-10.8266
▁Systém	-10.8266
▁Vývoj	-10.8266
▁absolutní	-10.8266
▁definitivní	-10.8266
▁kilobajtů	-10.8266
▁podezření	-10.8266
▁potvrzuje	-10.8266
▁připomněl	-10.8266
▁sjednocení	-10.8266
▁smlouvě	-10.8266
▁teorií	-10.8266
▁tvořit	-10.8266
▁účinek	-10.8266
▁režii	-10.8266
▁tabulce	-10.8266
▁aspekt	-10.8266
▁lehce	-10.8266
▁schůze	-10.8266
▁zdarma	-10.8266
▁zrušil	-10.8266
▁ukončil	-10.8266
▁pokrok	-10.8266
▁špatný	-10.8266
▁membrán	-10.8266
▁tramvaj	-10.8266
▁zastupitelstva	-10.8266
▁spotřeby	-10.8266
▁pověřen	-10.8267
▁hustot	-10.8267
▁nedokázal	-10.8267
▁střetnutí	-10.8267
▁vězni	-10.8268
▁GSM	-10.8268
▁bránit	-10.8268
▁celků	-10.8269
▁("	-10.8269
▁státem	-10.8269
▁produkci	-10.8269
▁nejenom	-10.8269
pin	-10.8271
▁ovoce	-10.8271
▁diskuse	-10.8271
stru	-10.8271
▁Pět	-10.8273
▁Dodal	-10.8274
▁vyvíj	-10.8274
▁Úřadu	-10.8275
▁kódování	-10.8275
▁kamion	-10.8275
▁dětský	-10.8277
▁Jaký	-10.8277
▁vaši	-10.8278
▁akademie	-10.8278
▁dostatek	-10.8279
▁překlad	-10.828
▁balík	-10.828
▁vyvolává	-10.8281
▁anglický	-10.8282
▁Druhá	-10.8283
sáhl	-10.8283
ismem	-10.8286
▁Staroměstské	-10.8287
▁běh	-10.8287
▁dolní	-10.829
▁Jednání	-10.829
▁předložit	-10.8294
▁systematick	-10.8295
stupují	-10.8299
▁závislosti	-10.83
jako	-10.8302
▁klasické	-10.8303
▁95	-10.8304
▁náhodou	-10.8309
▁veřejných	-10.8309
▁nahradil	-10.8309
▁fakultu	-10.831
▁Němec	-10.8311
▁výstavě	-10.8311
▁stráž	-10.8315
▁užívání	-10.8315
▁zahraničním	-10.8317
▁strážník	-10.8317
▁Karadžič	-10.8319
▁zvěře	-10.8321
▁ukázk	-10.8321
▁zájm	-10.8322
▁klidně	-10.8325
▁pravděpodobnost	-10.8328
▁kontrolní	-10.8329
▁Severní	-10.8329
▁silný	-10.8331
▁soused	-10.8333
táhne	-10.8336
31	-10.8343
era	-10.8344
▁smí	-10.8344
▁základem	-10.8345
▁fyzikální	-10.8347
▁důchod	-10.8348
ujícího	-10.8349
▁temp	-10.835
▁karta	-10.835
▁škodu	-10.8352
▁Sparta	-10.8353
▁ST	-10.8354
▁firemní	-10.8363
▁zdravé	-10.8365
enou	-10.8365
jímá	-10.8369
▁zdravotnické	-10.8369
▁příčiny	-10.8387
▁probíh	-10.8389
▁koně	-10.839
▁trenérem	-10.8395
▁pohyboval	-10.8396
▁týdnech	-10.8398
▁kvantov	-10.8401
▁vyžádal	-10.8401
▁životním	-10.8402
▁principu	-10.8403
▁časové	-10.8404
▁plnění	-10.8406
▁najde	-10.8406
▁Ústavní	-10.841
▁podobného	-10.8417
▁koho	-10.8421
▁sporu	-10.8422
▁výhod	-10.8424
▁reálný	-10.8428
▁vědě	-10.843
▁Mir	-10.8432
OLE	-10.8436
▁náročn	-10.8436
číst	-10.8437
▁11.	-10.846
řad	-10.8465
▁Olomouc	-10.8473
▁Firm	-10.8474
▁pokračoval	-10.848
antní	-10.8481
▁budova	-10.8484
lék	-10.8484
bírají	-10.8486
▁škod	-10.8489
počítat	-10.8494
▁jiní	-10.8495
▁Hus	-10.8499
leč	-10.8503
▁nadšen	-10.8504
▁zábav	-10.8505
▁památ	-10.8507
▁matematik	-10.8515
▁bezprostředn	-10.8522
▁poloh	-10.8525
išť	-10.8526
▁nezávislost	-10.8529
▁zjištěn	-10.8534
▁laboratoř	-10.8537
▁textový	-10.8555
▁důstojn	-10.8555
▁seminář	-10.8557
▁třetího	-10.8562
ložení	-10.8563
▁počítačový	-10.8564
▁pohádk	-10.8567
▁poskytují	-10.8573
ecká	-10.8579
▁Úřad	-10.858
▁Kraj	-10.8583
▁34	-10.8585
▁zhorš	-10.8587
ačtyřicet	-10.8588
▁dražší	-10.8588
▁dynamick	-10.8588
▁nejnižší	-10.8588
▁nemohu	-10.8588
▁podporovat	-10.8588
▁přispět	-10.8588
▁snažit	-10.8588
▁sportovců	-10.8588
▁uskutečnit	-10.8588
▁Člověk	-10.8588
▁Poslanc	-10.8588
▁chystá	-10.8588
▁index	-10.8588
▁krizi	-10.8588
▁vybudovat	-10.8588
▁vypadat	-10.8588
▁vyřešit	-10.8588
▁bílkovin	-10.8588
▁skončí	-10.8588
▁Osobn	-10.8588
▁srážek	-10.8588
▁turisty	-10.8588
▁mlýn	-10.8588
▁dohromady	-10.8588
▁každoročn	-10.8589
▁sněhu	-10.8589
▁mld	-10.8589
▁zhodnocení	-10.8589
▁dobrá	-10.8589
▁obilí	-10.8589
▁dcer	-10.859
▁sběr	-10.859
▁síti	-10.8591
▁pouští	-10.8591
▁těší	-10.8591
▁vedlejší	-10.8592
▁bomb	-10.8593
▁atmosféry	-10.8593
▁přesvědčit	-10.8594
▁pokračuje	-10.8595
▁porozumění	-10.8595
▁Odbor	-10.8596
▁spodní	-10.8597
▁tvorbě	-10.8597
▁prost	-10.8597
▁připojit	-10.8598
▁hůře	-10.8598
ováni	-10.8599
▁zbytečně	-10.86
▁penzion	-10.86
▁levé	-10.8601
▁Bruselu	-10.8601
▁umělecké	-10.8602
▁tělo	-10.8602
▁Hradci	-10.8603
▁ruky	-10.8605
▁všeobecně	-10.8605
▁šlo	-10.8606
▁chlap	-10.8606
▁přinést	-10.8608
▁obal	-10.861
▁130	-10.861
89	-10.8611
▁vesnice	-10.8612
▁Jelcina	-10.8613
▁analýzy	-10.8614
▁poznamenal	-10.8615
▁mnou	-10.8616
▁zabýval	-10.8621
hradí	-10.8622
▁městský	-10.8622
▁dala	-10.8623
▁rovině	-10.8624
▁Senátu	-10.8624
▁silnice	-10.8625
elná	-10.8628
▁spolupracovníků	-10.8628
▁roh	-10.8632
▁autobusy	-10.8633
▁obsazení	-10.8636
▁Chorvatska	-10.8638
▁Američané	-10.8645
ačnou	-10.8645
▁85	-10.8646
▁Mon	-10.8653
▁trestné	-10.8656
▁personální	-10.8658
▁hokej	-10.8658
▁historické	-10.8663
▁zájemce	-10.8664
▁experiment	-10.8665
bývají	-10.8669
▁Novotný	-10.8669
▁Kohl	-10.8671
▁kolektivní	-10.8672
▁opustit	-10.8673
▁dovozu	-10.8674
▁čtyřiceti	-10.8675
▁grafický	-10.8675
▁důchodu	-10.8678
▁volných	-10.8681
▁nech	-10.8682
zoval	-10.8693
▁požadované	-10.8694
▁Karla	-10.8695
end	-10.8697
▁zájmů	-10.8697
jasn	-10.8706
▁výkonný	-10.8708
▁drobn	-10.8709
▁průměrný	-10.8713
▁nevím	-10.8717
mála	-10.8718
▁postoje	-10.8724
▁nepříjemné	-10.8724
▁29	-10.8725
▁vyrovnan	-10.8725
▁Rakousk	-10.8727
▁témat	-10.8728
▁rostlin	-10.8728
tickou	-10.8728
čené	-10.8729
▁dalo	-10.873
▁přivedl	-10.8735
▁získan	-10.8736
▁potenciál	-10.8738
▁svobodné	-10.8741
▁tlaku	-10.8742
▁drobné	-10.8742
vedou	-10.8748
logicky	-10.8753
▁objemu	-10.8753
▁moment	-10.8753
▁Dá	-10.876
▁výchov	-10.8764
▁spol	-10.8769
▁grafu	-10.8771
▁1,5	-10.8772
ens	-10.8779
▁kapitálové	-10.8781
skok	-10.8784
ících	-10.8785
leb	-10.8787
▁otevře	-10.8792
▁hormon	-10.8797
díl	-10.8798
▁odborník	-10.8798
ng	-10.88
▁vedla	-10.8807
počíta	-10.8808
řídí	-10.8809
ivost	-10.8812
▁zvuk	-10.8812
▁dlužník	-10.8822
▁poli	-10.8822
▁nutnost	-10.8823
▁osobnost	-10.8825
▁projektů	-10.8825
▁turistický	-10.8827
Ú	-10.8827
▁vlast	-10.883
▁bytost	-10.883
logický	-10.8833
▁management	-10.8834
▁kolektiv	-10.8836
znamenal	-10.8837
kládal	-10.8838
▁vlak	-10.8844
▁zad	-10.8845
▁mladý	-10.8849
▁překvapení	-10.8853
▁Sever	-10.8859
▁prosadil	-10.8864
▁vzpomínk	-10.8872
▁členský	-10.8883
▁ideál	-10.8887
▁zvíře	-10.8889
85	-10.8898
▁Takový	-10.89
▁struktura	-10.89
nvestiční	-10.8902
▁Zahraničn	-10.8907
VI	-10.8908
▁výrazný	-10.8909
▁Auto	-10.8911
▁čekal	-10.8912
▁jmenován	-10.8914
▁konečný	-10.8916
▁speciali	-10.8921
▁legend	-10.8921
▁Mluvčí	-10.8922
▁Rudolf	-10.8922
▁dosažení	-10.8922
▁intenzit	-10.8922
▁jednoduchá	-10.8922
▁metropoli	-10.8922
▁nechtějí	-10.8922
▁neutrální	-10.8922
▁obsažen	-10.8922
▁pochopení	-10.8922
▁teorii	-10.8922
▁tradičně	-10.8922
▁výpověď	-10.8922
▁únoru	-10.8922
plácet	-10.8922
▁hrozb	-10.8922
▁Moskva	-10.8922
▁jmění	-10.8922
▁Peníze	-10.8922
▁reakcí	-10.8922
▁složitější	-10.8922
▁Divadl	-10.8922
▁likvidace	-10.8922
▁Šp	-10.8922
▁Zástupc	-10.8922
▁břehu	-10.8922
táhnout	-10.8922
▁nevýhod	-10.8922
▁nejpozději	-10.8922
▁restauraci	-10.8922
▁Rozdíl	-10.8922
▁Obdobn	-10.8922
▁dotace	-10.8923
▁úlev	-10.8923
▁dojít	-10.8924
▁Východ	-10.8924
▁dělají	-10.8924
▁operací	-10.8924
▁kategorii	-10.8924
▁kabel	-10.8925
▁vtip	-10.8925
▁elektráren	-10.8925
▁výhodnější	-10.8926
▁Slovan	-10.8927
nete	-10.8928
▁sněmovně	-10.8929
▁mezd	-10.893
▁reformy	-10.8933
▁podporuje	-10.8934
▁městech	-10.8937
bla	-10.8939
44	-10.894
▁udržení	-10.894
▁oblačnost	-10.8941
▁zabezpeč	-10.8945
▁bílé	-10.8948
▁vína	-10.8948
▁přírodověd	-10.8949
▁stíhání	-10.8953
▁přijdou	-10.8954
▁časopisů	-10.8957
roj	-10.896
izované	-10.8963
▁přev	-10.8964
▁Tour	-10.8966
▁pochází	-10.8966
▁žádostí	-10.8967
▁otevřena	-10.897
dění	-10.8972
▁strom	-10.8974
lín	-10.8978
▁projednáva	-10.8978
▁Paříži	-10.8979
▁provedl	-10.8979
88	-10.898
▁hledal	-10.8982
▁provozní	-10.8985
▁mluvil	-10.8989
▁realitní	-10.899
▁sezónu	-10.8991
▁odborníky	-10.8995
ějším	-10.8996
IC	-10.8996
▁vešker	-10.8997
▁dokumentu	-10.8998
▁využívání	-10.9002
▁neboli	-10.9018
▁uložení	-10.9019
▁hmoty	-10.9024
vedli	-10.9024
▁žádosti	-10.9025
▁značn	-10.9027
▁mladí	-10.9042
▁svobodu	-10.9049
▁založení	-10.905
vnějších	-10.905
CD	-10.9052
▁Důležit	-10.9052
▁domy	-10.9054
▁šedesát	-10.9055
▁skla	-10.9056
daných	-10.9056
▁koš	-10.9062
▁původ	-10.9063
▁tank	-10.9064
▁nemohli	-10.9067
pracovat	-10.9068
▁ukázala	-10.9068
▁novel	-10.907
▁škoda	-10.9071
▁vložen	-10.9072
▁zvýšen	-10.9075
▁záměru	-10.9076
▁tich	-10.9077
▁obvodní	-10.9079
eček	-10.9081
▁požádal	-10.9082
▁Mohl	-10.9093
▁přijel	-10.9093
▁ochotn	-10.9099
▁zákazníkům	-10.9106
▁Lit	-10.9107
LU	-10.9107
▁časopise	-10.9108
▁letecké	-10.911
cová	-10.9112
▁mluvčího	-10.9117
ůj	-10.9127
▁rozliš	-10.9133
▁Kur	-10.9133
vající	-10.9134
▁reprezentantů	-10.9137
▁mimořádné	-10.9138
▁lékařsk	-10.914
▁Mlad	-10.9142
▁zvýšené	-10.9144
▁stanic	-10.9144
▁region	-10.9147
▁výkonnost	-10.9154
tkání	-10.9161
▁platy	-10.9162
▁platnost	-10.9163
▁zařazen	-10.9165
▁monopol	-10.9167
▁úmysl	-10.9171
▁činu	-10.9172
▁muse	-10.9172
▁ztráta	-10.9173
▁vražd	-10.9177
▁fin	-10.9179
▁neb	-10.918
▁protein	-10.9181
▁Mas	-10.9183
▁195	-10.9186
▁jmen	-10.9186
▁prázdnin	-10.919
▁snažil	-10.9192
▁nezaměstnanost	-10.9193
▁řídící	-10.9194
▁Nejs	-10.9195
▁Plat	-10.9195
▁týmy	-10.9202
▁doping	-10.9203
▁mikro	-10.9205
,6	-10.9205
▁tvrdý	-10.9209
oučástí	-10.9212
▁každému	-10.9212
▁Ros	-10.9214
▁zná	-10.9215
▁posílen	-10.9222
▁čtrnácti	-10.9223
▁ohrožen	-10.9227
▁vlajk	-10.9228
▁připojen	-10.9234
far	-10.9234
tická	-10.9234
▁odstup	-10.9236
dání	-10.9236
▁grafick	-10.9242
▁poskytovat	-10.9242
▁sjezd	-10.9246
▁OD	-10.9246
'	-10.9254
▁dvojic	-10.9256
▁zvětš	-10.9258
bojí	-10.9261
▁Graf	-10.9262
▁stačil	-10.9262
▁obecné	-10.9263
ičtější	-10.9265
▁recept	-10.9266
▁Ameriky	-10.9266
▁Bohužel	-10.9266
▁Ladislav	-10.9266
▁Nedávn	-10.9266
▁Plzni	-10.9266
▁SCSI	-10.9266
▁Telecom	-10.9266
▁energii	-10.9266
▁instituce	-10.9266
▁investování	-10.9266
▁konkrétně	-10.9266
▁nejvýznamnější	-10.9266
▁podpořil	-10.9266
▁přirozené	-10.9266
▁čtvrtfinále	-10.9266
▁kapitán	-10.9266
▁ohrožuj	-10.9266
▁Policisté	-10.9266
▁chránit	-10.9266
▁mládí	-10.9266
▁názvu	-10.9266
▁rámeček	-10.9266
▁koncepci	-10.9266
▁Všeobecn	-10.9266
▁nejúspěšnější	-10.9267
máhají	-10.9267
▁Včera	-10.9267
▁dražb	-10.9267
▁okénk	-10.9267
▁zaujal	-10.9267
▁použil	-10.9267
▁Chip	-10.9267
▁ekonomicky	-10.9267
▁závad	-10.9267
▁stabilní	-10.9267
▁trzích	-10.9267
▁výrobek	-10.9268
▁zimě	-10.9269
▁množ	-10.9269
▁nadcházející	-10.9269
▁obrázky	-10.927
▁lamp	-10.927
▁tradici	-10.9271
▁Tentokrát	-10.9271
▁koncern	-10.9272
▁síla	-10.9273
▁faktorů	-10.9273
▁pochopit	-10.9274
▁plod	-10.9274
vodí	-10.9274
▁Stav	-10.9275
▁Londýně	-10.9275
▁konat	-10.9277
jednat	-10.9277
▁odstavce	-10.9277
▁podnikatelský	-10.9278
▁hlavou	-10.9278
▁Afriky	-10.9278
▁hudby	-10.9278
▁bojovat	-10.928
▁chodit	-10.928
▁David	-10.9281
▁tón	-10.9282
▁kritérií	-10.9282
▁radi	-10.9283
▁lokální	-10.9284
▁schůzky	-10.9286
▁právnické	-10.9288
▁požadují	-10.9289
oma	-10.9293
▁originální	-10.9294
▁řek	-10.9296
▁parametrů	-10.9296
▁umělecký	-10.9296
▁způsobuje	-10.9297
▁vybrané	-10.9299
▁šéfa	-10.9299
berg	-10.93
▁spravedlnosti	-10.9302
▁ekologick	-10.9302
▁nalézt	-10.9303
▁Děti	-10.9304
▁poklesl	-10.9308
▁slíbil	-10.9309
5%	-10.9311
▁světovou	-10.9314
▁zbývající	-10.9314
▁třetinu	-10.9316
▁zájemci	-10.9316
▁uznal	-10.9316
▁vesmíru	-10.9318
▁nezbytné	-10.932
▁scény	-10.9322
▁uživatele	-10.9322
▁drahé	-10.9322
elů	-10.9323
▁úvahy	-10.9324
▁biologické	-10.9328
▁zaměření	-10.9329
▁nemocných	-10.9331
▁Zajímav	-10.9333
▁okruhu	-10.9333
▁způsobené	-10.9334
▁úroky	-10.9334
▁úkolem	-10.9335
▁Lidové	-10.9344
▁vlasti	-10.9344
národních	-10.9344
třel	-10.9345
▁povede	-10.9349
▁veden	-10.9351
▁blíže	-10.9352
▁hovořil	-10.9353
▁čtvrtý	-10.9354
▁pokusil	-10.9357
▁OH	-10.9358
▁paliva	-10.9359
▁starosty	-10.9359
▁ostře	-10.9366
kolik	-10.9368
▁představí	-10.9368
▁přenosov	-10.9372
▁ono	-10.9376
▁Dobr	-10.9378
▁soukrom	-10.9379
▁bosenský	-10.9379
▁dokumentů	-10.938
staral	-10.9381
myslí	-10.9386
▁udržel	-10.9388
▁realiz	-10.9398
cestoval	-10.94
▁rozhovor	-10.94
▁hradu	-10.9401
▁vývojové	-10.9401
▁výkonem	-10.9402
▁útvar	-10.9403
▁Nevím	-10.9403
gan	-10.9404
▁pouhé	-10.9404
▁uvedení	-10.9406
▁Kovo	-10.9407
▁čtvrtin	-10.9408
▁úkolů	-10.9409
▁paláce	-10.941
▁podat	-10.9413
▁fa	-10.9415
bíhá	-10.9419
▁poukaz	-10.9421
▁klidu	-10.9421
▁objevit	-10.9421
▁posíl	-10.9423
▁skutečný	-10.9436
▁zásady	-10.9437
▁zůstala	-10.9439
▁9.	-10.9449
▁adresu	-10.9456
▁30.	-10.9458
▁platné	-10.9458
▁Indi	-10.9459
▁sklon	-10.9468
▁odkud	-10.9472
▁založené	-10.9478
▁postupné	-10.9481
▁Pal	-10.9485
▁pevný	-10.9488
▁Cíle	-10.9488
lap	-10.9488
▁dluh	-10.9492
hání	-10.9495
▁dalšímu	-10.9496
▁pobočk	-10.9496
▁hladin	-10.9497
▁zahraničními	-10.9509
hladov	-10.9511
▁případný	-10.9512
▁CS	-10.9513
▁filmy	-10.9518
▁širok	-10.9518
▁uvědom	-10.9518
▁hloub	-10.9519
▁Vít	-10.9525
▁ostr	-10.9525
▁česko	-10.9526
▁nesouhlas	-10.9528
hý	-10.9534
▁opustil	-10.9535
▁vzduch	-10.9536
▁hrob	-10.9538
▁8.	-10.9539
▁výprav	-10.9552
▁možný	-10.9554
oucí	-10.9555
▁disket	-10.9563
▁180	-10.9565
spal	-10.9565
lob	-10.9572
▁stovk	-10.9581
▁2,	-10.9581
▁zastoupen	-10.9584
ářské	-10.959
ánek	-10.959
▁parku	-10.9591
▁fyzický	-10.9594
▁působil	-10.9595
▁obviněn	-10.9596
VA	-10.9597
▁jednoznačn	-10.9598
▁exportní	-10.9604
rp	-10.9609
▁šestnáct	-10.9612
hodnou	-10.9613
čátkem	-10.9614
▁kapacit	-10.9615
tických	-10.9615
▁umělé	-10.9617
▁vlákn	-10.962
▁hospod	-10.962
kombin	-10.962
▁75	-10.9622
▁kilometr	-10.9622
▁rytm	-10.9623
▁Alexandr	-10.9624
▁Barceloně	-10.9624
▁Británii	-10.9624
▁Bělehrad	-10.9624
▁Nejlepší	-10.9624
▁březnu	-10.9624
▁cigaret	-10.9624
▁fázi	-10.9624
▁instalaci	-10.9624
▁normy	-10.9624
▁následek	-10.9624
▁podmínkou	-10.9624
▁pomáhá	-10.9624
▁populární	-10.9624
▁požádat	-10.9624
▁pravidlo	-10.9624
▁publikován	-10.9624
▁tlačítka	-10.9624
▁tlačítkem	-10.9624
▁týdně	-10.9624
▁umožnit	-10.9624
nápověd	-10.9624
▁déšť	-10.9624
▁kratší	-10.9624
▁Srbsk	-10.9624
▁ploše	-10.9624
▁vrstvy	-10.9624
▁Organiza	-10.9624
▁naléhav	-10.9624
▁chalup	-10.9624
▁divize	-10.9624
▁těžce	-10.9624
▁Robert	-10.9624
▁Věřím	-10.9624
▁zajímat	-10.9624
▁Část	-10.9624
▁likvidaci	-10.9624
▁Soubor	-10.9624
▁značky	-10.9624
▁ocitl	-10.9624
▁někoho	-10.9624
▁příslušníci	-10.9624
▁pololetí	-10.9624
▁kvalifikace	-10.9624
▁1996	-10.9624
▁Případ	-10.9624
▁1987	-10.9624
▁doposud	-10.9624
▁debat	-10.9624
▁pozdější	-10.9624
▁historik	-10.9624
▁nutný	-10.9624
▁komisi	-10.9625
▁ekonomice	-10.9625
▁IFOR	-10.9625
▁klimatu	-10.9626
▁uvažovat	-10.9626
▁drog	-10.9629
▁Hodnot	-10.963
▁koupi	-10.963
▁Generální	-10.963
▁desky	-10.963
▁červenci	-10.9631
▁multimediální	-10.9631
▁ukázat	-10.9632
▁kraj	-10.9632
▁horách	-10.9632
▁právnických	-10.9634
▁rozbor	-10.9636
▁školu	-10.9636
▁panel	-10.9639
▁letiště	-10.9644
▁myšlenka	-10.9645
▁Novotná	-10.9646
▁vánoc	-10.9646
▁vzorky	-10.9646
▁Tur	-10.9648
▁cenách	-10.9649
▁výstavbě	-10.9649
▁potvrzení	-10.9651
▁ukáže	-10.9651
▁pozorování	-10.9654
▁Často	-10.9654
▁prodávající	-10.9655
▁barvu	-10.9657
▁vyšel	-10.9657
▁provozovatel	-10.966
studoval	-10.9661
▁absolvoval	-10.9663
▁ohrožení	-10.9664
▁parametry	-10.9665
▁vozy	-10.9665
▁časopis	-10.9665
▁Atlanty	-10.967
▁tvořen	-10.9672
▁úvodu	-10.9674
▁obvyklé	-10.9674
▁JU	-10.9675
▁muzeum	-10.9676
▁vyv	-10.9681
pustili	-10.9681
▁pojem	-10.9685
▁Svazu	-10.9686
▁příspěvky	-10.9687
▁sektoru	-10.9689
▁účelem	-10.9689
▁mezinárodním	-10.9691
▁přírodovědecké	-10.9692
▁nahradit	-10.9693
▁očekávání	-10.9695
▁Slovensk	-10.9698
▁chorvatské	-10.9699
izovan	-10.9699
▁%)	-10.9702
▁dvojí	-10.9702
skutk	-10.9704
▁plynů	-10.9705
ticky	-10.9706
▁varianty	-10.9706
▁třetina	-10.9709
▁stupni	-10.9709
lezl	-10.9709
▁ekonomika	-10.9713
▁srážky	-10.9713
▁představitel	-10.9714
kovat	-10.9721
▁potenciální	-10.9726
▁průmyslov	-10.9728
▁společném	-10.9732
▁řeky	-10.9736
70	-10.9737
▁příjemné	-10.9737
▁španělské	-10.9742
▁plynu	-10.9742
▁určitém	-10.9742
▁jediného	-10.9745
▁ochotni	-10.9746
▁obchodů	-10.9746
▁vymezen	-10.9746
▁bot	-10.975
▁průzkumu	-10.9754
▁styku	-10.9755
▁cíli	-10.9756
▁troj	-10.9758
▁ztrátu	-10.9758
▁napsat	-10.976
▁studenti	-10.9761
▁podílu	-10.9764
▁hovor	-10.9769
▁Velm	-10.977
▁údaj	-10.9779
▁nezávisl	-10.9779
▁kup	-10.978
▁důchodové	-10.9782
▁spokojeni	-10.9783
vesel	-10.9787
▁Char	-10.9788
▁výrazné	-10.9796
ODA	-10.9798
▁změnila	-10.9799
▁pořádá	-10.9804
najdeme	-10.9805
▁masov	-10.9807
cky	-10.9812
▁hospodářský	-10.9825
mět	-10.9839
▁založena	-10.984
▁důsledně	-10.9841
▁jih	-10.9849
letí	-10.9853
▁nález	-10.9854
rum	-10.9855
▁působící	-10.9856
▁úrok	-10.9858
▁specializované	-10.9859
▁nějakým	-10.9863
▁dosah	-10.9868
▁kontrola	-10.9868
▁Britsk	-10.9871
▁jistot	-10.9872
▁hrála	-10.9876
▁Eva	-10.988
▁Ří	-10.9881
▁záruk	-10.9884
▁hlubo	-10.9887
▁menším	-10.989
▁Jac	-10.989
ezi	-10.9893
▁bíl	-10.9894
čela	-10.9895
árně	-10.991
▁telefonu	-10.9911
▁platný	-10.9912
▁zjednoduš	-10.9913
úpln	-10.9914
▁Společn	-10.9915
▁zájemců	-10.9916
▁dám	-10.9918
▁skryt	-10.9918
▁devadesát	-10.9919
▁Martina	-10.9919
▁Podnikatel	-10.992
▁jeví	-10.9925
měrně	-10.9928
▁Hr	-10.9931
▁společenský	-10.9932
▁registr	-10.9935
▁vedoucího	-10.9939
▁osoba	-10.9945
▁přesun	-10.9951
▁All	-10.9953
▁dobrovoln	-10.9965
▁formul	-10.9972
▁Celk	-10.9984
jíždějí	-10.9986
istický	-10.9986
▁humor	-10.9993
▁49	-10.9994
▁Chomutov	-10.9994
▁Ukrajiny	-10.9994
▁Zvláštní	-10.9994
▁církví	-10.9994
▁galerie	-10.9994
▁hřiště	-10.9994
▁náboženství	-10.9994
▁ovladač	-10.9994
▁ovlivňuje	-10.9994
▁páteční	-10.9994
▁určuje	-10.9994
▁Koaliční	-10.9994
▁deficit	-10.9994
▁dveří	-10.9994
▁naznačil	-10.9994
▁orchestr	-10.9994
▁patrné	-10.9994
▁potrestán	-10.9994
▁priorit	-10.9994
▁upozorňuje	-10.9994
▁vrstev	-10.9994
▁šetření	-10.9994
▁IBM	-10.9994
▁burze	-10.9994
▁držitel	-10.9994
▁enzym	-10.9994
▁oxidu	-10.9994
▁podporou	-10.9994
▁usilovat	-10.9994
▁potíží	-10.9994
▁produktivit	-10.9994
▁pronájem	-10.9994
▁podnicích	-10.9994
▁sdělovací	-10.9994
▁fáze	-10.9994
▁příliv	-10.9994
▁kritické	-10.9994
▁nedaleko	-10.9994
▁vzestup	-10.9994
▁královn	-10.9994
▁Word	-10.9994
▁filozofie	-10.9994
nutně	-10.9994
vázat	-10.9994
▁naposledy	-10.9994
▁zámku	-10.9994
▁1997	-10.9995
▁Formát	-10.9995
▁hutní	-10.9995
▁svátky	-10.9995
▁integraci	-10.9995
▁těžb	-10.9995
▁myšlenkou	-10.9995
▁násilí	-10.9995
▁slabší	-10.9995
▁srdeční	-10.9996
▁obrázků	-10.9996
▁šíření	-10.9996
▁odhadnout	-10.9996
▁manželství	-10.9996
▁přežití	-10.9996
▁duše	-10.9996
▁myšlenku	-10.9996
▁most	-10.9996
▁Týr	-10.9997
▁Původně	-10.9997
▁sílu	-10.9997
▁vážný	-10.9997
▁nehodlá	-10.9997
▁tratí	-10.9998
▁obnovu	-10.9998
▁nízko	-10.9998
▁podnět	-10.9999
▁prosazovat	-11.0001
▁strav	-11.0001
▁testování	-11.0001
▁stanovit	-11.0002
▁znamenalo	-11.0002
▁půd	-11.0002
▁zdanění	-11.0003
▁Komis	-11.0004
hodlají	-11.0004
▁sledování	-11.0005
▁olej	-11.0006
▁pouště	-11.0007
▁cel	-11.0009
▁doporučení	-11.0011
▁zákazníci	-11.0011
▁posoudit	-11.0012
▁profil	-11.0014
▁silnější	-11.0014
▁soustředění	-11.0016
▁akcionářů	-11.0017
▁Labem	-11.0017
▁soust	-11.0018
▁přehlídky	-11.0022
▁tvrdě	-11.0022
▁Nejde	-11.0023
▁americkém	-11.0023
▁Správ	-11.0026
▁doklad	-11.0028
kryl	-11.0031
▁přístrojů	-11.0032
▁příslušníků	-11.0032
▁jádro	-11.0034
▁jezer	-11.0034
▁Nikd	-11.0035
dělování	-11.0039
▁úředníků	-11.0039
▁přinese	-11.004
bírá	-11.0041
ectví	-11.0043
▁následky	-11.0045
▁úlohu	-11.0046
▁vládou	-11.0046
pisuje	-11.0048
▁začínající	-11.0051
eme	-11.0054
▁moravsk	-11.0062
▁soudce	-11.0062
padla	-11.0068
▁25.	-11.0069
▁Naši	-11.0073
▁experti	-11.0075
daly	-11.0076
▁zápisu	-11.0076
zích	-11.0081
▁jistotu	-11.0083
▁válka	-11.0085
71	-11.0085
▁předpoklady	-11.0087
soudil	-11.009
▁Karl	-11.0091
reform	-11.0092
▁Platí	-11.0093
▁subjekt	-11.0094
▁zachoval	-11.0094
▁red	-11.0099
▁Svat	-11.0099
▁výbuchu	-11.0103
▁nájemní	-11.0106
rám	-11.0107
▁Mc	-11.0108
pos	-11.011
▁lidové	-11.011
▁sbor	-11.0112
enství	-11.0114
▁lék	-11.0114
▁Čern	-11.0126
▁nasazení	-11.0128
▁technického	-11.0129
▁výběrové	-11.013
▁týmem	-11.0131
▁technika	-11.0131
▁hotelů	-11.0131
▁Mat	-11.0136
▁italský	-11.0137
▁ikon	-11.0142
části	-11.0142
▁Františk	-11.0143
▁Nov	-11.0144
▁zobraz	-11.0144
▁spory	-11.0146
▁snahy	-11.0146
▁papírů	-11.0149
▁desetin	-11.015
▁sbír	-11.0152
▁výstavu	-11.0154
▁komor	-11.0155
▁Kla	-11.0156
▁světlo	-11.0157
snad	-11.0158
▁ziskem	-11.0159
▁vrcholu	-11.0163
▁Byli	-11.0164
▁slovník	-11.0166
korun	-11.017
kupuje	-11.0171
▁Ste	-11.0177
▁díly	-11.0178
pozn	-11.0181
ingu	-11.0181
těl	-11.0182
▁měnové	-11.0183
▁21.	-11.0184
▁olympiád	-11.0186
▁fotbalu	-11.0188
,4	-11.0192
▁náročné	-11.0196
dom	-11.0196
▁osobě	-11.0199
▁agentur	-11.0204
nechává	-11.0205
▁školení	-11.0205
▁předvedl	-11.0212
▁sociálně	-11.0214
▁nepod	-11.0214
▁51	-11.0215
▁zákazu	-11.0221
▁nájem	-11.0223
▁smut	-11.0225
▁Výhod	-11.0225
▁úz	-11.0231
▁nedělní	-11.0235
▁procento	-11.0243
rgi	-11.0244
▁chová	-11.0245
▁Malý	-11.0247
▁66	-11.0249
▁vzdálené	-11.0251
▁typické	-11.0253
▁programem	-11.0256
▁kulturních	-11.026
BA	-11.0261
▁zaplatil	-11.0262
tání	-11.0266
▁Les	-11.0267
▁připraveni	-11.0269
vané	-11.0272
▁zaměstnanec	-11.0273
▁zabývají	-11.0274
▁Rozhod	-11.0279
▁Kol	-11.0285
kování	-11.0288
HA	-11.0291
▁trvalo	-11.0291
bíral	-11.0294
▁kabinet	-11.0297
▁rozpor	-11.0298
▁sortiment	-11.0301
▁doplň	-11.0303
▁poskytnut	-11.0305
▁Možnost	-11.0307
▁tráv	-11.0308
▁určena	-11.0308
rez	-11.031
poví	-11.0311
ďte	-11.0312
▁snížen	-11.0315
▁kontrol	-11.0315
▁trati	-11.0319
▁vstupní	-11.0323
▁obrazovk	-11.0323
ston	-11.0329
▁okrese	-11.0334
▁daný	-11.0335
bran	-11.0335
▁malého	-11.034
▁reagoval	-11.0344
▁většího	-11.0347
▁vzhled	-11.0349
▁utrpěl	-11.0351
▁červené	-11.0353
▁absolvent	-11.0354
▁Vítěz	-11.0356
▁hloubk	-11.0356
bod	-11.0356
▁skladb	-11.0357
hem	-11.0358
▁republiku	-11.0361
▁svěřen	-11.0364
ŘÍ	-11.0373
▁specifik	-11.0374
▁krátký	-11.0374
▁architekt	-11.0374
▁šat	-11.0375
bývající	-11.0378
▁Rakušan	-11.0379
▁Thajsk	-11.0379
▁dodatečně	-11.0379
▁důležitá	-11.0379
▁fotoaparát	-11.0379
▁franků	-11.0379
▁inspekce	-11.0379
▁instalace	-11.0379
▁konstrukce	-11.0379
▁majetkem	-11.0379
▁pohledávek	-11.0379
▁redakce	-11.0379
▁upozornit	-11.0379
▁vyšetření	-11.0379
▁Bejbl	-11.0379
▁nezměnil	-11.0379
▁stupňů	-11.0379
▁zoufal	-11.0379
▁Vedoucí	-11.0379
▁Temelín	-11.0379
▁zkratk	-11.0379
▁pojmů	-11.0379
▁Průměrn	-11.0379
▁stovek	-11.0379
▁vyvinul	-11.0379
▁dvojnásobn	-11.0379
▁DPH	-11.0379
▁přežít	-11.0379
▁vojsk	-11.0379
▁certifikát	-11.0379
▁sehrál	-11.0379
▁jedince	-11.0379
▁Asociac	-11.0379
▁audio	-11.0379
▁Řešení	-11.0379
▁uváděn	-11.0379
▁chápat	-11.0379
▁kvalifikační	-11.0379
▁1984	-11.0379
▁Prostě	-11.0379
▁našim	-11.0379
▁restaurace	-11.0379
▁sněhov	-11.0379
▁formální	-11.0379
▁1968	-11.0379
▁nejmenší	-11.038
▁Rád	-11.038
▁1986	-11.038
▁něčem	-11.038
▁modem	-11.0381
▁poznatků	-11.0381
▁nohy	-11.0381
▁spolupracovat	-11.0381
▁složité	-11.0382
▁německá	-11.0382
▁III	-11.0382
▁května	-11.0382
▁3,5	-11.0383
▁nápis	-11.0383
▁Tedy	-11.0384
nutit	-11.0384
▁zlaté	-11.0385
▁žáků	-11.0385
▁rychlejší	-11.0385
▁marně	-11.0385
▁Bill	-11.0386
▁podzemní	-11.0387
▁Sovětský	-11.0388
▁sláv	-11.0388
▁DEM	-11.0389
▁upravit	-11.0391
▁kvalifikovan	-11.0391
▁mírový	-11.0391
▁legislativní	-11.0391
▁nájemce	-11.0392
▁Potom	-11.0392
▁platební	-11.0392
▁rozhlas	-11.0393
▁odstranění	-11.0393
▁užitek	-11.0393
tický	-11.0395
▁volbami	-11.0396
▁vyvolat	-11.0397
▁ruku	-11.0398
▁rozložení	-11.0399
▁Belgie	-11.0399
▁manželka	-11.04
▁bilance	-11.04
▁oznámení	-11.0402
skými	-11.0403
▁měny	-11.0407
▁Nejen	-11.0407
▁Bre	-11.0408
▁potřebu	-11.0409
rušení	-11.041
14	-11.041
▁Jedná	-11.0411
tika	-11.0412
▁jevů	-11.0414
▁elektřiny	-11.0417
▁Nejdřív	-11.0419
▁osobností	-11.042
▁Lux	-11.042
▁poslanecké	-11.0421
▁hrubého	-11.0423
▁týdeník	-11.0427
▁centrál	-11.043
▁návštěvy	-11.043
▁ostrovy	-11.043
▁vložit	-11.043
▁Japonsku	-11.0433
▁Německem	-11.0434
vyšších	-11.0441
▁demokratů	-11.0442
▁bio	-11.0445
▁linky	-11.0446
▁samotný	-11.0447
▁koalici	-11.0448
▁vedlo	-11.0451
▁aktivita	-11.0453
▁stejná	-11.0454
▁kapacity	-11.0457
▁výstavbu	-11.0457
tisícov	-11.0459
▁bezprostřední	-11.0461
měnit	-11.0464
▁oborů	-11.0465
▁Výstava	-11.0465
▁polohy	-11.0467
▁základním	-11.0468
▁půdu	-11.047
hraje	-11.0471
▁Či	-11.0482
▁zní	-11.0482
▁uplynulý	-11.0483
PS	-11.0484
▁výběrem	-11.0485
▁Nic	-11.0489
▁oceánu	-11.0489
iletá	-11.0491
▁iniciativ	-11.0492
▁monitoru	-11.0495
tiky	-11.0498
tisknout	-11.0498
▁nastavit	-11.0501
▁velitel	-11.0504
▁orgánu	-11.0506
▁of	-11.0507
▁fotbalových	-11.0507
jedna	-11.051
▁primátora	-11.0512
▁obvodu	-11.0514
▁zvol	-11.0516
▁mez	-11.052
▁specializovan	-11.0521
▁konflikt	-11.0521
▁vůdce	-11.0522
▁Met	-11.0524
▁skutečností	-11.0525
▁evropského	-11.0536
dáme	-11.0539
▁rozv	-11.054
íků	-11.054
▁skupinou	-11.0545
▁obdobné	-11.055
cházelo	-11.0555
▁Zda	-11.0556
▁dokumenty	-11.0557
▁zakladatel	-11.0564
▁metru	-11.0565
lip	-11.0566
▁sportovních	-11.0566
▁700	-11.0572
svědčil	-11.0573
▁učí	-11.0574
ějších	-11.0575
▁hvězdy	-11.0584
▁podrob	-11.0586
▁Sol	-11.0588
▁trvalé	-11.0597
▁šedesáti	-11.0603
▁základy	-11.0604
▁historick	-11.0604
ÁT	-11.0605
▁plány	-11.0606
▁Rady	-11.0606
prodej	-11.0607
zákon	-11.061
▁císař	-11.061
▁číst	-11.0613
▁zvukové	-11.0613
▁zdravotnický	-11.0615
▁mořský	-11.0618
▁Norsk	-11.0622
▁připustil	-11.0626
▁staví	-11.0631
jte	-11.0631
▁Jediný	-11.0633
▁současném	-11.0635
▁známe	-11.0637
poslední	-11.0645
▁Bílé	-11.0648
valy	-11.0649
▁rozvoji	-11.0652
▁div	-11.0655
.12.	-11.0659
▁silnic	-11.0663
36	-11.0665
nových	-11.0669
▁vyloučen	-11.0669
▁listy	-11.0673
▁dolar	-11.0678
▁stole	-11.068
▁paliv	-11.0681
▁podstatný	-11.0682
▁délk	-11.0683
místě	-11.0684
▁tvrd	-11.0688
▁alkohol	-11.069
▁beze	-11.069
ess	-11.0691
▁zápis	-11.0691
▁vzrůst	-11.0692
▁chlad	-11.0692
▁původním	-11.0698
nder	-11.0699
▁dozvěděl	-11.0703
▁porážk	-11.0705
▁vím	-11.0715
▁Kam	-11.0718
hruba	-11.0727
▁64	-11.0727
▁vzniknou	-11.0731
▁klientů	-11.0732
▁malým	-11.0732
▁vybírá	-11.0734
ňoval	-11.0734
▁Stran	-11.0735
dají	-11.0743
▁ozdob	-11.0744
ctví	-11.0746
▁Motor	-11.0748
▁britsk	-11.0749
▁filozof	-11.0751
▁uvedeno	-11.0752
telné	-11.0754
▁motocykl	-11.0758
▁23.	-11.0759
▁předal	-11.076
▁Boj	-11.0764
▁interpret	-11.0765
▁doporučuje	-11.0766
▁minuty	-11.0767
▁zřetel	-11.0778
▁brambor	-11.0779
▁domnívají	-11.0779
▁firmám	-11.0779
▁hovořit	-11.0779
▁naštěstí	-11.0779
▁nežádoucí	-11.0779
▁ovlivňují	-11.0779
▁označuje	-11.0779
▁posuzovat	-11.0779
▁převzít	-11.0779
▁radikální	-11.0779
▁spoluhráč	-11.0779
▁uplatnit	-11.0779
▁zázemí	-11.0779
▁EuroTel	-11.0779
▁energetik	-11.0779
▁komponent	-11.0779
▁odlišný	-11.0779
▁Poborský	-11.0779
▁Sociální	-11.0779
▁efektivní	-11.0779
▁nevědí	-11.0779
▁kamarád	-11.0779
▁připomínk	-11.0779
▁redaktor	-11.0779
▁viditeln	-11.0779
▁Domácí	-11.0779
▁učinit	-11.0779
▁zásilk	-11.0779
▁Musel	-11.0779
▁pokoušel	-11.0779
▁nestačil	-11.0779
▁sněžení	-11.0779
▁nejrychlejší	-11.0779
▁Šéf	-11.0779
▁forem	-11.0779
▁slyšet	-11.0779
▁prodlení	-11.0779
▁škál	-11.0779
▁ztracen	-11.0779
▁Slavii	-11.0779
▁vracet	-11.0779
▁rysy	-11.0779
▁dlouhodobý	-11.0779
▁stránek	-11.0779
▁dubnu	-11.0779
▁záloh	-11.0779
▁obrazovce	-11.078
▁Grand	-11.078
▁podílejí	-11.078
▁studií	-11.078
▁Objekt	-11.078
▁přál	-11.078
▁občanství	-11.0781
▁souhrn	-11.0781
ues	-11.0782
▁Vesel	-11.0782
▁dohad	-11.0783
▁přizpůsobit	-11.0783
▁obrázku	-11.0783
▁Číny	-11.0784
▁zjistí	-11.0787
▁pracovnice	-11.0789
▁Okresní	-11.079
▁Všechno	-11.0791
▁písemně	-11.0791
▁fronty	-11.0791
▁rejstříku	-11.0791
▁stavbu	-11.0793
▁připravena	-11.0793
▁dobách	-11.0795
▁každodenní	-11.0795
▁převoz	-11.0796
▁podnikat	-11.0797
▁regulace	-11.0797
▁demokraté	-11.0798
▁prodloužení	-11.0798
▁vezme	-11.0798
▁včerejším	-11.0799
▁osvobození	-11.0799
▁Druhou	-11.08
ukce	-11.0801
▁Kalvoda	-11.0804
▁Roman	-11.0804
▁zpěvák	-11.0806
▁Dohod	-11.0807
▁zvěř	-11.0808
▁znalostí	-11.0808
▁Zelen	-11.0809
▁Wimbledonu	-11.0809
▁klima	-11.081
▁teplotě	-11.0811
▁kritéria	-11.0812
▁ukládání	-11.0812
▁summitu	-11.0813
▁předmětů	-11.0814
▁orientaci	-11.0817
▁zbrojní	-11.0817
▁Nor	-11.0819
▁plyne	-11.0819
▁nemovitosti	-11.082
▁výjimky	-11.0825
▁náhradu	-11.0825
žádají	-11.0827
▁tvaru	-11.0835
mus	-11.0838
▁obchodníci	-11.084
▁předměty	-11.084
▁přítel	-11.0841
▁ztrátou	-11.0843
cal	-11.0845
iček	-11.0849
▁jednalo	-11.0852
▁módní	-11.0853
▁Dán	-11.0857
▁vůz	-11.0859
▁úplné	-11.0861
▁resortu	-11.0862
▁Pražského	-11.0864
▁snažili	-11.0866
▁dávk	-11.0869
▁bolest	-11.0869
▁divu	-11.0871
▁sboru	-11.0875
CA	-11.0878
▁smích	-11.0879
tle	-11.0881
▁sjezdu	-11.0882
▁47	-11.0883
▁překvapil	-11.0885
▁poslal	-11.0885
▁zvuku	-11.0886
▁celkovém	-11.0889
▁chci	-11.0891
▁návštěva	-11.0891
▁KON	-11.0892
▁odbory	-11.0892
vice	-11.0893
▁Celkov	-11.0899
▁13.	-11.09
vých	-11.09
▁světla	-11.0901
sion	-11.0909
▁Spo	-11.091
pořád	-11.091
▁zrušen	-11.0911
▁představil	-11.0914
▁známých	-11.0916
konala	-11.0918
▁vyhlídk	-11.092
ork	-11.0922
▁Michaela	-11.0922
▁mapy	-11.0927
▁konto	-11.0929
▁věty	-11.093
▁sestavení	-11.093
▁zdi	-11.0933
▁kandidáty	-11.0935
▁úspory	-11.0935
▁důkazy	-11.0935
▁německém	-11.0935
splnění	-11.0939
▁odpovědn	-11.0943
▁olympijsk	-11.0943
▁příspěvk	-11.0944
▁planety	-11.0944
▁charakteru	-11.0946
▁domluv	-11.0949
▁prvé	-11.0953
jdu	-11.0954
▁některý	-11.0956
▁vyhlášen	-11.0957
▁bojů	-11.0958
▁samot	-11.0961
▁úkoly	-11.0961
▁špičkové	-11.0965
▁Ostravar	-11.0969
▁předchozích	-11.0971
▁Fotbal	-11.0975
▁hráli	-11.0976
▁tip	-11.0979
▁Čechů	-11.0988
ptal	-11.0988
▁Ben	-11.099
čern	-11.0991
bylo	-11.0998
▁rud	-11.1004
▁investorů	-11.1005
▁účastník	-11.1007
▁přestáv	-11.1008
▁sedí	-11.1009
▁maďarský	-11.1009
▁procesor	-11.1021
stává	-11.1021
noví	-11.1031
OST	-11.1032
IST	-11.1033
ámek	-11.1034
▁textové	-11.1035
▁uměle	-11.1035
▁metra	-11.1036
▁evropském	-11.1037
▁přiměřen	-11.104
▁Die	-11.1042
▁skládá	-11.1046
▁Sovětském	-11.1054
vládne	-11.1063
končit	-11.1067
jal	-11.1073
7,	-11.1073
▁provede	-11.1075
kazují	-11.1076
▁koalic	-11.1079
▁plic	-11.108
psaný	-11.1083
▁okolnost	-11.1087
▁drah	-11.1092
▁naším	-11.1095
▁obyvatele	-11.1095
▁typický	-11.1097
▁vstoupit	-11.1098
▁modern	-11.11
▁magistrát	-11.1107
▁vysoko	-11.1108
▁všeobecné	-11.1114
ica	-11.1116
▁řízen	-11.1118
▁mód	-11.1119
▁pru	-11.1121
▁výkonů	-11.1122
▁Pražský	-11.1128
▁volejbal	-11.1131
▁podílí	-11.1132
▁nedal	-11.1134
▁symbolick	-11.1135
▁osvět	-11.1143
▁uživatelů	-11.1146
bezpeč	-11.115
▁pracovníka	-11.115
▁scénář	-11.1154
▁uvede	-11.1155
▁chyt	-11.1156
front	-11.1158
▁kontakt	-11.1161
▁závodní	-11.1164
▁autora	-11.1164
▁mechanismu	-11.1165
Ile	-11.1166
lární	-11.1166
▁Mimo	-11.1169
lic	-11.1171
▁objektiv	-11.1171
▁Stal	-11.1179
šetřit	-11.118
▁komunisti	-11.118
ěsíční	-11.118
▁distribu	-11.1182
▁oleje	-11.1184
▁společník	-11.1185
ečná	-11.1185
▁sklo	-11.1187
lidov	-11.1188
▁Jedn	-11.1189
▁Svobod	-11.119
▁Ján	-11.119
OP	-11.1191
▁statut	-11.1195
mýšlí	-11.1195
▁Finanční	-11.1195
▁Intergraph	-11.1195
▁Lebeď	-11.1195
▁Pithart	-11.1195
▁Srbů	-11.1195
▁asistent	-11.1195
▁atentát	-11.1195
▁bližší	-11.1195
▁církvi	-11.1195
▁dovednost	-11.1195
▁dědictví	-11.1195
▁jazz	-11.1195
▁konferencí	-11.1195
▁nepřetržit	-11.1195
▁nábytku	-11.1195
▁nárůst	-11.1195
▁odpovědí	-11.1195
▁ovlivněn	-11.1195
▁reagovat	-11.1195
▁schůzi	-11.1195
▁softwaru	-11.1195
▁strategii	-11.1195
▁vytvářejí	-11.1195
▁zpátky	-11.1195
▁zálivu	-11.1195
▁říjnu	-11.1195
▁žádoucí	-11.1195
▁CADKON	-11.1195
▁Zjuganov	-11.1195
▁fenomén	-11.1195
▁komunální	-11.1195
▁nejstarší	-11.1195
▁otevírá	-11.1195
▁uzavírá	-11.1195
▁vyznačuj	-11.1195
▁Mazda	-11.1195
▁nezaměstnaných	-11.1195
▁splatnosti	-11.1195
▁nízká	-11.1195
▁nádor	-11.1195
▁zpomal	-11.1195
▁dokáží	-11.1195
▁technologii	-11.1195
▁Vídni	-11.1195
▁splnit	-11.1195
▁Mencl	-11.1195
▁zůstanou	-11.1195
▁zazněl	-11.1195
▁navrhnout	-11.1195
▁náprav	-11.1195
▁kombinaci	-11.1195
▁stůl	-11.1196
▁diagram	-11.1196
▁Praktick	-11.1196
▁rozsáhlý	-11.1196
▁zařadil	-11.1196
▁maximum	-11.1196
▁komunikaci	-11.1196
▁přednášk	-11.1196
▁Charles	-11.1196
▁délce	-11.1196
▁kondom	-11.1196
▁trpí	-11.1196
▁vrchní	-11.1196
▁ligové	-11.1196
kryje	-11.1197
▁nastat	-11.1197
▁objeven	-11.1198
▁okresů	-11.1198
▁zahrnut	-11.1198
▁bance	-11.1199
▁interval	-11.1199
▁otec	-11.1199
charakterizuj	-11.12
▁simul	-11.12
▁podmíněn	-11.12
ED	-11.12
▁odmítají	-11.12
▁fotbalov	-11.12
hodnotit	-11.12
▁kreslení	-11.12
▁zvolit	-11.1201
▁jmenuje	-11.1201
▁jevy	-11.1201
▁nejvýše	-11.1202
▁vyrovnal	-11.1202
biologie	-11.1202
schválila	-11.1204
▁Stručně	-11.1204
▁Polsko	-11.1204
▁blesk	-11.1205
▁živočichů	-11.1205
ker	-11.1205
▁ponechat	-11.1206
▁pohybovat	-11.1207
krás	-11.1208
▁šestnácti	-11.1209
▁kilogramů	-11.1209
▁obchodování	-11.121
▁odejít	-11.1211
▁mrav	-11.1212
▁respektovat	-11.1212
▁Bank	-11.1212
▁Vstup	-11.1215
▁dočasně	-11.1217
▁Brazílie	-11.1221
oprvé	-11.1221
▁květin	-11.1222
▁postižených	-11.1224
▁Postup	-11.1225
▁energetické	-11.1226
příkladu	-11.1226
▁pádu	-11.1229
▁jistou	-11.1231
▁zakázky	-11.1231
▁potřebujeme	-11.1232
▁dokončení	-11.1232
▁poskytování	-11.1232
▁vámi	-11.1232
▁Chci	-11.1233
být	-11.1233
▁padesátých	-11.1239
▁vkladů	-11.1239
▁kontrole	-11.124
▁zastavení	-11.1242
▁Pen	-11.1244
▁vyhlášení	-11.1244
▁představoval	-11.1245
▁chodb	-11.1247
▁zaplacení	-11.1247
▁účinnosti	-11.1254
▁uložit	-11.1257
▁rozumn	-11.1257
▁kongresu	-11.1258
▁předcházel	-11.1258
▁projeví	-11.1261
plnění	-11.1261
▁Kniha	-11.1262
▁vozidla	-11.1262
▁plát	-11.1263
stupující	-11.1265
▁valné	-11.1266
▁schématu	-11.1266
▁míra	-11.127
▁Spor	-11.1271
▁KB	-11.1273
▁statistické	-11.1275
▁katolické	-11.1277
▁služební	-11.1278
▁probíhal	-11.1279
▁uplynul	-11.128
▁titulů	-11.1281
losování	-11.1284
▁velkém	-11.1289
▁zaměřen	-11.1293
▁Dan	-11.1295
▁šíř	-11.1295
▁nemocný	-11.1297
▁integr	-11.1297
▁resort	-11.1298
▁lidu	-11.1298
▁listů	-11.1298
▁niž	-11.1299
▁specifické	-11.1301
▁jasný	-11.1307
ložili	-11.1307
hodit	-11.1313
▁hale	-11.1316
▁řešením	-11.1317
▁sezón	-11.132
▁fotograf	-11.1322
▁předpokladu	-11.1323
ňovat	-11.1325
▁nápady	-11.1325
▁obtížně	-11.1325
▁hrd	-11.1325
▁testy	-11.1327
▁dokázali	-11.1333
IP	-11.1336
▁rodinu	-11.1336
novými	-11.1337
▁vzá	-11.134
▁reklam	-11.134
▁určení	-11.1353
levo	-11.1354
▁brankáře	-11.1355
▁Jistě	-11.1359
▁držet	-11.1361
▁růstem	-11.1365
▁dodavatele	-11.1366
▁sousedů	-11.1369
▁přijímá	-11.1369
▁tváří	-11.1371
▁čtenáři	-11.1371
▁britský	-11.1374
▁zajímavý	-11.1376
▁reprezentanti	-11.1385
▁zabývající	-11.1385
▁bývají	-11.1387
▁společných	-11.1389
▁jedenácti	-11.1394
▁Mír	-11.1397
▁objevily	-11.1397
▁šla	-11.1398
▁neměly	-11.1404
ung	-11.1405
▁hotely	-11.1406
▁přijala	-11.1407
▁odpovídal	-11.1409
98	-11.141
cími	-11.1412
▁stejných	-11.1412
pochyby	-11.1414
▁vědu	-11.1426
▁zvýšila	-11.1426
▁Prvním	-11.1429
▁osudu	-11.1429
▁snaz	-11.144
▁odmítli	-11.1441
▁vydá	-11.1442
▁divák	-11.1443
▁Než	-11.1444
▁vznikající	-11.1444
dová	-11.1447
▁spotřebitele	-11.1448
▁figur	-11.1453
▁nazýva	-11.1455
▁únik	-11.1456
▁přidal	-11.1458
▁190	-11.146
▁jazyka	-11.146
▁ÚV	-11.1462
▁pravidelné	-11.1463
PI	-11.1464
Gar	-11.1464
▁zeměmi	-11.1464
▁schéma	-11.1467
lci	-11.147
▁úvah	-11.147
▁astronomi	-11.1476
▁klíče	-11.148
:3	-11.1481
Severoatlantické	-11.1482
▁vázán	-11.1484
▁Johna	-11.1486
▁zahájen	-11.1488
stavení	-11.1488
26	-11.149
▁sedmnáct	-11.1492
▁expert	-11.1492
▁stála	-11.1496
usi	-11.1497
▁zvířata	-11.15
▁záchran	-11.1502
učili	-11.1505
▁našli	-11.1507
21	-11.1511
▁odchod	-11.1511
▁Paříž	-11.1514
▁Har	-11.1515
▁zmizel	-11.1521
▁1994.	-11.1524
▁podnikatelsk	-11.1528
▁dosti	-11.1529
▁znak	-11.1532
▁větr	-11.1534
následuj	-11.1536
▁pokusy	-11.1539
kova	-11.1539
▁vládních	-11.1539
nili	-11.1541
▁měřítk	-11.1543
▁katolick	-11.1545
▁hrdin	-11.1551
▁dres	-11.1553
▁jízd	-11.1553
kupovat	-11.1553
▁zvukov	-11.1554
▁nevěděl	-11.1555
▁novinářů	-11.1555
JE	-11.1557
▁dividend	-11.1557
▁teplot	-11.1562
▁Pozor	-11.1565
▁požadovaný	-11.1566
▁Volb	-11.1568
▁konkrétním	-11.1571
▁urychlen	-11.1573
▁pokládá	-11.1574
▁získává	-11.1576
ební	-11.1576
▁hráčem	-11.1577
▁tiskov	-11.1578
▁Zemana	-11.1579
vádět	-11.1582
▁prováděn	-11.1584
▁zkušen	-11.1594
▁nemám	-11.1598
▁pracující	-11.1599
může	-11.16
díval	-11.1605
▁návrhů	-11.1605
▁každým	-11.1605
▁nositel	-11.1606
▁obsluh	-11.1607
▁duch	-11.1607
skému	-11.1609
▁císaře	-11.1609
▁Invest	-11.1611
čnost	-11.1612
zapomněl	-11.1616
celku	-11.162
stávat	-11.1622
znamená	-11.1624
▁nižších	-11.1625
nášejí	-11.1625
▁říkají	-11.1626
▁pozdě	-11.1627
▁nesmysl	-11.1629
dostatečnou	-11.163
střílel	-11.163
▁Demokratick	-11.163
▁Majitel	-11.163
▁Nedvěd	-11.163
▁Ostatní	-11.163
▁Počítač	-11.163
▁Tigrid	-11.163
▁byznys	-11.163
▁cizince	-11.163
▁galerii	-11.163
▁hlubší	-11.163
▁kompetence	-11.163
▁konstatuje	-11.163
▁literární	-11.163
▁metropole	-11.163
▁nejmodernější	-11.163
▁nejznámější	-11.163
▁nominální	-11.163
▁podpořit	-11.163
▁polojasno	-11.163
▁požadoval	-11.163
▁požadovat	-11.163
▁semifinále	-11.163
▁složek	-11.163
▁strategií	-11.163
▁udržuje	-11.163
▁vojáci	-11.163
▁zveřejnil	-11.163
▁šablon	-11.163
▁Bratislava	-11.163
▁Dříve	-11.163
▁charakteristik	-11.163
▁hypotéz	-11.163
▁stránky	-11.163
▁vyhovuje	-11.163
▁divadle	-11.163
▁kodex	-11.163
▁nevidí	-11.163
▁otevřít	-11.163
▁vystřídal	-11.163
▁údolí	-11.163
▁patřičn	-11.163
▁rytíř	-11.163
▁počínaj	-11.163
▁doporučil	-11.163
▁poplatek	-11.163
▁představenstva	-11.163
▁vyrovnat	-11.163
▁Jugoslávie	-11.163
▁Komerčn	-11.163
▁podobná	-11.163
▁stoupá	-11.163
▁čtvrteční	-11.163
▁nízký	-11.163
▁Prodej	-11.163
▁NDR	-11.163
▁štáb	-11.163
▁nejhorší	-11.163
▁fotografie	-11.163
▁počkat	-11.163
▁potravinářské	-11.163
povídat	-11.1631
▁nátlak	-11.1631
▁nápoj	-11.1631
▁přijme	-11.1631
▁Maďarsku	-11.1631
▁ničem	-11.1631
▁zaručen	-11.1631
▁generací	-11.1631
▁ekonomická	-11.1631
▁reaktor	-11.1631
▁malíř	-11.1631
▁bohatství	-11.1631
▁Marie	-11.1632
▁radnici	-11.1632
▁Začal	-11.1632
▁logické	-11.1632
▁jezdit	-11.1632
▁lodi	-11.1632
▁nedostatku	-11.1632
▁neděle	-11.1632
▁vyhnout	-11.1632
▁dozor	-11.1633
▁Ruml	-11.1633
▁obřad	-11.1633
▁Uveden	-11.1633
▁dešti	-11.1634
▁peset	-11.1635
▁uvědomit	-11.1637
▁cement	-11.1637
▁odvet	-11.1638
▁Africe	-11.1638
▁novinách	-11.1638
▁okresy	-11.1639
▁předcházející	-11.1639
padesát	-11.1639
▁položky	-11.1639
▁elektron	-11.164
▁prodejny	-11.1641
▁závazky	-11.1642
▁oborech	-11.1642
▁podílet	-11.1642
▁přelom	-11.1642
▁verzí	-11.1643
▁změnám	-11.1643
nášel	-11.1644
▁kvalitou	-11.1645
▁tabulka	-11.1646
▁krut	-11.1646
▁centimetrů	-11.1646
▁zlatý	-11.1646
hrává	-11.1648
tp	-11.1649
▁zvaný	-11.1649
▁nemovitostí	-11.165
▁překvapivě	-11.1651
▁Žid	-11.1651
▁armádě	-11.1651
▁dodržování	-11.1652
▁pout	-11.1652
▁fotbalisté	-11.1653
▁spravedliv	-11.1654
▁složitý	-11.1654
▁ukládá	-11.1654
▁oddíl	-11.1656
▁uvádějí	-11.1657
visí	-11.1657
▁plánování	-11.1659
▁seriálu	-11.166
▁mládeže	-11.166
▁IV	-11.1664
▁Dopravní	-11.1665
▁návštěvnost	-11.1666
▁vyjde	-11.1667
▁ocenění	-11.1668
▁výměnu	-11.1669
▁skalní	-11.1669
▁průběžn	-11.167
▁referendum	-11.1671
▁členům	-11.1672
▁šed	-11.1673
▁zkušební	-11.1675
▁Excelu	-11.1675
▁tvarů	-11.1675
▁úzk	-11.1677
▁přidat	-11.1679
▁propojení	-11.1679
▁zdravotním	-11.1682
▁hmotnosti	-11.1683
ručí	-11.1684
▁Host	-11.1685
▁trenérů	-11.1686
▁vozu	-11.1694
▁vedoucích	-11.1699
▁řekne	-11.1702
▁předchozím	-11.1702
▁pedagog	-11.1702
▁přijatelné	-11.1702
▁budově	-11.1703
▁zubní	-11.1703
loni	-11.1704
▁lesa	-11.1708
▁Karlov	-11.1708
▁Brod	-11.171
▁materiálem	-11.171
▁psychiatr	-11.1712
▁hrou	-11.1715
▁stadiónu	-11.1715
▁dolů	-11.1716
▁magistrátu	-11.1723
▁novely	-11.1724
▁klasick	-11.1727
▁energetický	-11.1727
▁podzimní	-11.1728
▁procesoru	-11.1729
▁narazil	-11.173
▁menu	-11.1731
▁52	-11.1735
CP	-11.1736
▁zřízení	-11.1739
▁evropským	-11.1741
▁Potřebuje	-11.1744
▁dav	-11.1746
▁komu	-11.1747
▁výhodu	-11.175
▁známá	-11.1752
▁západním	-11.1753
▁Budou	-11.1753
▁vloni	-11.1754
▁krokem	-11.1758
▁celostátní	-11.1759
▁Nizozemsk	-11.176
▁obchodníků	-11.1766
▁stávající	-11.1766
▁klíčový	-11.1766
▁Ter	-11.1769
dent	-11.1769
▁zdát	-11.177
▁premiéru	-11.177
jíždí	-11.177
▁čínský	-11.1773
▁básník	-11.1775
▁odpovědnosti	-11.1775
▁jakož	-11.1778
▁5000	-11.178
▁projevy	-11.1781
▁jugoslávské	-11.1781
▁ranní	-11.1782
▁SV	-11.1783
▁strávil	-11.179
ávali	-11.1792
▁starého	-11.1793
▁zvýšily	-11.1793
▁rozpočtové	-11.1794
▁studenty	-11.1794
▁ekologický	-11.1795
▁sál	-11.1795
▁vytvořila	-11.1796
wan	-11.1797
míněn	-11.1797
▁tvůrc	-11.1797
▁barva	-11.1798
▁záměry	-11.1798
▁sestavy	-11.1799
▁prožil	-11.1802
▁loňsk	-11.1809
DOS	-11.1813
ozi	-11.1815
▁černý	-11.1816
ěné	-11.1817
ČNÍ	-11.1818
▁úpravu	-11.1821
▁snadné	-11.1823
▁muselo	-11.1824
▁obecný	-11.1824
plynul	-11.1828
▁svobodn	-11.1828
▁plocha	-11.1831
▁aktivitu	-11.1831
▁přírodního	-11.1831
▁jest	-11.1831
▁ředitelem	-11.1836
SP	-11.1838
▁správce	-11.1843
munist	-11.1843
přijeli	-11.1845
▁objevili	-11.1848
▁260	-11.1849
platí	-11.185
hlédnout	-11.1852
▁výstavb	-11.1857
▁doplňk	-11.1859
▁volí	-11.1861
nin	-11.1864
riti	-11.1864
▁bit	-11.1869
▁procesy	-11.1871
▁Mag	-11.1878
▁Rok	-11.1879
▁překvap	-11.1882
▁přehledu	-11.1886
isty	-11.1887
otisk	-11.1891
▁závody	-11.1891
▁scén	-11.1892
užit	-11.1893
▁Ir	-11.1896
SM	-11.1897
▁syna	-11.1898
▁28.	-11.1904
▁Spart	-11.1905
,7	-11.1906
▁přesvědč	-11.192
▁fyzika	-11.1922
ino	-11.1924
▁43	-11.1926
▁světeln	-11.1928
razil	-11.1929
▁světov	-11.1929
▁vystupuj	-11.1929
▁měří	-11.1932
▁krále	-11.1932
PT	-11.1936
ářství	-11.1936
zývají	-11.1937
▁přesvědčiv	-11.1937
▁významným	-11.1945
iner	-11.1945
▁zmíněn	-11.1947
▁výtvarné	-11.195
▁konkrétních	-11.195
slyš	-11.195
áty	-11.1957
▁nebezpečný	-11.1967
▁horské	-11.1976
▁minulost	-11.198
▁stimul	-11.198
▁znalost	-11.198
▁softwarov	-11.1985
▁kroku	-11.1988
▁jednáních	-11.1989
▁údržb	-11.1996
▁Své	-11.1996
▁vyskytují	-11.1996
▁rozhodnutím	-11.1996
▁stadión	-11.1996
▁okruh	-11.1997
zaměstnan	-11.1997
▁obrazy	-11.1998
▁jist	-11.1999
ativní	-11.2005
▁setká	-11.2006
▁zub	-11.2007
▁ZÁ	-11.2008
▁sledoval	-11.2009
▁člověku	-11.2014
▁rozpad	-11.2014
▁datové	-11.2022
▁optim	-11.2023
▁slab	-11.2024
▁Win	-11.2024
prostřed	-11.2027
▁Mor	-11.2029
▁volebním	-11.2029
▁Aleš	-11.2035
▁dřev	-11.204
jmenovaný	-11.2042
45	-11.2043
▁99	-11.2046
▁stě	-11.2049
▁odložen	-11.2051
▁doplněn	-11.2051
▁zpěv	-11.2053
▁zkresl	-11.2055
lské	-11.2055
▁převážn	-11.2055
▁stín	-11.2055
▁Mé	-11.2057
povídají	-11.2058
▁grafik	-11.2059
važoval	-11.2059
hrají	-11.2061
▁kouř	-11.2062
▁přesahuj	-11.2062
▁prodejem	-11.2064
líbil	-11.2067
▁Mečiar	-11.2073
ografie	-11.2074
▁interak	-11.2075
ejít	-11.2076
▁dopise	-11.2081
▁neumí	-11.2083
▁texty	-11.2083
▁velkoobchod	-11.2084
▁Manažer	-11.2085
FIFA	-11.2085
▁1982	-11.2085
▁Dienstbier	-11.2085
▁Dosavadní	-11.2085
▁Fischer	-11.2085
▁Siemens	-11.2085
▁Skupina	-11.2085
▁biskup	-11.2085
▁design	-11.2085
▁dodávek	-11.2085
▁družstvo	-11.2085
▁družstvu	-11.2085
▁geometrii	-11.2085
▁inflaci	-11.2085
▁naznačuje	-11.2085
▁neomezen	-11.2085
▁neuspěl	-11.2085
▁normálně	-11.2085
▁označován	-11.2085
▁přiznává	-11.2085
▁regenerace	-11.2085
▁rekonstrukce	-11.2085
▁rozšiřuje	-11.2085
▁rámečku	-11.2085
▁seznámit	-11.2085
▁skupenství	-11.2085
▁službě	-11.2085
▁strategické	-11.2085
▁stránku	-11.2085
▁zúčastnit	-11.2085
▁Červen	-11.2085
▁Štědrý	-11.2085
připravoval	-11.2085
▁Kongres	-11.2085
▁Poldi	-11.2085
▁konstrukcí	-11.2085
▁shodují	-11.2085
▁čistíren	-11.2085
▁Armád	-11.2085
▁Náklady	-11.2085
▁informován	-11.2085
▁vládnoucí	-11.2085
▁vstupenek	-11.2085
▁zákrok	-11.2085
▁Bavor	-11.2085
▁posléze	-11.2085
▁usiluje	-11.2085
▁uznat	-11.2085
▁velvyslanectví	-11.2085
▁skromn	-11.2085
▁vazeb	-11.2085
▁zastánc	-11.2085
▁nabídkou	-11.2085
▁žádat	-11.2085
▁jindy	-11.2085
látka	-11.2085
▁Manžel	-11.2085
▁vazba	-11.2085
▁Varech	-11.2085
▁hrůz	-11.2085
▁leckd	-11.2085
▁multi	-11.2085
▁Dušan	-11.2085
▁tribunál	-11.2085
off	-11.2085
▁Rychl	-11.2085
▁náhlé	-11.2085
▁nepotřebuje	-11.2085
▁spoléha	-11.2085
▁transformační	-11.2085
▁salát	-11.2085
▁Slavia	-11.2085
▁nesporn	-11.2085
▁duševní	-11.2085
▁směřuje	-11.2085
▁rozmístěn	-11.2086
▁regulační	-11.2086
▁chuť	-11.2086
krácen	-11.2086
▁Rozhodnutí	-11.2086
▁integrace	-11.2086
▁chaos	-11.2086
▁podrobnosti	-11.2086
▁ohně	-11.2086
střelen	-11.2087
▁nejsem	-11.2087
▁přejít	-11.2087
▁Závod	-11.2088
▁Bělohradský	-11.2088
ckner	-11.2088
▁tmav	-11.2089
▁turné	-11.2089
▁nedošlo	-11.209
▁napaden	-11.209
▁Kan	-11.209
▁kontrolovat	-11.2091
▁Těžko	-11.2091
allye	-11.2091
▁svatb	-11.2092
▁památek	-11.2093
▁strop	-11.2093
▁Milán	-11.2094
▁slunce	-11.2094
▁atmosféra	-11.2096
Přerov	-11.2096
enc	-11.2097
▁středisko	-11.2097
▁Nadace	-11.2097
▁faktory	-11.2097
▁zajistí	-11.2099
▁kůže	-11.21
▁souhlasit	-11.21
▁sedimentů	-11.2101
▁kdykoliv	-11.2103
▁37	-11.2103
▁Kolek	-11.2103
▁šedesátých	-11.2104
▁plná	-11.2105
▁Krát	-11.2106
▁dokázat	-11.2106
▁pravděpodobné	-11.2106
▁stíhán	-11.2106
▁sedmdesátých	-11.2107
▁zaslouží	-11.2107
▁upozornění	-11.2107
rážky	-11.2108
tažení	-11.211
▁staro	-11.2111
▁trvající	-11.2111
stanou	-11.2111
▁středisku	-11.2112
▁top	-11.2112
▁matka	-11.2112
▁švédské	-11.2113
▁pěkně	-11.2113
▁literatury	-11.2114
▁zbytky	-11.2114
▁Car	-11.2115
▁Las	-11.2117
kurzor	-11.2117
těsn	-11.2119
▁Los	-11.212
▁olympiádě	-11.2121
▁zveřejnění	-11.2121
jo	-11.2121
▁dostaneme	-11.2123
▁spotřebu	-11.2123
▁polské	-11.2124
▁druhému	-11.2125
▁způsobů	-11.2127
tratil	-11.2128
▁kupon	-11.213
▁zatčen	-11.2131
ňují	-11.2133
▁násiln	-11.2134
▁moři	-11.2134
▁Váš	-11.2136
▁garant	-11.2136
▁značná	-11.2138
▁luxusní	-11.2138
▁Děl	-11.2139
▁univerzitě	-11.214
▁uživatelé	-11.214
▁interní	-11.2142
▁dotazník	-11.2143
▁spolehliv	-11.2144
▁postupovat	-11.2149
▁závažný	-11.215
▁sféry	-11.2151
▁armádu	-11.2151
kání	-11.2152
▁mise	-11.2153
▁závažné	-11.2157
▁nešlo	-11.216
▁dividendy	-11.2161
▁tlakem	-11.2163
▁zuby	-11.2164
▁zničení	-11.2164
▁vyvinut	-11.2165
▁fotbalista	-11.2165
▁spojit	-11.2165
▁spojů	-11.2165
▁rozhovorů	-11.2166
▁senátní	-11.2167
▁slibuje	-11.2168
▁metodou	-11.217
potřebě	-11.2172
▁olympiády	-11.2172
▁činů	-11.2174
▁doklady	-11.2175
▁záruky	-11.2175
▁jednal	-11.2176
▁zásadě	-11.2178
▁mak	-11.2182
▁příspěvku	-11.2184
▁kout	-11.2185
▁alkoholu	-11.2186
▁fyzik	-11.2187
▁konve	-11.2187
večer	-11.2188
▁nutnosti	-11.2191
▁zodpovědnost	-11.2192
▁automobilový	-11.2192
▁elektro	-11.2194
▁mateřské	-11.2195
▁Bulharsk	-11.2198
▁ducha	-11.2199
▁samy	-11.2199
▁psycholog	-11.2201
například	-11.2201
▁úspěchem	-11.2203
▁silným	-11.2205
▁Asie	-11.2205
▁argumenty	-11.2205
▁Dub	-11.2206
▁výstavní	-11.2206
▁Změny	-11.2207
▁popisuje	-11.2208
▁Con	-11.2208
▁Fotbalist	-11.2209
▁prohlídk	-11.2211
▁Lékaři	-11.2212
▁přirozený	-11.2216
▁obory	-11.2218
biologick	-11.2219
▁pacienti	-11.222
▁popř	-11.222
▁městského	-11.2221
▁Žádn	-11.2223
▁zprávě	-11.2224
▁stopy	-11.2231
DU	-11.2231
▁spojuje	-11.2232
68	-11.2234
▁klienty	-11.2234
▁pojistného	-11.2236
▁prohráli	-11.2237
kreslen	-11.2244
▁Výrob	-11.2244
▁smluv	-11.2244
▁fakta	-11.2246
▁nastala	-11.2249
kově	-11.225
▁příslušného	-11.2252
▁závěrečném	-11.2254
▁Konce	-11.2256
schopné	-11.2261
▁výnosy	-11.2262
▁kg	-11.2263
▁pouč	-11.2267
▁daních	-11.2267
▁minutě	-11.2273
▁slovem	-11.2275
▁poradensk	-11.2275
▁republikou	-11.2276
▁nějakém	-11.2282
▁podepsali	-11.2283
▁hračk	-11.2286
▁odměn	-11.2292
řev	-11.2294
▁propad	-11.2298
▁způsoben	-11.2302
▁proudu	-11.2303
▁zahájením	-11.2308
▁tělesné	-11.2308
▁množstvím	-11.2311
▁Karlový	-11.2318
▁pokryt	-11.2319
▁manažerské	-11.2325
danou	-11.233
▁Vod	-11.2331
víme	-11.2332
▁přípravu	-11.2333
▁předmět	-11.2338
▁počátk	-11.2342
▁působ	-11.2342
teče	-11.2342
▁získaný	-11.2345
▁ekonomického	-11.2351
▁úředník	-11.2354
▁úspěchy	-11.2357
▁návrhem	-11.2358
▁Olymp	-11.2364
▁Poslanec	-11.2367
pravují	-11.2368
ini	-11.2374
▁propag	-11.2375
▁klíčové	-11.2377
▁brněnsk	-11.2377
▁závodník	-11.2382
▁Nemoh	-11.2383
▁mozkov	-11.2388
DI	-11.2402
▁propadl	-11.2408
dělat	-11.2409
▁zajímav	-11.241
▁jinému	-11.241
▁známým	-11.2413
▁22.	-11.2414
▁připraveny	-11.2417
▁podlehl	-11.242
▁Mí	-11.2423
▁uspořádal	-11.2423
▁900	-11.2428
▁takovému	-11.2428
▁hromad	-11.2433
▁psa	-11.2438
▁krátk	-11.2446
▁pěkn	-11.2451
▁Tomu	-11.2455
▁útočník	-11.2457
▁prestiž	-11.2458
▁Výstav	-11.2459
▁Kanad	-11.246
▁narozen	-11.246
▁nemohla	-11.246
▁Lá	-11.2461
▁As	-11.2461
▁získáva	-11.2462
▁nasazen	-11.2467
▁zvláštním	-11.2468
▁Washington	-11.2473
▁Karadžiče	-11.2479
▁zničen	-11.248
US	-11.2482
▁lokalit	-11.2483
ight	-11.2485
▁kroků	-11.2485
▁důvěry	-11.2486
lčí	-11.2498
▁vašem	-11.2498
▁užívá	-11.2499
▁vyřešen	-11.251
▁ulic	-11.2511
▁dosavadních	-11.2513
▁efektu	-11.2517
▁prokázal	-11.2518
▁přím	-11.2518
▁náročný	-11.2519
▁Med	-11.252
ALI	-11.252
▁oceněn	-11.2521
▁výhodn	-11.2522
šování	-11.2528
▁Vaše	-11.2528
▁vyrovná	-11.2529
▁plném	-11.2531
cvič	-11.2533
▁Řeck	-11.2535
cházející	-11.2536
anti	-11.2536
▁kuponov	-11.2545
šetří	-11.2545
následoval	-11.2548
niknout	-11.2551
nejvýš	-11.2554
▁sektor	-11.2555
nutil	-11.2556
▁Zálež	-11.256
▁organizáto	-11.256
atlantick	-11.2561
▁Blízké	-11.2561
▁Jindřich	-11.2561
▁Kreslení	-11.2561
▁aplikaci	-11.2561
▁důležitou	-11.2561
▁fosilní	-11.2561
▁kanalizace	-11.2561
▁kariéru	-11.2561
▁komunistů	-11.2561
▁konkurent	-11.2561
▁lehké	-11.2561
▁ovlivnit	-11.2561
▁podmínkám	-11.2561
▁popularit	-11.2561
▁přirozeně	-11.2561
▁referenda	-11.2561
▁snižovat	-11.2561
▁svědky	-11.2561
▁ubytovací	-11.2561
▁výpovědi	-11.2561
▁zneužití	-11.2561
zřídka	-11.2561
▁Michail	-11.2561
▁obrátit	-11.2561
▁rubrik	-11.2561
▁stupeň	-11.2561
▁jedinců	-11.2561
▁přírodu	-11.2561
▁zvyšují	-11.2561
▁nezmění	-11.2561
▁klobouk	-11.2561
▁Atlantiku	-11.2561
▁válku	-11.2561
▁kontrakt	-11.2561
▁pomůck	-11.2561
▁Dynam	-11.2561
▁budoucna	-11.2561
▁antropologie	-11.2561
▁zbaven	-11.2561
▁přídav	-11.2561
▁týče	-11.2561
▁administrativní	-11.2561
▁Karpov	-11.2561
▁Boyle	-11.2561
▁obzor	-11.2561
▁přivezl	-11.2561
▁zkrátka	-11.2561
▁kombinace	-11.2561
▁politicky	-11.2561
▁mzda	-11.2561
▁Lendl	-11.2561
▁smečky	-11.2561
▁češtině	-11.2561
▁chybět	-11.2561
▁vytížen	-11.2561
▁Středisk	-11.2561
▁hokejisté	-11.2561
▁image	-11.2561
▁Španělska	-11.2562
▁stavět	-11.2562
▁dostupné	-11.2562
▁distributor	-11.2562
▁nálad	-11.2562
▁poražen	-11.2562
▁kritický	-11.2562
▁staletí	-11.2562
▁příznivců	-11.2562
▁prapor	-11.2562
▁rozprav	-11.2562
▁zázrak	-11.2562
▁dívat	-11.2562
▁příjezd	-11.2562
▁Zdeňk	-11.2563
▁arabské	-11.2563
▁nezbývá	-11.2563
▁nohou	-11.2563
▁1980	-11.2563
▁Intel	-11.2563
▁psů	-11.2563
▁ocenil	-11.2563
▁Optima	-11.2564
▁převah	-11.2564
▁plnit	-11.2564
▁Minul	-11.2564
▁liberální	-11.2564
▁Spolu	-11.2565
▁solidní	-11.2565
▁ligový	-11.2565
▁Říká	-11.2565
▁Bro	-11.2565
▁tenisové	-11.2565
▁Příští	-11.2566
▁jídla	-11.2566
▁Maďarsko	-11.2566
▁arabský	-11.2567
sadit	-11.2567
▁Škol	-11.2567
▁setkáváme	-11.2567
▁Peck	-11.2568
abilní	-11.2568
▁2,5	-11.2568
▁Pokus	-11.2568
▁nápln	-11.2568
▁Konec	-11.2569
▁oken	-11.2569
zřetelně	-11.257
▁ráj	-11.257
kazil	-11.257
▁tabu	-11.2571
▁varování	-11.2571
▁převést	-11.2571
▁znečištění	-11.2571
▁vítr	-11.2572
▁stád	-11.2572
bydlí	-11.2573
▁sáze	-11.2573
▁matky	-11.2573
▁vyměnit	-11.2573
▁uzavřena	-11.2574
▁Krist	-11.2574
ujme	-11.2575
▁etapě	-11.2575
▁ohni	-11.2575
CO	-11.2576
75	-11.2576
▁EU	-11.2577
▁výraznější	-11.2577
▁vysvětl	-11.2577
▁uznávan	-11.2578
▁Říman	-11.2578
▁dokončen	-11.2578
▁samostatn	-11.2579
▁vojáky	-11.258
▁kurt	-11.2581
▁hlasovat	-11.2581
▁pohřeb	-11.2581
▁osnov	-11.2582
konců	-11.2582
krývají	-11.2583
▁stavba	-11.2583
▁nepřízniv	-11.2584
▁povahy	-11.2584
ENÍ	-11.2584
▁Mel	-11.2585
▁Vesmíru	-11.2585
▁jakými	-11.2586
▁podoba	-11.2587
faktor	-11.2588
▁vybudování	-11.2589
▁nepřítel	-11.259
▁vystoupí	-11.2592
▁uvolnění	-11.2592
▁polární	-11.2593
▁vyvoláva	-11.2594
▁komet	-11.2594
▁zvládnout	-11.2595
▁kanálů	-11.2596
▁chladn	-11.2596
▁vzdal	-11.2599
▁volbou	-11.2599
přesněji	-11.2599
ván	-11.2605
▁Belgii	-11.2607
▁částkou	-11.2607
▁projevu	-11.2607
▁vyšla	-11.2608
▁kluk	-11.2608
▁zobrazen	-11.2608
▁kořeny	-11.2609
▁tržby	-11.2609
▁expertů	-11.261
▁kapacitou	-11.2611
▁kapr	-11.2612
▁knížky	-11.2612
▁Předpokládá	-11.2617
▁současným	-11.2619
▁Slovák	-11.2619
▁starostí	-11.262
▁podobným	-11.2621
▁slyší	-11.2621
drželi	-11.2623
▁kontinentu	-11.2624
▁průměrně	-11.2628
▁extrémní	-11.2628
▁pes	-11.2631
▁vítěze	-11.2634
▁nemocí	-11.2634
▁úprava	-11.2635
AG	-11.2636
▁krevní	-11.264
▁předpokládal	-11.2641
▁učení	-11.2643
střih	-11.2644
▁všemu	-11.2648
▁krav	-11.2652
▁Star	-11.2655
▁významně	-11.2657
▁prestižní	-11.2665
▁Ekonomick	-11.2668
▁Kro	-11.2668
▁subjektů	-11.2669
▁krvi	-11.267
umět	-11.2674
▁horský	-11.2675
▁okraji	-11.2675
▁Voda	-11.2676
▁elektrický	-11.2685
▁odběratel	-11.2685
▁čistě	-11.2686
▁maz	-11.269
▁vytvořili	-11.2691
▁hit	-11.2691
▁obchodě	-11.2691
▁krajní	-11.2693
ňující	-11.2695
mořsk	-11.2696
▁majitelů	-11.2697
UJE	-11.2701
▁veškerý	-11.2702
▁úseku	-11.2703
pomínají	-11.2705
sin	-11.2706
▁uchazečů	-11.2706
▁En	-11.2707
▁dohodl	-11.2708
▁detailní	-11.2708
▁německým	-11.2709
▁náležit	-11.2711
▁obhájce	-11.2711
mana	-11.2711
▁zásahu	-11.2712
▁tvary	-11.2714
členné	-11.2714
▁právem	-11.2715
▁komentář	-11.2716
▁play	-11.2716
▁Chorvat	-11.2718
▁Voj	-11.2719
▁elektronické	-11.2727
▁odběratelů	-11.2727
▁přizpůsob	-11.2729
▁vedly	-11.2729
▁strukturu	-11.273
▁mechaniku	-11.273
▁přijali	-11.273
▁astronom	-11.273
▁témata	-11.2732
▁svazové	-11.2732
▁turnaji	-11.2732
pravit	-11.2733
▁dějiny	-11.2739
imochodem	-11.274
▁slev	-11.2742
▁sub	-11.2742
▁Test	-11.2746
▁manažerů	-11.2747
▁krásné	-11.2749
drží	-11.275
jov	-11.2756
▁uvedli	-11.2758
▁vlastními	-11.276
▁1500	-11.2762
řejmě	-11.2771
22	-11.2772
▁nedovol	-11.2775
▁hosty	-11.2775
▁zadní	-11.2775
▁maďarské	-11.2776
▁ztratila	-11.2776
▁konečn	-11.2777
▁relativní	-11.2779
▁záznamové	-11.2784
hne	-11.2786
místo	-11.2789
▁vydala	-11.2804
bund	-11.2805
▁Podstatn	-11.2807
▁350	-11.2812
▁okraj	-11.2823
▁náhle	-11.2825
▁vítězů	-11.2826
▁archeolog	-11.2828
koro	-11.283
ždyť	-11.2838
tvrdí	-11.284
▁poměry	-11.2847
▁125	-11.285
čkách	-11.285
slovní	-11.2852
▁Fil	-11.2852
▁obyčejný	-11.2853
▁občana	-11.2861
▁elektronický	-11.2862
▁Barn	-11.2871
▁vodě	-11.2872
▁mís	-11.2874
▁reáln	-11.2875
SKO	-11.2875
▁zabit	-11.2876
▁ráz	-11.2876
▁italsk	-11.2879
▁hotové	-11.2881
▁předání	-11.2886
pomíná	-11.2887
kazuje	-11.2888
▁jugoslávsk	-11.2889
▁kostel	-11.2892
tedy	-11.2892
▁svobodný	-11.2895
▁kontaktu	-11.2906
▁vzpomín	-11.2907
▁udržova	-11.2911
▁toku	-11.2911
▁slabý	-11.2913
▁důsledk	-11.2914
ovaném	-11.2922
▁volb	-11.293
▁staveb	-11.294
▁atomové	-11.294
▁not	-11.2946
▁Pražsk	-11.2949
▁následujícím	-11.295
▁deviz	-11.2956
▁klesl	-11.2956
▁př	-11.296
▁napadl	-11.2961
▁zachován	-11.2965
▁nejlepšího	-11.2965
▁zemědělců	-11.2972
▁Kazachstán	-11.2972
▁týkají	-11.2972
▁Svaz	-11.2974
▁prezidentský	-11.2975
▁jednotné	-11.2979
▁nejedn	-11.2979
▁totemismu	-11.298
▁hromadné	-11.298
▁zodpovědn	-11.2981
▁Jelcinov	-11.2984
▁používal	-11.2985
▁Čtyři	-11.2985
▁dramat	-11.2986
▁rakovin	-11.2987
▁sfér	-11.2989
hradit	-11.2994
▁189	-11.2997
víz	-11.2997
▁předpis	-11.2998
▁Masarykov	-11.2999
▁úhrad	-11.2999
▁biolog	-11.3
jednán	-11.3002
▁medaili	-11.3005
▁odpovídají	-11.3005
▁smrtí	-11.3006
dpověď	-11.3011
▁oddělen	-11.3016
dni	-11.3018
bude	-11.302
▁řešen	-11.3028
▁zřízen	-11.3028
▁komunismu	-11.303
novu	-11.3031
▁Bosn	-11.3042
▁Dokon	-11.3043
▁brzd	-11.3045
▁norma	-11.3047
▁kolech	-11.3048
▁Závěr	-11.305
▁stán	-11.3054
▁volit	-11.3058
▁Klepn	-11.3058
▁uvolnil	-11.3059
olicejní	-11.3059
▁dlouhodobě	-11.306
▁konzerv	-11.3061
neštěstí	-11.3061
peptid	-11.3061
▁Boleslav	-11.3061
▁Doufám	-11.3061
▁HGF	-11.3061
▁Výjimk	-11.3061
▁Výsledek	-11.3061
▁Wembley	-11.3061
▁anonymní	-11.3061
▁cizinců	-11.3061
▁definovat	-11.3061
▁dvojnásobek	-11.3061
▁dětmi	-11.3061
▁evidenci	-11.3061
▁humanitární	-11.3061
▁intenzivně	-11.3061
▁komfort	-11.3061
▁království	-11.3061
▁lhůty	-11.3061
▁nabídnut	-11.3061
▁neúspěch	-11.3061
▁otázkách	-11.3061
▁ošetření	-11.3061
▁připomenout	-11.3061
▁revoluce	-11.3061
▁sportovci	-11.3061
▁strategický	-11.3061
▁uhličitého	-11.3061
▁umístit	-11.3061
▁upozorňují	-11.3061
▁užitečné	-11.3061
▁veřejnou	-11.3061
▁zajistil	-11.3061
▁zdravotně	-11.3061
▁zvyšovat	-11.3061
▁Havlov	-11.3061
▁LDS	-11.3061
▁Poborského	-11.3061
▁sankce	-11.3061
▁skener	-11.3061
▁zloděj	-11.3061
▁Mostaru	-11.3061
▁pátý	-11.3061
▁sleduje	-11.3061
▁souprav	-11.3061
▁srpnu	-11.3061
▁série	-11.3061
▁týdnu	-11.3061
▁řekněme	-11.3061
▁Nobelov	-11.3061
▁mobilní	-11.3061
▁potravy	-11.3061
pomáhal	-11.3061
▁komisí	-11.3061
▁nepatří	-11.3061
▁MHz	-11.3061
▁kompost	-11.3061
▁Názor	-11.3061
▁stačit	-11.3061
▁národnostní	-11.3061
▁projednávání	-11.3061
skočit	-11.3061
▁pozemků	-11.3061
▁tvůrčí	-11.3061
▁zážitek	-11.3061
▁Komora	-11.3061
▁Ústí	-11.3061
▁Prahu	-11.3061
▁chemie	-11.3061
▁minimum	-11.3061
▁letišti	-11.3061
▁opačný	-11.3061
▁vyhověl	-11.3061
▁shluk	-11.3061
▁obránce	-11.3061
▁počáteční	-11.3061
▁rozvinut	-11.3061
▁modernizaci	-11.3061
▁turisté	-11.3061
▁nebrání	-11.3061
▁remíz	-11.3061
▁kostým	-11.3061
▁Bohemia	-11.3061
▁Filip	-11.3061
▁román	-11.3061
▁proběhla	-11.3061
▁vykonávat	-11.3062
▁zaslal	-11.3062
▁1948	-11.3062
▁podobnost	-11.3062
▁karet	-11.3062
vážet	-11.3062
▁azyl	-11.3062
▁pilot	-11.3062
▁realizaci	-11.3062
ford	-11.3062
▁emise	-11.3062
▁diskusí	-11.3062
▁převzetí	-11.3063
▁experimentální	-11.3063
▁podoby	-11.3063
▁léčení	-11.3063
▁dovoluje	-11.3063
▁cítit	-11.3064
▁potřebovat	-11.3064
dejme	-11.3064
▁výrobku	-11.3064
▁půjčky	-11.3064
▁chrání	-11.3064
▁Chang	-11.3064
▁videa	-11.3065
▁dárk	-11.3065
beton	-11.3065
▁ráda	-11.3066
▁budování	-11.3066
▁přestane	-11.3066
bývalo	-11.3066
▁očima	-11.3067
▁taky	-11.3067
▁tabulku	-11.3067
▁formulář	-11.3067
▁dovolí	-11.3068
▁ČZ	-11.3068
▁obává	-11.3068
▁rozdělit	-11.3069
▁nádob	-11.3069
▁bát	-11.3069
▁odmítnut	-11.3069
▁Ukázal	-11.307
▁oblib	-11.307
▁atmosféru	-11.3071
▁prosím	-11.3071
▁nahoru	-11.3072
▁venku	-11.3073
▁podruhé	-11.3074
▁Pojišťovna	-11.3075
▁užitku	-11.3075
▁nechci	-11.3075
▁centrem	-11.3077
▁ušetří	-11.3077
▁potvrdila	-11.3077
▁stěžují	-11.3078
▁přerušen	-11.3078
kého	-11.3079
▁vkus	-11.3081
kládání	-11.3081
▁sportovním	-11.3081
▁Hal	-11.3081
▁policisty	-11.3082
▁ostrovů	-11.3083
▁odborn	-11.3084
▁jejími	-11.3084
▁ucho	-11.3086
▁prvek	-11.3087
▁vybere	-11.3089
▁vydělal	-11.3091
▁přišly	-11.3091
▁Důvodem	-11.3091
knout	-11.3095
▁týmů	-11.3097
▁Hel	-11.3097
▁prostorách	-11.3098
▁technikou	-11.3098
▁čelní	-11.31
▁vycházet	-11.31
▁Staré	-11.31
▁stížnosti	-11.3101
▁foto	-11.3104
▁diplomatické	-11.3107
▁zved	-11.3108
▁změnách	-11.3108
▁sehnat	-11.3109
▁kontrolou	-11.311
▁Smlouva	-11.311
▁vzniklé	-11.3111
▁architektury	-11.3111
álka	-11.3112
▁plní	-11.3113
▁velko	-11.3114
▁prodejně	-11.3114
▁popsat	-11.3116
▁Seznam	-11.3116
▁moravské	-11.3119
nej	-11.3121
▁způsobit	-11.3122
▁vývojem	-11.3124
▁běže	-11.3124
▁zadání	-11.3124
▁semináře	-11.3126
▁Olomouce	-11.3126
▁vlastníkem	-11.313
▁voliči	-11.3133
▁vyhledá	-11.3134
▁Pel	-11.3134
▁různ	-11.3135
žije	-11.3136
▁dělníků	-11.3137
▁odměny	-11.3139
▁reklamní	-11.314
▁manipul	-11.3144
▁požadavkům	-11.3145
▁problematiku	-11.3146
▁otevřený	-11.3148
▁Koup	-11.3152
▁pracujících	-11.3153
zanedbateln	-11.3155
znamenat	-11.3156
▁Husov	-11.3156
▁cenové	-11.3159
▁opravě	-11.3159
▁Film	-11.316
▁rozpadu	-11.316
stupovat	-11.316
▁novinářům	-11.3166
▁rozhovory	-11.3166
hodný	-11.3167
▁špičk	-11.3169
▁chladu	-11.317
▁stromy	-11.317
mann	-11.3171
▁rostliny	-11.3173
▁hovořili	-11.3173
ohra	-11.3174
▁nevíme	-11.3176
▁SD	-11.3179
▁Označ	-11.3181
▁prodá	-11.3183
▁izraelský	-11.3185
čkem	-11.3186
▁přesný	-11.3187
NC	-11.3191
▁úmyslu	-11.3192
▁Tým	-11.3192
▁vstupuje	-11.3194
▁udělali	-11.3196
▁technik	-11.3197
▁potenciálu	-11.3197
▁závěrečný	-11.3198
▁předběžn	-11.32
jížděl	-11.3201
▁ceník	-11.3204
93	-11.3204
35	-11.3204
▁rozhodlo	-11.3206
▁stříbrné	-11.3206
▁přízniv	-11.3207
▁posil	-11.3207
▁24.	-11.3211
▁Kdybych	-11.3213
pera	-11.3214
▁kruhy	-11.3215
▁26.	-11.3219
▁ústavů	-11.3221
▁novela	-11.3222
▁ostravské	-11.3223
▁Švédsku	-11.3223
▁klubem	-11.3224
▁procesů	-11.3225
▁naprosté	-11.3228
▁27.	-11.323
▁očí	-11.3231
▁Brit	-11.3233
etické	-11.3234
▁obdiv	-11.3234
▁Počítá	-11.3235
▁lize	-11.3236
▁výkladu	-11.3238
▁geolog	-11.324
▁věřím	-11.324
▁mistry	-11.3242
▁deníku	-11.3243
▁činila	-11.3243
▁proviz	-11.325
▁skvělé	-11.3252
▁Kup	-11.3252
▁plochu	-11.3252
▁běžn	-11.3254
▁vycházel	-11.3256
▁geny	-11.3261
▁Lig	-11.3268
trhl	-11.3268
rent	-11.3275
▁komora	-11.3275
▁obranné	-11.328
▁živý	-11.3281
▁Večer	-11.3282
▁šel	-11.3283
▁tempo	-11.3295
IE	-11.3297
▁soupeřů	-11.3299
řádně	-11.3304
věří	-11.3307
▁zněl	-11.3308
▁140	-11.3308
▁kovy	-11.3311
▁dospělé	-11.3324
▁příslušnost	-11.3326
kraji	-11.3327
▁budoucího	-11.3332
▁Rozhodn	-11.3337
▁chirurg	-11.3338
▁Řekl	-11.3339
▁autobus	-11.334
▁Lab	-11.3341
▁splnil	-11.3342
▁Turist	-11.3347
▁pocity	-11.3352
▁papíry	-11.3352
▁telefony	-11.3353
▁šíří	-11.3353
▁těle	-11.3359
▁Mac	-11.3363
▁prováze	-11.3364
dnes	-11.3367
▁Japonsko	-11.3368
90	-11.3369
tito	-11.3374
▁představa	-11.3379
▁podnikatelům	-11.338
▁vyhráli	-11.3388
EK	-11.339
▁přesné	-11.3391
ÁNÍ	-11.3395
▁určeno	-11.3403
mohou	-11.3406
ER	-11.3408
▁Form	-11.3408
▁konzervativní	-11.341
▁hostů	-11.341
izraelsk	-11.341
▁obdobný	-11.3411
▁popsán	-11.3417
▁opravu	-11.3417
▁pozornosti	-11.3418
▁zveřejněn	-11.3418
▁tvůrce	-11.3418
▁rodné	-11.3419
▁integrovan	-11.3423
▁listopad	-11.3427
příč	-11.3429
blok	-11.3436
▁volič	-11.3437
▁světu	-11.3438
▁stanovené	-11.344
▁problematik	-11.344
pouštějí	-11.3441
▁soupeři	-11.3444
▁děd	-11.3447
morav	-11.3449
nický	-11.3452
▁efekty	-11.3453
▁zákoně	-11.3458
ohledně	-11.346
▁věta	-11.3462
▁chybu	-11.3465
▁Prof	-11.3466
▁jakkoli	-11.3475
▁Argentin	-11.3478
▁domácnost	-11.348
atřicet	-11.3481
▁využit	-11.349
▁odmítla	-11.3492
▁aparát	-11.3498
▁středověk	-11.3498
▁veletrh	-11.3498
▁požadavků	-11.3499
▁pocházejí	-11.35
▁šampionát	-11.3501
▁Miloše	-11.3504
▁tuzemsk	-11.3507
jistit	-11.3507
▁účinnost	-11.3513
▁vyžadují	-11.3513
▁veřejný	-11.3514
▁následk	-11.3515
▁nezná	-11.3517
▁cílov	-11.352
▁spolupracovník	-11.3522
▁Výzkum	-11.3522
projevilo	-11.3523
▁jednorázov	-11.3535
▁jednoznačný	-11.3535
▁vybral	-11.354
▁Projekt	-11.3544
▁položil	-11.3548
▁pták	-11.3551
▁postupů	-11.3552
▁Důvod	-11.3555
▁Angličan	-11.3556
▁Jihlav	-11.3557
vlastn	-11.3557
udit	-11.3557
alternativ	-11.3558
▁nejvyšších	-11.3559
▁výpočet	-11.3568
čková	-11.3571
▁demonstra	-11.3577
▁navazuj	-11.3578
▁Maďar	-11.3579
pomeňme	-11.3584
stane	-11.3585
▁risk	-11.3587
zrcadl	-11.3587
▁Antonín	-11.3587
▁Benešov	-11.3587
▁Dvořák	-11.3587
▁Jednotliv	-11.3587
▁Lubomír	-11.3587
▁Sarajev	-11.3587
▁Schneider	-11.3587
▁archív	-11.3587
▁cizinci	-11.3587
▁cizině	-11.3587
▁deklarace	-11.3587
▁informovat	-11.3587
▁kmitočt	-11.3587
▁komunisté	-11.3587
▁lékáren	-11.3587
▁medailí	-11.3587
▁minerální	-11.3587
▁ministerstev	-11.3587
▁nemožné	-11.3587
▁nevznik	-11.3587
▁nečekaně	-11.3587
▁opozici	-11.3587
▁oslaben	-11.3587
▁oživení	-11.3587
▁přidružen	-11.3587
▁redakci	-11.3587
▁restituční	-11.3587
▁skript	-11.3587
▁spánku	-11.3587
▁struktuře	-11.3587
▁tabulátor	-11.3587
▁tiskárna	-11.3587
▁uspokojení	-11.3587
▁vyloučit	-11.3587
▁výkyvy	-11.3587
▁zlepšil	-11.3587
▁zúčastní	-11.3587
šetřil	-11.3587
▁Libanon	-11.3587
▁Mazdy	-11.3587
▁stadia	-11.3587
▁stoupenc	-11.3587
▁svatební	-11.3587
▁zlepšit	-11.3587
▁řemesl	-11.3587
▁Náměst	-11.3587
▁altruist	-11.3587
▁lístky	-11.3587
▁nahrazen	-11.3587
▁Weizs	-11.3587
▁letadlo	-11.3587
▁válkou	-11.3587
▁ohrom	-11.3587
▁preventivn	-11.3587
hlédl	-11.3587
▁slalom	-11.3587
▁Trans	-11.3587
▁doplnit	-11.3587
▁čáry	-11.3587
▁ČSAV	-11.3587
rozhodoval	-11.3587
▁porušil	-11.3587
▁ovládat	-11.3587
▁penalt	-11.3587
▁pozemky	-11.3587
▁zahájí	-11.3587
▁účinný	-11.3587
▁jídlo	-11.3587
▁potrvá	-11.3587
▁jedinci	-11.3587
▁licence	-11.3587
▁jedinečn	-11.3587
▁Něco	-11.3587
▁vyrábějí	-11.3587
▁umístil	-11.3587
▁nejsilnější	-11.3587
▁užívat	-11.3587
pálil	-11.3587
▁odškodnění	-11.3587
▁Odhad	-11.3587
▁nestalo	-11.3587
▁Holub	-11.3587
▁tisíciletí	-11.3587
▁USD	-11.3588
▁nebudu	-11.3588
▁žánr	-11.3588
▁kůži	-11.3588
▁návštěvníci	-11.3588
▁hlášen	-11.3588
▁Maastrichtu	-11.3588
▁městečk	-11.3588
▁hornin	-11.3588
▁odvozen	-11.3588
▁nemění	-11.3588
▁dopředu	-11.3588
▁léčba	-11.3588
▁Hlas	-11.3588
▁dřevěný	-11.3588
▁vracejí	-11.3589
▁koncentrací	-11.3589
▁řešil	-11.3589
▁stručn	-11.3589
▁Krkonoších	-11.3589
▁Zásad	-11.3589
▁otřes	-11.3589
▁restaurací	-11.3589
▁prud	-11.359
▁setkat	-11.359
přát	-11.359
▁zlata	-11.359
▁masa	-11.359
▁Juli	-11.359
▁kancléř	-11.3591
▁jádra	-11.3591
povídal	-11.3591
▁mikroorganismů	-11.3592
▁úkor	-11.3592
▁chybějící	-11.3593
▁Nesmí	-11.3593
▁odstín	-11.3593
▁stres	-11.3595
lákat	-11.3595
▁obrace	-11.3595
▁mechanick	-11.3595
▁záložník	-11.3595
▁základnu	-11.3596
▁odmítnout	-11.3596
▁spokojenosti	-11.3596
▁Slav	-11.3596
▁závazků	-11.3596
can	-11.3597
▁přeháňky	-11.3597
▁posouzení	-11.3597
ong	-11.3598
▁vykazuje	-11.3598
▁vydělat	-11.3598
▁rozhodnuto	-11.3599
▁absurdní	-11.3599
▁právnick	-11.3599
▁SNS	-11.36
▁zkoušky	-11.3601
▁náročnější	-11.3601
▁princezn	-11.3601
▁opakovat	-11.3601
▁oceňuj	-11.3602
▁tuzemských	-11.3602
▁hlavě	-11.3602
▁Situace	-11.3604
▁protokol	-11.3604
▁vidění	-11.3604
instalovat	-11.3607
▁víno	-11.3607
▁Byt	-11.3608
▁SN	-11.3609
▁vyšetřovací	-11.3609
▁Hodn	-11.361
▁mírou	-11.361
▁Polsku	-11.3613
▁středně	-11.3614
▁převeden	-11.3615
▁kytarist	-11.3616
▁letoun	-11.3616
▁městská	-11.3617
▁bohatý	-11.3617
▁linek	-11.3617
▁Chorvatsko	-11.3618
▁myslíte	-11.3618
▁řádek	-11.3622
▁ukládat	-11.3622
▁řetěz	-11.3623
▁střelec	-11.3623
▁počítají	-11.3624
▁vztahuje	-11.3624
▁kdybychom	-11.3624
48	-11.3625
▁odvolal	-11.3625
▁regul	-11.3625
▁Slovinska	-11.3625
▁drát	-11.3626
▁lacin	-11.3626
▁různá	-11.3628
▁zájezdy	-11.3629
▁boku	-11.3631
OT	-11.3632
▁kádru	-11.3633
▁procenty	-11.3634
▁otce	-11.3637
▁rozhodujícím	-11.3638
▁varoval	-11.3638
▁termo	-11.3642
▁Kamp	-11.3645
▁stačilo	-11.3647
▁islámské	-11.3648
▁Bójů	-11.365
▁poznal	-11.3654
způsobují	-11.3654
▁nepr	-11.3654
▁genů	-11.3655
▁hranicích	-11.3657
▁kartě	-11.3657
▁terénu	-11.3657
▁družic	-11.3662
▁vyplývající	-11.3664
▁kanálu	-11.3665
▁stálé	-11.3668
LED	-11.3668
▁partnerem	-11.3668
76	-11.367
▁ruchu	-11.3672
▁nalezení	-11.3676
▁Japonska	-11.3679
▁soch	-11.368
▁42	-11.3681
▁teoretické	-11.3682
▁pevně	-11.3684
▁volba	-11.3686
▁rána	-11.3689
tažením	-11.3689
▁nespokojenost	-11.369
▁okresech	-11.369
▁Světov	-11.369
▁fyziku	-11.369
▁subjekty	-11.3691
▁údržbu	-11.3691
▁veliká	-11.3692
▁magnet	-11.3695
▁dresu	-11.3696
▁měřítku	-11.3696
▁schémat	-11.3698
▁účastníky	-11.37
▁kostela	-11.3702
▁délku	-11.3706
▁Ger	-11.3707
strašně	-11.3707
▁matematiky	-11.3708
▁Dal	-11.371
▁zaplav	-11.3713
▁hovoru	-11.3717
▁jeskyn	-11.3718
éra	-11.3718
▁zákonu	-11.3719
▁automat	-11.372
letěl	-11.3722
▁příbuzné	-11.3725
▁hlasu	-11.3727
▁Doba	-11.3727
▁informovali	-11.3736
▁Siln	-11.3738
▁testů	-11.3738
▁variantu	-11.3739
▁Věr	-11.3744
nda	-11.3745
krytí	-11.3747
yplývá	-11.3748
▁návštěv	-11.3748
▁Stan	-11.3752
▁řidiči	-11.3753
▁typick	-11.3754
likvid	-11.3754
tice	-11.3757
▁bodem	-11.3757
▁(5	-11.3759
▁kvalitativn	-11.3766
▁zůstaly	-11.3768
▁mém	-11.3771
▁hrubé	-11.3776
▁Řek	-11.3776
▁hlava	-11.3786
▁postižení	-11.379
▁servisu	-11.379
▁členské	-11.379
▁Tip	-11.3792
▁stromů	-11.3792
▁knihu	-11.3794
▁přinesla	-11.3794
JÍ	-11.3798
▁srovnatelné	-11.3799
▁přesvědčeni	-11.3799
stával	-11.3801
▁číslem	-11.3802
sit	-11.3802
▁Král	-11.3803
jištěn	-11.3805
▁přenesen	-11.3807
▁Olympi	-11.3808
LOV	-11.3814
▁dopisy	-11.382
▁technologický	-11.3823
▁metodu	-11.3824
▁výnosu	-11.3839
▁Syn	-11.384
▁aneb	-11.3841
▁jezdil	-11.3842
▁režiséra	-11.3845
▁domnívám	-11.3849
▁válečné	-11.3857
▁pouh	-11.3859
▁standardu	-11.386
▁drahá	-11.3863
▁iniciativa	-11.3879
bírat	-11.3882
▁trojic	-11.3884
▁stálo	-11.3888
hrával	-11.3889
▁způsobila	-11.3891
0.000	-11.3892
▁počítačov	-11.3894
▁cílů	-11.3897
▁91	-11.3898
▁výtvarn	-11.3902
▁firmami	-11.3903
▁dán	-11.3906
▁kaly	-11.3906
▁ostrov	-11.3908
▁rozumné	-11.391
▁linka	-11.3917
▁ženský	-11.3917
třeba	-11.3918
▁technick	-11.3919
▁ryby	-11.392
65	-11.3927
▁překr	-11.3932
nických	-11.3933
▁opor	-11.3936
▁Dag	-11.3943
▁Zemanov	-11.3943
▁některého	-11.3948
▁manažera	-11.395
▁bon	-11.395
▁věrn	-11.3957
▁tečk	-11.3957
▁úzké	-11.3959
▁srovnatelný	-11.3961
▁manžela	-11.3962
čovat	-11.3965
▁speciálně	-11.3973
rel	-11.3979
87	-11.398
▁odráž	-11.3988
▁mistrovsk	-11.3988
▁západ	-11.3992
▁přítele	-11.3997
▁uskutečnil	-11.3998
▁poločase	-11.4001
▁Hill	-11.4001
▁jakého	-11.4003
▁link	-11.4008
ČE	-11.401
▁vníma	-11.4019
▁tiskový	-11.4027
▁nepřátel	-11.4033
▁sešli	-11.4035
▁Atlant	-11.4041
▁momentáln	-11.4044
▁využije	-11.4047
▁příznivé	-11.4049
IG	-11.4054
koupí	-11.4055
▁Jeli	-11.4058
▁radu	-11.4059
▁věnuj	-11.4062
▁platu	-11.4063
▁účet	-11.4064
nická	-11.4065
vrátit	-11.4066
▁očekával	-11.4067
▁srážk	-11.4068
▁zákoník	-11.4068
▁přispíva	-11.4068
tivně	-11.4069
ČSSD	-11.4069
sáhnout	-11.4073
▁úkon	-11.4076
▁uši	-11.4077
▁Sokol	-11.4081
především	-11.4081
▁Tenis	-11.4082
▁pochopil	-11.4082
▁kapitálový	-11.4083
▁nabídne	-11.4083
FS	-11.4083
demokratick	-11.4086
▁kyselin	-11.4087
▁pravém	-11.409
tivnější	-11.4093
▁platil	-11.4096
posled	-11.4097
▁potka	-11.4098
▁bohaté	-11.4099
▁komplet	-11.4099
▁životnost	-11.41
▁Cup	-11.4103
▁pokračují	-11.4103
▁privatiz	-11.4103
▁Rumunsk	-11.4104
▁lyžař	-11.4104
▁umožňují	-11.4107
▁oblačno	-11.411
7%	-11.4111
jišťuje	-11.4112
▁bytě	-11.4113
▁dočasn	-11.4113
▁ledový	-11.4117
▁všeobecn	-11.4118
ring	-11.4121
▁veličin	-11.4123
▁Republik	-11.4125
▁29.	-11.4125
▁stati	-11.4127
▁Znám	-11.4129
▁vydělá	-11.4134
▁krystal	-11.4138
▁provozovat	-11.414
▁odjel	-11.4142
▁Nejčastěj	-11.4142
▁Olszewsk	-11.4143
▁PŘED	-11.4143
▁Bezpečnost	-11.4143
▁Bierhoff	-11.4143
▁Evropou	-11.4143
▁Jackson	-11.4143
▁Jupiter	-11.4143
▁Karadžic	-11.4143
▁Letošní	-11.4143
▁Madrid	-11.4143
▁Naštěstí	-11.4143
▁Podívej	-11.4143
▁Sněmovn	-11.4143
▁Softwar	-11.4143
▁Stehlík	-11.4143
▁Ukrajina	-11.4143
▁arcibiskup	-11.4143
▁burzy	-11.4143
▁celosvětov	-11.4143
▁energií	-11.4143
▁imunitní	-11.4143
▁incident	-11.4143
▁kandidovat	-11.4143
▁krátkodobé	-11.4143
▁leccos	-11.4143
▁nahrávk	-11.4143
▁neexistoval	-11.4143
▁následovat	-11.4143
▁odlišné	-11.4143
▁opozicí	-11.4143
▁ozónu	-11.4143
▁podotkl	-11.4143
▁preferenc	-11.4143
▁premiéře	-11.4143
▁prezervativ	-11.4143
▁prokuratur	-11.4143
▁překážky	-11.4143
▁seriózní	-11.4143
▁socialismu	-11.4143
▁stability	-11.4143
▁televizor	-11.4143
▁totalitní	-11.4143
▁učebnic	-11.4143
▁viceprezident	-11.4143
▁vzdělávání	-11.4143
▁výslovně	-11.4143
▁zdůvodnil	-11.4143
▁závislá	-11.4143
▁získají	-11.4143
▁Úspěšn	-11.4143
▁úspěšnost	-11.4143
▁Litvínov	-11.4143
▁Moderní	-11.4143
▁Město	-11.4143
▁Pražan	-11.4143
▁dostatečné	-11.4143
▁kapitul	-11.4143
▁londýn	-11.4143
▁mrtvé	-11.4143
▁náleží	-11.4143
▁poskytne	-11.4143
▁restitucí	-11.4143
▁těžší	-11.4143
▁výkres	-11.4143
▁Kopřiv	-11.4143
▁laboratorní	-11.4143
▁vyměnil	-11.4143
▁vyžádá	-11.4143
▁zachránil	-11.4143
▁zemědělci	-11.4143
▁znamení	-11.4143
▁Dukly	-11.4143
▁Obvodní	-11.4143
▁abeced	-11.4143
▁herečka	-11.4143
▁hrozil	-11.4143
▁příroda	-11.4143
▁Mandler	-11.4143
▁položku	-11.4143
▁Island	-11.4143
▁chápán	-11.4143
▁nutná	-11.4143
▁živnostenský	-11.4143
▁MIDI	-11.4143
▁profese	-11.4143
▁naučit	-11.4143
▁charitativní	-11.4143
▁Vojenské	-11.4143
▁ČSAD	-11.4143
▁výlučn	-11.4143
▁Atleti	-11.4143
▁zajímal	-11.4143
▁Hapal	-11.4143
▁kubismu	-11.4143
▁uplatňova	-11.4143
▁Dlouho	-11.4143
▁vystupoval	-11.4143
▁převažuj	-11.4143
▁frakc	-11.4143
▁diváci	-11.4143
▁Maďarska	-11.4143
▁druzí	-11.4143
burgu	-11.4143
▁mýtu	-11.4143
▁přečetl	-11.4143
▁koncentraci	-11.4143
▁vyjít	-11.4143
sudek	-11.4144
▁Sedm	-11.4144
▁chápe	-11.4144
▁zasvěcen	-11.4144
▁kresb	-11.4144
▁uhlí	-11.4144
▁kopané	-11.4144
▁Příklad	-11.4144
▁stěží	-11.4145
▁filtr	-11.4145
píší	-11.4145
▁studené	-11.4145
▁nesměl	-11.4145
▁česky	-11.4145
▁Soutěž	-11.4145
▁produk	-11.4145
▁obdrží	-11.4145
▁Obyvatel	-11.4145
▁cítil	-11.4145
háněl	-11.4145
▁loď	-11.4146
▁obsáhl	-11.4147
▁úder	-11.4147
▁rozumět	-11.4147
▁1950	-11.4147
▁balení	-11.4147
▁publikace	-11.4147
▁Berger	-11.4147
▁kámen	-11.4147
▁duši	-11.4148
▁56	-11.4148
▁Švýcarska	-11.4148
▁přidělen	-11.4148
▁Politick	-11.4149
▁síni	-11.4149
▁čte	-11.4149
▁expozice	-11.4149
▁proměnliv	-11.4149
▁sovětský	-11.415
▁prázdninách	-11.415
▁dostupný	-11.415
▁realizovat	-11.415
▁zvyklí	-11.4151
▁utekl	-11.4151
týž	-11.4151
▁vzorků	-11.4152
▁trůn	-11.4152
▁sbírky	-11.4153
▁potvrzují	-11.4153
▁písma	-11.4153
▁plot	-11.4153
dávky	-11.4153
▁výměník	-11.4154
▁přihlásil	-11.4154
▁vesnic	-11.4156
▁zanikl	-11.4156
▁vznikne	-11.4156
▁Alma	-11.4156
▁tendenci	-11.4158
▁porušování	-11.4158
▁alternativní	-11.416
▁vysílání	-11.416
▁připravují	-11.4161
▁politikou	-11.4162
▁Potvrdil	-11.4163
účtování	-11.4163
▁výrobou	-11.4164
rychlostní	-11.4164
▁náhodně	-11.4165
▁branku	-11.4167
▁drobných	-11.4168
nechávají	-11.4169
▁zachová	-11.4169
▁osobám	-11.417
▁čaj	-11.417
▁chovat	-11.4171
▁předsednictv	-11.4172
▁FC	-11.4172
▁měnil	-11.4173
▁zasáhnout	-11.4174
stva	-11.4175
▁kompletní	-11.4177
▁překvapiv	-11.4178
▁necelé	-11.4179
▁opravdov	-11.4181
▁vyrovnání	-11.4181
▁prodejna	-11.4181
▁Rumunsko	-11.4182
▁infekce	-11.4182
▁sídla	-11.4183
▁příslušníky	-11.4184
▁výměny	-11.4184
ota	-11.4185
▁potřebujete	-11.4185
▁MOV	-11.4185
▁77	-11.4185
▁zbytku	-11.4186
▁řádky	-11.4187
▁psaní	-11.4189
▁odjezd	-11.4189
▁SI	-11.4189
▁zajímavá	-11.4189
▁nemocného	-11.419
▁částečn	-11.4193
▁dorazil	-11.4194
▁izraelské	-11.4194
▁lidový	-11.4194
▁Nejsem	-11.4196
▁tvorba	-11.4196
▁udává	-11.4197
▁léto	-11.4197
▁přerušení	-11.4198
▁pohotovost	-11.4198
▁uplatňují	-11.4198
▁touh	-11.4199
▁zajímá	-11.4199
▁levné	-11.4199
▁pětadvacet	-11.4199
▁důstojník	-11.42
▁Ostrav	-11.4201
▁pravomocí	-11.4202
▁slavného	-11.4202
jednala	-11.4202
▁kláštera	-11.4203
▁ToolBooku	-11.4207
▁rodině	-11.4207
▁kraje	-11.4207
▁výhodou	-11.4209
▁analýza	-11.4209
▁spojených	-11.4209
hořel	-11.4209
▁soukromým	-11.4211
krátko	-11.4211
▁drav	-11.4211
▁Masaryk	-11.4212
▁jmenoval	-11.4213
▁sudetský	-11.4213
▁hradě	-11.4215
▁sídlí	-11.4216
▁230	-11.4217
▁uzavřené	-11.422
▁reklama	-11.4221
▁obvinil	-11.4222
▁Žena	-11.4222
▁zvukových	-11.4222
▁nešťastn	-11.4224
▁provozování	-11.4226
▁armádní	-11.4226
▁získávání	-11.4227
▁zpracovat	-11.4229
▁očích	-11.4231
▁Alp	-11.4232
▁grafiky	-11.4233
▁prezidentovi	-11.4235
▁Tvrdí	-11.4236
▁ověřen	-11.4237
▁veletrhu	-11.4237
▁živnost	-11.4238
▁OK	-11.4239
▁nálož	-11.4241
▁Víme	-11.4242
▁Baník	-11.4242
▁dohodli	-11.4243
▁mořské	-11.4244
▁podpoře	-11.4244
▁řekli	-11.4245
▁odborů	-11.4245
▁talent	-11.4246
▁měnov	-11.4246
▁poměrů	-11.4247
▁příkazem	-11.4248
▁adresář	-11.4249
▁poskytnutí	-11.4251
▁scénu	-11.4254
▁anglického	-11.4254
▁zbývá	-11.4256
▁dokonalé	-11.4257
▁přímý	-11.4259
▁Optic	-11.426
▁hladiny	-11.4261
▁vraždy	-11.4263
▁zařazeny	-11.4263
▁neznámé	-11.4265
▁slovenský	-11.4265
▁přesvědčil	-11.4266
▁naproti	-11.4266
▁požádali	-11.4267
SO	-11.4268
▁výchovy	-11.4269
▁uživatelům	-11.4271
bytová	-11.4272
▁rozhlasu	-11.4272
▁platnosti	-11.4272
▁Vložit	-11.4273
▁stiskn	-11.4273
▁dobro	-11.4277
soudit	-11.4278
▁Buď	-11.4279
▁obsadili	-11.4281
▁vlk	-11.4282
▁sdělit	-11.4283
▁nakupovat	-11.4283
tlačit	-11.4284
▁pivovarů	-11.4286
▁zásahy	-11.4289
▁stromu	-11.4292
▁středo	-11.4295
▁Šv	-11.4296
padnout	-11.43
▁zavedl	-11.4302
▁opačném	-11.4302
▁Novém	-11.4304
▁takzvané	-11.4312
▁zásoby	-11.4318
▁nezískal	-11.4321
▁hrub	-11.4325
▁Izraelem	-11.4327
▁listin	-11.4327
▁zadržen	-11.4329
▁vyjadřují	-11.4333
taž	-11.4333
▁poradil	-11.4335
▁Severoatlantick	-11.4337
▁Husa	-11.4339
zie	-11.4345
▁dávn	-11.4345
▁vzkaz	-11.4347
žívání	-11.4347
skop	-11.435
▁mozkové	-11.435
▁kruhu	-11.4353
▁narazí	-11.4359
▁zvítězila	-11.4359
▁stali	-11.436
▁východu	-11.4364
▁radní	-11.4366
▁leasing	-11.4368
čínsk	-11.4371
jednali	-11.4372
▁ruch	-11.4373
jan	-11.4377
▁obyčejné	-11.4379
▁proměnil	-11.4381
▁samospráv	-11.4382
▁akciov	-11.4384
▁předčasné	-11.4386
▁úměrn	-11.4388
▁zdokonal	-11.439
RS	-11.4391
▁plánované	-11.4394
vezm	-11.4398
▁hlás	-11.44
▁vzácn	-11.4401
▁připravila	-11.4405
▁přístupem	-11.4406
▁genetick	-11.4407
▁snížila	-11.4409
dána	-11.4413
▁jednotka	-11.4413
▁genu	-11.4413
▁částice	-11.4418
▁sluch	-11.442
▁míče	-11.4421
▁gólu	-11.4425
▁bezpečnostních	-11.4427
▁vyvolá	-11.4428
▁etický	-11.4429
▁zdravý	-11.443
▁Carl	-11.4433
▁dodala	-11.4439
▁klimatické	-11.444
▁čekání	-11.4442
▁nábožensk	-11.4449
▁skončily	-11.4451
▁Výš	-11.4461
▁Čechy	-11.4466
▁majitelem	-11.4469
▁domova	-11.4481
▁Jean	-11.4482
▁očekávané	-11.4482
NSK	-11.4488
▁bojoval	-11.4495
▁osobu	-11.4496
▁vyrovnaný	-11.4498
▁závěry	-11.4499
▁takzvaný	-11.4499
▁dohodnut	-11.4503
▁tělesn	-11.4505
▁autory	-11.451
▁nabízen	-11.4515
▁Ostravsk	-11.4516
▁speciálních	-11.452
▁mladík	-11.4521
▁léčebn	-11.4521
▁osmnáct	-11.4522
▁dialog	-11.4525
UN	-11.4526
▁Kap	-11.4527
▁samé	-11.4531
▁odbornost	-11.4531
palestinsk	-11.4534
▁chorvatský	-11.4534
▁komentáře	-11.4542
▁oblíbený	-11.4544
▁kdež	-11.4545
pozoruhodn	-11.4548
▁závažn	-11.4554
▁důkladně	-11.4555
káže	-11.4559
▁Švýcar	-11.4568
▁poledne	-11.4574
placení	-11.4579
▁tvor	-11.4582
▁známa	-11.4583
polí	-11.4584
dáte	-11.4594
389	-11.4597
▁bolesti	-11.4598
▁letecký	-11.46
▁americkým	-11.4603
▁souvislost	-11.4619
▁zaměstnancům	-11.4622
▁náměstk	-11.4623
▁disciplín	-11.4627
stroj	-11.463
▁vlastníků	-11.4631
rozuměj	-11.4632
▁náboženské	-11.4633
▁Izraelsk	-11.4634
▁laserov	-11.4635
vázal	-11.4636
▁kolegů	-11.4642
▁kongres	-11.4643
▁vesmír	-11.4643
▁muzeu	-11.4645
▁přístav	-11.4649
▁omezené	-11.465
▁rusk	-11.4651
vláda	-11.4655
▁poškozen	-11.4657
▁běžným	-11.4658
▁vteřin	-11.4658
▁spořiteln	-11.4658
jednává	-11.4661
▁pojistn	-11.4662
▁dělník	-11.467
mad	-11.467
▁uzná	-11.4674
ézt	-11.4675
▁štít	-11.4675
▁poslancům	-11.4676
▁jater	-11.4676
▁vykoná	-11.4676
▁mládež	-11.4677
▁podepsán	-11.4686
▁potvrzen	-11.4687
▁Portugalsk	-11.4691
▁povolen	-11.4694
▁pokladn	-11.47
▁Mnichov	-11.4701
▁Don	-11.4701
▁předkládá	-11.4701
záběr	-11.4702
▁Horní	-11.4705
▁závěrečné	-11.4709
▁tunel	-11.4713
67	-11.4713
▁srozumiteln	-11.4718
▁prohlásila	-11.4719
ph	-11.472
hrání	-11.472
▁odehráv	-11.4721
▁samozřejm	-11.4722
vyjádřen	-11.4723
▁společným	-11.4723
německou	-11.4725
▁Krkonoš	-11.4728
▁překvapen	-11.4729
▁junio	-11.473
▁konzul	-11.4731
doporučují	-11.4731
▁1981	-11.4731
▁Balkán	-11.4731
▁Běloruska	-11.4731
▁Kepler	-11.4731
▁Manchester	-11.4731
▁Městě	-11.4731
▁Niederl	-11.4731
▁Pentium	-11.4731
▁Pořadatel	-11.4731
▁Poštovní	-11.4731
▁Rozhovor	-11.4731
▁Svorada	-11.4731
▁Vědci	-11.4731
▁asteroid	-11.4731
▁bázi	-11.4731
▁doprovázen	-11.4731
▁hřbitov	-11.4731
▁instance	-11.4731
▁inzerát	-11.4731
▁kampaň	-11.4731
▁konfiguraci	-11.4731
▁kooperac	-11.4731
▁mechanismy	-11.4731
▁ministerstvem	-11.4731
▁mužstvu	-11.4731
▁nejlevnější	-11.4731
▁nejvhodnější	-11.4731
▁odehrál	-11.4731
▁organismů	-11.4731
▁ovlivňova	-11.4731
▁označují	-11.4731
▁pohromadě	-11.4731
▁potvrdit	-11.4731
▁pracovišti	-11.4731
▁protagonist	-11.4731
▁rozvržení	-11.4731
▁složku	-11.4731
▁sluchátka	-11.4731
▁stabilitu	-11.4731
▁strojírenství	-11.4731
▁svědků	-11.4731
▁ubytovn	-11.4731
▁vyjadřova	-11.4731
▁vzdělávací	-11.4731
▁výsledcích	-11.4731
▁zachránit	-11.4731
▁zaměstnává	-11.4731
▁zbraň	-11.4731
▁zvýhodněn	-11.4731
▁závazek	-11.4731
▁závislé	-11.4731
▁Eduard	-11.4731
▁Uvažuje	-11.4731
▁displej	-11.4731
▁ekvivalent	-11.4731
▁gramotnost	-11.4731
▁kliniky	-11.4731
▁podmínkami	-11.4731
▁překonat	-11.4731
▁vyřešil	-11.4731
▁Právní	-11.4731
▁Výběr	-11.4731
▁hmyz	-11.4731
▁komentoval	-11.4731
▁obtíže	-11.4731
▁očekávají	-11.4731
▁pouštní	-11.4731
▁pátrá	-11.4731
▁sazby	-11.4731
opakovaně	-11.4731
▁Pravděpodobn	-11.4731
▁kosmický	-11.4731
▁prvotní	-11.4731
▁vazbě	-11.4731
▁vyjednávání	-11.4731
režie	-11.4731
▁dráhu	-11.4731
▁jedinec	-11.4731
▁odvahu	-11.4731
▁prohlašuje	-11.4731
▁sérii	-11.4731
▁profesí	-11.4731
▁lidstva	-11.4731
▁otravy	-11.4731
▁přijímat	-11.4731
▁ojediněle	-11.4731
▁Gross	-11.4731
▁uplatnil	-11.4731
▁čistírn	-11.4731
▁sladk	-11.4731
hlížel	-11.4731
▁Reuter	-11.4731
▁absenc	-11.4731
▁jarní	-11.4731
▁kolaps	-11.4731
▁partie	-11.4731
▁postačí	-11.4731
hlédnutí	-11.4731
▁dimenz	-11.4731
▁Radovan	-11.4731
▁patent	-11.4731
▁Kučer	-11.4731
▁kombinací	-11.4731
▁počty	-11.4731
▁vpravo	-11.4731
▁obezit	-11.4731
▁cvičení	-11.4731
▁velkolep	-11.4731
▁finance	-11.4731
▁doplnil	-11.4731
▁smečka	-11.4731
▁liberalizac	-11.4731
▁ohlas	-11.4731
▁konverz	-11.4731
▁sportovce	-11.4731
▁léčbě	-11.4732
▁generaci	-11.4732
▁Kvalit	-11.4732
▁filozofii	-11.4732
▁výhrady	-11.4732
▁ekonomickou	-11.4732
▁Vilém	-11.4732
▁nedostatkem	-11.4732
▁lůžk	-11.4732
▁oteplení	-11.4732
▁Ford	-11.4732
▁sníží	-11.4732
▁Baker	-11.4732
▁dvor	-11.4732
▁Španělsko	-11.4732
▁zaměřuje	-11.4732
▁zmenšen	-11.4732
▁derby	-11.4732
▁1998	-11.4732
▁Chart	-11.4732
▁spoření	-11.4732
▁studii	-11.4733
▁výměr	-11.4733
pravdě	-11.4733
▁členění	-11.4733
▁Hráč	-11.4733
▁nezvykl	-11.4733
▁SNR	-11.4733
▁správnou	-11.4733
▁WAV	-11.4734
▁vyzván	-11.4734
▁afér	-11.4734
▁pravdy	-11.4734
▁Mistr	-11.4734
▁jednotlivců	-11.4734
▁běží	-11.4734
▁pravice	-11.4734
ředstavitelé	-11.4735
▁děkan	-11.4735
▁článků	-11.4735
▁faktur	-11.4736
▁Winter	-11.4736
▁zastupitelstvo	-11.4736
▁ISO	-11.4736
▁kontrast	-11.4737
▁švýcarské	-11.4737
KDS	-11.4738
▁trase	-11.4738
eportáž	-11.4738
▁čelit	-11.4739
▁udělen	-11.4739
▁obuv	-11.4739
▁poplatků	-11.4739
▁tvrdit	-11.4739
▁hluboký	-11.4739
▁tureck	-11.4739
▁2:1	-11.474
▁sbírek	-11.474
▁zeleni	-11.474
▁dálkové	-11.4741
▁zvláštnost	-11.4741
▁plus	-11.4741
▁lodí	-11.4741
▁salon	-11.4741
▁vyhleda	-11.4741
▁Polskem	-11.4741
▁mezer	-11.4742
▁celky	-11.4742
▁usilují	-11.4742
nešní	-11.4743
▁vydrží	-11.4743
▁základny	-11.4743
▁památky	-11.4743
▁tenkrát	-11.4744
▁průvodce	-11.4745
▁protivník	-11.4745
▁nepřijatelné	-11.4745
▁alternativy	-11.4745
▁dozví	-11.4745
▁prosazuje	-11.4746
▁okresu	-11.4746
▁nákladech	-11.4747
pec	-11.4747
▁pití	-11.4749
▁přísně	-11.4749
▁porost	-11.475
▁dýcha	-11.475
▁pozorovatelů	-11.4751
▁Provoz	-11.4751
árek	-11.4751
▁relac	-11.4751
▁domku	-11.4752
▁námět	-11.4753
▁ušetřit	-11.4753
▁přibyl	-11.4754
▁ideologick	-11.4754
▁anketě	-11.4754
▁hostitel	-11.4755
▁pomáhat	-11.4755
▁mrtvých	-11.4756
▁silami	-11.4756
▁rozum	-11.4756
▁výživ	-11.4757
▁nazval	-11.4757
▁branky	-11.4759
▁Kolín	-11.476
stihnout	-11.476
▁myln	-11.476
▁skutečnou	-11.4761
▁skupinách	-11.4762
▁pětinu	-11.4762
▁vidíte	-11.4762
▁Lan	-11.4765
▁záměrně	-11.4765
▁znamenala	-11.4765
▁pozdní	-11.4765
▁přibývá	-11.4766
▁skoku	-11.4766
▁povahu	-11.4766
▁obchodech	-11.4767
▁komunismus	-11.4768
atrně	-11.4768
▁domácností	-11.4768
izační	-11.4769
▁hranicí	-11.477
kromě	-11.477
▁Palác	-11.477
▁scéně	-11.4771
▁Obsah	-11.4771
▁odluk	-11.4772
▁etapy	-11.4775
▁neviděl	-11.4775
▁pomník	-11.4775
▁vyznačen	-11.4776
▁pokutu	-11.4776
▁vybrán	-11.4776
▁NT	-11.4777
▁stranách	-11.4778
▁zažil	-11.4778
▁reálná	-11.478
leva	-11.4781
▁publikací	-11.4782
hlédne	-11.4783
▁začínal	-11.4784
▁Air	-11.4785
vodně	-11.4786
▁desítká	-11.4786
běhne	-11.4787
▁slavné	-11.4787
▁využívající	-11.4788
▁prodejce	-11.4788
▁pochybnosti	-11.4791
▁čt	-11.4791
▁zárukou	-11.4792
TER	-11.4792
▁přibylo	-11.4793
elektrick	-11.4797
▁vhodných	-11.4798
▁Thomas	-11.4801
▁těsné	-11.4802
▁obří	-11.4802
▁vzdálen	-11.4802
sazení	-11.4803
▁opravit	-11.4808
▁slovu	-11.4808
▁polského	-11.4808
▁Min	-11.4808
▁nizozemsk	-11.4808
▁vzniklo	-11.4809
▁cukru	-11.481
program	-11.4811
ložený	-11.4812
▁osmnácti	-11.4812
▁Žádný	-11.4812
▁problematiky	-11.4814
▁jazyků	-11.4815
▁podávání	-11.4816
▁rodinou	-11.4816
▁slevy	-11.482
▁počítačem	-11.482
▁předloh	-11.4822
▁prochází	-11.4824
▁maličkost	-11.4825
▁příjemný	-11.4825
▁jmenování	-11.4826
13	-11.4826
▁západu	-11.4827
▁jednotný	-11.4828
▁ledové	-11.4828
▁dialogové	-11.483
ině	-11.4831
▁koordinac	-11.4832
▁vaku	-11.4833
▁otevřenou	-11.4834
▁Kazachstánu	-11.4837
▁vědec	-11.4838
▁skleníkový	-11.4839
▁Vaš	-11.4839
▁pružn	-11.484
Pro	-11.4843
▁pachatele	-11.4844
íčko	-11.4844
▁odměnu	-11.4844
▁historického	-11.4845
pouštět	-11.4845
ikonu	-11.4845
▁zařazení	-11.4846
▁semen	-11.4847
▁stínu	-11.4847
▁minutu	-11.4848
▁zajímavých	-11.4853
▁Sport	-11.4855
▁britských	-11.4856
chrom	-11.4858
▁prázdniny	-11.4859
▁hromada	-11.4864
▁konfliktu	-11.4867
▁slabé	-11.4869
▁suroviny	-11.4872
▁zájemcům	-11.4874
▁šíři	-11.4877
▁odcházejí	-11.4879
▁odpady	-11.4879
▁Přibyl	-11.4879
▁kapacitu	-11.488
▁zahájena	-11.4881
▁186	-11.4881
▁mostu	-11.4881
▁hokejové	-11.4883
▁smyslem	-11.4884
reál	-11.4885
izování	-11.4887
dávání	-11.489
▁novináře	-11.4891
▁překvapením	-11.4892
▁tepelné	-11.4893
▁prodával	-11.4895
▁hospodářských	-11.4898
▁dnem	-11.49
▁samostatnost	-11.49
▁slavný	-11.4902
▁závodníků	-11.4904
▁spolehlivě	-11.4905
▁oprávnění	-11.4916
▁armád	-11.4917
▁určitým	-11.4917
▁sedmnácti	-11.4922
▁přehrad	-11.4923
▁kanál	-11.4924
▁dlužníka	-11.4927
▁jakéhokoli	-11.4929
▁družstevní	-11.4932
▁atomov	-11.4933
▁pokračovala	-11.4934
▁perspektivní	-11.4934
▁případem	-11.4934
▁cenami	-11.4943
▁povrchové	-11.4943
OSTI	-11.4945
▁převrat	-11.4948
▁světl	-11.4949
▁vznikal	-11.495
▁pozval	-11.495
▁Plán	-11.4952
▁daného	-11.4953
átory	-11.4953
▁vidím	-11.4953
▁hub	-11.4954
hodinové	-11.4959
▁VE	-11.4959
▁součásti	-11.496
▁vynesl	-11.4963
▁zhoubn	-11.4963
▁buňk	-11.497
▁technologické	-11.4973
97	-11.4974
▁měřit	-11.498
▁Tel	-11.4982
třída	-11.4982
▁vybaveny	-11.4986
▁zvrat	-11.4987
▁potraviny	-11.499
▁Geo	-11.499
▁polský	-11.4991
▁koná	-11.4992
▁záznamu	-11.4996
▁hlasováním	-11.4997
▁manažery	-11.5006
▁podpisu	-11.5008
▁devatenáct	-11.5017
▁naplněn	-11.5017
▁vrátili	-11.5022
▁palác	-11.5022
▁navržen	-11.5035
obdržela	-11.504
▁účelu	-11.504
▁Občansk	-11.5041
▁zlé	-11.5042
▁Moc	-11.5046
▁pravý	-11.5047
▁třetin	-11.5047
▁podnikateli	-11.505
ash	-11.5052
slat	-11.5052
▁Nemá	-11.5052
▁Sen	-11.5052
pali	-11.5056
▁fotbalist	-11.5057
▁spolupracují	-11.5063
▁časový	-11.5064
čov	-11.507
NS	-11.5072
▁240	-11.5072
▁vlna	-11.5076
▁automobilu	-11.5078
▁nabízený	-11.5079
▁kandidáta	-11.5081
▁výzkumné	-11.5082
▁1)	-11.5096
▁textů	-11.5101
▁chyba	-11.5102
▁cenné	-11.5105
▁dopadl	-11.5108
tržení	-11.5109
soci	-11.5112
▁tituly	-11.5112
▁Andre	-11.5112
rah	-11.5114
▁doprav	-11.5114
BU	-11.5114
▁najdou	-11.5116
▁světem	-11.5118
▁čínské	-11.512
▁sedmé	-11.5124
tvořily	-11.5128
▁Brněnsk	-11.5133
▁zápasem	-11.5138
▁Bet	-11.5142
čnosti	-11.5145
omín	-11.515
▁TV	-11.5153
▁bosen	-11.5154
mentálně	-11.5155
▁naučil	-11.5159
▁Novotn	-11.516
▁vozov	-11.5162
▁základu	-11.5163
▁fakult	-11.5166
▁známou	-11.5167
▁úvod	-11.517
▁nulov	-11.5173
▁činy	-11.5173
▁přirozeným	-11.5176
▁450	-11.5178
vinil	-11.5179
lizace	-11.518
▁Čtyř	-11.5181
▁geo	-11.5183
▁nadměrn	-11.5187
▁Rozhodl	-11.5189
▁hrozn	-11.5197
vanou	-11.5203
▁vývojový	-11.5205
▁položen	-11.5206
▁výtečn	-11.5206
▁nepříjemný	-11.5212
▁pravomoc	-11.5216
▁Japonsk	-11.5218
▁dirigent	-11.5218
▁parametr	-11.523
▁Histori	-11.5231
▁jejímu	-11.5233
▁hezk	-11.5233
▁maxim	-11.5233
▁ponech	-11.5242
▁vizi	-11.5246
▁výjimk	-11.5246
▁Prav	-11.5249
ruh	-11.5253
okres	-11.5254
ručně	-11.5254
▁mask	-11.5254
▁krev	-11.5255
hledné	-11.5256
vlas	-11.5259
▁levný	-11.526
▁zvolený	-11.5261
▁gymnázi	-11.5266
▁neobvykl	-11.5266
▁hork	-11.5268
▁dostaly	-11.5273
▁Velký	-11.5278
▁bojovn	-11.5281
▁triumf	-11.5282
▁inspektor	-11.5283
natý	-11.5283
▁hromadn	-11.5284
▁kategorií	-11.5284
▁poškoz	-11.5285
pojit	-11.5289
▁úloh	-11.529
TON	-11.5295
▁občanům	-11.5295
▁využívají	-11.5295
▁lese	-11.5301
▁dobrého	-11.5311
▁rizikový	-11.5312
▁ukončen	-11.5313
▁proměnn	-11.5313
▁uvolněn	-11.5314
▁ovládá	-11.5317
sáhne	-11.5319
▁bronz	-11.5321
▁neobvyklé	-11.5322
bíhají	-11.5323
▁smrteln	-11.5326
hraniční	-11.5326
▁hmotnost	-11.5328
rského	-11.533
line	-11.5332
▁dokonč	-11.5332
▁centimetr	-11.5332
▁vyřazen	-11.5333
▁obnovit	-11.5334
eckém	-11.5335
funk	-11.5339
▁ženské	-11.5339
▁dívá	-11.534
spěje	-11.534
▁podporují	-11.5344
▁algoritm	-11.5344
▁hráčům	-11.5346
▁Vždy	-11.5355
▁účinně	-11.5355
▁Tchaj	-11.5356
Cagiva	-11.5356
kontaminac	-11.5356
▁Apple	-11.5356
▁Barcelony	-11.5356
▁Honecker	-11.5356
▁Liverpool	-11.5356
▁Lobkowicz	-11.5356
▁Luboš	-11.5356
▁Moskvy	-11.5356
▁Schumacher	-11.5356
▁Stráský	-11.5356
▁TNF	-11.5356
▁Větší	-11.5356
▁angličtiny	-11.5356
▁atribut	-11.5356
▁databázový	-11.5356
▁dosaženo	-11.5356
▁dětství	-11.5356
▁efektivnosti	-11.5356
▁epidemie	-11.5356
▁eventuáln	-11.5356
▁evoluce	-11.5356
▁exhibic	-11.5356
▁extremist	-11.5356
▁hnízd	-11.5356
▁hollywoodsk	-11.5356
▁intenzivní	-11.5356
▁jménu	-11.5356
▁kriminalist	-11.5356
▁kritizoval	-11.5356
▁levněji	-11.5356
▁lhůtě	-11.5356
▁metabolick	-11.5356
▁nabízel	-11.5356
▁nabízet	-11.5356
▁nelíbí	-11.5356
▁nesmějí	-11.5356
▁notebook	-11.5356
▁omezování	-11.5356
▁pohledávky	-11.5356
▁poloostrov	-11.5356
▁polštář	-11.5356
▁pozůstatk	-11.5356
▁počínání	-11.5356
▁pronájmu	-11.5356
▁pódiu	-11.5356
▁redakční	-11.5356
▁ropovod	-11.5356
▁rozšiřování	-11.5356
▁separatist	-11.5356
▁seznámil	-11.5356
▁skrývá	-11.5356
▁spekulace	-11.5356
▁spekulací	-11.5356
▁stadion	-11.5356
▁svědectví	-11.5356
▁tlačítek	-11.5356
▁trápí	-11.5356
▁vyčleněn	-11.5356
▁vztazích	-11.5356
▁výdělečn	-11.5356
▁zdůrazňuje	-11.5356
▁znepokojen	-11.5356
▁ÚSES	-11.5356
▁Budinský	-11.5356
▁Dudajev	-11.5356
▁Frankfurt	-11.5356
▁Měsíc	-11.5356
▁Opět	-11.5356
▁bydliště	-11.5356
▁expanz	-11.5356
▁konkurs	-11.5356
▁kosmické	-11.5356
▁lůžek	-11.5356
▁profesní	-11.5356
▁učební	-11.5356
▁nekončí	-11.5356
▁poskytovan	-11.5356
▁výzvu	-11.5356
kompenz	-11.5356
▁Vánoční	-11.5356
▁Haagu	-11.5356
▁mrtvol	-11.5356
▁prodavač	-11.5356
▁terminologi	-11.5356
▁nazývá	-11.5356
▁nerozumí	-11.5356
▁přiznat	-11.5356
▁skandál	-11.5356
▁Vánoce	-11.5356
▁belgick	-11.5356
▁odlišuj	-11.5356
▁spektrum	-11.5356
▁pojmy	-11.5356
▁pronajat	-11.5356
▁uváděl	-11.5356
▁bezespor	-11.5356
▁plakát	-11.5356
▁demisi	-11.5356
▁Easy	-11.5356
▁mezisklad	-11.5356
▁pokouší	-11.5356
▁pryč	-11.5356
▁komplikace	-11.5356
▁praxí	-11.5356
▁koupě	-11.5356
▁mutace	-11.5356
▁nejmladší	-11.5356
▁nevadí	-11.5356
major	-11.5356
▁Kyjev	-11.5356
▁zastupování	-11.5356
▁Myslíte	-11.5356
▁hygienické	-11.5356
týkat	-11.5356
▁něčím	-11.5356
týkal	-11.5356
▁levicov	-11.5356
▁inteligentní	-11.5356
▁předpokládají	-11.5356
▁snižují	-11.5356
▁rovnost	-11.5356
▁Neznám	-11.5356
▁reprezentuje	-11.5356
▁veterán	-11.5356
▁pohlaví	-11.5356
2:0	-11.5357
▁vyrobil	-11.5357
▁usiloval	-11.5357
▁zastupitelství	-11.5357
▁bydlet	-11.5357
▁inkas	-11.5357
▁ledovce	-11.5357
▁Group	-11.5357
▁ocas	-11.5357
▁teplé	-11.5357
▁výtisk	-11.5357
▁slyšel	-11.5357
▁strážníci	-11.5357
▁ČSTK	-11.5357
▁vápenc	-11.5357
▁pyšn	-11.5357
▁komunikací	-11.5357
▁léčby	-11.5357
▁neodpovídá	-11.5357
▁součin	-11.5357
▁sousedství	-11.5358
▁námitky	-11.5358
▁někam	-11.5358
▁nezajímá	-11.5358
▁interpretace	-11.5358
▁střechy	-11.5358
▁běžc	-11.5358
▁norem	-11.5358
▁Dukla	-11.5358
▁Olg	-11.5358
▁Nájem	-11.5358
▁stolní	-11.5358
▁Žen	-11.5359
▁Prohlásil	-11.5359
▁sumy	-11.5359
▁HDP	-11.5359
▁Thun	-11.5359
▁kabin	-11.5359
KDH	-11.5359
▁stoprocentní	-11.5359
▁kinematografie	-11.536
▁úředníci	-11.536
▁prudké	-11.536
▁složitost	-11.5361
▁určí	-11.5361
bajt	-11.5361
▁kníže	-11.5361
kontinentální	-11.5361
▁pozitivně	-11.5362
rozuměl	-11.5362
▁Nemůže	-11.5363
Finsko	-11.5363
▁datum	-11.5363
▁NOV	-11.5363
míří	-11.5363
▁novinkou	-11.5363
▁teplý	-11.5363
▁prodejců	-11.5364
▁švýcarský	-11.5365
konalo	-11.5365
▁pamatuje	-11.5365
▁Lys	-11.5365
▁dílčí	-11.5365
▁odklad	-11.5365
▁Grafová	-11.5365
▁Solid	-11.5366
▁jmenovat	-11.5366
▁selekčn	-11.5367
▁Neměl	-11.5367
▁geografick	-11.5367
▁hluk	-11.5367
▁hektarů	-11.5367
▁posuzování	-11.5368
▁Libor	-11.5368
▁přenést	-11.5368
▁zmáčkn	-11.5368
tahuje	-11.5368
▁mohutn	-11.5369
▁ohrozit	-11.5369
▁poškodil	-11.5369
▁Původní	-11.537
▁dějinách	-11.537
▁účelům	-11.5371
▁zkoušku	-11.5371
▁přestávce	-11.5371
▁makro	-11.5372
▁Postupně	-11.5372
▁sídlo	-11.5372
▁radio	-11.5374
▁Polák	-11.5374
▁Web	-11.5374
▁předešl	-11.5375
▁Tatra	-11.5375
▁Zpočátku	-11.5375
▁špičkových	-11.5375
▁zapsán	-11.5376
▁disponuje	-11.5376
▁Pardubice	-11.5376
▁10%	-11.5377
▁odhaduje	-11.5377
▁uznává	-11.5378
▁průhledn	-11.5379
▁rozměrů	-11.5379
▁euro	-11.5379
▁úsměvem	-11.538
▁Římě	-11.5382
▁socialistické	-11.5383
▁vykázal	-11.5383
▁Vodičk	-11.5384
▁Určitě	-11.5384
▁sestra	-11.5385
▁badatelé	-11.5386
uskutečnila	-11.5386
▁minulou	-11.5388
▁plaz	-11.539
▁dálnice	-11.5392
▁ohlásil	-11.5393
▁zvířete	-11.5393
MF	-11.5393
▁Zkus	-11.5393
▁svazek	-11.5393
▁motocyklů	-11.5394
▁LID	-11.5395
▁ostrově	-11.5395
▁považoval	-11.5395
ňovací	-11.5395
▁trik	-11.5395
▁vyplácení	-11.5397
▁filozofické	-11.5397
▁stranické	-11.5397
▁zrodil	-11.5399
▁pořadatelů	-11.5401
▁hád	-11.5403
▁kompresi	-11.5403
▁invalidní	-11.5404
▁Tisk	-11.5405
▁gest	-11.5405
▁spuštění	-11.5405
▁posádky	-11.5406
▁sněmovna	-11.5409
sovětsk	-11.5409
▁herci	-11.5409
▁vyhlášky	-11.5411
▁klientel	-11.5412
ovitých	-11.5414
▁klepnutím	-11.5415
▁List	-11.5415
▁schránky	-11.5415
▁Londýna	-11.5416
▁Kremlu	-11.5417
▁Paříže	-11.5417
▁převodu	-11.5417
▁Listin	-11.5418
▁Těm	-11.542
▁akcionáři	-11.542
▁Izraele	-11.5421
▁zvon	-11.5422
▁berou	-11.5422
▁azbestu	-11.5422
▁bazénu	-11.5422
▁zakázku	-11.5423
▁Pravda	-11.5424
▁přistoupil	-11.5424
▁ekonomickým	-11.5428
▁starožitnost	-11.5428
▁Kolumbi	-11.5429
▁vyhrazen	-11.5429
▁prázdné	-11.5431
bez	-11.5431
▁dáno	-11.5431
▁hvězda	-11.5432
▁fotbalisty	-11.5432
▁vteřiny	-11.5434
▁nevhodné	-11.5435
▁problémech	-11.5436
▁vidíme	-11.5438
▁59	-11.5439
UD	-11.5439
▁ryz	-11.544
▁pořádně	-11.5441
▁doprovodu	-11.5441
▁omezeným	-11.5442
▁zásobník	-11.5442
▁sporů	-11.5442
▁zakázal	-11.5443
atřicetilet	-11.5443
dvacetiletý	-11.5445
▁Benda	-11.5448
▁učitelé	-11.545
▁tunelu	-11.5451
▁dialogu	-11.5453
▁pomocník	-11.5453
▁volném	-11.5454
▁nud	-11.5456
▁neobyčejn	-11.5458
▁zvané	-11.5458
▁doplnění	-11.546
▁pěkný	-11.5462
▁spojeno	-11.5464
▁mzdové	-11.5465
hřeb	-11.5465
▁řecké	-11.5466
▁zaujím	-11.5466
▁zakázán	-11.5466
▁zlikvidov	-11.5466
▁čar	-11.5466
▁špičkov	-11.5467
▁nazvaný	-11.5468
▁sond	-11.5469
▁Ře	-11.547
ogenní	-11.5472
▁slevu	-11.5472
▁náměstka	-11.5472
▁Nedo	-11.5473
▁iniciativy	-11.5473
▁poplatníků	-11.5473
▁procesory	-11.5475
▁předmětu	-11.5477
▁Sex	-11.5477
CK	-11.5478
▁přežil	-11.5479
▁povrchem	-11.548
▁silnici	-11.5481
▁údaji	-11.5485
▁jízdu	-11.5486
▁dodá	-11.5486
▁otázkami	-11.5488
▁prodávají	-11.549
▁systémech	-11.5491
▁paktu	-11.5491
▁používané	-11.5492
▁tváře	-11.5493
▁povinné	-11.5496
ŽE	-11.5498
▁dolaru	-11.5499
▁vývojář	-11.5503
▁sortimentu	-11.5504
▁olympiádu	-11.5506
▁výuky	-11.5511
plyn	-11.5511
▁Nizozemska	-11.5512
slouží	-11.5513
▁vrah	-11.5516
▁kritiky	-11.5521
▁vlastník	-11.5523
▁Tito	-11.5529
▁choroby	-11.5535
▁využíván	-11.5537
▁Ivo	-11.5537
▁rozmnož	-11.5538
▁soutěžích	-11.5539
▁monopolní	-11.5541
▁elektrod	-11.5541
▁pacienty	-11.5541
▁zemřelo	-11.5542
stop	-11.5545
▁ukázaly	-11.5548
▁odpadu	-11.5548
▁hostin	-11.5549
▁ilustrac	-11.555
▁vzali	-11.5551
▁nahradí	-11.5551
počtu	-11.5552
▁Japon	-11.5555
▁slovenského	-11.5557
▁etnick	-11.5564
vládní	-11.5564
▁okamžité	-11.5567
škodí	-11.5568
USA	-11.5569
čných	-11.5572
▁krásn	-11.5572
▁Nova	-11.5572
▁soli	-11.5573
▁hodí	-11.5574
▁porazili	-11.5575
▁trojnásobn	-11.558
▁zůstali	-11.558
▁doufám	-11.5584
▁nebýval	-11.5584
▁zastávk	-11.5587
platné	-11.559
▁útvarů	-11.5593
jeden	-11.5594
▁Nizozem	-11.5595
▁činitel	-11.5598
▁Vir	-11.5601
▁jakoukoli	-11.5615
jistá	-11.5619
obec	-11.5619
▁stanovil	-11.5622
▁tradičních	-11.5625
▁ptát	-11.5627
▁odběratele	-11.5631
▁užití	-11.5631
▁Lac	-11.5633
▁automobilové	-11.5637
▁zhodnoc	-11.5637
▁neprav	-11.5639
ázev	-11.5647
▁matematické	-11.565
▁postupuje	-11.5651
▁oprávněné	-11.5651
▁příznačn	-11.5653
▁příklady	-11.5655
▁plynáren	-11.5656
▁demokrat	-11.5656
▁místopředsedy	-11.5661
▁dokázala	-11.5661
▁zálož	-11.5662
▁doprovod	-11.5664
▁nákladné	-11.5675
▁dramatické	-11.5675
lína	-11.5684
IA	-11.5686
▁plzeňské	-11.5686
▁vysílač	-11.5687
▁příkazu	-11.5689
▁Map	-11.5693
psání	-11.5693
▁vyvážen	-11.5694
▁peče	-11.5699
▁převyšuj	-11.57
kých	-11.5702
ther	-11.5702
▁rozumí	-11.5705
▁varianta	-11.5705
ert	-11.5706
▁zvolí	-11.5715
▁Američanů	-11.5718
sadili	-11.572
▁Králov	-11.5724
▁národa	-11.573
▁vyplněn	-11.5732
▁způsobí	-11.5737
▁Dole	-11.5737
▁Švéd	-11.5742
▁konstatova	-11.5751
▁prokázán	-11.5751
▁skutečným	-11.5752
▁slavnost	-11.5753
▁evoluční	-11.5753
▁vlastníka	-11.5755
▁Způsob	-11.576
▁nepříjemn	-11.5764
přestává	-11.5767
▁útoků	-11.5767
▁nejlepšími	-11.5771
▁okamžit	-11.5772
▁vzrost	-11.5777
▁94	-11.5778
▁doufá	-11.5785
▁rozdílné	-11.579
▁Výrobc	-11.5793
▁vyjadřuj	-11.5798
hrnul	-11.5799
ht	-11.5806
▁hory	-11.5808
▁příjemně	-11.5809
hodinový	-11.5815
▁Obchod	-11.5817
▁Václavské	-11.5821
▁Ph	-11.5822
ičku	-11.5826
▁Koš	-11.5826
▁39	-11.5827
▁pořádají	-11.5828
▁badatel	-11.5829
▁uvědomil	-11.5833
▁opačné	-11.5834
▁Tan	-11.5836
▁Významn	-11.5841
platila	-11.5848
▁hodině	-11.5849
▁nepřinesl	-11.5852
▁světle	-11.5853
nikat	-11.5855
▁vhodný	-11.5858
▁pomohla	-11.586
▁souhlasil	-11.586
▁William	-11.5861
ality	-11.5869
▁leteck	-11.587
hodná	-11.5871
vědčí	-11.5875
▁Přím	-11.5876
▁Vysok	-11.5877
▁Dob	-11.5878
dražil	-11.5879
▁táhn	-11.588
▁61	-11.5882
jevit	-11.5884
▁použitím	-11.5889
▁Opti	-11.5894
▁přírodovědeck	-11.5895
57	-11.5897
ušil	-11.5898
alba	-11.5904
▁občansk	-11.5905
▁celo	-11.5908
▁rekordní	-11.591
▁Tvrd	-11.5911
▁pedagogick	-11.5911
podivu	-11.5915
▁vozidl	-11.5916
▁totožn	-11.5918
▁Knih	-11.5919
▁kontinent	-11.5928
▁Čtvrt	-11.5928
sát	-11.5931
▁milost	-11.5933
▁cukr	-11.5933
▁terén	-11.5934
čítat	-11.5937
evropský	-11.5941
▁period	-11.5942
▁zbytečný	-11.5943
▁Střed	-11.5944
▁šlecht	-11.5946
▁čtvereční	-11.5948
▁knížk	-11.5951
▁zkušebn	-11.5953
▁minima	-11.5954
stavovat	-11.5955
▁nadějn	-11.5956
▁uplatňuj	-11.5956
▁postoupil	-11.5956
▁závislost	-11.5959
▁autorit	-11.5964
▁statistick	-11.597
▁Dět	-11.5973
▁zaplacen	-11.5974
hodné	-11.5975
▁infekc	-11.5975
členný	-11.5976
▁vymez	-11.5978
obyčejně	-11.598
sunut	-11.598
▁Kole	-11.5981
▁Brazíli	-11.5981
▁cítím	-11.5985
▁Míst	-11.5986
▁vzp	-11.5988
▁hrazen	-11.5988
▁dvacát	-11.599
▁pozván	-11.599
přineslo	-11.5991
máhat	-11.5995
▁Určit	-11.5995
▁Obča	-11.5995
▁použije	-11.5995
rovnání	-11.5996
▁konstru	-11.5997
▁penzi	-11.5999
▁sediment	-11.5999
ografické	-11.6
trpěl	-11.6005
▁uzavřený	-11.6005
svědčuje	-11.6005
▁byrokrat	-11.6008
▁porod	-11.6012
▁odporu	-11.6013
▁komunik	-11.6014
chybějí	-11.6017
reprezenta	-11.6019
▁KSČ	-11.602
▁projevují	-11.6021
▁uprchl	-11.6022
▁Účast	-11.6022
▁Jenom	-11.6022
JPEG	-11.6023
▁1983	-11.6023
▁Austrálie	-11.6023
▁Domnívám	-11.6023
▁Hamburk	-11.6023
▁Harvard	-11.6023
▁Ludvík	-11.6023
▁Mitterrand	-11.6023
▁Návrat	-11.6023
▁Oldřich	-11.6023
▁Saúdsk	-11.6023
▁Vešker	-11.6023
▁WWW	-11.6023
▁bankovnictví	-11.6023
▁definice	-11.6023
▁deklaraci	-11.6023
▁domorodc	-11.6023
▁důležitější	-11.6023
▁federaci	-11.6023
▁firmách	-11.6023
▁fungování	-11.6023
▁hardwarov	-11.6023
▁infarkt	-11.6023
▁jednodušší	-11.6023
▁konfigurace	-11.6023
▁konkurovat	-11.6023
▁kosmonaut	-11.6023
▁literatuře	-11.6023
▁marketingu	-11.6023
▁novotvary	-11.6023
▁nukleární	-11.6023
▁odpovědět	-11.6023
▁plošný	-11.6023
▁pneumatik	-11.6023
▁pojišťovnou	-11.6023
▁poptávku	-11.6023
▁problematice	-11.6023
▁prozradil	-11.6023
▁předpovědi	-11.6023
▁předvánoční	-11.6023
▁přerozdělování	-11.6023
▁rekreaci	-11.6023
▁rozsudk	-11.6023
▁rozsáhlejší	-11.6023
▁rozčleněn	-11.6023
▁rubrice	-11.6023
▁seskupení	-11.6023
▁symplektick	-11.6023
▁tolerance	-11.6023
▁trénovat	-11.6023
▁vláken	-11.6023
▁vypráví	-11.6023
▁vyžadovat	-11.6023
▁východoevropský	-11.6023
▁zapomenout	-11.6023
▁zaručit	-11.6023
▁zavražděn	-11.6023
▁zodpovězen	-11.6023
▁zákulisí	-11.6023
▁Četrans	-11.6023
▁špatnou	-11.6023
▁Maďarskem	-11.6023
▁Pistol	-11.6023
▁interiér	-11.6023
▁kampaně	-11.6023
▁kvót	-11.6023
▁nenávist	-11.6023
▁osaměl	-11.6023
▁populaci	-11.6023
▁přihlášen	-11.6023
▁referát	-11.6023
▁rozvíjet	-11.6023
▁tiskáren	-11.6023
▁účinků	-11.6023
▁Právo	-11.6023
▁analytick	-11.6023
▁archiv	-11.6023
▁neškodn	-11.6023
▁uvítal	-11.6023
▁cementárn	-11.6023
▁makléř	-11.6023
▁mikrofon	-11.6023
▁vzbudil	-11.6023
přízeň	-11.6023
▁otazník	-11.6023
▁povolební	-11.6023
▁pozměň	-11.6023
▁reagují	-11.6023
▁vyslovit	-11.6023
▁účinné	-11.6023
▁placentál	-11.6023
▁stráví	-11.6023
▁Francií	-11.6023
▁finalist	-11.6023
▁infikova	-11.6023
▁praktik	-11.6023
▁Ctrl	-11.6023
▁ujistil	-11.6023
▁Michel	-11.6023
▁milimetr	-11.6023
▁zastupuje	-11.6023
▁taxonomie	-11.6023
▁podobnou	-11.6023
▁nabídek	-11.6023
▁povstal	-11.6023
▁značku	-11.6023
▁Kurzy	-11.6023
▁aridní	-11.6023
▁elementární	-11.6023
▁brazilsk	-11.6023
▁přehnan	-11.6023
▁ustavující	-11.6023
▁vybojoval	-11.6023
▁fází	-11.6023
▁pól	-11.6023
▁Marián	-11.6023
▁biochemi	-11.6023
▁úložiště	-11.6023
▁Prokop	-11.6023
▁přípustn	-11.6023
▁plastik	-11.6023
▁Pivovar	-11.6023
▁popředí	-11.6023
▁desek	-11.6023
▁odvezl	-11.6023
▁dřevěné	-11.6023
▁uplatňován	-11.6023
▁vrstva	-11.6023
šňů	-11.6023
▁fixac	-11.6023
▁rozdělí	-11.6023
▁párů	-11.6023
▁ovládací	-11.6023
▁trasy	-11.6023
▁FBIS	-11.6023
▁oboustrann	-11.6023
▁zánět	-11.6023
▁jednostrann	-11.6023
▁ČSD	-11.6024
▁Informace	-11.6024
▁učiní	-11.6024
▁poušti	-11.6024
▁Proces	-11.6024
▁mediální	-11.6024
▁komunikační	-11.6024
▁léčbu	-11.6024
▁konsensus	-11.6024
▁Soulu	-11.6024
▁funkčnost	-11.6024
▁střídají	-11.6024
▁komunit	-11.6024
▁Super	-11.6024
▁Moravia	-11.6024
▁robot	-11.6024
▁češtiny	-11.6024
▁holub	-11.6024
▁dotaci	-11.6024
▁1976	-11.6025
▁lázní	-11.6025
▁bezpečně	-11.6025
▁nepřesnost	-11.6025
▁Setkání	-11.6025
▁Značn	-11.6025
▁profesi	-11.6025
▁Nechci	-11.6025
▁bankrot	-11.6025
▁realizace	-11.6025
▁zabránil	-11.6025
▁nominaci	-11.6025
▁Cítí	-11.6025
▁šipk	-11.6025
▁spotřeba	-11.6026
▁sníh	-11.6026
▁zničil	-11.6026
▁fakticky	-11.6026
▁publikaci	-11.6026
▁kameny	-11.6026
▁Irák	-11.6026
▁faul	-11.6027
▁toxické	-11.6027
yplynulo	-11.6027
▁vyprávěl	-11.6027
▁touží	-11.6028
▁mezistátní	-11.6028
▁všední	-11.6028
▁pestr	-11.6028
symetri	-11.6029
▁dvoudenní	-11.6029
▁nepamatuj	-11.6029
▁stěžovat	-11.603
▁Hleda	-11.603
▁vystavuje	-11.603
▁faktorem	-11.6031
▁volající	-11.6031
▁rekordman	-11.6031
▁kardinál	-11.6032
▁líčí	-11.6032
▁hepatocytů	-11.6032
▁distribuční	-11.6032
▁bál	-11.6033
▁desetkrát	-11.6033
▁produkcí	-11.6033
▁nestátní	-11.6033
▁zajišťující	-11.6034
▁spektra	-11.6034
▁palubě	-11.6034
▁Kladně	-11.6034
▁uheln	-11.6034
▁zimy	-11.6034
▁obchodovat	-11.6034
▁Vzá	-11.6034
▁tendence	-11.6035
▁hospodaří	-11.6035
▁PŘÍ	-11.6035
▁uvolni	-11.6035
▁cestách	-11.6036
▁vlasy	-11.6037
▁vynutil	-11.6037
1972	-11.6037
▁vyhodnocení	-11.6037
▁ředitelství	-11.6037
▁významnější	-11.604
chůd	-11.604
▁zajímavost	-11.604
▁Data	-11.604
▁Prag	-11.604
▁nahoře	-11.6041
▁altruismus	-11.6041
▁červnov	-11.6043
▁rock	-11.6043
▁přijatelná	-11.6043
▁umělci	-11.6044
▁konání	-11.6045
▁Mik	-11.6046
▁virus	-11.6046
▁výšky	-11.6047
▁pokrýt	-11.6047
▁zatížení	-11.6047
znamenají	-11.6047
▁evropskou	-11.6048
▁prokázat	-11.6049
▁jednotlivce	-11.6049
▁slavn	-11.605
▁komentátor	-11.6051
▁zvířecí	-11.6051
▁pořádek	-11.6051
▁hudbu	-11.6051
▁pozorovatelé	-11.6053
▁Lidový	-11.6053
▁analýze	-11.6054
▁odsoudil	-11.6054
▁předloží	-11.6054
▁vysloužil	-11.6054
▁bytový	-11.6055
▁zelený	-11.6056
▁ekonomikou	-11.6056
▁řetězce	-11.6057
▁pásmu	-11.6058
▁vydávat	-11.6059
▁cokoli	-11.606
▁nouze	-11.6061
▁zeď	-11.6061
▁vysílací	-11.6062
▁různě	-11.6063
▁Číně	-11.6064
▁autobusem	-11.6064
▁dosáhne	-11.6065
sloučenin	-11.6065
▁Každé	-11.6065
▁vyhrát	-11.6065
▁přesností	-11.6067
ousek	-11.6068
▁zmínil	-11.6068
▁sumu	-11.6068
▁modelování	-11.6069
▁pevnin	-11.6069
▁vědce	-11.607
▁mlhy	-11.6071
▁řádku	-11.6071
▁připraví	-11.6071
▁vyřazení	-11.6071
▁technickou	-11.6072
▁pozoruhodné	-11.6072
▁nedokáže	-11.6074
▁podepsání	-11.6075
▁nástupce	-11.6076
▁středoevropské	-11.6079
▁vložené	-11.608
▁návštěvníky	-11.6082
▁vzrostl	-11.6083
▁výtvarník	-11.6085
▁směřující	-11.6085
▁Alžběta	-11.6087
▁Bratinka	-11.6087
▁soukromí	-11.6087
▁Chebu	-11.6088
▁vyloučeno	-11.609
▁pomst	-11.6091
▁zastává	-11.6091
▁síťové	-11.6092
▁jistotou	-11.6093
▁krajině	-11.6094
▁předkol	-11.6096
▁zoologick	-11.6097
kontroluje	-11.61
▁výhodný	-11.6101
▁slavnosti	-11.6101
▁ekonomiku	-11.6103
▁Šlo	-11.6103
▁odstoupil	-11.6104
▁kanály	-11.6104
▁oceánické	-11.6106
▁nuly	-11.6106
▁pokladny	-11.6106
▁pravá	-11.6107
▁disciplíny	-11.6107
▁kurzů	-11.6107
objednáv	-11.6108
▁stálý	-11.6109
▁kalendářní	-11.6109
▁rozpočtový	-11.6109
dražit	-11.611
▁optimismu	-11.6111
▁Francouzský	-11.6112
▁přispívají	-11.6113
▁listiny	-11.6114
▁stoupla	-11.6117
▁dospělých	-11.6117
▁proslul	-11.6117
▁vybrali	-11.6119
▁zjednodušen	-11.612
▁dopisů	-11.6121
štění	-11.6122
▁plen	-11.6123
▁předsedkyn	-11.6124
▁přístavu	-11.6125
▁Stor	-11.6127
▁ránu	-11.6127
▁hormonů	-11.6129
▁Anna	-11.613
▁autobusové	-11.6133
▁sestaven	-11.6137
▁vzrostla	-11.6137
▁aparátu	-11.6138
▁středověku	-11.6138
▁aplikacemi	-11.6138
hodnost	-11.6138
náze	-11.6138
▁hosté	-11.6139
▁diváky	-11.6139
obrazit	-11.614
▁opakuje	-11.614
▁nevěděli	-11.6141
▁filmař	-11.6141
▁vyloučení	-11.6142
▁úhradu	-11.6144
▁bránil	-11.6147
▁etapa	-11.6148
▁délky	-11.6149
▁nastane	-11.615
▁Trh	-11.6151
▁dozvěděli	-11.6151
▁zvykem	-11.6151
▁telefonů	-11.6152
▁diplomatický	-11.6152
▁Fakt	-11.6153
▁válečný	-11.6153
▁obchodník	-11.6155
živí	-11.6156
▁Historick	-11.6157
▁Možnosti	-11.6158
rovnávání	-11.6159
▁ostrova	-11.616
▁dodávat	-11.616
▁černého	-11.6162
▁dramatick	-11.6163
▁pořádání	-11.6163
▁zvolení	-11.6163
▁dluhy	-11.6164
▁nedoved	-11.6165
▁citeln	-11.6167
▁návratnost	-11.6169
▁klesla	-11.617
▁OB	-11.6171
▁přísné	-11.6171
▁větru	-11.6172
▁samotného	-11.6173
▁Začátk	-11.6173
▁městem	-11.6173
▁mraz	-11.6174
▁široký	-11.6176
▁krádež	-11.6176
▁motorem	-11.618
▁Radnic	-11.6182
▁zúčastněný	-11.6183
▁možnostech	-11.6187
▁vysokým	-11.6187
▁nezávislosti	-11.6188
▁nepřímo	-11.6189
▁dodavatelů	-11.6193
▁chaty	-11.6194
▁nemáte	-11.6194
▁útvaru	-11.6196
▁hladinu	-11.6197
▁nazvané	-11.6199
▁vědecky	-11.6199
▁svěřil	-11.62
▁proteinu	-11.6201
▁bra	-11.6201
▁úspěšných	-11.6201
▁horké	-11.6201
▁objevilo	-11.6203
▁Muži	-11.6204
▁obchodníky	-11.6204
▁generálním	-11.6205
▁rezervy	-11.6206
▁Hilla	-11.6206
ovité	-11.6206
▁katastrofy	-11.6206
▁Kamen	-11.6207
▁dovnitř	-11.6208
▁investici	-11.621
▁představila	-11.621
▁titulem	-11.6213
LET	-11.6214
▁Vznikl	-11.6216
▁magi	-11.6218
▁Alan	-11.6221
▁tématu	-11.6222
▁spustí	-11.6226
▁Ročn	-11.6229
▁nechtěli	-11.6235
▁editoru	-11.6238
▁liga	-11.6242
▁zaměstnavateli	-11.6242
▁kanceláři	-11.6244
▁založili	-11.6251
▁lekto	-11.6251
▁požádala	-11.6253
▁krásný	-11.6261
děláme	-11.6263
▁Chorvatsk	-11.6263
▁kulturu	-11.6268
▁zpětn	-11.6271
▁postaví	-11.6273
▁zápasech	-11.6273
▁nedělním	-11.6283
ovská	-11.6283
▁kurzy	-11.6283
▁podzimu	-11.6284
▁udělala	-11.6287
▁katalogu	-11.6289
▁odstupné	-11.6293
▁tréninku	-11.6295
▁radí	-11.6296
▁nacházel	-11.6299
▁předák	-11.6299
▁samém	-11.6301
▁góly	-11.6304
▁pohybů	-11.6305
▁Dne	-11.6306
účel	-11.6307
▁nabídla	-11.6309
▁šťastný	-11.631
odpovědn	-11.6312
▁vyroben	-11.6317
NU	-11.6322
▁zločiny	-11.6322
▁odvod	-11.6326
▁dokonalý	-11.6328
▁vítězem	-11.633
▁Osl	-11.633
panuje	-11.6331
▁vlastníky	-11.6341
ohled	-11.635
▁lebk	-11.6355
▁českými	-11.6356
▁kapacita	-11.6358
▁krátkém	-11.636
UM	-11.6365
▁českému	-11.6366
nesení	-11.6373
▁známy	-11.6381
▁Casimir	-11.6384
operační	-11.6385
▁čestn	-11.6385
méno	-11.6387
▁sovět	-11.6388
▁ověřit	-11.6389
produkt	-11.639
hradil	-11.6392
▁nedělá	-11.6392
▁nacházejí	-11.6393
▁upravené	-11.6395
▁dostával	-11.6396
1992	-11.6397
1991	-11.6397
pravicov	-11.6398
který	-11.6399
▁majetkové	-11.6401
hraj	-11.6404
▁dotazy	-11.6411
▁ledu	-11.6411
▁maso	-11.6417
▁Výkon	-11.6418
vydržel	-11.642
▁vypracoval	-11.6422
▁královské	-11.6425
▁socialist	-11.6429
▁obcích	-11.6429
▁Žád	-11.6431
96	-11.6431
terak	-11.6431
▁dosáhli	-11.6434
▁4000	-11.6439
▁obrovsk	-11.644
bov	-11.6442
▁Borise	-11.6443
▁poradenské	-11.6443
uživatelské	-11.6444
▁Americké	-11.6444
ND	-11.645
▁jakosti	-11.6454
▁logik	-11.6456
▁květ	-11.6457
▁pravým	-11.6457
ALE	-11.646
▁Podpor	-11.646
▁Eli	-11.6463
▁Kos	-11.6464
▁náboženský	-11.6469
bitový	-11.6475
pokládat	-11.6475
▁modifik	-11.6476
stižen	-11.648
▁Mladiče	-11.6495
zkoumat	-11.6495
značení	-11.6496
ladit	-11.6499
▁Prac	-11.6502
▁Perské	-11.6504
▁slun	-11.6504
▁velitele	-11.6504
▁vítězk	-11.6509
▁způsobeno	-11.651
poškozené	-11.6517
▁vynález	-11.6521
▁slušný	-11.6523
▁následné	-11.6526
▁vytvořený	-11.6539
▁sobotním	-11.6542
šený	-11.6544
▁muslimsk	-11.655
78	-11.655
▁Druh	-11.6553
▁podrobně	-11.6561
▁jakýkoli	-11.6562
▁Svobodn	-11.6565
▁nád	-11.6565
▁předků	-11.6567
▁vrácen	-11.6567
▁mužem	-11.6571
▁Jih	-11.6571
▁strašn	-11.6575
léhá	-11.6579
▁sluš	-11.6579
▁ovlivnil	-11.6581
▁prostý	-11.6582
▁splněn	-11.6583
pracovala	-11.6585
▁nabízené	-11.6586
▁překonal	-11.6597
▁trávi	-11.6599
▁poplatník	-11.6604
▁bitv	-11.6604
▁Park	-11.6611
avky	-11.6615
ůbec	-11.6617
ocel	-11.6621
▁případném	-11.6623
▁racionální	-11.6627
▁Tureck	-11.6628
▁nemovitost	-11.6629
▁pozic	-11.663
četné	-11.663
▁Daně	-11.6645
▁Hans	-11.6648
▁poslání	-11.6651
▁Skutečn	-11.6656
▁propojen	-11.6656
NG	-11.6657
▁charakterizova	-11.6661
▁spravedlnost	-11.6663
▁elektřin	-11.6665
▁myš	-11.6667
▁ukazatel	-11.6669
▁ptá	-11.667
▁architektur	-11.6671
▁poskytován	-11.6673
▁vrcholové	-11.6673
konaly	-11.6677
▁zklamán	-11.6677
▁pozorovatel	-11.6682
rovné	-11.6682
gramů	-11.6684
▁Spíš	-11.6686
▁Černé	-11.6692
▁vyplacen	-11.6692
▁honorář	-11.6695
▁bilanc	-11.6696
▁srovnateln	-11.6697
▁53	-11.6698
▁Víc	-11.67
kdy	-11.6703
▁doporučen	-11.6704
▁učit	-11.6706
▁vyrůst	-11.6706
▁fundamentalist	-11.6708
▁nemocné	-11.671
▁sexu	-11.6712
▁kilogram	-11.6713
▁kořen	-11.6719
▁tržb	-11.6723
▁průvod	-11.6723
▁stanovis	-11.6725
▁teplá	-11.6728
▁identifik	-11.673
malý	-11.6733
▁účinku	-11.6736
ýpovědní	-11.6737
▁Akademie	-11.6737
▁Hospodářsk	-11.6737
▁SPIRIT	-11.6737
▁TWA	-11.6737
▁brožur	-11.6737
▁bulharsk	-11.6737
▁drůbež	-11.6737
▁kazašsk	-11.6737
▁ofsajd	-11.6737
▁paměť	-11.6737
▁poválečn	-11.6737
▁radikálně	-11.6737
▁velvyslanec	-11.6737
▁zázračn	-11.6737
▁Albertville	-11.6737
▁Bratislavy	-11.6737
▁Delphi	-11.6737
▁Digital	-11.6737
▁General	-11.6737
▁Kuvajt	-11.6737
▁Muslim	-11.6737
▁Netanjahu	-11.6737
▁Princip	-11.6737
▁Pálffy	-11.6737
▁Reichel	-11.6737
▁Student	-11.6737
▁Teplice	-11.6737
▁Vynikající	-11.6737
▁databáze	-11.6737
▁databázi	-11.6737
▁delegát	-11.6737
▁diktátor	-11.6737
▁dveřmi	-11.6737
▁finálové	-11.6737
▁havárii	-11.6737
▁injekc	-11.6737
▁inzulín	-11.6737
▁kanalizací	-11.6737
▁katalyzátor	-11.6737
▁komedie	-11.6737
▁komisař	-11.6737
▁kompetencí	-11.6737
▁lahví	-11.6737
▁lidstvo	-11.6737
▁milisekund	-11.6737
▁nechybí	-11.6737
▁nosorožců	-11.6737
▁novorozen	-11.6737
▁odpolední	-11.6737
▁olomoucké	-11.6737
▁omezit	-11.6737
▁organismy	-11.6737
▁paradigma	-11.6737
▁pojišťoven	-11.6737
▁pojišťovně	-11.6737
▁portfeje	-11.6737
▁pořizovací	-11.6737
▁poštovní	-11.6737
▁prodluž	-11.6737
▁pátku	-11.6737
▁přísluší	-11.6737
▁raketoplán	-11.6737
▁severozápad	-11.6737
▁sféře	-11.6737
▁splátek	-11.6737
▁tekutin	-11.6737
▁thajské	-11.6737
▁těhotenství	-11.6737
▁vlhkost	-11.6737
▁vrtulník	-11.6737
▁vyčerpán	-11.6737
▁vídeňské	-11.6737
▁zahájit	-11.6737
▁zakázek	-11.6737
▁zaručuje	-11.6737
▁zdůraznit	-11.6737
▁zneužívání	-11.6737
▁zopakoval	-11.6737
▁zpracovává	-11.6737
▁záruční	-11.6737
▁účinnou	-11.6737
▁Černomyrdin	-11.6737
▁železnice	-11.6737
▁Dokument	-11.6737
▁KGB	-11.6737
▁Němce	-11.6737
▁emitent	-11.6737
▁holding	-11.6737
▁informuje	-11.6737
▁komodit	-11.6737
▁málokdo	-11.6737
▁nesrovnateln	-11.6737
▁obyvatelstvo	-11.6737
▁podezřelý	-11.6737
▁pohodlné	-11.6737
▁stadiu	-11.6737
▁Československý	-11.6737
▁SGI	-11.6737
▁kolegové	-11.6737
▁lehký	-11.6737
▁smířit	-11.6737
▁stěžuje	-11.6737
▁trénuj	-11.6737
▁vyústi	-11.6737
▁kultuře	-11.6737
▁přeplněn	-11.6737
▁rozsáhlou	-11.6737
▁srbské	-11.6737
▁svrchované	-11.6737
▁chystají	-11.6737
▁odstavec	-11.6737
▁umírněn	-11.6737
▁železné	-11.6737
▁James	-11.6737
▁Zajímal	-11.6737
▁nejblíže	-11.6737
▁netrpěliv	-11.6737
▁polymer	-11.6737
▁vzdělan	-11.6737
▁dávek	-11.6737
▁tvořiv	-11.6737
▁podepsat	-11.6737
▁Holandsk	-11.6737
▁Prahou	-11.6737
▁nepodaří	-11.6737
▁nikomu	-11.6737
▁někomu	-11.6737
▁Automatick	-11.6737
▁loupež	-11.6737
▁odhalit	-11.6737
▁podporoval	-11.6737
LSNS	-11.6737
glaciál	-11.6737
▁Kadlec	-11.6737
▁Mlýn	-11.6737
▁poznámky	-11.6737
▁mutací	-11.6737
▁oběhové	-11.6737
▁ceremoniál	-11.6737
▁přetížen	-11.6737
▁úchyt	-11.6737
▁prováděl	-11.6737
▁Fuchs	-11.6737
běhnout	-11.6737
▁Louis	-11.6737
▁dědeček	-11.6737
▁Zpráv	-11.6737
▁něčeho	-11.6737
▁FMV	-11.6737
▁Zdravotn	-11.6737
▁Bohuslav	-11.6737
▁nedaleké	-11.6737
▁PET	-11.6737
▁Front	-11.6737
▁fotografií	-11.6737
▁vybudoval	-11.6737
▁stromeček	-11.6737
▁chleba	-11.6737
▁formálně	-11.6737
▁modré	-11.6737
▁mocenské	-11.6737
▁implantát	-11.6737
▁hokejistů	-11.6737
▁Účastníci	-11.6737
▁Suková	-11.6738
▁Týden	-11.6738
▁Kouba	-11.6738
▁kamión	-11.6738
drobnější	-11.6738
▁jízdenk	-11.6738
▁legendární	-11.6738
▁Život	-11.6738
▁lákav	-11.6738
▁Opava	-11.6738
▁1979	-11.6738
▁lehko	-11.6738
hánějí	-11.6738
▁kapsy	-11.6738
▁PŘI	-11.6738
▁nejsme	-11.6738
▁usedl	-11.6738
▁Samotn	-11.6738
▁transport	-11.6738
▁účinnější	-11.6738
▁kopií	-11.6738
▁adaptace	-11.6738
▁Zvýšen	-11.6738
▁vyhořelé	-11.6738
▁zmizí	-11.6738
▁nazvat	-11.6738
▁princ	-11.6738
▁pojmu	-11.6738
▁Ježek	-11.6738
hrádk	-11.6738
▁neuron	-11.6738
▁Bartoš	-11.6738
▁Zápas	-11.6738
▁písmo	-11.6739
▁stimulaci	-11.6739
▁únosn	-11.6739
▁Španělsku	-11.6739
▁Následující	-11.6739
▁hlučn	-11.6739
▁štědr	-11.6739
▁Hledá	-11.6739
▁nikam	-11.6739
▁jinam	-11.6739
▁rovný	-11.6739
▁Klasick	-11.6739
▁neznají	-11.6739
▁vejce	-11.6739
▁výsad	-11.6739
▁registrační	-11.6739
▁ležel	-11.6739
▁oblouk	-11.6739
▁1970	-11.674
▁zády	-11.674
▁nereáln	-11.674
STAV	-11.674
▁ultra	-11.674
▁psy	-11.674
▁hraček	-11.674
▁třídenní	-11.674
▁protestant	-11.674
▁vycházejí	-11.6741
▁nikde	-11.6741
▁pískov	-11.6741
▁nosič	-11.6741
▁nájezd	-11.6741
▁odezv	-11.6741
▁Obavy	-11.6741
▁umělců	-11.6741
▁republikánsk	-11.6741
▁Jaw	-11.6742
▁zranil	-11.6742
▁bohatší	-11.6742
▁Obraz	-11.6742
▁vyzkoušet	-11.6742
▁vyhledávání	-11.6742
▁Januš	-11.6742
vážil	-11.6742
ůstek	-11.6742
▁starat	-11.6742
▁sněmu	-11.6743
▁lékařství	-11.6743
▁topení	-11.6743
▁nádrž	-11.6743
▁stanovisku	-11.6743
▁Jágr	-11.6743
▁kouření	-11.6743
▁koncept	-11.6743
▁odnětí	-11.6743
▁Přenos	-11.6744
▁Kováč	-11.6744
▁Stef	-11.6744
▁kras	-11.6745
vracení	-11.6745
▁články	-11.6745
▁inteligence	-11.6745
▁koncepčn	-11.6745
▁Dostál	-11.6745
▁Bohu	-11.6745
▁překonání	-11.6746
▁potká	-11.6746
▁příloh	-11.6747
▁odstoupení	-11.6748
▁posílit	-11.6748
▁deště	-11.6748
▁způsobilosti	-11.6748
▁sloves	-11.6749
▁řadič	-11.6749
▁zkoumání	-11.6749
▁palet	-11.6749
▁vracel	-11.675
▁okně	-11.675
▁zelené	-11.675
▁dostání	-11.6751
▁Snah	-11.6751
▁manželkou	-11.6751
▁602	-11.6752
▁přenáší	-11.6752
▁deska	-11.6752
▁Horák	-11.6752
▁jasná	-11.6752
▁Boha	-11.6753
▁Esc	-11.6753
▁vyrazil	-11.6754
▁konstantní	-11.6754
▁sešla	-11.6755
▁ČESK	-11.6756
▁prah	-11.6756
▁novinky	-11.6757
▁zařadit	-11.6757
▁oběť	-11.6757
[...]
