<unk>	0
<s>	0
</s>	0
<doc>	0
</doc>	0
<head>	0
</head>	0
<phr>	0
</phr>	0
▁	-1.74918
,	-3.33356
.	-3.47945
▁a	-4.40681
▁v	-4.46497
a	-4.52676
▁se	-4.57194
u	-4.66008
▁na	-4.67306
m	-4.71071
i	-4.8555
y	-4.88385
ch	-4.94631
▁je	-5.09965
ho	-5.26272
▁"	-5.28395
▁z	-5.31007
▁s	-5.31472
▁že	-5.35177
o	-5.46942
e	-5.50241
á	-5.52955
▁do	-5.58019
▁o	-5.59249
ou	-5.62929
s	-5.68634
í	-5.69365
em	-5.75237
é	-5.76124
▁pro	-5.76587
▁za	-5.7915
ě	-5.79451
▁-	-5.86769
▁po	-5.88881
t	-5.93229
▁k	-5.95665
ů	-5.97392
▁to	-6.04765
ž	-6.0546
to	-6.05936
▁V	-6.06726
▁ve	-6.07867
▁(	-6.08882
▁i	-6.1576
▁by	-6.18724
mi	-6.19358
▁ale	-6.28745
>	-6.30254
ý	-6.30795
▁si	-6.37702
▁od	-6.39194
ní	-6.45499
▁jsou	-6.47796
▁při	-6.48542
▁jako	-6.49566
▁které	-6.52965
z	-6.53074
ých	-6.56914
)	-6.59457
▁však	-6.60749
▁ne	-6.62588
▁:	-6.64019
▁tak	-6.65655
l	-6.66602
ně	-6.71414
p	-6.72004
▁který	-6.7233
d	-6.72999
▁S	-6.73134
me	-6.74026
v	-6.74967
x	-6.80181
r	-6.80216
▁nebo	-6.80583
▁jeho	-6.81436
▁bude	-6.82569
te	-6.83387
?	-6.84808
k	-6.84941
ce	-6.86114
▁Po	-6.86954
▁jen	-6.88503
▁A	-6.90244
▁vy	-6.9127
ka	-6.92526
▁než	-6.96556
▁má	-6.97196
▁před	-6.97452
▁Na	-7.0148
▁už	-7.02572
▁aby	-7.04907
▁byl	-7.06717
na	-7.07057
li	-7.07536
▁jak	-7.08057
▁jejich	-7.08611
ové	-7.09072
▁Z	-7.09799
▁jsem	-7.0994
▁být	-7.10167
▁až	-7.11116
ého	-7.12806
mu	-7.14646
▁která	-7.1465
▁také	-7.15328
ku	-7.15535
né	-7.16799
la	-7.17277
▁jsme	-7.18617
▁Je	-7.19657
▁podle	-7.19679
▁<	-7.19757
▁ze	-7.21584
č	-7.22094
ná	-7.23062
ci	-7.24523
b	-7.2509
▁O	-7.252
ky	-7.26638
ech	-7.27506
▁P	-7.28703
▁co	-7.3146
▁není	-7.31894
▁mezi	-7.34084
▁K	-7.35281
▁bylo	-7.35536
n	-7.357
▁či	-7.3637
▁ani	-7.36568
▁své	-7.37524
▁ještě	-7.38016
▁již	-7.392
▁když	-7.40075
▁může	-7.40886
it	-7.42088
ek	-7.42662
ovat	-7.42965
▁byla	-7.43141
▁let	-7.43549
š	-7.44919
j	-7.45113
▁toho	-7.45233
uje	-7.45619
le	-7.45773
že	-7.46161
st	-7.46198
lo	-7.465
▁pře	-7.46907
kud	-7.47065
▁korun	-7.47233
/	-7.48574
cí	-7.50021
ým	-7.51022
ová	-7.52174
).	-7.52249
▁pak	-7.5369
c	-7.53799
▁další	-7.54918
▁kteří	-7.55723
▁kde	-7.5609
▁tím	-7.56669
nou	-7.57801
▁To	-7.5871
▁pod	-7.59034
h	-7.59342
▁té	-7.59636
▁více	-7.59933
en	-7.61107
ni	-7.61968
▁roku	-7.62226
▁první	-7.62256
▁tedy	-7.62453
▁bez	-7.62456
▁nich	-7.669
ách	-7.67446
▁Ne	-7.67774
),	-7.69043
f	-7.69394
ný	-7.70276
in	-7.70302
ování	-7.70416
ň	-7.70682
▁mají	-7.71458
ze	-7.719
▁tu	-7.72588
al	-7.74606
▁M	-7.75038
▁Za	-7.76069
-	-7.76149
▁roce	-7.76379
▁pouze	-7.76658
il	-7.7693
▁musí	-7.76946
no	-7.77031
▁kdy	-7.78198
▁tom	-7.78258
▁tomu	-7.79988
▁proti	-7.80336
ře	-7.80966
▁U	-7.81341
▁ke	-7.81472
▁proto	-7.82221
ových	-7.82654
jí	-7.83061
▁budou	-7.8357
g	-7.83746
▁I	-7.84022
▁li	-7.84638
ost	-7.84684
▁třeba	-7.84961
ří	-7.8557
▁protože	-7.85792
▁totiž	-7.86526
ům	-7.86714
ra	-7.86965
ne	-7.87169
ské	-7.87194
on	-7.8782
▁nad	-7.87978
▁nás	-7.88008
▁D	-7.88275
ovi	-7.88282
ných	-7.88612
▁lze	-7.88986
▁J	-7.89156
▁Pro	-7.9012
po	-7.90274
ují	-7.90848
▁roz	-7.91534
ta	-7.92035
▁asi	-7.93471
▁H	-7.93472
▁byly	-7.93562
▁její	-7.93749
▁měl	-7.93804
▁poslední	-7.93951
▁velmi	-7.93987
▁zatím	-7.94553
ři	-7.94593
▁řekl	-7.95
vá	-7.98864
ko	-7.99191
▁včera	-7.99276
▁vlastní	-7.99439
cích	-7.9951
▁Do	-7.9953
▁ty	-8.00874
lu	-8.02008
ro	-8.02826
ti	-8.02965
▁přes	-8.03197
ru	-8.03771
▁dnes	-8.03947
▁Podl	-8.04192
co	-8.04539
▁firmy	-8.04678
▁Při	-8.05673
▁dva	-8.05773
▁především	-8.07012
▁tisíc	-8.08111
pl	-8.08904
ř	-8.09257
▁případě	-8.09498
▁všech	-8.09763
▁'	-8.10379
kou	-8.1048
▁Ve	-8.10657
▁například	-8.11138
ov	-8.11158
el	-8.11557
▁nám	-8.1268
vě	-8.12694
osti	-8.12925
▁G	-8.1378
▁rok	-8.13858
▁době	-8.14107
at	-8.14236
▁nyní	-8.1434
▁T	-8.14544
▁mít	-8.15166
je	-8.15239
▁tři	-8.17245
▁nej	-8.17392
▁dvou	-8.1759
▁procent	-8.17714
ny	-8.1799
▁ji	-8.18128
ový	-8.18409
va	-8.18808
lí	-8.18894
or	-8.18943
ly	-8.19029
▁jim	-8.19302
▁lidí	-8.19317
či	-8.19354
▁společnosti	-8.19512
da	-8.19703
▁práce	-8.19727
▁zda	-8.19799
▁mohou	-8.20009
▁stále	-8.20264
▁jeden	-8.20418
▁těchto	-8.20938
▁ovšem	-8.2107
▁všechny	-8.2139
če	-8.21797
se	-8.21916
S	-8.21992
čí	-8.22106
ém	-8.22286
nu	-8.22463
▁několik	-8.23633
▁Co	-8.2387
ovou	-8.2392
právě	-8.24239
er	-8.25153
▁kterou	-8.2545
▁B	-8.25799
▁což	-8.25865
oval	-8.26526
M	-8.26663
▁něm	-8.26855
...	-8.26912
ty	-8.27103
lá	-8.28068
▁tento	-8.28232
ami	-8.28663
D	-8.30343
▁ob	-8.30521
▁možné	-8.30523
▁jednání	-8.306
▁Ale	-8.3061
tr	-8.31308
ými	-8.31362
▁České	-8.31609
ri	-8.31626
ích	-8.31771
de	-8.32011
T	-8.32149
▁Jak	-8.32372
▁nové	-8.32384
▁dalších	-8.32567
cela	-8.32749
ného	-8.33247
tě	-8.33466
▁jde	-8.33574
▁měla	-8.34984
▁ČR	-8.35092
▁kdo	-8.35213
tu	-8.35703
▁Praze	-8.35868
ově	-8.35963
vol	-8.36073
děl	-8.36349
▁Od	-8.36411
▁zejména	-8.36454
▁základní	-8.36488
téměř	-8.36749
▁L	-8.36945
▁naše	-8.37017
▁R	-8.37117
▁zařízení	-8.37213
▁svou	-8.37381
ba	-8.37922
ví	-8.38363
ská	-8.39036
▁Proto	-8.39202
▁strany	-8.3942
si	-8.40164
ám	-8.40498
▁naši	-8.40503
kr	-8.40738
▁možnost	-8.4097
▁prostředí	-8.41247
ší	-8.41251
▁letech	-8.41991
spo	-8.42055
▁sice	-8.42076
3	-8.42076
B	-8.42631
R	-8.4277
▁dvě	-8.42905
ním	-8.42917
▁Kdy	-8.4299
▁svého	-8.43305
us	-8.43862
ového	-8.44111
▁větší	-8.4417
▁svých	-8.44406
▁nejen	-8.45543
K	-8.45841
▁jiné	-8.46381
ský	-8.46553
▁C	-8.46558
du	-8.46573
ry	-8.47365
tá	-8.47541
an	-8.47814
▁část	-8.47881
L	-8.48198
▁světa	-8.48232
▁uvedl	-8.48369
ující	-8.48591
▁tomto	-8.48591
▁místo	-8.48965
▁Tak	-8.49526
vý	-8.49908
by	-8.50074
▁každý	-8.50455
ma	-8.50588
ků	-8.50616
hr	-8.50631
vi	-8.50811
re	-8.51625
▁000	-8.51654
▁druhé	-8.52289
▁milionů	-8.52354
ným	-8.52509
ních	-8.52691
▁2	-8.52702
▁nic	-8.52842
▁stát	-8.52853
▁zde	-8.53072
▁něco	-8.53586
▁vlády	-8.53658
▁svým	-8.53831
ha	-8.54253
2	-8.5444
▁stejně	-8.55174
▁říká	-8.55457
za	-8.55808
ského	-8.55879
▁mu	-8.561
▁kolem	-8.56567
▁některé	-8.56655
▁země	-8.56874
V	-8.5692
▁ceny	-8.57156
▁F	-8.57464
ských	-8.57687
nost	-8.57868
A	-8.57969
▁10	-8.57971
▁zákona	-8.58043
I	-8.58052
▁systém	-8.58063
hl	-8.58318
▁zboží	-8.58356
ští	-8.58485
▁tam	-8.59076
ova	-8.59135
ec	-8.5915
od	-8.59239
tí	-8.60006
▁oblasti	-8.60225
kem	-8.60718
▁dobře	-8.60749
lé	-8.6086
▁příliš	-8.60932
▁patří	-8.61003
N	-8.6118
▁mě	-8.61311
▁finanční	-8.61474
▁svůj	-8.61674
▁dosud	-8.61678
▁pracovní	-8.61985
▁některých	-8.62099
▁práci	-8.62353
et	-8.62675
▁zemí	-8.62731
▁byli	-8.62737
nější	-8.62864
dr	-8.62872
pr	-8.62918
▁de	-8.62994
P	-8.63004
is	-8.6315
▁čas	-8.63331
▁1	-8.636
1	-8.63726
▁vůbec	-8.6378
ve	-8.63962
▁opět	-8.64061
▁Ko	-8.64193
C	-8.64303
▁několika	-8.64332
▁sociální	-8.64934
4	-8.65369
▁období	-8.65467
▁vždy	-8.65497
ží	-8.65507
ji	-8.65684
w	-8.65702
▁neboť	-8.66283
▁zákon	-8.66877
ká	-8.67853
▁%	-8.68008
ť	-8.68178
▁ten	-8.68302
▁N	-8.68581
tra	-8.68706
▁firma	-8.69192
▁střední	-8.69596
▁nejsou	-8.69778
▁často	-8.7003
▁jež	-8.70143
▁vyšší	-8.70404
▁systému	-8.71217
▁3	-8.71527
še	-8.71528
▁dokonce	-8.72003
▁Jan	-8.72338
▁jste	-8.72388
▁přímo	-8.72515
ím	-8.72696
▁USA	-8.73003
▁hodin	-8.7302
ení	-8.73381
▁měli	-8.73444
vr	-8.7346
▁společnost	-8.73553
▁Vy	-8.73627
▁sám	-8.73657
bu	-8.73669
os	-8.73732
ají	-8.73796
▁den	-8.73894
▁Kč	-8.74256
ar	-8.74352
▁Js	-8.74411
▁lidé	-8.74677
▁celé	-8.74823
▁Š	-8.75433
▁nepo	-8.75695
▁nebude	-8.75697
▁doby	-8.75859
během	-8.75925
ální	-8.7596
▁rovněž	-8.76221
6	-8.76358
▁níž	-8.76375
Z	-8.76866
▁trhu	-8.77003
▁informace	-8.77004
▁program	-8.77398
ili	-8.77426
▁nimi	-8.77733
lou	-8.77891
▁čtyři	-8.77985
▁počet	-8.78164
vůli	-8.78244
7	-8.78475
val	-8.78535
včetně	-8.78597
▁pět	-8.78629
zřejmě	-8.78829
▁půl	-8.78853
ob	-8.78905
▁situace	-8.78996
ické	-8.79032
▁části	-8.79082
▁takže	-8.79087
▁Ty	-8.79126
▁sebe	-8.79622
▁nemá	-8.79745
▁zahraničí	-8.79804
ců	-8.79813
▁státní	-8.79869
▁mohl	-8.80912
E	-8.81146
00	-8.81195
▁5	-8.81235
ur	-8.81454
▁obchodní	-8.81595
tato	-8.81901
▁vše	-8.81921
▁méně	-8.82116
5	-8.82251
▁jedn	-8.82322
▁např	-8.82506
▁ministr	-8.82538
▁Evropy	-8.82685
▁peníze	-8.82685
ace	-8.82901
▁E	-8.83141
▁prezident	-8.83216
▁nevy	-8.83339
▁Zatím	-8.83543
▁víc	-8.83545
▁svět	-8.83808
▁něj	-8.83974
▁snad	-8.8406
▁chce	-8.84188
▁jednotlivý	-8.84294
▁vám	-8.8437
ční	-8.84402
▁mnoho	-8.84503
▁způsobem	-8.84608
▁největší	-8.84676
▁znamená	-8.84692
pa	-8.84792
▁takové	-8.84883
pe	-8.84925
▁neu	-8.84928
hu	-8.85034
ila	-8.85096
ši	-8.85099
▁ředitel	-8.85333
▁spíše	-8.85523
▁české	-8.85561
▁republiky	-8.85582
ste	-8.85802
ovali	-8.86098
▁velký	-8.86248
▁dobu	-8.86908
▁dále	-8.86928
▁navíc	-8.86951
▁přitom	-8.86982
let	-8.87192
▁První	-8.87585
▁vlastně	-8.87849
▁šest	-8.87989
▁problémy	-8.87994
ter	-8.88085
0	-8.88176
▁jednoho	-8.88254
▁naopak	-8.88709
▁množství	-8.89154
aci	-8.89598
▁tří	-8.90191
mat	-8.90261
ační	-8.90291
Á	-8.90582
▁řízení	-8.90616
%	-8.90738
▁zájem	-8.90745
▁letošní	-8.90849
skou	-8.90905
▁města	-8.90914
▁skutečně	-8.90999
br	-8.91124
▁20	-8.91225
▁stav	-8.91229
▁1992	-8.91262
lit	-8.91278
str	-8.91305
▁život	-8.91535
▁straně	-8.91656
▁znovu	-8.91913
fi	-8.92073
▁zahraniční	-8.92155
▁většinou	-8.92201
op	-8.92326
▁zhruba	-8.9238
zí	-8.92455
9	-8.92598
▁životní	-8.92911
ing	-8.92932
▁vláda	-8.9295
dy	-8.93038
▁jej	-8.93098
▁řešení	-8.93109
▁Petr	-8.93361
▁současné	-8.93417
▁platí	-8.93428
▁mimo	-8.9351
▁sto	-8.93693
▁Před	-8.93911
▁nez	-8.94042
▁19	-8.94065
▁rozdíl	-8.94129
▁území	-8.94177
▁jiných	-8.9462
▁Jiří	-8.94647
dí	-8.94712
pra	-8.94922
▁pan	-8.95119
stav	-8.95152
▁nelze	-8.95153
▁zase	-8.95219
▁1.	-8.95317
▁celý	-8.95417
▁člověk	-8.95459
ad	-8.956
U	-8.95721
▁bych	-8.95855
▁velké	-8.9596
▁začal	-8.96029
▁W	-8.96291
▁letos	-8.96631
▁smlouvy	-8.97027
▁tzv	-8.97049
▁dolarů	-8.97077
▁rozhodnutí	-8.97087
pat	-8.97953
es	-8.9827
▁osob	-8.98326
▁jedné	-8.98363
▁pomocí	-8.98699
ější	-8.98724
▁lepší	-8.98975
▁roky	-8.9935
man	-8.99426
▁činnosti	-8.99692
ované	-8.99704
▁prohlásil	-8.99993
ovým	-9.00076
ol	-9.00077
▁4	-9.00162
▁nes	-9.00321
ací	-9.00567
ú	-9.0059
ův	-9.00685
O	-9.00852
▁Přesto	-9.01065
▁vás	-9.01246
▁jednou	-9.01263
▁naší	-9.01264
▁trh	-9.01297
▁dlouho	-9.01448
▁světě	-9.01819
▁různých	-9.0198
▁dost	-9.01993
▁hlavní	-9.02421
▁později	-9.02854
▁státu	-9.03001
ovací	-9.03349
▁nemůže	-9.03389
▁můžete	-9.0354
▁vedení	-9.03975
▁ČSFR	-9.04012
▁programu	-9.04206
▁spolu	-9.0421
▁soud	-9.04298
▁pěti	-9.04368
ik	-9.04487
rt	-9.04589
▁člověka	-9.04671
▁Evropě	-9.05051
nosti	-9.05128
H	-9.05221
▁podniku	-9.05384
▁skupiny	-9.05499
▁století	-9.05581
ovala	-9.05793
▁bývalé	-9.05953
▁věci	-9.06085
▁služby	-9.06101
▁Václav	-9.06128
▁deset	-9.06221
▁moc	-9.06415
▁re	-9.06421
▁málo	-9.06561
▁jaké	-9.06608
8	-9.06662
án	-9.06801
▁domácí	-9.06829
zn	-9.07095
▁činnost	-9.07123
▁funkce	-9.07164
▁jinak	-9.07165
ání	-9.07185
▁prý	-9.07213
▁mělo	-9.07502
▁zároveň	-9.07876
▁jedna	-9.07929
▁Ta	-9.08205
▁situaci	-9.08235
▁obou	-9.08408
ven	-9.08537
▁dnešní	-9.08777
▁dobré	-9.08786
▁neza	-9.088
▁chyb	-9.09189
sta	-9.09235
▁možná	-9.09319
▁snímku	-9.09319
jší	-9.09349
▁problém	-9.09453
▁náklady	-9.09479
▁návrh	-9.09793
sti	-9.0987
▁100	-9.09982
▁přesto	-9.10005
ul	-9.10361
▁místní	-9.10585
▁prvním	-9.10588
▁Re	-9.10595
▁CD	-9.10643
▁cenu	-9.1077
ga	-9.11084
▁Le	-9.11116
▁máme	-9.11192
▁nových	-9.11198
▁měly	-9.1128
▁tvrdí	-9.11351
ud	-9.11426
ník	-9.11433
▁mohli	-9.11454
▁děti	-9.11523
▁1993	-9.11524
▁pří	-9.11544
ot	-9.11728
▁stojí	-9.1175
▁firem	-9.11788
rad	-9.12182
▁získat	-9.12643
▁Praha	-9.12643
▁ú	-9.12701
▁Tr	-9.12949
▁Ro	-9.13167
vod	-9.13177
▁států	-9.13393
▁toto	-9.13508
ck	-9.13647
▁Byl	-9.13711
▁způsob	-9.13728
▁majetku	-9.13776
▁nakonec	-9.13776
▁těch	-9.13821
▁všechno	-9.13979
té	-9.14133
F	-9.1415
ič	-9.14196
▁nikdy	-9.1435
ant	-9.14421
▁15	-9.14443
čka	-9.14517
▁Má	-9.14716
▁jedno	-9.14768
▁podnik	-9.14952
▁výši	-9.15189
▁postup	-9.15215
▁právní	-9.15246
▁podniků	-9.15488
do	-9.15634
▁svém	-9.15786
▁konce	-9.15811
▁lety	-9.15867
▁proč	-9.16067
ice	-9.16084
▁pár	-9.16106
▁místě	-9.16474
ního	-9.16575
sk	-9.16593
▁vliv	-9.16695
▁vody	-9.16778
▁americké	-9.17061
▁možnosti	-9.17144
▁třetí	-9.17245
▁nového	-9.17366
id	-9.17478
▁dříve	-9.17595
cen	-9.17788
▁Prahy	-9.17847
▁sobotu	-9.17907
▁dál	-9.18072
▁stavu	-9.18113
▁obě	-9.18373
▁nutné	-9.18442
▁nebyl	-9.18452
▁kdyby	-9.18524
▁30	-9.18567
▁Se	-9.18687
▁mezinárodní	-9.18824
▁stran	-9.19025
gr	-9.19063
▁nedo	-9.19422
kové	-9.19423
Í	-9.19482
▁předseda	-9.19555
▁já	-9.19623
▁bychom	-9.19627
▁parlamentu	-9.1965
▁týden	-9.19657
ému	-9.19662
▁přece	-9.2024
▁osm	-9.20247
bě	-9.20292
▁Tento	-9.2047
▁minut	-9.20531
▁zemi	-9.20658
há	-9.2078
▁Mar	-9.20828
▁pohled	-9.2085
▁ministerstva	-9.20859
dl	-9.20921
nik	-9.21453
vy	-9.2156
▁Tato	-9.21748
sp	-9.21937
▁informací	-9.22089
▁všichni	-9.22089
▁policie	-9.2209
▁organizace	-9.2209
▁potom	-9.2215
▁samozřejmě	-9.22152
▁prostor	-9.22206
▁Není	-9.22241
kon	-9.22364
ilo	-9.22388
▁poté	-9.224
▁Další	-9.22415
▁rychle	-9.22681
▁nikdo	-9.22713
nout	-9.22774
bou	-9.22827
▁můžeme	-9.22848
▁Ten	-9.22893
ali	-9.22948
▁Ch	-9.22962
▁přístup	-9.23028
▁dne	-9.23049
▁malé	-9.23165
▁nový	-9.23223
▁hlavně	-9.23343
▁poměrně	-9.23444
▁druhý	-9.23465
▁50	-9.2369
▁českých	-9.23793
▁Kromě	-9.23965
ák	-9.24041
vat	-9.24117
▁podíl	-9.24144
▁St	-9.24234
ován	-9.24248
▁věcí	-9.24256
▁dodal	-9.2427
▁prezidenta	-9.24316
▁něho	-9.24462
▁sdružení	-9.24616
trochu	-9.24619
▁dvěma	-9.24663
nebo	-9.24873
▁vedoucí	-9.25274
ct	-9.25458
ran	-9.25796
▁Jana	-9.25803
▁SSSR	-9.25875
▁sobě	-9.25881
▁nejlepší	-9.26028
▁6	-9.26405
▁čtyř	-9.26493
▁Mezi	-9.26528
▁prohlášení	-9.26533
žen	-9.26536
▁200	-9.26669
bychom	-9.26711
pis	-9.26715
▁Jako	-9.26989
▁Bo	-9.27037
jich	-9.27043
▁žádné	-9.27128
▁podmínky	-9.2717
▁komise	-9.2717
▁Jestli	-9.2717
▁někdy	-9.27171
▁škol	-9.27759
krát	-9.2793
gen	-9.2793
tře	-9.28021
▁základě	-9.28063
▁večer	-9.28155
nt	-9.28301
vo	-9.28422
▁západní	-9.28538
nutí	-9.28542
▁zemích	-9.28558
▁Evropské	-9.28572
▁výroby	-9.28576
up	-9.28771
▁došlo	-9.28811
▁kromě	-9.29051
▁většina	-9.29144
ství	-9.29213
▁Ú	-9.29247
▁Pa	-9.29274
▁čím	-9.29355
▁premiér	-9.29633
▁význam	-9.29752
čin	-9.29868
▁mnoh	-9.2996
▁místa	-9.30013
▁ostatní	-9.3009
▁bo	-9.30113
▁stal	-9.30146
hled	-9.30149
dním	-9.30373
▁určité	-9.30456
kl	-9.30461
▁hned	-9.30489
▁jí	-9.305
▁nepři	-9.30697
▁šesti	-9.30969
▁peněz	-9.31157
▁tvoří	-9.3116
▁výrazně	-9.31196
▁nejvyšší	-9.31249
mohlo	-9.31287
▁života	-9.31495
ář	-9.31582
▁sedm	-9.31645
▁tehdy	-9.31837
▁rozpočtu	-9.31841
nit	-9.31886
▁miliard	-9.31916
▁jistě	-9.32091
▁hry	-9.32151
▁plat	-9.32173
▁názor	-9.32245
▁jich	-9.3226
▁Ma	-9.32502
▁objekt	-9.32519
▁vysoké	-9.32522
▁vývoj	-9.32591
▁mnoha	-9.32662
per	-9.32682
▁kole	-9.32759
nými	-9.32769
▁východní	-9.32815
▁1991	-9.32816
dle	-9.32974
▁cena	-9.33017
sku	-9.33075
▁teď	-9.33223
▁vítězství	-9.33255
nov	-9.33349
▁milionu	-9.33482
proti	-9.33493
▁provoz	-9.3356
šel	-9.33597
▁nebylo	-9.33722
▁prosince	-9.33907
▁poprvé	-9.3391
▁prostředky	-9.33911
▁akce	-9.33943
nice	-9.34029
▁Ba	-9.34115
olog	-9.34435
▁úřad	-9.34438
▁unie	-9.3461
ón	-9.34751
▁40	-9.34832
▁žádný	-9.35054
▁Te	-9.35067
▁času	-9.35109
ště	-9.35116
CH	-9.35173
▁nějak	-9.3528
▁opatření	-9.3531
▁spolupráci	-9.3531
▁výsledky	-9.35324
▁teprve	-9.35337
▁stejné	-9.35338
▁kam	-9.35415
mohla	-9.35548
ském	-9.35555
ev	-9.35966
▁jenž	-9.35991
pro	-9.36491
▁1994	-9.36734
▁11	-9.36765
▁prakticky	-9.36781
ber	-9.36864
▁vnitřní	-9.36886
▁dat	-9.36894
▁ODS	-9.36984
▁politické	-9.37033
men	-9.37152
▁text	-9.37325
▁trenér	-9.37364
stup	-9.37446
▁hlediska	-9.37453
▁prostřednictví	-9.37453
▁utkání	-9.37514
▁zdravotní	-9.37569
ovaných	-9.37667
as	-9.37736
rn	-9.37777
▁7	-9.37784
▁cen	-9.37901
:	-9.38073
▁procenta	-9.38124
▁republice	-9.38178
▁velice	-9.38182
▁ministra	-9.38331
▁celou	-9.38424
▁zisk	-9.38447
▁projekt	-9.38571
▁deseti	-9.38858
▁někdo	-9.38908
▁daně	-9.38978
▁Pře	-9.39002
hle	-9.39352
klad	-9.39377
▁sil	-9.39398
▁dostal	-9.39535
▁dispozici	-9.39646
▁nižší	-9.39652
kov	-9.39713
ver	-9.3975
▁souvislosti	-9.39802
díky	-9.39843
▁typu	-9.40316
▁1990	-9.40386
▁kterým	-9.40407
▁řadu	-9.40415
ném	-9.40513
▁menší	-9.40636
ic	-9.40935
ig	-9.40939
J	-9.40952
▁Ob	-9.40957
▁obyvatel	-9.41018
▁změny	-9.41023
▁rámci	-9.41133
▁osobní	-9.41135
▁13	-9.41179
▁ledna	-9.4118
▁prostě	-9.41388
▁pa	-9.41452
▁původní	-9.41845
▁mne	-9.41849
▁nejméně	-9.41897
▁18	-9.4198
▁podařilo	-9.41994
▁budeme	-9.42019
hn	-9.42224
▁sebou	-9.42399
šlo	-9.42528
▁doma	-9.42538
▁ex	-9.42651
slov	-9.4266
▁roli	-9.42697
be	-9.42719
▁různé	-9.42862
▁státy	-9.42977
▁ta	-9.42979
jde	-9.42991
▁16	-9.43017
▁čs	-9.43166
▁Například	-9.43403
▁podnikání	-9.43435
▁kon	-9.43662
hal	-9.43802
len	-9.43894
▁Jen	-9.44136
▁pomoc	-9.44154
▁minulý	-9.44175
▁výše	-9.44176
ily	-9.44188
▁opravdu	-9.44189
▁tolik	-9.44265
čky	-9.44278
▁La	-9.44284
▁Jde	-9.44292
▁12	-9.44475
▁Kr	-9.44508
ována	-9.44547
▁právo	-9.44559
▁miliónů	-9.44947
▁smlouvu	-9.44947
▁snaží	-9.44948
▁nedávno	-9.45004
bal	-9.45016
▁náš	-9.45042
ící	-9.45207
lek	-9.45218
del	-9.45317
ovy	-9.45357
▁služeb	-9.45425
▁nena	-9.45449
kách	-9.4545
hy	-9.45503
▁loni	-9.45721
▁funkci	-9.45729
▁přednost	-9.45734
▁Dnes	-9.45761
▁zvýšení	-9.45842
▁zdá	-9.45937
▁her	-9.46193
▁25	-9.46347
and	-9.46446
▁slova	-9.46494
▁okolí	-9.46518
▁Kdo	-9.46611
▁Klaus	-9.46647
▁měsíců	-9.467
ovém	-9.46739
▁fakt	-9.46831
▁středu	-9.46888
▁chování	-9.47167
▁koaliční	-9.47309
▁ministerstvo	-9.47309
▁chtějí	-9.47309
dávají	-9.47421
▁dnech	-9.47429
▁pojištění	-9.47453
▁získal	-9.47585
▁růst	-9.47646
G	-9.48024
▁jiného	-9.48054
▁Windows	-9.48109
▁národní	-9.48209
▁metrů	-9.48239
▁úřadu	-9.48245
▁postupně	-9.48277
Š	-9.48451
▁zahraničních	-9.48567
▁rady	-9.48695
▁hráčů	-9.48721
ostí	-9.48844
ač	-9.4892
▁společenství	-9.4896
▁dosavadní	-9.48992
▁Nej	-9.49162
▁obraz	-9.49283
tek	-9.49367
▁bývalý	-9.49419
▁svazu	-9.49475
dob	-9.49493
▁24	-9.49529
▁jejím	-9.49531
ať	-9.49533
▁pokus	-9.4959
▁výkon	-9.49614
▁případ	-9.49683
▁členů	-9.49774
▁mo	-9.50045
▁slov	-9.50141
▁Pak	-9.50236
▁di	-9.50462
▁nemusí	-9.50549
▁číslo	-9.50583
▁práv	-9.50619
▁malý	-9.50724
rů	-9.50754
▁neo	-9.50783
van	-9.50799
ických	-9.50819
fr	-9.50866
▁Zde	-9.50877
RA	-9.50933
▁pracovníků	-9.50963
nos	-9.51149
▁2.	-9.51161
▁podobně	-9.51208
zen	-9.51287
▁podporu	-9.51297
▁základ	-9.51302
▁klubu	-9.51322
▁poslanců	-9.51375
▁ročně	-9.51378
▁zástupce	-9.51388
▁vů	-9.51428
ovaný	-9.51439
▁nadále	-9.51493
▁tržní	-9.51529
▁8	-9.51585
▁míst	-9.51665
▁Bude	-9.51734
ed	-9.51813
▁počtu	-9.51915
▁řád	-9.52069
kla	-9.52426
▁Ka	-9.52448
ina	-9.52557
sko	-9.52989
▁Většin	-9.53049
▁nabídky	-9.53049
▁hospodářství	-9.53049
▁lépe	-9.53055
▁hodně	-9.53111
▁týmu	-9.53111
▁MS	-9.53281
▁podniky	-9.53316
▁sami	-9.5332
▁dá	-9.53375
▁Roz	-9.53407
▁generální	-9.5344
▁každ	-9.53463
plat	-9.53525
▁přesně	-9.53543
nem	-9.53563
vní	-9.53771
var	-9.53785
viz	-9.53878
▁umožňuje	-9.53896
▁podstatně	-9.53946
▁14	-9.53976
▁jenom	-9.53982
▁Ná	-9.54027
▁Ani	-9.54187
▁problémů	-9.5424
▁přibližn	-9.54339
▁Zá	-9.54355
▁olympijské	-9.54409
▁titul	-9.54416
▁fondu	-9.5464
▁Ho	-9.54658
▁považuje	-9.54751
▁začíná	-9.54752
▁musíme	-9.54811
▁říci	-9.5482
▁případech	-9.54825
▁novou	-9.54876
▁autor	-9.54947
▁městě	-9.54968
▁vod	-9.54968
▁občanů	-9.55186
bor	-9.55295
čení	-9.55331
▁banky	-9.55441
▁obvykle	-9.55613
▁pomoci	-9.55613
▁sítě	-9.55619
▁efekt	-9.55666
▁oddělení	-9.55698
▁vede	-9.55702
▁řada	-9.5578
▁možností	-9.55817
▁českého	-9.55825
prve	-9.56055
▁vedle	-9.56061
▁ti	-9.56179
▁nebyla	-9.56315
▁otázku	-9.56482
▁výrobků	-9.5649
form	-9.56498
bl	-9.5655
▁politiky	-9.56601
Dr	-9.5663
ner	-9.56699
▁průběhu	-9.56785
ková	-9.56878
▁ryb	-9.56895
iny	-9.5692
▁účast	-9.56989
mysl	-9.57021
▁nabízí	-9.5736
▁tým	-9.57378
▁nemají	-9.5744
▁miliardy	-9.57456
▁skupin	-9.57497
▁změn	-9.575
▁ulici	-9.57504
▁všem	-9.57578
pokoj	-9.57586
▁zdrojů	-9.57627
▁Mo	-9.57644
▁kterém	-9.5776
▁výbor	-9.57828
▁moci	-9.57848
▁Ze	-9.57867
▁nepro	-9.57916
▁skutečnost	-9.58018
▁takto	-9.58082
▁věc	-9.58087
▁celkové	-9.58131
▁disk	-9.58192
▁znám	-9.58194
▁ním	-9.58216
▁otázky	-9.58245
▁úrovni	-9.58245
▁chvíli	-9.58245
▁celkem	-9.58249
▁Česká	-9.58258
▁výzkum	-9.58317
▁uvádí	-9.58333
▁hlas	-9.5844
▁moderní	-9.58457
ovány	-9.58485
▁telefon	-9.58745
▁Už	-9.58756
▁pražské	-9.58876
▁Lu	-9.59018
▁mistrovství	-9.59137
▁cestu	-9.59313
▁sta	-9.59335
koli	-9.59369
▁republik	-9.59371
▁postavení	-9.59372
▁jednom	-9.59379
▁dohody	-9.5946
▁názoru	-9.59473
▁objektů	-9.59564
▁schopn	-9.59684
▁textu	-9.59689
vin	-9.5991
▁energie	-9.60038
▁dětí	-9.60038
▁zaměstnanců	-9.60039
▁NATO	-9.6004
les	-9.60104
ající	-9.60261
ický	-9.60504
▁počítače	-9.60643
▁my	-9.60759
ická	-9.60787
▁strana	-9.60793
▁společností	-9.60852
▁Pr	-9.6087
▁finále	-9.60948
sky	-9.6099
▁provozu	-9.61018
▁představuje	-9.61072
▁kterých	-9.61092
▁takový	-9.61137
▁měsíce	-9.61174
▁listopadu	-9.61186
▁setkání	-9.61288
▁vybavení	-9.6131
▁působí	-9.61338
▁obsah	-9.61528
▁sama	-9.61593
▁každé	-9.61613
▁film	-9.61658
▁oba	-9.6172
ovaly	-9.61729
▁nikoli	-9.61759
cký	-9.61786
▁hrát	-9.61822
▁prostředků	-9.61867
▁Země	-9.6188
▁čtvrtek	-9.61898
▁skupina	-9.61946
▁Ještě	-9.61961
▁Tím	-9.61962
▁světové	-9.6197
▁cizí	-9.61983
▁současně	-9.62079
▁obchodního	-9.62124
▁řadě	-9.62179
▁příští	-9.62226
▁musel	-9.62236
iz	-9.62287
▁Ti	-9.62311
▁platit	-9.62389
ster	-9.62535
▁22	-9.62582
▁parlament	-9.62606
▁Navíc	-9.62791
▁Nyní	-9.62795
▁OSN	-9.62802
▁výrobky	-9.62803
▁produkce	-9.62814
NÍ	-9.62845
ené	-9.62941
▁atd	-9.62946
ment	-9.62987
▁obchodu	-9.62994
▁dr	-9.63006
▁volební	-9.63054
▁neděli	-9.63066
▁vztah	-9.63342
ček	-9.63367
▁Sa	-9.63488
▁skutečnosti	-9.63609
mluv	-9.63618
▁Josef	-9.63725
▁federální	-9.63725
▁zasedání	-9.63731
▁dobrý	-9.63775
▁muset	-9.63816
št	-9.63827
▁kvalitní	-9.63878
▁zdroje	-9.63967
rán	-9.63978
▁Ha	-9.64108
ak	-9.6418
▁hlavním	-9.64351
▁rozvoj	-9.64397
▁čeká	-9.64547
▁speciální	-9.64677
▁začátku	-9.64719
▁výboru	-9.64724
▁srovnání	-9.64746
▁přiče	-9.64846
▁vládní	-9.6485
▁jiný	-9.64956
▁muž	-9.64992
▁součástí	-9.65035
▁akcií	-9.6505
▁mluvčí	-9.65092
▁použití	-9.65125
▁zápas	-9.65156
▁prezentace	-9.65174
tím	-9.65196
▁byt	-9.65208
▁hodnoty	-9.6521
▁poně	-9.65214
▁kterého	-9.65217
▁bank	-9.65221
vil	-9.65299
ěte	-9.65341
ej	-9.65362
▁teorie	-9.65621
▁buď	-9.65623
▁privatizace	-9.65625
▁1989	-9.65625
▁apod	-9.65635
▁start	-9.65663
▁jasné	-9.65738
▁školy	-9.65766
ujeme	-9.65802
▁zvláštní	-9.65825
▁vzor	-9.65905
ským	-9.65976
▁Pod	-9.66044
▁společné	-9.66062
he	-9.66213
▁Vý	-9.66293
▁těm	-9.66339
▁60	-9.66384
iště	-9.66503
▁chtěl	-9.66562
▁zpět	-9.66649
ge	-9.6672
▁ME	-9.66729
▁domů	-9.66758
▁svaz	-9.6679
▁šéf	-9.66814
▁plně	-9.66825
▁dopravy	-9.669
cím	-9.66923
▁objektu	-9.66938
▁jednotlivé	-9.66948
▁ekonomické	-9.67031
gu	-9.67035
▁kolik	-9.6704
▁našem	-9.6727
nění	-9.67366
▁Jelcin	-9.6744
▁možno	-9.67481
▁veřejné	-9.67554
▁zdravotnictví	-9.67554
▁umění	-9.67555
▁Někter	-9.67556
▁Ivan	-9.6761
▁telefonní	-9.67687
pol	-9.67721
▁závěr	-9.67877
▁údaje	-9.67906
▁ba	-9.67932
▁De	-9.68157
íky	-9.68194
▁Bylo	-9.68275
ík	-9.68293
▁neod	-9.6845
▁vznikl	-9.6847
▁kom	-9.685
řitom	-9.68501
uji	-9.68532
▁gól	-9.68534
▁nebezpečí	-9.68534
▁podobě	-9.68536
▁Pavel	-9.6854
▁Podobn	-9.6858
▁rozhodující	-9.68584
▁ostatních	-9.68607
▁Br	-9.68705
ložit	-9.68722
▁investice	-9.68762
inu	-9.68797
▁práva	-9.68825
▁státního	-9.6887
▁celého	-9.68915
▁noci	-9.68916
▁kultury	-9.68939
lin	-9.69106
▁spojení	-9.69149
▁model	-9.69265
fo	-9.69267
znal	-9.69369
▁dalším	-9.69378
nil	-9.69411
▁oprav	-9.69492
slav	-9.69519
rát	-9.69557
▁společně	-9.69634
▁vstup	-9.69785
▁snadno	-9.69794
▁zájmu	-9.69819
▁soutěže	-9.69842
▁bod	-9.69872
▁smrti	-9.69902
▁Proč	-9.69973
▁politických	-9.70005
▁vzájemn	-9.70081
kami	-9.70094
např	-9.70097
▁spojen	-9.70166
▁Toto	-9.70481
▁televizní	-9.70524
▁jméno	-9.70526
▁tisíce	-9.70605
Ž	-9.70611
▁klub	-9.70712
▁řad	-9.70714
ovalo	-9.70718
nic	-9.70744
nk	-9.70855
000	-9.70894
čet	-9.7094
▁mil	-9.71062
▁Čech	-9.71154
▁70	-9.71187
rod	-9.71329
▁český	-9.71481
▁předem	-9.71518
▁snímek	-9.71535
tur	-9.71537
▁Stejn	-9.71545
▁hnutí	-9.71548
▁zdraví	-9.71561
vláště	-9.71595
▁lidi	-9.71618
▁trvá	-9.71626
▁dává	-9.71647
▁17	-9.71651
▁vytvoření	-9.71738
▁důvodů	-9.71745
▁nejvíce	-9.71759
▁plyn	-9.71958
▁list	-9.71977
▁určen	-9.72108
ovaná	-9.72116
mž	-9.72181
ca	-9.72361
▁Li	-9.72487
ovými	-9.72496
atel	-9.72511
▁Jaroslav	-9.72554
▁připraven	-9.7261
▁vzhledem	-9.72627
▁počítač	-9.72664
nd	-9.7272
▁velkou	-9.72769
un	-9.72789
nc	-9.72875
▁pracovat	-9.72882
▁trest	-9.72918
potřeb	-9.72946
▁Dr	-9.7298
ér	-9.72996
▁mužů	-9.72996
▁konkrétní	-9.73029
▁jisté	-9.73055
itel	-9.73069
nici	-9.73098
▁Český	-9.7318
▁hráči	-9.7322
▁otázka	-9.73366
▁soudu	-9.73397
šli	-9.73398
OV	-9.73523
▁těžko	-9.73586
▁okolo	-9.73589
▁podobný	-9.736
mar	-9.73624
▁potvrdil	-9.73654
šť	-9.73677
však	-9.73726
▁Já	-9.7374
▁daleko	-9.73793
▁nákup	-9.73852
▁spíš	-9.74223
▁typ	-9.7433
raz	-9.74475
svoji	-9.74557
nes	-9.74578
▁hodiny	-9.74624
▁náměstí	-9.74627
▁delší	-9.74633
▁někteří	-9.74634
▁zástupci	-9.74636
Č	-9.74639
▁září	-9.74645
▁rukou	-9.74657
▁zaměstnání	-9.74667
▁kilometrů	-9.74703
▁obsahuje	-9.74706
▁Č	-9.74745
jící	-9.74788
▁Da	-9.74833
vu	-9.74861
▁světový	-9.74862
▁přijat	-9.75007
▁oboru	-9.75019
tem	-9.75065
▁věku	-9.75201
▁koncem	-9.75211
▁Al	-9.75285
go	-9.75295
▁kulturní	-9.75446
níci	-9.75479
▁mohly	-9.75515
aj	-9.75616
▁výsledek	-9.7568
▁cestovní	-9.7568
▁celkov	-9.75768
psal	-9.75794
▁přišel	-9.75913
cké	-9.75928
▁druhů	-9.75947
▁zkušenosti	-9.76031
átor	-9.76152
▁motor	-9.76172
▁In	-9.76196
▁automobil	-9.76424
▁Kčs	-9.76614
▁existuje	-9.76744
▁nejbližší	-9.76744
▁podmínek	-9.76744
▁nebudou	-9.76744
▁zůstává	-9.76744
▁Může	-9.76745
▁hospodářské	-9.76751
▁dnů	-9.76762
▁olympijský	-9.76779
vedl	-9.76818
▁aplikace	-9.76835
▁objekty	-9.7685
▁koalice	-9.76855
▁nějaké	-9.76997
▁nepře	-9.77024
▁stavební	-9.77247
▁každého	-9.7746
▁smyslu	-9.77531
zv	-9.77532
alo	-9.77552
nul	-9.77734
▁Jedno	-9.77757
álně	-9.77816
▁úroveň	-9.77819
▁starší	-9.77822
▁fond	-9.77832
▁tady	-9.77857
▁Nové	-9.77897
▁úspěch	-9.77949
▁termín	-9.77951
▁dosáhl	-9.78067
ké	-9.78084
▁minulosti	-9.78092
▁Pan	-9.78155
▁běžné	-9.78313
▁prodej	-9.78386
30	-9.78555
▁Ku	-9.78569
pravidla	-9.78698
▁případně	-9.78786
▁mám	-9.78786
▁rychlost	-9.78836
stal	-9.78886
▁poslanci	-9.78906
▁pátek	-9.78906
▁praxi	-9.78907
▁jediný	-9.78967
brán	-9.78996
19	-9.79066
▁určitě	-9.79079
▁Každý	-9.79083
▁Bez	-9.79133
▁Brně	-9.79224
▁loňské	-9.79233
▁pozornost	-9.79237
pen	-9.79272
▁tun	-9.79299
ben	-9.79561
▁příklad	-9.79594
▁skončil	-9.79607
▁dotaz	-9.79829
ir	-9.79854
▁lékař	-9.79913
▁lékaře	-9.8
▁důležité	-9.80005
▁vidět	-9.80005
▁šanci	-9.80007
▁žen	-9.80066
▁vítěz	-9.80092
▁konci	-9.80107
▁kvality	-9.80163
▁obchod	-9.80195
▁prvního	-9.80244
voz	-9.80331
▁budoucí	-9.80357
▁krok	-9.80542
ska	-9.80583
plav	-9.806
nek	-9.80792
▁Přes	-9.81033
▁oblast	-9.8105
kol	-9.81062
ovo	-9.81077
▁síly	-9.81126
▁volbách	-9.81132
port	-9.81136
▁výrobce	-9.81146
▁stačí	-9.8116
▁července	-9.81161
▁odpovídá	-9.81202
▁druhém	-9.81206
▁dny	-9.8122
▁nikoliv	-9.81262
▁léta	-9.81267
▁bývá	-9.81268
▁změnit	-9.81343
▁nárok	-9.81484
▁doba	-9.81543
▁knihy	-9.81546
▁Tu	-9.81588
dra	-9.81599
▁Německa	-9.8167
▁členy	-9.81707
kli	-9.82085
raději	-9.8226
▁Jeden	-9.82276
dává	-9.82282
ického	-9.82293
lem	-9.82302
▁podstatě	-9.82372
nské	-9.82374
třech	-9.8238
▁nákladů	-9.82435
py	-9.82442
ložil	-9.82501
▁zranění	-9.82595
▁hvězd	-9.82608
nský	-9.82691
ROM	-9.82701
zo	-9.82771
▁tisku	-9.83043
▁hra	-9.83095
mer	-9.83181
▁podnikatel	-9.83301
▁zvolen	-9.83322
ard	-9.83329
▁Ministerstv	-9.83376
▁technologie	-9.83376
▁tepla	-9.83377
▁úplně	-9.83398
▁představitelé	-9.83479
▁investiční	-9.83496
▁stál	-9.83506
vou	-9.83537
▁techniky	-9.83543
▁výrobu	-9.83579
▁rozšíření	-9.83604
▁dvacet	-9.83609
▁zemřel	-9.83624
▁činí	-9.83677
▁koncert	-9.83718
▁druhou	-9.83731
▁podobné	-9.83993
▁Rad	-9.84078
ó	-9.84124
▁majitel	-9.84145
▁Již	-9.84154
bar	-9.8418
ala	-9.84315
jet	-9.84318
▁Nový	-9.84352
EN	-9.84361
čku	-9.84389
nka	-9.84402
▁voleb	-9.84482
kor	-9.8466
▁míry	-9.84661
▁podnikatele	-9.84676
▁ruské	-9.84693
▁celá	-9.84739
▁pracuje	-9.84768
▁volby	-9.84794
fe	-9.84917
mír	-9.84923
▁zprávy	-9.84983
oč	-9.85073
▁představ	-9.85133
▁domu	-9.85194
▁výrobní	-9.85201
▁polovin	-9.85239
čil	-9.85293
ele	-9.85352
tah	-9.85477
rak	-9.85547
▁manžel	-9.85638
▁80	-9.85673
kul	-9.85705
▁pís	-9.85729
▁dvakrát	-9.85745
▁pre	-9.85746
▁vytvořit	-9.85751
nci	-9.85806
LA	-9.85897
▁chcete	-9.85997
▁dal	-9.86038
vede	-9.86065
▁počítá	-9.86119
▁výběr	-9.86143
▁vlastnosti	-9.86174
▁bytů	-9.86354
skoro	-9.86509
▁návrhu	-9.86534
▁druh	-9.86603
otevře	-9.86641
rop	-9.86655
▁též	-9.86704
jdou	-9.86791
nese	-9.86798
▁motiv	-9.86849
šit	-9.86861
▁financí	-9.86864
▁post	-9.86927
▁konečně	-9.86945
íte	-9.8699
th	-9.87072
▁každém	-9.87106
▁akci	-9.8713
značně	-9.87166
AN	-9.87304
vé	-9.87341
▁vyhrál	-9.87366
▁SR	-9.87375
▁Její	-9.87456
▁dělat	-9.87648
10	-9.8766
▁fotbalové	-9.87699
stoupil	-9.87817
sil	-9.87818
▁jít	-9.87845
▁měst	-9.87908
▁federace	-9.88055
▁firmě	-9.88055
▁použít	-9.88055
zhledem	-9.8807
▁výsledků	-9.88079
▁současnosti	-9.88082
▁evropských	-9.88093
▁dvaceti	-9.88095
▁seznam	-9.88107
▁Všechny	-9.88124
▁prv	-9.88148
▁zpracování	-9.88166
▁ode	-9.88186
▁hráč	-9.8825
▁hranice	-9.88284
▁vyp	-9.88331
CE	-9.88358
▁led	-9.88383
▁Zeman	-9.88454
▁průmyslu	-9.88462
▁bodů	-9.88517
▁Německu	-9.88571
▁bezpečnostní	-9.88629
▁vojenské	-9.88769
tů	-9.88787
áři	-9.88991
tky	-9.89042
SK	-9.89193
▁Společenství	-9.8926
▁Vladimír	-9.8926
▁Právě	-9.8926
▁zbraní	-9.89261
▁nejlépe	-9.89261
vnitř	-9.89269
▁pravděpodobně	-9.89271
▁dostat	-9.8928
▁Běh	-9.89293
ška	-9.89314
▁původně	-9.8932
tní	-9.89331
ten	-9.89366
uto	-9.89377
▁osmi	-9.89379
▁Měl	-9.89398
▁nová	-9.89425
▁papír	-9.89427
tel	-9.89482
▁objeví	-9.89493
▁ředitele	-9.89504
tor	-9.89628
ler	-9.89644
▁amerických	-9.89742
▁Ra	-9.89817
▁Firma	-9.89849
▁cílem	-9.89887
▁osoby	-9.89927
vání	-9.89938
▁přírodní	-9.89943
▁ochran	-9.90006
▁následující	-9.90018
▁Že	-9.9006
▁export	-9.90088
óz	-9.90115
mor	-9.90147
▁údajn	-9.90194
▁slovo	-9.90286
▁odhad	-9.9038
▁dlouhé	-9.90479
ění	-9.90511
▁udělat	-9.90521
▁volné	-9.90525
▁sněmovny	-9.90551
ton	-9.90577
▁dokáže	-9.90594
▁důvod	-9.9065
▁ženy	-9.90704
▁jaký	-9.90742
pil	-9.9087
▁vhodné	-9.90879
šení	-9.90996
W	-9.91022
ovaného	-9.9106
▁prostoru	-9.91121
ici	-9.9114
▁rád	-9.91206
▁popis	-9.91218
▁předpokládá	-9.91307
▁pokles	-9.91328
ismus	-9.91333
měř	-9.9136
▁roční	-9.9138
▁lidský	-9.91436
ď	-9.91472
▁vrátil	-9.91526
▁závod	-9.91543
▁vyh	-9.9155
▁patrně	-9.91706
▁informační	-9.91714
▁hovoří	-9.91714
▁čísla	-9.91714
▁brzy	-9.91714
▁těmi	-9.91729
▁pravda	-9.91739
▁úvěr	-9.91832
▁využití	-9.91851
son	-9.91926
▁růstu	-9.91939
▁Miloš	-9.91962
▁zisku	-9.92089
zení	-9.92098
▁obrany	-9.92111
▁přechod	-9.92165
rat	-9.92209
▁severní	-9.92346
▁poměr	-9.92373
▁ústavu	-9.92434
▁rokem	-9.92458
▁veřejnosti	-9.92468
dal	-9.92481
▁plán	-9.92615
rád	-9.92636
ST	-9.92654
der	-9.92665
▁stud	-9.9267
▁většinu	-9.92964
▁jinde	-9.92964
▁péče	-9.92964
▁záznam	-9.92976
▁začne	-9.92989
jev	-9.9299
▁nemohou	-9.92997
▁dovolenou	-9.9303
▁místopředsed	-9.9306
▁vědět	-9.93099
▁vládě	-9.93138
cího	-9.93214
▁Ke	-9.93226
▁objevil	-9.93239
nů	-9.9327
▁denně	-9.93388
fer	-9.93391
▁čele	-9.93406
▁vodní	-9.93435
ký	-9.9344
tal	-9.93457
▁Pří	-9.93479
kovi	-9.9355
▁Cen	-9.93554
▁vědecké	-9.93636
▁takovou	-9.93685
▁národního	-9.93796
▁data	-9.93818
▁prací	-9.93854
▁čem	-9.93924
ena	-9.93945
tivní	-9.94064
▁stala	-9.94143
▁manažer	-9.94146
▁pokračovat	-9.9423
▁pozadí	-9.9423
▁látky	-9.94235
▁nechce	-9.94294
▁sluneční	-9.94345
▁500	-9.94353
▁stanoven	-9.9438
▁New	-9.94397
▁snížení	-9.94448
nce	-9.94599
▁tenis	-9.94628
▁2000	-9.94673
▁veřejnost	-9.94734
ujících	-9.94771
ností	-9.94893
▁potřebné	-9.94915
▁smysl	-9.95036
ij	-9.95071
isté	-9.95113
▁procesu	-9.9514
▁stalo	-9.95246
▁rada	-9.95285
▁aktivit	-9.95288
▁300	-9.95383
▁UEFA	-9.95512
▁demokracie	-9.95512
▁důležitý	-9.95512
▁oficiální	-9.95512
▁označil	-9.95512
▁televizi	-9.95512
▁Spojený	-9.95512
▁kurs	-9.95516
▁Havel	-9.95518
▁nijak	-9.95519
▁hodnocení	-9.9555
vad	-9.95563
▁okamžitě	-9.95571
▁ukazuje	-9.95581
▁kolo	-9.95636
▁Hrad	-9.95695
▁míru	-9.95701
▁zabývá	-9.95706
▁nebyly	-9.95862
▁naprosto	-9.959
▁plné	-9.95983
▁bezpečnosti	-9.95997
▁cesty	-9.96059
▁pocit	-9.9607
din	-9.96201
▁odmítl	-9.96221
▁vzniku	-9.96375
▁dát	-9.96568
▁body	-9.96598
půjč	-9.96809
▁majetek	-9.9681
▁řečeno	-9.96811
▁počasí	-9.96812
▁téma	-9.96835
▁současn	-9.96839
▁členové	-9.96887
▁ČSSD	-9.96914
▁potřeby	-9.96975
ita	-9.96978
▁sklad	-9.96986
hi	-9.97034
▁stanice	-9.97083
▁kanceláře	-9.97151
▁vládu	-9.97368
▁odborné	-9.97444
▁respekt	-9.9753
▁pole	-9.97723
▁lékaři	-9.97724
▁řady	-9.97914
▁vývoje	-9.97993
▁nějaký	-9.98069
▁onemocnění	-9.98126
▁požadavky	-9.98126
▁příjmy	-9.98126
▁rozhodně	-9.98126
▁názvem	-9.98126
▁dosáhnout	-9.98215
▁lidem	-9.98215
HO	-9.98223
▁systémů	-9.98233
▁hodnot	-9.98284
▁vys	-9.98311
▁pu	-9.98319
ané	-9.98326
▁zákony	-9.9834
▁střel	-9.98351
▁Martin	-9.98363
▁ekonomiky	-9.98407
▁Slovensku	-9.98469
▁dodává	-9.98568
ok	-9.98613
▁21	-9.98627
▁třicet	-9.98652
koliv	-9.98689
leté	-9.98733
star	-9.98742
▁počátku	-9.98746
▁Izrael	-9.98905
rovna	-9.98956
▁28	-9.99028
ováním	-9.99036
šti	-9.99134
▁postoj	-9.99153
▁jízd	-9.99165
▁ES	-9.9918
▁bran	-9.99254
▁dospěl	-9.9932
▁potravin	-9.99328
cházet	-9.99347
▁chod	-9.99406
▁tr	-9.99439
puštěn	-9.99446
▁konference	-9.9946
▁televize	-9.9946
▁vánoční	-9.99461
net	-9.99461
▁ligy	-9.99463
▁policejní	-9.99465
▁funkcí	-9.99491
▁hlavního	-9.9951
elný	-9.99625
▁Státní	-9.99695
▁proces	-9.99695
▁slib	-9.99703
letý	-9.99748
▁jednak	-9.99751
▁mechaniky	-9.99859
stál	-9.99888
▁získá	-9.99918
ený	-9.99974
▁celém	-9.99999
bud	-10
▁dokument	-10.0005
▁Kar	-10.0005
dat	-10.0007
▁prav	-10.0007
▁soubor	-10.0009
▁přístupu	-10.0014
▁společného	-10.0024
▁vybaven	-10.0027
▁obcí	-10.003
▁prodeje	-10.0038
pel	-10.0058
▁jakým	-10.0065
den	-10.0075
▁soutěž	-10.0077
ion	-10.0079
▁Prezident	-10.0081
▁poskytuje	-10.0081
▁připravil	-10.0081
▁Československu	-10.0081
▁zločin	-10.0081
▁vnitra	-10.0081
▁velká	-10.0082
▁vyz	-10.0088
▁živ	-10.0093
ika	-10.0094
▁parlamentní	-10.0107
▁Společnost	-10.011
▁řekla	-10.0111
▁škody	-10.0113
▁nechal	-10.0117
▁auto	-10.012
▁PowerPoint	-10.0123
▁rychlostí	-10.0124
ováno	-10.0127
▁druhá	-10.0127
▁Aby	-10.0128
íme	-10.013
jat	-10.0133
▁9	-10.0136
▁trestní	-10.0138
▁hotel	-10.0142
▁zas	-10.0149
▁Velké	-10.0152
brž	-10.0152
▁spoj	-10.0163
▁souboru	-10.0177
▁obrat	-10.0177
▁Čí	-10.0177
▁radost	-10.0178
SE	-10.0182
▁boj	-10.0184
▁příkaz	-10.0185
▁zvyk	-10.0188
▁druhého	-10.0189
▁druhu	-10.019
▁lékařů	-10.0209
▁měsíc	-10.0209
▁závěru	-10.0212
▁Ž	-10.0217
▁kláves	-10.0218
▁zemědělství	-10.0218
▁látek	-10.0219
▁ohledu	-10.0219
▁najít	-10.022
▁desítky	-10.0221
▁měsících	-10.0221
▁Čechách	-10.0225
▁Atlantě	-10.0226
zu	-10.0227
▁zaplatí	-10.0232
▁přátel	-10.0233
▁zákoníku	-10.0241
▁vydání	-10.0246
▁povinnost	-10.0246
▁35	-10.0247
▁jinou	-10.0254
▁teplot	-10.0255
dla	-10.0257
▁vývoz	-10.0261
▁město	-10.0266
▁rozhodl	-10.0266
ejte	-10.0275
TA	-10.0276
▁správy	-10.0279
▁Cel	-10.0281
méně	-10.0281
lék	-10.0282
ovu	-10.0286
▁dopravní	-10.0286
pustí	-10.0291
▁stroj	-10.0293
▁zákonů	-10.03
před	-10.0302
▁disku	-10.0305
počítá	-10.0306
▁takového	-10.0314
▁pořád	-10.032
AR	-10.0325
▁síť	-10.0326
▁výběru	-10.0329
mj	-10.0331
▁napsal	-10.0342
▁účel	-10.0345
icky	-10.0348
▁přenos	-10.0349
lík	-10.0355
▁evropské	-10.0356
▁hudební	-10.0357
▁schopen	-10.0357
▁tradiční	-10.0357
▁těžký	-10.0357
▁Francie	-10.0357
▁ustanovení	-10.0357
▁nabídku	-10.0357
▁snímků	-10.0357
▁výrobců	-10.0357
▁uplatnění	-10.0364
jezd	-10.0366
věřil	-10.0368
▁společný	-10.0373
▁ráno	-10.0383
vz	-10.0384
▁přijde	-10.0384
▁oznámil	-10.0388
▁státech	-10.0389
KA	-10.0391
▁řeč	-10.0398
▁minulé	-10.0422
ast	-10.0426
▁dalšího	-10.0432
▁příprav	-10.0437
▁hráče	-10.0441
▁použit	-10.0441
ickou	-10.0442
▁začali	-10.0444
▁vznik	-10.0448
▁nově	-10.0449
▁kap	-10.0453
▁nim	-10.0462
▁Národní	-10.0466
ává	-10.0473
▁domov	-10.0477
▁ceně	-10.048
▁hor	-10.0489
▁těžké	-10.0498
▁využít	-10.0498
▁přijetí	-10.0498
▁působení	-10.0498
▁řešit	-10.0499
▁hodlá	-10.05
▁rozpočet	-10.05
▁školství	-10.05
▁vztahu	-10.0503
▁tentokrát	-10.0503
▁zajistit	-10.0506
▁převážně	-10.0507
zní	-10.0521
▁člen	-10.0521
▁pořadí	-10.0523
▁Takže	-10.0526
vel	-10.0529
▁vyplývá	-10.0531
▁částky	-10.0532
▁vysokou	-10.0532
▁změna	-10.0535
▁okamžiku	-10.0545
▁slovenské	-10.0546
▁Star	-10.0548
▁Bu	-10.0548
▁jiná	-10.055
blíž	-10.0552
▁blok	-10.0555
▁samo	-10.0555
ismu	-10.0559
▁aktiv	-10.056
chází	-10.0562
▁kop	-10.0571
her	-10.0578
▁chybí	-10.0586
ír	-10.0601
pt	-10.0605
▁Jin	-10.0606
▁chtěli	-10.0612
▁An	-10.0615
▁potřebuje	-10.0619
pak	-10.0631
▁jednat	-10.0634
▁soukromé	-10.0634
▁nesmí	-10.0638
▁bohužel	-10.0641
▁nejrůznější	-10.0641
▁spolupráce	-10.0641
▁družstva	-10.0641
dostatečně	-10.0641
▁Mezinárodní	-10.0641
ivé	-10.0647
▁kandidát	-10.0647
▁seznamu	-10.0649
▁povolení	-10.0651
▁NA	-10.0652
▁%.	-10.0652
▁místech	-10.0653
▁údajů	-10.0655
▁moře	-10.0655
▁názory	-10.0656
▁směrem	-10.066
ovský	-10.0665
▁cestou	-10.067
▁nejde	-10.0682
▁mimořádn	-10.0689
▁90	-10.069
EL	-10.0697
▁Hor	-10.0699
sed	-10.07
ření	-10.0701
▁zdroj	-10.0704
▁molekul	-10.0709
ive	-10.071
OH	-10.0718
IN	-10.0719
▁vět	-10.0721
ární	-10.0724
▁známé	-10.0726
▁věd	-10.0731
▁máte	-10.074
dali	-10.0741
▁myslím	-10.0752
▁27	-10.076
▁národ	-10.0765
▁jestli	-10.078
▁teplo	-10.0785
▁pondělí	-10.0786
▁prezentaci	-10.0786
▁vyslovil	-10.0786
procesor	-10.0789
řka	-10.0792
▁měsíční	-10.0792
▁výzkumu	-10.0794
▁pravidelně	-10.0796
▁těles	-10.0799
▁předtím	-10.08
▁armády	-10.0804
▁smluvní	-10.0807
▁dané	-10.0817
lení	-10.0831
▁systémy	-10.0835
▁vz	-10.0835
nec	-10.0843
▁materiál	-10.0844
měr	-10.0853
▁zákaz	-10.0857
▁vědy	-10.0865
▁případů	-10.0872
▁uvedla	-10.088
▁vztahy	-10.0904
▁host	-10.0904
▁žádn	-10.0907
▁Če	-10.0912
kládá	-10.0915
▁odbyt	-10.0918
nictví	-10.0919
padá	-10.092
▁mechanika	-10.0922
kat	-10.0927
▁dostane	-10.0928
▁NE	-10.0929
▁Ar	-10.0929
▁HIV	-10.0933
▁Poslední	-10.0933
▁konferenci	-10.0933
▁podmínkách	-10.0933
▁příjmů	-10.0933
▁úrovně	-10.0933
▁června	-10.0933
▁spoust	-10.0933
řídil	-10.0934
▁neměl	-10.0934
▁radnice	-10.0934
▁Pavl	-10.0935
▁My	-10.0939
▁daňové	-10.0941
▁výjimkou	-10.0941
ide	-10.0942
▁změnu	-10.0943
▁podpis	-10.0944
▁LN	-10.0944
▁PO	-10.0949
▁dvanáct	-10.0956
▁taková	-10.0957
▁politiku	-10.0958
▁němu	-10.0961
▁tisk	-10.0965
▁částku	-10.0972
tvo	-10.0975
padl	-10.0977
▁rodiny	-10.0987
byl	-10.0991
▁zásad	-10.1
LI	-10.1001
▁velikost	-10.1004
▁vysoký	-10.101
▁politický	-10.101
▁vln	-10.1013
▁tiskové	-10.1016
▁dní	-10.1016
▁Bra	-10.1016
▁podnikatelů	-10.1022
▁sestav	-10.1037
ang	-10.1039
klo	-10.1043
▁směru	-10.1044
▁konkurence	-10.1045
▁Ru	-10.1048
▁očekává	-10.105
▁součást	-10.1052
▁museli	-10.1061
▁porad	-10.1066
▁kola	-10.1074
▁Jedna	-10.1078
▁Největší	-10.1082
▁Současn	-10.1082
▁většině	-10.1082
▁kapitol	-10.1082
▁války	-10.1082
▁účetnictví	-10.1082
▁aliance	-10.1082
▁tvrzení	-10.1083
▁centra	-10.1086
▁rad	-10.1088
▁Naše	-10.109
násob	-10.1091
▁jednoznačně	-10.1108
šil	-10.1109
▁míč	-10.1113
20	-10.112
▁zvířat	-10.1123
▁skupině	-10.1134
▁padesát	-10.1143
▁3.	-10.1159
▁spor	-10.1161
▁žije	-10.1166
řídit	-10.1167
▁styl	-10.1175
▁aktivity	-10.1179
▁hodnotu	-10.1189
▁Rusko	-10.1191
▁Vše	-10.1192
▁kurz	-10.1192
ckých	-10.1194
▁sedmi	-10.1195
▁stane	-10.1196
▁daň	-10.1198
▁ODA	-10.1199
▁400	-10.1199
▁polovinu	-10.1205
hla	-10.121
kovou	-10.1214
▁poslanec	-10.1214
▁vidí	-10.1216
stoupí	-10.1225
▁uvedené	-10.1232
▁většiny	-10.1233
▁politice	-10.1233
▁začít	-10.1234
▁vždycky	-10.1234
▁leží	-10.1238
▁Václava	-10.1241
▁třemi	-10.1242
▁pořádku	-10.1243
▁Jenže	-10.1245
dávat	-10.1247
▁nemocnice	-10.1248
▁individuální	-10.125
staví	-10.1257
▁Německo	-10.1262
▁hlasování	-10.1263
▁pracovníci	-10.1266
▁předsedy	-10.1275
▁univerzity	-10.128
▁mění	-10.1283
zoval	-10.1296
▁budoucnosti	-10.13
▁diváků	-10.13
▁sportovní	-10.1304
rok	-10.1311
vají	-10.1317
▁studentů	-10.1323
▁Kdyby	-10.1324
dával	-10.1326
rab	-10.1333
nické	-10.1335
▁životě	-10.1337
▁slouží	-10.135
▁čase	-10.1352
▁přehled	-10.1353
▁hrál	-10.1356
▁jím	-10.1357
▁záměr	-10.1359
▁staré	-10.1361
nského	-10.1365
▁soudní	-10.1366
▁demokratick	-10.1372
▁nutno	-10.138
▁paní	-10.1385
▁AIDS	-10.1387
▁Británie	-10.1387
▁vzdělání	-10.1387
▁srpna	-10.1387
▁obyvatelstva	-10.1388
▁Zákon	-10.1392
▁Možná	-10.1392
▁konec	-10.1393
▁Vždyť	-10.1395
▁adres	-10.1402
▁německé	-10.1403
EM	-10.1404
▁rezerv	-10.1408
▁lidské	-10.1419
▁Škoda	-10.1429
▁běžný	-10.143
▁pán	-10.1431
▁hlasů	-10.1431
▁Bar	-10.1432
▁miliony	-10.1436
▁důsledku	-10.1437
▁složení	-10.1451
▁trval	-10.1455
▁mnohé	-10.1455
▁díl	-10.1458
držel	-10.146
▁zásadní	-10.1461
▁posun	-10.1462
▁předchozí	-10.1462
▁aktivní	-10.1465
75	-10.1465
ani	-10.1468
▁týká	-10.1469
▁založen	-10.147
▁demokratické	-10.1474
▁takových	-10.1486
▁Fr	-10.1486
rit	-10.1489
vát	-10.1491
ároveň	-10.1491
▁používá	-10.1495
DO	-10.1497
▁Han	-10.1501
▁státních	-10.1521
▁vaše	-10.1526
▁pozor	-10.1535
▁koupit	-10.1542
▁očekávat	-10.1544
▁připravuje	-10.1544
▁silniční	-10.1544
▁buněk	-10.1544
▁tajemství	-10.1544
▁název	-10.1544
ned	-10.1545
▁verze	-10.1546
▁souhlas	-10.1551
▁Me	-10.1552
▁zdalek	-10.1553
▁uspořádání	-10.1554
▁průměru	-10.1554
▁úřady	-10.1556
▁jejího	-10.1561
▁piva	-10.1565
▁výkonu	-10.1567
▁kvalitu	-10.1572
▁hraje	-10.1573
▁poznání	-10.1575
KO	-10.1577
stoupit	-10.1582
▁dochází	-10.1585
šek	-10.1587
▁příštím	-10.1589
▁Ca	-10.159
▁chceme	-10.159
▁John	-10.1591
▁příčin	-10.1593
ke	-10.16
▁pobyt	-10.1609
▁počítačů	-10.1612
ren	-10.1624
CI	-10.163
▁jiným	-10.1632
▁povinnosti	-10.1634
▁dob	-10.1636
▁Bi	-10.1636
▁pokut	-10.1639
▁jaká	-10.164
▁150	-10.164
▁banka	-10.1643
jak	-10.1644
▁zajímavé	-10.1646
ňuje	-10.1664
▁Ot	-10.1671
▁technické	-10.1673
řek	-10.1673
▁premiéra	-10.1676
fu	-10.1677
myšlen	-10.1678
▁projektu	-10.1693
▁muži	-10.1694
50	-10.1695
▁devět	-10.1699
▁občas	-10.1702
▁zřejmé	-10.1702
▁pachatel	-10.1702
▁přírody	-10.1702
▁zůstat	-10.1702
▁privatizaci	-10.1703
▁trend	-10.1703
▁marek	-10.1704
▁článku	-10.1704
▁sdělil	-10.1705
▁způsobil	-10.1706
kám	-10.1706
▁Karel	-10.1706
▁jazyk	-10.171
▁okresní	-10.1712
▁vyžaduje	-10.1713
▁pozitivní	-10.1714
nky	-10.1716
▁zápase	-10.1719
▁částí	-10.1727
▁jaderné	-10.1728
▁vánoce	-10.1728
▁odpor	-10.1728
▁odborníků	-10.1731
▁Asi	-10.1732
▁Tři	-10.1734
▁agentury	-10.1734
budete	-10.1735
▁Dva	-10.1736
▁úvahu	-10.1737
▁stroje	-10.1738
tají	-10.174
est	-10.1741
▁Be	-10.1746
sad	-10.1747
▁sovětské	-10.1748
ral	-10.1761
▁aut	-10.1764
▁hlavních	-10.177
▁Ni	-10.1776
▁Du	-10.1787
lep	-10.1787
▁relativn	-10.1788
▁příštího	-10.1794
▁96	-10.1796
▁jaderný	-10.1798
▁zůstal	-10.1799
jem	-10.18
ovské	-10.18
▁vyjádřil	-10.1801
▁ústav	-10.1802
sáhl	-10.1809
▁zákazník	-10.1814
▁Mám	-10.1816
▁Oba	-10.1817
AD	-10.1823
▁projev	-10.1825
lat	-10.1833
rovná	-10.1836
ško	-10.1841
▁programy	-10.1849
▁úkol	-10.1851
▁správ	-10.1858
▁Miroslav	-10.1864
▁jména	-10.1864
▁organizací	-10.1864
▁zahájil	-10.1864
▁věnovat	-10.1864
▁válce	-10.1864
▁historii	-10.1864
▁Myslím	-10.1865
▁roste	-10.1867
▁sport	-10.1868
▁vaší	-10.1874
▁výraz	-10.1882
▁vývoji	-10.1884
▁Sv	-10.1887
▁změně	-10.1887
▁politika	-10.1895
▁přeprav	-10.1896
▁liší	-10.1897
utí	-10.1909
▁Nová	-10.1913
▁proveden	-10.1914
▁východ	-10.1927
▁soutěži	-10.1929
▁republika	-10.1931
▁vrchol	-10.1934
▁nemoc	-10.1943
▁režimu	-10.1949
trh	-10.1949
▁úspor	-10.1951
▁družstev	-10.1953
▁čtvrt	-10.1955
▁uveden	-10.1958
▁druhy	-10.1968
▁cesta	-10.197
▁neví	-10.1973
▁jediné	-10.1975
▁hotelu	-10.1976
▁prů	-10.1977
▁pracovník	-10.1985
▁tlačítko	-10.1986
▁4.	-10.1991
▁nedá	-10.1991
▁programové	-10.2011
vádí	-10.2013
pit	-10.2015
▁23	-10.202
▁programů	-10.2025
ěkteří	-10.2026
▁úřadů	-10.2027
▁1995	-10.2027
▁Někd	-10.2027
▁jednoduché	-10.2027
▁nabízejí	-10.2027
▁považován	-10.2027
▁Základní	-10.2027
▁špatné	-10.2028
▁snížil	-10.2028
▁zůstane	-10.2028
▁tajemník	-10.2029
▁zimní	-10.2029
▁rekord	-10.2035
ll	-10.2037
▁smlouva	-10.2039
▁porazil	-10.2042
▁Stál	-10.2046
▁příslušné	-10.2051
/2	-10.2057
▁abych	-10.2057
▁déle	-10.2058
▁pás	-10.2061
▁doktor	-10.2065
▁Kub	-10.2072
▁hranici	-10.2073
▁budu	-10.2078
eb	-10.208
▁typů	-10.209
OR	-10.21
IS	-10.2104
▁signál	-10.2105
▁1,	-10.2111
▁veškeré	-10.2114
cházejí	-10.2118
▁tráv	-10.2118
▁normální	-10.2121
▁povrch	-10.2121
▁skutečné	-10.2126
▁jednot	-10.2127
▁zákazníků	-10.2129
▁chud	-10.2129
▁pacientů	-10.2131
▁stranu	-10.2142
▁Sb	-10.2148
pustit	-10.2155
▁typy	-10.2155
▁muže	-10.2156
▁pra	-10.2161
▁Hlavní	-10.2171
▁bytu	-10.2171
loží	-10.2172
▁učitel	-10.2172
▁reprezentant	-10.2176
držet	-10.2178
RE	-10.2181
par	-10.2184
tit	-10.2186
áci	-10.2189
▁patnáct	-10.219
res	-10.219
padají	-10.2193
▁dopis	-10.2193
▁globální	-10.2194
▁sponzor	-10.2194
▁úterý	-10.2194
▁Lidé	-10.2194
▁kapalin	-10.2194
▁včas	-10.2194
▁někdejší	-10.2195
▁šance	-10.2195
▁Letos	-10.2195
▁lednu	-10.2198
▁jestliže	-10.2201
▁končí	-10.2201
dem	-10.2204
▁ruce	-10.2211
▁existují	-10.2213
▁známo	-10.2225
▁stejný	-10.2228
▁malá	-10.2229
▁dům	-10.2232
▁hledání	-10.2235
▁škole	-10.2239
ávat	-10.224
▁OS	-10.2242
▁oblastí	-10.2246
▁prost	-10.2247
▁značné	-10.2247
▁dělá	-10.2249
▁někter	-10.2249
▁kapacit	-10.225
▁profesionální	-10.2251
▁získala	-10.2253
ěji	-10.2257
▁kapitálu	-10.2266
▁26	-10.2267
▁podnikatelské	-10.227
ckého	-10.2278
▁barev	-10.2278
▁spokojen	-10.2282
řad	-10.2284
▁svému	-10.2287
dané	-10.2292
▁problémem	-10.2294
▁kruh	-10.2297
NÁ	-10.2297
vali	-10.2303
▁Česko	-10.2305
▁témat	-10.2313
▁dokázal	-10.2314
ených	-10.2339
▁symbol	-10.2345
▁fotbal	-10.235
▁lékařské	-10.236
▁Federální	-10.2364
▁používat	-10.2364
▁trénink	-10.2364
▁verzi	-10.2364
▁mzdy	-10.2364
▁potíže	-10.2364
▁najednou	-10.2364
▁členství	-10.2365
▁vystoupení	-10.2365
▁tabulky	-10.2367
▁Zdá	-10.2367
▁včerejší	-10.2368
▁nejdříve	-10.2369
▁studie	-10.2369
▁shromáždění	-10.2369
▁zvlášť	-10.2372
▁novým	-10.2378
▁vrátit	-10.2379
▁vnější	-10.2379
▁Chce	-10.238
řez	-10.2383
▁třetím	-10.2384
▁odpověď	-10.2386
▁vznikla	-10.2389
věřit	-10.239
▁Františ	-10.2391
pře	-10.2391
▁rozdělení	-10.2394
váží	-10.2401
▁investor	-10.2413
▁liber	-10.2414
níků	-10.2421
▁případné	-10.2426
▁akcí	-10.2428
▁označení	-10.2438
▁akcie	-10.2445
▁centru	-10.2445
▁vztahů	-10.2447
▁zprávu	-10.2448
▁časem	-10.2453
▁nemohl	-10.2457
▁žena	-10.2457
MU	-10.2458
▁Di	-10.246
bře	-10.2461
zem	-10.2464
▁novin	-10.2481
tud	-10.2481
▁dávno	-10.2492
▁počítači	-10.2493
ale	-10.2497
▁občan	-10.25
▁nezbytn	-10.2504
lib	-10.2505
▁svobod	-10.2506
▁MB	-10.2508
▁kancelář	-10.2512
rem	-10.2517
▁riziko	-10.2518
▁pohybu	-10.2519
▁opak	-10.2529
▁katalog	-10.2536
▁paragraf	-10.2536
▁prospěch	-10.2536
▁umožnil	-10.2536
▁Československa	-10.2536
▁rozhodne	-10.2536
▁hospodaření	-10.2536
▁Nicméně	-10.2536
▁zaměstnanci	-10.2537
▁výrobci	-10.2538
▁ruský	-10.2546
▁spočívá	-10.2546
▁soukromých	-10.2546
▁silné	-10.255
▁odbor	-10.255
▁úst	-10.255
▁odpadů	-10.2558
též	-10.2559
▁odpovídající	-10.2564
▁pozici	-10.2566
▁záznamník	-10.2571
▁soudí	-10.2572
▁12.	-10.2573
▁Fa	-10.2575
eny	-10.2585
klep	-10.2587
▁zaměstnavatel	-10.2602
kar	-10.2603
▁schopnost	-10.2606
▁počítat	-10.2609
kový	-10.261
cení	-10.2618
▁objem	-10.2619
▁posledním	-10.2626
píše	-10.2626
▁syn	-10.2627
▁britské	-10.2629
▁podepsal	-10.2633
▁obr	-10.2636
▁týdne	-10.2638
▁pracoval	-10.2648
▁podzim	-10.265
▁19.	-10.2652
▁Velk	-10.2659
por	-10.2666
▁poměru	-10.2669
razit	-10.267
▁díla	-10.2673
▁pojistné	-10.2676
ES	-10.2677
kají	-10.2678
pul	-10.269
vést	-10.2697
▁pravidel	-10.2698
dělal	-10.27
▁získali	-10.2706
▁rozvoje	-10.2706
▁Ber	-10.2707
bil	-10.2708
▁standard	-10.2711
▁odvětví	-10.2711
▁firmu	-10.2711
▁hrozí	-10.2711
▁mozku	-10.2712
▁Tomáš	-10.2712
▁Pohár	-10.2712
▁hledat	-10.2713
hlav	-10.2713
▁horší	-10.2714
▁Dále	-10.2715
▁DNA	-10.2715
▁prvků	-10.2715
▁variant	-10.2718
▁dluh	-10.2721
▁mnozí	-10.2722
bel	-10.2724
▁půdě	-10.2731
níku	-10.2733
tion	-10.2746
číst	-10.2749
▁letošním	-10.2751
pad	-10.2753
▁uzavření	-10.2755
šl	-10.2758
▁Američan	-10.2759
▁ukázal	-10.2761
▁vědomí	-10.2761
▁metody	-10.278
▁sever	-10.2782
▁par	-10.2789
stran	-10.2791
▁poháru	-10.2798
rou	-10.2799
čně	-10.2802
▁změnil	-10.2803
▁teploty	-10.2808
▁uložen	-10.2812
▁dovoz	-10.2812
▁budoucnost	-10.2812
stávají	-10.2821
▁zemědělské	-10.2823
ickým	-10.2827
▁poz	-10.2836
▁planet	-10.2843
▁Gr	-10.2843
▁ochranu	-10.2849
▁příbuzn	-10.2852
▁snah	-10.2857
▁účasti	-10.2868
▁čtenář	-10.2872
▁cest	-10.2874
▁pořadatel	-10.2877
▁posl	-10.2883
▁pohyb	-10.2886
▁aplikací	-10.289
▁upozornil	-10.289
▁zdůraznil	-10.289
▁Československo	-10.289
▁Existuj	-10.289
▁natolik	-10.289
▁rodiče	-10.289
▁podpory	-10.289
▁tudíž	-10.289
▁bankovní	-10.289
▁reprezentace	-10.2891
jedině	-10.2891
ger	-10.2894
▁limit	-10.2897
▁vytváření	-10.2899
▁částečně	-10.29
▁výrobě	-10.2901
dostala	-10.2902
▁oprávněn	-10.2908
▁občanské	-10.2916
▁nechtěl	-10.2919
▁Pe	-10.2919
▁Poté	-10.2922
▁vlastností	-10.2923
nesou	-10.2923
▁centrální	-10.2924
▁Rus	-10.2926
▁výroba	-10.2927
▁zavedení	-10.293
taj	-10.2931
▁graf	-10.2935
▁protest	-10.2936
▁zpráva	-10.2936
▁dílo	-10.2947
▁karty	-10.2949
▁účastníků	-10.2953
▁pacient	-10.2954
▁str	-10.2955
▁záležitost	-10.2962
▁významné	-10.2968
▁ploch	-10.2975
▁režim	-10.2977
▁měnit	-10.298
vala	-10.2988
▁pohledu	-10.299
▁dalšími	-10.3003
áno	-10.3003
▁Nad	-10.3013
▁útok	-10.3014
▁Ri	-10.3018
▁umístěn	-10.3026
▁zmíněné	-10.3029
▁Musí	-10.3029
▁důvodu	-10.303
▁sv	-10.3037
▁hladin	-10.3039
▁akt	-10.3041
bere	-10.3045
▁budov	-10.3047
dů	-10.305
▁voda	-10.3053
dit	-10.3057
▁kultur	-10.3067
▁neexistuje	-10.3072
▁paměti	-10.3072
▁připojištění	-10.3072
▁rozhodčí	-10.3072
▁pomalu	-10.3072
▁kvalifikaci	-10.3072
▁odpoledne	-10.3075
▁česká	-10.3075
▁připomíná	-10.3077
žijí	-10.3078
▁organismu	-10.3083
▁oblastech	-10.3084
▁nynější	-10.3086
▁svědčí	-10.3087
inter	-10.3089
▁partner	-10.3094
▁obrazu	-10.3101
▁materiálů	-10.3113
▁příjem	-10.3113
san	-10.3121
dní	-10.3124
wa	-10.3126
▁metr	-10.3126
▁Slovenska	-10.3126
▁ztráty	-10.3131
▁Vol	-10.3131
▁potřeba	-10.3146
bývají	-10.3149
▁podrob	-10.3151
ins	-10.3151
▁vzájemné	-10.3153
▁dohodu	-10.3155
▁Ústav	-10.3155
▁brněnské	-10.3156
▁servis	-10.3161
MA	-10.3164
▁odboru	-10.317
pětí	-10.3172
AL	-10.3173
▁zahájení	-10.3184
▁loňském	-10.3184
▁poloviny	-10.3192
▁zraněn	-10.3199
▁rádi	-10.3209
▁rod	-10.3213
padlo	-10.3214
▁nejvíc	-10.3216
▁vzal	-10.3227
▁ostr	-10.3234
set	-10.324
▁Gorbačov	-10.3247
har	-10.3249
▁musím	-10.325
▁rozliš	-10.3256
▁Itálie	-10.3257
▁Ovšem	-10.3257
▁Program	-10.3257
▁stránce	-10.3257
▁minimální	-10.3257
▁neustále	-10.3257
▁rychlé	-10.3257
▁chorob	-10.3257
▁praxe	-10.3257
hlédnout	-10.3257
▁záchran	-10.3257
▁desetiletí	-10.3258
▁regionální	-10.3258
▁vyjádření	-10.326
▁nicméně	-10.326
▁desítek	-10.326
▁Ministr	-10.3263
▁zdejší	-10.3264
▁Ital	-10.3264
▁vybrat	-10.3267
▁Ostravě	-10.3267
▁letní	-10.3267
▁přístroje	-10.3267
▁dodnes	-10.3271
onu	-10.328
▁ročník	-10.3284
bral	-10.3285
▁autorů	-10.3289
▁určitou	-10.3293
lid	-10.3293
▁výhradn	-10.3295
▁obecně	-10.3302
▁soustavy	-10.3304
razí	-10.3305
▁rozhovoru	-10.3307
osud	-10.3314
▁pochyb	-10.3317
▁test	-10.332
▁zásob	-10.3332
▁vlastnost	-10.3335
mark	-10.334
▁standardní	-10.3343
▁Evropa	-10.3351
▁Kon	-10.3352
rot	-10.3354
▁kal	-10.336
▁důkaz	-10.3368
izovat	-10.3371
kyně	-10.3373
▁váš	-10.3374
▁představují	-10.3376
▁osud	-10.3379
▁omezen	-10.3385
▁vývozu	-10.3386
▁takovém	-10.3392
▁problému	-10.3395
▁reálné	-10.3399
▁závodu	-10.34
níky	-10.3413
jedno	-10.3415
lů	-10.3424
▁polo	-10.3435
ovaným	-10.3436
nému	-10.3438
▁KSČM	-10.3439
▁ústavní	-10.344
▁jakou	-10.3441
▁Všichni	-10.3446
▁jednoduchý	-10.3446
▁náměstek	-10.3446
▁poptávky	-10.3446
▁profesor	-10.3446
▁zúčastnil	-10.3446
▁špatně	-10.3446
▁Naopak	-10.3446
▁poslance	-10.3446
▁jediná	-10.3446
▁Snad	-10.3446
▁odborníci	-10.3447
▁čin	-10.3447
▁zaměstnance	-10.3447
▁těsně	-10.3448
izace	-10.3448
▁potřebují	-10.3449
▁okna	-10.3449
▁nabídl	-10.345
▁koncentrace	-10.3451
kan	-10.3453
▁pop	-10.3454
▁italské	-10.3455
▁mně	-10.3455
ovanou	-10.3457
▁čtení	-10.3457
▁měření	-10.3459
▁přestup	-10.3461
▁výnos	-10.3465
▁totem	-10.3467
▁II	-10.3469
▁vychází	-10.3472
▁produktů	-10.3475
▁technický	-10.3479
▁řádu	-10.348
šp	-10.3481
▁záležitostí	-10.3482
▁Fo	-10.3485
▁stovky	-10.3487
▁automaticky	-10.3497
▁zpráv	-10.3497
▁zrušení	-10.3501
▁vzduchu	-10.3501
▁Ex	-10.3506
▁přesvědčen	-10.3507
stické	-10.3515
▁rozsahu	-10.3516
▁nástroj	-10.3523
neme	-10.3523
▁soupeře	-10.3525
bin	-10.3527
▁filmu	-10.3532
▁pohár	-10.3544
▁neměli	-10.3546
žení	-10.3548
▁denní	-10.356
▁set	-10.3564
▁činností	-10.3569
▁PRO	-10.3571
jíž	-10.3582
▁jednotliv	-10.3588
▁Každ	-10.3588
▁daní	-10.3589
▁námi	-10.3592
DE	-10.3602
▁úspěchu	-10.3613
sty	-10.3618
▁dar	-10.3618
lze	-10.362
▁struktur	-10.3621
ble	-10.3623
▁zákonem	-10.3623
▁hodnota	-10.3632
▁katastrof	-10.3636
▁oslav	-10.3637
▁investovat	-10.3638
▁Ředitel	-10.3638
▁mladé	-10.3638
▁historie	-10.3638
▁zbraně	-10.3638
▁turistů	-10.3638
▁bydlení	-10.3638
▁věnoval	-10.3638
▁pojetí	-10.3639
aly	-10.364
▁určit	-10.364
▁nechat	-10.3641
OS	-10.3641
▁lidmi	-10.3642
▁krátce	-10.3644
bavit	-10.3644
▁pohybuje	-10.3648
▁dodávky	-10.3651
▁pozice	-10.3658
hodný	-10.3661
mile	-10.3662
▁voličů	-10.3668
▁dostává	-10.3672
▁šampionátu	-10.3672
▁domě	-10.3675
▁hospodářsk	-10.3675
▁lidsk	-10.3676
▁proud	-10.3678
ab	-10.3678
▁Soud	-10.3679
kům	-10.3679
▁17.	-10.3683
rp	-10.3687
out	-10.3688
▁domácím	-10.3689
▁čisté	-10.3691
▁omezení	-10.3695
▁svá	-10.3696
▁soutěží	-10.37
▁stejn	-10.3703
▁Kor	-10.3704
ór	-10.3704
▁tlak	-10.3705
▁návrhy	-10.3714
trž	-10.3722
▁různým	-10.373
▁pouhý	-10.3735
▁Ano	-10.3737
pir	-10.374
▁provedení	-10.374
▁knih	-10.374
▁současný	-10.3745
sadil	-10.3745
měl	-10.3749
▁Evropsk	-10.3757
něk	-10.3759
▁student	-10.3761
▁materiálu	-10.3763
▁obecní	-10.3769
▁rychlosti	-10.3777
▁obviněn	-10.3782
▁hotov	-10.3784
dvacet	-10.3784
▁jinými	-10.3787
▁investic	-10.3788
▁nájemné	-10.3792
▁nejlepším	-10.3794
▁nejdůležitější	-10.3798
nové	-10.3815
▁metod	-10.3832
▁Především	-10.3834
▁Richard	-10.3834
▁elektrárny	-10.3834
▁minimálně	-10.3834
▁měsíčně	-10.3834
▁snížit	-10.3834
▁umožní	-10.3834
▁úspěšné	-10.3834
▁Spojené	-10.3834
▁úsilí	-10.3834
▁zvýšit	-10.3834
▁snímky	-10.3834
▁míře	-10.3835
▁tvorbu	-10.3835
▁setkal	-10.3835
▁doslova	-10.3835
▁kritik	-10.3836
▁Češi	-10.3836
▁nucen	-10.3837
▁pravdu	-10.3837
▁celek	-10.3842
▁zvýšil	-10.3846
▁správně	-10.3848
▁myší	-10.3851
▁poškození	-10.3853
▁zobrazení	-10.3854
pád	-10.3854
▁policistů	-10.3856
▁okolností	-10.386
▁sobotní	-10.3862
▁samotné	-10.3865
▁zlom	-10.3865
▁cestě	-10.3867
zb	-10.3872
▁mistrů	-10.3874
NO	-10.3876
▁tříd	-10.388
▁černé	-10.3888
▁žádná	-10.3888
LE	-10.3892
RU	-10.3894
slovensk	-10.3894
▁cítí	-10.3896
▁odpad	-10.3898
▁žádném	-10.39
▁domácích	-10.3906
čili	-10.391
▁objev	-10.3913
▁festivalu	-10.3913
ologie	-10.3914
▁třídy	-10.3915
cc	-10.3922
▁tvář	-10.3922
▁konstatoval	-10.3924
▁hmot	-10.3925
▁klade	-10.3926
▁600	-10.3926
▁vzniká	-10.3927
▁nemoci	-10.3927
▁vést	-10.3928
▁pravé	-10.393
▁Západ	-10.3934
▁lev	-10.3936
oři	-10.3938
▁centrum	-10.3939
▁povrchu	-10.3946
ička	-10.3954
▁zjistil	-10.3956
▁dějin	-10.3956
▁klid	-10.396
▁umí	-10.3961
60	-10.3964
▁anti	-10.3965
jel	-10.3965
▁PowerPointu	-10.3972
▁udělal	-10.3975
▁poklesu	-10.3986
▁vědeck	-10.3988
▁střed	-10.3991
▁Ši	-10.3993
▁nastoupil	-10.3994
hav	-10.4007
▁dítě	-10.401
▁map	-10.4013
▁společenské	-10.4013
▁polovina	-10.402
▁nástup	-10.402
směs	-10.4022
▁Francouz	-10.4029
dol	-10.4032
▁zpravodaj	-10.4033
▁editor	-10.4034
▁existence	-10.4034
▁konkurenční	-10.4034
▁pojišťovny	-10.4034
▁rozhodování	-10.4034
▁úspěšný	-10.4034
▁ČNR	-10.4034
▁širší	-10.4034
▁divadla	-10.4034
▁půjde	-10.4034
▁Samozřejmě	-10.4034
▁výskyt	-10.4034
▁sdělení	-10.4034
▁nabídka	-10.4034
▁lov	-10.4035
▁super	-10.4036
▁video	-10.4036
▁úraz	-10.4037
▁strach	-10.4038
▁znát	-10.4038
▁Muž	-10.4042
▁myšlení	-10.4045
▁městské	-10.4046
▁princip	-10.4048
▁skupinu	-10.4049
padne	-10.4049
▁nezávislých	-10.4049
▁představení	-10.406
▁odpadní	-10.4061
▁výdaje	-10.4062
DA	-10.4064
NI	-10.4066
▁úvodní	-10.4072
▁Proti	-10.4074
▁armáda	-10.4085
▁slab	-10.4087
▁podnikatelé	-10.409
▁půdy	-10.409
▁odst	-10.4094
čel	-10.4095
▁nebyli	-10.4095
▁Her	-10.4096
▁oni	-10.4099
▁cm	-10.4101
▁jižní	-10.4106
▁úpravy	-10.4109
bili	-10.4117
bývá	-10.4125
▁zákazníky	-10.413
▁vysokých	-10.4132
▁hodinu	-10.4132
ier	-10.4134
lín	-10.4137
▁kol	-10.4144
▁generál	-10.4144
IT	-10.4147
▁29	-10.4148
▁smrt	-10.4149
ista	-10.4159
▁postih	-10.4169
metr	-10.4174
▁FS	-10.4178
▁Tam	-10.4179
▁prodejní	-10.4183
▁chemické	-10.4188
graf	-10.4194
▁formul	-10.4196
▁celní	-10.4197
▁Slovensko	-10.4202
prostřed	-10.421
kář	-10.4215
▁výš	-10.4216
▁maximáln	-10.4219
▁výstav	-10.4219
▁Nebo	-10.422
přes	-10.423
▁pořad	-10.423
vir	-10.4232
▁úprav	-10.4236
▁Němci	-10.4238
▁církve	-10.4238
▁týdny	-10.4238
▁nízké	-10.4238
▁odmítá	-10.4238
▁kolegy	-10.4238
▁usnesení	-10.4238
▁zapotřebí	-10.4238
▁přišla	-10.4239
▁1988	-10.4239
▁privatizační	-10.4239
▁Teď	-10.424
▁gen	-10.424
▁Bur	-10.424
kombin	-10.4241
▁létě	-10.4241
▁Or	-10.4241
▁StB	-10.4246
▁výuk	-10.4254
▁vůle	-10.4258
▁jedná	-10.4263
▁přímé	-10.4268
▁postaven	-10.4269
inak	-10.4269
▁žijící	-10.427
▁bezpečnost	-10.427
▁příslušný	-10.4271
▁předpoklad	-10.4274
▁děje	-10.4274
▁Inter	-10.4279
kryt	-10.4281
▁porušení	-10.4282
▁mladých	-10.4283
▁daňový	-10.4283
▁zájmy	-10.4288
▁rozporu	-10.4289
▁mistr	-10.4292
▁důsledky	-10.4292
▁založil	-10.4296
▁představitelů	-10.4297
▁mluví	-10.4299
▁dohod	-10.4305
▁německých	-10.4307
▁Kde	-10.4308
▁Internetu	-10.4309
▁rodin	-10.4309
▁německého	-10.4311
▁myslí	-10.4311
▁uměl	-10.4311
▁Lib	-10.4312
▁lidského	-10.4318
▁automobilů	-10.4318
▁původu	-10.4319
▁roze	-10.4329
▁obce	-10.4335
▁velikosti	-10.4346
sídl	-10.4347
▁ochot	-10.4348
▁mé	-10.435
▁představy	-10.4371
▁hře	-10.4377
▁částka	-10.4377
kových	-10.439
▁správné	-10.4394
ňování	-10.4396
rd	-10.4398
▁Sovětské	-10.4399
▁uvedený	-10.44
ávají	-10.44
▁rozhodla	-10.4401
▁barevné	-10.4406
hodil	-10.4413
og	-10.4416
▁uspořáda	-10.4417
kupní	-10.4417
volat	-10.4422
▁následn	-10.4425
ičky	-10.4427
▁Man	-10.4428
▁mal	-10.443
▁div	-10.4433
▁formát	-10.4434
rozměr	-10.4439
▁Egypt	-10.4447
▁Moskvě	-10.4447
▁firmou	-10.4447
▁pokračoval	-10.4447
▁technologií	-10.4447
▁vynikající	-10.4447
▁populace	-10.4447
▁třináct	-10.4447
▁Třetí	-10.4447
▁dovolené	-10.4447
▁spisovatel	-10.4447
▁štěstí	-10.4447
▁Francii	-10.4447
▁ihned	-10.4447
▁Předseda	-10.4447
▁Pomuku	-10.4447
▁mužstva	-10.4447
▁reprezentační	-10.4447
▁Bush	-10.4447
▁funkční	-10.4447
▁tábor	-10.4447
vzdor	-10.4448
▁spotřební	-10.4448
ČSL	-10.4448
▁mluvit	-10.4449
▁Boris	-10.445
▁šok	-10.4453
▁zvyšuje	-10.4453
▁obětí	-10.4454
▁Milan	-10.4454
▁Místo	-10.4456
▁vytvořen	-10.4456
▁podklad	-10.4461
▁Více	-10.4461
▁úmrtnosti	-10.4462
▁Avšak	-10.4468
ouze	-10.4469
▁přichází	-10.4469
▁těla	-10.4473
▁18.	-10.4476
▁zastoupení	-10.4477
art	-10.4477
▁Rusk	-10.4479
▁rozvod	-10.4479
▁nemocnici	-10.4481
▁Par	-10.4484
▁řeči	-10.4486
▁účastní	-10.4488
80	-10.4494
▁obec	-10.4494
▁Druhý	-10.45
▁obavy	-10.45
▁neznám	-10.4501
▁20.	-10.4505
▁lesní	-10.4507
▁Sam	-10.4507
▁všeho	-10.4509
▁prodává	-10.4509
▁Jižní	-10.4517
▁nese	-10.4517
hlásí	-10.4519
▁dětské	-10.452
▁cit	-10.4525
▁chat	-10.4527
▁krátké	-10.4539
áme	-10.4543
▁příležitost	-10.4546
ju	-10.4555
▁hran	-10.4556
▁molekuly	-10.4558
▁vážně	-10.4561
dor	-10.4566
▁ročníku	-10.4567
▁studiu	-10.4569
stává	-10.458
tvrdil	-10.4581
▁turnaj	-10.4582
▁detail	-10.4586
▁kroky	-10.4592
▁byty	-10.4593
▁určitý	-10.4594
brat	-10.4603
▁uvědom	-10.4603
ávání	-10.4609
▁kód	-10.461
▁příštích	-10.4613
▁pražsk	-10.4613
▁realit	-10.4625
▁snaha	-10.4627
▁The	-10.4629
▁Nov	-10.4629
kin	-10.4631
▁pražském	-10.4639
čné	-10.4639
▁postupu	-10.4642
ivost	-10.4643
▁váh	-10.4643
▁charakter	-10.4644
▁pla	-10.4649
hradí	-10.465
kož	-10.4652
▁škola	-10.4654
▁konkurenci	-10.4659
▁nakladatelství	-10.4659
▁negativní	-10.4659
▁sledovat	-10.4659
▁tehdejší	-10.4659
▁transformace	-10.4659
▁zlepšení	-10.4659
▁úmrtí	-10.4659
▁budoucnu	-10.4659
▁příjmu	-10.4659
▁civilní	-10.4659
▁zabránit	-10.4659
▁Vláda	-10.4659
▁souvisí	-10.4659
▁Slavie	-10.466
▁jedinou	-10.466
▁Wales	-10.466
▁operace	-10.4661
▁Euro	-10.4661
▁Kanad	-10.4661
▁výsledkem	-10.4661
▁střet	-10.4661
▁PCB	-10.4661
▁financování	-10.4662
▁dlužník	-10.4664
▁rozhodnout	-10.4666
▁Vedle	-10.4669
▁osmdesát	-10.4673
▁formou	-10.4675
▁celkový	-10.4676
dis	-10.4679
▁jezdí	-10.468
▁americký	-10.4684
▁vyzval	-10.4684
▁zaplatit	-10.4685
RO	-10.4685
▁výhodné	-10.4686
▁postižen	-10.4689
▁UK	-10.4692
▁překvapení	-10.4697
▁přijal	-10.4697
▁zbytečné	-10.4697
▁vlastním	-10.47
pek	-10.4702
ete	-10.4705
išť	-10.4709
ence	-10.4712
▁nebezpečn	-10.4712
▁prodat	-10.4713
árně	-10.4713
▁povinností	-10.4713
▁doprav	-10.4718
▁největším	-10.4719
áním	-10.4721
▁vyspělý	-10.4722
ony	-10.4724
▁Št	-10.4724
▁starých	-10.4734
▁příležitosti	-10.4738
áků	-10.4739
▁německý	-10.4739
▁řídí	-10.4745
▁českým	-10.4746
▁partnery	-10.4748
ick	-10.4749
▁věk	-10.4749
působil	-10.475
mého	-10.4752
▁produktu	-10.4754
▁noviny	-10.4754
▁Fin	-10.4754
▁dojde	-10.4762
▁školní	-10.4768
15	-10.4771
▁napětí	-10.4772
▁účely	-10.4779
▁Obě	-10.4779
NA	-10.4785
▁3000	-10.4793
▁velkým	-10.4794
▁nákladní	-10.48
▁pracovníky	-10.4804
VA	-10.4804
▁Ci	-10.4805
▁hlad	-10.4805
▁dostih	-10.4808
▁novém	-10.481
▁hod	-10.4812
▁neměla	-10.4818
▁vydal	-10.4821
ejména	-10.4824
▁hormon	-10.4825
iletý	-10.4831
▁zápasy	-10.4835
dařilo	-10.4851
klád	-10.4853
▁výhod	-10.4859
▁vědecký	-10.4859
40	-10.4861
▁(1	-10.4864
sloužil	-10.4865
▁tamní	-10.4873
▁turnaje	-10.4875
▁někde	-10.4876
▁Ostatně	-10.4877
▁Plzeň	-10.4877
▁Sdružení	-10.4877
▁rekreační	-10.4877
▁služba	-10.4877
▁záleží	-10.4877
▁přiznání	-10.4877
▁krize	-10.4877
▁červnu	-10.4877
▁navrhl	-10.4877
▁výrok	-10.4878
▁sítí	-10.4878
▁zápasu	-10.4879
▁místnosti	-10.488
▁věří	-10.4881
▁Ačkoli	-10.4882
▁historický	-10.4883
▁požár	-10.4885
▁obrázek	-10.4885
▁porovnání	-10.4886
▁placení	-10.4887
hrát	-10.4887
▁jednotky	-10.4888
▁přináší	-10.4891
▁dostali	-10.4891
TE	-10.4893
▁vlád	-10.4896
▁udržet	-10.4898
▁začátkem	-10.49
▁kapitál	-10.4903
▁starý	-10.4905
jen	-10.4909
▁lesy	-10.4909
▁znalosti	-10.4915
▁účetní	-10.4916
▁pravidla	-10.4919
▁Washingtonu	-10.492
▁prodávat	-10.4923
▁hodnotě	-10.4928
▁Moravy	-10.493
▁zobraz	-10.4933
▁strojů	-10.4934
▁klíč	-10.4937
▁32	-10.4937
▁jasně	-10.4946
▁uzavřel	-10.4947
▁autobus	-10.4949
▁33	-10.4949
tak	-10.4956
▁nemáme	-10.4965
▁všemi	-10.4966
▁pomohl	-10.4979
▁trenéra	-10.4987
▁195	-10.4993
ickém	-10.4993
kládají	-10.4994
▁zahrad	-10.4996
▁nezávislost	-10.5
▁Nez	-10.5
ŘE	-10.5005
▁čísle	-10.5006
▁Ruska	-10.5007
▁hokej	-10.5008
čtí	-10.5014
dění	-10.5015
af	-10.5015
▁perspektiv	-10.5016
▁pražského	-10.5016
und	-10.502
▁past	-10.5026
▁Firm	-10.5029
TI	-10.503
▁partnerů	-10.5031
▁per	-10.5034
▁klient	-10.5043
▁vědom	-10.5044
▁schválen	-10.5049
stavit	-10.5049
▁modelů	-10.505
▁vedením	-10.5052
▁něž	-10.5055
rob	-10.5064
▁metoda	-10.5065
▁býval	-10.5073
hel	-10.5073
▁pas	-10.5081
▁místy	-10.5081
▁PC	-10.5096
rní	-10.5096
▁Bratislavě	-10.5099
▁kompromis	-10.5099
▁otázce	-10.5099
▁týdnů	-10.5099
▁uskuteční	-10.5099
▁Nakonec	-10.5099
▁Návrh	-10.5099
▁nabídnout	-10.5099
▁péči	-10.5099
▁podpora	-10.5099
▁žalob	-10.5099
▁dovolit	-10.5099
▁server	-10.5099
▁kategorie	-10.51
▁nepodařilo	-10.5101
▁okno	-10.5101
▁nedostatek	-10.5101
▁připravit	-10.5106
▁Brno	-10.5109
povídá	-10.511
▁koruny	-10.511
▁prvky	-10.5112
▁120	-10.5112
▁El	-10.5113
▁Podnik	-10.5116
▁tajné	-10.5116
▁stará	-10.5116
▁návštěvě	-10.5117
▁zjistit	-10.5121
▁slovy	-10.5123
▁jaterní	-10.5124
▁kontrolu	-10.5127
Ř	-10.5128
třel	-10.5129
▁buňky	-10.5131
▁případu	-10.5131
▁domácnosti	-10.5132
▁přiznal	-10.5134
▁provést	-10.5139
▁malou	-10.5141
▁nezaměstnanosti	-10.5149
▁vojenský	-10.515
▁získání	-10.5152
▁hledá	-10.5154
▁osobně	-10.5155
▁oči	-10.5156
▁Evropský	-10.5156
psané	-10.516
han	-10.5163
čních	-10.5166
▁sluš	-10.5166
pálen	-10.5167
nějších	-10.5167
íček	-10.5168
▁stanici	-10.5169
ovského	-10.518
▁spotřebitel	-10.518
boj	-10.5181
kázal	-10.519
praví	-10.5198
▁operační	-10.5201
▁druhým	-10.521
▁fan	-10.5212
▁událost	-10.5213
▁režisér	-10.5215
▁postav	-10.5221
zemní	-10.5224
denní	-10.5228
▁rozhlas	-10.5231
▁partnera	-10.5232
musela	-10.5237
TO	-10.5242
▁prohrál	-10.5247
pustil	-10.525
ama	-10.5256
ance	-10.5258
ller	-10.5259
valy	-10.5265
vykl	-10.5268
▁odpověděl	-10.5269
▁filmů	-10.5271
▁dřív	-10.5274
▁přítomn	-10.5278
▁devíti	-10.5278
▁roh	-10.5288
▁hrají	-10.5289
▁přeměn	-10.5292
muž	-10.5292
ine	-10.5293
▁začalo	-10.5298
KU	-10.5306
▁případy	-10.5308
vádějí	-10.531
▁složen	-10.5311
▁prodal	-10.5311
hovořil	-10.5313
▁hrad	-10.5314
▁oficiálně	-10.5318
▁spojené	-10.5318
▁děj	-10.5321
▁stejném	-10.5321
vítá	-10.5322
▁úspěšně	-10.5325
land	-10.5326
▁Mal	-10.5326
▁existenci	-10.5326
▁funguje	-10.5326
▁otázek	-10.5326
▁pojišťovna	-10.5326
▁rozhodovat	-10.5326
▁Slunce	-10.5326
▁advokát	-10.5326
▁ostatně	-10.5326
▁vytvoří	-10.5326
▁lokalit	-10.5326
▁situací	-10.5326
▁Znamen	-10.5326
▁letadla	-10.5326
▁dlouhodobé	-10.5326
▁stáří	-10.5326
▁žádá	-10.5327
▁molekulární	-10.5327
▁operaci	-10.5328
▁aktuální	-10.5328
▁pochod	-10.5328
▁zůstávají	-10.5329
▁přání	-10.5329
▁vyšetřování	-10.5329
▁SRN	-10.533
▁Obecn	-10.533
▁změní	-10.5331
▁protein	-10.5331
▁vystudoval	-10.5333
▁16.	-10.5335
snad	-10.5336
▁fakultě	-10.5337
▁americk	-10.5338
▁skutečný	-10.5338
ros	-10.5339
▁státním	-10.534
▁formě	-10.534
▁otevření	-10.5342
▁vypadá	-10.5344
▁Brna	-10.5349
▁západních	-10.5349
▁přicházejí	-10.5349
▁sezóně	-10.535
▁vyberte	-10.5353
▁fakulty	-10.5354
▁potřeboval	-10.5357
éměř	-10.5359
▁vstupu	-10.5364
▁dobrou	-10.5366
▁0,	-10.5366
▁zjištění	-10.5372
▁komory	-10.5372
dělit	-10.5375
antní	-10.5377
▁členem	-10.5378
▁0	-10.538
cem	-10.5382
▁nájemného	-10.539
▁most	-10.5392
▁církev	-10.5392
▁cíle	-10.5394
▁návštěvníků	-10.5395
▁požádal	-10.5395
▁víkendu	-10.5397
▁pozná	-10.5399
▁užit	-10.5401
▁ekonom	-10.5404
▁zad	-10.541
▁ministrů	-10.5413
▁soupeř	-10.5414
Sc	-10.5415
▁struktury	-10.5416
▁čeho	-10.5419
▁tvar	-10.5423
▁probíh	-10.5425
▁obyvatelé	-10.5425
ujte	-10.5427
▁postižené	-10.5432
▁útvar	-10.5432
▁Per	-10.5432
ány	-10.5433
▁nástroje	-10.5434
▁modelu	-10.5437
▁významný	-10.5442
▁jedenáct	-10.5445
▁docela	-10.5447
▁Sta	-10.5453
▁produkt	-10.5456
▁soukrom	-10.5461
12	-10.5462
▁začaly	-10.5464
▁průměrn	-10.5465
▁pobytu	-10.5465
▁označen	-10.5472
▁rozdíly	-10.5474
▁brankář	-10.5474
▁odpovědnost	-10.5481
▁přízniv	-10.5484
pír	-10.5488
▁pivovar	-10.5489
▁nutnost	-10.549
▁přesun	-10.549
▁Německ	-10.5491
▁církevní	-10.5491
▁On	-10.5497
▁prodeji	-10.5506
▁ostrov	-10.5506
▁klubů	-10.551
▁křiv	-10.5515
▁přístroj	-10.552
▁nehod	-10.5523
▁dohoda	-10.5525
▁takovým	-10.5528
nova	-10.5534
▁km	-10.5535
▁zjištěn	-10.5536
ívají	-10.5551
▁obsahu	-10.5559
▁Anglie	-10.5559
▁Nejvyšší	-10.5559
▁disciplín	-10.5559
▁institucí	-10.5559
▁laboratoř	-10.5559
▁mladší	-10.5559
▁nejčastěji	-10.5559
▁příspěvek	-10.5559
▁software	-10.5559
▁přispěl	-10.5559
▁nestačí	-10.5559
▁rodičů	-10.5559
▁organizační	-10.5559
▁pochopitelně	-10.5559
▁přinejmenším	-10.5559
▁souboj	-10.5559
▁vlastnictví	-10.5559
▁Polici	-10.5559
▁přijít	-10.5559
▁dráhy	-10.556
▁podobu	-10.556
▁tvorby	-10.556
▁zabezpečení	-10.556
▁výplat	-10.556
mot	-10.5561
▁vědců	-10.5561
▁poruch	-10.5562
▁Stačí	-10.5562
▁vrátí	-10.5562
▁poznatky	-10.5564
▁volně	-10.5567
bíd	-10.5567
▁přijmout	-10.557
▁kart	-10.5571
▁vozů	-10.5572
▁policisté	-10.5573
▁Bosně	-10.5573
▁Králové	-10.5574
▁uznání	-10.5575
▁nemusel	-10.5576
▁levnější	-10.558
▁předpisů	-10.558
izaci	-10.5583
▁věděl	-10.5586
▁léky	-10.5589
▁hodinách	-10.559
▁předsedou	-10.559
▁smut	-10.5592
dání	-10.5596
▁čekal	-10.5599
EC	-10.5599
náší	-10.56
▁vytváří	-10.56
▁George	-10.5601
▁vojensk	-10.5602
▁obrazovky	-10.5606
entní	-10.5607
▁fyziky	-10.561
▁No	-10.5611
▁prostory	-10.5613
istů	-10.5614
▁komplexní	-10.5615
▁Olomouci	-10.5615
▁ekonomických	-10.5616
▁ideální	-10.5617
▁starosti	-10.5628
▁českou	-10.563
,5	-10.5634
▁oper	-10.5641
age	-10.5647
▁ztrát	-10.5647
▁uvažuje	-10.5647
▁45	-10.5651
▁prac	-10.5656
▁plochy	-10.5657
▁dodat	-10.5659
ola	-10.566
▁nápad	-10.5671
ana	-10.5672
▁vydává	-10.5672
▁obran	-10.5674
▁vklad	-10.5675
▁zkušenost	-10.5679
▁55	-10.5683
při	-10.5688
▁forma	-10.5688
▁olympiád	-10.5689
ejme	-10.569
▁zápasů	-10.5693
▁San	-10.5697
▁dvoj	-10.5699
▁pacienta	-10.5699
▁festival	-10.5702
▁sekund	-10.5702
tickou	-10.5711
▁zato	-10.5716
nedávn	-10.572
oma	-10.5722
ODS	-10.5725
▁podal	-10.5732
▁jiném	-10.5732
gan	-10.5733
dostanou	-10.5736
ug	-10.5738
▁auta	-10.5741
▁rodinné	-10.5742
▁ministrem	-10.5744
ruší	-10.5745
▁nezávisl	-10.5745
▁vzrostl	-10.5745
LO	-10.5747
ON	-10.575
▁čtvrté	-10.575
,6	-10.575
ráže	-10.5751
▁zemské	-10.5751
▁náhradní	-10.577
šky	-10.5771
pana	-10.5772
▁Stát	-10.5774
tovat	-10.5775
hem	-10.5776
▁stop	-10.5792
▁chodí	-10.5796
▁Anglii	-10.5797
▁Jaromír	-10.5797
▁Microsoft	-10.5797
▁NHL	-10.5797
▁francouzské	-10.5797
▁jménem	-10.5797
▁medaile	-10.5797
▁mužstvo	-10.5797
▁navzájem	-10.5797
▁odpovědi	-10.5797
▁uzavřít	-10.5797
▁veřejně	-10.5797
▁využívat	-10.5797
▁článek	-10.5797
▁Major	-10.5797
▁asociace	-10.5797
▁duchovní	-10.5797
▁poskytují	-10.5797
▁chvíle	-10.5797
▁dětem	-10.5797
▁CO	-10.5797
▁ČEZ	-10.5797
▁požadavek	-10.5797
▁zástupců	-10.5797
▁Chtěl	-10.5798
▁okolní	-10.5799
▁bot	-10.58
▁hrob	-10.5801
▁zabývat	-10.5803
▁sortiment	-10.5804
▁výpočetní	-10.5807
▁třikrát	-10.5807
▁disket	-10.5808
▁českém	-10.5809
▁venkov	-10.5809
▁Paul	-10.5818
▁milion	-10.582
▁bit	-10.5823
▁ulice	-10.5829
lka	-10.583
11	-10.5833
▁proměn	-10.5834
▁stanoví	-10.5836
▁výstavby	-10.584
▁týkající	-10.5842
▁Dvě	-10.5847
▁původ	-10.5847
▁náklad	-10.5854
▁250	-10.5854
kládat	-10.5855
▁pokusil	-10.5856
ložení	-10.5856
volání	-10.5858
▁osobnosti	-10.5859
▁umístění	-10.5859
▁red	-10.5861
▁sloup	-10.5862
▁praktické	-10.5864
▁Takové	-10.5871
▁používání	-10.5872
lis	-10.5875
▁úrok	-10.5881
▁Profitu	-10.5884
ovky	-10.5887
▁stanovení	-10.5887
▁Dobr	-10.5888
▁významu	-10.5893
yl	-10.5894
▁fondů	-10.5897
▁Jedin	-10.5901
▁sousední	-10.5904
▁obsahující	-10.5906
▁čekají	-10.5908
▁samé	-10.591
▁směr	-10.591
MO	-10.5911
▁samostatné	-10.5919
▁mistra	-10.5924
▁nerv	-10.5926
ZE	-10.5926
nová	-10.5926
▁žádost	-10.5927
▁minulém	-10.5928
ána	-10.5937
▁uzavře	-10.5937
▁cenný	-10.5939
▁trhy	-10.5945
▁průzkum	-10.5945
▁ztratil	-10.5958
průměr	-10.5961
▁řidič	-10.5961
▁argument	-10.5963
▁obratu	-10.5966
oje	-10.5966
▁Ad	-10.5968
▁důsled	-10.597
spal	-10.5972
▁ekologické	-10.5981
běhu	-10.5981
▁prezidentem	-10.5984
pust	-10.5991
▁obecné	-10.5992
▁rozdělen	-10.5997
▁dvanácti	-10.6002
áček	-10.6003
71	-10.6004
rez	-10.6009
▁přední	-10.601
▁tvrd	-10.6017
▁obchodním	-10.6018
▁vyhrála	-10.602
ria	-10.602
▁počítačové	-10.6022
▁vědě	-10.6027
▁značný	-10.6029
▁skončila	-10.6036
▁dolar	-10.6038
▁ano	-10.6038
▁Dom	-10.604
▁Mlad	-10.6041
▁Důležit	-10.6041
▁dlouhý	-10.6041
▁ministři	-10.6041
▁považuji	-10.6041
▁souladu	-10.6041
▁vysoká	-10.6041
▁Polska	-10.6041
▁obrátil	-10.6041
▁organizaci	-10.6041
▁Michal	-10.6041
▁vlajk	-10.6041
▁chtít	-10.6041
▁dobrovoln	-10.6041
▁generace	-10.6041
▁zkouš	-10.6042
▁nejspíš	-10.6042
▁studia	-10.6042
▁územní	-10.6043
▁nedělní	-10.6043
▁omyl	-10.6043
▁vyplatí	-10.6049
▁neznamená	-10.605
rst	-10.6052
▁Ří	-10.6056
▁ukazují	-10.6057
▁odborných	-10.6058
▁lesů	-10.6058
▁související	-10.6059
▁ačkoli	-10.606
▁Zlín	-10.6061
▁předložil	-10.6062
▁vystoupil	-10.6064
skočil	-10.6064
vest	-10.607
▁Možnost	-10.607
▁široké	-10.6072
▁nástrojů	-10.6074
▁noční	-10.6078
▁stává	-10.6078
▁prst	-10.6083
▁styk	-10.6083
▁kdysi	-10.6083
▁zajištění	-10.6084
▁pohybují	-10.6087
▁občané	-10.6087
▁silně	-10.6087
áš	-10.6089
▁Karlovy	-10.6091
ona	-10.6098
jasn	-10.61
▁mnohd	-10.6104
▁časopisu	-10.6105
▁způsobu	-10.6106
▁nedávné	-10.6108
▁panelu	-10.611
▁nemělo	-10.6111
▁možných	-10.6112
▁Obchodní	-10.6116
▁Americk	-10.6125
▁platnost	-10.6129
▁skončilo	-10.6135
▁sekundu	-10.614
▁průmyslový	-10.6141
▁získáva	-10.6141
▁společensk	-10.6141
▁Slovenské	-10.6147
reform	-10.6154
▁ústavy	-10.6157
▁schopnosti	-10.6159
▁Bor	-10.6161
▁Poslaneck	-10.6162
ůj	-10.6172
tát	-10.6175
▁univerzit	-10.6183
▁dostalo	-10.6185
▁třiceti	-10.619
86	-10.6193
▁dosah	-10.6193
▁ochrany	-10.6196
▁vystaven	-10.6196
▁Val	-10.6202
▁dám	-10.6203
▁mimořádné	-10.6206
▁přenosu	-10.6206
▁zákazníka	-10.6207
▁plný	-10.621
▁Čern	-10.6211
▁10.	-10.6214
▁mini	-10.6214
eta	-10.6216
▁možný	-10.6219
▁politického	-10.6226
▁opravy	-10.6229
▁přechodu	-10.6229
čila	-10.6232
kazují	-10.6232
rej	-10.6245
ozi	-10.625
něte	-10.6253
vodí	-10.6254
▁pojištěn	-10.6259
▁míní	-10.626
▁kvalita	-10.6261
▁dopad	-10.6265
ER	-10.6268
▁pracují	-10.6269
ějším	-10.6271
▁dobou	-10.6275
▁délk	-10.6278
▁nechá	-10.6279
čan	-10.6281
AV	-10.6283
▁třídě	-10.6283
▁hospod	-10.6286
▁atmosféře	-10.6291
▁delegace	-10.6291
▁dozvěděl	-10.6291
▁francouzský	-10.6291
▁inflace	-10.6291
▁službu	-10.6291
▁vysokoškol	-10.6291
▁nejnovější	-10.6291
▁považují	-10.6291
▁přírodě	-10.6291
▁všude	-10.6291
▁Viktor	-10.6291
▁mandát	-10.6291
▁penzijní	-10.6291
▁zábav	-10.6291
▁Popper	-10.6291
▁vyšetřovatel	-10.6291
▁poptávka	-10.6291
▁politická	-10.6291
▁čísel	-10.6291
▁devadesát	-10.6291
▁citliv	-10.6291
▁podaří	-10.6292
▁květnu	-10.6292
▁stanovisko	-10.6292
▁výstup	-10.6293
▁vysvětlit	-10.6293
▁brát	-10.6294
▁mínění	-10.6295
▁vrací	-10.6295
▁vysvětlení	-10.6295
▁dokonale	-10.6296
▁regionu	-10.6297
▁řeší	-10.6297
▁stupně	-10.6298
▁Čas	-10.6298
▁zlato	-10.6299
▁projekty	-10.63
▁Nejvíce	-10.6301
▁Hol	-10.6302
▁dřívější	-10.6303
áhy	-10.6304
▁léků	-10.6305
▁Novák	-10.6306
▁čemu	-10.6307
▁prosadit	-10.6307
stru	-10.6308
▁vysvětlil	-10.6309
▁Chceme	-10.6309
▁Kolik	-10.631
▁náhrad	-10.631
▁představit	-10.6311
▁podílel	-10.6313
▁RN	-10.6314
▁titulu	-10.6315
hnal	-10.6316
▁hodnotí	-10.6316
koupit	-10.6317
▁nedostal	-10.6319
skal	-10.6321
▁obvod	-10.6322
▁dosahuje	-10.6322
▁myši	-10.6323
▁slovenských	-10.6326
▁zkušeností	-10.6328
▁kamer	-10.6328
▁park	-10.633
72	-10.6331
▁znaků	-10.6334
ovněž	-10.6337
▁zbytek	-10.6341
▁sval	-10.6342
jedou	-10.6342
▁doklad	-10.6346
▁přípravě	-10.6346
▁ukázalo	-10.6351
▁trvale	-10.6354
▁dojem	-10.6358
▁nesouhlasí	-10.636
▁orgánů	-10.6364
▁bi	-10.6371
▁odchodu	-10.6374
OU	-10.6382
▁závodě	-10.6385
▁Čs	-10.6386
▁role	-10.6389
▁místem	-10.639
▁Pal	-10.6392
▁mechanik	-10.6392
ologické	-10.6406
▁mimořádný	-10.6407
▁oceán	-10.6407
volal	-10.6409
▁Představ	-10.6409
▁kanceláří	-10.6412
▁800	-10.6413
▁podstat	-10.6414
platit	-10.6414
▁domnívá	-10.6418
▁materiály	-10.6422
▁stanic	-10.6428
počet	-10.643
▁uživatel	-10.6434
ěřitel	-10.6435
▁vodou	-10.6437
▁rizik	-10.6441
▁jimi	-10.6442
▁Fran	-10.6444
roj	-10.6449
nést	-10.6449
pravděpodobností	-10.645
rna	-10.6452
▁Mi	-10.6452
▁rozsah	-10.6452
▁výklad	-10.6452
▁etap	-10.6453
▁úmysl	-10.6455
▁výstava	-10.6457
gel	-10.6458
▁větším	-10.6459
▁bytové	-10.6464
▁Ostrava	-10.6468
▁obor	-10.6476
▁viděl	-10.6481
▁herec	-10.6483
AM	-10.6485
▁cenou	-10.6488
▁skladb	-10.6489
▁představu	-10.6495
▁kniha	-10.6499
▁nalezen	-10.6503
▁deník	-10.6504
race	-10.6505
▁ST	-10.6506
těl	-10.6517
▁noc	-10.6519
▁čtenáře	-10.6521
orku	-10.6522
pas	-10.6527
▁názorů	-10.6528
▁chladn	-10.653
▁grafické	-10.6531
▁mikro	-10.6543
▁atlet	-10.6546
hlížet	-10.6547
▁Zajímav	-10.6547
▁atraktivní	-10.6547
▁blízké	-10.6547
▁dlouhá	-10.6547
▁milióny	-10.6547
▁montáž	-10.6547
▁rozhraní	-10.6547
▁telekomunikační	-10.6547
▁tiskárny	-10.6547
▁Výsledk	-10.6547
▁chráněn	-10.6547
▁externí	-10.6547
▁koncepce	-10.6547
▁vysoce	-10.6547
▁nabídce	-10.6547
▁závisí	-10.6547
▁naděje	-10.6547
▁používají	-10.6547
▁muzea	-10.6548
▁učinil	-10.6548
▁rozšířit	-10.6549
▁žebříčku	-10.6549
▁unii	-10.655
▁vysvětluje	-10.655
▁osobních	-10.655
▁předpokládat	-10.6551
▁Chyb	-10.6552
▁naději	-10.6553
▁představil	-10.6553
▁složky	-10.6558
▁přev	-10.6559
▁Den	-10.6562
▁můj	-10.6564
▁umožňující	-10.6565
▁Stran	-10.6567
▁kont	-10.6568
▁uvést	-10.6571
▁Nikdo	-10.6576
▁čtyřech	-10.6576
▁sam	-10.6577
▁dvojice	-10.6581
psat	-10.6584
▁pevné	-10.6586
▁Autor	-10.6586
▁přírodověd	-10.6587
▁totéž	-10.659
▁fotbalistů	-10.659
▁Sparty	-10.6591
projevuje	-10.6604
▁návštěvu	-10.661
▁nemůžeme	-10.661
▁šat	-10.6612
▁barvy	-10.6613
▁akciové	-10.6615
▁SE	-10.6617
▁agentura	-10.6621
▁stěn	-10.6621
▁stimul	-10.6626
bod	-10.6629
▁neroz	-10.6631
▁způsoby	-10.6633
▁čtyřmi	-10.6634
AC	-10.6643
▁SP	-10.6643
ičtí	-10.6644
▁podstatné	-10.6649
▁návrat	-10.6653
▁podání	-10.6655
▁budovy	-10.6657
▁studium	-10.6659
▁ZA	-10.6661
ill	-10.6665
tav	-10.6671
odpovědn	-10.6676
lob	-10.6678
hraje	-10.6679
▁jakékoli	-10.6694
▁nebezpečné	-10.6698
prázdn	-10.67
▁divák	-10.67
▁finančn	-10.6701
▁potřebný	-10.6708
▁nebe	-10.6709
▁zaměstnavatele	-10.6711
▁hovor	-10.6715
▁min	-10.6716
▁světového	-10.6716
▁Profit	-10.6719
▁Nizozemsk	-10.6719
▁stranou	-10.6721
▁nachází	-10.6722
▁Hra	-10.6722
▁nároky	-10.6726
ticky	-10.6738
▁památ	-10.6741
▁Pre	-10.6744
běhl	-10.6744
ša	-10.6745
▁komplex	-10.675
▁listu	-10.6757
▁klientů	-10.6758
áni	-10.676
prodej	-10.6766
▁mysli	-10.6767
▁okolnost	-10.6777
▁patřil	-10.6778
▁Cena	-10.678
rám	-10.6783
▁tisíci	-10.6786
izovan	-10.6788
▁podnikové	-10.6791
▁Irsk	-10.6792
▁vědci	-10.6794
telné	-10.6794
▁celku	-10.6806
favorit	-10.681
▁Itálii	-10.681
▁Miloslav	-10.681
▁divadelní	-10.681
▁inženýr	-10.681
▁obligace	-10.681
▁peněžní	-10.681
▁požaduje	-10.681
▁snižování	-10.681
▁výjimečn	-10.681
▁úrovní	-10.681
▁rychlý	-10.681
▁nevěděl	-10.681
▁odsouzen	-10.681
▁povinen	-10.681
▁absolvent	-10.681
▁průkaz	-10.681
▁menšin	-10.681
▁podívat	-10.681
▁Jugoslávii	-10.681
▁červen	-10.6811
▁systémem	-10.6811
▁najevo	-10.6811
▁zavře	-10.6812
▁Peter	-10.6813
▁říct	-10.6813
▁dají	-10.6816
▁vybírat	-10.6816
▁experiment	-10.6817
▁skončení	-10.6817
▁vojáků	-10.6818
▁nesmírn	-10.682
dají	-10.6821
▁agent	-10.6822
▁fax	-10.6822
▁kraj	-10.6823
šly	-10.6824
KDU	-10.6825
▁pivo	-10.6827
▁orgán	-10.683
bytek	-10.6832
▁klepn	-10.6833
▁stanov	-10.6835
kraji	-10.6835
▁hlavu	-10.6836
▁pokyn	-10.6836
▁Moh	-10.6836
▁Moravě	-10.6836
▁kusů	-10.6837
▁Počet	-10.6839
▁japonské	-10.684
▁cyklus	-10.6841
▁koupí	-10.6841
▁předmětem	-10.6842
▁povolání	-10.6843
▁otevřené	-10.6844
▁odvolání	-10.6847
▁některým	-10.6854
ráží	-10.6858
▁podřízen	-10.6861
▁(2	-10.6863
▁Lin	-10.6869
▁spol	-10.6869
▁dílem	-10.6872
▁filmový	-10.6879
▁důvodem	-10.6881
procentní	-10.6882
▁úvěrů	-10.6888
MI	-10.6891
▁předložen	-10.69
▁JE	-10.6903
▁fin	-10.6905
▁příspěvk	-10.6908
▁výstavy	-10.6909
▁starosta	-10.6918
▁kartu	-10.692
▁fa	-10.692
▁Kovo	-10.6924
▁fotbalový	-10.6929
▁upraven	-10.6931
▁bodu	-10.6936
▁předmět	-10.6937
▁Dalším	-10.6939
▁neznámý	-10.6941
▁Nebyl	-10.6946
děk	-10.6948
▁vlny	-10.6949
učili	-10.6949
▁přípravy	-10.6955
▁národů	-10.6955
▁Mark	-10.696
IL	-10.6971
▁Ruské	-10.6975
▁jakých	-10.6979
držení	-10.6979
▁konflikt	-10.6984
▁pražský	-10.6985
▁profesionál	-10.6989
▁trestný	-10.6991
▁češt	-10.6992
▁informoval	-10.7001
▁Lékař	-10.7002
▁Změn	-10.7002
ng	-10.7004
▁reklam	-10.7004
elné	-10.7006
▁stisk	-10.701
úpln	-10.702
vých	-10.7023
▁nep	-10.7027
▁znak	-10.703
▁zaveden	-10.703
▁Mat	-10.7033
týdenní	-10.704
▁obsazen	-10.704
▁jistý	-10.7041
▁objektiv	-10.7042
ecká	-10.7048
▁zajištěn	-10.7049
▁schválil	-10.705
řízení	-10.705
▁boji	-10.7051
▁rovin	-10.7052
▁větr	-10.7053
▁nákupu	-10.7056
▁Např	-10.7064
▁starost	-10.7065
▁volný	-10.7068
▁průběh	-10.7069
▁teplota	-10.7073
▁Řad	-10.7079
▁Oznámil	-10.7081
▁Problém	-10.7081
▁Univerzit	-10.7081
▁bariér	-10.7081
▁existovat	-10.7081
▁informaci	-10.7081
▁komerční	-10.7081
▁obtížné	-10.7081
▁poskytovat	-10.7081
▁prezentací	-10.7081
▁svědomí	-10.7081
▁vyjádřit	-10.7081
▁vytvářet	-10.7081
▁ztrácí	-10.7081
▁ubytování	-10.7081
▁února	-10.7081
▁československé	-10.7081
▁Několik	-10.7081
záběr	-10.7081
▁zmizel	-10.7081
▁pěst	-10.7081
▁komunikace	-10.7081
nášejí	-10.7081
▁vybraný	-10.7082
▁optimální	-10.7082
▁prováděn	-10.7082
▁náskok	-10.7083
▁Bójové	-10.7084
▁zaměřen	-10.7084
▁zítra	-10.7084
střelil	-10.7084
▁zdánlivě	-10.7084
▁továrn	-10.7085
▁bezplatn	-10.7085
▁zvolil	-10.7088
▁sále	-10.7088
▁hrách	-10.7088
▁rychleji	-10.7088
▁31.	-10.7089
nozí	-10.709
▁koupil	-10.7093
▁jednotek	-10.7094
▁kupující	-10.7094
▁závodech	-10.7097
▁střediska	-10.7101
▁hlavy	-10.7102
kova	-10.7103
▁podvod	-10.7105
▁tradice	-10.7105
▁zaznamenal	-10.7107
▁objevuje	-10.7107
▁ústřední	-10.7108
▁nájemní	-10.7109
▁fyzické	-10.7109
▁nadace	-10.7109
tání	-10.711
▁slavnostní	-10.7112
▁jasno	-10.7112
▁hrdin	-10.7113
▁narodil	-10.7116
▁vesnici	-10.7117
▁všeobecné	-10.712
padal	-10.712
▁dohodě	-10.712
▁politiků	-10.7121
▁předpisy	-10.7122
▁horní	-10.7123
▁Tad	-10.7126
najdete	-10.7133
▁slev	-10.7133
▁brání	-10.7133
▁schopna	-10.7134
▁tvrdé	-10.7138
▁kalů	-10.714
▁dostávají	-10.7141
▁hledají	-10.7146
ess	-10.7148
▁kontroly	-10.7148
ovce	-10.715
▁Svoboda	-10.715
▁vzdálenosti	-10.7152
▁obvinění	-10.7153
▁vysloven	-10.7153
▁souborů	-10.7155
jedná	-10.7161
▁půd	-10.7163
▁průmysl	-10.717
▁udělá	-10.7177
▁předsed	-10.7179
▁návratu	-10.718
▁Sun	-10.7183
▁vznikají	-10.7188
▁prach	-10.719
▁Vlastní	-10.719
▁rizika	-10.7197
stane	-10.7204
ujícího	-10.7216
▁účt	-10.7218
▁chyt	-10.7218
ité	-10.723
▁správu	-10.7231
▁cíl	-10.7233
▁ostatními	-10.7237
ováni	-10.7238
▁signálu	-10.7238
▁Hus	-10.724
▁klasick	-10.7242
končit	-10.7243
▁bloku	-10.7244
▁boje	-10.7246
▁důvody	-10.7252
▁chemický	-10.7255
▁částic	-10.7256
▁žil	-10.7257
▁závodů	-10.7258
▁Internet	-10.7264
▁hus	-10.7269
počátku	-10.7273
▁uchazeč	-10.7274
▁kus	-10.7274
▁čtyřicet	-10.728
▁konečné	-10.7281
25	-10.7287
případě	-10.7297
▁správný	-10.73
41	-10.7306
▁společn	-10.731
hloub	-10.7312
▁spis	-10.732
rel	-10.7322
▁náhod	-10.7323
tická	-10.7327
čovat	-10.7328
▁porážk	-10.7344
▁jakém	-10.7348
▁mohu	-10.7356
▁státě	-10.7358
▁trans	-10.7358
▁ClipArt	-10.7358
▁demokracii	-10.7358
▁fanoušků	-10.7358
▁jednoduše	-10.7358
▁lustrační	-10.7358
▁navštívil	-10.7358
▁nepochybn	-10.7358
▁nádraží	-10.7358
▁obligací	-10.7358
▁otázkou	-10.7358
▁ovzduší	-10.7358
▁pracoviště	-10.7358
▁prokurátor	-10.7358
▁vyrábí	-10.7358
▁železniční	-10.7358
▁pobřeží	-10.7358
▁častěji	-10.7358
▁Pracovní	-10.7358
▁příchod	-10.7358
▁odstranit	-10.7359
▁knize	-10.7359
▁modul	-10.7359
▁obnoven	-10.7359
▁Tehd	-10.7359
▁věnován	-10.7359
▁záření	-10.7359
▁vážné	-10.7359
▁blízkosti	-10.7359
▁scénář	-10.736
▁dohodnout	-10.736
▁raket	-10.736
▁mírové	-10.736
▁Motor	-10.736
▁říkal	-10.7361
▁oblečení	-10.7362
▁přínos	-10.7362
▁písmen	-10.7362
31	-10.7363
▁Slav	-10.7364
▁sluch	-10.7365
▁Rád	-10.7365
▁chyběl	-10.7365
▁několikrát	-10.7366
▁opoziční	-10.7366
▁pramen	-10.7367
▁Pět	-10.737
▁vyvolal	-10.7372
poloviční	-10.7373
▁Er	-10.7374
▁kvalitě	-10.7375
▁sbír	-10.7376
▁pomůže	-10.7377
▁ovládání	-10.7377
myslet	-10.7379
▁klimatický	-10.7381
▁uprostřed	-10.7381
▁komunistické	-10.7383
▁připadá	-10.7388
hodnotit	-10.739
▁velkého	-10.7391
▁Švédsk	-10.7391
▁určené	-10.7393
▁nejlepších	-10.7395
▁dopravě	-10.7396
▁žít	-10.7397
▁dodavatel	-10.7399
▁novináři	-10.74
▁společník	-10.7403
▁Kraj	-10.7404
▁hromad	-10.7404
▁právník	-10.7404
▁Pražské	-10.7411
▁Indi	-10.7413
▁Taková	-10.7414
▁působit	-10.7415
▁výpravy	-10.7418
rah	-10.7419
soci	-10.7421
▁Let	-10.7423
▁mezinárodních	-10.7424
▁Cha	-10.7426
▁chlad	-10.7428
▁tajný	-10.7434
▁znaky	-10.7439
▁rodinný	-10.7439
▁Rakousku	-10.7439
▁využívá	-10.7442
kovat	-10.7442
▁troj	-10.7442
▁viděli	-10.7444
▁obrazů	-10.7447
▁uplynul	-10.7455
hladov	-10.7457
▁blíží	-10.7458
▁sportu	-10.7465
▁zásah	-10.7469
▁ona	-10.7473
▁určitých	-10.7476
ČS	-10.7479
▁hru	-10.7481
▁píše	-10.7481
▁doprava	-10.7491
▁souhlasí	-10.7491
▁Rusku	-10.7504
ohledem	-10.7505
▁1000	-10.7507
bezpeč	-10.7512
▁vstupné	-10.7515
▁převzal	-10.7516
▁automatick	-10.7517
▁měsíci	-10.7519
▁Vznik	-10.7523
tisk	-10.753
▁zvítězil	-10.7533
▁úvěry	-10.7533
▁Kla	-10.7536
▁mírně	-10.7543
býval	-10.7544
díl	-10.7546
▁okamžik	-10.7549
▁odchod	-10.755
▁fondy	-10.7559
▁samostatný	-10.7561
▁barv	-10.7575
▁čist	-10.7576
▁aminokyselin	-10.758
▁otevřel	-10.7582
▁určený	-10.7586
▁vytvořil	-10.7586
▁testu	-10.7594
▁začínají	-10.7596
rušení	-10.7601
řazen	-10.7607
▁termínu	-10.7609
▁registr	-10.761
▁plno	-10.7612
vající	-10.7621
LU	-10.7626
▁staro	-10.7627
▁zvuk	-10.7629
nických	-10.7634
▁Americe	-10.7644
▁dopoledne	-10.7644
▁doporučuje	-10.7644
▁ministerstvu	-10.7644
▁nejrychleji	-10.7644
▁partneři	-10.7644
▁považovat	-10.7644
▁rekonstrukci	-10.7644
▁rozhoduje	-10.7644
▁strategie	-10.7644
▁dveře	-10.7644
▁reakce	-10.7644
▁spravedliv	-10.7644
▁vyrábět	-10.7644
▁Trenér	-10.7644
▁sledoval	-10.7644
▁sloužit	-10.7644
▁taneční	-10.7644
▁Havla	-10.7644
▁Kol	-10.7644
▁policii	-10.7644
▁srdce	-10.7644
nášet	-10.7644
▁jaře	-10.7644
▁areálu	-10.7645
▁humor	-10.7645
▁Klub	-10.7645
▁psát	-10.7645
čištění	-10.7645
▁politickou	-10.7646
▁vězení	-10.7646
▁penze	-10.7646
▁vzít	-10.7646
▁dubna	-10.7647
▁rozlišení	-10.7647
▁krve	-10.7648
▁výlet	-10.7648
▁čekat	-10.7648
▁trvat	-10.7648
▁klesl	-10.7649
▁dotací	-10.7649
▁odborn	-10.7649
▁Konečn	-10.7649
▁poskytnout	-10.765
▁zachovat	-10.7651
koupil	-10.7651
▁úhrad	-10.7655
▁dřev	-10.7655
part	-10.7657
▁stavby	-10.766
▁večerní	-10.766
▁obsahovat	-10.7663
▁ukončení	-10.7664
▁fyzick	-10.7667
okr	-10.7668
▁vydat	-10.7669
▁vlast	-10.7669
▁5.	-10.7671
▁narození	-10.7671
▁drží	-10.7672
▁elektrické	-10.7673
▁provádět	-10.7675
▁dítěte	-10.7681
▁sovětských	-10.7683
▁zjevn	-10.7686
▁Mnoho	-10.7686
▁zastavit	-10.7686
▁přišli	-10.7688
▁cestující	-10.7688
▁událostí	-10.7688
▁postavit	-10.769
▁připojení	-10.7691
TU	-10.7693
VI	-10.7694
stu	-10.7696
letěl	-10.7697
▁techniku	-10.7697
▁vším	-10.77
▁kontakty	-10.7703
▁objektivní	-10.7704
▁Met	-10.7705
▁vedou	-10.7707
▁schválení	-10.7709
▁Musím	-10.7713
▁kabinetu	-10.7715
▁čt	-10.7718
▁čistý	-10.772
▁hluboko	-10.7721
tický	-10.7721
▁managementu	-10.7727
▁orgány	-10.7727
▁příkladem	-10.7729
▁cosi	-10.7731
▁sezón	-10.7736
▁obci	-10.7737
▁nepod	-10.7738
▁Celkov	-10.7738
▁výhody	-10.7739
oji	-10.7739
▁přesvědčení	-10.774
▁vašeho	-10.7743
▁Bud	-10.7743
ME	-10.7743
▁Bre	-10.7744
▁události	-10.7744
staral	-10.7744
▁produkty	-10.7747
44	-10.7751
▁principy	-10.7754
▁drobn	-10.7756
▁maximální	-10.7756
▁zjistili	-10.7758
▁hranic	-10.7766
▁odměn	-10.7767
▁občany	-10.7774
plňuje	-10.7775
▁přinesl	-10.7776
▁samostatně	-10.7779
▁vodu	-10.7788
▁Zájem	-10.7792
▁vyhlásil	-10.7795
▁útoku	-10.7795
▁rodina	-10.7795
rum	-10.7796
▁sociálního	-10.7796
▁sídle	-10.7798
▁plánu	-10.78
▁severu	-10.7803
isty	-10.7805
▁povinn	-10.7807
▁rozhodli	-10.7808
▁soubory	-10.7809
▁zná	-10.7812
▁stejným	-10.7813
▁bohat	-10.7817
▁souhlasu	-10.782
▁Vlast	-10.7825
▁Malé	-10.7829
mála	-10.7831
▁průmyslové	-10.7832
▁zmíněný	-10.7833
▁los	-10.7835
▁15.	-10.7837
▁znamenat	-10.7842
▁monitor	-10.7842
▁dopravu	-10.7842
▁kmen	-10.7843
▁dělí	-10.7857
▁přestáv	-10.7858
▁ozbrojený	-10.7865
▁člena	-10.7866
▁dialog	-10.7866
▁kluby	-10.7867
▁směn	-10.7867
▁oznámila	-10.7872
▁projevil	-10.7872
▁příslušn	-10.7875
CD	-10.7876
Ú	-10.7877
kládání	-10.7879
ezi	-10.788
▁černo	-10.7881
,8	-10.7882
▁odkaz	-10.7882
▁špičk	-10.7885
▁hlasy	-10.7892
▁Mnoh	-10.7897
▁48	-10.7902
▁rozšířen	-10.7902
▁cyklu	-10.7904
▁pečlivě	-10.7905
▁placen	-10.7905
▁rostou	-10.7905
stával	-10.7906
vádět	-10.7906
asi	-10.7918
▁Lon	-10.7926
▁praktický	-10.7927
legislativ	-10.7927
▁rozum	-10.7931
▁vstoupil	-10.7935
▁blízko	-10.7937
▁činit	-10.7937
zapomněl	-10.7938
▁Stanislav	-10.7938
▁geometrie	-10.7938
▁miliónu	-10.7938
▁opozice	-10.7938
▁producent	-10.7938
▁snižuje	-10.7938
▁vstříc	-10.7938
▁zahrnuje	-10.7938
▁zahynul	-10.7938
▁zásluh	-10.7938
▁účinky	-10.7938
▁března	-10.7938
▁rozmezí	-10.7938
▁páté	-10.7938
▁aparát	-10.7938
▁sotva	-10.7938
▁využil	-10.7938
▁kupónov	-10.7938
▁středověk	-10.7938
▁čtvrtletí	-10.7939
▁necelý	-10.7939
▁klesá	-10.7939
▁nositel	-10.7939
▁rakouské	-10.7939
▁knihovn	-10.7939
▁morální	-10.7939
▁pověst	-10.7939
▁Fond	-10.794
▁téhož	-10.7942
▁Šest	-10.7943
▁nesmysl	-10.7943
▁útočník	-10.7943
íka	-10.7944
▁diskusi	-10.7944
▁návod	-10.7945
▁výsledku	-10.7946
▁patnácti	-10.7946
▁skvěl	-10.7947
▁únik	-10.7947
▁65	-10.7953
▁zajišťuje	-10.7955
▁dění	-10.7955
▁vybral	-10.7957
▁formátu	-10.7957
▁zvýší	-10.7959
▁anglické	-10.796
▁školách	-10.7961
▁sjezd	-10.7961
▁poskytl	-10.7965
drželi	-10.7968
▁poradce	-10.7969
▁přestal	-10.7969
skutk	-10.7972
▁krajan	-10.7973
▁Bla	-10.7974
▁zachování	-10.7974
▁stráž	-10.7974
skými	-10.7975
▁pravomoci	-10.7975
▁kovů	-10.7975
▁příběh	-10.798
▁prokázal	-10.7981
▁věnuje	-10.7983
▁formy	-10.7983
▁vzpomíná	-10.7986
bírá	-10.7986
▁formu	-10.7988
▁průměrné	-10.7988
dom	-10.7991
▁Rada	-10.7995
▁provádí	-10.7996
zdrav	-10.7996
příliš	-10.7997
▁představiteli	-10.8002
▁duchu	-10.8004
▁kontrol	-10.8004
▁král	-10.8005
▁příčinou	-10.8008
▁resp	-10.8011
zaměstnan	-10.802
▁soust	-10.8023
▁volbu	-10.8024
▁obrovské	-10.8025
▁postupy	-10.8032
▁Zemi	-10.8035
▁6.	-10.8036
▁pražských	-10.8039
zákon	-10.804
▁urychlen	-10.8041
kazuje	-10.8042
▁zásadně	-10.8045
▁účtu	-10.8048
cová	-10.8053
ust	-10.8058
▁vlně	-10.806
▁padesáti	-10.8062
vané	-10.8064
▁kandidátů	-10.8065
cker	-10.8067
17	-10.8077
▁stán	-10.808
▁spolehliv	-10.8091
▁slep	-10.8093
▁ostře	-10.8104
▁výchov	-10.8108
▁krajin	-10.8114
▁následujících	-10.8118
izované	-10.8118
íci	-10.8119
▁odešl	-10.8119
▁Občanské	-10.813
▁Michael	-10.8131
▁žlut	-10.8132
▁výbuch	-10.8145
▁obchody	-10.8145
▁úsek	-10.8146
▁barevný	-10.8148
ens	-10.8155
,4	-10.8156
▁soustav	-10.8156
▁daném	-10.8157
end	-10.8163
▁minulost	-10.8164
▁personál	-10.8164
▁osoba	-10.8166
▁Karl	-10.8167
▁modely	-10.8171
▁obsahují	-10.8173
▁papíru	-10.8174
▁výkonné	-10.8177
▁Svět	-10.8182
▁vzdálenost	-10.8189
▁Klause	-10.8193
▁loňský	-10.8197
▁46	-10.8201
front	-10.8209
▁živé	-10.821
edení	-10.8216
stupovat	-10.8218
▁Kam	-10.8218
▁ceník	-10.8222
▁1992.	-10.8222
▁Slov	-10.8224
Vesmír	-10.8225
▁jediným	-10.8225
SA	-10.8231
leč	-10.8232
▁Tur	-10.8233
▁poznat	-10.8234
▁Jelcinov	-10.8234
▁reakci	-10.8235
▁Španěl	-10.8239
ičtější	-10.8241
▁softwarov	-10.8241
▁Otázka	-10.8241
▁definitivně	-10.8241
▁digitální	-10.8241
▁divadlo	-10.8241
▁důvěru	-10.8241
▁gigant	-10.8241
▁hřišti	-10.8241
▁kyslíku	-10.8241
▁navrhuje	-10.8241
▁označit	-10.8241
▁pokračování	-10.8241
▁prognóz	-10.8241
▁předvolební	-10.8241
▁sekretář	-10.8241
▁transformaci	-10.8241
▁výročí	-10.8241
▁vězňů	-10.8241
▁zemědělců	-10.8241
▁zvyšování	-10.8241
▁používal	-10.8241
▁sexuální	-10.8241
▁vozidel	-10.8241
▁Třeba	-10.8241
▁náměstk	-10.8241
▁prozatím	-10.8241
▁Československé	-10.8241
▁října	-10.8241
▁Býval	-10.8241
▁prosinci	-10.8241
▁interak	-10.8241
▁vazby	-10.8241
▁poplatky	-10.8241
▁počtem	-10.8241
▁statistik	-10.8241
▁rozsáhlé	-10.8241
▁Práce	-10.8241
▁rakovin	-10.8241
▁nikoho	-10.8241
▁Východ	-10.8242
▁svoje	-10.8242
▁zastavil	-10.8243
▁myšlenky	-10.8244
▁hluboké	-10.8244
▁dělení	-10.8245
▁Člen	-10.8246
▁sedmdesát	-10.8246
▁Hill	-10.8248
▁Cest	-10.825
▁Mil	-10.8253
▁začátek	-10.8254
▁poradit	-10.8254
▁neplatí	-10.8255
era	-10.8256
▁výdajů	-10.8256
▁majitele	-10.8259
příště	-10.8259
▁oběti	-10.8261
▁rozšířil	-10.8262
ismem	-10.8263
▁pojme	-10.8263
▁mechanismus	-10.8266
▁tunel	-10.8269
▁36	-10.8271
▁všechn	-10.8273
▁rostoucí	-10.8275
nášel	-10.8276
▁bratr	-10.8278
▁třetiny	-10.8279
▁zrušit	-10.828
▁chtěla	-10.8281
▁kanál	-10.8281
zemědělských	-10.8283
ukce	-10.8283
▁Uvedl	-10.8285
▁čtrnáct	-10.829
▁příležitostí	-10.8291
▁kapel	-10.8292
▁věda	-10.8295
▁tuzemsku	-10.8296
▁Hlavním	-10.8296
▁představitele	-10.8297
▁východě	-10.8299
▁schopností	-10.8305
▁prof	-10.8306
▁běžně	-10.8308
▁kup	-10.8308
▁nastavení	-10.8309
▁Clinton	-10.8311
▁hal	-10.8312
vrácení	-10.8316
▁vědí	-10.832
▁krajiny	-10.8321
▁víkend	-10.8321
▁zůstalo	-10.8321
▁sezóny	-10.8321
▁přítomnosti	-10.8322
▁dílů	-10.8323
▁Jaké	-10.8326
▁reklamy	-10.8326
▁majitelé	-10.8327
▁výkonný	-10.8331
vedli	-10.8332
ston	-10.8343
▁CS	-10.8343
▁Rakouska	-10.8343
logický	-10.8355
pozn	-10.8358
▁chyby	-10.8359
85	-10.836
▁objevují	-10.836
▁výborů	-10.8371
▁radi	-10.8371
▁svobody	-10.8371
▁ekonomický	-10.8371
▁uvaž	-10.8372
▁záležitosti	-10.8375
▁otevřený	-10.8379
▁technick	-10.8382
▁postavil	-10.8384
▁písemn	-10.8384
▁vlasti	-10.8384
▁pokuty	-10.8389
eprve	-10.8393
čené	-10.8393
pot	-10.8401
70	-10.8402
lidov	-10.8404
▁staveb	-10.8411
logicky	-10.8413
▁Morav	-10.8415
▁znění	-10.8416
▁činil	-10.8417
▁filmové	-10.8421
▁smí	-10.8425
▁nastal	-10.8427
▁Mont	-10.8428
▁Jaká	-10.8429
▁výrobních	-10.8438
▁stylu	-10.8438
▁známý	-10.844
▁primátor	-10.8444
ečná	-10.8446
▁listin	-10.8451
▁Pomoc	-10.8452
▁38	-10.8453
▁Vlk	-10.8457
▁klasický	-10.8458
▁diplomat	-10.8458
▁7.	-10.8461
▁koncertu	-10.8467
▁zdravotního	-10.847
elů	-10.8472
▁surovin	-10.8476
▁obsadil	-10.8479
▁čtenářů	-10.8479
▁důraz	-10.8488
▁nájemník	-10.8489
▁14.	-10.8496
▁víme	-10.8497
▁našel	-10.8503
▁zveřejněn	-10.8511
▁existující	-10.8517
histor	-10.852
▁Výbor	-10.852
▁matematick	-10.8523
▁běžn	-10.8525
pracovat	-10.8531
5%	-10.8532
▁výkony	-10.8532
▁připoj	-10.8534
drží	-10.8535
▁ostatním	-10.8535
povídají	-10.8537
▁přítomnost	-10.8538
jmout	-10.8538
▁Světové	-10.8545
▁menších	-10.8546
týká	-10.855
▁potřebn	-10.8551
▁běh	-10.8553
▁fotograf	-10.8554
▁Angličan	-10.8554
▁Argentin	-10.8554
▁Evropu	-10.8554
▁Mechanik	-10.8554
▁Němců	-10.8554
▁Premiér	-10.8554
▁Staroměstské	-10.8554
▁Systém	-10.8554
▁Vývoj	-10.8554
▁absolutní	-10.8554
▁definitivní	-10.8554
▁kilobajtů	-10.8554
▁podezření	-10.8554
▁potvrzuje	-10.8554
▁připomněl	-10.8554
▁sjednocení	-10.8554
▁smlouvě	-10.8554
▁teorií	-10.8554
▁tvořit	-10.8554
▁účinek	-10.8554
▁režii	-10.8554
▁tabulce	-10.8554
▁aspekt	-10.8554
▁lehce	-10.8554
▁schůze	-10.8554
▁zdarma	-10.8554
▁zrušil	-10.8554
▁ukončil	-10.8554
▁pokrok	-10.8554
▁špatný	-10.8554
▁membrán	-10.8554
▁Jihlav	-10.8554
▁tramvaj	-10.8554
▁zastupitelstva	-10.8554
▁nezávislé	-10.8555
▁vyřešen	-10.8555
▁hustot	-10.8555
▁spotřeby	-10.8555
▁pověřen	-10.8555
▁střetnutí	-10.8555
▁dosáhla	-10.8555
▁nedokázal	-10.8555
▁GSM	-10.8556
▁vězni	-10.8556
▁En	-10.8557
▁bránit	-10.8557
▁("	-10.8557
▁tuzemské	-10.8557
▁nádor	-10.8557
▁celků	-10.8557
ářské	-10.8558
▁nejenom	-10.8558
▁produkci	-10.8559
▁dětský	-10.856
▁Cíle	-10.856
lip	-10.856
▁odraz	-10.856
▁ovoce	-10.856
▁diskuse	-10.856
▁přístav	-10.8561
▁vyvíj	-10.8562
▁pochopil	-10.8562
▁Řeck	-10.8562
▁Němec	-10.8563
▁Dodal	-10.8564
▁kódování	-10.8565
▁kamion	-10.8566
▁Jaký	-10.8566
▁vaši	-10.8567
▁státem	-10.857
▁dostatek	-10.857
VÍ	-10.857
▁anglický	-10.857
▁Úřadu	-10.8571
▁balík	-10.8571
▁Druhá	-10.8572
▁kyselin	-10.8573
▁95	-10.8575
▁pravděpodobnost	-10.8576
▁pokladn	-10.8576
▁překlad	-10.8579
▁vyvolává	-10.858
▁Jednání	-10.8581
▁koní	-10.8581
▁systematick	-10.8585
▁předložit	-10.8585
▁dolní	-10.8585
▁obav	-10.8586
▁závislosti	-10.859
▁akademie	-10.859
▁přímý	-10.8594
faktor	-10.8595
jeli	-10.8595
▁zájm	-10.8595
▁náhodou	-10.8596
▁nahradil	-10.8597
▁veřejných	-10.8597
▁soused	-10.8601
▁výstavě	-10.8601
▁fakultu	-10.8602
▁zahraničním	-10.8606
▁startu	-10.8607
▁důchod	-10.8609
užit	-10.8609
▁užívání	-10.8609
▁Karadžič	-10.8609
▁zvěře	-10.8611
▁strážník	-10.8613
jímá	-10.8617
jako	-10.8617
▁klidně	-10.8617
▁fyzikální	-10.8624
▁obrovský	-10.8625
▁Severní	-10.8629
táhne	-10.8629
▁KB	-10.8632
▁vyžádal	-10.8634
stupují	-10.8637
▁životním	-10.8643
▁Sparta	-10.8644
▁karta	-10.8646
▁škodu	-10.8648
▁kontrolní	-10.8651
▁zdravé	-10.8657
▁exportu	-10.8658
▁temp	-10.8661
enou	-10.8663
▁zdravotnické	-10.8663
▁poznal	-10.8663
▁poloh	-10.8663
▁ukázk	-10.8666
▁základem	-10.8677
▁kvantov	-10.8686
▁týdnech	-10.8686
ňovat	-10.8686
▁důsledk	-10.8687
▁plnění	-10.8688
▁budova	-10.8698
▁trenérem	-10.8698
▁podobného	-10.8702
▁principu	-10.8704
jedna	-10.8705
▁pohyboval	-10.8706
▁příčiny	-10.8708
platí	-10.8712
▁reálný	-10.8716
OLE	-10.8716
▁firemní	-10.8722
▁náročn	-10.8722
ících	-10.8733
▁Ústavní	-10.8736
▁koho	-10.8738
pin	-10.8739
▁koně	-10.875
▁Mir	-10.8751
▁silný	-10.8752
▁Olomouc	-10.8756
▁sporu	-10.8762
▁česko	-10.8773
▁rostlin	-10.8774
▁regul	-10.8775
elná	-10.8776
bírají	-10.8777
▁škod	-10.8778
pořád	-10.8779
▁vzduch	-10.8781
▁šíř	-10.8781
▁Spo	-10.8782
▁klasické	-10.8785
▁propag	-10.8789
nových	-10.8792
▁matematik	-10.8799
▁vražd	-10.8799
noví	-10.88
▁stati	-10.8803
▁bezprostředn	-10.8809
počítat	-10.8811
▁najde	-10.8812
▁jiní	-10.8815
▁vedl	-10.882
▁pokládá	-10.8823
▁11.	-10.8823
▁seminář	-10.8834
bla	-10.8835
▁důstojn	-10.8843
▁třetího	-10.8844
▁34	-10.8845
tle	-10.8851
▁časové	-10.8854
▁předběžn	-10.8856
▁Úřad	-10.886
▁zabýval	-10.8864
spraš	-10.887
▁zhorš	-10.8875
ačtyřicet	-10.8876
▁Bruselu	-10.8876
▁dohromady	-10.8876
▁dražší	-10.8876
▁dynamick	-10.8876
▁nejnižší	-10.8876
▁přispět	-10.8876
▁snažit	-10.8876
▁sportovců	-10.8876
▁uskutečnit	-10.8876
▁Člověk	-10.8876
▁Poslanc	-10.8876
▁chystá	-10.8876
▁index	-10.8876
▁nemohu	-10.8876
▁podporovat	-10.8876
▁vyřešit	-10.8876
▁krizi	-10.8876
▁vybudovat	-10.8876
▁bílkovin	-10.8876
▁každoročn	-10.8876
▁uvidí	-10.8876
▁vypadat	-10.8876
▁srážek	-10.8876
▁Osobn	-10.8876
▁skončí	-10.8876
▁turisty	-10.8876
▁doufá	-10.8876
▁mlýn	-10.8876
▁spořiteln	-10.8877
▁kolegů	-10.8877
▁sněhu	-10.8877
▁tvorbě	-10.8877
▁zhodnocení	-10.8877
▁dobrá	-10.8878
▁mld	-10.8878
▁obilí	-10.8878
▁pouští	-10.8879
▁dcer	-10.8879
▁sběr	-10.8879
vázal	-10.888
▁síti	-10.888
▁vedlejší	-10.8881
▁těší	-10.8881
▁atmosféry	-10.8882
▁přesvědčit	-10.8883
▁bomb	-10.8883
▁dešti	-10.8883
▁porozumění	-10.8883
▁pokračuje	-10.8883
▁úkon	-10.8884
▁Odbor	-10.8885
▁spodní	-10.8885
▁deviz	-10.8885
▁hůře	-10.8887
▁penzion	-10.8888
▁zbytečně	-10.8888
▁pohádk	-10.8889
89	-10.8889
▁umělecké	-10.8892
▁připojit	-10.8893
▁všeobecně	-10.8895
▁Hradci	-10.8895
▁chlap	-10.8896
▁přinést	-10.8897
▁textový	-10.8898
▁ruky	-10.8898
▁tělo	-10.8898
▁vesnice	-10.89
▁Cup	-10.8903
▁poznamenal	-10.8905
rgi	-10.8906
HA	-10.8912
▁rovině	-10.8914
▁silnice	-10.8915
▁130	-10.8916
▁Senátu	-10.8916
▁spolupracovníků	-10.8917
▁Jelcina	-10.8922
▁mírn	-10.8925
▁obsazení	-10.8926
▁počítačový	-10.8928
▁prosadil	-10.893
▁mlh	-10.8933
lčí	-10.8935
▁dala	-10.8935
▁Američané	-10.8936
▁analýzy	-10.8936
slyš	-10.8946
nutně	-10.895
▁grafický	-10.8957
▁Novotný	-10.8957
kládal	-10.8958
▁historické	-10.8958
▁personální	-10.8959
ačnou	-10.8959
▁zájemce	-10.8961
▁opustit	-10.8966
▁čtyřiceti	-10.8969
▁volných	-10.8973
důsledně	-10.8973
▁kolektivní	-10.8973
▁důchodu	-10.8975
▁moment	-10.8976
▁mnou	-10.8976
▁Chorvatska	-10.8977
razil	-10.8982
▁dovozu	-10.8983
ica	-10.8983
▁autobusy	-10.8983
▁levé	-10.8985
▁palác	-10.8986
▁zájmů	-10.8987
▁požadované	-10.8988
▁nadšen	-10.8989
▁průměrný	-10.8994
▁postoje	-10.8998
▁Kohl	-10.9
▁Rakousk	-10.9004
▁městský	-10.9004
▁potenciál	-10.9005
▁Karla	-10.9012
▁vyrovnan	-10.9016
▁nevím	-10.9019
▁nech	-10.9027
▁trestné	-10.9028
▁obal	-10.9031
▁přivedl	-10.9036
polí	-10.9037
▁dalo	-10.9038
▁Mag	-10.9039
▁tlaku	-10.9044
▁získan	-10.9046
dent	-10.9047
vedou	-10.9053
▁objemu	-10.9056
▁drobné	-10.9057
▁konve	-10.9068
hraniční	-10.9075
▁grafu	-10.908
▁odborník	-10.9084
▁nepříjemné	-10.9089
▁samozřejm	-10.9089
ební	-10.909
▁Mon	-10.9098
▁šlo	-10.9107
▁osobnost	-10.911
▁kolektiv	-10.9111
nete	-10.9113
▁management	-10.9114
▁vedla	-10.9115
▁kapitálové	-10.9118
▁Dá	-10.9118
znamenal	-10.9122
▁svobodné	-10.9124
počíta	-10.9126
▁1,5	-10.9132
řídí	-10.9134
▁Sever	-10.9136
▁mladý	-10.9137
▁projektů	-10.9154
ingu	-10.9159
daných	-10.9171
▁zvíře	-10.9171
▁bytost	-10.9175
mus	-10.9179
▁Nic	-10.9181
▁ideál	-10.9183
leb	-10.9194
ěsíční	-10.9194
nvestiční	-10.9194
▁vlk	-10.9196
▁Auto	-10.9202
▁speciali	-10.9208
▁legend	-10.9209
▁Mluvčí	-10.921
▁Rudolf	-10.921
▁dosažení	-10.921
▁hrozb	-10.921
▁intenzit	-10.921
▁jednoduchá	-10.921
▁metropoli	-10.921
▁nechtějí	-10.921
▁neutrální	-10.921
▁obsažen	-10.921
▁pochopení	-10.921
▁teorii	-10.921
▁tradičně	-10.921
▁výpověď	-10.921
plácet	-10.921
▁únoru	-10.921
▁Moskva	-10.921
▁jmění	-10.921
▁reakcí	-10.921
▁Peníze	-10.921
▁složitější	-10.921
▁očekával	-10.921
▁Divadl	-10.921
▁likvidace	-10.921
táhnout	-10.921
▁nejpozději	-10.921
▁břehu	-10.921
▁nevýhod	-10.921
▁Zástupc	-10.921
▁restauraci	-10.921
▁Rozdíl	-10.9211
▁Obdobn	-10.9211
▁dotace	-10.9211
▁úlev	-10.9211
▁vzácn	-10.9211
▁dojít	-10.9212
▁85	-10.9212
▁kategorii	-10.9213
▁elektráren	-10.9213
▁operací	-10.9213
▁vlak	-10.9213
▁dělají	-10.9213
▁otevřena	-10.9214
▁kabel	-10.9214
▁vtip	-10.9214
▁výhodnější	-10.9215
▁Slovan	-10.9216
▁panel	-10.9217
▁sněmovně	-10.9218
▁členský	-10.9218
▁utrpěl	-10.9219
▁Takový	-10.922
▁mezd	-10.922
▁vzpomínk	-10.922
▁podporuje	-10.9223
▁množ	-10.9225
▁tiskov	-10.9227
BA	-10.9227
▁reformy	-10.9228
▁konečný	-10.9229
▁Dokon	-10.923
▁výrazný	-10.923
▁městech	-10.923
▁udržení	-10.923
▁oblačnost	-10.9234
▁stíhání	-10.9239
▁vína	-10.9245
▁zabezpeč	-10.9246
▁časopisů	-10.9247
▁bílé	-10.9254
▁přijdou	-10.9254
▁projednáva	-10.9256
▁strom	-10.9256
▁žádostí	-10.9258
▁Dán	-10.926
▁Tour	-10.9266
▁Paříži	-10.927
▁lékařsk	-10.9276
▁pochází	-10.9278
▁struktura	-10.9282
▁mluvil	-10.9285
▁vešker	-10.9286
▁odborníky	-10.9289
▁realitní	-10.929
▁využívání	-10.9296
▁hledal	-10.9299
▁mechanick	-10.9299
▁okraj	-10.9308
▁Šp	-10.9312
▁provedl	-10.9312
▁mladí	-10.9318
▁žádosti	-10.9319
▁značn	-10.9319
▁sezónu	-10.932
▁OD	-10.9325
▁přijel	-10.9337
▁hmoty	-10.9339
▁šedesát	-10.934
▁uložení	-10.9344
▁novel	-10.935
▁zvýšen	-10.9357
▁provozní	-10.936
▁škoda	-10.9363
▁nemohli	-10.9364
dáme	-10.9364
▁domy	-10.9365
▁tank	-10.9368
▁nastavit	-10.9368
▁založení	-10.9368
eček	-10.9372
▁Ter	-10.9379
▁Olymp	-10.9381
▁neboli	-10.9387
▁svobodu	-10.9388
▁západ	-10.9394
▁obvodní	-10.9397
▁skla	-10.9397
skok	-10.94
▁mluvčího	-10.9401
poví	-10.9403
▁letecké	-10.9405
▁zákazníkům	-10.9405
▁volb	-10.9416
▁dokumentu	-10.9416
▁časopise	-10.9416
▁ukázala	-10.9419
▁záměru	-10.9419
▁jmen	-10.942
▁tich	-10.9422
▁region	-10.9423
▁poli	-10.9423
▁reprezentantů	-10.9429
ectví	-10.9433
▁Ben	-10.9437
▁fyzik	-10.9437
88	-10.944
▁monopol	-10.9442
▁zvýšené	-10.9443
▁Chorvatsk	-10.9445
▁zařazen	-10.9447
▁Lit	-10.9449
▁muse	-10.9449
tkání	-10.9456
▁výkonnost	-10.9462
▁jmenován	-10.9464
tických	-10.9466
▁ztráta	-10.9467
▁prázdnin	-10.9473
▁Mohl	-10.9473
▁snažil	-10.9476
skému	-10.9476
▁nezaměstnanost	-10.9476
rent	-10.9478
▁Plat	-10.9483
▁doping	-10.9483
stihnout	-10.9484
▁vyvoláva	-10.9487
▁zajímav	-10.9491
oučástí	-10.9499
▁Kur	-10.9499
▁čtrnácti	-10.95
▁řídící	-10.9503
hý	-10.9508
dpověď	-10.9509
▁Nejs	-10.9509
▁týmy	-10.951
PI	-10.9511
▁ohrožen	-10.9513
▁odstup	-10.9515
▁vydá	-10.9519
vnějších	-10.952
▁posílen	-10.9522
▁každému	-10.9525
▁psycholog	-10.9529
▁kilometr	-10.9529
hání	-10.9544
▁zvětš	-10.9545
▁turistický	-10.9547
▁Graf	-10.955
▁grafick	-10.955
▁dvojic	-10.9554
▁recept	-10.9554
▁Afriky	-10.9554
▁Ameriky	-10.9554
▁Bohužel	-10.9554
▁Ladislav	-10.9554
▁Nedávn	-10.9554
▁Plzni	-10.9554
▁SCSI	-10.9554
▁Telecom	-10.9554
▁devatenáct	-10.9554
▁energii	-10.9554
▁hudby	-10.9554
▁instituce	-10.9554
▁investování	-10.9554
▁konkrétně	-10.9554
▁nejvýznamnější	-10.9554
▁nizozemsk	-10.9554
▁podpořil	-10.9554
▁přirozené	-10.9554
▁čtvereční	-10.9554
▁čtvrtfinále	-10.9554
▁gymnázi	-10.9554
▁lokální	-10.9554
▁kapitán	-10.9554
▁ohrožuj	-10.9554
▁Policisté	-10.9554
▁chránit	-10.9554
▁mládí	-10.9554
▁požadují	-10.9554
▁rámeček	-10.9555
▁David	-10.9555
▁koncepci	-10.9555
▁názvu	-10.9555
▁pobočk	-10.9555
▁Všeobecn	-10.9555
▁nejúspěšnější	-10.9555
▁nalézt	-10.9555
máhají	-10.9555
▁Včera	-10.9555
▁okénk	-10.9555
▁dražb	-10.9555
▁zaujal	-10.9555
▁použil	-10.9555
▁Chip	-10.9555
cal	-10.9555
▁zimě	-10.9555
▁závad	-10.9555
▁ekonomicky	-10.9555
▁stabilní	-10.9555
▁trzích	-10.9555
▁věnovan	-10.9556
▁obrázky	-10.9558
▁nadcházející	-10.9558
▁výrobek	-10.9559
▁lamp	-10.9559
▁Tentokrát	-10.956
▁stačil	-10.9561
▁koncern	-10.9561
▁kategorií	-10.9562
▁pochopit	-10.9562
▁síla	-10.9563
▁Londýně	-10.9564
▁odstavce	-10.9565
▁faktorů	-10.9565
▁plod	-10.9566
▁hlavou	-10.9568
▁činu	-10.9568
IC	-10.957
▁kritérií	-10.9571
'	-10.9571
▁Mas	-10.9571
▁bojovat	-10.9571
▁chodit	-10.9572
dová	-10.9572
▁opravdov	-10.9572
▁konat	-10.9572
▁připojen	-10.9577
▁právnické	-10.9577
istický	-10.9578
▁tón	-10.9578
▁Stav	-10.9579
▁ochotn	-10.9582
ňoval	-10.9583
▁parametrů	-10.9585
▁umělecký	-10.9586
▁originální	-10.9586
▁koš	-10.9586
▁vybrané	-10.9587
▁tradici	-10.9589
▁spravedlnosti	-10.9592
▁způsobuje	-10.9594
▁Děti	-10.9595
▁ekologick	-10.9599
bíhají	-10.9599
▁šéfa	-10.9599
▁zbývající	-10.9604
jednat	-10.9605
▁světovou	-10.9606
▁třetinu	-10.9608
▁slíbil	-10.961
▁schůzky	-10.961
▁vesmíru	-10.961
▁zájemci	-10.9611
▁uživatele	-10.9611
▁drahé	-10.9612
▁scény	-10.9614
▁uznal	-10.9614
▁úvahy	-10.9616
▁nezbytné	-10.962
▁biologické	-10.962
znamená	-10.9621
▁nemocných	-10.9622
najdeme	-10.9622
▁ekonomik	-10.9625
▁úkolem	-10.9625
▁způsobené	-10.9627
▁okruhu	-10.9627
▁relac	-10.9633
CP	-10.9636
▁Lidové	-10.9636
▁odklad	-10.9639
▁platy	-10.9639
jal	-10.964
▁čtvrtý	-10.9641
▁povede	-10.9641
▁podnikatelský	-10.9645
▁blíže	-10.9645
berg	-10.9647
▁posíl	-10.9647
▁paliva	-10.965
▁Hr	-10.9651
far	-10.9653
▁zaměření	-10.9653
▁starosty	-10.9654
▁vložen	-10.9661
▁úroky	-10.9661
▁Zahraničn	-10.9664
národních	-10.9668
▁51	-10.9671
▁rozhovor	-10.9673
čern	-10.9675
▁bosenský	-10.9682
▁poklesl	-10.9685
▁realiz	-10.9688
▁dokumentů	-10.9692
▁výkonem	-10.9695
▁Nevím	-10.9695
▁představí	-10.9697
▁úkolů	-10.9701
▁uvedení	-10.9701
▁pouhé	-10.9703
▁čtvrtin	-10.9707
▁objevit	-10.9708
▁hradu	-10.9709
▁pravý	-10.9718
▁30.	-10.972
▁9.	-10.972
kolik	-10.9721
cestoval	-10.9724
▁klidu	-10.9724
IP	-10.9725
hodné	-10.9725
▁podat	-10.9728
▁udržel	-10.9732
▁zásady	-10.9736
▁vyrovná	-10.9739
bojí	-10.9743
▁vývojové	-10.9746
▁vyvolá	-10.9748
▁údaj	-10.9757
myslí	-10.9761
▁poukaz	-10.9771
▁neb	-10.9774
▁odkud	-10.9777
▁opustil	-10.9777
íků	-10.9779
▁hloubk	-10.9779
▁manipul	-10.978
▁odložen	-10.9786
▁širok	-10.9791
▁paláce	-10.9792
▁zůstala	-10.9792
▁sklon	-10.9796
▁tvrdý	-10.9804
▁zahraničními	-10.9809
tiky	-10.9812
▁nesouhlas	-10.9813
▁dalšímu	-10.9817
▁listopad	-10.9817
zích	-10.9825
▁Die	-10.9828
▁výprav	-10.9835
▁fyzický	-10.9846
▁stovk	-10.9848
▁filmy	-10.9852
žije	-10.9859
▁souvislost	-10.986
▁adresu	-10.9865
▁založené	-10.9865
▁8.	-10.9868
krás	-10.9869
▁zastoupen	-10.987
▁koupi	-10.9871
čátkem	-10.9873
▁akademi	-10.9878
▁180	-10.988
▁Ste	-10.9881
▁konstru	-10.9883
▁jednoznačn	-10.989
ložený	-10.9899
▁šestnáct	-10.9899
▁pevný	-10.9901
▁parku	-10.9905
▁vlákn	-10.9908
▁implant	-10.9911
▁rytm	-10.9912
nápověd	-10.9912
▁1996	-10.9912
▁Alexandr	-10.9912
▁Barceloně	-10.9912
▁Británii	-10.9912
▁Bělehrad	-10.9912
▁Nejlepší	-10.9912
▁Portugalsk	-10.9912
▁březnu	-10.9912
▁fázi	-10.9912
▁instalaci	-10.9912
▁normy	-10.9912
▁následek	-10.9912
▁podmínkou	-10.9912
▁populární	-10.9912
▁požádat	-10.9912
▁pravidlo	-10.9912
▁publikován	-10.9912
▁tlačítka	-10.9912
▁tlačítkem	-10.9912
▁týdně	-10.9912
▁umožnit	-10.9912
▁cigaret	-10.9912
▁pomáhá	-10.9912
▁déšť	-10.9912
▁kratší	-10.9912
▁vrstvy	-10.9912
▁Organiza	-10.9912
▁ploše	-10.9912
▁Srbsk	-10.9912
▁naléhav	-10.9912
▁chalup	-10.9912
▁těžce	-10.9912
spěje	-10.9912
▁divize	-10.9912
▁Robert	-10.9912
▁Věřím	-10.9912
▁Část	-10.9912
▁zajímat	-10.9912
▁likvidaci	-10.9912
▁Soubor	-10.9912
▁značky	-10.9912
▁někoho	-10.9912
▁příslušníci	-10.9912
▁ocitl	-10.9912
▁pololetí	-10.9912
▁doposud	-10.9912
▁stoupl	-10.9912
▁kvalifikace	-10.9913
▁1987	-10.9913
▁pozdější	-10.9913
▁Případ	-10.9913
▁prodávající	-10.9913
▁komisi	-10.9913
▁debat	-10.9913
▁nutný	-10.9913
▁Hodnot	-10.9913
▁IFOR	-10.9913
▁ekonomice	-10.9913
▁klimatu	-10.9914
▁historik	-10.9914
▁drog	-10.9918
▁uvažovat	-10.9918
▁Generální	-10.992
▁neznámé	-10.992
▁multimediální	-10.992
▁umělé	-10.9921
▁desky	-10.9921
▁červenci	-10.9921
▁postupné	-10.9922
▁časopis	-10.9922
▁právnických	-10.9922
▁tvořen	-10.9923
▁horách	-10.9924
kování	-10.9925
▁ukázat	-10.9925
▁rozbor	-10.9927
▁odpovídal	-10.9928
líbil	-10.993
▁pozorování	-10.9931
▁Novotná	-10.9935
▁letiště	-10.9936
▁výstavbě	-10.9938
▁vzorky	-10.9939
▁myšlenka	-10.994
▁potvrzení	-10.994
lap	-10.9941
▁provozovatel	-10.9941
▁cenách	-10.9942
▁Vít	-10.9943
▁vánoc	-10.9944
▁ukáže	-10.9945
padla	-10.9946
▁Znám	-10.9947
▁Často	-10.9947
▁absolvoval	-10.9953
▁ohrožení	-10.9954
▁parametry	-10.9956
▁vozy	-10.9956
▁Atlanty	-10.9961
▁obvyklé	-10.9964
▁ono	-10.9964
▁dramat	-10.9965
ativní	-10.9966
▁úvodu	-10.9967
▁muzeum	-10.9967
▁vyšel	-10.997
▁řeky	-10.997
lezl	-10.9972
▁plet	-10.9972
hodnou	-10.9972
▁mezinárodním	-10.9973
▁JU	-10.9974
▁Svazu	-10.998
▁nahradit	-10.9981
▁Slovensk	-10.9983
▁sektoru	-10.9983
▁přírodovědecké	-10.9984
▁společném	-10.9987
▁pojem	-10.9988
▁očekávání	-10.999
▁chorvatské	-10.9991
dejme	-10.9994
ézt	-10.9994
▁účelem	-10.9998
▁třetina	-10.9999
▁zjednoduš	-11.0003
▁nepr	-11.0005
▁představitel	-11.0006
▁plynů	-11.0007
▁%)	-11.0014
▁dvojí	-11.0014
▁příspěvky	-11.0015
▁určitém	-11.0016
▁průmyslov	-11.002
▁zaplatil	-11.0025
▁nedovol	-11.0025
▁barvu	-11.0027
▁potenciální	-11.0029
▁jediného	-11.003
pustili	-11.0031
oucí	-11.0033
▁srážky	-11.0035
nický	-11.0036
▁španělské	-11.0036
▁stupni	-11.004
▁obchodů	-11.0041
▁napsat	-11.0048
▁průzkumu	-11.0055
▁styku	-11.0057
▁plynu	-11.0057
▁studenti	-11.0057
▁ztrátu	-11.0059
▁cíli	-11.0062
▁ochotni	-11.0062
▁občansk	-11.0063
▁Char	-11.0067
▁varianty	-11.0068
▁školu	-11.0071
▁Celk	-11.0071
▁případný	-11.0072
cházející	-11.0074
čková	-11.0074
▁Mik	-11.0075
večer	-11.0079
ung	-11.008
▁příjemné	-11.0081
▁spokojeni	-11.0081
▁přenosov	-11.0082
▁veden	-11.0089
ODA	-11.0089
▁Velm	-11.0089
▁důchodové	-11.0092
▁vítěze	-11.0096
▁podílu	-11.0098
▁ekonomika	-11.0102
vice	-11.0103
▁hospodářský	-11.0106
▁Eva	-11.0109
ánek	-11.011
▁pořádá	-11.0112
studoval	-11.012
vesel	-11.0124
▁výrazné	-11.0125
▁nález	-11.0128
▁masov	-11.0129
▁vymezen	-11.0132
▁Karlov	-11.0133
▁změnila	-11.0142
▁propad	-11.0148
▁obrovsk	-11.0149
▁jistot	-11.0149
▁nějakým	-11.0155
▁specializované	-11.0159
▁desít	-11.0159
▁bíl	-11.0165
▁menším	-11.0166
▁záruk	-11.0167
▁založena	-11.017
▁hrála	-11.0173
▁hlubo	-11.0179
▁chemick	-11.018
▁Správ	-11.0182
▁působící	-11.0183
▁alkohol	-11.0186
▁zjednodušen	-11.0188
▁elektron	-11.0192
▁návštěvník	-11.0195
▁kontakt	-11.0196
▁Podnikatel	-11.0197
▁společenský	-11.0199
měrně	-11.02
▁Společn	-11.0201
▁zájemců	-11.0202
▁skryt	-11.0206
mět	-11.0213
▁Martina	-11.0216
▁vedoucího	-11.0221
ďte	-11.0222
▁kontrola	-11.0222
▁Britsk	-11.0222
▁pouště	-11.0226
▁Skutečn	-11.0232
čela	-11.0232
bylo	-11.0236
▁Nikd	-11.0241
▁figur	-11.0251
letí	-11.0258
.12.	-11.0265
▁49	-11.0267
▁řetěz	-11.0271
jíždějí	-11.0272
▁interpret	-11.0273
▁Rozhod	-11.0274
povídal	-11.0276
▁Ukrajiny	-11.0282
▁Zvláštní	-11.0282
▁akcionářů	-11.0282
▁církví	-11.0282
▁galerie	-11.0282
▁hřiště	-11.0282
▁ovladač	-11.0282
▁ovlivňuje	-11.0282
▁priorit	-11.0282
▁upozorňuje	-11.0282
▁Chomutov	-11.0282
▁Koaliční	-11.0282
▁burze	-11.0282
▁deficit	-11.0282
▁držitel	-11.0282
▁dveří	-11.0282
▁naznačil	-11.0282
▁náboženství	-11.0282
▁orchestr	-11.0282
▁potrestán	-11.0282
▁páteční	-11.0282
▁šetření	-11.0282
▁IBM	-11.0282
▁bronz	-11.0282
▁nepřátel	-11.0282
▁příznak	-11.0282
▁určuje	-11.0282
▁patrné	-11.0282
▁enzym	-11.0282
▁oxidu	-11.0282
▁vrstev	-11.0282
▁podporou	-11.0282
▁produktivit	-11.0282
▁usilovat	-11.0282
▁proslul	-11.0282
▁podnicích	-11.0282
▁pronájem	-11.0282
▁potíží	-11.0282
▁fáze	-11.0282
▁sdělovací	-11.0282
▁kritické	-11.0282
▁nedaleko	-11.0282
▁příliv	-11.0282
▁královn	-11.0282
▁vzestup	-11.0282
▁Word	-11.0282
▁filozofie	-11.0282
▁Tureck	-11.0282
▁lyžař	-11.0282
▁naposledy	-11.0282
vázat	-11.0283
▁Formát	-11.0283
▁zámku	-11.0283
▁1997	-11.0283
▁svátky	-11.0283
▁integraci	-11.0283
▁myšlenkou	-11.0283
▁hutní	-11.0283
▁těžb	-11.0284
▁násilí	-11.0284
▁srdeční	-11.0284
střih	-11.0284
▁obrázků	-11.0284
▁manželství	-11.0285
▁šíření	-11.0285
▁odhadnout	-11.0285
▁duše	-11.0285
▁myšlenku	-11.0285
▁Původně	-11.0285
▁sílu	-11.0286
▁Týr	-11.0286
▁nehodlá	-11.0286
▁slabší	-11.0286
▁nájem	-11.0286
▁přežití	-11.0286
▁vážný	-11.0287
▁uhlí	-11.0287
▁tratí	-11.0287
▁obnovu	-11.0288
▁nízko	-11.0288
▁prosazovat	-11.0289
▁prováze	-11.0289
▁podnět	-11.0289
▁znamenalo	-11.029
▁americkém	-11.0291
▁stanovit	-11.0291
▁testování	-11.0291
▁strav	-11.0291
hodlají	-11.0293
▁dlouhodobě	-11.0293
▁sledování	-11.0293
▁zdanění	-11.0294
▁Komis	-11.0297
▁olej	-11.0299
▁zákazníci	-11.03
▁doporučení	-11.03
▁posoudit	-11.0301
▁jih	-11.0304
▁soustředění	-11.0305
▁profil	-11.0305
▁Labem	-11.0309
▁silnější	-11.0311
▁sklo	-11.0317
▁poslání	-11.0317
▁příslušníků	-11.0321
▁jeví	-11.0323
▁Nejde	-11.0323
▁jádro	-11.0323
▁přístrojů	-11.0324
▁úředníků	-11.0329
▁tvrdě	-11.0329
▁jezer	-11.0332
EK	-11.0333
▁přinese	-11.0333
▁Jac	-11.0334
kryl	-11.0336
▁následky	-11.0336
ňují	-11.0336
▁All	-11.0337
▁úlohu	-11.0339
▁subjekt	-11.034
▁25.	-11.0341
▁moravsk	-11.0344
▁vládou	-11.0345
▁začínající	-11.0346
▁přehlídky	-11.0346
dělování	-11.0348
ČE	-11.035
▁kvalifikovan	-11.0357
▁soudce	-11.036
nin	-11.036
▁elektro	-11.0366
▁experti	-11.0366
▁Naši	-11.0367
▁zápisu	-11.0372
▁válka	-11.0372
pisuje	-11.0375
▁jistotu	-11.0379
▁Platí	-11.0386
lské	-11.0387
nili	-11.0399
▁zachoval	-11.04
▁výbuchu	-11.0401
nder	-11.0411
▁Nizozem	-11.0412
▁Mel	-11.0413
enství	-11.0417
▁nasazení	-11.0418
▁italský	-11.0418
▁technického	-11.0419
▁Svat	-11.042
▁předpoklady	-11.0422
▁technika	-11.0422
▁týmem	-11.0423
▁doplň	-11.0428
▁sbor	-11.0433
▁hotelů	-11.0434
▁telefonu	-11.0434
▁Mc	-11.0437
▁lidové	-11.0438
▁komor	-11.044
ctví	-11.0445
▁snahy	-11.0445
části	-11.0451
▁papírů	-11.0452
▁ziskem	-11.0453
▁překr	-11.0453
▁dán	-11.0456
▁výstavu	-11.0457
tika	-11.046
nechává	-11.046
▁rozumí	-11.0461
eme	-11.0461
▁světlo	-11.0464
▁21.	-11.0468
▁ikon	-11.0469
▁cel	-11.0472
▁Byli	-11.0475
▁189	-11.048
▁spory	-11.048
daly	-11.0481
▁měnové	-11.0482
soudil	-11.0482
▁agentur	-11.0485
▁výběrové	-11.0485
▁díly	-11.049
▁Či	-11.0491
▁slovník	-11.0491
korun	-11.0493
▁náročné	-11.0494
▁fotbalu	-11.0494
kupuje	-11.0502
▁vrcholu	-11.0502
▁dohodnut	-11.0504
▁sociálně	-11.0507
▁zajímavost	-11.051
▁předvedl	-11.0512
▁osobě	-11.0525
žívají	-11.0526
▁zákazu	-11.053
▁Malý	-11.0544
▁kulturních	-11.0551
▁vzdálené	-11.0552
▁Har	-11.0559
▁chová	-11.056
▁Výhod	-11.0561
▁trvalo	-11.0562
▁typické	-11.0563
▁vysoko	-11.0572
▁kabinet	-11.0572
mořsk	-11.0574
▁připraveni	-11.0574
▁reagoval	-11.0576
▁úz	-11.0578
▁rozpor	-11.058
▁zaměstnanec	-11.0581
▁zabývají	-11.0581
▁srážk	-11.059
▁poskytnut	-11.0591
▁obrazovk	-11.0591
▁desetin	-11.0594
▁centrál	-11.0594
▁programem	-11.0597
usi	-11.0599
▁snížen	-11.0601
▁optim	-11.0602
▁trati	-11.0604
▁Františk	-11.0605
▁činitel	-11.0612
▁Win	-11.0612
řád	-11.0613
▁většího	-11.0621
▁malého	-11.0624
▁okrese	-11.0627
▁Vítěz	-11.063
▁návštěv	-11.0632
▁procento	-11.0635
▁daný	-11.0637
▁Jedn	-11.0637
bíral	-11.0637
▁vzhled	-11.0638
▁rusk	-11.0641
ues	-11.0647
▁krátký	-11.0658
▁Les	-11.0659
▁specifik	-11.0661
ŘÍ	-11.0661
▁architekt	-11.0661
▁vstupní	-11.0664
▁66	-11.0664
▁Rakušan	-11.0667
▁Temelín	-11.0667
▁Thajsk	-11.0667
▁Výzkum	-11.0667
▁dodatečně	-11.0667
▁důležitá	-11.0667
▁fotoaparát	-11.0667
▁franků	-11.0667
▁inspekce	-11.0667
▁instalace	-11.0667
▁majetkem	-11.0667
▁nejmenší	-11.0667
▁pohledávek	-11.0667
▁redakce	-11.0667
▁upozornit	-11.0667
▁vyšetření	-11.0667
▁Bejbl	-11.0667
▁Vedoucí	-11.0667
▁konstrukce	-11.0667
▁nezměnil	-11.0667
▁stupňů	-11.0667
▁zoufal	-11.0667
▁pojmů	-11.0667
▁vyvinul	-11.0667
▁Průměrn	-11.0667
▁zkratk	-11.0667
▁Republik	-11.0667
▁stovek	-11.0667
▁DPH	-11.0667
▁certifikát	-11.0667
▁dvojnásobn	-11.0667
▁vojsk	-11.0667
▁přežít	-11.0667
▁Bílé	-11.0667
▁Sokol	-11.0667
▁jedince	-11.0667
▁sehrál	-11.0667
▁vyroben	-11.0667
▁ozdob	-11.0667
▁Řešení	-11.0667
▁chápat	-11.0667
▁uváděn	-11.0667
▁audio	-11.0667
▁Asociac	-11.0667
▁Prostě	-11.0667
▁1984	-11.0667
▁restaurace	-11.0667
▁kvalifikační	-11.0667
▁sněhov	-11.0668
▁1968	-11.0668
▁platební	-11.0668
▁formální	-11.0668
▁desát	-11.0668
▁něčem	-11.0669
▁1986	-11.0669
▁poznatků	-11.0669
▁modem	-11.0669
▁spolupracovat	-11.067
▁složité	-11.067
▁německá	-11.067
▁nohy	-11.067
▁III	-11.067
▁3,5	-11.0671
▁Cheb	-11.0672
▁května	-11.0672
▁ČZ	-11.0673
▁rozložení	-11.0674
▁rychlejší	-11.0674
nutit	-11.0674
▁nápis	-11.0674
▁zlaté	-11.0674
▁Tedy	-11.0674
▁marně	-11.0675
▁žáků	-11.0675
▁pružn	-11.0676
▁podzemní	-11.0676
▁vymez	-11.0676
▁Bill	-11.0676
▁Sovětský	-11.0677
▁DEM	-11.0679
▁užitek	-11.0679
▁upravit	-11.068
▁sláv	-11.0681
▁legislativní	-11.0681
▁nájemce	-11.0682
▁Potom	-11.0682
▁odstranění	-11.0682
▁určena	-11.0685
▁volbami	-11.0685
▁Prav	-11.0686
▁Belgie	-11.0687
▁vyvolat	-11.0688
▁bilance	-11.0689
▁republiku	-11.069
▁oznámení	-11.0691
▁ruku	-11.0699
▁platný	-11.07
▁manželka	-11.07
▁měny	-11.0701
▁Nejen	-11.0702
▁Jedná	-11.0705
▁Nejdřív	-11.0705
cházelo	-11.0707
▁elektřiny	-11.0708
▁jevů	-11.0708
▁červené	-11.0708
▁tvor	-11.0709
▁hrubého	-11.071
▁osobností	-11.0711
▁poslanecké	-11.0712
67	-11.0715
▁týdeník	-11.0717
▁Lux	-11.0718
ED	-11.0719
▁potřebu	-11.072
▁Německem	-11.0724
▁Japonsku	-11.0727
jov	-11.0727
ávali	-11.0727
vyšších	-11.0729
tisícov	-11.0731
▁demokratů	-11.0731
▁mírový	-11.0732
příč	-11.0738
bývající	-11.0739
▁koalici	-11.074
▁linky	-11.074
▁návštěvy	-11.0743
bíhá	-11.0747
▁stejná	-11.0748
▁vložit	-11.0749
▁vedlo	-11.075
▁bezprostřední	-11.0751
▁výstavbu	-11.0753
ámek	-11.0754
jan	-11.0755
▁oborů	-11.0756
▁Výstava	-11.0756
▁spotřebu	-11.0761
▁polohy	-11.0763
▁neshod	-11.0763
▁samotný	-11.0765
▁of	-11.0765
jte	-11.0767
▁iniciativ	-11.077
▁výběrem	-11.0776
▁monitoru	-11.0794
▁fotbalových	-11.0796
▁ostrovy	-11.0796
▁specializovan	-11.0796
▁velitel	-11.0799
▁půdu	-11.0802
tisknout	-11.0803
▁primátora	-11.0804
▁orgánu	-11.0806
▁vůdce	-11.0809
▁bio	-11.0809
▁oceánu	-11.0813
▁obvodu	-11.0815
měnit	-11.0818
PS	-11.082
▁pozván	-11.082
▁evropského	-11.0821
▁skutečností	-11.0821
dni	-11.0823
▁skupinou	-11.0834
▁provede	-11.0835
iletá	-11.0838
bran	-11.0839
14	-11.0842
▁kapacity	-11.0844
▁obdobné	-11.0847
hodnost	-11.0848
▁zakladatel	-11.085
▁sportovních	-11.0855
▁nekonečn	-11.0863
svědčil	-11.0865
▁Rud	-11.0866
▁tarif	-11.0869
▁Obča	-11.0874
IA	-11.0874
▁700	-11.0878
▁Zda	-11.0885
▁dokumenty	-11.089
▁císař	-11.0891
▁zdravotnický	-11.0893
▁šedesáti	-11.0895
▁svěřen	-11.0895
▁vysla	-11.0906
▁metru	-11.0906
▁připustil	-11.0907
konala	-11.0908
▁plány	-11.091
čkách	-11.0916
▁Jediný	-11.0918
▁Sol	-11.0918
▁historick	-11.092
▁Vod	-11.0928
▁Rady	-11.0932
▁současném	-11.0932
▁hvězdy	-11.0934
▁Norsk	-11.0936
▁Ros	-11.0939
▁Škod	-11.0941
ÁT	-11.0942
▁vzrůst	-11.0942
▁silnic	-11.0946
▁vyloučen	-11.0951
▁mořský	-11.0954
▁trvalé	-11.096
▁učí	-11.096
poslední	-11.0965
▁zvukové	-11.0965
▁paliv	-11.0967
▁zápis	-11.0972
běžně	-11.0974
▁uvedeno	-11.0974
▁původním	-11.0976
36	-11.098
▁zdi	-11.0981
▁listy	-11.0986
▁vyhlášk	-11.0989
▁mez	-11.0992
▁rozvoji	-11.0993
▁stole	-11.0993
▁podstatný	-11.1001
▁britsk	-11.1007
▁Bro	-11.1011
hruba	-11.1014
místě	-11.1021
rážky	-11.1023
▁Pen	-11.1023
▁beze	-11.1023
▁vybírá	-11.1024
▁základy	-11.1027
▁23.	-11.103
▁malým	-11.103
▁filozof	-11.1034
cími	-11.1041
▁motocykl	-11.1042
▁zjistí	-11.1054
▁privatiz	-11.1061
▁zřetel	-11.1061
FS	-11.1064
▁EuroTel	-11.1067
▁Okresní	-11.1067
▁domnívají	-11.1067
▁energetik	-11.1067
▁firmám	-11.1067
▁hovořit	-11.1067
▁naštěstí	-11.1067
▁nežádoucí	-11.1067
▁ovlivňují	-11.1067
▁označuje	-11.1067
▁posuzovat	-11.1067
▁radikální	-11.1067
▁spoluhráč	-11.1067
▁zázemí	-11.1067
▁Sociální	-11.1067
▁brambor	-11.1067
▁komponent	-11.1067
▁odlišný	-11.1067
▁publiku	-11.1067
▁převzít	-11.1067
▁uplatnit	-11.1067
▁Poborský	-11.1067
▁souhrn	-11.1067
▁efektivní	-11.1067
▁nevědí	-11.1067
▁Českomoravsk	-11.1067
▁Domácí	-11.1067
▁kamarád	-11.1067
▁připomínk	-11.1067
▁viditeln	-11.1067
▁redaktor	-11.1067
▁zásilk	-11.1067
▁záloh	-11.1067
▁Musel	-11.1067
▁učinit	-11.1067
▁pokoušel	-11.1067
▁osvobození	-11.1067
▁nejrychlejší	-11.1067
▁nestačil	-11.1067
▁sněžení	-11.1067
▁navržen	-11.1067
▁Šéf	-11.1067
▁forem	-11.1067
▁prodlení	-11.1067
▁slyšet	-11.1067
▁ztracen	-11.1067
▁vracet	-11.1067
▁škál	-11.1067
▁dlouhodobý	-11.1067
▁rysy	-11.1067
▁stránek	-11.1067
▁Slavii	-11.1067
▁dubnu	-11.1068
▁obrazovce	-11.1068
▁podílejí	-11.1068
▁Objekt	-11.1068
žádají	-11.1068
▁Grand	-11.1068
▁přál	-11.1069
▁občanství	-11.1069
▁studií	-11.1069
▁Vesel	-11.1071
▁obrázku	-11.1072
▁přizpůsobit	-11.1072
▁dohad	-11.1072
▁vzniknou	-11.1074
▁Číny	-11.1075
▁64	-11.1075
▁Roman	-11.1077
▁pracovnice	-11.1078
visí	-11.1078
▁rozv	-11.1079
▁Všechno	-11.108
▁rejstříku	-11.108
▁včerejším	-11.1083
káže	-11.1083
▁zvěř	-11.1084
▁vypadal	-11.1084
▁fronty	-11.1084
▁stavbu	-11.1085
▁dobách	-11.1085
▁prodloužení	-11.1086
▁demokraté	-11.1087
▁regulace	-11.1087
▁vezme	-11.1087
▁Druhou	-11.1088
▁podnikat	-11.1088
▁převoz	-11.1089
▁Dohod	-11.109
▁připravena	-11.1094
▁zpěvák	-11.1097
▁znalostí	-11.1098
▁turistick	-11.1099
▁Wimbledonu	-11.11
▁kritéria	-11.1101
▁doplňk	-11.1101
▁summitu	-11.1104
izační	-11.1105
▁každodenní	-11.1106
▁orientaci	-11.1107
▁písemně	-11.1107
▁Zelen	-11.1107
▁nemovitosti	-11.111
▁přítel	-11.1111
▁zbrojní	-11.1112
▁ukládání	-11.1112
▁výjimky	-11.1116
▁Nor	-11.1117
▁klima	-11.112
▁Kalvoda	-11.1123
▁předmětů	-11.113
▁ztrátou	-11.1131
▁dávk	-11.1132
▁přijatelné	-11.1134
US	-11.1135
vlastn	-11.1135
▁živnost	-11.1139
zanedbateln	-11.1139
▁vím	-11.114
▁obchodníci	-11.1141
▁Test	-11.1144
▁tvaru	-11.1145
▁samot	-11.1148
▁módní	-11.115
▁Pražského	-11.1151
▁jednalo	-11.1156
▁resortu	-11.1158
▁snažili	-11.1159
▁teplotě	-11.1161
▁ozbrojen	-11.1167
▁minuty	-11.1168
▁vůz	-11.1168
▁plyne	-11.1169
▁celkovém	-11.1171
▁sboru	-11.1172
▁smích	-11.1172
▁vnímá	-11.1176
▁bolest	-11.1176
▁odehráv	-11.1177
▁KON	-11.1179
▁předměty	-11.1182
▁úplné	-11.1183
▁zrušen	-11.1188
▁překvapil	-11.1188
ňující	-11.1194
▁poslal	-11.1197
▁hit	-11.1198
▁sjezdu	-11.12
▁zvuku	-11.12
▁Fotbal	-11.12
▁Boj	-11.1204
mann	-11.1212
▁světla	-11.1213
▁německém	-11.1214
▁Michaela	-11.1215
▁vyhlídk	-11.1215
▁olympijsk	-11.1217
▁náhradu	-11.1218
▁předal	-11.1218
▁sestavení	-11.1219
obec	-11.1219
stávat	-11.1219
▁výměn	-11.1223
▁vyhlášen	-11.1224
▁návštěva	-11.1225
▁mapy	-11.1226
▁zní	-11.1227
▁známých	-11.1227
▁známe	-11.1234
▁důkazy	-11.1234
▁domluv	-11.1237
splnění	-11.124
▁planety	-11.1243
▁bojů	-11.1243
▁odbory	-11.1244
▁charakteru	-11.125
▁divu	-11.1252
▁analýz	-11.1255
▁Svobod	-11.1258
▁některý	-11.1258
▁chci	-11.1259
▁úspory	-11.1259
▁předchozích	-11.126
▁úkoly	-11.1262
novými	-11.1274
▁uměle	-11.1275
▁hráli	-11.1276
ork	-11.1277
▁Ostravar	-11.128
CA	-11.128
▁pru	-11.1281
▁tepeln	-11.1284
▁kandidáty	-11.1285
▁konto	-11.1289
sion	-11.129
▁maďarský	-11.1293
▁věty	-11.1296
▁špičkové	-11.1297
iček	-11.1316
▁Sovětském	-11.1316
▁přiměřen	-11.1317
▁uvede	-11.1319
▁tip	-11.133
▁evropském	-11.1338
riti	-11.1348
▁uplynulý	-11.1355
IST	-11.136
▁investorů	-11.1361
▁koalic	-11.1361
ptal	-11.1366
▁rud	-11.1371
▁obyvatele	-11.1377
▁modern	-11.1378
▁metra	-11.1378
▁vstoupit	-11.1382
▁účastník	-11.1384
jdu	-11.1384
▁cukr	-11.1387
▁magistrát	-11.1387
▁typický	-11.1388
▁mód	-11.1398
▁drah	-11.1399
lci	-11.14
▁textové	-11.1402
▁řízen	-11.1406
psaný	-11.1406
▁Pražský	-11.1412
▁osvět	-11.1413
▁volejbal	-11.1415
▁výkonů	-11.142
▁naším	-11.1422
▁skládá	-11.1426
▁uživatelů	-11.1433
lární	-11.1433
▁podílí	-11.1436
▁Čechů	-11.1437
▁závodní	-11.1437
▁prvé	-11.1438
▁mládež	-11.1441
rušit	-11.1443
▁mechanismu	-11.1449
▁pracovníka	-11.1462
▁komunisti	-11.1464
lic	-11.1466
▁sedí	-11.1466
šetřit	-11.1466
▁plát	-11.1467
▁distribu	-11.1468
▁oleje	-11.1468
▁nedal	-11.1472
▁Bank	-11.1476
▁statut	-11.1483
ografie	-11.1483
mýšlí	-11.1483
▁Alžbět	-11.1483
▁CADKON	-11.1483
▁Finanční	-11.1483
▁Intergraph	-11.1483
▁Lebeď	-11.1483
▁Pithart	-11.1483
▁Srbů	-11.1483
▁asistent	-11.1483
▁bližší	-11.1483
▁církvi	-11.1483
▁dědictví	-11.1483
▁komunální	-11.1483
▁konferencí	-11.1483
▁leasing	-11.1483
▁nejstarší	-11.1483
▁nepřetržit	-11.1483
▁neschopnost	-11.1483
▁nábytku	-11.1483
▁nárůst	-11.1483
▁odmítají	-11.1483
▁odpovědí	-11.1483
▁otevírá	-11.1483
▁ovlivněn	-11.1483
▁reagovat	-11.1483
▁schůzi	-11.1483
▁softwaru	-11.1483
▁strategii	-11.1483
▁technologii	-11.1483
▁ukazatel	-11.1483
▁uzavírá	-11.1483
▁vytvářejí	-11.1483
▁zpoždění	-11.1483
▁zpátky	-11.1483
▁zálivu	-11.1483
▁žádoucí	-11.1483
▁Zjuganov	-11.1483
▁atentát	-11.1483
▁fenomén	-11.1483
▁jazz	-11.1483
▁triumf	-11.1483
▁vyznačuj	-11.1483
▁říjnu	-11.1483
▁dovednost	-11.1483
▁Mazda	-11.1483
▁nezaměstnaných	-11.1483
▁splatnosti	-11.1483
▁Bratink	-11.1483
▁Mencl	-11.1483
▁nízká	-11.1483
▁podpoře	-11.1483
▁vyvinut	-11.1483
▁zpomal	-11.1483
▁Polsko	-11.1483
▁dokáží	-11.1483
▁Vídni	-11.1483
▁mřížk	-11.1483
▁splnit	-11.1483
▁zůstanou	-11.1483
▁navrhnout	-11.1483
▁náprav	-11.1484
▁zazněl	-11.1484
▁diagram	-11.1484
▁stůl	-11.1484
▁kombinaci	-11.1484
▁Praktick	-11.1484
▁maximum	-11.1484
▁zvolit	-11.1484
▁Mimo	-11.1484
▁přednášk	-11.1484
▁Andre	-11.1484
▁Charles	-11.1484
▁komunikaci	-11.1484
▁zařadil	-11.1484
▁rozsáhlý	-11.1484
▁trpí	-11.1485
▁vrchní	-11.1485
▁Nabídk	-11.1485
▁kondom	-11.1485
▁zahrnut	-11.1485
▁délce	-11.1485
▁ligové	-11.1485
▁Sedm	-11.1485
▁ponechat	-11.1486
kryje	-11.1486
jíždí	-11.1486
▁nastat	-11.1486
▁okresů	-11.1487
biologie	-11.1487
▁Bonn	-11.1488
▁Technick	-11.1488
▁podmíněn	-11.1488
▁simul	-11.1489
▁kreslení	-11.1489
charakterizuj	-11.1489
▁bance	-11.1489
▁otec	-11.1489
▁nejvýše	-11.149
▁interval	-11.149
oprvé	-11.149
▁jmenuje	-11.149
▁vyrovnal	-11.1491
▁Stručně	-11.1493
▁živočichů	-11.1494
▁blesk	-11.1495
▁pohybovat	-11.1498
▁šestnácti	-11.1498
▁kilogramů	-11.1498
chytit	-11.1498
▁odejít	-11.1499
▁obchodování	-11.1501
▁fotbalov	-11.1501
▁Data	-11.1502
▁mrav	-11.1503
▁respektovat	-11.1503
▁dočasně	-11.1507
▁Brazílie	-11.1509
▁postižených	-11.1512
▁objeven	-11.1512
▁trik	-11.1514
▁energetické	-11.1515
▁květin	-11.1516
▁pádu	-11.1519
▁jistou	-11.152
▁potřebujeme	-11.1521
blok	-11.1521
▁poskytování	-11.1521
▁dokončení	-11.1521
▁zakázky	-11.1522
▁padesátých	-11.1526
▁předcházel	-11.1529
▁plic	-11.153
íčko	-11.1531
schválila	-11.1531
▁velkém	-11.1531
▁kůr	-11.1532
▁zastavení	-11.1532
▁vkladů	-11.1532
▁Postup	-11.1533
▁Chci	-11.1533
▁vyhlášení	-11.1534
▁Vstup	-11.1535
▁jezdil	-11.1537
▁zaplacení	-11.1537
Ile	-11.1538
▁kontrole	-11.1541
vládne	-11.1543
26	-11.1543
▁resort	-11.1543
▁účinnosti	-11.1546
▁integr	-11.1547
losování	-11.1548
▁Ann	-11.1549
plnění	-11.1549
ovaném	-11.155
▁kongresu	-11.1551
▁vozidla	-11.1552
▁Kniha	-11.1552
být	-11.1555
▁uložit	-11.1555
kání	-11.1557
▁schématu	-11.1561
▁katolické	-11.1569
▁jevy	-11.157
▁představoval	-11.157
▁projeví	-11.1572
▁přijímá	-11.1583
▁vaku	-11.1585
▁valné	-11.1586
šování	-11.1586
▁míra	-11.1586
▁vámi	-11.1587
▁probíhal	-11.1589
▁nepříjemn	-11.1593
▁specifické	-11.1595
▁autora	-11.1595
▁obtížně	-11.1596
▁listů	-11.1597
LOV	-11.1606
▁lidu	-11.1611
▁titulů	-11.1612
▁posil	-11.1614
▁Siln	-11.1616
▁niž	-11.1621
▁hale	-11.1621
hřeb	-11.1621
▁nápady	-11.1622
▁statistické	-11.1623
▁pes	-11.1627
▁jasný	-11.1627
JE	-11.1627
▁chodb	-11.1628
hodit	-11.1631
DI	-11.1632
▁Dal	-11.1635
stupující	-11.1635
:3	-11.1635
▁brankáře	-11.1639
▁řešením	-11.164
▁Jistě	-11.1644
▁nemocný	-11.1646
▁čínské	-11.1646
svědčení	-11.1647
▁služební	-11.165
▁tváří	-11.1659
▁sousedů	-11.1659
▁růstem	-11.1659
▁britský	-11.166
▁testy	-11.1661
▁symbolick	-11.1664
▁vzá	-11.1667
▁Ján	-11.1668
▁čtenáři	-11.167
▁rodinu	-11.1678
▁předpokladu	-11.168
▁dokázali	-11.1681
▁reprezentanti	-11.1684
▁Alb	-11.1686
▁určení	-11.1687
▁zabývající	-11.1687
▁teoretick	-11.169
▁jedenácti	-11.1693
▁Olympi	-11.1698
OST	-11.1698
▁stejných	-11.1702
▁přijala	-11.1702
▁neměly	-11.1707
▁Mír	-11.1714
▁hrd	-11.1718
pochyby	-11.1719
levo	-11.172
▁šla	-11.1721
▁zvýšila	-11.1722
▁pevn	-11.1722
▁Prvním	-11.1722
21	-11.1723
▁hotely	-11.1725
▁společných	-11.1729
▁pravidelné	-11.173
▁dodavatele	-11.1731
▁nazýva	-11.1732
▁oblíben	-11.1732
ějších	-11.1734
▁schéma	-11.1735
▁spotřebitele	-11.1736
▁přidal	-11.1739
▁osudu	-11.1741
ker	-11.1742
▁odmítli	-11.1744
▁zajímavý	-11.1745
▁úvah	-11.1745
▁objevily	-11.1746
98	-11.1753
▁vznikající	-11.1754
▁dálnic	-11.1758
▁klíče	-11.1758
▁jist	-11.1759
stroj	-11.1759
▁soli	-11.1769
▁zahájen	-11.177
▁vázán	-11.1772
▁zeměmi	-11.1773
▁expert	-11.1774
▁vědu	-11.1779
▁sedmnáct	-11.1781
stavení	-11.1782
▁jazyka	-11.1783
▁astronomi	-11.1783
▁Johna	-11.1783
▁Paříž	-11.1797
▁zvířata	-11.1798
▁IV	-11.1799
▁mís	-11.1808
ocel	-11.1811
▁190	-11.1816
▁snaz	-11.1822
▁Kan	-11.1823
▁měřítk	-11.1823
▁katolick	-11.1829
▁vládních	-11.183
▁zvlád	-11.1831
▁350	-11.1831
▁dres	-11.1837
Gar	-11.1839
▁dividend	-11.1841
▁konkrétním	-11.1841
Severoatlantické	-11.1846
▁novinářů	-11.1847
OP	-11.1848
▁Než	-11.1848
▁požadovaný	-11.1849
kupovat	-11.1852
následuj	-11.1857
▁získává	-11.1862
▁dohodl	-11.1862
▁produk	-11.1867
iner	-11.1873
▁obsluh	-11.1877
▁Zemana	-11.1879
▁hráčem	-11.1883
▁zkušen	-11.1886
▁našli	-11.1889
▁pokusy	-11.1892
čnost	-11.1892
▁vysíla	-11.1893
▁Invest	-11.1893
▁císaře	-11.1893
▁pracující	-11.1895
▁dramatick	-11.1896
▁návrhů	-11.1908
škodliv	-11.1912
ván	-11.1913
▁říkají	-11.1914
▁nižších	-11.1915
▁duch	-11.1915
▁pozdě	-11.1915
▁působ	-11.1916
může	-11.1916
▁Pozor	-11.1918
dostatečnou	-11.1918
▁Bratislava	-11.1918
▁Demokratick	-11.1918
▁Majitel	-11.1918
▁Nedvěd	-11.1918
▁Ostatní	-11.1918
▁Počítač	-11.1918
▁Tigrid	-11.1918
▁cizince	-11.1918
▁galerii	-11.1918
▁hlubší	-11.1918
▁hypotéz	-11.1918
▁kompetence	-11.1918
▁konstatuje	-11.1918
▁literární	-11.1918
▁metropole	-11.1918
▁nejmodernější	-11.1918
▁nejznámější	-11.1918
▁nominální	-11.1918
▁podpořit	-11.1918
▁polojasno	-11.1918
▁požadovat	-11.1918
▁přitažliv	-11.1918
▁semifinále	-11.1918
▁složek	-11.1918
▁strategií	-11.1918
▁udržuje	-11.1918
▁vojáci	-11.1918
▁výsledn	-11.1918
▁wimbledonsk	-11.1918
▁zveřejnil	-11.1918
▁šablon	-11.1918
▁žadatel	-11.1918
střílel	-11.1918
▁Casimir	-11.1918
▁charakteristik	-11.1918
▁požadoval	-11.1918
▁vyhovuje	-11.1918
▁Africe	-11.1918
▁Dříve	-11.1918
▁byznys	-11.1918
▁kodex	-11.1918
▁stránky	-11.1918
▁údolí	-11.1918
▁divadle	-11.1918
▁vystřídal	-11.1918
▁nevidí	-11.1918
▁patřičn	-11.1918
▁čtvrteční	-11.1918
▁nízký	-11.1918
▁rytíř	-11.1918
▁otevřít	-11.1918
▁počínaj	-11.1918
▁Městsk	-11.1918
▁představenstva	-11.1918
▁doporučil	-11.1918
▁poplatek	-11.1918
▁vyrovnat	-11.1918
▁Jugoslávie	-11.1918
▁podobná	-11.1918
▁stoupá	-11.1918
chlazení	-11.1918
▁NDR	-11.1918
▁Komerčn	-11.1918
▁Prodej	-11.1918
▁štáb	-11.1918
▁nejhorší	-11.1918
▁splnil	-11.1919
▁fotografie	-11.1919
▁Rychl	-11.1919
povídat	-11.1919
▁nátlak	-11.1919
▁počkat	-11.1919
▁potravinářské	-11.1919
▁rakouský	-11.1919
▁Maďarsku	-11.1919
▁přijme	-11.1919
▁nápoj	-11.1919
▁korekc	-11.1919
▁generací	-11.1919
▁ničem	-11.1919
▁reaktor	-11.1919
▁zaručen	-11.1919
▁ÚV	-11.1919
▁ekonomická	-11.1919
▁bohatství	-11.1919
▁malíř	-11.192
SO	-11.192
▁Začal	-11.192
▁Marie	-11.192
ight	-11.1921
▁radnici	-11.1921
▁vstupenk	-11.1921
▁logické	-11.1921
▁neděle	-11.1921
▁lodi	-11.1921
▁dozor	-11.1922
▁vyhnout	-11.1922
▁jezdit	-11.1922
▁Ruml	-11.1922
▁Uveden	-11.1922
▁divok	-11.1922
▁nedostatku	-11.1924
▁peset	-11.1924
▁obřad	-11.1925
▁cement	-11.1927
▁položky	-11.1928
▁bojovn	-11.1929
▁odvet	-11.1929
▁předcházející	-11.193
▁okresy	-11.193
▁novinách	-11.1931
▁oborech	-11.1931
▁prodejny	-11.1931
▁uvědomit	-11.1931
▁dodržování	-11.1931
▁změnám	-11.1932
▁Stal	-11.1932
▁podílet	-11.1932
▁verzí	-11.1934
celku	-11.1935
▁Prof	-11.1935
▁centimetrů	-11.1936
▁přelom	-11.1936
▁zlatý	-11.1937
▁nemovitostí	-11.1939
▁řekne	-11.194
▁překvapivě	-11.194
▁předchozím	-11.194
▁armádě	-11.1941
▁Žid	-11.1941
▁fotbalisté	-11.1942
▁zvaný	-11.1944
▁52	-11.1944
▁ukládá	-11.1944
▁krut	-11.1944
▁složitý	-11.1944
▁Mac	-11.1945
▁pedagog	-11.1946
▁stála	-11.1947
▁tabulka	-11.1948
▁kvalitou	-11.1949
▁oddíl	-11.195
▁uvádějí	-11.195
▁seriálu	-11.195
▁plánování	-11.1951
▁každým	-11.1953
padesát	-11.1954
▁prožil	-11.1955
▁ocenění	-11.1957
▁svaté	-11.1959
▁dosti	-11.196
▁správce	-11.196
příkladu	-11.1961
▁referendum	-11.1961
▁Dopravní	-11.1961
▁mládeže	-11.1962
stanou	-11.1963
▁zdravotním	-11.1964
▁zkušební	-11.1966
▁foto	-11.1967
▁Excelu	-11.1968
▁tvarů	-11.1968
▁procesoru	-11.1968
▁skalní	-11.1968
▁propojení	-11.1968
▁Spor	-11.197
▁úzk	-11.197
▁přidat	-11.1972
▁návštěvnost	-11.1973
▁SV	-11.1973
stva	-11.1974
díval	-11.1975
▁šed	-11.1975
▁hmotnosti	-11.1975
▁závazky	-11.1978
▁psychiatr	-11.1978
▁platil	-11.1979
▁vyjde	-11.198
▁nemám	-11.1983
▁členům	-11.1985
▁vozu	-11.1989
▁průběžn	-11.1989
▁loňsk	-11.199
▁vedoucích	-11.199
▁trenérů	-11.1995
▁budově	-11.1996
▁optick	-11.1997
▁zvukov	-11.2006
▁zubní	-11.2006
▁obchodníků	-11.2007
ručí	-11.2008
▁Potřebuje	-11.201
▁stadiónu	-11.2011
▁energetický	-11.2012
▁hostitel	-11.2013
▁lesa	-11.2014
▁materiálem	-11.2017
▁novely	-11.2018
▁výměnu	-11.2019
▁magistrátu	-11.202
▁Dan	-11.202
▁Brod	-11.2021
▁evropským	-11.2026
▁dolů	-11.2027
▁expozi	-11.2027
▁hrou	-11.2031
▁celostátní	-11.2032
▁položil	-11.2033
▁zřízení	-11.2033
▁Budou	-11.2034
▁vloni	-11.2041
▁obecný	-11.2043
▁krokem	-11.205
▁narazil	-11.2053
▁5000	-11.2054
▁stávající	-11.2059
▁tvůrc	-11.2061
▁menu	-11.2065
▁ekologický	-11.2065
▁čínský	-11.2069
▁odpovědnosti	-11.207
▁Volb	-11.2072
▁zdát	-11.2073
▁podzimní	-11.2073
▁jugoslávské	-11.2076
▁starého	-11.2078
▁básník	-11.2078
▁dav	-11.208
▁vytvořila	-11.2089
▁psa	-11.209
cky	-11.2091
▁rozpočtové	-11.2091
▁konečn	-11.2091
▁zvýšily	-11.2092
loni	-11.2093
▁studenty	-11.2094
▁zvon	-11.2096
▁klíčový	-11.2096
▁strávil	-11.2098
ČNÍ	-11.2098
▁Lab	-11.2099
▁výhodu	-11.2101
▁Host	-11.2105
DOS	-11.2108
▁ranní	-11.2111
▁premiéru	-11.2111
▁přírodního	-11.2115
etické	-11.2115
hrává	-11.2116
▁známá	-11.2117
▁projevy	-11.2126
▁úpravu	-11.2127
▁černý	-11.2129
▁muselo	-11.2131
stojí	-11.2135
▁záměry	-11.214
▁sub	-11.2143
▁dodá	-11.2144
▁překvap	-11.2146
plynul	-11.2148
▁ředitelem	-11.215
▁sestavy	-11.2153
▁horské	-11.2153
otisk	-11.2153
míněn	-11.2156
▁scén	-11.2164
SP	-11.2167
munist	-11.217
▁snadné	-11.2172
▁komu	-11.2176
▁procesy	-11.2179
▁pout	-11.218
▁plocha	-11.2187
▁Spart	-11.2188
přijeli	-11.2191
wan	-11.2196
▁závody	-11.2197
▁přehledu	-11.2198
▁objevili	-11.22
▁krále	-11.2202
▁zkresl	-11.2214
▁měří	-11.2216
▁přesvědč	-11.2218
▁přesvědčiv	-11.2218
▁syna	-11.2225
▁volí	-11.2225
ářství	-11.2228
▁významným	-11.223
▁výstavb	-11.2234
▁zmíněn	-11.2238
▁konkrétních	-11.224
▁podnikatelsk	-11.2246
▁aktivitu	-11.2249
▁výtvarné	-11.2254
▁43	-11.2263
▁znalost	-11.2263
SM	-11.2276
▁údržb	-11.2276
zývají	-11.2276
▁stadión	-11.2276
▁okruh	-11.2277
▁vyskytují	-11.2277
▁vystupuj	-11.228
▁260	-11.2282
▁setká	-11.2284
▁slavn	-11.2292
▁ZÁ	-11.2296
▁přehlídk	-11.2296
▁světeln	-11.2299
▁fyzika	-11.2299
kově	-11.2301
jmenovaný	-11.2301
PT	-11.2305
▁zub	-11.2309
▁kroku	-11.231
▁kupon	-11.2312
▁volebním	-11.2316
▁rozhodnutím	-11.2324
▁stíhán	-11.2332
▁99	-11.2335
▁zpěv	-11.2337
pořádat	-11.2337
▁doplněn	-11.2338
▁uzná	-11.2338
▁rozpad	-11.234
▁převážn	-11.2342
▁úředník	-11.2342
▁obrazy	-11.2345
▁přesahuj	-11.2349
pravují	-11.2351
▁velkoobchod	-11.2352
▁Mečiar	-11.2352
▁grafik	-11.2354
▁stín	-11.2354
▁pozic	-11.2364
▁dopise	-11.2369
▁uprchl	-11.2372
▁Manažer	-11.2373
▁strategické	-11.2373
▁transformační	-11.2373
FIFA	-11.2373
▁1982	-11.2373
▁Dienstbier	-11.2373
▁Dosavadní	-11.2373
▁Fischer	-11.2373
▁Kongres	-11.2373
▁Siemens	-11.2373
▁Skupina	-11.2373
▁Těžko	-11.2373
▁biskup	-11.2373
▁byrokrat	-11.2373
▁design	-11.2373
▁družstvo	-11.2373
▁družstvu	-11.2373
▁geometrii	-11.2373
▁inflaci	-11.2373
▁naznačuje	-11.2373
▁neuspěl	-11.2373
▁normálně	-11.2373
▁obličej	-11.2373
▁označován	-11.2373
▁regenerace	-11.2373
▁rekonstrukce	-11.2373
▁rozšiřuje	-11.2373
▁rámečku	-11.2373
▁seznámit	-11.2373
▁skupenství	-11.2373
▁službě	-11.2373
▁zajistí	-11.2373
▁zúčastnit	-11.2373
▁Červen	-11.2373
▁Štědrý	-11.2373
připravoval	-11.2373
▁Budějovic	-11.2373
▁Poldi	-11.2373
▁dodávek	-11.2373
▁přiznává	-11.2373
▁shodují	-11.2373
▁stránku	-11.2373
▁čistíren	-11.2373
▁neomezen	-11.2373
▁vstupenek	-11.2373
▁Armád	-11.2373
▁informován	-11.2373
▁vládnoucí	-11.2373
▁zákrok	-11.2373
▁Náklady	-11.2373
▁konstrukcí	-11.2373
▁posléze	-11.2373
▁velvyslanectví	-11.2373
▁skromn	-11.2373
▁usiluje	-11.2373
▁vazeb	-11.2373
▁konzul	-11.2373
▁nabídkou	-11.2373
▁uznat	-11.2373
▁žádat	-11.2373
▁Bavor	-11.2373
▁zastánc	-11.2373
▁udržova	-11.2373
▁jindy	-11.2373
▁teplá	-11.2373
▁Manžel	-11.2373
▁Otevř	-11.2373
▁vazba	-11.2373
▁Varech	-11.2373
▁leckd	-11.2373
▁hrůz	-11.2373
▁multi	-11.2373
▁tribunál	-11.2373
▁Dušan	-11.2373
▁spoléha	-11.2373
▁přejít	-11.2373
▁náhlé	-11.2373
▁salát	-11.2373
▁Projekt	-11.2373
▁nepotřebuje	-11.2373
▁duševní	-11.2374
▁směřuje	-11.2374
▁rozmístěn	-11.2374
▁prodejem	-11.2374
▁nesporn	-11.2374
▁Oprav	-11.2374
▁Slavia	-11.2374
▁Rozhodnutí	-11.2374
▁chuť	-11.2374
▁integrace	-11.2374
krácen	-11.2374
▁chaos	-11.2374
▁neumí	-11.2375
▁regulační	-11.2375
▁kated	-11.2375
látka	-11.2375
▁nejsem	-11.2375
▁ohně	-11.2376
▁člověku	-11.2376
▁podrobnosti	-11.2376
střelen	-11.2377
▁Bělohradský	-11.2377
▁Nadace	-11.2377
▁datové	-11.2378
blížení	-11.2378
▁Závod	-11.2379
ckner	-11.2379
▁tmav	-11.2379
▁nedošlo	-11.2379
▁nezákonn	-11.2379
▁turné	-11.2379
▁napaden	-11.238
allye	-11.238
90	-11.238
▁garant	-11.2382
▁kontrolovat	-11.2382
▁svatb	-11.2383
▁památek	-11.2383
▁atmosféra	-11.2384
▁Ir	-11.2384
▁Milán	-11.2384
▁strop	-11.2384
▁středisko	-11.2386
▁polské	-11.2388
▁věrn	-11.2388
Přerov	-11.2388
objednáv	-11.2389
▁slunce	-11.2389
ujme	-11.239
▁sedimentů	-11.239
▁souhlasit	-11.2391
▁kůže	-11.2392
can	-11.2392
▁šedesátých	-11.2392
▁faktory	-11.2392
▁kdykoliv	-11.2394
▁sedmdesátých	-11.2394
▁pravděpodobné	-11.2395
▁upozornění	-11.2396
▁zaslouží	-11.2396
▁Krát	-11.2399
▁Kolek	-11.24
▁trvající	-11.2402
▁texty	-11.2402
▁středisku	-11.2402
▁plná	-11.2403
▁pěkně	-11.2403
▁zbytky	-11.2404
▁dokázat	-11.2408
▁dostaneme	-11.2412
▁matka	-11.2414
▁Los	-11.2417
▁barva	-11.2418
kurzor	-11.2421
tažení	-11.2422
▁závažný	-11.2423
▁velko	-11.2425
tratil	-11.2426
▁Váš	-11.2427
▁magnet	-11.2427
▁zatčen	-11.2428
▁značná	-11.2428
▁univerzitě	-11.2431
▁uživatelé	-11.2431
▁moři	-11.2432
▁olympiádě	-11.2433
▁luxusní	-11.2434
▁zveřejnění	-11.2436
▁násiln	-11.2438
ejít	-11.244
▁Děl	-11.2443
▁sféry	-11.2443
▁interní	-11.2444
▁armádu	-11.2445
▁literatury	-11.2446
▁švédské	-11.2447
▁Výrob	-11.2447
▁závažné	-11.2448
▁druhému	-11.2448
▁Car	-11.2449
▁dotazník	-11.2451
▁mise	-11.2453
▁tlakem	-11.2454
▁dividendy	-11.2454
▁zničení	-11.2455
▁fotbalista	-11.2456
▁rozhovorů	-11.2456
hrají	-11.2457
▁středo	-11.2457
▁automat	-11.2458
▁spojit	-11.2459
▁Své	-11.2459
▁zuby	-11.246
▁nešlo	-11.246
▁spojů	-11.2461
▁37	-11.2461
▁metodou	-11.2461
▁slibuje	-11.2465
▁postupovat	-11.2465
těsn	-11.2467
▁senátní	-11.2469
▁prohlídk	-11.2469
▁nebezpečný	-11.2469
▁záruky	-11.2469
▁rozumn	-11.247
▁zásadě	-11.247
▁způsobů	-11.2473
OVÁ	-11.2482
▁zodpovědnost	-11.2483
▁mateřské	-11.2488
▁ducha	-11.2491
▁jednal	-11.2492
▁alkoholu	-11.2493
▁činů	-11.2493
▁Asie	-11.2496
▁Rok	-11.2498
▁Bulharsk	-11.2498
45	-11.25
▁přirozený	-11.2503
▁Fotbalist	-11.2505
▁silným	-11.2505
▁Změny	-11.2505
NC	-11.2507
off	-11.2507
▁popisuje	-11.2507
▁Lékaři	-11.2508
▁městského	-11.2508
potřebě	-11.2512
▁úspěchem	-11.2514
▁výstavní	-11.2515
▁doklady	-11.2516
▁obory	-11.2516
hodinové	-11.2517
DU	-11.2518
například	-11.2518
▁samy	-11.2519
▁argumenty	-11.252
▁smluv	-11.252
▁pojistného	-11.2521
▁olympiády	-11.2523
znamenat	-11.2525
▁kouř	-11.2526
▁Aleš	-11.2527
▁stopy	-11.2529
▁Dub	-11.253
▁nějakém	-11.2531
▁nutnosti	-11.2533
▁spojuje	-11.2534
▁prohráli	-11.2534
▁klienty	-11.2536
▁příslušného	-11.2537
▁příspěvku	-11.2538
▁závěrečném	-11.2539
▁Las	-11.2542
▁nastala	-11.2544
▁Čtyři	-11.2546
▁poradensk	-11.255
68	-11.2554
▁fakta	-11.2554
▁Konce	-11.2555
▁daních	-11.2559
biologick	-11.2561
▁výnosy	-11.2562
▁republikou	-11.2568
▁přizpůsob	-11.257
řev	-11.2572
▁svěřenc	-11.2573
▁pacienti	-11.2574
▁podepsali	-11.2583
▁Tisk	-11.2586
▁ČT	-11.2592
▁slovem	-11.2597
▁získaný	-11.2603
▁zahájením	-11.2607
▁pokryt	-11.261
▁kout	-11.261
▁Con	-11.2612
▁minutě	-11.2613
▁proudu	-11.2613
▁Poslanec	-11.2614
▁tělesné	-11.2624
▁přísně	-11.2627
▁koordin	-11.2627
▁brněnsk	-11.263
kreslen	-11.2633
▁ekonomického	-11.2634
▁hračk	-11.2641
▁návrhem	-11.2655
▁slun	-11.2659
▁Nemoh	-11.2661
▁mozkov	-11.2668
▁počátk	-11.267
▁mak	-11.2673
ENÍ	-11.2678
schopné	-11.2679
teče	-11.268
▁urychl	-11.2683
▁způsoben	-11.2686
▁přípravu	-11.2691
▁závodník	-11.2694
▁pouč	-11.2695
▁klíčové	-11.2703
▁závazn	-11.2704
▁900	-11.2704
▁úspěchy	-11.2707
▁Žádn	-11.2713
▁popř	-11.2715
▁manažerské	-11.2717
víme	-11.2719
▁jinému	-11.2719
▁důvěry	-11.2727
▁prestiž	-11.2728
▁připraveny	-11.2728
▁narozen	-11.2734
dělat	-11.2735
▁had	-11.2739
▁nemocnic	-11.274
▁takovému	-11.274
▁kg	-11.2743
▁Výstav	-11.2745
▁pěkn	-11.2746
▁zvláštním	-11.275
▁nasazen	-11.2753
▁Washington	-11.2753
▁podlehl	-11.2754
▁známým	-11.2756
▁vašem	-11.276
▁Tomu	-11.2762
▁Karadžiče	-11.2765
▁zničen	-11.2766
▁nemohla	-11.277
▁literatur	-11.2772
▁schůzk	-11.2772
▁kroků	-11.278
▁Vaše	-11.2781
danou	-11.2782
▁užívá	-11.2782
▁Mor	-11.2787
▁náročný	-11.2796
tp	-11.2796
CO	-11.2799
▁sektor	-11.2801
▁dosavadních	-11.2803
▁oceněn	-11.2807
važoval	-11.281
▁krátk	-11.2817
hlásil	-11.2818
▁ulic	-11.2821
cvič	-11.2823
▁plném	-11.2831
šetří	-11.2832
▁vysvětl	-11.2836
sin	-11.2836
nejvýš	-11.2842
▁registrac	-11.2844
nutil	-11.2847
následoval	-11.2847
▁organizáto	-11.2848
▁Zálež	-11.2848
▁Blízké	-11.2849
▁ubytovací	-11.2849
▁Gabčíkov	-11.2849
▁Jindřich	-11.2849
▁Kreslení	-11.2849
▁aplikaci	-11.2849
▁důležitou	-11.2849
▁filharmoni	-11.2849
▁fosilní	-11.2849
▁kanalizace	-11.2849
▁kariéru	-11.2849
▁komunistů	-11.2849
▁konkurent	-11.2849
▁lehké	-11.2849
▁neexistují	-11.2849
▁ovlivnit	-11.2849
▁podmínkám	-11.2849
▁popularit	-11.2849
▁přirozeně	-11.2849
▁referenda	-11.2849
▁snižovat	-11.2849
▁svědky	-11.2849
▁výpovědi	-11.2849
▁zneužití	-11.2849
▁zázrak	-11.2849
atlantick	-11.2849
▁Michail	-11.2849
▁obrátit	-11.2849
▁paralel	-11.2849
▁rubrik	-11.2849
zřídka	-11.2849
▁kontrakt	-11.2849
▁přivezl	-11.2849
▁stupeň	-11.2849
▁jedinců	-11.2849
▁zvyšují	-11.2849
▁nezmění	-11.2849
▁československý	-11.2849
▁Atlantiku	-11.2849
▁klobouk	-11.2849
▁povahy	-11.2849
▁přírodu	-11.2849
▁pomůck	-11.2849
▁Dynam	-11.2849
▁válku	-11.2849
▁antropologie	-11.2849
▁budoucna	-11.2849
▁Trans	-11.2849
▁zbaven	-11.2849
▁administrativní	-11.2849
▁týče	-11.2849
imochodem	-11.2849
▁češtině	-11.2849
hlíží	-11.2849
▁Karpov	-11.2849
▁přídav	-11.2849
▁Boyle	-11.2849
▁obzor	-11.2849
▁zkrátka	-11.2849
▁politicky	-11.2849
▁smečky	-11.2849
▁mzda	-11.2849
▁Lendl	-11.2849
▁kombinace	-11.2849
▁vytížen	-11.2849
▁image	-11.285
▁chybět	-11.285
▁celo	-11.285
▁Středisk	-11.285
▁Španělska	-11.285
▁hokejisté	-11.285
▁distributor	-11.285
▁stavět	-11.285
▁rumunsk	-11.285
▁vyráběn	-11.285
▁kritický	-11.285
▁poražen	-11.285
▁staletí	-11.285
▁nálad	-11.285
▁dostupné	-11.285
▁rozprav	-11.2851
▁dívat	-11.2851
▁prapor	-11.2851
▁Zdeňk	-11.2851
93	-11.2851
▁arabské	-11.2852
▁nohou	-11.2852
▁Říman	-11.2852
▁Intel	-11.2852
▁nezbývá	-11.2852
▁Optima	-11.2852
▁příznivců	-11.2852
▁1980	-11.2852
▁ocenil	-11.2852
▁psů	-11.2852
▁příjezd	-11.2853
▁plnit	-11.2853
▁Minul	-11.2853
▁liberální	-11.2853
▁převah	-11.2854
▁propadl	-11.2854
▁solidní	-11.2855
▁Spolu	-11.2855
▁2,5	-11.2855
▁jídla	-11.2855
▁ligový	-11.2855
▁Maďarsko	-11.2856
▁setkáváme	-11.2856
▁JAK	-11.2856
▁Příští	-11.2856
▁Říká	-11.2856
▁Peck	-11.2858
▁arabský	-11.2858
kcionáři	-11.2859
abilní	-11.2859
▁Pokus	-11.2859
▁Škol	-11.2859
▁znečištění	-11.286
▁Konec	-11.286
▁Form	-11.286
▁oken	-11.2861
sadit	-11.2861
▁nápln	-11.2861
▁ráj	-11.2861
bydlí	-11.2862
▁vyměnit	-11.2863
▁varování	-11.2863
▁sáze	-11.2864
▁tabu	-11.2864
▁vítr	-11.2864
kazil	-11.2864
▁převést	-11.2865
▁matky	-11.2865
▁ohni	-11.2865
▁uzavřena	-11.2865
▁stád	-11.2866
▁Mí	-11.2867
▁uznávan	-11.2867
▁EU	-11.2867
▁samostatn	-11.2867
▁výraznější	-11.2868
zřetelně	-11.2868
▁vojáky	-11.287
▁dokončen	-11.287
▁Krist	-11.287
▁osnov	-11.2873
krývají	-11.2874
▁Vesmíru	-11.2875
▁nepřítel	-11.2878
▁vybudování	-11.2878
▁stavba	-11.288
▁genetick	-11.288
▁pohřeb	-11.288
▁kurt	-11.2881
▁hlasovat	-11.2882
▁uvolnění	-11.2882
▁podoba	-11.2882
▁polární	-11.2884
▁zvládnout	-11.2884
▁vystoupí	-11.2885
žití	-11.2885
▁nepřízniv	-11.2885
▁komet	-11.2887
▁vyprš	-11.2889
konců	-11.2891
přesněji	-11.2892
▁vzdal	-11.2893
▁efektu	-11.2897
▁Belgii	-11.2898
▁kořeny	-11.29
▁expertů	-11.29
▁tržby	-11.2901
▁částkou	-11.2901
▁Med	-11.2901
SKO	-11.2902
▁Hel	-11.2904
▁knížky	-11.2904
▁volbou	-11.2905
▁etapě	-11.2908
▁Předpokládá	-11.2911
▁starostí	-11.2911
▁zachován	-11.2912
▁kluk	-11.2913
▁Slovák	-11.2914
▁současným	-11.2915
▁vyšla	-11.2916
▁kontinentu	-11.2918
▁kanálů	-11.2918
▁průměrně	-11.2919
niknout	-11.292
▁předpokládal	-11.2924
dél	-11.2926
▁extrémní	-11.2926
▁jakými	-11.293
▁vynález	-11.2932
▁slyší	-11.2932
▁úprava	-11.2935
22	-11.2937
▁učení	-11.2946
▁krevní	-11.2947
▁Lá	-11.2947
▁kuponov	-11.2951
▁nemocí	-11.2951
▁významně	-11.2955
▁kapacitou	-11.2956
▁subjektů	-11.2959
▁krav	-11.2962
▁automobilový	-11.2967
▁majitelů	-11.2967
AG	-11.2969
▁Ekonomick	-11.297
jadern	-11.297
▁elektrický	-11.2971
▁prestižní	-11.2972
▁odběratel	-11.2973
umět	-11.2973
▁veškerý	-11.2975
▁zobrazen	-11.2975
okres	-11.2977
UJE	-11.2977
pomínají	-11.298
▁náležit	-11.2981
▁čistě	-11.2982
▁tenisové	-11.2983
▁obchodě	-11.2987
▁vytvořili	-11.2988
▁Voda	-11.2989
▁krvi	-11.299
▁maz	-11.2991
▁projevu	-11.2993
▁německým	-11.2994
▁astronom	-11.2996
▁obhájce	-11.2997
▁uchazečů	-11.2997
▁všemu	-11.2998
žívání	-11.2999
▁úseku	-11.3004
▁Karlový	-11.3005
▁komentář	-11.3006
▁tvary	-11.3012
▁zásahu	-11.3015
▁Voj	-11.3015
▁odběratelů	-11.3016
▁detailní	-11.3018
▁přijali	-11.3029
▁uspořádal	-11.3029
▁elektronické	-11.303
▁turnaji	-11.3031
▁play	-11.3032
▁mechaniku	-11.3034
▁1500	-11.3034
▁vedly	-11.3038
kého	-11.3038
▁krajní	-11.3038
▁okraji	-11.3039
▁dějiny	-11.304
▁nezná	-11.3041
▁světov	-11.3041
▁Věr	-11.3041
▁právem	-11.3043
řejmě	-11.3048
▁krásné	-11.305
▁převlád	-11.3051
▁svalov	-11.3058
bund	-11.3065
▁adapt	-11.3066
▁ztratila	-11.3071
členné	-11.3072
▁maďarské	-11.3076
ušil	-11.3076
▁relativní	-11.3079
▁archeolog	-11.3087
▁manažerů	-11.3088
▁strukturu	-11.3089
▁výrob	-11.309
▁vydala	-11.31
áty	-11.3101
místo	-11.3106
▁technologický	-11.3108
tvrdí	-11.311
35	-11.3111
▁svobodn	-11.3113
▁vzpomín	-11.3117
▁vlastními	-11.3124
▁vítězů	-11.3124
▁hosty	-11.3134
▁obyčejný	-11.3138
pomíná	-11.315
▁italsk	-11.3153
▁zadní	-11.3154
▁svazové	-11.3154
▁poměry	-11.3155
▁ráz	-11.3156
▁zabit	-11.3159
▁elektronický	-11.3165
▁občana	-11.3166
▁jugoslávsk	-11.3169
▁témata	-11.3171
▁125	-11.3181
▁kostel	-11.3182
▁hotové	-11.3183
▁organick	-11.3197
▁horský	-11.3202
▁Fil	-11.3205
▁vodě	-11.3213
RS	-11.3218
▁kapr	-11.3219
▁biolog	-11.3224
hne	-11.3226
▁náhle	-11.3229
tedy	-11.3232
▁Pražsk	-11.3236
▁následujícím	-11.3237
koro	-11.3239
▁záznamové	-11.324
likvid	-11.3244
▁kontaktu	-11.3246
▁předání	-11.3248
▁atomové	-11.3248
▁Kazachstán	-11.3252
▁týkají	-11.3254
▁Svaz	-11.3255
▁1:	-11.3261
kázat	-11.3261
▁funkcionář	-11.3263
▁nejlepšího	-11.3265
▁totemismu	-11.3268
▁Podstatn	-11.3269
▁Ře	-11.327
▁sfér	-11.3272
pravit	-11.3275
▁smrtí	-11.328
ždyť	-11.3282
▁medaili	-11.3283
▁japon	-11.3283
hradit	-11.3291
▁Chorvat	-11.3292
▁odpovídají	-11.3295
▁terorist	-11.3296
▁Masarykov	-11.33
▁předpis	-11.3301
▁oddělen	-11.3302
tivnější	-11.3312
▁zpětn	-11.3314
▁komunismu	-11.3314
▁zřízen	-11.3314
▁řešen	-11.3315
slovní	-11.3317
▁svobodný	-11.3324
▁Min	-11.3329
▁zodpovědn	-11.333
▁brzd	-11.3331
▁norma	-11.3333
▁Bosn	-11.3335
▁Závěr	-11.3336
▁paradox	-11.3336
▁identifik	-11.3341
▁Klepn	-11.3346
▁Plán	-11.3346
olicejní	-11.3347
▁obdiv	-11.3349
▁konzerv	-11.3349
▁Bohemia	-11.3349
neštěstí	-11.3349
peptid	-11.3349
▁Boleslav	-11.3349
▁Doufám	-11.3349
▁HGF	-11.3349
▁Poborského	-11.3349
▁Výjimk	-11.3349
▁Výsledek	-11.3349
▁Wembley	-11.3349
▁anonymní	-11.3349
▁cizinců	-11.3349
▁definovat	-11.3349
▁dvojnásobek	-11.3349
▁dětmi	-11.3349
▁evidenci	-11.3349
▁humanitární	-11.3349
▁intenzivně	-11.3349
▁komfort	-11.3349
▁království	-11.3349
▁lhůty	-11.3349
▁nabídnut	-11.3349
▁neúspěch	-11.3349
▁otázkách	-11.3349
▁ošetření	-11.3349
▁počáteční	-11.3349
▁připomenout	-11.3349
▁revoluce	-11.3349
▁sankce	-11.3349
▁strategický	-11.3349
▁tvůrčí	-11.3349
▁týdnu	-11.3349
▁uhličitého	-11.3349
▁upozorňují	-11.3349
▁uskutečň	-11.3349
▁užitečné	-11.3349
▁veřejnou	-11.3349
▁zajistil	-11.3349
▁zdravotně	-11.3349
▁zvyšovat	-11.3349
▁zážitek	-11.3349
▁Havlov	-11.3349
▁PŘED	-11.3349
▁ostravské	-11.3349
▁sportovci	-11.3349
▁zloděj	-11.3349
▁řekněme	-11.3349
▁LDS	-11.3349
▁skener	-11.3349
▁série	-11.3349
▁umístit	-11.3349
▁Mostaru	-11.3349
▁mobilní	-11.3349
▁sleduje	-11.3349
▁souprav	-11.3349
▁Nobelov	-11.3349
▁opačný	-11.3349
▁potravy	-11.3349
▁pátý	-11.3349
▁srpnu	-11.3349
pomáhal	-11.3349
▁nepatří	-11.3349
▁MHz	-11.3349
▁Názor	-11.3349
▁komisí	-11.3349
▁projednávání	-11.3349
▁centrem	-11.3349
▁kompost	-11.3349
▁národnostní	-11.3349
▁stačit	-11.3349
▁pozemků	-11.3349
skočit	-11.3349
▁stěžují	-11.3349
▁Komora	-11.3349
▁chemie	-11.3349
▁minimum	-11.3349
▁konzervativní	-11.3349
▁letišti	-11.3349
▁obnovit	-11.3349
▁Úprav	-11.3349
▁veličin	-11.3349
▁Ústí	-11.3349
▁Počítá	-11.3349
▁sehnat	-11.3349
▁Prahu	-11.3349
▁shluk	-11.3349
▁vyhověl	-11.3349
▁modernizaci	-11.3349
▁obránce	-11.3349
▁rozvinut	-11.3349
▁turisté	-11.3349
▁promítá	-11.3349
▁nebrání	-11.3349
▁kostým	-11.3349
▁proběhla	-11.3349
▁remíz	-11.335
▁Filip	-11.335
▁román	-11.335
▁vykonávat	-11.335
▁podobnost	-11.335
▁karet	-11.335
▁1948	-11.335
vážet	-11.335
▁pilot	-11.335
▁azyl	-11.335
▁zaslal	-11.3351
▁emise	-11.3351
▁realizaci	-11.3351
▁diskusí	-11.3351
▁převzetí	-11.3351
▁podoby	-11.3351
ford	-11.3352
▁experimentální	-11.3352
▁cítit	-11.3352
▁chrání	-11.3352
▁léčení	-11.3353
▁Mistr	-11.3353
▁Chang	-11.3353
▁dovoluje	-11.3353
▁půjčky	-11.3354
▁videa	-11.3354
▁potřebovat	-11.3354
▁volit	-11.3354
▁dárk	-11.3354
▁budování	-11.3355
▁očima	-11.3356
▁výrobku	-11.3357
beton	-11.3357
▁rozdělit	-11.3357
▁odmítnut	-11.3358
▁nádob	-11.3358
▁Ukázal	-11.3359
▁bát	-11.3359
▁dovolí	-11.3359
určují	-11.3359
▁obává	-11.3359
▁atmosféru	-11.336
▁přestane	-11.336
▁prosím	-11.3361
▁tabulku	-11.3361
▁oblib	-11.3362
▁podruhé	-11.3362
▁nahoru	-11.3363
▁formulář	-11.3363
▁Pojišťovna	-11.3363
bývalo	-11.3366
▁ušetří	-11.3366
▁nechci	-11.3367
▁venku	-11.3368
▁kolekc	-11.3368
▁užitku	-11.3369
rychlostní	-11.337
bude	-11.3372
▁hromadné	-11.3373
▁přerušen	-11.3375
▁ráda	-11.3378
▁vkus	-11.3378
▁hovořili	-11.3379
▁přišly	-11.338
▁Důvodem	-11.338
▁sportovním	-11.3381
▁vybere	-11.3382
▁potvrdila	-11.3382
▁vydělal	-11.3383
▁láh	-11.3383
▁prvek	-11.3385
▁prodá	-11.3386
▁technikou	-11.3386
▁prostorách	-11.339
▁stížnosti	-11.3392
▁vycházet	-11.3393
▁týmů	-11.3394
▁čelní	-11.3396
▁Seznam	-11.3396
▁změnách	-11.34
▁kolech	-11.34
▁Smlouva	-11.34
▁vlastníkem	-11.3403
▁architektury	-11.3403
▁diplomatické	-11.3405
▁ostrovů	-11.3405
▁termo	-11.3406
▁uvolnil	-11.3406
▁popsat	-11.3406
▁kontrolou	-11.3411
▁jednotné	-11.3411
▁prodejně	-11.3412
▁semináře	-11.3415
▁Olomouce	-11.3416
álka	-11.3416
▁kvalit	-11.3417
▁plní	-11.3422
▁policisty	-11.3423
▁nejedn	-11.3423
▁způsobit	-11.3423
▁voliči	-11.3425
▁běže	-11.3427
▁dělníků	-11.3427
▁různ	-11.3431
▁moravské	-11.3436
▁vývojem	-11.3436
▁požadavkům	-11.3437
▁zved	-11.3438
▁Označ	-11.3441
▁Brit	-11.3441
▁problematiku	-11.3442
▁pracujících	-11.3443
▁Barn	-11.3446
▁zadání	-11.3447
cestovat	-11.3449
▁vyhledá	-11.345
▁Film	-11.3453
▁not	-11.3457
▁rozpadu	-11.3457
▁novinářům	-11.346
▁rozhovory	-11.3461
▁jejími	-11.3463
▁Koup	-11.3465
▁stromy	-11.3466
▁technik	-11.3467
vodně	-11.3468
▁rostliny	-11.3468
▁izraelský	-11.3469
▁klinick	-11.3469
▁nevíme	-11.347
ÁNÍ	-11.3475
▁závěrečný	-11.3476
▁odměny	-11.3483
▁Kdybych	-11.3486
▁reklamní	-11.3493
jížděl	-11.3494
▁vzniklé	-11.3494
▁vstupuje	-11.3496
▁potenciálu	-11.3498
▁bezpečně	-11.3499
dnes	-11.3501
řádně	-11.3506
▁rozhodlo	-11.3507
▁opravě	-11.3509
▁Tým	-11.351
▁novela	-11.3515
ALI	-11.3515
▁SD	-11.3516
▁chladu	-11.3517
▁klubem	-11.3518
víz	-11.3522
▁procesů	-11.3524
▁naprosté	-11.3524
▁Švédsku	-11.3526
▁mraz	-11.3528
▁reáln	-11.3528
čkem	-11.3529
▁cenové	-11.3535
plyn	-11.3537
▁Hal	-11.3537
lizace	-11.3539
▁činila	-11.3539
▁úmyslu	-11.3541
▁mistry	-11.3542
▁výkladu	-11.3542
NS	-11.3543
▁slabý	-11.3543
▁věřím	-11.3544
▁ucho	-11.3548
ong	-11.3549
▁deníku	-11.355
▁udělali	-11.3551
▁prezidentský	-11.3551
novu	-11.3553
▁Husov	-11.3554
▁ústavů	-11.3555
▁lize	-11.3557
▁vycházel	-11.3569
▁komora	-11.3569
▁živý	-11.357
▁Večer	-11.357
▁proviz	-11.357
▁přesný	-11.3573
MF	-11.3576
▁kruhy	-11.3583
▁chirurg	-11.3584
▁tempo	-11.3589
jednán	-11.3589
▁soupeřů	-11.359
▁obranné	-11.3617
▁140	-11.3617
hrával	-11.3618
▁budoucího	-11.3619
▁geolog	-11.3619
▁plochu	-11.362
▁příslušnost	-11.3622
▁Kup	-11.3623
▁Lig	-11.3628
▁věčn	-11.3636
ohra	-11.3643
▁Japonsko	-11.3643
▁kovy	-11.3646
▁geny	-11.3653
▁pocity	-11.366
věří	-11.3662
▁Řekl	-11.3664
▁papíry	-11.3679
▁zněl	-11.3684
▁podnikatelům	-11.3688
pouštějí	-11.369
▁obdobný	-11.3694
▁vyhráli	-11.3694
▁Turist	-11.3695
izraelsk	-11.3701
▁tvůrce	-11.3704
svit	-11.3704
▁Pel	-11.3705
▁šíří	-11.3707
▁policist	-11.3708
▁popsán	-11.371
▁stranick	-11.3713
▁problematik	-11.3717
morav	-11.372
▁stříbrné	-11.372
mohou	-11.3722
▁volič	-11.3723
▁pozornosti	-11.3728
▁42	-11.3732
ohledně	-11.3735
▁soupeři	-11.3736
jištěn	-11.3739
▁děd	-11.3745
▁integrovan	-11.3751
▁tuzemsk	-11.3761
▁domácnost	-11.3762
▁Miloše	-11.3768
tivně	-11.3771
▁těle	-11.3771
atřicet	-11.3773
▁využit	-11.3775
▁veletrh	-11.3778
projevilo	-11.3778
▁stanovené	-11.378
▁šampionát	-11.3781
▁požadavků	-11.3783
▁vyžadují	-11.3785
65	-11.3786
▁jakkoli	-11.3788
▁telefony	-11.379
▁hostů	-11.379
▁Střed	-11.3791
▁hydro	-11.3793
▁odmítla	-11.3793
jistit	-11.3795
▁buňk	-11.3795
▁kompres	-11.3796
▁účinnost	-11.3796
▁následk	-11.3798
▁veřejný	-11.3802
▁novinář	-11.3805
▁rodné	-11.3806
▁spolupracovník	-11.3808
97	-11.3809
▁efekty	-11.3814
▁zákoně	-11.3816
▁jednoznačný	-11.3819
▁jednorázov	-11.3821
▁Důvod	-11.3842
alternativ	-11.3843
▁povolen	-11.3844
čov	-11.3845
▁zemědělsk	-11.3847
▁léč	-11.3849
▁výpočet	-11.3854
▁skvělé	-11.386
▁demonstra	-11.3864
tito	-11.3865
▁navazuj	-11.3866
▁Maďar	-11.3866
pomeňme	-11.3872
▁Náměst	-11.3875
▁univerzáln	-11.3875
sekretariát	-11.3875
zrcadl	-11.3875
▁Antonín	-11.3875
▁Bayern	-11.3875
▁Benešov	-11.3875
▁Dvořák	-11.3875
▁Jednotliv	-11.3875
▁Lubomír	-11.3875
▁Sarajev	-11.3875
▁Schneider	-11.3875
▁archív	-11.3875
▁cizinci	-11.3875
▁cizině	-11.3875
▁deklarace	-11.3875
▁informovat	-11.3875
▁institut	-11.3875
▁kancléř	-11.3875
▁kmitočt	-11.3875
▁komunisté	-11.3875
▁lékáren	-11.3875
▁medailí	-11.3875
▁ministerstev	-11.3875
▁nemožné	-11.3875
▁nevznik	-11.3875
▁nečekaně	-11.3875
▁opozici	-11.3875
▁oslaben	-11.3875
▁oživení	-11.3875
▁portfoli	-11.3875
▁posouzení	-11.3875
▁princezn	-11.3875
▁přeháňky	-11.3875
▁přidružen	-11.3875
▁redakci	-11.3875
▁restituční	-11.3875
▁skript	-11.3875
▁spánku	-11.3875
▁struktuře	-11.3875
▁tabulátor	-11.3875
▁tiskárna	-11.3875
▁uspokojení	-11.3875
▁vyloučit	-11.3875
▁výkyvy	-11.3875
▁zúčastní	-11.3875
šetřil	-11.3875
▁altruist	-11.3875
▁minerální	-11.3875
▁stadia	-11.3875
▁svatební	-11.3875
▁zlepšil	-11.3875
▁zlepšit	-11.3875
instalovat	-11.3875
▁Libanon	-11.3875
▁Mazdy	-11.3875
▁stoupenc	-11.3875
▁řemesl	-11.3875
▁lístky	-11.3875
▁letadlo	-11.3875
▁nahrazen	-11.3875
▁válkou	-11.3875
▁Weizs	-11.3875
▁preventivn	-11.3875
▁ohrom	-11.3875
▁slalom	-11.3875
▁ČSAV	-11.3875
hlédl	-11.3875
▁doplnit	-11.3875
▁čáry	-11.3875
▁ovládat	-11.3875
▁Polsku	-11.3875
▁zahájí	-11.3875
rozhodoval	-11.3875
▁penalt	-11.3875
▁pozemky	-11.3875
▁licence	-11.3875
▁porušil	-11.3875
▁jídlo	-11.3875
▁Něco	-11.3875
▁účinný	-11.3875
▁jedinci	-11.3875
▁jedinečn	-11.3875
▁potrvá	-11.3875
▁vyrábějí	-11.3875
▁nejsilnější	-11.3875
▁dealer	-11.3875
▁užívat	-11.3875
▁odškodnění	-11.3875
▁Odhad	-11.3875
▁tisíciletí	-11.3875
▁umístil	-11.3875
pálil	-11.3876
▁veliká	-11.3876
▁nestalo	-11.3876
▁USD	-11.3876
▁nebudu	-11.3876
▁Maastrichtu	-11.3876
▁Holub	-11.3876
▁kůži	-11.3876
▁žánr	-11.3876
▁risk	-11.3876
▁návštěvníci	-11.3876
▁hlášen	-11.3876
▁odvozen	-11.3876
▁Hlas	-11.3876
▁městečk	-11.3876
▁nemění	-11.3876
▁hornin	-11.3876
▁dopředu	-11.3877
▁vracejí	-11.3877
▁koncentrací	-11.3877
▁léčba	-11.3878
▁Krkonoších	-11.3878
▁restaurací	-11.3878
▁dřevěný	-11.3878
▁Zásad	-11.3878
▁postupů	-11.3878
▁setkat	-11.3878
▁východisk	-11.3878
▁masa	-11.3878
▁řešil	-11.3878
▁otřes	-11.3879
▁zlata	-11.3879
▁zakončen	-11.3879
přát	-11.3879
▁stručn	-11.3879
▁Juli	-11.388
▁mikroorganismů	-11.388
▁jádra	-11.388
▁zasvěcen	-11.388
▁chybějící	-11.3881
▁úkor	-11.3882
▁odstín	-11.3882
▁pták	-11.3883
▁Nesmí	-11.3883
▁odmítnout	-11.3884
▁záložník	-11.3884
▁spokojenosti	-11.3885
lákat	-11.3886
▁stres	-11.3886
▁obrace	-11.3887
▁absurdní	-11.3887
▁vydělat	-11.3888
▁prud	-11.3888
▁rozhodnuto	-11.3888
▁tuzemských	-11.389
▁náročnější	-11.389
▁zkoušky	-11.3891
▁SNS	-11.3891
▁bohatý	-11.3892
▁Situace	-11.3892
▁základnu	-11.3893
▁hlavě	-11.3894
chůd	-11.3894
▁opakovat	-11.3894
▁vidění	-11.3894
▁vykazuje	-11.3895
▁oceňuj	-11.3897
▁protokol	-11.3898
▁vyšetřovací	-11.3899
▁přesné	-11.3901
▁Byt	-11.3904
▁př	-11.3904
▁víno	-11.3905
▁kytarist	-11.3905
▁mírou	-11.3906
▁letoun	-11.3907
▁myslíte	-11.3908
▁městská	-11.3908
▁středně	-11.3908
▁počítají	-11.3909
▁převeden	-11.391
▁linek	-11.3911
▁kdybychom	-11.3911
▁ukládat	-11.3912
▁právnick	-11.3913
▁odvolal	-11.3915
▁řádek	-11.3917
▁střelec	-11.3918
▁drát	-11.3918
▁různá	-11.3918
▁věta	-11.3919
▁zájezdy	-11.392
▁vztahuje	-11.3921
▁závazků	-11.3921
▁Hodn	-11.3923
knout	-11.3924
▁kádru	-11.3925
▁cílov	-11.3929
stavovat	-11.3936
▁varoval	-11.3938
▁lacin	-11.3939
▁Bójů	-11.3939
▁boku	-11.394
▁Chorvatsko	-11.394
▁Rozhodn	-11.3941
▁stačilo	-11.3941
▁otce	-11.3944
▁islámské	-11.3944
▁hranicích	-11.3946
▁pocházejí	-11.3947
▁SN	-11.3949
▁kartě	-11.3949
▁terénu	-11.3952
▁družic	-11.3953
▁vyplývající	-11.3957
▁výhodn	-11.3962
▁Kamp	-11.3966
▁ruchu	-11.3968
▁nalezení	-11.3968
▁Japonska	-11.397
▁partnerem	-11.3972
pera	-11.3972
▁potka	-11.3975
▁aneb	-11.3976
▁okresech	-11.3979
▁Slovinska	-11.398
▁nespokojenost	-11.398
▁genů	-11.3981
LED	-11.3983
tažením	-11.3983
▁subjekty	-11.3986
▁soch	-11.3988
▁údržbu	-11.3989
▁rána	-11.3994
▁měřítku	-11.3994
▁dresu	-11.3994
▁kostela	-11.3994
OT	-11.3997
▁účastníky	-11.3997
▁91	-11.3998
▁schémat	-11.4003
strašně	-11.4003
▁matematiky	-11.4005
▁představa	-11.4005
méno	-11.4005
▁Světov	-11.4013
▁Ger	-11.4018
▁pevně	-11.402
▁fyziku	-11.4024
▁jeskyn	-11.4024
trhl	-11.4032
▁politik	-11.4032
▁POD	-11.4033
▁informovali	-11.4033
▁zaplav	-11.4034
▁volba	-11.4034
▁Doba	-11.4036
▁kanálu	-11.4037
krytí	-11.4045
▁řidiči	-11.4051
▁(5	-11.4061
způsobují	-11.4062
▁testů	-11.4069
▁stromů	-11.4069
▁typick	-11.407
▁kvalitativn	-11.4071
▁bodem	-11.4072
▁hovoru	-11.4073
▁hrubé	-11.4075
▁přinesla	-11.4079
48	-11.4081
▁délku	-11.4083
▁postižení	-11.4083
▁srovnatelné	-11.4097
0.000	-11.4099
▁členské	-11.4099
▁přesvědčeni	-11.41
▁číslem	-11.4101
▁Král	-11.4106
▁hlava	-11.4111
▁dopisy	-11.4125
▁mém	-11.4128
▁zůstaly	-11.4134
▁Tip	-11.4135
▁režiséra	-11.4141
▁knihu	-11.4141
▁metodu	-11.4143
▁domnívám	-11.4149
▁výnosu	-11.4151
▁teoretické	-11.4152
▁servisu	-11.4158
▁válečné	-11.4159
▁přenesen	-11.4164
▁variantu	-11.4168
▁drahá	-11.4171
▁Řek	-11.4172
▁standardu	-11.4173
udit	-11.4173
▁iniciativa	-11.4174
▁cílů	-11.4189
▁stálé	-11.419
▁výtvarn	-11.419
▁firmami	-11.4204
▁Syn	-11.4204
tice	-11.4206
čínsk	-11.4214
bírat	-11.4215
zie	-11.4216
▁linka	-11.4229
▁srovnatelný	-11.4244
▁uskutečnil	-11.4247
▁kaly	-11.4248
▁vzp	-11.4255
▁křesťan	-11.4257
▁speciálně	-11.4264
▁úzké	-11.4264
▁způsobila	-11.4269
▁rozumné	-11.427
▁stiskn	-11.4272
▁trojic	-11.4273
▁odráž	-11.4273
▁přítele	-11.4275
▁poločase	-11.4287
yplývá	-11.4297
▁Zemanov	-11.4302
▁závazk	-11.4306
▁mistrovsk	-11.431
▁opor	-11.4318
▁všeobecn	-11.4318
ring	-11.432
▁Slovinsk	-11.4322
▁Stan	-11.4322
▁Atlant	-11.4322
▁účet	-11.4337
dána	-11.4341
oporu	-11.4345
76	-11.4345
AF	-11.4345
▁manažera	-11.4348
▁zákoník	-11.435
▁věnuj	-11.4351
demokratick	-11.4353
▁Tenis	-11.4359
▁přispíva	-11.4359
▁Dag	-11.4359
hodná	-11.4359
sáhnout	-11.436
▁využije	-11.4363
▁Potřeb	-11.4365
▁nabídne	-11.4368
▁čestn	-11.437
koupí	-11.4373
ŽE	-11.4373
ash	-11.4374
posled	-11.4379
třeba	-11.4379
▁komplet	-11.438
vrátit	-11.4381
ČSSD	-11.4386
▁manžela	-11.4387
▁pokračují	-11.4388
▁Rumunsk	-11.4388
▁oblačno	-11.4391
▁umožňují	-11.4392
▁pravém	-11.4395
především	-11.4398
jišťuje	-11.4399
▁dočasn	-11.4399
▁pouh	-11.4401
IG	-11.4403
▁kapitálový	-11.4404
▁vníma	-11.4404
▁bohaté	-11.441
▁Staré	-11.4412
▁počítačov	-11.4415
stěhoval	-11.4415
▁tečk	-11.4416
▁56	-11.4419
▁bon	-11.4419
ářských	-11.4424
▁odjel	-11.4424
▁vydělá	-11.4425
▁krystal	-11.4426
▁životnost	-11.4426
natý	-11.4429
▁Nejčastěj	-11.443
▁Bezpečnost	-11.4431
▁Olszewsk	-11.4431
▁Bierhoff	-11.4431
▁Evropou	-11.4431
▁Jackson	-11.4431
▁Jupiter	-11.4431
▁Karadžic	-11.4431
▁Letošní	-11.4431
▁Madrid	-11.4431
▁Naštěstí	-11.4431
▁Sněmovn	-11.4431
▁Softwar	-11.4431
▁Stehlík	-11.4431
▁arcibiskup	-11.4431
▁burzy	-11.4431
▁celosvětov	-11.4431
▁energií	-11.4431
▁imunitní	-11.4431
▁incident	-11.4431
▁kandidovat	-11.4431
▁kontext	-11.4431
▁krátkodobé	-11.4431
▁laboratorní	-11.4431
▁leccos	-11.4431
▁nahrávk	-11.4431
▁následovat	-11.4431
▁opozicí	-11.4431
▁poskytne	-11.4431
▁premiéře	-11.4431
▁prokuratur	-11.4431
▁překážky	-11.4431
▁restitucí	-11.4431
▁seriózní	-11.4431
▁stability	-11.4431
▁televizor	-11.4431
▁totalitní	-11.4431
▁učebnic	-11.4431
▁viceprezident	-11.4431
▁vzdělávání	-11.4431
▁zakázán	-11.4431
▁zdůvodnil	-11.4431
▁závislá	-11.4431
▁získají	-11.4431
▁úspěšnost	-11.4431
▁Čtvrt	-11.4431
▁Litvínov	-11.4431
▁Město	-11.4431
▁Podívej	-11.4431
▁Ukrajina	-11.4431
▁dostatečné	-11.4431
▁kapitul	-11.4431
▁londýn	-11.4431
▁neexistoval	-11.4431
▁náleží	-11.4431
▁odlišné	-11.4431
▁ozónu	-11.4431
▁preferenc	-11.4431
▁prezervativ	-11.4431
▁socialismu	-11.4431
▁tendenci	-11.4431
▁výkres	-11.4431
▁výslovně	-11.4431
▁záleže	-11.4431
▁Úspěšn	-11.4431
▁Moderní	-11.4431
▁Pražan	-11.4431
▁filtr	-11.4431
▁mrtvé	-11.4431
▁podotkl	-11.4431
▁těžší	-11.4431
▁zachránil	-11.4431
▁laserov	-11.4431
▁vyměnil	-11.4431
▁vyžádá	-11.4431
▁zemědělci	-11.4431
▁znamení	-11.4431
burgu	-11.4431
▁Dukly	-11.4431
▁Mandler	-11.4431
▁abeced	-11.4431
▁herečka	-11.4431
▁Island	-11.4431
▁Kopřiv	-11.4431
▁MIDI	-11.4431
▁Obvodní	-11.4431
▁chápán	-11.4431
▁položku	-11.4431
▁hrozil	-11.4431
▁profese	-11.4431
▁příroda	-11.4431
▁živnostenský	-11.4431
▁nutná	-11.4431
▁charitativní	-11.4431
▁naučit	-11.4431
▁ČSAD	-11.4431
▁Atleti	-11.4431
▁Vojenské	-11.4431
▁výlučn	-11.4431
▁zajímal	-11.4431
▁stěží	-11.4431
▁Hapal	-11.4431
▁necelé	-11.4431
ografii	-11.4431
▁Dlouho	-11.4431
▁kubismu	-11.4431
▁uplatňova	-11.4431
▁vystupoval	-11.4431
▁převažuj	-11.4431
▁Maďarska	-11.4431
▁Akci	-11.4431
▁druzí	-11.4431
▁frakc	-11.4431
▁proměnliv	-11.4432
▁mýtu	-11.4432
▁diváci	-11.4432
▁vyjít	-11.4432
▁zvrat	-11.4432
▁přečetl	-11.4432
▁zpěvačk	-11.4432
▁koncentraci	-11.4432
sudek	-11.4432
▁chápe	-11.4432
▁utajen	-11.4432
▁pohotovost	-11.4433
▁Soutěž	-11.4433
▁kresb	-11.4433
▁kopané	-11.4433
dvacetiletý	-11.4433
▁obvinil	-11.4433
▁Obyvatel	-11.4433
▁česky	-11.4434
▁tvorba	-11.4434
▁studené	-11.4434
▁kláštera	-11.4434
▁Příklad	-11.4435
▁provozovat	-11.4435
▁cítil	-11.4435
▁nesměl	-11.4435
háněl	-11.4435
píší	-11.4435
▁rozumět	-11.4435
▁loď	-11.4435
▁Berger	-11.4435
▁obdrží	-11.4435
▁Švýcarska	-11.4436
▁duši	-11.4437
▁balení	-11.4437
▁úder	-11.4437
▁samospráv	-11.4437
▁kámen	-11.4438
▁přidělen	-11.4438
▁momentáln	-11.4438
▁1950	-11.4439
▁prázdninách	-11.4439
▁ženský	-11.4439
▁síni	-11.4439
▁sovětský	-11.4439
▁publikace	-11.444
▁Politick	-11.444
▁realizovat	-11.444
▁obsáhl	-11.444
▁potvrzují	-11.4442
týž	-11.4442
▁očích	-11.4442
sát	-11.4443
▁utekl	-11.4443
▁zvyklí	-11.4443
▁vzorků	-11.4443
▁dostupný	-11.4443
▁expozice	-11.4444
▁trůn	-11.4445
▁sbírky	-11.4445
▁písma	-11.4445
▁vznikne	-11.4446
▁plot	-11.4446
▁porušování	-11.4447
ůstek	-11.4447
▁Alma	-11.4447
▁uši	-11.4449
▁přihlásil	-11.4449
▁zanikl	-11.4449
▁vysílání	-11.445
▁alternativní	-11.445
▁připravují	-11.4451
▁Ostrav	-11.4451
▁náhodně	-11.4456
▁výměník	-11.4457
účtování	-11.4458
▁Potvrdil	-11.4458
ografické	-11.4459
▁drobných	-11.4459
nechávají	-11.4461
▁osobám	-11.4462
tržení	-11.4463
▁zasáhnout	-11.4463
skop	-11.4464
▁FC	-11.4466
▁vyrovnání	-11.4466
▁čaj	-11.4466
▁branku	-11.4466
▁měnil	-11.4467
▁talent	-11.4468
který	-11.4468
▁překvapiv	-11.4469
▁politikou	-11.4469
▁kompletní	-11.447
▁adresář	-11.4471
▁výrobou	-11.4471
▁infekce	-11.4471
krátko	-11.4471
▁předsednictv	-11.4473
▁Rumunsko	-11.4474
▁příslušníky	-11.4475
▁potřebujete	-11.4475
▁Don	-11.4476
▁nešťastn	-11.4477
▁prodejna	-11.4478
▁zbytku	-11.4478
dávky	-11.4479
OJ	-11.448
▁nemocného	-11.4481
▁řádky	-11.4482
ňovací	-11.4483
▁sídla	-11.4484
▁izraelské	-11.4484
▁prezidentovi	-11.4484
▁tiskový	-11.4485
▁Masaryk	-11.4485
▁psaní	-11.4486
▁Nejsem	-11.4486
▁uplatňují	-11.4486
▁důstojník	-11.4489
▁zajímá	-11.4489
▁MOV	-11.449
▁dospělé	-11.449
▁přerušení	-11.4492
87	-11.4493
▁slavného	-11.4494
▁pětadvacet	-11.4495
▁pravomocí	-11.4496
▁zajímavá	-11.4497
▁dorazil	-11.45
▁ToolBooku	-11.4501
▁částečn	-11.4501
▁odjezd	-11.4503
▁léto	-11.4503
▁hradě	-11.451
▁jmenoval	-11.4511
▁sudetský	-11.4511
▁udává	-11.4511
▁zvukových	-11.4512
hořel	-11.4513
▁link	-11.4514
▁spojených	-11.4515
▁rodině	-11.4516
▁kraje	-11.4519
▁sídlí	-11.452
▁levné	-11.4521
▁získávání	-11.4522
▁Žena	-11.4522
▁výhodou	-11.4523
▁Severoatlantick	-11.4523
▁Tvrdí	-11.4523
▁bytě	-11.4524
▁zpracovat	-11.4524
jmenován	-11.4526
▁uzavřené	-11.4526
▁grafiky	-11.4527
▁soukromým	-11.4528
nická	-11.453
▁armádní	-11.4532
▁drav	-11.4532
▁230	-11.4534
▁veletrhu	-11.4534
▁výměny	-11.4536
▁Alp	-11.4537
▁provozování	-11.4537
▁Tel	-11.4538
▁anglického	-11.454
▁poměrů	-11.454
▁poskytnutí	-11.4542
▁Víme	-11.4542
▁ověřen	-11.4544
▁dokonalé	-11.455
▁příbuzné	-11.4551
▁scénu	-11.4552
▁Optic	-11.4553
▁OK	-11.4554
▁touh	-11.4555
▁dohodli	-11.4558
▁zařazeny	-11.456
▁mořské	-11.4561
jednala	-11.4564
▁slovenský	-11.4565
▁nálož	-11.4565
▁uživatelům	-11.4565
ogenní	-11.4567
▁Baník	-11.4568
▁vraždy	-11.4568
▁příkazem	-11.4568
▁přesvědčil	-11.4569
▁Izraelem	-11.4569
▁měnov	-11.4571
▁dobro	-11.4572
▁Vložit	-11.4572
▁nakupovat	-11.4572
pali	-11.4574
▁sdělit	-11.4575
▁Buď	-11.4575
▁obsadili	-11.4575
▁77	-11.4577
▁zbývá	-11.4577
▁výchovy	-11.4579
▁analýza	-11.4581
▁dosahují	-11.4583
▁odborů	-11.4585
▁zásahy	-11.4587
▁opačném	-11.4588
tlačit	-11.4589
▁stromu	-11.4594
▁stříbrn	-11.4598
soudit	-11.46
▁pivovarů	-11.4605
▁radio	-11.4605
▁takzvané	-11.4609
▁nezískal	-11.4612
▁vyjadřují	-11.4614
padnout	-11.4621
▁zadržen	-11.4621
▁platnosti	-11.4625
▁požádali	-11.4625
bytová	-11.463
▁lidový	-11.4638
▁čte	-11.4639
▁zdokonal	-11.4641
▁mozkové	-11.4649
▁zvítězila	-11.4654
▁zavedl	-11.4661
▁Husa	-11.4664
▁zásoby	-11.4667
▁Sport	-11.4669
▁rozhlasu	-11.4672
▁hladiny	-11.4674
▁obyčejné	-11.468
▁hrub	-11.4681
▁předčasné	-11.4687
▁dávn	-11.4688
▁proměnil	-11.4697
▁plánované	-11.4701
▁vycházejí	-11.4706
▁zdravý	-11.4709
▁poradil	-11.4722
▁hlás	-11.4723
▁úměrn	-11.4726
▁ruch	-11.4728
▁částice	-11.4728
vezm	-11.4733
▁nábožensk	-11.4734
▁vzkaz	-11.4741
▁etický	-11.4743
▁klimatické	-11.4744
▁čekání	-11.4757
▁vesnic	-11.4761
▁radní	-11.4761
▁Kap	-11.4764
▁Carl	-11.4766
▁majitelem	-11.4771
▁takzvaný	-11.4782
▁vyrovnaný	-11.4784
▁očekávané	-11.4788
NSK	-11.4792
▁příznivé	-11.4793
jednali	-11.4802
▁nabízen	-11.4802
▁osmnáct	-11.481
▁Jean	-11.4813
▁chorvatský	-11.4816
▁léčebn	-11.4819
▁Švýcar	-11.4821
▁bojoval	-11.4823
▁chodil	-11.4823
placení	-11.4826
▁komentáře	-11.4826
palestinsk	-11.4828
▁mladík	-11.4829
▁důkladně	-11.4831
▁Ostravsk	-11.4839
pozoruhodn	-11.484
▁vlastníků	-11.4856
▁reklama	-11.4856
▁poledne	-11.4856
▁závažn	-11.4857
▁bolesti	-11.4858
tvořily	-11.4861
▁Vysok	-11.4869
▁letecký	-11.4872
▁faktur	-11.4875
▁poškozen	-11.4882
▁akciov	-11.4887
▁tradic	-11.4887
▁výživ	-11.4888
ovská	-11.4891
▁americkým	-11.4893
▁Obsah	-11.4893
▁jednotka	-11.4915
IE	-11.4918
UN	-11.4922
▁kongres	-11.4923
▁vesmír	-11.4923
▁ponech	-11.4924
pec	-11.4924
▁muzeu	-11.4929
dáte	-11.4937
389	-11.4939
▁vteřin	-11.4941
▁vědec	-11.4942
TER	-11.4943
▁náboženské	-11.4947
▁pojistn	-11.4947
▁překvapen	-11.4953
▁jater	-11.4953
▁omezené	-11.4959
▁Zákaz	-11.4959
rozuměj	-11.4963
▁vykoná	-11.4963
▁dělník	-11.4967
▁podepsán	-11.4972
▁potvrzen	-11.4973
▁Mnichov	-11.4987
▁Výš	-11.4989
▁květ	-11.4994
jednává	-11.5
trpěl	-11.5002
▁strojírensk	-11.5004
▁srozumiteln	-11.5006
▁Šv	-11.5008
vyjádřen	-11.5011
německou	-11.5012
▁závěrečné	-11.5012
▁klášte	-11.5015
▁Krkonoš	-11.5016
nešní	-11.5017
▁junio	-11.5018
7%	-11.5018
▁Elektr	-11.5018
svobozen	-11.5019
doporučují	-11.5019
▁1981	-11.5019
▁Běloruska	-11.5019
▁Jihoafrick	-11.5019
▁Městě	-11.5019
▁Niederl	-11.5019
▁Pentium	-11.5019
▁Polskem	-11.5019
▁Pořadatel	-11.5019
▁Poštovní	-11.5019
▁Pravděpodobn	-11.5019
▁Rozhovor	-11.5019
▁Svorada	-11.5019
▁asteroid	-11.5019
▁doprovázen	-11.5019
▁gramotnost	-11.5019
▁hřbitov	-11.5019
▁instance	-11.5019
▁inzerát	-11.5019
▁konfiguraci	-11.5019
▁kooperac	-11.5019
▁mechanismy	-11.5019
▁ministerstvem	-11.5019
▁mrtvých	-11.5019
▁mužstvu	-11.5019
▁nejlevnější	-11.5019
▁nejvhodnější	-11.5019
▁nepřijatelné	-11.5019
▁nesprávn	-11.5019
▁odehrál	-11.5019
▁organismů	-11.5019
▁ovlivňova	-11.5019
▁označují	-11.5019
▁pohromadě	-11.5019
▁potvrdit	-11.5019
▁pracovišti	-11.5019
▁prohlašuje	-11.5019
▁protagonist	-11.5019
▁rozvržení	-11.5019
▁sluchátka	-11.5019
▁stabilitu	-11.5019
▁strojírenství	-11.5019
▁svědků	-11.5019
▁ubytovn	-11.5019
▁uskutečněn	-11.5019
▁vyjadřova	-11.5019
▁vzdělávací	-11.5019
▁výsledcích	-11.5019
▁zachránit	-11.5019
▁zaměstnává	-11.5019
▁zastávk	-11.5019
▁zvýhodněn	-11.5019
▁závazek	-11.5019
▁závislé	-11.5019
▁Eduard	-11.5019
▁Kepler	-11.5019
▁Manchester	-11.5019
▁Thomas	-11.5019
▁Uvažuje	-11.5019
▁Vědci	-11.5019
▁bázi	-11.5019
▁displej	-11.5019
▁ekvivalent	-11.5019
▁kampaň	-11.5019
▁podmínkami	-11.5019
▁prokázán	-11.5019
▁složku	-11.5019
▁zbraň	-11.5019
▁Balkán	-11.5019
▁Výběr	-11.5019
▁kliniky	-11.5019
▁komentoval	-11.5019
▁kontrast	-11.5019
▁očekávají	-11.5019
▁pouštní	-11.5019
▁pátrá	-11.5019
▁překonat	-11.5019
přihlášk	-11.5019
▁kosmický	-11.5019
▁obtíže	-11.5019
▁Právní	-11.5019
▁hmyz	-11.5019
▁poplatků	-11.5019
▁sazby	-11.5019
▁vyjednávání	-11.5019
▁vyřešil	-11.5019
opakovaně	-11.5019
▁profesí	-11.5019
▁vazbě	-11.5019
režie	-11.5019
▁dráhu	-11.5019
▁jedinec	-11.5019
▁podléha	-11.5019
▁prvotní	-11.5019
▁sérii	-11.5019
▁odvahu	-11.5019
▁neviděl	-11.5019
▁lidstva	-11.5019
▁ojediněle	-11.5019
▁otravy	-11.5019
▁přijímat	-11.5019
▁zahrnují	-11.5019
▁Gross	-11.5019
▁čistírn	-11.5019
▁povahu	-11.5019
▁Reuter	-11.5019
▁sladk	-11.5019
▁uplatnil	-11.5019
KDS	-11.5019
hlížel	-11.5019
▁Smith	-11.5019
▁partie	-11.5019
▁kolaps	-11.5019
▁absenc	-11.5019
▁jarní	-11.5019
▁postačí	-11.5019
▁zastupitelstvo	-11.5019
▁Radovan	-11.5019
▁vpravo	-11.5019
hlédnutí	-11.5019
▁cvičení	-11.5019
▁dimenz	-11.5019
▁patent	-11.5019
▁2:1	-11.5019
▁velkolep	-11.5019
▁obezit	-11.5019
▁počty	-11.5019
obdržela	-11.5019
▁Kučer	-11.5019
▁finance	-11.502
▁kombinací	-11.502
▁doplnil	-11.502
▁liberalizac	-11.502
▁smečka	-11.502
▁ohlas	-11.502
▁sportovce	-11.502
▁filozofii	-11.502
▁výhrady	-11.502
▁oteplení	-11.502
▁generaci	-11.502
▁Vilém	-11.502
▁Kvalit	-11.502
▁konverz	-11.502
▁ekonomickou	-11.502
▁léčbě	-11.502
▁Ford	-11.502
▁lůžk	-11.502
▁Baker	-11.502
▁převrat	-11.502
▁dvor	-11.502
▁Španělsko	-11.502
▁zaměřuje	-11.502
▁sníží	-11.502
▁afér	-11.502
▁nedostatkem	-11.5021
▁spoření	-11.5021
▁derby	-11.5021
▁1998	-11.5021
▁koncentr	-11.5021
▁Krás	-11.5021
▁hluboký	-11.5021
▁zmenšen	-11.5021
▁SNR	-11.5021
▁členění	-11.5021
▁Hráč	-11.5022
pravdě	-11.5022
▁vhodných	-11.5022
▁výměr	-11.5022
▁studii	-11.5022
▁WAV	-11.5022
▁štít	-11.5022
▁nezvykl	-11.5023
▁vynesl	-11.5023
ředstavitelé	-11.5023
▁otevřenou	-11.5023
▁děkan	-11.5023
▁článků	-11.5024
▁rozlož	-11.5024
▁běží	-11.5024
▁jednotlivců	-11.5024
▁vyzván	-11.5025
▁pravice	-11.5025
▁předloh	-11.5025
▁pravdy	-11.5025
▁ISO	-11.5026
▁Winter	-11.5026
▁švýcarské	-11.5026
▁pestr	-11.5027
▁trase	-11.5028
▁zeleni	-11.5028
▁čelit	-11.5029
eportáž	-11.5029
▁tureck	-11.503
▁zvláštnost	-11.503
▁udělen	-11.503
▁celky	-11.5031
▁mezer	-11.5031
▁dálkové	-11.5031
▁vyplni	-11.5031
▁usilují	-11.5032
▁salon	-11.5032
▁sbírek	-11.5032
▁plus	-11.5033
▁lodí	-11.5034
▁prosazuje	-11.5034
▁průvodce	-11.5034
▁alternativy	-11.5034
▁tvrdit	-11.5034
▁obuv	-11.5034
▁podávání	-11.5035
▁památky	-11.5035
▁tenkrát	-11.5036
▁nákladech	-11.5036
vláda	-11.5036
▁protivník	-11.5036
▁dozví	-11.5037
▁správnou	-11.5037
▁vyhleda	-11.5038
▁okresu	-11.5039
▁vydrží	-11.5039
▁základny	-11.504
▁Provoz	-11.504
▁pozorovatelů	-11.504
▁jakéhokoli	-11.5041
▁pití	-11.5042
▁anketě	-11.5043
▁ušetřit	-11.5043
▁dýcha	-11.5043
▁euro	-11.5044
▁námět	-11.5044
▁Kolín	-11.5044
▁pomáhat	-11.5045
▁porost	-11.5045
▁ideologick	-11.5046
▁začínal	-11.5047
▁domku	-11.5049
▁silami	-11.505
▁skutečnou	-11.505
▁nazval	-11.5053
▁branky	-11.5053
árek	-11.5053
▁skupinách	-11.5054
▁znamenala	-11.5054
▁přibyl	-11.5057
program	-11.5057
▁domácností	-11.5059
▁spolehlivě	-11.5059
▁obchodech	-11.5059
▁myln	-11.5059
▁komunismus	-11.506
▁scéně	-11.5061
▁skoku	-11.5061
▁hranicí	-11.5061
▁Horní	-11.5061
▁pětinu	-11.5062
▁vidíte	-11.5064
▁SI	-11.5064
▁přibývá	-11.5064
▁pozdní	-11.5065
▁odbornost	-11.5065
▁záměrně	-11.5068
▁vyznačen	-11.5069
▁Chart	-11.507
▁reálná	-11.5071
▁NT	-11.5071
▁stranách	-11.5074
▁odluk	-11.5074
▁ledový	-11.5075
běhne	-11.5076
▁pomník	-11.5077
print	-11.5077
▁Palác	-11.5079
▁zažil	-11.508
atrně	-11.508
▁zárukou	-11.508
▁využívající	-11.5081
▁vybrán	-11.5082
▁pochybnosti	-11.5083
▁prodejce	-11.5084
▁přibylo	-11.5087
▁Air	-11.5088
▁polský	-11.5088
▁pozval	-11.5089
hlédne	-11.5089
▁vzdálen	-11.5091
kromě	-11.5091
▁těsné	-11.5092
▁polského	-11.5092
▁osmnácti	-11.5101
▁Žádný	-11.5102
ovitých	-11.5106
▁problematiky	-11.5108
▁opon	-11.511
▁předkládá	-11.5113
▁opravit	-11.5114
▁maličkost	-11.5115
SOU	-11.5116
▁jazyků	-11.512
▁publikací	-11.5121
▁jmenování	-11.5122
▁obří	-11.5127
▁rodinou	-11.5127
elektrick	-11.5129
▁186	-11.513
▁historického	-11.5131
▁Kazachstánu	-11.5135
hrání	-11.5135
▁zařazení	-11.5137
▁britských	-11.5145
▁slavné	-11.5146
Pro	-11.5146
▁stínu	-11.5147
▁zajímavých	-11.5148
▁Lan	-11.5152
▁prázdniny	-11.5155
▁prochází	-11.5156
▁cukru	-11.5158
sazení	-11.5159
▁ledové	-11.5163
▁armád	-11.5168
▁Přibyl	-11.5169
▁suroviny	-11.517
▁zájemcům	-11.517
▁zahájena	-11.5173
▁smyslem	-11.5177
reál	-11.5178
chrom	-11.5179
▁hospodářských	-11.5186
pouštět	-11.5188
▁západu	-11.5188
▁slevy	-11.5189
▁prodával	-11.5189
▁samostatnost	-11.5194
▁závodníků	-11.5196
▁desítká	-11.5198
▁etapy	-11.52
▁určitým	-11.5204
▁atomov	-11.5207
▁sedmnácti	-11.5208
ikonu	-11.5218
▁odměnu	-11.5218
▁Geo	-11.5218
šan	-11.5219
▁dialogové	-11.5234
▁konfliktu	-11.5235
▁dvaadvacet	-11.5235
OSTI	-11.5236
▁hromada	-11.5236
▁novináře	-11.5242
▁cenami	-11.5242
▁oprávnění	-11.5243
▁naplněn	-11.5246
▁zhoubn	-11.5247
▁přehrad	-11.5247
▁perspektivní	-11.5247
▁odcházejí	-11.525
▁odpady	-11.5251
▁vznikal	-11.5253
▁povrchové	-11.5255
JÍ	-11.5261
PAN	-11.5266
▁hokejové	-11.5268
▁Vaš	-11.5271
▁technologické	-11.5272
▁oblíbený	-11.5278
▁jednotný	-11.5278
▁skleníkový	-11.5279
▁měřit	-11.5281
leva	-11.5281
▁tělesn	-11.5294
▁neobvykl	-11.5294
▁družstevní	-11.5295
▁koordinac	-11.5299
▁slabé	-11.5303
HP	-11.5307
▁tepelné	-11.5313
▁fotbalist	-11.5317
▁třetin	-11.5318
▁Nemá	-11.533
▁nabízený	-11.5344
nesení	-11.5348
▁Občansk	-11.5349
▁spolupracují	-11.5351
izování	-11.5356
▁hub	-11.5356
▁příjemný	-11.5363
▁skleník	-11.5375
▁Hub	-11.5375
▁Moc	-11.5397
▁Čtyř	-11.5404
▁textů	-11.5406
▁bosen	-11.5416
DP	-11.5418
▁kvalifik	-11.5421
▁fakult	-11.5439
▁úvod	-11.5443
▁Novotn	-11.5447
mentálně	-11.5452
▁maxim	-11.5459
▁dopadl	-11.5464
▁nadměrn	-11.5464
▁přirozeným	-11.5465
▁vozov	-11.5467
▁1)	-11.5473
▁hrozn	-11.5474
▁výtečn	-11.5484
▁cenné	-11.5491
▁pravomoc	-11.5493
▁dirigent	-11.55
▁Histori	-11.5508
▁450	-11.5508
VÁ	-11.5509
▁parametr	-11.5511
▁geo	-11.5512
▁hezk	-11.5515
konalo	-11.5516
▁šíři	-11.5516
▁statistick	-11.552
▁krev	-11.5521
▁240	-11.5521
BU	-11.5522
▁výjimk	-11.5529
▁časový	-11.5532
▁Bet	-11.5535
▁Brněnsk	-11.5538
▁Japonsk	-11.5546
▁slavný	-11.5548
▁úloh	-11.5549
čnosti	-11.5553
▁výzkumné	-11.5553
eckém	-11.5559
ručně	-11.5561
▁61	-11.5561
▁poškoz	-11.5561
▁Velký	-11.5572
▁inspektor	-11.5573
pojit	-11.5578
▁využívají	-11.5578
▁ústřed	-11.558
▁poctiv	-11.5583
▁vývojový	-11.5584
sunut	-11.5589
uskutečnila	-11.5594
▁Rozhodl	-11.5596
▁ukončen	-11.5599
▁TV	-11.56
▁uvolněn	-11.56
▁ovládá	-11.5602
sáhne	-11.5607
▁Kladn	-11.5615
▁centimetr	-11.5618
▁smrteln	-11.5621
▁vyřazen	-11.5622
▁nedostat	-11.5622
▁hmotnost	-11.5626
funk	-11.5627
▁dívá	-11.563
▁podporují	-11.563
vlas	-11.563
▁algoritm	-11.5631
třída	-11.5632
omín	-11.5636
▁Žen	-11.5638
podivu	-11.5639
▁účinně	-11.5643
▁Vždy	-11.5643
Cagiva	-11.5644
▁Apple	-11.5644
▁Barcelony	-11.5644
▁Dudajev	-11.5644
▁Frankfurt	-11.5644
▁Harrachov	-11.5644
▁Honecker	-11.5644
▁Konkrétn	-11.5644
▁Lobkowicz	-11.5644
▁Luboš	-11.5644
▁Moskvy	-11.5644
▁Měsíc	-11.5644
▁Stráský	-11.5644
▁Větší	-11.5644
▁angličtiny	-11.5644
▁atribut	-11.5644
▁cizinec	-11.5644
▁databázový	-11.5644
▁dosaženo	-11.5644
▁dětství	-11.5644
▁efektivnosti	-11.5644
▁epidemie	-11.5644
▁eventuáln	-11.5644
▁evoluce	-11.5644
▁exhibic	-11.5644
▁expanz	-11.5644
▁extremist	-11.5644
▁hnízd	-11.5644
▁hollywoodsk	-11.5644
▁intenzivní	-11.5644
▁jménu	-11.5644
▁kinematografie	-11.5644
▁kriminalist	-11.5644
▁kritizoval	-11.5644
▁lhůtě	-11.5644
▁nabízel	-11.5644
▁nabízet	-11.5644
▁nelíbí	-11.5644
▁nesmějí	-11.5644
▁notebook	-11.5644
▁ohrozit	-11.5644
▁omezování	-11.5644
▁pohledávky	-11.5644
▁polštář	-11.5644
▁pozůstatk	-11.5644
▁počínání	-11.5644
▁pronájmu	-11.5644
▁pódiu	-11.5644
▁redakční	-11.5644
▁rozšiřování	-11.5644
▁skrývá	-11.5644
▁spekulace	-11.5644
▁spekulací	-11.5644
▁svědectví	-11.5644
▁tlačítek	-11.5644
▁trápí	-11.5644
▁vyčleněn	-11.5644
▁vztazích	-11.5644
▁výdělečn	-11.5644
▁zdůrazňuje	-11.5644
▁znepokojen	-11.5644
▁ÚSES	-11.5644
▁Čarnogursk	-11.5644
kontaminac	-11.5644
▁Budinský	-11.5644
▁Liverpool	-11.5644
▁Opět	-11.5644
▁Schumacher	-11.5644
▁TNF	-11.5644
▁konkurs	-11.5644
▁levněji	-11.5644
▁lůžek	-11.5644
▁metabolick	-11.5644
▁mláďat	-11.5644
▁poloostrov	-11.5644
▁předpokládají	-11.5644
▁separatist	-11.5644
▁seznámil	-11.5644
▁stadion	-11.5644
▁Tchaj	-11.5644
▁bydliště	-11.5644
▁poskytovan	-11.5644
▁ropovod	-11.5644
▁rozmnož	-11.5644
▁učební	-11.5644
Oscar	-11.5644
▁Vánoční	-11.5644
▁profesní	-11.5644
▁kosmické	-11.5644
▁nerozumí	-11.5644
▁prodavač	-11.5644
▁výzvu	-11.5644
kompenz	-11.5644
▁Haagu	-11.5644
▁mrtvol	-11.5644
▁nazývá	-11.5644
▁nekončí	-11.5644
▁terminologi	-11.5644
KDH	-11.5644
▁přiznat	-11.5644
▁skandál	-11.5644
▁sdružuj	-11.5644
▁Vánoce	-11.5644
▁odlišuj	-11.5644
▁belgick	-11.5644
▁bezespor	-11.5644
▁nazvaný	-11.5644
▁pojmy	-11.5644
▁pronajat	-11.5644
▁spektrum	-11.5644
▁uváděl	-11.5644
▁plakát	-11.5644
▁Easy	-11.5644
▁demisi	-11.5644
▁minulou	-11.5644
▁mezisklad	-11.5644
▁úředníci	-11.5644
▁pokouší	-11.5644
▁pryč	-11.5644
▁zapojen	-11.5644
major	-11.5644
▁komplikace	-11.5644
▁praxí	-11.5644
▁nejmladší	-11.5644
▁koupě	-11.5644
▁mutace	-11.5644
▁napodob	-11.5644
▁nevadí	-11.5644
▁Myslíte	-11.5644
▁Kyjev	-11.5644
týkat	-11.5644
▁hygienické	-11.5644
▁zastupování	-11.5644
kročit	-11.5644
▁inteligentní	-11.5644
týkal	-11.5644
▁něčím	-11.5644
▁snižují	-11.5644
▁reprezentuje	-11.5645
▁levicov	-11.5645
▁Neznám	-11.5645
▁převodu	-11.5645
▁veterán	-11.5645
▁Římě	-11.5645
▁rovnost	-11.5645
▁pohlaví	-11.5645
▁PŘI	-11.5645
▁zastupitelství	-11.5645
▁usiloval	-11.5645
▁bydlet	-11.5645
plývá	-11.5645
▁vyrobil	-11.5645
▁inkas	-11.5645
2:0	-11.5645
▁pilíř	-11.5645
▁ledovce	-11.5645
▁Group	-11.5645
▁strážníci	-11.5645
▁ocas	-11.5645
▁výtisk	-11.5645
▁teplé	-11.5645
▁ČSTK	-11.5645
▁komunikací	-11.5645
▁spuštění	-11.5645
generační	-11.5646
▁neodpovídá	-11.5646
▁slyšel	-11.5646
▁sousedství	-11.5646
▁vápenc	-11.5646
▁součin	-11.5646
▁námitky	-11.5646
▁pyšn	-11.5646
▁nezajímá	-11.5646
▁střechy	-11.5646
▁léčby	-11.5646
▁někam	-11.5646
▁interpretace	-11.5647
▁běžc	-11.5647
▁Nájem	-11.5647
▁norem	-11.5647
▁Dukla	-11.5647
▁stolní	-11.5647
STAV	-11.5647
▁Olg	-11.5647
▁stoprocentní	-11.5648
▁sumy	-11.5648
▁HDP	-11.5648
vinil	-11.5648
▁Pravda	-11.5649
▁Thun	-11.5649
▁Prohlásil	-11.5649
▁prudké	-11.5649
▁složitost	-11.5649
TON	-11.565
▁kabin	-11.565
▁kníže	-11.565
▁pozitivně	-11.5651
▁Nemůže	-11.5651
kontinentální	-11.5652
▁určí	-11.5652
bajt	-11.5652
▁NOV	-11.5653
▁datum	-11.5653
▁pamatuje	-11.5653
▁zapsán	-11.5653
▁švýcarský	-11.5654
▁teplý	-11.5654
▁přežil	-11.5654
▁Solid	-11.5654
▁Grafová	-11.5654
▁prodejců	-11.5654
Finsko	-11.5655
míří	-11.5655
▁Lys	-11.5655
▁neobvyklé	-11.5656
▁jmenovat	-11.5656
▁novinkou	-11.5656
▁zmáčkn	-11.5656
▁posuzování	-11.5656
▁hektarů	-11.5657
rozuměl	-11.5657
▁dílčí	-11.5657
▁poškodil	-11.5658
▁minima	-11.5659
▁Libor	-11.5659
▁přenést	-11.5659
▁geografick	-11.5659
▁klepnutím	-11.566
▁Neměl	-11.566
▁Původní	-11.566
▁mohutn	-11.566
▁dějinách	-11.566
▁selekčn	-11.5661
▁hluk	-11.5661
▁Postupně	-11.5663
▁naučil	-11.5663
▁účelům	-11.5664
▁předešl	-11.5664
▁makro	-11.5664
▁Zpočátku	-11.5664
▁disponuje	-11.5665
▁zkoušku	-11.5665
tahuje	-11.5665
▁Web	-11.5666
▁sídlo	-11.5667
▁špičkových	-11.5667
▁Tatra	-11.5667
▁přestávce	-11.5667
▁lese	-11.5668
▁průhledn	-11.5668
▁úsměvem	-11.5669
▁Polák	-11.567
▁10%	-11.5671
▁rozměrů	-11.5672
▁Určitě	-11.5674
▁zvolí	-11.5674
▁badatelé	-11.5675
hledné	-11.5675
▁odhaduje	-11.5675
▁vykázal	-11.5676
▁socialistické	-11.5677
▁uznává	-11.5677
▁sestra	-11.5681
▁zvířete	-11.5683
ukční	-11.5684
▁Vodičk	-11.5685
▁považoval	-11.5685
▁svazek	-11.5685
▁motocyklů	-11.5685
PE	-11.5687
▁vyplácení	-11.5687
▁Pardubice	-11.5687
line	-11.5689
▁plaz	-11.5689
▁LID	-11.569
▁List	-11.569
▁pořadatelů	-11.5692
▁zrodil	-11.5692
▁filozofické	-11.5694
▁dokonč	-11.5695
kované	-11.5695
NU	-11.5696
▁posádky	-11.5697
▁vidíme	-11.5698
▁invalidní	-11.5698
▁sněmovna	-11.5699
▁vizi	-11.57
▁Zkus	-11.5701
▁rizikový	-11.5701
▁doprovod	-11.5704
▁jazykov	-11.5704
▁ohlásil	-11.5705
▁Londýna	-11.5706
▁Paříže	-11.5706
▁klientel	-11.5707
▁schránky	-11.5707
▁Listin	-11.5708
▁ekonomickým	-11.5708
▁nepříjemný	-11.571
▁herci	-11.571
▁Kremlu	-11.571
▁dálnice	-11.5715
▁gest	-11.5715
▁starožitnost	-11.5716
▁azbestu	-11.5717
▁bazénu	-11.5717
▁zakázku	-11.5717
▁berou	-11.5719
UD	-11.5721
▁prázdné	-11.5721
▁Těm	-11.5722
▁59	-11.5722
▁Kolumbi	-11.5722
▁vyhrazen	-11.5725
▁fotbalisty	-11.5725
atřicetilet	-11.5726
▁nevhodné	-11.5727
▁vteřiny	-11.5728
▁omezeným	-11.5728
▁přistoupil	-11.5729
▁problémech	-11.5731
▁světl	-11.5734
▁zakázal	-11.5737
▁doprovodu	-11.5737
▁ostrově	-11.5739
▁hád	-11.5739
▁kompresi	-11.5739
▁pěkný	-11.574
▁Benda	-11.574
▁pořádně	-11.5743
▁levný	-11.5746
▁doplnění	-11.5751
▁pomocník	-11.5752
▁dáno	-11.5755
▁čar	-11.5756
▁Izraelsk	-11.5756
▁sporů	-11.5759
▁nulov	-11.5759
▁poplatníků	-11.5763
▁zásobník	-11.5767
▁vyhlášky	-11.5767
▁iniciativy	-11.5769
▁učitelé	-11.577
▁zlikvidov	-11.577
▁povrchem	-11.5772
▁vyvážen	-11.5772
slouží	-11.5774
▁sond	-11.5775
▁Sex	-11.5775
▁zaujím	-11.5778
▁silnici	-11.5778
▁údaji	-11.578
▁zvané	-11.5781
▁otázkami	-11.5782
▁organ	-11.5784
▁tváře	-11.5784
▁šťastn	-11.5785
▁položen	-11.5786
▁používané	-11.579
▁Nedo	-11.5791
▁systémech	-11.5792
▁mask	-11.5796
▁paktu	-11.5797
rovnávání	-11.5798
▁vzrost	-11.5801
hrnul	-11.5802
▁neobyčejn	-11.5804
▁kanadsk	-11.5805
▁Japon	-11.5805
▁vývojář	-11.5812
▁řecké	-11.5816
▁povinné	-11.5818
dále	-11.5833
▁Ivo	-11.5834
▁Tito	-11.5836
▁monopolní	-11.5855
▁zálož	-11.5862
▁okamžité	-11.5864
▁demokrat	-11.5865
počtu	-11.5868
▁ilustrac	-11.587
škodí	-11.5873
▁nebýval	-11.5873
▁zhodnoc	-11.5876
vládní	-11.5883
▁hodí	-11.5883
▁trojnásobn	-11.5885
USA	-11.5886
1992	-11.5889
▁hostin	-11.5889
▁elektrod	-11.5895
▁odběratele	-11.591
sovětsk	-11.5911
ruh	-11.5913
jeden	-11.5916
▁mzdové	-11.5922
▁plynáren	-11.5922
▁stranické	-11.5925
▁ptát	-11.5926
▁hork	-11.5938
jistá	-11.5939
▁jakoukoli	-11.5939
▁využíván	-11.594
psání	-11.5943
▁stanovil	-11.5947
▁Vir	-11.5957
▁užití	-11.5966
▁etnick	-11.5968
▁nud	-11.5972
ázev	-11.599
▁plzeňské	-11.5991
▁oprávněné	-11.5994
▁Králov	-11.5996
▁útvarů	-11.5999
▁Švéd	-11.6
▁krásn	-11.6004
▁konstatova	-11.6004
▁nákladné	-11.6006
▁peče	-11.601
▁Američanů	-11.6012
▁mzdov	-11.6024
▁badatel	-11.6029
▁postupuje	-11.6036
▁evoluční	-11.6042
▁94	-11.6044
▁okamžit	-11.605
ther	-11.606
▁převyšuj	-11.6064
▁vyplněn	-11.6068
▁Map	-11.6076
▁neprav	-11.6076
▁příznačn	-11.6081
▁automobilové	-11.6088
▁39	-11.609
▁vyjadřuj	-11.6093
▁Dole	-11.61
▁Obchod	-11.6103
▁opačné	-11.6124
▁William	-11.6129
▁nepřinesl	-11.6136
▁dramatické	-11.6142
▁příjemně	-11.6149
růstá	-11.6155
▁táhn	-11.6161
▁uvědomil	-11.6163
nikat	-11.6163
▁rozdílné	-11.6164
vědčí	-11.6166
▁proměnn	-11.6169
▁přírodovědeck	-11.6176
▁publika	-11.6177
▁Opti	-11.6179
dražil	-11.6181
▁útoků	-11.6183
▁světle	-11.6193
▁Tvrd	-11.62
▁vozidl	-11.62
▁souhlasil	-11.6201
▁Výrobc	-11.6204
▁Knih	-11.6205
▁kontinent	-11.6206
hodinový	-11.6213
▁period	-11.6213
obyčejně	-11.6213
▁terén	-11.6214
▁totožn	-11.6216
ality	-11.6216
▁leteck	-11.622
▁rock	-11.6223
▁zbytečný	-11.6224
evropský	-11.6228
čítat	-11.6228
▁závislost	-11.6232
▁knížk	-11.6234
▁zkušebn	-11.6237
▁nadějn	-11.6239
▁milost	-11.6239
tabulk	-11.6242
▁Václavské	-11.6242
▁uplatňuj	-11.6245
▁ryz	-11.6246
▁Významn	-11.6248
▁uvolni	-11.6248
▁vysílač	-11.6254
▁Dět	-11.626
▁zaplacen	-11.6261
▁infekc	-11.6262
▁Míst	-11.6265
členný	-11.6267
▁pedagogick	-11.6268
▁Brazíli	-11.6269
57	-11.6273
▁Způsob	-11.6274
▁rekordní	-11.6274
▁autorit	-11.6277
▁dvacát	-11.6278
máhat	-11.6281
▁Určit	-11.6282
rovnání	-11.6283
▁sediment	-11.6285
▁pořádají	-11.6287
▁penzi	-11.6288
erie	-11.6291
spektr	-11.6291
▁použije	-11.6292
přestává	-11.6295
svědčuje	-11.6295
▁šlecht	-11.6299
▁Lac	-11.63
▁komunik	-11.63
platila	-11.6301
▁rovnová	-11.6303
chybějí	-11.6305
▁komplikov	-11.6306
reprezenta	-11.6306
▁KSČ	-11.6308
▁Účast	-11.631
ntelektuál	-11.631
▁jednodušší	-11.6311
JPEG	-11.6311
sloučenin	-11.6311
čátcích	-11.6311
▁1983	-11.6311
▁Austrálie	-11.6311
▁Domnívám	-11.6311
▁FBIS	-11.6311
▁Hamburk	-11.6311
▁Harvard	-11.6311
▁Ludvík	-11.6311
▁Mitterrand	-11.6311
▁Návrat	-11.6311
▁Oldřich	-11.6311
▁Saúdsk	-11.6311
▁Vešker	-11.6311
▁WWW	-11.6311
▁bankovnictví	-11.6311
▁definice	-11.6311
▁deklaraci	-11.6311
▁důležitější	-11.6311
▁federaci	-11.6311
▁firmách	-11.6311
▁fungování	-11.6311
▁hardwarov	-11.6311
▁interiér	-11.6311
▁komentátor	-11.6311
▁konfigurace	-11.6311
▁konkurovat	-11.6311
▁kosmonaut	-11.6311
▁kvót	-11.6311
▁literatuře	-11.6311
▁marketingu	-11.6311
▁nenávist	-11.6311
▁nominaci	-11.6311
▁novotvary	-11.6311
▁nukleární	-11.6311
▁odpovědět	-11.6311
▁pneumatik	-11.6311
▁pojišťovnou	-11.6311
▁poptávku	-11.6311
▁problematice	-11.6311
▁prozradil	-11.6311
▁pseudo	-11.6311
▁předpovědi	-11.6311
▁předvánoční	-11.6311
▁přerozdělování	-11.6311
▁rekreaci	-11.6311
▁rozsáhlejší	-11.6311
▁rozvíjejí	-11.6311
▁rozčleněn	-11.6311
▁rubrice	-11.6311
▁seskupení	-11.6311
▁stěžovat	-11.6311
▁symplektick	-11.6311
▁tolerance	-11.6311
▁trénovat	-11.6311
▁vláken	-11.6311
▁vypráví	-11.6311
▁vyžadovat	-11.6311
▁východoevropský	-11.6311
▁zapomenout	-11.6311
▁zaručit	-11.6311
▁zavražděn	-11.6311
▁zodpovězen	-11.6311
▁zákulisí	-11.6311
▁Četrans	-11.6311
▁Maďarskem	-11.6311
▁Pistol	-11.6311
▁Vídeň	-11.6311
▁domorodc	-11.6311
▁infarkt	-11.6311
▁nacionalism	-11.6311
▁plošný	-11.6311
▁přihlášen	-11.6311
▁referát	-11.6311
▁rozvíjet	-11.6311
▁tiskáren	-11.6311
▁špatnou	-11.6311
▁kampaně	-11.6311
▁neškodn	-11.6311
▁osaměl	-11.6311
▁otazník	-11.6311
▁populaci	-11.6311
▁rozsudk	-11.6311
▁tendence	-11.6311
▁Právo	-11.6311
▁analytick	-11.6311
▁archiv	-11.6311
▁odvezl	-11.6311
▁povolební	-11.6311
▁cementárn	-11.6311
▁makléř	-11.6311
▁milimetr	-11.6311
▁uvítal	-11.6311
▁vzbudil	-11.6311
▁zjišťova	-11.6311
▁účinků	-11.6311
znamenají	-11.6311
▁mikrofon	-11.6311
▁pozměň	-11.6311
▁reagují	-11.6311
▁stráví	-11.6311
▁vyslovit	-11.6311
▁účinné	-11.6311
▁Francií	-11.6311
▁infikova	-11.6311
▁placentál	-11.6311
▁praktik	-11.6311
▁finalist	-11.6311
přízeň	-11.6311
▁Ctrl	-11.6311
▁Evans	-11.6311
▁Michel	-11.6311
▁ujistil	-11.6311
▁hospodaří	-11.6311
▁taxonomie	-11.6311
▁amatér	-11.6311
▁nabídek	-11.6311
▁podobnou	-11.6311
▁zastupuje	-11.6311
▁Kurzy	-11.6311
▁povstal	-11.6311
▁elementární	-11.6311
▁značku	-11.6311
▁biochemi	-11.6311
▁vybojoval	-11.6311
▁ustavující	-11.6311
▁aridní	-11.6311
▁fází	-11.6311
▁úložiště	-11.6311
▁pól	-11.6311
▁brazilsk	-11.6311
▁Pivovar	-11.6311
▁přehnan	-11.6311
▁tragick	-11.6311
▁Marián	-11.6311
▁Prokop	-11.6311
▁plastik	-11.6311
▁dřevěné	-11.6311
▁popředí	-11.6311
▁nazvané	-11.6311
▁desek	-11.6311
▁vystavuje	-11.6311
▁Jenom	-11.6311
▁přípustn	-11.6311
▁rozdělí	-11.6311
▁ovládací	-11.6311
▁vrstva	-11.6311
šňů	-11.6311
▁směřující	-11.6311
▁fixac	-11.6311
▁zánět	-11.6311
▁trasy	-11.6312
▁uplatňován	-11.6312
▁ČSD	-11.6312
▁robot	-11.6312
▁mediální	-11.6312
▁architektonick	-11.6312
▁Informace	-11.6312
▁oboustrann	-11.6312
▁funkčnost	-11.6312
▁jednostrann	-11.6312
▁učiní	-11.6312
▁komunikační	-11.6312
▁střídají	-11.6312
▁poušti	-11.6312
▁konsensus	-11.6312
▁Proces	-11.6312
▁komunit	-11.6312
▁1976	-11.6312
▁Soulu	-11.6312
▁Moravia	-11.6312
▁virus	-11.6312
▁češtiny	-11.6313
▁Super	-11.6313
▁Setkání	-11.6313
▁léčbu	-11.6313
▁profesi	-11.6313
▁holub	-11.6313
▁lázní	-11.6313
▁dotaci	-11.6313
▁Nechci	-11.6313
▁nepřesnost	-11.6313
▁bankrot	-11.6314
▁realizace	-11.6314
▁Značn	-11.6314
▁zimy	-11.6314
▁volající	-11.6314
▁Cítí	-11.6314
▁zabránil	-11.6314
▁fakticky	-11.6315
▁šipk	-11.6315
▁zničil	-11.6315
▁obstará	-11.6315
▁kameny	-11.6315
▁Irák	-11.6315
▁spotřeba	-11.6315
▁sníh	-11.6315
▁mezistátní	-11.6316
▁toxické	-11.6316
yplynulo	-11.6316
▁rekordman	-11.6317
▁slavnosti	-11.6317
▁vyprávěl	-11.6317
▁faul	-11.6317
▁touží	-11.6318
▁všední	-11.6318
▁nepamatuj	-11.6318
▁publikaci	-11.6318
▁hrazen	-11.6318
▁dvoudenní	-11.6319
▁kardinál	-11.632
▁hepatocytů	-11.632
▁Hleda	-11.6321
▁distribuční	-11.6322
▁nestátní	-11.6322
symetri	-11.6322
▁zajišťující	-11.6323
▁palubě	-11.6323
▁faktorem	-11.6323
▁desetkrát	-11.6323
▁konání	-11.6324
▁PŘÍ	-11.6324
▁vlasy	-11.6325
▁uheln	-11.6326
▁vyhodnocení	-11.6326
▁Vzá	-11.6326
▁ředitelství	-11.6326
1972	-11.6326
▁líčí	-11.6326
▁bál	-11.6326
▁vynutil	-11.6327
▁obchodovat	-11.6327
▁produkcí	-11.6327
▁cestách	-11.633
▁spektra	-11.633
▁řetězce	-11.633
▁altruismus	-11.6331
▁významnější	-11.6331
azeta	-11.6331
▁Lidový	-11.6332
▁Prag	-11.6332
▁přijatelná	-11.6333
▁červnov	-11.6333
▁umělci	-11.6335
▁pokrýt	-11.6336
▁evropskou	-11.6336
▁zatížení	-11.6336
▁výšky	-11.6337
přineslo	-11.6339
▁pozorovatelé	-11.6342
▁odsoudil	-11.6343
▁pořádek	-11.6344
▁Kladně	-11.6344
▁vysloužil	-11.6346
▁zvířecí	-11.6347
▁jednotlivce	-11.6348
▁pásmu	-11.6349
▁vyhrát	-11.635
▁předloží	-11.6351
▁dosáhne	-11.6353
▁různě	-11.6353
▁zelený	-11.6354
▁prokázat	-11.6355
▁cokoli	-11.6357
▁zmínil	-11.6357
▁zeď	-11.6359
▁nouze	-11.6359
▁přesností	-11.636
▁připraví	-11.636
▁vyřazení	-11.6362
▁pozoruhodné	-11.6362
▁zvolený	-11.6363
▁vydávat	-11.6363
▁sumu	-11.6365
▁podepsání	-11.6365
▁nedokáže	-11.6365
▁modelování	-11.6366
▁pevnin	-11.6369
▁nástupce	-11.637
256	-11.6371
ousek	-11.6372
▁vědce	-11.6372
▁výtvarník	-11.6373
▁Číně	-11.6373
▁matematické	-11.6378
▁Každé	-11.6379
▁analýze	-11.638
▁řádku	-11.638
▁jistotou	-11.6381
▁ekonomikou	-11.6383
▁vyloučeno	-11.6384
▁rozpočtový	-11.6385
▁krajině	-11.6389
▁vysílací	-11.639
▁technickou	-11.6392
nsen	-11.6397
▁pomst	-11.6397
▁přispívají	-11.6398
▁vložené	-11.6402
▁uzavřený	-11.6402
▁zoologick	-11.6403
▁Francouzský	-11.6404
▁předsedkyn	-11.6405
▁autobusem	-11.6408
▁zastává	-11.6409
dražit	-11.6412
▁soukromí	-11.6412
▁odstoupil	-11.6413
▁předkol	-11.6413
kontroluje	-11.6413
▁kalendářní	-11.6414
▁nuly	-11.6416
▁dopisů	-11.6418
▁Žád	-11.6418
▁optimismu	-11.6418
▁Šlo	-11.6423
▁sovět	-11.6426
▁krádež	-11.6428
▁válečný	-11.6428
alba	-11.6429
▁kurzů	-11.643
▁oceánické	-11.6434
▁vyloučení	-11.6434
▁obchodníky	-11.6435
▁Fakt	-11.6435
▁ránu	-11.6439
▁protějš	-11.6439
▁Stor	-11.6445
▁Začátk	-11.6445
▁filmař	-11.6445
▁diplomatický	-11.645
▁projevují	-11.6451
▁plen	-11.6453
▁opakuje	-11.6454
▁široký	-11.6456
▁zúčastněný	-11.6457
▁Historick	-11.6458
▁Kamen	-11.6459
▁Dob	-11.646
▁nád	-11.6464
▁síťové	-11.6467
▁pořádání	-11.6469
▁nepřímo	-11.6469
▁návratnost	-11.6471
▁výhodný	-11.6474
▁hormonů	-11.6476
▁autobusové	-11.6477
▁bránil	-11.6482
▁sestaven	-11.6499
▁horké	-11.65
▁citeln	-11.6504
▁dodavatelů	-11.6506
účel	-11.6506
▁přísné	-11.6512
živí	-11.6519
▁středoevropské	-11.6519
CK	-11.6521
děláme	-11.6544
šený	-11.6547
▁lekto	-11.6549
náze	-11.655
▁nedoved	-11.6551
▁krásný	-11.6553
▁Alan	-11.6558
▁přísn	-11.6558
▁Trh	-11.6564
ovité	-11.6565
▁magi	-11.6574
ALE	-11.6579
▁liga	-11.6593
▁bytový	-11.6603
▁dokonalý	-11.6612
▁pohybů	-11.6612
▁Vznikl	-11.6618
▁postaví	-11.662
▁Koš	-11.6636
konaly	-11.6639
▁odstupné	-11.6643
▁šťastný	-11.6651
▁maso	-11.6652
LET	-11.6669
▁lebk	-11.667
hradil	-11.6671
▁nacházel	-11.6673
▁Podpor	-11.6673
▁předák	-11.6681
▁Radnic	-11.6683
▁socialist	-11.6683
▁nedělá	-11.669
▁upravené	-11.6698
pravicov	-11.6699
operační	-11.6701
produkt	-11.6707
▁majetkové	-11.6709
panuje	-11.6712
1991	-11.6714
▁modifik	-11.6725
▁definovan	-11.6725
▁ukáz	-11.6725
▁Prac	-11.6725
▁4000	-11.6728
▁náboženský	-11.6731
jevit	-11.6733
▁špičkov	-11.6735
UM	-11.6738
▁královské	-11.6739
▁osazen	-11.6742
▁způsobeno	-11.6747
které	-11.6751
▁poradenské	-11.6752
▁vypracoval	-11.6754
avky	-11.6765
▁Mladiče	-11.6777
▁Americké	-11.6779
78	-11.678
▁velitele	-11.6782
pokládat	-11.6794
▁muslimsk	-11.6798
▁Osl	-11.6798
▁vytvořený	-11.6801
terak	-11.681
ařské	-11.6811
zkoumat	-11.682
značení	-11.682
▁Perské	-11.6841
▁Druh	-11.6845
▁slušný	-11.6846
▁vrácen	-11.6848
▁strašn	-11.6852
▁ovlivnil	-11.6853
▁Výkon	-11.6854
istického	-11.686
▁splněn	-11.6861
▁jakýkoli	-11.6872
▁podrobně	-11.6877
▁poplatník	-11.6891
▁Ren	-11.6898
▁nabízené	-11.6903
ůbec	-11.6907
poškozené	-11.6909
hraj	-11.6909
▁nemovitost	-11.6911
ladit	-11.6915
▁racionální	-11.6916
pracovala	-11.6916
▁Jih	-11.692
▁logik	-11.6933
▁charakterizova	-11.6935
▁propojen	-11.6942
stižen	-11.6946
▁spravedlnost	-11.6946
▁elektřin	-11.6948
▁architektur	-11.6956
▁myš	-11.6959
▁poskytován	-11.6959
▁ptá	-11.696
▁zklamán	-11.6963
▁pozorovatel	-11.6966
pracování	-11.6967
vydržel	-11.6967
léhá	-11.6968
▁Daně	-11.6971
gramů	-11.6973
▁Pardubic	-11.6975
▁srovnateln	-11.6978
▁učit	-11.6981
▁honorář	-11.6982
▁bilanc	-11.6984
▁úředn	-11.6984
▁62	-11.6985
▁Víc	-11.6988
▁doporučen	-11.699
▁fundamentalist	-11.6994
▁53	-11.6996
NG	-11.6996
▁zpracováva	-11.6997
▁kilogram	-11.6999
ifikace	-11.7
bitový	-11.7001
ontrol	-11.7003
rovné	-11.7003
▁překonal	-11.701
▁stanovis	-11.7011
▁průvod	-11.7011
▁psy	-11.7013
▁tržb	-11.7016
ND	-11.7017
▁kořen	-11.7019
▁účinku	-11.7024
glaciál	-11.7025
▁Pálffy	-11.7025
▁1979	-11.7025
▁Akademie	-11.7025
▁Delphi	-11.7025
▁Hospodářsk	-11.7025
▁Muslim	-11.7025
▁Vynikající	-11.7025
▁Zdravotn	-11.7025
▁bulharsk	-11.7025
▁delegát	-11.7025
▁finálové	-11.7025
▁kanalizací	-11.7025
▁konstantní	-11.7025
▁olomoucké	-11.7025
▁paradigma	-11.7025
▁pojišťovně	-11.7025
▁pořizovací	-11.7025
▁radikálně	-11.7025
▁velvyslanec	-11.7025
▁vídeňské	-11.7025
ýpovědní	-11.7025
▁Albertville	-11.7025
▁Bratislavy	-11.7025
▁Digital	-11.7025
▁General	-11.7025
▁Kuvajt	-11.7025
▁Netanjahu	-11.7025
▁Princip	-11.7025
▁Reichel	-11.7025
▁SPIRIT	-11.7025
▁TWA	-11.7025
▁Teplice	-11.7025
▁akcionáře	-11.7025
▁brožur	-11.7025
▁ceremoniál	-11.7025
▁databáze	-11.7025
▁databázi	-11.7025
▁diktátor	-11.7025
▁dodržovat	-11.7025
▁drůbež	-11.7025
▁dveřmi	-11.7025
▁havárii	-11.7025
▁inzulín	-11.7025
▁katalyzátor	-11.7025
▁kazašsk	-11.7025
▁komedie	-11.7025
▁komisař	-11.7025
▁kompetencí	-11.7025
▁lehký	-11.7025
▁lidstvo	-11.7025
▁milisekund	-11.7025
▁nechybí	-11.7025
▁nosorožců	-11.7025
▁novorozen	-11.7025
▁odpolední	-11.7025
▁ofsajd	-11.7025
▁organismy	-11.7025
▁paměť	-11.7025
▁podezřelý	-11.7025
▁pojišťoven	-11.7025
▁portfeje	-11.7025
▁poštovní	-11.7025
▁prospěšn	-11.7025
▁pátku	-11.7025
▁překonání	-11.7025
▁přísluší	-11.7025
▁raketoplán	-11.7025
▁severozápad	-11.7025
▁sféře	-11.7025
▁splátek	-11.7025
▁stadiu	-11.7025
▁stěžuje	-11.7025
▁thajské	-11.7025
▁těhotenství	-11.7025
▁vlhkost	-11.7025
▁vrtulník	-11.7025
▁vyzkoušel	-11.7025
▁vyčerpán	-11.7025
▁zahájit	-11.7025
▁zajišťoval	-11.7025
▁zakázek	-11.7025
▁zaručuje	-11.7025
▁zdůraznit	-11.7025
▁zneužívání	-11.7025
▁zpracovává	-11.7025
▁záruční	-11.7025
▁zázračn	-11.7025
▁Černomyrdin	-11.7025
▁železnice	-11.7025
▁KGB	-11.7025
▁Němce	-11.7025
▁emitent	-11.7025
▁holding	-11.7025
▁injekc	-11.7025
▁komodit	-11.7025
▁nesrovnateln	-11.7025
▁omezit	-11.7025
▁pohodlné	-11.7025
▁poválečn	-11.7025
▁prodluž	-11.7025
▁tekutin	-11.7025
▁zopakoval	-11.7025
▁účinnou	-11.7025
▁Československý	-11.7025
▁Dokument	-11.7025
▁SGI	-11.7025
▁Student	-11.7025
▁informuje	-11.7025
▁lahví	-11.7025
▁málokdo	-11.7025
▁obyvatelstvo	-11.7025
▁smířit	-11.7025
▁trénuj	-11.7025
▁kolegové	-11.7025
▁kultuře	-11.7025
▁vyústi	-11.7025
▁Zajímal	-11.7025
▁Západoevropsk	-11.7025
▁odstavec	-11.7025
▁přeplněn	-11.7025
▁chystají	-11.7025
▁nejblíže	-11.7025
▁rozsáhlou	-11.7025
▁James	-11.7025
▁polymer	-11.7025
▁svrchované	-11.7025
▁železné	-11.7025
▁dávek	-11.7025
▁podepsat	-11.7025
▁sloučení	-11.7025
▁srbské	-11.7025
▁zařadit	-11.7025
▁umírněn	-11.7025
▁vzdělan	-11.7025
▁netrpěliv	-11.7025
▁někomu	-11.7025
▁nikomu	-11.7025
▁Holandsk	-11.7025
▁Automatick	-11.7025
▁Prahou	-11.7025
▁nepodaří	-11.7025
▁tvořiv	-11.7025
▁loupež	-11.7025
▁odhalit	-11.7025
LSNS	-11.7025
▁Kadlec	-11.7025
▁podporoval	-11.7025
▁Mlýn	-11.7025
▁poznámky	-11.7025
▁mutací	-11.7025
▁dědeček	-11.7025
▁oběhové	-11.7025
▁Louis	-11.7025
▁Fuchs	-11.7025
▁přetížen	-11.7025
▁FMV	-11.7025
▁prováděl	-11.7025
▁úchyt	-11.7025
běhnout	-11.7025
▁Zpráv	-11.7025
▁něčeho	-11.7025
▁nedaleké	-11.7025
▁odvážn	-11.7025
▁stromeček	-11.7025
▁chleba	-11.7025
▁PET	-11.7025
▁modré	-11.7025
▁nemocné	-11.7025
▁vybudoval	-11.7025
▁Front	-11.7025
▁Bohuslav	-11.7025
▁fotografií	-11.7025
▁stereo	-11.7025
▁mocenské	-11.7025
▁Účastníci	-11.7025
opouštěl	-11.7026
▁příloh	-11.7026
▁formálně	-11.7026
▁hokejistů	-11.7026
▁legendární	-11.7026
▁Suková	-11.7026
▁Týden	-11.7026
▁Život	-11.7026
▁Kouba	-11.7026
▁Opava	-11.7026
hánějí	-11.7026
▁kamión	-11.7026
▁účinnější	-11.7026
▁kapsy	-11.7026
▁dovážen	-11.7026
▁implantát	-11.7026
▁kopií	-11.7026
▁nejsme	-11.7026
▁lehko	-11.7026
▁vyhořelé	-11.7026
▁lákav	-11.7026
▁transport	-11.7026
▁Bartoš	-11.7027
▁Samotn	-11.7027
▁usedl	-11.7027
▁pojmu	-11.7027
▁Ježek	-11.7027
▁nazvat	-11.7027
▁zmizí	-11.7027
▁Následující	-11.7027
▁metan	-11.7027
▁adaptace	-11.7027
▁Zápas	-11.7027
▁Španělsku	-11.7027
▁Zvýšen	-11.7027
▁princ	-11.7027
▁hlučn	-11.7027
▁písmo	-11.7027
hrádk	-11.7027
▁neuron	-11.7027
▁výsad	-11.7028
▁jinam	-11.7028
▁únosn	-11.7028
▁nikam	-11.7028
▁jízdenk	-11.7028
▁vejce	-11.7028
▁1970	-11.7028
▁Hledá	-11.7028
▁ležel	-11.7028
▁rovný	-11.7028
▁zády	-11.7029
▁Klasick	-11.7029
▁neznají	-11.7029
▁nereáln	-11.7029
▁registrační	-11.7029
▁štědr	-11.7029
▁Přírod	-11.7029
▁stimulaci	-11.7029
▁oblouk	-11.7029
▁topení	-11.7029
▁hraček	-11.7029
▁protestant	-11.7029
▁třídenní	-11.703
▁ultra	-11.703
▁nosič	-11.703
▁Obavy	-11.703
▁nikde	-11.703
▁vyzkoušet	-11.703
▁Jaw	-11.703
▁vyhledávání	-11.703
▁umělců	-11.7031
▁bohatší	-11.7031
▁Obraz	-11.7031
▁zranil	-11.7031
▁pískov	-11.7031
▁odezv	-11.7031
▁lékařství	-11.7031
▁Januš	-11.7031
▁republikánsk	-11.7032
▁nájezd	-11.7032
▁kouření	-11.7032
▁sněmu	-11.7032
vážil	-11.7033
▁Jágr	-11.7033
▁Přenos	-11.7033
▁stanovisku	-11.7033
▁koncept	-11.7033
▁články	-11.7033
▁nádrž	-11.7034
▁starat	-11.7034
▁inteligence	-11.7034
▁odnětí	-11.7034
▁Kováč	-11.7035
▁koncepčn	-11.7035
▁odnesl	-11.7035
vracení	-11.7035
▁Stef	-11.7035
▁kras	-11.7036
▁odstoupení	-11.7036
▁pitné	-11.7036
▁potká	-11.7037
▁produkuj	-11.7037
▁posílit	-11.7038
▁zkoumání	-11.7039
▁způsobilosti	-11.7039
▁Místopředsed	-11.704
▁sloves	-11.7041
▁Bohu	-11.7041
▁řadič	-11.7041
▁602	-11.7042
▁vracel	-11.7042
▁Horák	-11.7042
▁Dostál	-11.7043
▁dostání	-11.7044
▁přenáší	-11.7044
▁zelené	-11.7044
▁okně	-11.7044
▁Esc	-11.7044
▁manželkou	-11.7045
▁Snah	-11.7046
▁palet	-11.7046
▁jasná	-11.7046
▁sešla	-11.7046
▁oběť	-11.7047
▁deska	-11.7048
▁deště	-11.7048
▁Boha	-11.7049
▁spolupracuje	-11.7049
▁ČESK	-11.705
▁vyplacen	-11.7051
▁vyrazil	-11.7051
uživatelské	-11.7052
▁stížností	-11.7053
▁šancí	-11.7055
▁odhalení	-11.7056
▁novinky	-11.7056
▁Dvou	-11.7057
▁France	-11.7058
▁Park	-11.7059
▁neplatn	-11.7059
▁pětatřicet	-11.7061
▁ordinace	-11.7061
▁hromadn	-11.7063
▁neuvažuje	-11.7063
▁nehraje	-11.7064
▁Mnichově	-11.7064
Edit	-11.7064
▁nedají	-11.7065
▁protín	-11.7066
▁Clintonová	-11.7066
▁honoráře	-11.7068
▁plánuje	-11.7068
▁skoky	-11.7068
▁křesťanské	-11.7068
▁terč	-11.7069
▁stručně	-11.707
▁odletěl	-11.707
▁Čína	-11.707
▁rozměry	-11.7073
▁Indián	-11.7073
▁kříže	-11.7074
▁basketbalist	-11.7075
▁sochař	-11.7076
▁směsi	-11.7076
▁představovat	-11.7077
▁koncov	-11.7078
extrémně	-11.7078
▁Open	-11.7078
▁zdálo	-11.708
▁principů	-11.708
▁výměně	-11.7081
▁regionů	-11.7081
▁dostanete	-11.7082
▁říční	-11.7082
▁vzdálený	-11.7083
▁známky	-11.7084
▁bodech	-11.7084
četné	-11.7086
▁nechut	-11.7087
▁činitelé	-11.7087
▁Hut	-11.7087
▁zklamání	-11.7087
▁věcech	-11.7088
▁výměnou	-11.7092
▁zájezdů	-11.7095
▁prodejen	-11.7098
▁ponechal	-11.7098
tvrze	-11.7099
▁následné	-11.7099
▁jednorázové	-11.71
▁vyrůst	-11.7101
▁teroristický	-11.7101
formulovat	-11.7104
▁zakládání	-11.7105
▁buněčné	-11.7106
▁většinový	-11.7107
▁kostele	-11.7108
▁stáj	-11.7109
▁Výborný	-11.7109
▁ropy	-11.7111
▁cla	-11.7112
▁zmiňuj	-11.7113
▁technic	-11.7113
▁atletické	-11.7113
▁kolena	-11.7118
▁angl	-11.7123
▁Dovol	-11.7125
malý	-11.713
MW	-11.713
smluvně	-11.7133
point	-11.7135
▁doplňují	-11.7135
▁čerstv	-11.7135
▁kostr	-11.7141
▁Adam	-11.7141
▁Ročn	-11.7149
▁funkcionářů	-11.715
▁psací	-11.7151
▁drsn	-11.7152
▁Střední	-11.7154
▁skrz	-11.7156
▁skutečn	-11.7165
[...]
