<unk>	0
<s>	0
</s>	0
<doc>	0
</doc>	0
<head>	0
</head>	0
<phr>	0
</phr>	0
▁	-1.77893
,	-3.41106
.	-3.54953
u	-4.43581
a	-4.45505
▁a	-4.49202
▁v	-4.52369
m	-4.62625
▁se	-4.63875
y	-4.72064
▁na	-4.72329
i	-4.73156
ch	-4.94396
▁je	-5.17331
▁s	-5.26488
▁z	-5.26792
ho	-5.31894
o	-5.34497
▁"	-5.36332
á	-5.3948
e	-5.40372
▁že	-5.42685
s	-5.44574
í	-5.52402
▁do	-5.58466
▁o	-5.61755
t	-5.62482
ou	-5.6659
ě	-5.69975
em	-5.70026
é	-5.70232
ů	-5.72397
▁za	-5.724
▁pro	-5.76446
▁po	-5.76473
ž	-5.88378
▁-	-5.94622
▁k	-5.98435
to	-5.99925
▁V	-6.04008
z	-6.06883
▁to	-6.11978
▁ve	-6.15349
▁(	-6.16749
mi	-6.18205
ní	-6.21319
ý	-6.2255
▁by	-6.27019
▁od	-6.27987
d	-6.27997
p	-6.2801
l	-6.31933
▁i	-6.32995
v	-6.33312
▁ale	-6.36688
>	-6.38191
ně	-6.38773
k	-6.38907
▁při	-6.43162
r	-6.44799
▁ne	-6.46401
▁si	-6.46602
▁S	-6.47069
ce	-6.51353
▁vy	-6.53911
ých	-6.54146
▁jsou	-6.55733
▁jako	-6.57498
na	-6.5822
▁které	-6.60831
te	-6.63715
b	-6.64526
me	-6.65975
)	-6.67225
li	-6.6728
▁však	-6.68659
ka	-6.70497
▁:	-6.72697
▁tak	-6.73071
la	-6.74682
x	-6.78449
ku	-6.78786
né	-6.79753
▁Po	-6.80116
▁který	-6.80274
ná	-6.80444
č	-6.8246
le	-6.83046
ci	-6.84972
▁nebo	-6.86866
▁před	-6.87431
▁jeho	-6.89225
▁A	-6.89912
▁bude	-6.90147
n	-6.91202
?	-6.92745
ové	-6.93078
▁jen	-6.96694
lo	-6.97226
š	-6.98659
st	-6.98671
it	-6.99392
▁Z	-6.99629
j	-7.00006
ky	-7.01476
▁Na	-7.03743
ého	-7.04082
c	-7.04352
▁než	-7.04614
▁má	-7.05111
h	-7.05381
mu	-7.05506
uje	-7.09693
▁už	-7.09722
▁aby	-7.13023
▁jak	-7.14614
▁byl	-7.15503
ech	-7.16397
▁jejich	-7.16542
ovat	-7.17518
▁jsem	-7.17877
▁být	-7.18092
▁P	-7.19368
▁až	-7.19876
▁O	-7.19951
ří	-7.20588
nou	-7.20904
ni	-7.21946
▁Je	-7.22215
▁která	-7.22587
▁také	-7.23296
ek	-7.25277
▁podle	-7.25959
▁K	-7.26021
▁jsme	-7.26554
▁pře	-7.26682
vá	-7.27399
▁<	-7.27694
in	-7.27853
en	-7.2834
g	-7.28609
cí	-7.31321
f	-7.31352
ře	-7.31631
▁ze	-7.32483
no	-7.32646
ová	-7.33191
al	-7.3334
že	-7.34209
ze	-7.35839
▁co	-7.36713
▁mezi	-7.39651
▁není	-7.40045
ým	-7.40492
jí	-7.4225
ný	-7.42425
▁bylo	-7.43245
po	-7.43254
il	-7.44013
▁své	-7.44746
▁ani	-7.44908
▁či	-7.45572
▁ještě	-7.4598
ra	-7.46154
▁již	-7.46859
ta	-7.47013
▁let	-7.47804
▁když	-7.48051
▁může	-7.491
ti	-7.49328
▁korun	-7.50426
ování	-7.50702
▁Ne	-7.51009
▁byla	-7.51359
kud	-7.5232
ko	-7.52628
▁toho	-7.53078
ne	-7.53474
▁pod	-7.53867
/	-7.54555
ách	-7.55351
ro	-7.55475
ské	-7.56185
vě	-7.57398
▁roz	-7.57766
on	-7.58142
lu	-7.59128
).	-7.59271
ř	-7.59498
ru	-7.59552
▁pak	-7.6015
ň	-7.60434
▁To	-7.60867
pl	-7.61494
▁další	-7.61692
▁bez	-7.62251
ost	-7.62759
ují	-7.62938
va	-7.63082
▁M	-7.63194
▁kteří	-7.6366
ných	-7.64098
▁kde	-7.64099
ových	-7.64192
▁tím	-7.64803
ov	-7.6706
▁více	-7.67415
▁U	-7.69319
čí	-7.69323
▁té	-7.6961
▁tedy	-7.69965
▁první	-7.70265
▁roku	-7.70321
▁H	-7.71337
da	-7.71939
ům	-7.72107
ři	-7.72782
▁Do	-7.73694
kou	-7.73759
▁D	-7.7443
ma	-7.74801
▁J	-7.74879
▁nich	-7.74928
▁ob	-7.75058
vý	-7.75467
),	-7.75708
el	-7.76082
▁I	-7.77234
or	-7.77846
▁Za	-7.78097
če	-7.78425
ovi	-7.78711
S	-7.78746
▁mají	-7.79513
ba	-7.79523
▁Pro	-7.81486
▁kdy	-7.81555
ví	-7.81585
▁proti	-7.81662
lá	-7.81852
ny	-7.82152
▁tu	-7.83315
▁roce	-7.84335
▁pouze	-7.84599
-	-7.84645
▁musí	-7.8479
at	-7.85352
děl	-7.8622
▁tom	-7.86672
▁proto	-7.87551
nu	-7.87695
je	-7.87886
▁tomu	-7.88217
cích	-7.8867
▁ke	-7.8977
▁budou	-7.91362
▁nad	-7.91405
▁třeba	-7.9241
lí	-7.927
ly	-7.93163
▁protože	-7.93739
ri	-7.9375
vol	-7.93756
▁li	-7.93821
▁totiž	-7.94463
er	-7.95437
▁nás	-7.95482
▁přes	-7.95608
tu	-7.96425
se	-7.96811
▁lze	-7.96852
▁nej	-7.96933
tr	-7.97443
M	-7.98055
▁G	-7.98114
▁asi	-7.98225
tě	-7.98267
▁vlastní	-7.98295
de	-7.98461
vi	-7.99069
hr	-7.99412
ním	-8.00175
ného	-8.00175
▁její	-8.00452
re	-8.00549
D	-8.00641
či	-8.00712
▁F	-8.01038
▁B	-8.01118
▁poslední	-8.01152
osti	-8.01271
oval	-8.01511
▁Při	-8.01783
▁byly	-8.01887
▁velmi	-8.01927
▁měl	-8.01989
ty	-8.02088
▁zatím	-8.02502
ový	-8.0263
kr	-8.02661
▁řekl	-8.0286
▁T	-8.04312
ha	-8.04598
du	-8.05244
co	-8.05484
P	-8.05899
ém	-8.05996
▁včera	-8.07214
▁tisíc	-8.07732
nost	-8.07809
ká	-8.08229
ší	-8.08463
od	-8.08752
an	-8.09231
6	-8.10287
▁ji	-8.1035
▁L	-8.1092
by	-8.11116
▁dnes	-8.11294
▁všech	-8.11358
ry	-8.11928
T	-8.1211
ků	-8.12299
5	-8.12347
ově	-8.12413
še	-8.1256
▁firmy	-8.12615
▁dva	-8.13519
N	-8.13773
▁ú	-8.14586
▁především	-8.14928
▁ty	-8.15098
ská	-8.15229
ovou	-8.15361
2	-8.1622
▁nám	-8.16795
▁Ko	-8.16974
si	-8.1712
▁případě	-8.174
▁Ve	-8.1814
▁'	-8.1828
ami	-8.18317
▁například	-8.19048
3	-8.19304
ních	-8.1936
▁dvou	-8.19474
▁procent	-8.20038
za	-8.20078
ového	-8.20176
▁Podl	-8.20302
▁Co	-8.20553
▁mít	-8.20589
▁rok	-8.2128
bu	-8.21493
R	-8.21963
▁tři	-8.22128
▁době	-8.22186
▁Jak	-8.22279
▁nyní	-8.22303
ích	-8.22516
K	-8.22535
ši	-8.23103
tá	-8.23222
ží	-8.23359
ace	-8.23545
4	-8.23602
ve	-8.23647
▁C	-8.24771
is	-8.25001
pr	-8.2543
us	-8.25663
dí	-8.2687
▁lidí	-8.27291
▁jim	-8.2736
▁společnosti	-8.27513
B	-8.27594
▁práce	-8.27664
▁jeden	-8.27831
▁mohou	-8.27923
právě	-8.27973
tra	-8.28198
▁zda	-8.28211
▁stále	-8.28267
nější	-8.28498
kem	-8.28668
▁těchto	-8.28881
dr	-8.28994
▁ovšem	-8.29008
▁všechny	-8.29282
spo	-8.29533
ský	-8.29721
hl	-8.30345
ám	-8.30357
7	-8.30603
ení	-8.30941
▁několik	-8.31479
▁de	-8.31492
I	-8.31797
ských	-8.3191
C	-8.32009
▁Ale	-8.32043
ným	-8.32176
kon	-8.32505
1	-8.32731
ců	-8.32805
ými	-8.32913
▁něm	-8.32915
▁kterou	-8.33387
...	-8.33422
▁což	-8.33947
▁větší	-8.35059
ar	-8.35356
lé	-8.35471
▁tento	-8.36186
V	-8.36474
ského	-8.36541
ec	-8.37028
▁možné	-8.3846
▁jednání	-8.38521
▁České	-8.39664
▁R	-8.39912
ím	-8.39938
▁dalších	-8.4052
ť	-8.40868
▁mě	-8.40987
▁Od	-8.40993
ující	-8.41106
cela	-8.41169
pra	-8.41193
nosti	-8.41475
▁nové	-8.41496
L	-8.42078
▁naše	-8.42955
▁ČR	-8.43038
▁měla	-8.43117
▁kdo	-8.43217
aci	-8.43234
stav	-8.43558
ova	-8.43655
▁Praze	-8.43805
pa	-8.43865
ální	-8.43995
dy	-8.44005
ické	-8.44233
pe	-8.44336
▁zejména	-8.44396
▁Š	-8.44412
téměř	-8.4475
▁základní	-8.4486
ila	-8.45038
fi	-8.45113
▁jde	-8.45162
▁zařízení	-8.45194
▁svou	-8.45442
ili	-8.4611
tí	-8.46302
ční	-8.46516
▁10	-8.46684
▁W	-8.46697
w	-8.46708
ur	-8.47168
▁Proto	-8.4723
O	-8.47382
▁strany	-8.47474
▁část	-8.47731
ter	-8.47809
br	-8.48094
ot	-8.48295
et	-8.48648
▁nez	-8.48683
os	-8.487
▁možnost	-8.48746
▁naši	-8.48997
▁prostředí	-8.49193
vr	-8.49295
0	-8.49297
str	-8.49561
zí	-8.49609
vo	-8.49685
▁letech	-8.49967
ob	-8.49999
val	-8.50056
ol	-8.50228
▁sice	-8.50539
▁stát	-8.50565
lou	-8.50836
▁dvě	-8.5087
▁Kdy	-8.50901
▁svého	-8.51169
ji	-8.51217
A	-8.51293
vod	-8.51334
hu	-8.51461
▁re	-8.51783
▁každý	-8.51821
8	-8.52187
▁svých	-8.52299
▁jiné	-8.52525
lit	-8.52677
▁Vy	-8.52895
▁pří	-8.53185
9	-8.53194
▁3	-8.53256
▁nejen	-8.53544
ing	-8.53704
ští	-8.53902
sti	-8.5502
▁místo	-8.55136
▁země	-8.55202
▁zákon	-8.55521
vy	-8.55725
▁uvedl	-8.56167
▁světa	-8.56535
▁tomto	-8.5656
ované	-8.57302
ají	-8.57875
▁Tak	-8.57897
▁19	-8.58282
▁druhé	-8.58496
U	-8.58797
▁E	-8.59118
▁neu	-8.59642
▁čas	-8.59866
ání	-8.59879
▁000	-8.5994
▁zde	-8.60085
let	-8.60139
es	-8.60267
▁milionů	-8.60301
ič	-8.60511
▁systém	-8.60769
▁svět	-8.60896
▁nepo	-8.61004
Á	-8.61211
E	-8.61349
▁sociální	-8.61489
▁něco	-8.6154
▁vlády	-8.61618
▁svým	-8.61845
▁nic	-8.621
▁kon	-8.62348
ant	-8.63001
▁stejně	-8.63169
ační	-8.63252
▁říká	-8.63421
▁N	-8.63513
Z	-8.6452
▁kolem	-8.64709
▁některé	-8.64723
nout	-8.65011
man	-8.65293
op	-8.65358
▁ceny	-8.65439
▁nevy	-8.66107
▁zákona	-8.66281
▁zboží	-8.66282
▁tam	-8.6648
sp	-8.66548
há	-8.66562
gr	-8.66671
ček	-8.66927
vat	-8.66996
▁Jan	-8.67006
bě	-8.67112
ací	-8.67155
▁pracovní	-8.67481
▁oblasti	-8.68195
ovali	-8.685
▁dobře	-8.68732
▁příliš	-8.68799
▁patří	-8.68949
pat	-8.6909
▁1	-8.69299
▁několika	-8.69317
▁finanční	-8.69422
▁program	-8.69523
▁svůj	-8.69611
▁dosud	-8.69619
ú	-8.69814
▁4	-8.69893
▁některých	-8.69989
▁práci	-8.70291
▁firma	-8.70631
▁zemí	-8.7071
sta	-8.70759
F	-8.708
▁mu	-8.71
sk	-8.71127
ga	-8.71653
▁vůbec	-8.71715
▁opět	-8.71988
▁byli	-8.72011
nik	-8.72859
▁vždy	-8.72887
▁2	-8.73071
▁osob	-8.73363
▁období	-8.73404
▁ten	-8.73424
▁5	-8.73724
▁neboť	-8.74257
▁Bo	-8.75081
ven	-8.75208
▁obchodní	-8.75266
00	-8.75401
▁sto	-8.75541
▁zahraniční	-8.75576
ali	-8.7564
▁Te	-8.75666
skou	-8.75789
▁velký	-8.75897
▁Ma	-8.76745
nov	-8.76841
ste	-8.76874
ství	-8.77115
ovací	-8.77202
as	-8.77403
stup	-8.77478
▁pět	-8.77682
▁nejsou	-8.77717
án	-8.77776
▁prezident	-8.77856
▁střední	-8.78015
▁často	-8.78018
sku	-8.7804
▁vyšší	-8.78202
ního	-8.78255
▁Ch	-8.78519
▁hodin	-8.78666
▁nemá	-8.78891
▁půl	-8.79466
▁systému	-8.79504
▁%	-8.79589
▁jež	-8.79846
▁dokonce	-8.79941
▁USA	-8.7995
▁jste	-8.80332
▁vše	-8.80494
čka	-8.80533
ul	-8.806
▁přímo	-8.80699
▁jedn	-8.80761
▁nedo	-8.8082
ější	-8.81084
▁společnost	-8.81324
%	-8.81382
▁měli	-8.81723
▁čtyři	-8.81775
mat	-8.81778
▁sám	-8.81867
zn	-8.81888
▁sebe	-8.82279
▁Kč	-8.82334
ice	-8.82441
ev	-8.82557
▁Re	-8.82563
▁lidé	-8.82624
▁ředitel	-8.82692
pis	-8.82769
▁celé	-8.82784
▁Ta	-8.82945
té	-8.8297
▁Js	-8.82993
▁části	-8.83039
men	-8.83084
ad	-8.83282
▁Ro	-8.83392
▁doby	-8.83445
▁den	-8.83517
▁nebude	-8.83553
▁postup	-8.83629
během	-8.83654
▁rovněž	-8.84159
klad	-8.8428
▁snad	-8.8434
▁6	-8.84375
ovým	-8.84499
▁níž	-8.84706
žen	-8.84724
▁informace	-8.84941
▁1992	-8.85156
▁trhu	-8.8516
▁Mo	-8.85229
▁Ty	-8.85356
do	-8.85371
▁vám	-8.85451
ovala	-8.85583
▁První	-8.85741
▁nimi	-8.85768
▁počet	-8.85785
nit	-8.85866
vůli	-8.8622
ik	-8.86331
včetně	-8.86538
▁tří	-8.86718
zřejmě	-8.86788
▁situace	-8.86933
▁takže	-8.87089
▁soud	-8.87093
▁život	-8.87113
▁Se	-8.8748
mluv	-8.87519
▁neza	-8.87615
▁mohl	-8.87687
▁zahraničí	-8.87741
rt	-8.87794
kové	-8.8803
▁životní	-8.88052
kl	-8.88066
kov	-8.88422
form	-8.88582
tato	-8.88639
▁Před	-8.88728
ník	-8.89214
cen	-8.89289
▁návrh	-8.8936
▁méně	-8.89876
▁např	-8.90139
▁jedna	-8.90237
▁nes	-8.90243
▁ministr	-8.90277
▁mnoho	-8.90335
▁Pa	-8.90406
▁současné	-8.90407
▁státní	-8.90479
▁Evropy	-8.90622
▁peníze	-8.90622
ber	-8.90666
▁řešení	-8.90679
per	-8.91103
▁takové	-8.91167
▁víc	-8.91477
▁Zatím	-8.91482
rů	-8.91927
▁něj	-8.91988
▁stav	-8.92167
▁chce	-8.92527
▁největší	-8.92567
▁způsobem	-8.92608
ed	-8.92644
:	-8.92969
▁velké	-8.93088
rad	-8.93124
▁člověk	-8.93283
▁spolu	-8.93499
▁spíše	-8.936
ud	-8.93678
▁české	-8.93775
▁dále	-8.93821
▁republiky	-8.93849
ák	-8.94022
▁pa	-8.94388
▁dost	-8.94401
▁rozdíl	-8.94443
▁mezinárodní	-8.94672
▁navíc	-8.94889
▁přitom	-8.94931
▁rozhodnutí	-8.94957
▁jednotlivý	-8.95232
▁dobu	-8.95297
▁znamená	-8.95592
▁vlastně	-8.95801
▁šest	-8.95984
▁problémy	-8.96126
▁jednoho	-8.96201
▁mimo	-8.96233
up	-8.96412
▁naopak	-8.96647
▁plán	-8.96685
▁15	-8.967
hled	-8.96775
▁di	-8.96825
▁množství	-8.97092
H	-8.97308
ck	-8.97511
▁chyb	-8.9769
▁naší	-8.9848
krát	-8.98485
▁zájem	-8.98589
jde	-8.98638
▁letošní	-8.98764
▁Tr	-8.98944
▁skutečně	-8.99006
▁města	-8.99069
▁Petr	-8.99115
jší	-8.99129
▁20	-8.99355
▁výkon	-8.99368
bou	-8.99567
id	-8.99604
▁straně	-8.99652
▁většinou	-8.99799
▁znovu	-8.99809
vedl	-9.00231
nice	-9.00256
▁zhruba	-9.0032
▁1.	-9.0094
▁dlouho	-9.01166
▁pan	-9.01173
les	-9.01277
nes	-9.01822
▁vláda	-9.01876
ón	-9.01881
▁řízení	-9.02101
▁území	-9.02114
ném	-9.02367
▁jej	-9.02466
rod	-9.02504
▁Ob	-9.0252
▁Jiří	-9.02585
▁jiných	-9.02602
▁platí	-9.02652
▁podíl	-9.02689
ář	-9.03053
▁minut	-9.03065
▁celý	-9.03065
▁obchod	-9.03094
▁nelze	-9.03096
▁zase	-9.03511
▁začal	-9.03657
▁bych	-9.03841
▁způsob	-9.03941
nt	-9.04094
pro	-9.04138
▁Ka	-9.04197
▁St	-9.04382
mysl	-9.04389
▁letos	-9.04601
ském	-9.04908
▁smlouvy	-9.04964
▁Li	-9.04972
▁tzv	-9.04998
▁dolarů	-9.05028
Í	-9.05113
▁cen	-9.05226
▁vedoucí	-9.05496
čin	-9.05578
▁bo	-9.05875
▁pěti	-9.05893
▁problém	-9.06067
▁Le	-9.06161
olog	-9.06227
▁Václav	-9.06228
▁jedné	-9.0638
▁pomocí	-9.06707
▁deset	-9.06764
▁lepší	-9.06912
▁trh	-9.0698
hy	-9.07202
sko	-9.07458
álně	-9.07479
▁Byl	-9.07586
▁obě	-9.07647
nění	-9.0765
▁roky	-9.07651
▁činnosti	-9.07738
ován	-9.07873
▁prohlásil	-9.08009
▁třetí	-9.08119
vede	-9.08215
ran	-9.08227
lin	-9.08515
vní	-9.08659
▁znám	-9.08676
▁Přesto	-9.09009
kla	-9.0907
▁moc	-9.09279
hal	-9.09303
▁Další	-9.09402
dle	-9.09495
▁vás	-9.0953
koli	-9.09556
▁jednou	-9.09565
▁málo	-9.09623
ir	-9.09819
▁světě	-9.09943
▁různých	-9.09943
ovaných	-9.10312
ště	-9.10341
▁později	-9.10413
▁americké	-9.10436
rán	-9.10534
▁hlavní	-9.1055
▁Pod	-9.10552
čení	-9.10577
▁konce	-9.10679
▁nemůže	-9.11335
iště	-9.11372
▁státu	-9.11534
▁můžete	-9.11602
ač	-9.11753
▁vedení	-9.11835
▁30	-9.1185
▁zdravotní	-9.11949
▁ČSFR	-9.11949
▁menší	-9.11957
▁Č	-9.12039
▁provoz	-9.12314
tek	-9.12324
▁bývalé	-9.12466
jezd	-9.12594
šlo	-9.12597
▁programu	-9.12733
▁člověka	-9.12838
▁Evropě	-9.12988
▁Pří	-9.12993
iny	-9.13099
▁jedno	-9.13155
▁prodej	-9.13432
▁století	-9.13512
dob	-9.1353
▁podniku	-9.13569
▁skupiny	-9.13728
▁řád	-9.13739
▁tým	-9.13746
íme	-9.13858
▁služby	-9.14038
▁věci	-9.14219
ův	-9.14249
▁autor	-9.14256
▁plyn	-9.1428
▁7	-9.14325
▁text	-9.14427
nými	-9.14477
be	-9.14687
▁Má	-9.14706
▁činnost	-9.14901
▁domácí	-9.14915
▁význam	-9.15074
▁funkce	-9.15102
▁jinak	-9.15104
▁prý	-9.15183
▁vývoj	-9.15255
▁jaké	-9.1526
gen	-9.15399
▁Ú	-9.15406
▁plat	-9.15433
▁dál	-9.15511
▁mělo	-9.15748
▁16	-9.15825
▁zároveň	-9.15825
▁kole	-9.1601
▁situaci	-9.16172
bor	-9.16456
ému	-9.16536
▁škol	-9.1668
▁dnešní	-9.16716
▁dobré	-9.16733
itel	-9.16896
▁ex	-9.16989
▁základ	-9.17117
▁obou	-9.17174
▁připraven	-9.17256
▁možná	-9.17256
▁snímku	-9.17258
▁malé	-9.17321
nutí	-9.17393
he	-9.17594
▁náklady	-9.17655
▁La	-9.17826
▁stojí	-9.17872
▁prostor	-9.17936
▁CD	-9.18004
▁fakt	-9.18056
▁přesto	-9.18112
▁100	-9.18116
▁stran	-9.18505
▁ostatní	-9.18521
▁prvním	-9.18644
bl	-9.1875
▁místní	-9.18927
vin	-9.1893
▁Ten	-9.18999
▁republik	-9.19104
ilo	-9.19129
sky	-9.19153
▁máme	-9.19263
▁tvrdí	-9.19329
▁Ná	-9.19372
▁firem	-9.19373
▁Rad	-9.19403
▁1993	-9.1946
▁děti	-9.1946
▁cenu	-9.1952
▁nepři	-9.19522
▁mohli	-9.1955
▁měly	-9.19705
▁Ba	-9.19724
▁nových	-9.20021
▁hlas	-9.2003
del	-9.2018
▁Vý	-9.20206
▁Al	-9.20462
▁získat	-9.2058
▁Praha	-9.20581
▁11	-9.20734
▁prav	-9.20894
▁podnik	-9.20941
kol	-9.20985
▁led	-9.21098
plat	-9.21248
bychom	-9.21377
▁určité	-9.21495
▁Pře	-9.21503
▁nejlepší	-9.21523
▁států	-9.21571
G	-9.21646
šel	-9.21696
▁majetku	-9.21713
▁dokument	-9.21714
▁nakonec	-9.21714
raz	-9.21739
▁těch	-9.21887
▁toto	-9.219
ner	-9.21905
▁všechno	-9.21913
▁slov	-9.22057
rn	-9.22194
▁nikdy	-9.22291
gu	-9.22317
čky	-9.225
▁čtyř	-9.22646
čet	-9.22697
rát	-9.2279
ct	-9.22825
RA	-9.2295
▁právní	-9.23143
▁premiér	-9.23278
▁já	-9.23289
▁dat	-9.23324
▁výši	-9.23334
▁Mar	-9.23496
ární	-9.23517
▁podniků	-9.23534
▁kam	-9.23709
ST	-9.23749
ig	-9.23974
▁svém	-9.24021
▁papír	-9.24028
ických	-9.24033
▁pár	-9.24083
▁místě	-9.24353
▁14	-9.24415
lek	-9.24476
▁9	-9.24588
▁vliv	-9.24669
stoupil	-9.24713
▁dříve	-9.2473
▁obyvatel	-9.24853
▁lety	-9.24912
▁dne	-9.24953
▁osm	-9.24975
ící	-9.24994
dní	-9.25
dit	-9.25031
ovém	-9.2505
▁vody	-9.25189
ající	-9.25236
▁nového	-9.25266
▁možnosti	-9.25321
ložit	-9.25332
viz	-9.25446
fr	-9.25553
▁proč	-9.25621
▁sobotu	-9.25784
▁Prahy	-9.25784
ver	-9.25791
▁zdá	-9.25835
▁nebyl	-9.26088
kor	-9.26346
▁nutné	-9.26379
▁kdyby	-9.26502
▁stavu	-9.26717
ment	-9.26721
tur	-9.27031
▁odbor	-9.27104
▁týden	-9.27151
▁In	-9.27251
ovaný	-9.27282
▁předseda	-9.27718
▁parlamentu	-9.27748
▁ode	-9.27772
▁25	-9.27837
ována	-9.28086
byl	-9.28203
▁zisk	-9.28352
▁Br	-9.2837
▁Tento	-9.28449
jem	-9.28513
▁neo	-9.28594
níci	-9.28637
▁přece	-9.28711
ického	-9.28746
▁Nej	-9.28749
var	-9.2876
▁pohled	-9.28773
▁ministerstva	-9.28796
▁zemi	-9.28837
▁svaz	-9.28974
▁bychom	-9.29262
▁představ	-9.2937
▁vítěz	-9.29395
dra	-9.29597
ily	-9.29718
▁trenér	-9.29745
▁obraz	-9.29787
▁Tato	-9.29819
▁telefon	-9.3
▁informací	-9.30027
▁organizace	-9.30027
▁policie	-9.30027
▁všichni	-9.30027
dl	-9.30102
▁samozřejmě	-9.30104
▁potom	-9.30113
kách	-9.30195
▁12	-9.30402
potřeb	-9.30462
CH	-9.30572
▁poté	-9.30582
zen	-9.30597
▁rychle	-9.30614
▁nikdo	-9.30652
▁Není	-9.30679
▁model	-9.30704
▁přístup	-9.30745
slov	-9.30757
pol	-9.30768
atel	-9.30776
▁můžeme	-9.30846
tře	-9.31068
▁vod	-9.31154
▁nový	-9.31167
▁Klaus	-9.31288
▁hlavně	-9.31291
▁Ho	-9.31343
nebo	-9.31416
▁druhý	-9.31425
NÍ	-9.31428
▁věd	-9.31434
▁poměrně	-9.31456
▁původní	-9.31678
▁českých	-9.31734
▁Kromě	-9.31902
▁nižší	-9.31902
▁skupin	-9.31951
ska	-9.31958
▁vyh	-9.31982
měř	-9.32003
nil	-9.32138
▁dodal	-9.32196
▁věcí	-9.32314
▁Lu	-9.3237
nos	-9.3238
ak	-9.32511
▁sdružení	-9.32535
trochu	-9.32535
▁prezidenta	-9.32638
▁dvěma	-9.32653
▁cena	-9.32744
▁něho	-9.32834
J	-9.32851
▁De	-9.32909
▁Di	-9.32951
▁krok	-9.33101
ej	-9.3339
kul	-9.3365
vil	-9.33653
▁SSSR	-9.33813
▁sobě	-9.33823
▁efekt	-9.33845
fo	-9.33998
mír	-9.34112
▁Jana	-9.34159
and	-9.34338
ková	-9.34372
▁klub	-9.34375
vou	-9.34443
▁prohlášení	-9.34458
▁Mezi	-9.34468
jedná	-9.34712
▁200	-9.34722
dním	-9.34788
▁výhod	-9.35065
prve	-9.35071
▁podmínky	-9.35107
▁komise	-9.35108
▁Jestli	-9.35108
▁někdy	-9.35109
por	-9.35188
▁žádné	-9.35234
šť	-9.35311
▁Jako	-9.35363
▁večer	-9.35446
ď	-9.35577
vu	-9.35793
▁kom	-9.35946
▁8	-9.35959
ge	-9.3596
▁pís	-9.36005
nul	-9.36129
▁základě	-9.36165
jich	-9.36178
ér	-9.3639
▁služeb	-9.36419
▁výroby	-9.36419
ovy	-9.36457
▁akce	-9.3649
▁zemích	-9.36495
▁západní	-9.36624
▁určen	-9.36638
▁Evropské	-9.36744
▁13	-9.36787
▁mnoh	-9.36801
tů	-9.369
▁došlo	-9.36906
▁kromě	-9.36918
▁Pr	-9.37065
▁většina	-9.37081
▁deseti	-9.37224
nem	-9.37583
▁50	-9.37664
▁projev	-9.37669
▁podporu	-9.37754
▁čím	-9.37873
▁růst	-9.37932
ským	-9.37998
▁Da	-9.38089
▁místa	-9.381
aj	-9.38164
kami	-9.38229
ností	-9.38311
▁hned	-9.38432
voz	-9.38632
▁hra	-9.38752
▁šesti	-9.38913
▁mnoha	-9.38961
hn	-9.39029
▁Ti	-9.39057
▁peněz	-9.39095
▁tvoří	-9.39107
▁výrazně	-9.39157
▁nejvyšší	-9.39205
▁výstav	-9.39224
ina	-9.39395
tní	-9.39552
▁miliard	-9.39561
▁názor	-9.397
▁jich	-9.39755
nské	-9.39759
▁života	-9.3977
▁tehdy	-9.39775
▁jistě	-9.39782
▁rozpočtu	-9.39784
▁pomoc	-9.39861
▁sta	-9.39879
▁pokus	-9.39935
▁objekt	-9.39979
mer	-9.40067
▁list	-9.40088
▁start	-9.40131
ovány	-9.40204
▁sedm	-9.40246
▁hry	-9.40441
▁vysoké	-9.4046
▁malý	-9.40469
graf	-9.40559
rak	-9.40632
▁1991	-9.40696
Č	-9.40771
▁východní	-9.40908
▁sil	-9.41025
▁nějak	-9.41048
mohlo	-9.41054
▁dosavadní	-9.41149
▁nena	-9.4115
▁vítězství	-9.41167
▁teď	-9.41173
▁členů	-9.41191
▁práv	-9.41369
▁milionu	-9.4149
▁vyp	-9.41591
proti	-9.41647
ic	-9.4165
▁nepro	-9.41689
▁nebylo	-9.41709
zo	-9.41721
▁40	-9.41738
▁her	-9.41751
▁prosince	-9.41844
▁poprvé	-9.41849
▁prostředky	-9.41852
stal	-9.41883
▁úřad	-9.41896
ovaly	-9.41913
mohla	-9.42003
▁Zá	-9.42115
▁neod	-9.42289
čil	-9.4235
▁chtěl	-9.42424
▁konkrétní	-9.42543
▁unie	-9.42552
▁spor	-9.4267
lem	-9.42758
ó	-9.42823
▁18	-9.42854
▁film	-9.42883
átor	-9.42959
▁žádný	-9.43023
ovalo	-9.43028
▁test	-9.43059
Ž	-9.43129
tor	-9.43184
▁spolupráci	-9.43247
▁výsledky	-9.43247
▁opatření	-9.43247
ický	-9.43249
▁teprve	-9.43272
tvo	-9.43274
▁rozvoj	-9.43392
▁titul	-9.43479
▁Kr	-9.43515
ická	-9.43521
iz	-9.43621
▁času	-9.43842
van	-9.43999
▁spoj	-9.44029
slav	-9.44038
▁politické	-9.44171
plav	-9.44212
▁jenž	-9.44603
ster	-9.44613
▁1994	-9.44671
▁stál	-9.44685
▁prakticky	-9.44728
▁mo	-9.44746
▁ODS	-9.44752
▁vnitřní	-9.44793
fe	-9.45056
vání	-9.45136
▁stejné	-9.45191
▁stal	-9.45315
▁skutečnost	-9.45332
▁hlediska	-9.4539
▁manažer	-9.4539
▁prostřednictví	-9.45391
▁utkání	-9.45453
OV	-9.4555
▁projekt	-9.4577
▁šéf	-9.45861
▁pořád	-9.46059
▁republice	-9.46115
pravidla	-9.46115
▁velice	-9.46123
▁celou	-9.46184
rob	-9.46385
▁ministra	-9.46434
▁procenta	-9.46593
▁celkové	-9.46634
▁dostal	-9.46659
▁někdo	-9.46846
▁daně	-9.47015
▁nemoc	-9.47079
▁změn	-9.47082
▁úspěch	-9.47127
▁dr	-9.47159
▁muž	-9.47261
pokoj	-9.47317
▁hor	-9.47475
▁dispozici	-9.4758
▁pu	-9.47839
▁souvislosti	-9.47842
bal	-9.47875
▁jejím	-9.47889
cké	-9.479
▁oprav	-9.47905
díky	-9.48035
ostí	-9.48131
nk	-9.48173
▁24	-9.48219
▁Jelcin	-9.48266
▁Jen	-9.48294
▁1990	-9.48321
▁mluvčí	-9.48335
▁prv	-9.48401
št	-9.48423
▁typu	-9.48433
▁Ku	-9.48561
▁řadu	-9.48674
▁kterým	-9.48847
ard	-9.48907
▁sestav	-9.48919
trž	-9.49059
▁rámci	-9.49074
▁záměr	-9.49109
ele	-9.49133
len	-9.49182
ika	-9.49188
▁změny	-9.4922
▁ledna	-9.49247
▁dá	-9.49261
▁Pak	-9.49419
▁prostě	-9.49431
bar	-9.49636
▁osobní	-9.49746
lék	-9.49785
Š	-9.49824
▁nejméně	-9.49838
kládá	-9.49863
▁podařilo	-9.49931
▁musel	-9.49933
▁bod	-9.50038
ává	-9.50067
▁budeme	-9.5009
▁mne	-9.50225
hle	-9.50243
▁vět	-9.50351
ujeme	-9.50663
▁společné	-9.50676
▁roli	-9.50726
▁loni	-9.50733
▁sebou	-9.50737
▁jednot	-9.50764
▁všem	-9.50896
brán	-9.50902
▁nepře	-9.50907
cký	-9.5115
▁míst	-9.51241
▁živ	-9.51257
▁různé	-9.51271
▁Například	-9.5134
▁proces	-9.51378
▁podnikání	-9.51387
denní	-9.51461
▁státy	-9.51475
▁čs	-9.51634
nka	-9.51655
▁my	-9.51731
nc	-9.51742
▁Roz	-9.51817
▁doma	-9.51867
ang	-9.51888
▁bank	-9.51918
cím	-9.521
▁minulý	-9.52113
▁opravdu	-9.52145
▁tolik	-9.52252
▁Jde	-9.52319
▁výše	-9.52356
▁výzkum	-9.52474
ať	-9.52555
▁právo	-9.52643
▁volební	-9.52716
▁boj	-9.52818
▁miliónů	-9.52884
▁smlouvu	-9.52884
▁funkci	-9.52886
▁snaží	-9.52888
▁nedávno	-9.52936
ovaná	-9.52994
port	-9.53053
▁náš	-9.53123
▁vládní	-9.53133
▁Ha	-9.5322
▁gen	-9.53356
▁kap	-9.53459
rat	-9.53662
dů	-9.5374
▁Dnes	-9.53746
ké	-9.53793
▁disk	-9.5384
pt	-9.53854
▁zvýšení	-9.53862
AN	-9.53877
▁vů	-9.53903
▁účast	-9.53908
znal	-9.53941
▁získal	-9.54273
šti	-9.54436
▁okolí	-9.54457
▁věc	-9.54486
ca	-9.54549
▁Kdo	-9.54609
▁měsíců	-9.54682
py	-9.54888
▁střed	-9.55027
zní	-9.55059
nský	-9.55185
▁ministerstvo	-9.55246
▁zvláštní	-9.55246
▁koaliční	-9.55246
▁chtějí	-9.55247
▁slova	-9.55258
▁dal	-9.5528
▁chování	-9.55335
▁pojištění	-9.55419
▁dnech	-9.55424
▁bývalý	-9.5556
▁případ	-9.55618
▁středu	-9.55632
par	-9.55656
▁objevil	-9.55791
dávají	-9.55797
▁přednost	-9.55908
uji	-9.55929
▁ztrát	-9.5597
▁jiného	-9.55995
▁dopis	-9.56041
▁Windows	-9.56046
▁Zeman	-9.56069
un	-9.56148
ici	-9.56179
▁ekonomické	-9.56184
nic	-9.56213
▁byt	-9.56238
▁národní	-9.56301
▁dosáhl	-9.56314
▁metrů	-9.56344
▁postupně	-9.56393
▁úřadu	-9.56468
▁hotel	-9.56603
▁hráčů	-9.56747
▁zahraničních	-9.56844
▁zpět	-9.56853
▁Ž	-9.56872
▁post	-9.56898
▁společenství	-9.56905
▁rady	-9.5699
den	-9.57005
šli	-9.57029
▁An	-9.5754
▁vede	-9.57575
▁vztah	-9.57576
go	-9.57626
▁Čech	-9.57634
▁podobně	-9.57667
dává	-9.57689
alo	-9.57816
SK	-9.57824
vají	-9.57857
▁vzor	-9.57908
▁čeká	-9.5813
oč	-9.58185
icky	-9.5826
▁svazu	-9.58264
nese	-9.58355
▁2.	-9.58386
stává	-9.58395
▁nemusí	-9.58486
▁číslo	-9.58532
ten	-9.58538
hla	-9.58579
nici	-9.58821
▁Zde	-9.59028
▁pracovníků	-9.59091
tem	-9.59278
▁poslanců	-9.59312
▁přibližn	-9.59312
▁zástupce	-9.59312
▁nadále	-9.59315
▁ročně	-9.59319
pit	-9.59363
▁zas	-9.59365
▁kulturní	-9.59424
čku	-9.5944
▁evropské	-9.59497
▁host	-9.59535
▁tržní	-9.5957
▁Dr	-9.59635
▁Bude	-9.59752
▁MS	-9.59792
elný	-9.59864
▁uměl	-9.59966
▁klubu	-9.59989
▁vz	-9.60094
▁odmítl	-9.60145
▁koncert	-9.60175
žení	-9.60298
dění	-9.60509
▁dalším	-9.60561
▁vznikl	-9.60621
▁Be	-9.60672
▁poměr	-9.60713
▁každ	-9.6076
jící	-9.60781
ško	-9.60795
▁Já	-9.60802
▁účel	-9.60965
▁Většin	-9.60986
▁jazyk	-9.60986
▁nabídky	-9.60986
▁hospodářství	-9.60986
ren	-9.6099
▁lépe	-9.60999
pen	-9.61003
▁Že	-9.61016
▁zásad	-9.61018
ala	-9.61051
▁hodně	-9.61103
ovými	-9.61124
▁vstup	-9.61231
▁střel	-9.61293
pad	-9.61301
▁počtu	-9.61305
ík	-9.61381
SE	-9.61433
▁podniky	-9.61491
▁generální	-9.6157
▁manžel	-9.61691
nd	-9.61721
▁mil	-9.61747
▁spojen	-9.61782
inter	-9.61792
▁umožňuje	-9.61833
▁závod	-9.61838
óz	-9.61847
▁podstatně	-9.61882
ok	-9.61956
▁jenom	-9.61956
fer	-9.61973
▁přijat	-9.61981
▁týmu	-9.62032
▁přesně	-9.62064
▁Ar	-9.62192
▁sami	-9.62198
50	-9.62214
inu	-9.62296
nek	-9.62319
▁Če	-9.62458
▁problémů	-9.62491
tah	-9.6255
▁olympijské	-9.62586
▁považuje	-9.62688
▁začíná	-9.6269
áři	-9.62697
▁hrál	-9.62724
▁fondu	-9.62771
▁případech	-9.62775
▁musíme	-9.62824
▁potvrdil	-9.62868
ovo	-9.62888
▁říci	-9.62891
▁novou	-9.6292
▁Už	-9.6301
▁městě	-9.63021
▁Ani	-9.63038
ký	-9.63093
der	-9.63294
▁občanů	-9.63379
tky	-9.63477
▁22	-9.63502
kryt	-9.63542
▁obvykle	-9.6355
▁sítě	-9.63562
▁majitel	-9.63577
EN	-9.63647
▁oddělení	-9.63651
▁banky	-9.63695
▁českého	-9.63704
▁tenis	-9.63774
▁pomoci	-9.638
▁řada	-9.63943
▁možností	-9.63949
▁vedle	-9.64068
son	-9.64304
▁nebyla	-9.64384
▁otázku	-9.64419
▁výrobků	-9.64419
íky	-9.6443
nci	-9.64445
▁měst	-9.64515
ismu	-9.64572
▁uzavře	-9.64638
▁politiky	-9.64709
▁průběhu	-9.64799
ané	-9.64825
▁17	-9.64859
ned	-9.64891
kovi	-9.65026
▁nějaké	-9.65157
▁hvězd	-9.65296
▁nabízí	-9.65297
▁vrchol	-9.65297
▁ryb	-9.65303
▁export	-9.65309
ben	-9.65348
▁nemají	-9.65423
▁výbor	-9.65443
ěte	-9.6546
sídl	-9.65523
▁ulici	-9.65546
▁miliardy	-9.65572
bud	-9.65575
▁Ze	-9.65582
▁zdrojů	-9.65615
▁kterém	-9.65755
▁vys	-9.65833
▁60	-9.65846
▁moci	-9.66105
▁otázka	-9.66182
▁otázky	-9.66182
▁úrovni	-9.66182
▁autobus	-9.66182
▁celkem	-9.66182
▁chvíli	-9.66183
Dr	-9.6621
▁Česká	-9.66213
▁takto	-9.66267
▁uvádí	-9.66311
▁výběr	-9.66331
ené	-9.66357
000	-9.66407
ovaného	-9.66454
pil	-9.66577
▁moderní	-9.66659
19	-9.667
eb	-9.66716
ření	-9.66785
▁tr	-9.66807
▁pražské	-9.66859
▁rodin	-9.66877
tal	-9.6695
ke	-9.67046
▁kontrol	-9.67067
▁mistrovství	-9.67074
▁předchozí	-9.67077
kli	-9.67091
▁tvar	-9.67177
▁schopn	-9.67257
▁postavení	-9.67288
▁jednom	-9.67389
▁potřebuje	-9.67399
▁každém	-9.67499
▁vznik	-9.67529
tím	-9.67583
▁dohody	-9.67584
ložil	-9.6759
▁objektů	-9.67606
res	-9.67627
jak	-9.67667
▁každé	-9.67679
▁automobil	-9.67716
▁názoru	-9.67732
ide	-9.67782
rop	-9.67918
▁energie	-9.67975
▁dětí	-9.67976
▁sportovní	-9.67976
▁zaměstnanců	-9.67978
▁NATO	-9.67978
▁cestu	-9.68156
▁Ru	-9.68306
▁pozornost	-9.68324
▁textu	-9.68543
▁počítače	-9.68593
▁lékař	-9.68855
▁odhad	-9.68879
▁finále	-9.68885
▁prů	-9.68917
▁společností	-9.68937
▁kterých	-9.69013
býval	-9.69096
▁měsíce	-9.69116
▁obsah	-9.69143
▁představuje	-9.69161
▁listopadu	-9.69185
▁vyz	-9.69232
▁zůstal	-9.69319
▁vybavení	-9.69324
▁působí	-9.69341
▁takový	-9.69354
▁strana	-9.69418
▁setkání	-9.6946
▁budoucí	-9.69615
▁nikoli	-9.69649
▁trest	-9.69693
tel	-9.69772
▁Izrael	-9.69802
▁prostředků	-9.69807
▁svobod	-9.69807
▁Země	-9.69823
▁parlament	-9.6984
▁čtvrtek	-9.69865
▁cizí	-9.69871
▁díl	-9.69897
▁Ještě	-9.69936
▁Tím	-9.69961
▁21	-9.69964
▁sama	-9.70004
▁současně	-9.70043
šek	-9.70058
▁světové	-9.70061
▁příští	-9.70168
▁obchodního	-9.70187
▁řadě	-9.7019
▁ME	-9.70271
koliv	-9.70345
rád	-9.7051
▁kolik	-9.70581
▁platit	-9.70581
din	-9.70591
aly	-9.70686
▁výrobky	-9.70728
▁Navíc	-9.70728
▁Nyní	-9.70735
▁OSN	-9.70747
▁řad	-9.70769
▁produkce	-9.70786
vést	-9.70813
▁skupina	-9.70818
▁provozu	-9.70906
▁atd	-9.71075
▁neděli	-9.71154
▁Čí	-9.71173
▁kal	-9.71247
▁druhém	-9.71258
tivní	-9.71408
bývá	-9.71489
▁Jedno	-9.71517
rem	-9.71524
▁nemohl	-9.71534
▁Josef	-9.71662
▁federální	-9.71662
▁zasedání	-9.71673
▁těles	-9.71676
▁motor	-9.71686
▁dobrý	-9.71746
▁zdroje	-9.71758
▁muset	-9.71794
▁skutečnosti	-9.71875
zv	-9.71954
▁hrát	-9.71992
▁hlavním	-9.7202
dla	-9.72032
dat	-9.72063
nické	-9.72091
▁porad	-9.72101
▁akci	-9.72122
▁kvalitní	-9.72273
▁kterého	-9.72427
▁správ	-9.72478
▁prezentace	-9.72606
▁speciální	-9.72606
▁začátku	-9.72606
▁kapacit	-9.72607
▁srovnání	-9.72607
▁spokojen	-9.72609
stran	-9.7265
▁tlak	-9.72678
▁zápas	-9.728
▁Sa	-9.72867
▁jiný	-9.72924
▁výboru	-9.72928
▁nep	-9.72934
▁součástí	-9.73022
▁akcií	-9.73172
vykl	-9.73227
▁auto	-9.73273
▁použití	-9.73274
▁hodnoty	-9.7329
▁Star	-9.73535
cházejí	-9.73542
▁přiče	-9.73545
▁teorie	-9.73558
▁přírodní	-9.73559
▁1989	-9.73564
▁buď	-9.73565
▁privatizace	-9.73568
▁apod	-9.73596
sil	-9.736
▁strom	-9.73618
▁syn	-9.73652
▁Hor	-9.73658
vé	-9.73791
▁jasné	-9.73828
▁konci	-9.73961
▁Du	-9.74028
LA	-9.74031
▁plně	-9.74046
▁oba	-9.74109
▁školy	-9.7419
▁vyhrál	-9.7431
▁těm	-9.74515
▁stejn	-9.74562
díl	-9.74584
30	-9.74607
▁ostrov	-9.74766
▁obchodu	-9.74776
jev	-9.74781
ismus	-9.74789
▁domů	-9.7481
▁dostane	-9.74825
▁metod	-9.74841
▁dopravy	-9.74924
lení	-9.75034
▁samo	-9.75102
▁Cen	-9.75138
th	-9.75145
▁jednotlivé	-9.75194
▁závěr	-9.75222
▁objektu	-9.75224
▁našem	-9.75225
▁možno	-9.75375
▁Někter	-9.75491
▁veřejné	-9.75491
▁zdravotnictví	-9.75491
▁variant	-9.75491
▁umění	-9.75493
▁Martin	-9.755
▁zvolen	-9.75558
▁struktur	-9.75574
▁Ivan	-9.75575
▁bran	-9.75579
íte	-9.75597
▁následující	-9.75743
▁Ca	-9.7585
est	-9.75918
vz	-9.7592
▁chod	-9.75992
zu	-9.76019
isté	-9.76047
▁člen	-9.7606
pas	-9.76066
kat	-9.76122
▁novin	-9.76201
▁student	-9.76219
▁údaje	-9.76247
▁souhlas	-9.76305
▁Bylo	-9.7645
▁rozhodující	-9.76471
▁gól	-9.76471
▁nebezpečí	-9.76472
▁podobě	-9.76474
puštěn	-9.76475
▁Pavel	-9.76482
star	-9.76504
CE	-9.7652
▁ploch	-9.76566
▁Podobn	-9.76575
ejte	-9.76607
drží	-9.76668
▁investice	-9.76725
▁celého	-9.76751
▁státního	-9.76754
▁ostatních	-9.76764
zem	-9.76817
▁telefonní	-9.76823
▁polo	-9.76872
▁opak	-9.76874
hlav	-9.76908
▁nějaký	-9.76997
▁kultury	-9.77002
▁noci	-9.77004
▁volb	-9.77029
▁poně	-9.7709
▁práva	-9.7714
▁pla	-9.77211
▁div	-9.77213
vláště	-9.77307
▁spojení	-9.77362
▁zákaz	-9.77416
▁rozum	-9.77523
▁Bu	-9.77529
nů	-9.77549
eta	-9.77568
▁společně	-9.77625
▁vzájemn	-9.77687
▁aktivit	-9.77718
▁soutěže	-9.77813
píše	-9.77824
▁zájmu	-9.77833
▁politických	-9.77941
▁snadno	-9.78034
▁smrti	-9.78072
▁metr	-9.78109
IN	-9.78154
▁záznam	-9.78204
▁Proč	-9.78246
OR	-9.78261
▁nová	-9.78305
▁počítač	-9.78453
▁televizní	-9.78461
▁jméno	-9.78464
▁Miloš	-9.78466
rit	-9.78505
▁Toto	-9.78666
např	-9.78667
▁stud	-9.78789
procesor	-9.78826
řitom	-9.78856
▁lev	-9.78914
věří	-9.78917
▁tisíce	-9.78947
W	-9.79008
řad	-9.79052
nec	-9.79072
▁ba	-9.79119
lík	-9.79133
▁jaký	-9.79288
▁předpoklad	-9.79471
▁John	-9.79471
▁snímek	-9.79474
svoji	-9.79485
▁hnutí	-9.79499
ňování	-9.79502
▁Stejn	-9.7951
▁zdraví	-9.79525
chází	-9.79558
ňuje	-9.79575
▁lidi	-9.79624
▁vidí	-9.79629
▁nejvíce	-9.79719
▁důvodů	-9.79744
▁vytvoření	-9.7987
ujících	-9.79876
▁český	-9.79922
klo	-9.79925
▁styl	-9.80001
mar	-9.80021
jat	-9.80157
psal	-9.80235
rovna	-9.80419
lů	-9.8048
▁trvá	-9.80482
▁Jaroslav	-9.80492
▁motiv	-9.80492
▁vzhledem	-9.80519
▁jisté	-9.80521
▁pás	-9.80552
▁plné	-9.80586
▁předem	-9.80806
čel	-9.80828
her	-9.80912
▁stanoven	-9.80936
ton	-9.80976
▁velkou	-9.81049
zení	-9.81133
▁mužů	-9.81137
▁Gr	-9.81194
▁hráči	-9.81298
▁povrch	-9.81379
▁zvýšil	-9.81523
▁těžko	-9.81524
▁planet	-9.81529
▁okolo	-9.81531
▁podobný	-9.81555
▁nákup	-9.81573
jet	-9.81606
▁pocit	-9.81629
dání	-9.81634
▁teplot	-9.81651
kázal	-9.81673
▁typ	-9.81682
ger	-9.81694
▁23	-9.81704
▁Tu	-9.8173
▁daleko	-9.81734
▁kop	-9.81767
▁rád	-9.81822
▁data	-9.81832
▁Český	-9.81933
▁slib	-9.82053
▁spíš	-9.82111
ena	-9.82117
však	-9.82292
▁hru	-9.82324
▁soudu	-9.82471
▁náměstí	-9.82564
▁zástupci	-9.82564
▁přátel	-9.82572
▁delší	-9.82575
▁někteří	-9.82575
▁celkov	-9.82575
▁70	-9.8258
▁Pan	-9.8259
▁září	-9.82606
▁zaměstnání	-9.82611
▁rukou	-9.82637
▁kilometrů	-9.82662
▁obsahuje	-9.82677
ivé	-9.82677
▁princip	-9.82688
čně	-9.82906
▁hodiny	-9.83004
pír	-9.83012
▁stanov	-9.83044
▁Bez	-9.83109
▁příčin	-9.83343
▁věku	-9.8336
▁pre	-9.83365
▁cíl	-9.83455
ováním	-9.83514
▁koncem	-9.83569
▁výsledek	-9.83617
▁cestovní	-9.83617
půjč	-9.83641
▁oboru	-9.83645
▁tvář	-9.83675
ickou	-9.83675
▁smysl	-9.83718
nictví	-9.83739
stické	-9.83795
▁mohly	-9.83829
▁přišel	-9.83922
▁čtvrt	-9.83926
▁způsobil	-9.83961
▁druhů	-9.83976
▁kandidát	-9.83984
cházet	-9.84
dom	-9.8405
▁zkušenosti	-9.84133
nému	-9.84161
hi	-9.84161
▁hmot	-9.84172
▁popis	-9.84262
mž	-9.84391
lid	-9.84397
▁ředitele	-9.8443
▁přechod	-9.84572
▁aplikace	-9.84681
▁existuje	-9.84681
▁nejbližší	-9.84681
▁podmínek	-9.84681
▁nebudou	-9.84681
▁Může	-9.84683
▁zůstává	-9.84683
▁dnů	-9.84718
▁Kčs	-9.84818
▁olympijský	-9.84866
šení	-9.84874
▁světový	-9.84878
▁koalice	-9.84937
▁objekty	-9.85009
ováno	-9.85083
ška	-9.85114
▁hospodářské	-9.85131
▁fond	-9.85298
▁zvyk	-9.85387
▁každého	-9.85388
▁stavební	-9.85419
mor	-9.8552
▁příprav	-9.85595
▁termín	-9.85644
▁výměn	-9.85655
▁založen	-9.85673
▁adres	-9.85694
▁společný	-9.85741
▁úroveň	-9.85756
▁dospěl	-9.85756
▁starší	-9.85762
▁výnos	-9.85772
sad	-9.8579
▁tady	-9.85801
EL	-9.85817
dají	-9.85842
▁pracovat	-9.85848
▁rozhodl	-9.85861
ER	-9.8587
▁smyslu	-9.85881
▁úprav	-9.85944
▁případně	-9.85984
▁mal	-9.86016
cího	-9.8602
padl	-9.86046
▁minulosti	-9.86069
▁Ber	-9.86144
▁příklad	-9.86432
▁hrad	-9.86482
▁materiál	-9.86528
▁rychlost	-9.86588
▁neměl	-9.86611
▁běžné	-9.86618
▁prodeje	-9.86716
ění	-9.86722
leč	-9.86791
▁poslanci	-9.86843
▁pátek	-9.86843
▁praxi	-9.86844
▁dává	-9.86914
▁Jeden	-9.86954
▁jediný	-9.86985
▁určitě	-9.87038
▁fotbal	-9.87083
▁Každý	-9.87084
▁Brně	-9.87111
kar	-9.87169
vát	-9.8722
gan	-9.8727
▁soukrom	-9.87335
▁skončil	-9.87383
▁jednotliv	-9.87414
ance	-9.8743
▁Ni	-9.8743
▁sklad	-9.87466
▁německé	-9.87599
ES	-9.87665
▁dotaz	-9.87779
▁kraj	-9.87784
▁druh	-9.8779
stál	-9.87869
▁prvního	-9.87916
▁důležité	-9.87942
▁vidět	-9.87942
▁rekord	-9.87943
▁šanci	-9.87943
▁příkaz	-9.87945
násob	-9.8802
nky	-9.88042
▁přijal	-9.88057
nského	-9.88123
▁NE	-9.88146
▁jmen	-9.88295
▁Nové	-9.88346
▁mám	-9.88369
▁podnikatel	-9.88378
▁kvality	-9.88466
▁léč	-9.88606
▁lékaře	-9.88609
LE	-9.88627
▁Ra	-9.8868
▁tun	-9.88712
▁oblast	-9.88807
rovná	-9.88901
šil	-9.8893
▁roční	-9.88956
▁výrobce	-9.89053
▁zvířat	-9.89053
▁síly	-9.8907
AR	-9.89083
psat	-9.89085
▁příslušn	-9.89093
▁volbách	-9.89116
▁loňské	-9.89123
▁července	-9.89152
▁stačí	-9.89159
▁odpovídá	-9.89184
▁léta	-9.89224
▁nikoliv	-9.89282
▁nárok	-9.89291
▁dny	-9.89306
▁Kar	-9.8934
dal	-9.89359
▁důchod	-9.89382
▁změnit	-9.89515
▁Přes	-9.89682
vali	-9.89735
▁knihy	-9.89757
▁hráče	-9.89836
set	-9.89887
▁hráč	-9.89888
▁Německa	-9.89977
▁členy	-9.90062
ion	-9.90084
▁hromad	-9.90176
▁trans	-9.90179
▁zemřel	-9.90179
raději	-9.90208
▁jediné	-9.9023
▁zákazníků	-9.90359
▁podstatě	-9.90369
třech	-9.90457
▁zranění	-9.90606
▁nákladů	-9.90664
ROM	-9.90837
vané	-9.90929
měr	-9.90975
▁doba	-9.91081
sáhl	-9.9112
▁poz	-9.9114
▁obr	-9.91265
▁osmi	-9.91271
▁Ministerstv	-9.91313
▁analýz	-9.91313
▁oprávněn	-9.91313
▁technologie	-9.91313
▁výrobu	-9.91313
▁tepla	-9.91316
stoupit	-9.91318
▁vrátil	-9.91335
▁úplně	-9.91337
▁dělat	-9.91373
▁objem	-9.91411
▁představitelé	-9.91424
▁investiční	-9.91425
bře	-9.9148
▁zkouš	-9.91485
▁tisku	-9.91494
▁přehled	-9.91497
▁voleb	-9.91572
▁rozšíření	-9.91588
ler	-9.91612
▁druhou	-9.91683
▁park	-9.917
▁užit	-9.9178
RO	-9.91797
ickým	-9.91827
▁starost	-9.9188
ona	-9.91909
▁Již	-9.91951
▁podobné	-9.91963
▁dovoz	-9.9198
▁techniky	-9.91992
▁vývoje	-9.9205
▁předmět	-9.92216
ených	-9.92328
▁technické	-9.92369
rp	-9.92391
▁staré	-9.92443
▁družstev	-9.92462
▁příspěvk	-9.92462
▁zásob	-9.92462
▁příjem	-9.92472
▁síť	-9.92473
stoupí	-9.92483
▁činí	-9.92511
držel	-9.92568
▁úkol	-9.92588
ologie	-9.92615
▁obor	-9.92661
▁celá	-9.92669
▁podnikatele	-9.92688
▁dějin	-9.92698
▁míry	-9.92729
▁polovin	-9.92729
▁výrobní	-9.92896
▁omezen	-9.92961
▁zprávy	-9.93007
▁použit	-9.93061
▁jakým	-9.93183
▁Nový	-9.93218
▁Kol	-9.93256
▁klid	-9.93332
▁ukázal	-9.93367
razil	-9.93424
▁bohat	-9.93446
▁jízd	-9.93499
▁rad	-9.93501
rou	-9.93536
▁volby	-9.93543
značně	-9.93564
▁scén	-9.93595
▁80	-9.93611
▁pochyb	-9.93624
▁olympiád	-9.93625
▁vytvořit	-9.93625
▁úspor	-9.93629
▁dvakrát	-9.93701
▁slab	-9.93785
skoro	-9.93804
nce	-9.93814
▁podnikatelů	-9.93865
KA	-9.9398
▁chcete	-9.94002
dělal	-9.94079
ij	-9.9409
pře	-9.94167
▁vlastnosti	-9.94188
▁Cel	-9.94298
▁národ	-9.9439
▁vaše	-9.94459
▁domu	-9.94525
TA	-9.94623
▁bytů	-9.94645
níků	-9.94649
▁ruské	-9.947
antní	-9.94702
▁též	-9.94716
jdou	-9.94785
▁financí	-9.94802
▁vývoz	-9.94815
▁konečně	-9.94889
▁Kdyby	-9.94923
▁partner	-9.94993
▁žen	-9.95161
▁Hrad	-9.95187
▁dvacet	-9.95217
▁počítá	-9.95246
▁čin	-9.95273
▁soupeř	-9.95308
▁seznam	-9.95434
▁Asi	-9.95527
ávat	-9.95531
▁Kub	-9.95617
prostřed	-9.9566
▁jít	-9.95691
▁SR	-9.95691
▁Její	-9.95724
pak	-9.95759
▁návrhu	-9.9583
▁Mi	-9.95849
pel	-9.95922
▁přízniv	-9.95966
▁federace	-9.95992
▁firmě	-9.95992
▁výsledků	-9.95992
▁použít	-9.95992
▁Všechny	-9.95992
▁roze	-9.96015
▁současnosti	-9.96023
▁reprezentant	-9.96025
jasn	-9.96056
▁evropských	-9.96059
zhledem	-9.96068
▁zpracování	-9.96105
▁slavn	-9.96115
▁Pe	-9.96121
▁dvaceti	-9.96139
ros	-9.96202
▁včerejší	-9.96338
▁průmyslu	-9.96517
▁hranice	-9.96519
▁klient	-9.96522
▁ústav	-9.96563
▁obrany	-9.96654
▁bodů	-9.96737
▁bezpečnostní	-9.96818
ovu	-9.96863
myšlen	-9.96893
▁změnil	-9.96989
vnitř	-9.96991
▁Německu	-9.96993
▁vojenské	-9.96994
▁občan	-9.96999
▁tisk	-9.97033
▁pokles	-9.97036
▁snah	-9.97041
kovou	-9.97171
▁Společenství	-9.97197
▁Vladimír	-9.97197
▁investor	-9.97197
▁Právě	-9.97197
▁nejlépe	-9.97199
▁zbraní	-9.972
▁relativn	-9.97204
šit	-9.97207
▁Běh	-9.97255
▁dostat	-9.97255
▁fotbalové	-9.97277
▁původně	-9.97282
▁pravděpodobně	-9.97298
ita	-9.97301
rozměr	-9.97442
▁Měl	-9.97451
▁objeví	-9.97503
▁Bar	-9.97531
řízení	-9.97557
▁ochran	-9.97559
▁míru	-9.97569
▁náklad	-9.97627
▁dokázal	-9.97642
▁amerických	-9.97827
▁Firma	-9.97836
ený	-9.97996
tovat	-9.98022
eny	-9.98034
▁důvod	-9.98109
▁cílem	-9.98117
▁kancelář	-9.98167
▁dlouhé	-9.98416
▁předpokládá	-9.98416
▁udělat	-9.98417
▁dokáže	-9.98418
▁patrně	-9.98436
▁disku	-9.98469
blíž	-9.98628
▁sněmovny	-9.98678
▁slovo	-9.98777
kových	-9.98897
▁vhodné	-9.98899
10	-9.98918
▁pohyb	-9.98978
ovský	-9.99008
áni	-9.99047
▁osoby	-9.99071
▁Lib	-9.99098
ávání	-9.99138
▁pracuje	-9.99152
▁někter	-9.99167
▁(1	-9.9919
ani	-9.99229
▁kurz	-9.99425
tit	-9.99438
▁sever	-9.99523
▁úvěr	-9.99552
jedna	-9.99575
▁hodnot	-9.99607
dělit	-9.99615
▁informační	-9.99651
▁hovoří	-9.99651
▁subjekt	-9.99651
▁čísla	-9.99652
▁brzy	-9.99652
▁využití	-9.99652
▁armád	-9.99666
▁kanál	-9.99669
bývají	-9.99691
▁pravda	-9.9975
▁prostoru	-9.99843
▁pole	-9.99904
▁těmi	-9.99952
wa	-9.99956
net	-9.99986
OU	-10.0018
▁volné	-10.002
▁proud	-10.0026
▁ženy	-10.0026
▁čist	-10.0027
▁úrok	-10.0031
▁dát	-10.0034
uto	-10.004
▁lidský	-10.0041
▁čtenář	-10.0042
▁veřejnosti	-10.0051
▁Japonsk	-10.0053
▁rokem	-10.0053
ozi	-10.0057
▁ním	-10.0058
▁růstu	-10.0061
lat	-10.0062
▁bývá	-10.0074
cem	-10.0075
▁zisku	-10.0084
čné	-10.0088
▁ústavu	-10.0088
▁dovolenou	-10.009
▁většinu	-10.009
▁rezerv	-10.009
▁jinde	-10.009
▁podzim	-10.009
▁péče	-10.009
▁oceán	-10.0091
▁severní	-10.0092
▁nemohou	-10.0094
▁začne	-10.0095
▁místopředsed	-10.0098
▁vědět	-10.0108
▁vládě	-10.011
obec	-10.0114
mět	-10.012
▁molekul	-10.0125
▁denně	-10.015
▁témat	-10.0163
dávat	-10.0165
▁takovou	-10.0169
▁národního	-10.017
▁obrat	-10.017
▁Chorvatsk	-10.0171
▁čele	-10.0177
▁budov	-10.0184
ckého	-10.0198
▁PO	-10.0203
▁poslanec	-10.0214
▁mění	-10.0216
▁2000	-10.0216
▁pokračovat	-10.0217
▁podepsal	-10.0217
▁pozadí	-10.0217
▁látky	-10.0218
▁vědecké	-10.0218
▁nechce	-10.0221
▁kruh	-10.0221
▁sluneční	-10.0229
pustil	-10.0229
▁prací	-10.0232
▁500	-10.0235
▁stala	-10.0242
▁New	-10.0243
▁snížení	-10.0243
nové	-10.0246
▁90	-10.0248
▁vytvořil	-10.0249
▁stejný	-10.0254
▁veřejnost	-10.0256
▁pracovník	-10.0258
▁podrob	-10.0265
slovensk	-10.0276
▁1,	-10.028
▁příslušné	-10.0287
▁čem	-10.029
bin	-10.0291
▁potřebné	-10.0297
▁Me	-10.0301
kan	-10.031
▁respekt	-10.0337
▁pojistné	-10.0337
▁posl	-10.0339
▁UEFA	-10.0345
▁demokracie	-10.0345
▁důležitý	-10.0345
▁hodnocení	-10.0345
▁oficiální	-10.0345
▁označil	-10.0345
▁televizi	-10.0345
▁naprosto	-10.0345
▁důkaz	-10.0345
▁Spojený	-10.0345
▁Havel	-10.0346
▁kurs	-10.0346
▁stalo	-10.0346
▁nijak	-10.0347
▁návštěv	-10.0349
kládat	-10.0349
▁okamžitě	-10.0358
▁pacient	-10.036
▁ukazuje	-10.0361
▁současn	-10.0367
▁300	-10.0367
leté	-10.0368
▁NA	-10.0375
▁Ke	-10.0385
▁vodní	-10.0389
▁zabývá	-10.0392
HO	-10.0396
▁bezpečnosti	-10.0401
▁nebyly	-10.041
▁28	-10.0412
▁pozor	-10.0413
▁kolo	-10.0413
stane	-10.0414
▁procesu	-10.0415
▁rada	-10.0417
▁rod	-10.0421
oři	-10.0426
▁cesty	-10.0432
KO	-10.0433
dali	-10.0444
▁fotbalist	-10.0447
kový	-10.0451
▁proměn	-10.0452
AD	-10.0457
onu	-10.0462
▁ČSSD	-10.047
▁majetek	-10.0475
▁počasí	-10.0475
▁řečeno	-10.0475
▁téma	-10.0476
▁protest	-10.0476
ll	-10.048
▁novel	-10.0485
▁členové	-10.0488
rot	-10.049
▁Kon	-10.0504
▁potřeby	-10.0506
▁stanice	-10.0507
▁vzniku	-10.0512
▁smí	-10.0515
▁body	-10.0515
▁kanceláře	-10.0529
▁Sta	-10.0537
▁Hol	-10.0541
▁vládu	-10.0547
išť	-10.055
▁vytvořen	-10.0555
sed	-10.0555
ČS	-10.0561
lka	-10.0576
dával	-10.0578
▁prost	-10.0582
race	-10.0587
áno	-10.0589
vel	-10.0593
▁získá	-10.0598
▁str	-10.0598
▁lékaři	-10.0602
▁hokej	-10.0606
▁onemocnění	-10.0606
▁požadavky	-10.0606
▁příjmy	-10.0606
▁rozhodně	-10.0606
▁názvem	-10.0606
▁učitel	-10.0606
▁odborné	-10.0615
ovské	-10.0615
▁35	-10.0616
▁lidem	-10.062
▁řady	-10.0622
▁dosáhnout	-10.0624
▁standard	-10.0626
stavit	-10.0629
klep	-10.0639
OH	-10.0649
▁Slovensku	-10.0649
▁systémů	-10.0659
▁zahájení	-10.0663
part	-10.0667
▁dodává	-10.0672
▁Dva	-10.0672
▁výš	-10.0683
kám	-10.0683
▁ekonomiky	-10.069
bere	-10.0694
▁postoj	-10.0698
taj	-10.0704
NO	-10.0704
izace	-10.0706
▁potravin	-10.0723
klád	-10.0728
▁hlavního	-10.0736
▁konference	-10.074
▁televize	-10.074
▁vánoční	-10.074
▁policejní	-10.074
▁ligy	-10.0741
▁funkcí	-10.0744
▁zákony	-10.0749
▁nejde	-10.0753
▁soubor	-10.0756
▁teplo	-10.0758
zoval	-10.076
▁Oba	-10.0761
▁jakou	-10.0767
NA	-10.0768
CI	-10.0769
loží	-10.0769
▁Státní	-10.0773
▁reklam	-10.0785
▁třicet	-10.0786
▁celém	-10.0787
▁vztahu	-10.0788
▁Nov	-10.0797
▁jednak	-10.08
áci	-10.0808
▁vybaven	-10.081
▁mechaniky	-10.0813
▁přenos	-10.0825
▁společného	-10.0833
ckých	-10.0835
▁My	-10.0835
MU	-10.0836
▁jednat	-10.0844
▁přístupu	-10.0861
▁soutěž	-10.0862
▁staro	-10.0866
▁zub	-10.0874
▁Prezident	-10.0875
▁dodavatel	-10.0875
▁poskytuje	-10.0875
▁zásah	-10.0875
▁Československu	-10.0875
▁připravil	-10.0875
▁příbuzn	-10.0875
▁zločin	-10.0875
▁vnitra	-10.0876
▁velká	-10.0876
před	-10.0878
▁map	-10.0879
▁osud	-10.0887
▁PowerPoint	-10.0892
staví	-10.0895
▁nechal	-10.0896
věřil	-10.0902
60	-10.0902
oma	-10.0902
▁Společnost	-10.0904
dis	-10.092
▁třetin	-10.0923
izovat	-10.0924
▁rychlostí	-10.0925
▁druhá	-10.0931
▁aktiv	-10.0932
▁Nová	-10.094
▁Velk	-10.0941
▁Vše	-10.0943
▁Aby	-10.0953
MA	-10.0954
počítá	-10.0962
▁škody	-10.0962
▁parlamentní	-10.0968
▁druhého	-10.0973
▁Velké	-10.0974
▁cest	-10.0976
▁řekla	-10.0978
▁měsíc	-10.0983
oje	-10.0988
▁souboru	-10.0995
▁hotov	-10.0997
▁radost	-10.1
▁odpad	-10.1002
▁Francouz	-10.1012
▁kláves	-10.1012
▁zemědělství	-10.1012
▁Sovětské	-10.1012
▁servis	-10.1012
▁spotřebitel	-10.1012
▁Belgi	-10.1012
▁zákoníku	-10.1012
▁ohledu	-10.1013
▁látek	-10.1014
▁měsících	-10.1015
▁najít	-10.1017
brž	-10.1017
osud	-10.1017
▁desítky	-10.1017
▁Čechách	-10.1021
▁druhu	-10.1022
▁povinnost	-10.1025
▁škod	-10.1027
▁cit	-10.1031
▁Atlantě	-10.1033
▁zaplatí	-10.1033
▁závěru	-10.1042
▁lékařů	-10.1047
vádí	-10.1048
plnění	-10.1048
šp	-10.1049
▁hladin	-10.1059
▁vydání	-10.106
▁myslí	-10.1072
▁trestní	-10.1072
▁jinou	-10.1073
užit	-10.1075
▁počátku	-10.1082
▁město	-10.1089
kům	-10.1094
▁soused	-10.1096
▁27	-10.1096
metr	-10.1098
ive	-10.1104
něk	-10.1109
▁dopravní	-10.1113
▁Američan	-10.1117
▁daní	-10.1117
▁takového	-10.1119
odpovědn	-10.1126
ble	-10.1128
AL	-10.113
▁Jin	-10.1132
fu	-10.1133
vad	-10.1137
▁napsal	-10.1137
▁správy	-10.1141
pustí	-10.1143
prázdn	-10.1144
méně	-10.1145
▁hudební	-10.1151
▁schopen	-10.1151
▁tradiční	-10.1151
▁ustanovení	-10.1151
▁výrobců	-10.1151
▁těžký	-10.1151
▁Francie	-10.1151
▁Národní	-10.1151
▁nabídku	-10.1151
▁snímků	-10.1151
▁pořadatel	-10.1151
▁nápad	-10.1154
▁sbír	-10.1156
jel	-10.1157
▁současný	-10.1159
▁uplatnění	-10.1159
LI	-10.1165
▁důsled	-10.1168
▁oznámil	-10.1173
▁zákonů	-10.1177
ama	-10.1182
znamená	-10.1189
▁státech	-10.1191
▁ráno	-10.1193
▁výběru	-10.1195
▁dalšího	-10.1195
pek	-10.1197
▁Fa	-10.1197
▁obcí	-10.1198
▁přijde	-10.1199
áme	-10.121
▁charakter	-10.121
AV	-10.1212
jímá	-10.122
▁minulé	-10.1224
▁ekonomik	-10.1224
▁přesvědčen	-10.1231
NÁ	-10.1238
▁hranic	-10.1243
ovaným	-10.125
ista	-10.125
hlásil	-10.1251
měl	-10.1264
40	-10.127
▁začali	-10.1271
Ř	-10.1281
ávají	-10.1282
▁památ	-10.1284
▁nově	-10.1291
▁těžké	-10.1292
▁využít	-10.1292
▁expert	-10.1292
▁přijetí	-10.1292
▁odměn	-10.1293
▁řešit	-10.1293
▁působení	-10.1293
▁rozpočet	-10.1294
▁hodlá	-10.1295
▁školství	-10.1296
▁tentokrát	-10.1299
▁převážně	-10.1302
▁zajistit	-10.1303
▁%.	-10.1308
ju	-10.1309
pul	-10.1312
▁domov	-10.1315
▁rozhovor	-10.1316
▁nerv	-10.1321
▁Takže	-10.1323
▁útok	-10.1324
▁pořadí	-10.1328
vedou	-10.1329
▁klíč	-10.1334
▁fyzik	-10.1334
▁vyplývá	-10.1334
▁vysokou	-10.1335
▁částky	-10.1339
ickém	-10.134
▁řeč	-10.1345
▁knih	-10.1345
▁mimořádn	-10.1347
lep	-10.135
▁okamžiku	-10.135
tický	-10.136
TI	-10.1362
ša	-10.1366
▁stroj	-10.1368
▁ceně	-10.1375
▁slovenské	-10.1376
tisk	-10.1377
řka	-10.1381
▁ES	-10.1383
▁jiná	-10.1386
▁účt	-10.1386
DO	-10.1387
hodný	-10.1393
▁nim	-10.1394
▁takovém	-10.1408
dané	-10.1408
▁městské	-10.1414
lib	-10.1416
▁chybí	-10.1419
▁smrt	-10.1429
▁nesmí	-10.143
▁bohužel	-10.1434
▁družstva	-10.1434
▁nejrůznější	-10.1434
▁spolupráce	-10.1434
dostatečně	-10.1435
▁Mezinárodní	-10.1435
řídil	-10.1438
▁povolení	-10.1446
lín	-10.1448
▁změna	-10.1449
▁místech	-10.145
▁fa	-10.1451
▁seznamu	-10.1453
▁moře	-10.1459
rd	-10.1459
▁udělal	-10.1461
▁směrem	-10.1461
▁chtěli	-10.1471
▁cestou	-10.1472
▁údajů	-10.1474
▁poloh	-10.1474
▁názory	-10.1479
ovanou	-10.1485
▁400	-10.1494
bran	-10.1497
počíta	-10.1499
izaci	-10.1509
dvacet	-10.1509
▁chlad	-10.151
ony	-10.1511
▁zdroj	-10.1512
placení	-10.152
▁pra	-10.1521
▁demokratické	-10.1525
ňovat	-10.1528
▁Ře	-10.1528
▁blok	-10.1531
▁zvuk	-10.1535
▁Fin	-10.1544
▁Bud	-10.1546
▁Německ	-10.1557
▁150	-10.1559
kyně	-10.1564
front	-10.1564
níku	-10.1568
▁mistr	-10.1571
▁jestli	-10.1574
▁pondělí	-10.1579
▁prezentaci	-10.1579
▁průzkum	-10.1579
▁výtvarn	-10.1579
▁jistot	-10.1579
▁devět	-10.158
▁vyslovil	-10.158
▁smluvní	-10.1581
▁mikro	-10.1582
▁video	-10.1583
▁dvanáct	-10.1585
▁měsíční	-10.1588
▁máte	-10.159
ast	-10.1591
▁uspořáda	-10.1592
rez	-10.1594
▁pravidelně	-10.1594
▁předtím	-10.1597
ick	-10.1603
čních	-10.1614
▁kola	-10.1623
▁odpor	-10.1626
▁myslím	-10.1634
faktor	-10.1648
ěji	-10.1652
▁Per	-10.1655
▁výzkumu	-10.1657
letý	-10.1657
▁žádn	-10.1666
razí	-10.1675
▁turnaj	-10.1679
▁armády	-10.1684
▁případů	-10.1684
RE	-10.1686
▁svá	-10.1689
číst	-10.169
řídit	-10.1692
tav	-10.1692
▁odbyt	-10.1706
koupil	-10.1712
▁systémy	-10.1714
▁uvedla	-10.1719
▁HIV	-10.1726
▁Poslední	-10.1726
▁konferenci	-10.1726
▁podmínkách	-10.1726
▁příjmů	-10.1726
▁úrovně	-10.1726
▁června	-10.1726
▁detail	-10.1726
▁spoust	-10.1727
kají	-10.1728
▁radnice	-10.1729
og	-10.173
▁Mlad	-10.173
▁Pavl	-10.1733
▁závěrečn	-10.1735
▁Zákon	-10.1736
▁rostlin	-10.1738
,5	-10.1739
▁vztahy	-10.1741
▁podpis	-10.1747
▁výjimkou	-10.1748
ivost	-10.1749
▁LN	-10.1751
▁styk	-10.1752
▁půd	-10.176
▁Bra	-10.1782
▁velikost	-10.1787
▁daňové	-10.1789
▁částku	-10.1789
▁soukromé	-10.1789
▁taková	-10.179
▁politiku	-10.1792
▁vědy	-10.1795
▁německý	-10.1803
▁vysoký	-10.1803
▁akt	-10.1803
▁politický	-10.1804
▁mechanika	-10.1805
▁němu	-10.1806
stru	-10.1811
▁změnu	-10.1815
▁technik	-10.1819
cení	-10.1825
ence	-10.1831
▁Sv	-10.1832
▁očekává	-10.1833
▁součást	-10.1838
▁konkurence	-10.1841
▁Každ	-10.1843
▁jím	-10.1847
▁váš	-10.1847
har	-10.1847
▁vydal	-10.1851
▁Par	-10.1855
▁Jedna	-10.1865
▁daň	-10.1868
▁optim	-10.1874
▁architekt	-10.1875
▁Největší	-10.1876
▁Současn	-10.1876
▁účetnictví	-10.1876
▁většině	-10.1876
vádějí	-10.1876
▁jedenáct	-10.1876
▁kapitol	-10.1876
▁války	-10.1876
RU	-10.1876
▁aliance	-10.1876
▁brankář	-10.1876
istů	-10.1877
▁rodiny	-10.1877
▁tvrzení	-10.1877
▁směru	-10.1883
▁sedmi	-10.1884
▁centra	-10.1885
▁míč	-10.1889
rab	-10.1895
▁Naše	-10.1899
▁padesát	-10.19
▁museli	-10.1906
IS	-10.1908
▁dané	-10.1914
▁jednoznačně	-10.1918
níky	-10.1918
▁Nad	-10.1921
▁neví	-10.1921
boj	-10.1928
ička	-10.193
▁pozná	-10.1943
▁známé	-10.1945
nova	-10.1954
▁skupině	-10.1956
OS	-10.1959
▁výraz	-10.1962
kraji	-10.1966
▁tiskové	-10.1966
▁vln	-10.1969
▁Rusko	-10.1975
▁26	-10.1981
dem	-10.1991
▁postižen	-10.1992
▁obvod	-10.2002
hel	-10.2007
▁aktivity	-10.2012
▁Bur	-10.2018
▁hodnotu	-10.202
▁PRO	-10.2022
▁Gorbačov	-10.2027
▁většiny	-10.2027
▁Evropa	-10.2027
▁politice	-10.2027
▁vždycky	-10.2027
▁prohrál	-10.2027
▁záruk	-10.2027
▁schéma	-10.2028
▁začít	-10.2029
áním	-10.2029
▁polovinu	-10.203
▁Han	-10.2032
padá	-10.2034
▁uvedené	-10.2034
nějších	-10.2036
▁třemi	-10.2036
▁Jenže	-10.2041
▁leží	-10.2042
▁nemocnice	-10.2044
▁individuální	-10.2046
▁východ	-10.2047
▁náhrad	-10.205
▁pořádku	-10.2053
▁odpovědnost	-10.2053
hem	-10.2064
▁uživatel	-10.2069
produkt	-10.2073
▁ODA	-10.2074
▁dělá	-10.2076
▁pracovníci	-10.2077
▁Německo	-10.2079
▁hlasování	-10.2081
▁liber	-10.2086
▁Václava	-10.2087
▁předsedy	-10.2093
žije	-10.2095
▁změně	-10.2097
▁nutno	-10.2097
▁diváků	-10.2102
▁budoucnosti	-10.2103
árně	-10.211
▁univerzity	-10.2112
▁proveden	-10.2119
▁oslav	-10.2123
jmenován	-10.2125
▁průměrn	-10.2133
▁náhod	-10.2144
přes	-10.2145
IT	-10.2148
▁životě	-10.2156
běžně	-10.216
mj	-10.2162
roj	-10.2165
vala	-10.2176
▁vklad	-10.2178
▁AIDS	-10.2181
▁Británie	-10.2181
▁obyvatelstva	-10.2181
▁vzdělání	-10.2181
▁publika	-10.2181
▁srpna	-10.2181
▁Možná	-10.2181
▁super	-10.2184
▁pravé	-10.2184
▁Vždyť	-10.2189
▁nástup	-10.2189
yl	-10.2196
▁konec	-10.2197
▁známý	-10.2197
DE	-10.2201
pir	-10.2205
▁trval	-10.2206
bil	-10.2207
tvrdil	-10.2208
▁sezón	-10.2214
▁čase	-10.2217
▁studentů	-10.2221
▁Škoda	-10.2226
▁lidské	-10.2227
▁demokratick	-10.2229
▁odst	-10.223
snad	-10.2233
▁miliony	-10.2239
▁3.	-10.2241
▁důsledku	-10.2247
▁sport	-10.2247
▁posun	-10.2252
řek	-10.2253
▁složení	-10.2255
▁paní	-10.2255
bral	-10.2256
▁nutnost	-10.2267
▁údajn	-10.2269
▁mnohé	-10.227
kazuje	-10.227
▁ostr	-10.227
▁používá	-10.2271
▁hlasů	-10.2272
▁stop	-10.2277
▁pán	-10.2279
ároveň	-10.2281
▁běžný	-10.2286
▁tvrd	-10.2292
▁aktivní	-10.2298
20	-10.23
▁koupit	-10.2302
▁takových	-10.2308
art	-10.231
▁orgán	-10.2317
▁státních	-10.232
▁jejího	-10.2332
procentní	-10.2336
▁katastrof	-10.2337
▁normální	-10.2337
▁tajemství	-10.2337
▁očekávat	-10.2337
▁připravuje	-10.2337
▁silniční	-10.2337
hovořil	-10.2337
▁čísle	-10.2338
▁piva	-10.2338
▁název	-10.2338
▁buněk	-10.2338
▁Západ	-10.2339
▁verze	-10.2341
směs	-10.2341
▁Vol	-10.2343
▁tráv	-10.2344
▁prázdnin	-10.2345
▁uspořádání	-10.235
▁průměru	-10.235
▁zdalek	-10.2353
▁zařazen	-10.2356
▁zásadní	-10.2359
▁pobyt	-10.2381
▁úřady	-10.2382
▁soudní	-10.2386
▁chceme	-10.2387
▁příštím	-10.2393
▁dochází	-10.2397
und	-10.2401
▁poznání	-10.2401
ičtí	-10.2409
▁počítačů	-10.242
▁významný	-10.242
▁americký	-10.2422
▁zákazník	-10.2425
▁dohod	-10.2431
▁jiným	-10.2435
▁pokut	-10.2436
▁kvalitu	-10.2436
ívají	-10.244
▁povinnosti	-10.2441
telné	-10.2443
▁určitý	-10.2455
NI	-10.2455
▁Ot	-10.2484
ria	-10.2485
▁zápase	-10.2488
▁per	-10.2494
▁argument	-10.2496
▁režisér	-10.2496
▁zřejmé	-10.2496
▁dialog	-10.2496
▁zpravodaj	-10.2496
▁zůstat	-10.2496
▁občas	-10.2496
▁pachatel	-10.2496
▁přírody	-10.2496
▁fotograf	-10.2496
▁trend	-10.2497
▁privatizaci	-10.2497
ičky	-10.2498
▁marek	-10.2498
▁sdělil	-10.2502
▁Karel	-10.2503
▁článku	-10.2509
▁realiz	-10.2509
neme	-10.2513
▁symbol	-10.2515
▁počítat	-10.2515
▁vyžaduje	-10.2517
▁banka	-10.2519
▁uveden	-10.2519
▁okresní	-10.2522
▁stroje	-10.2522
▁sovětské	-10.2523
▁Ri	-10.2525
▁vánoce	-10.2525
▁jaderné	-10.2525
▁Ste	-10.253
▁odborníků	-10.253
▁agentury	-10.2533
▁sam	-10.2535
▁zajímavé	-10.2537
▁projektu	-10.254
▁premiéra	-10.254
▁Tři	-10.2544
▁muži	-10.2547
▁vyjádřil	-10.2547
▁spol	-10.2548
75	-10.2559
▁pozitivní	-10.2561
▁údaj	-10.2562
▁hlavních	-10.2563
▁formul	-10.2564
▁univerzit	-10.2567
▁známo	-10.2571
▁jaká	-10.2572
▁částí	-10.2572
▁výkonu	-10.2577
šly	-10.258
▁šíř	-10.2582
▁příštího	-10.2582
▁kart	-10.2583
▁jaderný	-10.2594
▁úvahu	-10.2594
ativní	-10.26
▁mini	-10.2602
▁přísn	-10.2627
▁týká	-10.2633
elné	-10.2636
▁uvědom	-10.2639
sty	-10.2642
▁96	-10.2649
▁slouží	-10.2652
85	-10.2656
▁Miroslav	-10.2657
▁Myslím	-10.2657
▁jména	-10.2657
▁nemovitost	-10.2657
▁organizací	-10.2657
▁perspektiv	-10.2657
▁tlačítko	-10.2657
▁zahájil	-10.2657
▁požádal	-10.2657
▁věnovat	-10.2657
▁historii	-10.2657
▁válce	-10.2657
▁následn	-10.2657
▁rozhlas	-10.2657
▁Inter	-10.2663
EM	-10.2663
▁Rozhod	-10.2663
▁roste	-10.2665
▁obran	-10.2669
▁Or	-10.2672
▁vaší	-10.2676
▁Česko	-10.268
▁ztratil	-10.2686
▁liší	-10.2711
▁hod	-10.2714
LO	-10.2716
▁politika	-10.2728
▁dar	-10.2728
▁kontakt	-10.2731
▁soutěži	-10.2752
▁přeprav	-10.2756
▁přestáv	-10.2761
▁vývoji	-10.2762
▁režimu	-10.2764
▁programy	-10.2766
▁nedá	-10.2769
ána	-10.2771
▁druhy	-10.279
hrát	-10.2801
JE	-10.2807
▁mechanik	-10.2809
EC	-10.2813
▁doklad	-10.2819
ěkteří	-10.282
▁1995	-10.2821
▁jednoduché	-10.2821
▁nabízejí	-10.2821
▁považován	-10.2821
▁Někd	-10.2821
▁Základní	-10.2821
sloužil	-10.2821
▁snížil	-10.2821
▁špatné	-10.2821
▁zůstane	-10.2821
▁pravidel	-10.2821
▁zvíře	-10.2822
▁tajemník	-10.2822
▁hormon	-10.2822
▁pivovar	-10.2822
celku	-10.2822
▁doktor	-10.2822
▁Ši	-10.2823
▁zimní	-10.2825
▁riziko	-10.2825
tion	-10.2833
povídá	-10.2833
tud	-10.2834
čan	-10.2836
▁abych	-10.2844
▁úřadů	-10.2845
padal	-10.2846
▁smlouva	-10.2849
▁Bi	-10.2858
▁déle	-10.2862
/2	-10.2865
▁signál	-10.2868
▁porazil	-10.2869
▁přesun	-10.287
▁Stál	-10.2872
▁kultur	-10.2876
▁programů	-10.2885
▁cesta	-10.2887
▁Fr	-10.2888
▁pevn	-10.289
▁hraje	-10.2891
▁Ex	-10.2893
▁typů	-10.2897
▁hotelu	-10.2897
▁úst	-10.2902
▁barev	-10.2915
▁veškeré	-10.292
▁hranici	-10.2928
▁postih	-10.2938
mark	-10.2945
pustit	-10.2955
▁Mám	-10.2956
▁chud	-10.2968
držet	-10.2968
▁typy	-10.2974
pracovat	-10.298
▁Hlavní	-10.298
skok	-10.2982
▁pacientů	-10.2984
▁žije	-10.2984
ins	-10.2984
▁Františ	-10.2984
▁globální	-10.2988
▁monitor	-10.2988
▁sponzor	-10.2988
▁závazk	-10.2988
▁řidič	-10.2988
▁úterý	-10.2988
▁výbuch	-10.2988
▁iniciativ	-10.2988
▁Lidé	-10.2988
▁kapalin	-10.2988
▁existují	-10.2989
▁včas	-10.2989
▁někdejší	-10.2989
▁Letos	-10.299
▁republika	-10.299
▁šance	-10.299
▁Kor	-10.2991
▁Fran	-10.2991
padají	-10.2993
▁jestliže	-10.2995
▁pořad	-10.2997
▁lednu	-10.3
▁končí	-10.3018
pořád	-10.3018
▁stane	-10.3019
▁budu	-10.3026
▁ruce	-10.3027
budete	-10.3031
brat	-10.3032
věřit	-10.3033
ON	-10.3039
out	-10.3043
▁hledání	-10.3045
▁oblastí	-10.3049
▁stranu	-10.305
TO	-10.3051
▁soudí	-10.3053
▁psa	-10.3065
▁dům	-10.3065
▁malá	-10.3067
▁získala	-10.3069
▁profesionální	-10.3069
▁muže	-10.3077
▁skutečné	-10.3081
▁značné	-10.3088
jedno	-10.309
▁kapitálu	-10.3096
rní	-10.3099
elná	-10.31
tají	-10.3105
▁problémem	-10.3106
▁podnikatelské	-10.3109
▁Kam	-10.3112
▁bytu	-10.3121
▁fotbalový	-10.3122
vir	-10.3129
tickou	-10.3129
▁Ci	-10.313
▁patnáct	-10.3131
▁bit	-10.3135
▁Pražské	-10.3137
▁novým	-10.3144
▁Změn	-10.3147
▁vrátit	-10.3153
bytek	-10.3155
▁speciali	-10.3155
▁Federální	-10.3157
▁nejdříve	-10.3157
▁používat	-10.3157
▁trénink	-10.3157
▁zvlášť	-10.3157
▁Lékař	-10.3157
▁útvar	-10.3157
▁potíže	-10.3157
▁verzi	-10.3157
▁pěkn	-10.3158
▁mzdy	-10.3158
▁najednou	-10.3158
▁členství	-10.316
▁shromáždění	-10.3161
▁výklad	-10.3162
▁vystoupení	-10.3163
▁Zdá	-10.3164
▁kol	-10.3165
▁studie	-10.3165
operační	-10.3165
▁tabulky	-10.3166
▁svému	-10.3168
▁úmysl	-10.3169
bel	-10.3169
▁sluš	-10.317
stávají	-10.3171
▁odpověď	-10.3179
rst	-10.3185
▁rozdělení	-10.3194
▁děje	-10.3199
▁sv	-10.3208
▁probíh	-10.3209
▁Nebo	-10.3211
▁Chce	-10.3213
trh	-10.3214
▁centru	-10.3231
▁Her	-10.3234
praví	-10.3235
▁programové	-10.3242
▁OS	-10.3243
▁krajin	-10.3244
▁označení	-10.3246
▁vznikla	-10.3249
▁třetím	-10.3254
▁lékařské	-10.3254
váží	-10.3256
▁aut	-10.3258
▁4.	-10.3259
▁dávno	-10.326
rok	-10.3261
zdrav	-10.3263
▁zprávu	-10.3264
▁délk	-10.3267
▁akcí	-10.3268
▁deník	-10.3271
▁vztahů	-10.3272
▁akcie	-10.3274
▁časem	-10.3286
▁Auto	-10.3286
▁nezbytn	-10.3296
DA	-10.3304
▁počítači	-10.3309
▁těsně	-10.3309
▁Michael	-10.333
▁katalog	-10.333
▁primátor	-10.333
▁prospěch	-10.333
▁spočívá	-10.333
▁umožnil	-10.333
▁výrobci	-10.333
▁hospodaření	-10.333
▁paragraf	-10.333
▁rozhodne	-10.333
▁Československa	-10.333
▁domnívá	-10.333
▁císař	-10.333
▁odpovídající	-10.333
▁Nicméně	-10.333
▁zaměstnanci	-10.3332
ČSL	-10.3333
▁případné	-10.3337
▁No	-10.334
▁nalezen	-10.3343
▁MB	-10.3346
▁sedmdesát	-10.3348
▁červen	-10.335
▁dopad	-10.3351
▁soukromých	-10.3353
▁sjezd	-10.3355
▁pozici	-10.3364
▁fin	-10.3369
▁odpadů	-10.3371
▁záznamník	-10.3374
čili	-10.3381
▁schopnost	-10.3385
VA	-10.3392
▁král	-10.3393
▁zaměstnavatel	-10.3394
▁pohybu	-10.34
rej	-10.3427
▁Sb	-10.343
▁týdne	-10.3432
▁škole	-10.3435
▁zad	-10.3435
▁posledním	-10.3439
▁vnější	-10.3439
▁písemn	-10.3443
nesou	-10.345
▁silné	-10.3457
▁prac	-10.3467
▁pracoval	-10.3467
▁12.	-10.347
rna	-10.3481
běhl	-10.3482
též	-10.3484
kázat	-10.3485
▁nedostat	-10.3486
▁britské	-10.3487
šky	-10.3491
▁komunik	-10.35
▁odběratel	-10.3505
▁odvětví	-10.3505
▁uchazeč	-10.3505
▁firmu	-10.3505
▁hrozí	-10.3505
▁mozku	-10.3505
▁Tomáš	-10.3505
▁propag	-10.3506
▁Dále	-10.3506
▁hovor	-10.3507
▁Pohár	-10.3507
▁hledat	-10.3508
▁DNA	-10.3512
▁horší	-10.3513
zaměstnan	-10.3514
▁prvků	-10.3514
▁mnozí	-10.3516
▁dluh	-10.3517
▁Čern	-10.3519
▁vyrovná	-10.3522
▁ruský	-10.3526
ovce	-10.3526
▁získali	-10.3526
▁drah	-10.3535
▁půdě	-10.3546
▁letošním	-10.3553
razit	-10.3555
▁region	-10.3562
▁vědomí	-10.3566
▁umí	-10.3568
▁poměru	-10.3578
▁Rus	-10.3587
třel	-10.3592
▁budoucnost	-10.3595
náší	-10.36
ité	-10.3601
▁platnost	-10.3602
▁díla	-10.3611
hav	-10.3612
bla	-10.3614
▁poháru	-10.3615
▁troj	-10.3616
▁jiném	-10.3632
▁zemědělské	-10.3639
▁rozvoje	-10.3647
▁uložen	-10.3649
ráže	-10.3652
▁vědeck	-10.3659
▁teploty	-10.3662
ór	-10.3664
▁uzavření	-10.3668
▁neroz	-10.3668
měnit	-10.367
▁metody	-10.367
volal	-10.3672
▁ochranu	-10.3679
san	-10.368
znamenat	-10.3684
▁aplikací	-10.3684
▁problematik	-10.3684
▁upozornil	-10.3684
▁zdůraznil	-10.3684
▁Československo	-10.3684
▁Existuj	-10.3684
▁výrobě	-10.3684
▁natolik	-10.3684
▁informoval	-10.3684
▁výroba	-10.3684
▁rodiče	-10.3684
▁tudíž	-10.3684
▁podpory	-10.3684
▁nechtěl	-10.3684
▁bankovní	-10.3684
▁reprezentace	-10.3685
jedině	-10.3685
▁zmíněné	-10.3685
koupí	-10.3691
▁limit	-10.3693
▁částečně	-10.3694
▁vytváření	-10.3695
▁křiv	-10.3701
72	-10.3704
▁účasti	-10.3705
▁vlastností	-10.3723
▁obecně	-10.3726
hraje	-10.3729
▁centrální	-10.3732
▁zavedení	-10.3733
▁záležitost	-10.3735
▁Poté	-10.374
rám	-10.3742
▁rizik	-10.3746
▁režim	-10.3746
▁zpráva	-10.3751
▁lov	-10.3757
ologické	-10.3758
▁Švédsk	-10.3763
▁klima	-10.3767
▁ochotn	-10.3781
▁karty	-10.3786
valy	-10.3789
▁účastníků	-10.3798
▁hospodářsk	-10.3799
land	-10.3802
▁dílo	-10.3809
▁umístěn	-10.3811
řez	-10.3814
počátku	-10.3818
▁přinesl	-10.3827
MI	-10.3834
▁Musí	-10.3845
▁šedesát	-10.3851
▁dalšími	-10.3856
▁pohledu	-10.3856
▁důvodu	-10.386
▁různ	-10.386
▁Hus	-10.386
padlo	-10.3862
působit	-10.3862
▁neexistuje	-10.3866
▁odpoledne	-10.3866
▁připojištění	-10.3866
▁rozhodčí	-10.3866
▁organismu	-10.3866
▁paměti	-10.3866
▁stimul	-10.3866
▁pomalu	-10.3866
▁vyloučen	-10.3866
▁kvalifikaci	-10.3867
▁Americk	-10.3867
▁Milan	-10.3871
inak	-10.3872
▁připomíná	-10.3872
▁česká	-10.3872
▁oblastech	-10.3879
▁svědčí	-10.3884
žijí	-10.3884
▁povinn	-10.3884
ňují	-10.3886
▁anti	-10.3889
▁kapitál	-10.3891
▁Ústav	-10.3894
hřeb	-10.3896
▁nynější	-10.3897
SO	-10.3897
jíž	-10.3901
ůj	-10.3904
dostala	-10.3913
▁kvalit	-10.3916
TE	-10.3916
▁směr	-10.3919
▁olej	-10.3923
▁zkušenost	-10.3924
▁Slovenska	-10.3924
▁materiálů	-10.3934
MO	-10.3943
▁kup	-10.3953
▁pop	-10.3965
▁významné	-10.3968
▁loňském	-10.397
pětí	-10.3973
▁potřeba	-10.3979
▁zraněn	-10.3981
iletý	-10.3982
jen	-10.3984
▁radi	-10.3991
▁brněnské	-10.3995
izované	-10.4002
nést	-10.4004
▁dohodu	-10.4005
▁nejvíc	-10.4005
▁vzájemné	-10.4008
▁poloviny	-10.4009
▁The	-10.401
▁děj	-10.4013
▁Nejs	-10.4018
▁mé	-10.4019
▁náhradní	-10.4023
▁obrazu	-10.4036
▁kód	-10.4042
alternativ	-10.4051
▁Itálie	-10.4051
▁Ovšem	-10.4051
▁Program	-10.4051
▁konflikt	-10.4051
▁spolehliv	-10.4051
▁zveřejněn	-10.4051
▁úspěšně	-10.4051
▁výhradn	-10.4051
▁neustále	-10.4051
▁minimální	-10.4051
▁stránce	-10.4051
▁rychlé	-10.4051
▁desetiletí	-10.4051
▁snažil	-10.4051
▁praxe	-10.4051
▁záchran	-10.4051
▁rozliš	-10.4051
Vesmír	-10.4051
▁chorob	-10.4051
▁vysíla	-10.4051
▁dodnes	-10.4051
hlédnout	-10.4051
tát	-10.4051
▁19.	-10.4052
▁KSČM	-10.4052
▁pouhý	-10.4052
▁regionální	-10.4053
▁paliv	-10.4053
▁nicméně	-10.4053
▁vyjádření	-10.4054
▁úsek	-10.4054
▁rádi	-10.4054
▁desítek	-10.4057
▁zdejší	-10.4059
▁Ministr	-10.4059
▁přístroje	-10.406
▁Ostravě	-10.4062
▁Ital	-10.4063
▁chat	-10.4063
▁vybrat	-10.4069
▁ztráty	-10.4069
tická	-10.4076
▁činitel	-10.4084
munist	-10.4084
▁určitou	-10.4086
▁slev	-10.4091
▁silnic	-10.4091
SA	-10.4103
KU	-10.4106
čila	-10.4109
▁vlastnost	-10.4113
▁návrat	-10.412
▁Fo	-10.4124
▁soustavy	-10.4128
▁ročník	-10.4132
▁roh	-10.4132
ovky	-10.4141
dor	-10.4147
▁žena	-10.4149
▁musím	-10.4152
▁Bre	-10.4156
kin	-10.4162
▁nastal	-10.4162
▁technick	-10.4165
▁voda	-10.4169
▁forma	-10.4178
▁Char	-10.4188
okr	-10.419
▁určit	-10.419
▁občanské	-10.4199
▁rozhovoru	-10.4207
▁autorů	-10.4208
▁standardní	-10.4211
▁vzal	-10.4211
▁Tam	-10.4221
▁registr	-10.4224
áků	-10.4225
▁značn	-10.4226
▁odboru	-10.4229
▁zpráv	-10.4231
▁Olymp	-10.4239
▁Karadžič	-10.4239
▁Všichni	-10.4239
▁jednoduchý	-10.4239
▁náměstek	-10.4239
▁poptávky	-10.4239
▁profesor	-10.4239
▁zvítězil	-10.4239
▁zúčastnil	-10.4239
▁špatně	-10.4239
▁teoretick	-10.4239
▁Naopak	-10.424
▁náročn	-10.424
▁vývozu	-10.424
▁skvěl	-10.424
▁jediná	-10.424
▁poslance	-10.424
▁Snad	-10.4241
▁čtení	-10.4242
▁odborníci	-10.4242
▁zaměstnance	-10.4242
▁kostel	-10.4243
▁nabídl	-10.4245
▁koncentrace	-10.4246
▁potřebují	-10.4246
▁měření	-10.4246
IC	-10.4246
▁Výstav	-10.4247
▁okna	-10.4248
▁produktů	-10.4249
utí	-10.425
▁atlet	-10.4252
▁Nez	-10.4253
▁29	-10.4254
bili	-10.4259
▁statistick	-10.4263
ller	-10.4263
▁drobn	-10.4266
▁II	-10.4275
▁přestup	-10.4277
▁záležitostí	-10.4282
▁totem	-10.4283
▁italské	-10.4283
▁vychází	-10.4287
▁stovky	-10.4289
ekonomický	-10.4295
▁automaticky	-10.4299
▁zrušení	-10.4306
hání	-10.4308
▁vzduchu	-10.431
▁závodu	-10.4314
▁úvah	-10.4314
▁pohár	-10.4315
▁problému	-10.4321
▁rozsahu	-10.4328
▁reálné	-10.4337
▁nástroj	-10.4342
▁Mark	-10.4345
ica	-10.4353
ovského	-10.4368
▁zlom	-10.4381
▁činností	-10.4387
▁lidsk	-10.439
▁neměli	-10.4395
▁Val	-10.4398
▁čekají	-10.4405
▁češt	-10.4411
▁Ad	-10.4416
▁ústavní	-10.4417
▁představují	-10.442
▁zajímav	-10.4427
▁domácím	-10.443
▁filozof	-10.4431
▁investovat	-10.4432
▁Ředitel	-10.4432
▁šestnáct	-10.4432
▁upraven	-10.4432
▁resort	-10.4432
▁mladé	-10.4432
▁historie	-10.4432
▁konzul	-10.4432
▁zakázk	-10.4432
▁turistů	-10.4432
▁zbraně	-10.4432
▁bydlení	-10.4432
bavit	-10.4432
povídají	-10.4432
▁věnoval	-10.4432
▁pojetí	-10.4433
▁zápis	-10.4433
▁nechat	-10.4434
▁lidmi	-10.4439
ečná	-10.4441
▁Evropsk	-10.4441
▁krátce	-10.4443
kář	-10.4447
▁pohybuje	-10.4449
▁dodávky	-10.4449
vající	-10.4452
▁pozice	-10.4455
▁rozpad	-10.4459
▁filmu	-10.4461
▁soutěží	-10.4462
▁zákonem	-10.4466
▁vlastním	-10.4471
▁měnit	-10.4475
▁šampionátu	-10.4475
sát	-10.4476
▁obecní	-10.448
▁Spo	-10.448
▁hodnota	-10.4483
▁domě	-10.4485
▁směn	-10.4486
▁řádu	-10.4489
▁Soud	-10.4491
▁voličů	-10.4502
▁dob	-10.4507
bezpeč	-10.4513
▁17.	-10.4521
▁dostává	-10.4526
70	-10.4528
vítá	-10.453
▁provedení	-10.4533
▁Olomouc	-10.4539
▁omezení	-10.4544
▁195	-10.4547
▁činil	-10.4549
▁silný	-10.4551
▁úspěchu	-10.4552
▁výchov	-10.456
▁využívá	-10.4564
▁Sam	-10.4565
▁obviněn	-10.4567
▁postav	-10.4575
▁Kla	-10.4575
▁investic	-10.4577
mořsk	-10.4577
▁nejdůležitější	-10.4579
▁objev	-10.458
▁rychlosti	-10.4591
▁nájemné	-10.4593
▁jinými	-10.4599
▁podstat	-10.4605
▁mně	-10.4611
▁distribu	-10.4626
▁Především	-10.4628
▁Richard	-10.4628
▁elektrárny	-10.4628
▁měsíčně	-10.4628
▁sobotní	-10.4628
▁umožní	-10.4628
▁úspěšné	-10.4628
▁minimálně	-10.4628
▁snížit	-10.4628
▁Spojené	-10.4628
▁zvýšit	-10.4628
▁úsilí	-10.4628
▁okruh	-10.4628
▁srovnateln	-10.4628
▁seminář	-10.4628
▁snímky	-10.4628
▁sektor	-10.4629
▁setkal	-10.4629
▁doslova	-10.4629
▁míře	-10.4629
▁poškození	-10.463
▁kritik	-10.463
▁tvorbu	-10.463
sadil	-10.4632
▁Češi	-10.4634
▁nucen	-10.4635
▁celek	-10.4637
▁myší	-10.4638
▁nejlepším	-10.4639
▁pravdu	-10.464
▁osmdesát	-10.4642
▁materiálu	-10.4645
▁zobrazení	-10.4651
▁okolností	-10.4658
▁různým	-10.4659
▁návrhy	-10.4663
▁správně	-10.4663
ŘE	-10.4664
▁anglické	-10.4667
▁samotné	-10.467
▁žádném	-10.4673
48	-10.4675
▁cestě	-10.4677
▁policistů	-10.468
▁konstru	-10.4681
▁potenciál	-10.4681
▁námi	-10.4681
▁černé	-10.4687
pád	-10.4687
▁žádná	-10.469
pust	-10.4691
▁rozvod	-10.4694
▁mistrů	-10.4696
▁znát	-10.4699
▁domácích	-10.4699
hradí	-10.4701
▁cítí	-10.4704
▁černo	-10.471
▁třídy	-10.4727
▁festivalu	-10.4727
▁nepod	-10.4727
▁600	-10.4729
▁zjistil	-10.4739
▁dní	-10.474
▁soupeře	-10.4742
▁centrum	-10.4742
▁moravsk	-10.4746
▁ano	-10.475
▁Ano	-10.475
▁konstatoval	-10.4753
▁neznám	-10.4775
▁Man	-10.4777
▁dodat	-10.478
▁koalic	-10.4781
jal	-10.4783
ějším	-10.4784
ral	-10.4787
▁temp	-10.4793
▁vzniká	-10.4794
▁PowerPointu	-10.4802
▁dítě	-10.4803
děk	-10.4806
▁poklesu	-10.4824
▁existence	-10.4828
▁konkurenční	-10.4828
▁matematik	-10.4828
▁pojišťovny	-10.4828
▁rozhodování	-10.4828
▁specifick	-10.4828
▁úspěšný	-10.4828
▁ČNR	-10.4828
▁Samozřejmě	-10.4828
▁širší	-10.4828
▁divadla	-10.4828
▁editor	-10.4828
▁půjde	-10.4828
▁výskyt	-10.4828
▁sdělení	-10.4828
▁nabídka	-10.4828
▁úvodní	-10.4828
▁Vznik	-10.4828
▁Řad	-10.4829
lze	-10.4829
▁polovina	-10.483
▁oper	-10.4833
▁obsadil	-10.4833
▁celní	-10.4834
▁strach	-10.4834
▁představení	-10.4837
▁úraz	-10.484
mile	-10.484
▁Muž	-10.4841
▁dobrovoln	-10.4841
▁nezávislých	-10.4843
▁myšlení	-10.4844
šování	-10.4849
▁společenské	-10.4851
▁výdaje	-10.4856
▁povrchu	-10.4858
▁kont	-10.4864
▁nemoci	-10.4869
▁krásn	-10.4871
kož	-10.4876
hladov	-10.4876
▁podnikatelé	-10.4889
▁generál	-10.489
ier	-10.4902
▁Proti	-10.4911
▁obyčejn	-10.4918
▁prodá	-10.4921
bírá	-10.4923
▁vysokých	-10.4926
▁nebyli	-10.4927
▁ochot	-10.4928
▁zaměřen	-10.4938
▁nastoupil	-10.4941
▁Indi	-10.4942
▁zákazníky	-10.4944
entní	-10.4945
▁okraj	-10.495
▁technický	-10.4951
▁půdy	-10.4951
▁mysli	-10.4953
bývající	-10.4967
▁Slovensko	-10.497
lární	-10.4971
▁posíl	-10.4972
▁nese	-10.4987
▁vyhlášen	-10.499
kládání	-10.4993
▁úpravy	-10.4997
▁fan	-10.5005
▁skupinu	-10.5007
▁letní	-10.5009
státní	-10.5009
▁bezpečnost	-10.5011
hodil	-10.5017
han	-10.5017
▁chemické	-10.5026
▁klade	-10.5028
▁Němci	-10.5032
▁alkohol	-10.5032
▁církve	-10.5032
▁nábožensk	-10.5032
▁přehlídk	-10.5032
▁týdny	-10.5032
▁usnesení	-10.5032
▁surovin	-10.5032
▁nízké	-10.5032
▁odmítá	-10.5032
▁kolegy	-10.5032
▁společn	-10.5032
▁zapotřebí	-10.5032
▁přišla	-10.5033
▁vražd	-10.5033
▁1988	-10.5033
▁privatizační	-10.5033
▁zbytk	-10.5034
▁Teď	-10.5037
▁létě	-10.5037
kombin	-10.5038
▁tříd	-10.5042
▁StB	-10.5044
▁maximáln	-10.5052
hradit	-10.5056
padne	-10.5058
ujte	-10.5058
soci	-10.5063
▁žijící	-10.5066
▁hodinu	-10.5073
▁vůle	-10.5074
▁výuk	-10.5074
▁mladých	-10.5076
▁postaven	-10.5077
nder	-10.5083
▁armáda	-10.5088
▁přímé	-10.509
▁zájmy	-10.509
▁rozporu	-10.5096
▁porušení	-10.5097
▁představitelů	-10.5097
▁důsledky	-10.5099
▁lidského	-10.5109
letěl	-10.511
▁založil	-10.511
kupní	-10.5111
▁uvedený	-10.5112
▁pomohl	-10.5112
▁odpadní	-10.5113
▁Internetu	-10.512
▁regul	-10.5125
▁čisté	-10.5125
▁německého	-10.5126
mot	-10.5129
▁německých	-10.5132
▁cm	-10.5134
▁původu	-10.5134
▁Kde	-10.5146
▁automobilů	-10.5146
▁účastní	-10.5151
▁velikosti	-10.5155
volat	-10.517
▁předsed	-10.5171
▁daňový	-10.5177
▁20.	-10.518
▁nehod	-10.5186
▁formát	-10.519
▁mluví	-10.5192
▁dřív	-10.5192
80	-10.5201
posled	-10.5209
▁částka	-10.5223
ticky	-10.5224
▁prodejní	-10.5228
▁Egypt	-10.524
▁Moskvě	-10.524
▁firmou	-10.524
▁nabízen	-10.524
▁pokračoval	-10.524
▁technologick	-10.524
▁technologií	-10.524
▁zvyšuje	-10.524
▁Druhý	-10.524
▁mužstva	-10.524
▁populace	-10.524
▁třináct	-10.524
▁vynikající	-10.524
▁dětské	-10.524
▁spisovatel	-10.524
▁Třetí	-10.524
▁devíti	-10.524
▁dovolené	-10.524
KDU	-10.524
▁štěstí	-10.524
▁ihned	-10.524
▁Předseda	-10.524
▁Francii	-10.524
▁Pomuku	-10.5241
vodí	-10.5241
▁funkční	-10.5241
▁reprezentační	-10.5241
▁Bush	-10.5241
▁tábor	-10.5242
vzdor	-10.5243
objednáv	-10.5243
▁Svaz	-10.5243
▁spotřební	-10.5244
▁Více	-10.5246
▁Boris	-10.5246
▁bomb	-10.5248
▁mluvit	-10.5249
▁33	-10.525
▁obětí	-10.525
spal	-10.5251
▁Místo	-10.5252
▁vyrovnan	-10.5254
▁šok	-10.5254
▁18.	-10.5257
▁rozhodla	-10.5258
▁úmrtnosti	-10.5258
▁Avšak	-10.5262
▁podklad	-10.527
▁stačil	-10.527
▁přichází	-10.5274
▁nemocnici	-10.5281
zemní	-10.5284
▁těla	-10.5285
▁zastoupení	-10.5286
▁obce	-10.5286
▁barevné	-10.5287
▁obavy	-10.5304
▁všeho	-10.5315
▁příležitost	-10.5323
▁ZA	-10.5324
▁Dobr	-10.533
▁představy	-10.5333
hlásí	-10.5336
▁Jižní	-10.5338
▁řeči	-10.5339
▁prodává	-10.5341
psané	-10.5342
tických	-10.5351
▁studiu	-10.5356
▁doprav	-10.5364
znamenal	-10.5377
▁realit	-10.5385
▁lesní	-10.539
▁molekuly	-10.5391
▁diplomat	-10.5393
▁jednoznačn	-10.5395
▁ročníku	-10.5396
▁0,	-10.5402
▁pražsk	-10.5405
▁nebezpečn	-10.5406
▁příštích	-10.5406
ston	-10.5416
▁znalost	-10.5416
▁hrají	-10.5417
dol	-10.5423
▁setká	-10.5425
▁elektro	-10.5428
▁pražském	-10.543
▁Car	-10.543
▁krátké	-10.5431
▁dostih	-10.5432
▁správné	-10.5434
▁českým	-10.5447
▁Španěl	-10.5451
▁financování	-10.5453
▁konkurenci	-10.5453
▁magistrát	-10.5453
▁mládež	-10.5453
▁nakladatelství	-10.5453
▁sledovat	-10.5453
▁tehdejší	-10.5453
▁transformace	-10.5453
▁výsledkem	-10.5453
▁úmrtí	-10.5453
▁zlepšení	-10.5453
▁rozhodnout	-10.5453
▁negativní	-10.5453
▁budoucnu	-10.5453
▁příjmu	-10.5453
▁katolick	-10.5453
▁civilní	-10.5453
▁zabránit	-10.5453
▁souvisí	-10.5453
▁Vláda	-10.5453
▁cukr	-10.5453
▁Slavie	-10.5453
▁jedinou	-10.5454
▁Kanad	-10.5454
▁dlužník	-10.5455
▁PCB	-10.5456
▁Euro	-10.5456
▁překvapení	-10.5456
▁střet	-10.5456
▁mladí	-10.5456
▁Zájem	-10.5456
▁operace	-10.5456
▁Wales	-10.5457
▁takzvan	-10.5459
▁oni	-10.5461
▁Vedle	-10.5466
▁přítel	-10.5469
kládají	-10.5473
▁vážně	-10.5474
▁zaplatit	-10.5482
▁formou	-10.5485
▁produktu	-10.5485
týká	-10.5488
▁postupu	-10.5489
▁vyzval	-10.5494
bod	-10.5497
▁(2	-10.5497
▁výhodné	-10.5499
▁UK	-10.5505
▁elektron	-10.5512
▁celkový	-10.5515
▁povinností	-10.5517
▁jezdí	-10.552
▁3000	-10.5522
▁Lin	-10.5524
▁snaha	-10.5527
▁prodat	-10.5527
▁byty	-10.5528
▁starých	-10.5529
▁největším	-10.5536
▁kroky	-10.5542
▁vlád	-10.5543
▁příležitosti	-10.5543
▁zbytečné	-10.5547
▁modern	-10.5554
pracuje	-10.5558
▁napětí	-10.5561
lis	-10.5573
▁vstupu	-10.5576
skal	-10.5577
▁západ	-10.558
▁soustav	-10.5584
▁novém	-10.5585
istický	-10.5585
▁jižní	-10.5586
▁zobraz	-10.5588
hodnotí	-10.5592
kovat	-10.5597
▁zvukov	-10.56
▁komor	-10.5601
ejména	-10.5615
▁partnery	-10.5617
▁ekonom	-10.5621
při	-10.5622
▁jakých	-10.5622
ráží	-10.5626
▁dojde	-10.5629
▁32	-10.5629
skými	-10.5631
▁škola	-10.5635
▁Atlant	-10.5637
působil	-10.5638
lidov	-10.5641
dařilo	-10.5646
▁noviny	-10.5653
▁zápasy	-10.5659
▁historické	-10.5663
▁pracovníky	-10.5667
▁Obě	-10.5669
▁někde	-10.567
▁Ostatně	-10.567
▁Sdružení	-10.567
▁astronom	-10.567
▁rekreační	-10.567
▁služba	-10.567
▁záleží	-10.567
▁červnu	-10.567
▁Plzeň	-10.567
▁následk	-10.567
▁přiznání	-10.567
▁špičkov	-10.567
ičtější	-10.5671
▁hře	-10.5671
▁účetní	-10.5671
▁porovnání	-10.5671
▁vesmír	-10.5671
▁krize	-10.5671
▁navrhl	-10.5671
▁sítí	-10.5673
▁výrok	-10.5673
▁Výbor	-10.5675
▁Ben	-10.5676
▁místnosti	-10.5677
▁Ačkoli	-10.5677
▁úzk	-10.5679
▁obrázek	-10.5679
▁účely	-10.5683
▁zahrad	-10.5683
fyzikální	-10.5685
▁neměla	-10.5687
chůd	-10.5687
ismem	-10.5689
▁požár	-10.5691
▁přináší	-10.5691
▁začátkem	-10.5691
Švýcarsk	-10.5692
kova	-10.5695
▁udržet	-10.5697
▁jednotky	-10.57
▁pozorovatel	-10.5709
Ú	-10.5715
▁Washingtonu	-10.5725
▁zápasu	-10.5725
▁starý	-10.5727
▁dostali	-10.5727
▁prodávat	-10.5728
▁hodnotě	-10.5731
▁jasně	-10.5731
sion	-10.5733
▁strojů	-10.5741
▁turnaje	-10.5742
▁historický	-10.5743
▁způsoben	-10.5744
▁lesy	-10.5744
▁nemáme	-10.575
▁Moravy	-10.5757
▁znalosti	-10.5762
ováni	-10.5766
▁dvoj	-10.5773
▁Firm	-10.5775
stával	-10.5779
▁nákladní	-10.5788
▁nezávislost	-10.5798
▁Ruska	-10.5802
▁pražského	-10.5803
▁školní	-10.5806
▁past	-10.5807
▁velko	-10.5809
▁třiceti	-10.5816
▁schválen	-10.5833
▁hlad	-10.5837
▁všemi	-10.5838
▁vědom	-10.5839
▁dán	-10.5863
86	-10.5867
▁váh	-10.5868
▁trenéra	-10.587
▁vyspělý	-10.5878
▁americk	-10.5879
▁vedením	-10.5888
▁Bratislavě	-10.5893
▁dividend	-10.5893
▁kompromis	-10.5893
▁monopol	-10.5893
▁odpověděl	-10.5893
▁otázce	-10.5893
▁rozpočtov	-10.5893
▁stadión	-10.5893
▁týdnů	-10.5893
▁uskuteční	-10.5893
▁Návrh	-10.5893
▁nabídnout	-10.5893
▁Nakonec	-10.5893
▁stížnost	-10.5893
▁péči	-10.5893
▁podpora	-10.5893
▁žalob	-10.5893
▁Graf	-10.5893
▁patřil	-10.5893
▁interak	-10.5893
▁dovolit	-10.5893
▁Bor	-10.5893
▁server	-10.5893
▁muzeu	-10.5894
▁nepodařilo	-10.5895
▁kategorie	-10.5895
nášejí	-10.5896
▁120	-10.5897
▁žlut	-10.5897
▁okno	-10.5898
▁vložen	-10.5898
▁Podnik	-10.59
▁nedostatek	-10.5902
▁připravit	-10.5903
▁Er	-10.5907
▁partnerů	-10.5913
▁Brno	-10.5918
▁tamní	-10.5918
▁stará	-10.5919
▁prvky	-10.592
mého	-10.5921
▁zjistit	-10.5924
▁oči	-10.5925
▁tajné	-10.5926
▁vyvíj	-10.5928
▁jaterní	-10.5929
▁místy	-10.5932
▁přiznal	-10.594
▁nezaměstnanosti	-10.595
▁návštěvě	-10.5951
▁buňky	-10.5953
▁PC	-10.5955
▁vědecký	-10.5957
▁získání	-10.5963
▁domácnosti	-10.5964
▁provést	-10.5969
▁hledá	-10.597
▁malou	-10.5972
▁modelů	-10.5973
▁stanici	-10.5974
▁bot	-10.5976
▁vojenský	-10.5976
▁okrese	-10.5979
▁něž	-10.5983
▁příslušný	-10.5987
▁událost	-10.599
▁Evropský	-10.5996
▁Morav	-10.5997
▁česko	-10.6
▁víkend	-10.6
▁případu	-10.6001
▁osobně	-10.6002
tkání	-10.6005
pálen	-10.6013
25	-10.6021
▁čt	-10.6023
▁stejném	-10.6029
▁druhým	-10.6036
▁prodal	-10.6047
těl	-10.6051
▁nevím	-10.6054
▁parametr	-10.6057
ouze	-10.606
IL	-10.6066
▁přítomn	-10.6076
▁slovy	-10.6079
LU	-10.6096
far	-10.6099
▁desít	-10.6103
▁církev	-10.6111
▁partnera	-10.6117
▁advokát	-10.612
▁existenci	-10.612
▁funguje	-10.612
▁křesťan	-10.612
▁otevření	-10.612
▁otázek	-10.612
▁pojišťovna	-10.612
▁rozhodovat	-10.612
▁vyšetřování	-10.612
▁poskytnut	-10.612
▁Slunce	-10.612
▁lokalit	-10.612
▁ostatně	-10.612
▁přání	-10.612
▁vytvoří	-10.612
▁situací	-10.612
▁vyberte	-10.612
▁legend	-10.612
▁islám	-10.612
▁Znamen	-10.612
▁letadla	-10.612
▁zůstávají	-10.612
▁dlouhodobé	-10.612
▁žádá	-10.612
▁stáří	-10.6121
▁molekulární	-10.6122
▁aktuální	-10.6122
▁operaci	-10.6123
ební	-10.6123
▁začalo	-10.6123
▁doplň	-10.6124
▁pochod	-10.6124
▁SRN	-10.6126
▁míní	-10.6126
▁Slov	-10.6126
pozoruhodn	-10.6126
▁protein	-10.6127
▁Obecn	-10.613
▁vystudoval	-10.613
▁fakultě	-10.6132
▁zájemců	-10.6133
▁státním	-10.6139
▁širok	-10.6141
▁srážk	-10.6142
bíd	-10.6143
▁filmů	-10.6144
▁vypadá	-10.6144
▁západních	-10.6145
▁případy	-10.6148
OVÁ	-10.6149
▁formě	-10.6152
▁fakulty	-10.6153
▁oceněn	-10.6162
▁sezóně	-10.617
▁tvor	-10.6174
▁potřeboval	-10.6174
▁zjištění	-10.6175
▁Brna	-10.6178
▁dokončen	-10.6179
▁nájemného	-10.618
ejme	-10.6181
▁dobrou	-10.6187
▁nástroje	-10.6189
▁trvale	-10.6189
ruší	-10.619
▁návštěvníků	-10.6198
▁členem	-10.6199
▁změní	-10.62
▁přicházejí	-10.62
éměř	-10.6205
▁Rusk	-10.6208
▁komory	-10.6215
▁složen	-10.6236
nete	-10.6236
▁spojené	-10.6239
▁docela	-10.624
▁víkendu	-10.6241
▁odstup	-10.6243
▁označen	-10.6246
ZE	-10.6252
▁obyvatelé	-10.6253
▁ministrů	-10.6257
▁Mat	-10.6261
▁čeho	-10.6265
▁most	-10.6277
ňující	-10.6286
▁přeměn	-10.6291
▁El	-10.6294
▁metoda	-10.6294
▁pobytu	-10.6294
▁tiskov	-10.6295
▁takovým	-10.6299
▁vojensk	-10.6305
▁přístroj	-10.6309
cc	-10.6315
platí	-10.6318
▁začaly	-10.6327
▁zjištěn	-10.633
▁struktury	-10.6332
běhu	-10.6336
▁interpret	-10.6339
▁Anglie	-10.6352
▁Nejvyšší	-10.6352
▁disciplín	-10.6352
▁institucí	-10.6352
▁jugoslávsk	-10.6352
▁laboratoř	-10.6352
▁literatur	-10.6352
▁mladší	-10.6352
▁nejčastěji	-10.6352
▁organizační	-10.6352
▁přinejmenším	-10.6352
▁příspěvek	-10.6352
▁software	-10.6352
▁přispěl	-10.6352
▁nestačí	-10.6353
▁rodičů	-10.6353
▁pochopitelně	-10.6353
▁účinnost	-10.6353
▁předpisů	-10.6353
▁souboj	-10.6353
▁vlastnictví	-10.6353
▁Polici	-10.6353
▁dráhy	-10.6354
▁přijít	-10.6354
▁zabezpečení	-10.6354
▁úloh	-10.6355
▁podobu	-10.6355
▁tvorby	-10.6356
▁výplat	-10.6356
▁špičk	-10.6357
dostanou	-10.6357
▁poruch	-10.6358
▁Střed	-10.6359
▁vrátí	-10.6359
▁poznatky	-10.636
▁Stačí	-10.6361
▁církevní	-10.6361
▁vědců	-10.6362
▁cíle	-10.6363
▁přijmout	-10.6368
▁ekonomických	-10.6368
▁Bosně	-10.6369
▁rozdíly	-10.637
▁kontrolu	-10.637
▁zničen	-10.6374
▁Králové	-10.6376
▁nemusel	-10.6378
▁vozů	-10.6378
▁policisté	-10.6383
▁postižené	-10.6386
▁produk	-10.6388
▁hodinách	-10.6388
▁uznání	-10.6391
age	-10.6391
cker	-10.6391
▁nezávisl	-10.6392
▁předsedou	-10.6393
▁George	-10.6397
▁levnější	-10.6398
ložení	-10.6399
▁smut	-10.6401
hodnou	-10.6403
ěřitel	-10.6403
▁dohoda	-10.6405
▁obrazovky	-10.6408
▁obsahu	-10.6412
▁léky	-10.6415
těsn	-10.6417
tání	-10.642
izační	-10.6426
nických	-10.6431
▁klubů	-10.6434
▁komplexní	-10.6434
▁ideální	-10.6435
▁Pal	-10.6449
▁uvažuje	-10.6457
▁Olomouci	-10.6459
▁skutečný	-10.6464
▁festival	-10.6471
▁sekund	-10.6471
staral	-10.6473
▁čekal	-10.648
▁českou	-10.6481
▁českém	-10.6484
▁modelu	-10.6488
průměr	-10.6499
áček	-10.6501
▁fyziky	-10.6502
▁prostory	-10.6504
▁obdobn	-10.6504
▁zápasů	-10.6507
nedávn	-10.6514
▁zvýšen	-10.6523
▁Har	-10.6524
▁věk	-10.6525
▁prodeji	-10.6528
▁Hr	-10.6537
▁starosti	-10.6538
▁původ	-10.654
▁milion	-10.654
může	-10.6544
▁ministrem	-10.6548
▁vydává	-10.6553
▁auta	-10.6555
isty	-10.6557
▁Stát	-10.6559
▁novinářů	-10.6561
▁pojme	-10.6566
▁pacienta	-10.6568
▁plochy	-10.6569
15	-10.6575
▁vzrostl	-10.6579
ODS	-10.6582
▁věděl	-10.6583
VI	-10.6586
musela	-10.659
▁Anglii	-10.6591
▁Jaromír	-10.6591
▁Microsoft	-10.6591
▁NHL	-10.6591
▁duchovní	-10.6591
▁francouzské	-10.6591
▁jménem	-10.6591
▁medaile	-10.6591
▁navzájem	-10.6591
▁odpovědi	-10.6591
▁požadavek	-10.6591
▁sortiment	-10.6591
▁tvůrc	-10.6591
▁uzavřít	-10.6591
▁veřejně	-10.6591
▁využívat	-10.6591
▁zabývat	-10.6591
▁zástupců	-10.6591
▁článek	-10.6591
▁manipul	-10.6591
▁mužstvo	-10.6591
▁Major	-10.6591
▁asociace	-10.6591
▁měřítk	-10.6591
▁poskytují	-10.6591
▁řetěz	-10.6591
▁prestiž	-10.6591
▁dětem	-10.6591
▁dočasn	-10.6591
▁ČEZ	-10.6591
▁chvíle	-10.6591
▁sfér	-10.6591
▁bolest	-10.6591
▁zhorš	-10.6592
▁Chtěl	-10.6594
▁okolní	-10.6596
▁risk	-10.6598
▁Odbor	-10.6601
▁výstavby	-10.6602
▁venkov	-10.6602
▁Kap	-10.6602
▁volně	-10.6602
▁vysvětlit	-10.6603
▁hrob	-10.6603
Sc	-10.6603
▁výpočetní	-10.6604
▁třikrát	-10.6605
▁Slav	-10.6607
▁vzdálen	-10.6608
▁disket	-10.6609
▁dres	-10.661
▁Prav	-10.6612
▁částic	-10.6619
12	-10.6625
▁překvapiv	-10.6625
▁týkající	-10.6641
▁ulice	-10.6646
▁Paul	-10.6647
▁krátk	-10.6648
▁sloup	-10.6651
▁pracující	-10.6654
▁majitele	-10.6656
volání	-10.6656
▁Mal	-10.6663
▁umístění	-10.6666
▁obecné	-10.6667
▁praktické	-10.6668
▁osobnosti	-10.667
▁zemské	-10.6672
▁250	-10.6679
▁účastník	-10.668
▁Takové	-10.6682
soudil	-10.6682
▁Št	-10.6687
ujícího	-10.6688
stupovat	-10.6688
▁vlast	-10.6689
▁Jedin	-10.6692
▁používání	-10.6693
tak	-10.6696
▁Dvě	-10.6699
▁Profitu	-10.67
▁žádost	-10.6704
spraš	-10.6707
▁minulém	-10.6708
▁fondů	-10.671
▁obsahující	-10.6711
▁55	-10.6714
▁stanovení	-10.6717
čené	-10.6722
▁stanoví	-10.6722
▁chodí	-10.6724
▁občansk	-10.6727
ány	-10.6731
likvid	-10.6742
TU	-10.6744
▁red	-10.6746
▁hus	-10.6757
▁kritéri	-10.6763
▁závažn	-10.6766
▁vydá	-10.6782
▁rozdělen	-10.6783
▁pokusil	-10.6785
histor	-10.6785
▁mistra	-10.6787
▁ekologické	-10.6795
▁výjimk	-10.6799
▁podal	-10.6799
atmosfér	-10.6799
míněn	-10.6804
▁prezidentem	-10.6818
▁hospod	-10.6818
▁obratu	-10.682
▁trhy	-10.682
▁společensk	-10.6821
logický	-10.6824
▁dvanácti	-10.6825
▁hospodářský	-10.6827
▁čtvrté	-10.6831
▁samostatné	-10.6832
▁pracují	-10.6833
šetřit	-10.6834
▁Důležit	-10.6834
▁dlouhý	-10.6834
▁expozi	-10.6834
▁kongres	-10.6834
▁organizaci	-10.6834
▁považuji	-10.6834
▁souladu	-10.6834
▁související	-10.6834
▁údržb	-10.6834
▁generace	-10.6834
▁ministři	-10.6834
▁vyhlášk	-10.6834
▁vysoká	-10.6835
▁Žádn	-10.6835
▁Polska	-10.6835
▁Michal	-10.6835
▁obrátil	-10.6835
šetří	-10.6835
▁chtít	-10.6835
▁motocykl	-10.6835
▁Čtyř	-10.6835
▁doping	-10.6835
▁vlajk	-10.6835
▁Možnost	-10.6836
▁vystaven	-10.6836
ŘÍ	-10.6837
pozn	-10.6837
▁studia	-10.6837
▁nejspíš	-10.6837
▁tepeln	-10.6838
▁územní	-10.6838
▁omyl	-10.6839
skému	-10.684
▁Alb	-10.684
▁nedělní	-10.6841
slouží	-10.6844
▁sluch	-10.6844
▁hran	-10.6848
▁dolar	-10.6849
▁skončila	-10.6851
▁vyplatí	-10.6852
▁ukazují	-10.6854
▁odborných	-10.6854
▁San	-10.6856
▁počítačové	-10.6857
▁Ří	-10.686
▁neznamená	-10.6863
▁předložil	-10.6863
71	-10.6871
▁Zlín	-10.6872
▁lesů	-10.6875
▁nástrojů	-10.6877
skočil	-10.6881
▁zajištění	-10.6886
▁vyhrála	-10.6888
▁významu	-10.6889
rum	-10.6891
▁kdysi	-10.6892
▁Představ	-10.6895
▁hluboko	-10.6899
▁prst	-10.69
▁vystoupil	-10.6901
▁občané	-10.6904
▁možných	-10.6906
▁silně	-10.6907
▁nedávné	-10.6909
tažení	-10.6911
▁Obchodní	-10.6912
▁časopisu	-10.6916
ukce	-10.6918
▁noční	-10.6922
▁panelu	-10.6922
▁Karlovy	-10.6923
lezl	-10.6929
vest	-10.6931
▁nechá	-10.6931
učili	-10.6931
▁sousední	-10.6932
▁ačkoli	-10.6936
▁Konce	-10.694
▁uživatelů	-10.6943
▁skončilo	-10.6944
▁nemělo	-10.6945
íček	-10.695
▁Slovenské	-10.6954
▁sekundu	-10.6959
▁vědě	-10.6964
▁schopnosti	-10.697
▁rodinné	-10.6971
pravují	-10.6976
▁obchodním	-10.6976
▁zahájen	-10.6977
▁Poslaneck	-10.7001
▁regionu	-10.7001
▁značný	-10.7002
▁dostalo	-10.7005
▁politického	-10.7009
▁dosah	-10.7013
▁možný	-10.7013
▁souvislost	-10.7015
▁pohybují	-10.7016
▁ochrany	-10.7019
▁zákazníka	-10.702
▁ústavy	-10.7021
▁získáva	-10.7023
EK	-10.7026
reform	-10.7032
▁průmyslový	-10.7034
mus	-10.7036
▁nepříjemn	-10.7043
▁uzavřel	-10.7043
▁pojištěn	-10.7051
▁přenosu	-10.7053
▁zpěv	-10.7054
vlas	-10.7059
▁některým	-10.7061
▁samé	-10.7062
▁široké	-10.7063
▁propad	-10.7064
článk	-10.7065
kazují	-10.7068
jmout	-10.7068
nových	-10.7071
▁dokonale	-10.7079
▁atmosféře	-10.7084
▁delegace	-10.7084
▁dozvěděl	-10.7084
▁elektřin	-10.7084
▁francouzský	-10.7084
▁inflace	-10.7084
▁poptávka	-10.7084
▁službu	-10.7084
▁Skutečn	-10.7084
▁mandát	-10.7084
▁nejnovější	-10.7084
▁očekávan	-10.7084
▁sedmnáct	-10.7084
▁badatel	-10.7084
▁oblíben	-10.7084
▁považují	-10.7084
▁vysokoškol	-10.7084
▁všude	-10.7084
▁Nejvíce	-10.7084
▁stanovisko	-10.7084
▁Viktor	-10.7084
▁přírodě	-10.7084
▁penzijní	-10.7085
▁prosadit	-10.7085
▁doprovod	-10.7085
▁politická	-10.7085
▁zábav	-10.7085
▁Popper	-10.7085
ovněž	-10.7085
▁vyšetřovatel	-10.7085
▁dohodnut	-10.7085
▁čísel	-10.7085
▁devadesát	-10.7085
▁tvořen	-10.7085
▁Podnikatel	-10.7086
▁citliv	-10.7086
▁květnu	-10.7086
▁vysloven	-10.7086
▁velitel	-10.7087
▁podaří	-10.7087
▁rytm	-10.7089
▁slovenských	-10.7089
▁dřívější	-10.709
▁výstup	-10.7091
▁získává	-10.7091
▁vysvětlení	-10.7092
▁vrací	-10.7092
▁mínění	-10.7093
▁brát	-10.7094
oji	-10.7095
▁myši	-10.7095
▁mimořádné	-10.7097
▁zlato	-10.7097
▁grafik	-10.7097
▁řeší	-10.7101
▁Met	-10.7101
▁Karlov	-10.7102
▁čemu	-10.7102
▁stupně	-10.7104
▁Chceme	-10.7104
▁způsobu	-10.7107
▁Čas	-10.7111
▁přechodu	-10.7113
▁léků	-10.7117
▁kamer	-10.712
▁dosahuje	-10.712
elů	-10.7122
▁vysvětlil	-10.7123
▁podílel	-10.7128
▁dobou	-10.7128
▁vědci	-10.7128
▁nedostal	-10.713
jedou	-10.7133
▁Kolik	-10.7134
▁min	-10.7135
▁představit	-10.7137
▁znaků	-10.7137
▁opravy	-10.7137
▁zkušeností	-10.7141
tematick	-10.7143
▁projekty	-10.7146
▁překvap	-10.7146
▁kvalita	-10.7149
▁Postup	-10.7163
▁přípravě	-10.7164
▁zbytek	-10.7168
▁samostatn	-10.717
▁nesouhlasí	-10.7171
slyš	-10.7173
nický	-10.7174
koupit	-10.7184
platit	-10.7184
▁ukázalo	-10.719
▁odchodu	-10.719
▁800	-10.7191
▁tuzemsk	-10.7195
▁místem	-10.7199
▁CS	-10.7203
▁stanic	-10.7214
▁mnohd	-10.7216
▁rozsah	-10.7222
▁závodě	-10.7224
▁orgánů	-10.7225
▁mimořádný	-10.7228
▁třídě	-10.7228
▁dám	-10.7229
▁Dán	-10.7233
▁Ostrava	-10.7234
▁policist	-10.7239
▁dojem	-10.7247
▁nebe	-10.725
▁Paříž	-10.7254
▁titulu	-10.7258
pisuje	-10.7259
▁role	-10.7261
▁volič	-10.7263
▁viděl	-10.7279
počet	-10.7282
pravděpodobností	-10.7283
▁vodou	-10.7286
▁kanceláří	-10.7286
▁materiály	-10.7296
čtí	-10.7297
orku	-10.7298
▁Novák	-10.7299
ecká	-10.7299
11	-10.7305
ME	-10.7307
▁RN	-10.7316
▁Čs	-10.7318
▁herec	-10.7319
▁koho	-10.7321
kupovat	-10.7321
▁Cha	-10.7335
hnal	-10.7336
▁přírodověd	-10.734
hlížet	-10.7341
▁Brazíli	-10.7341
▁Výsledk	-10.7341
▁Zajímav	-10.7341
▁atraktivní	-10.7341
▁blízké	-10.7341
▁centimetr	-10.7341
▁milióny	-10.7341
▁montáž	-10.7341
▁požadavků	-10.7341
▁rozšířit	-10.7341
▁telekomunikační	-10.7341
▁tiskárny	-10.7341
▁žebříčku	-10.7341
▁dlouhá	-10.7341
▁předpokládat	-10.7341
▁rozhraní	-10.7341
▁složky	-10.7341
▁používají	-10.7341
▁chráněn	-10.7341
▁externí	-10.7341
▁koncepce	-10.7341
▁nabídce	-10.7341
▁Důvod	-10.7341
▁závisí	-10.7341
▁vysoce	-10.7341
▁naděje	-10.7341
▁Sparty	-10.7341
▁vozidl	-10.7342
▁muzea	-10.7342
▁barvy	-10.7342
▁učinil	-10.7342
▁mozkov	-10.7343
rah	-10.7344
ctví	-10.7346
▁Knih	-10.7347
▁unii	-10.7347
▁naději	-10.7348
▁vysvětluje	-10.7348
▁osobních	-10.7353
▁Chyb	-10.7357
▁Irsk	-10.7358
▁názorů	-10.7358
▁umožňující	-10.736
pana	-10.7363
▁můj	-10.7367
▁Nebyl	-10.7374
▁Nikdo	-10.7374
▁čtyřech	-10.7378
▁dvojice	-10.7379
▁grafické	-10.738
▁totéž	-10.7381
AC	-10.7381
pamatuj	-10.7387
▁Stran	-10.7389
▁čtenáře	-10.7391
▁kniha	-10.7393
▁stín	-10.7395
▁uvést	-10.7397
▁cenou	-10.74
▁jakékoli	-10.7406
▁nemůžeme	-10.7409
▁jimi	-10.7413
▁agentura	-10.7421
▁plný	-10.7422
▁podstatné	-10.7437
▁čtyřmi	-10.744
▁akciové	-10.7441
▁Autor	-10.7444
▁studium	-10.7463
▁šat	-10.7472
prodej	-10.7478
▁britský	-10.7483
▁Profit	-10.7485
▁finančn	-10.7487
▁Svobod	-10.7487
▁divák	-10.749
rušení	-10.7492
▁bytové	-10.7497
31	-10.75
▁stěn	-10.7501
▁světového	-10.7506
▁zaměstnavatele	-10.7506
▁komplex	-10.7513
projevuje	-10.752
▁budovy	-10.7528
kládal	-10.7529
▁stranou	-10.753
▁Tur	-10.7535
▁Mik	-10.7535
▁potřebný	-10.7535
▁podání	-10.7542
▁uzná	-10.755
▁experiment	-10.7551
▁Nizozemsk	-10.7552
▁nároky	-10.7552
enství	-10.7556
▁fotbalistů	-10.756
okres	-10.7563
▁nebezpečné	-10.7563
▁reáln	-10.7564
▁okolnost	-10.7566
▁plno	-10.7567
▁polské	-10.7567
▁způsoby	-10.7572
▁návštěvu	-10.7579
▁nachází	-10.7581
▁skladb	-10.7594
▁Hra	-10.7594
▁výstava	-10.7601
▁pivo	-10.7603
favorit	-10.7604
▁Itálii	-10.7604
▁divadelní	-10.7604
▁inženýr	-10.7604
▁komentář	-10.7604
▁obligace	-10.7604
▁orientac	-10.7604
▁otevřené	-10.7604
▁peněžní	-10.7604
▁požaduje	-10.7604
▁snižování	-10.7604
▁vojáků	-10.7604
▁výjimečn	-10.7604
▁Miloslav	-10.7604
▁komplet	-10.7604
▁přirozený	-10.7604
▁zjistí	-10.7604
▁rychlý	-10.7604
▁úrovní	-10.7604
▁zkušebn	-10.7604
▁odsouzen	-10.7604
▁poskytován	-10.7604
▁skončení	-10.7604
▁povinen	-10.7604
▁nevěděl	-10.7604
▁absolvent	-10.7604
▁průkaz	-10.7604
▁podívat	-10.7604
▁menšin	-10.7604
▁Jugoslávii	-10.7604
▁důkladn	-10.7604
▁najevo	-10.7606
▁zaplatil	-10.7607
▁zavře	-10.7608
▁Peter	-10.7609
▁geolog	-10.761
▁jistý	-10.761
▁říct	-10.761
▁vybírat	-10.7612
▁plát	-10.7612
OLE	-10.7614
▁nesmírn	-10.7621
▁agent	-10.7622
▁fax	-10.7625
▁strav	-10.7626
▁odvolání	-10.7626
▁systémem	-10.7636
▁kusů	-10.7637
▁představu	-10.7639
▁povolání	-10.7641
▁bi	-10.7641
ávali	-10.7642
▁japonské	-10.7643
▁cyklus	-10.7643
▁Moravě	-10.7644
▁vyhledá	-10.7645
▁pokyn	-10.7649
▁pořádá	-10.765
▁Počet	-10.7657
▁hlavu	-10.7659
▁Cena	-10.7671
árek	-10.7671
▁Den	-10.7679
▁důvodem	-10.7679
▁Lab	-10.7681
▁předmětem	-10.7684
▁představil	-10.7686
▁biolog	-10.7691
▁noc	-10.7693
ocel	-10.7694
▁úvěrů	-10.7699
lob	-10.7702
▁resp	-10.7703
▁přizpůsob	-10.7707
▁dálnic	-10.7719
▁průmysl	-10.772
važoval	-10.7724
▁dílem	-10.7725
▁politik	-10.7726
▁hmotnost	-10.7734
▁dramatick	-10.7736
▁Fotbal	-10.7741
rážky	-10.7744
▁profesionál	-10.7744
▁klientů	-10.7754
▁31.	-10.7755
▁podnikové	-10.7755
izraelsk	-10.7756
▁vlny	-10.7769
▁podřízen	-10.7769
cházející	-10.777
▁nájemní	-10.777
▁působ	-10.7773
▁schválil	-10.7775
▁listu	-10.7778
poví	-10.7779
tisícov	-10.7782
▁pražský	-10.7783
▁dohodl	-10.7788
▁předložen	-10.7789
end	-10.7791
▁klasick	-10.7792
▁neznámý	-10.7801
▁Ruské	-10.7803
▁kartu	-10.7806
▁národů	-10.7806
držení	-10.7809
▁objektiv	-10.7815
čovat	-10.782
▁obsazen	-10.7826
▁Pre	-10.7827
▁přípravy	-10.7829
ess	-10.7829
▁Kovo	-10.7831
▁zaveden	-10.7833
▁zajištěn	-10.7841
▁rovin	-10.7848
▁Např	-10.7849
ěsíční	-10.7858
áhy	-10.7862
▁Moh	-10.7865
▁Kazachstán	-10.7874
▁Oznámil	-10.7874
▁Univerzit	-10.7874
▁existovat	-10.7874
▁informaci	-10.7874
▁obtížné	-10.7874
▁prezentací	-10.7874
▁sediment	-10.7874
▁stříbrn	-10.7874
▁svědomí	-10.7874
▁vyjádřit	-10.7874
▁vytvářet	-10.7874
▁zdánlivě	-10.7874
▁ztrácí	-10.7874
▁Několik	-10.7874
▁Problém	-10.7874
▁komerční	-10.7874
▁poskytovat	-10.7874
▁bariér	-10.7874
▁komunismu	-10.7874
▁ubytování	-10.7874
▁československé	-10.7874
▁střediska	-10.7874
▁února	-10.7874
▁veletrh	-10.7874
▁zmizel	-10.7875
▁propojen	-10.7875
▁Slovinsk	-10.7875
záběr	-10.7875
▁pěst	-10.7875
▁vlákn	-10.7875
▁předpisy	-10.7875
▁kvantov	-10.7875
▁junio	-10.7876
▁přesvědč	-10.7876
▁optimální	-10.7878
▁udělá	-10.7878
▁Výrob	-10.7879
najdete	-10.7879
▁vybraný	-10.7879
▁komunikace	-10.7879
▁starosta	-10.788
▁uvolněn	-10.788
▁náskok	-10.788
▁prováděn	-10.7881
střelil	-10.7881
▁zítra	-10.7881
▁průběh	-10.7882
▁zmíněný	-10.7882
▁Bójové	-10.7883
izovan	-10.7883
▁bezplatn	-10.7883
▁rychleji	-10.7884
▁továrn	-10.7884
▁zvolil	-10.789
▁hrách	-10.789
▁sále	-10.7892
▁znak	-10.7899
▁kupující	-10.79
▁závodech	-10.7901
▁tradice	-10.7902
úpln	-10.7903
▁objevuje	-10.7906
▁jednotek	-10.7907
▁klimatický	-10.7909
▁hrdin	-10.7912
▁slavnostní	-10.7913
▁volný	-10.7913
▁ústřední	-10.7914
▁nákupu	-10.7915
▁vesnici	-10.7915
▁hlavy	-10.7918
▁atomov	-10.7918
▁zaznamenal	-10.7918
▁novinář	-10.7919
▁Mnoho	-10.7921
nozí	-10.7926
▁Voj	-10.7928
▁podvod	-10.7929
▁nadace	-10.793
▁všeobecné	-10.7932
▁dohodě	-10.7933
▁dostávají	-10.7939
▁fyzické	-10.7945
▁narodil	-10.795
▁bodu	-10.795
▁výstavy	-10.7955
PS	-10.7956
▁vzdálenosti	-10.7958
▁klepn	-10.7958
▁obvinění	-10.7959
▁schopna	-10.7959
▁brání	-10.796
▁pevné	-10.7961
▁vznikají	-10.7962
▁souborů	-10.7965
▁politiků	-10.7969
▁trestný	-10.7973
▁filmový	-10.7977
▁ostatními	-10.7983
▁hledají	-10.7988
▁uplynul	-10.799
▁příběh	-10.7991
▁překr	-10.7992
▁Vlastní	-10.7992
▁Svoboda	-10.7996
▁kalů	-10.8016
▁připoj	-10.8018
44	-10.802
▁mírové	-10.802
▁chyt	-10.8032
▁jasno	-10.8032
▁Internet	-10.8033
▁závodník	-10.8041
týdenní	-10.8047
▁návratu	-10.8049
▁rizika	-10.805
▁čtyřicet	-10.8063
▁domácnost	-10.8063
▁signálu	-10.8073
▁zajímavý	-10.8078
▁důvody	-10.8078
▁bloku	-10.8084
▁boji	-10.8092
▁konečné	-10.8092
atrně	-10.81
▁Sun	-10.8103
▁dělník	-10.8109
sáhnout	-10.8114
▁teplota	-10.8116
▁34	-10.8122
▁kontinent	-10.814
▁prach	-10.8142
ill	-10.8144
▁kontroly	-10.8144
▁mohu	-10.8144
▁privatiz	-10.8145
▁ClipArt	-10.8152
▁demokracii	-10.8152
▁fanoušků	-10.8152
▁lustrační	-10.8152
▁navštívil	-10.8152
▁nepochybn	-10.8152
▁nádraží	-10.8152
▁obligací	-10.8152
▁opoziční	-10.8152
▁osmnáct	-10.8152
▁otevřel	-10.8152
▁otázkou	-10.8152
▁ovzduší	-10.8152
▁pracoviště	-10.8152
▁prokurátor	-10.8152
▁vyrábí	-10.8152
▁železniční	-10.8152
▁jednoduše	-10.8152
▁pobřeží	-10.8152
▁častěji	-10.8152
poloviční	-10.8152
▁Rumunsk	-10.8152
▁Pracovní	-10.8152
▁příchod	-10.8152
▁statut	-10.8152
stěhoval	-10.8152
▁odstranit	-10.8153
▁modul	-10.8153
▁knize	-10.8153
▁věnován	-10.8153
▁knížk	-10.8153
▁záření	-10.8153
▁obnoven	-10.8153
případě	-10.8154
▁blízkosti	-10.8154
▁Tehd	-10.8154
▁vážné	-10.8155
▁dohodnout	-10.8155
▁raket	-10.8156
▁oblečení	-10.8156
▁pečlivě	-10.8157
▁poradensk	-10.8157
▁říkal	-10.816
▁scénář	-10.816
▁Motor	-10.8161
▁závodů	-10.8161
▁přínos	-10.8161
▁psycholog	-10.8162
▁Rád	-10.8163
▁písmen	-10.8163
nutil	-10.8164
▁několikrát	-10.8164
▁chyběl	-10.8165
tiky	-10.8167
▁tvrdé	-10.8167
krás	-10.8168
myslet	-10.817
▁pramen	-10.817
▁Pět	-10.8174
▁společník	-10.8177
▁ovládání	-10.8177
▁komunistické	-10.8178
▁vyvolal	-10.818
▁připadá	-10.8183
líbil	-10.8184
▁přijímá	-10.8185
▁pomůže	-10.8191
▁dopravě	-10.8197
▁velkého	-10.8199
▁uprostřed	-10.82
▁kvalitě	-10.8203
hodnotit	-10.8205
▁Kraj	-10.8206
▁státě	-10.8211
▁správu	-10.8216
▁Taková	-10.8222
▁výpravy	-10.8223
▁jakém	-10.8223
▁nejlepších	-10.823
▁cenný	-10.823
dél	-10.8233
▁převzal	-10.8234
▁žít	-10.8236
wan	-10.8243
▁chemický	-10.8243
▁novináři	-10.8245
▁znaky	-10.8249
▁1000	-10.8249
stroj	-10.825
▁viděli	-10.825
▁Rakousku	-10.8254
▁tajný	-10.8279
▁Lon	-10.8287
▁blíží	-10.829
▁aminokyselin	-10.8297
▁horní	-10.8298
▁chladn	-10.83
ohledem	-10.8301
▁určitých	-10.8303
▁obrazů	-10.8304
▁doprava	-10.8308
▁spis	-10.8316
▁okamžik	-10.8319
▁odchod	-10.832
hodné	-10.8321
▁Rusku	-10.8324
▁sportu	-10.8333
končit	-10.8333
▁magnet	-10.8334
▁fyzick	-10.8334
▁měsíci	-10.8336
▁přijel	-10.8337
▁správný	-10.8348
▁určené	-10.835
tivně	-10.835
▁adapt	-10.8357
mann	-10.8357
▁úvěry	-10.8359
41	-10.8361
▁porážk	-10.8371
▁přerušen	-10.8374
▁automatick	-10.8378
ložený	-10.838
tabulk	-10.8381
▁začínají	-10.8383
▁boje	-10.8391
▁fondy	-10.8391
řazen	-10.84
dent	-10.8423
▁souhlasí	-10.8429
▁Eva	-10.8432
čištění	-10.8436
▁dopoledne	-10.8438
▁doporučuje	-10.8438
▁ministerstvu	-10.8438
▁nejrychleji	-10.8438
▁partneři	-10.8438
▁poskytnout	-10.8438
▁považovat	-10.8438
▁rekonstrukci	-10.8438
▁rozhoduje	-10.8438
▁spravedliv	-10.8438
▁strategie	-10.8438
▁Americe	-10.8438
▁mateřsk	-10.8438
▁kompres	-10.8438
▁neobvykl	-10.8438
▁reakce	-10.8438
▁summit	-10.8438
▁dveře	-10.8438
▁klášte	-10.8438
▁policii	-10.8438
▁taneční	-10.8438
▁vyrábět	-10.8438
▁dubna	-10.8438
▁Trenér	-10.8438
▁úhrad	-10.8438
▁majetkov	-10.8438
▁Havla	-10.8438
▁politickou	-10.8438
▁sledoval	-10.8438
▁sloužit	-10.8438
▁srdce	-10.8438
▁muzik	-10.8438
▁jaře	-10.8438
nášet	-10.8439
▁areálu	-10.8439
▁Excel	-10.8439
▁humor	-10.8439
▁Klub	-10.844
▁vězení	-10.8441
▁penze	-10.8442
krácen	-10.8442
▁psát	-10.8443
▁rozlišení	-10.8443
▁vzít	-10.8443
ezi	-10.8445
spektr	-10.8446
▁krve	-10.8446
škodliv	-10.8446
▁dotací	-10.8447
▁uvolni	-10.8447
▁zachovat	-10.8447
▁výlet	-10.8448
▁Konečn	-10.8448
ung	-10.8449
▁trvat	-10.8449
:3	-10.8451
▁klesl	-10.8451
▁čekat	-10.8452
plynul	-10.846
▁ukončení	-10.8462
▁kořen	-10.8462
▁obsahovat	-10.8462
▁dřev	-10.8463
▁stavby	-10.8465
▁elektrické	-10.8466
▁termínu	-10.8468
▁provádět	-10.8469
▁Šp	-10.8469
▁vyhlásil	-10.8471
▁produkty	-10.8471
▁Musím	-10.8473
▁foto	-10.8473
▁Mont	-10.8473
▁sovětských	-10.8476
ářské	-10.8477
▁kus	-10.848
▁dítěte	-10.8481
▁patnácti	-10.8482
▁narození	-10.8483
▁vydat	-10.8487
▁právník	-10.8488
▁událostí	-10.849
▁sub	-10.8491
▁připojení	-10.8496
▁přišli	-10.8498
ohra	-10.8501
▁větr	-10.8504
▁cestující	-10.8505
▁vším	-10.8509
▁zastavit	-10.8511
▁pokládá	-10.8512
▁zjevn	-10.8515
▁schválení	-10.8516
▁postavit	-10.8522
▁objektivní	-10.8523
▁stati	-10.8525
▁kabinetu	-10.8527
▁Mil	-10.8528
▁příkladem	-10.853
US	-10.8535
CD	-10.8539
▁managementu	-10.8542
▁placen	-10.8545
▁mírně	-10.8546
IP	-10.8547
▁události	-10.8552
▁cosi	-10.8553
omín	-10.8553
▁vašeho	-10.8562
▁posil	-10.8566
▁zjistili	-10.8567
▁maximální	-10.8569
daných	-10.8587
▁přesvědčení	-10.8596
▁kontakty	-10.8599
▁38	-10.86
rent	-10.8603
▁orgány	-10.8606
HA	-10.8606
▁pozitiv	-10.8613
▁vstupné	-10.8616
BA	-10.8616
▁vlak	-10.8616
▁Vlast	-10.8619
▁En	-10.862
▁Celkov	-10.8621
▁soubory	-10.8634
▁samostatně	-10.8641
▁pravomoc	-10.8643
▁občany	-10.8656
▁rozšířen	-10.866
▁Clinton	-10.8667
▁techniku	-10.8668
▁rozhodli	-10.8679
▁poskytl	-10.8681
▁Mag	-10.8683
▁Mnoh	-10.8684
▁oznámila	-10.8684
▁útoku	-10.8684
▁Malé	-10.8686
▁principy	-10.8688
▁cyklu	-10.8688
▁Med	-10.8694
▁obci	-10.8694
▁rostou	-10.8695
vádět	-10.87
gel	-10.8704
vládnout	-10.8706
▁dopravu	-10.8706
▁průmyslové	-10.871
▁46	-10.8715
legislativ	-10.8716
▁odkaz	-10.8718
▁severu	-10.8724
▁samostatný	-10.8726
▁praktický	-10.873
▁blízko	-10.873
▁zásluh	-10.8732
▁Stanislav	-10.8732
▁Wimbledon	-10.8732
▁geometrie	-10.8732
▁inspekto	-10.8732
▁miliónu	-10.8732
▁nepřízniv	-10.8732
▁opozice	-10.8732
▁producent	-10.8732
▁referendu	-10.8732
▁vstříc	-10.8732
▁výsledku	-10.8732
▁zahrnuje	-10.8732
▁snižuje	-10.8732
zapomněl	-10.8732
▁závazn	-10.8732
▁účinky	-10.8732
▁března	-10.8732
▁zahynul	-10.8732
▁čtvrtletí	-10.8732
▁rozmezí	-10.8732
▁funkcionář	-10.8732
▁šťastn	-10.8732
▁aparát	-10.8732
▁páté	-10.8732
▁terorist	-10.8732
▁sotva	-10.8732
▁využil	-10.8732
▁zvýší	-10.8732
▁kupónov	-10.8732
▁středověk	-10.8733
▁klesá	-10.8733
▁necelý	-10.8733
▁nositel	-10.8733
▁rakouské	-10.8733
▁morální	-10.8733
▁terén	-10.8733
▁knihovn	-10.8733
▁duchu	-10.8735
▁Fond	-10.8735
▁pověst	-10.8735
▁stejným	-10.8735
▁útočník	-10.8736
▁téhož	-10.8736
DI	-10.8737
▁diskusi	-10.874
▁Šest	-10.8741
▁nesmysl	-10.8742
▁zajišťuje	-10.875
tivnější	-10.875
▁Kur	-10.8752
▁návod	-10.8753
▁kmen	-10.8754
▁večerní	-10.876
▁nedovol	-10.8762
▁školách	-10.8763
čková	-10.8764
▁vybral	-10.8765
▁činit	-10.8766
▁věnuje	-10.8767
▁únik	-10.8768
▁dělí	-10.8773
▁nasazen	-10.8773
▁zachování	-10.8776
▁Let	-10.8776
▁vzpomíná	-10.8783
17	-10.8784
▁člena	-10.8785
▁pes	-10.879
▁souhlasu	-10.8791
▁Svět	-10.8792
▁přestal	-10.8794
▁Ros	-10.8801
▁provádí	-10.8802
▁130	-10.8802
▁poradce	-10.8803
▁formátu	-10.8804
▁představiteli	-10.8805
▁kovů	-10.8809
skutk	-10.881
zákon	-10.8813
▁pravomoci	-10.8822
▁prokázal	-10.8824
▁rodina	-10.8828
drželi	-10.8832
▁pražských	-10.8833
▁krajan	-10.8833
▁příčinou	-10.8834
▁Zemi	-10.8835
▁stráž	-10.8837
ánek	-10.8839
▁formy	-10.8843
▁potřebu	-10.8844
ejít	-10.885
padla	-10.8851
příliš	-10.8854
▁soust	-10.8858
▁vysvětl	-10.8859
MF	-10.886
▁los	-10.886
zie	-10.8865
▁urychlen	-10.8867
▁žil	-10.8873
▁vlně	-10.8879
▁běžn	-10.8881
logicky	-10.8887
▁padesáti	-10.8891
▁ozbrojený	-10.8894
▁leteck	-10.8902
▁skutečn	-10.8903
ňoval	-10.8912
▁obrovské	-10.8914
▁personál	-10.8921
▁kandidátů	-10.8929
▁Bla	-10.8931
▁čistý	-10.8936
▁slep	-10.8943
▁ostře	-10.8946
▁minulost	-10.8947
▁rodinný	-10.8947
▁následujících	-10.8956
▁daném	-10.8962
▁obsahují	-10.8966
▁pravděpodobn	-10.8969
▁Občanské	-10.8969
▁Tad	-10.8973
▁projevil	-10.8978
▁poškoz	-10.8981
▁zásadně	-10.8982
▁jediným	-10.8996
89	-10.9
▁samozřejm	-10.9001
▁vzdálenost	-10.9004
vlastn	-10.9013
▁koordin	-10.9019
off	-10.9026
▁poznat	-10.9026
▁reakci	-10.9029
▁implant	-10.9034
hlédn	-10.9034
▁rovnová	-10.9035
▁Otázka	-10.9035
▁definitivně	-10.9035
▁digitální	-10.9035
▁důvěru	-10.9035
▁gigant	-10.9035
▁hřišti	-10.9035
▁jednorázov	-10.9035
▁kyslíku	-10.9035
▁navrhuje	-10.9035
▁otevřený	-10.9035
▁označit	-10.9035
▁pokračování	-10.9035
▁prognóz	-10.9035
▁rozšířil	-10.9035
▁sekretář	-10.9035
▁softwarov	-10.9035
▁transformaci	-10.9035
▁vyjadřuj	-10.9035
▁vězňů	-10.9035
▁začátek	-10.9035
▁divadlo	-10.9035
▁infekc	-10.9035
▁předvolební	-10.9035
▁výročí	-10.9035
▁zemědělců	-10.9035
▁používal	-10.9035
▁sexuální	-10.9035
▁zvyšování	-10.9035
▁prozatím	-10.9035
▁Československé	-10.9035
▁vozidel	-10.9035
▁vyskytují	-10.9035
▁Třeba	-10.9035
▁dětský	-10.9035
▁náměstk	-10.9035
▁prosinci	-10.9035
▁využívají	-10.9035
▁vazby	-10.9035
▁ukázk	-10.9035
▁října	-10.9035
▁Býval	-10.9035
▁opačné	-10.9035
▁skleník	-10.9035
▁vteřin	-10.9035
▁poplatky	-10.9035
▁počtem	-10.9035
▁statistik	-10.9035
▁rozsáhlé	-10.9035
▁nastavení	-10.9035
▁Práce	-10.9035
▁nikoho	-10.9035
▁obvyklé	-10.9036
▁rakovin	-10.9036
▁hluboké	-10.9036
▁Pomoc	-10.9036
▁Východ	-10.9036
▁Prostě	-10.9036
▁svoje	-10.9036
▁uplatňuj	-10.9036
▁Tvrd	-10.9036
▁myšlenky	-10.9039
▁přispíva	-10.9039
▁zastavil	-10.904
▁vybudován	-10.904
▁čtrnáct	-10.9043
▁Hill	-10.9046
▁Člen	-10.9047
▁Cest	-10.9052
▁děd	-10.9053
látka	-10.9053
▁výdajů	-10.9053
▁Karl	-10.9057
▁neplatí	-10.9058
▁formu	-10.9064
▁Hlavním	-10.9064
▁poradit	-10.9067
▁mechanismus	-10.9067
▁tunel	-10.9068
▁Uvedl	-10.9068
▁stručn	-10.9069
edení	-10.9072
▁rostoucí	-10.9074
▁oběti	-10.9076
▁představitele	-10.9076
mála	-10.9077
▁zrušit	-10.9078
zemědělských	-10.9081
příště	-10.9082
▁Němec	-10.9084
▁loňský	-10.9088
▁stán	-10.9089
plňuje	-10.9093
▁příležitostí	-10.9094
▁sídle	-10.9096
▁bratr	-10.9096
▁vydělá	-10.9099
nická	-10.91
▁barevný	-10.9102
▁východě	-10.9104
nášel	-10.9107
▁schopností	-10.9109
▁zabýval	-10.9113
▁odešl	-10.9121
▁přítomnosti	-10.9126
vrácení	-10.9129
▁staveb	-10.914
▁uvaž	-10.9145
▁Rakouska	-10.9145
▁opustil	-10.9146
▁objevují	-10.915
▁kapel	-10.9153
▁snaz	-10.9156
▁majitelé	-10.9156
▁průměrné	-10.9172
▁tuzemsku	-10.9174
▁ceník	-10.9177
▁záležitosti	-10.9187
▁výborů	-10.9194
▁dramat	-10.9195
bírají	-10.9198
▁zůstalo	-10.9199
▁krajiny	-10.9203
▁vlasti	-10.9208
▁Opti	-10.9209
▁pokuty	-10.9212
▁sezóny	-10.9213
▁dílů	-10.9217
▁postavil	-10.9228
▁výrobních	-10.9229
▁Spor	-10.9231
▁lékařsk	-10.9234
▁třetiny	-10.9236
▁reklamy	-10.9242
blok	-10.9245
▁pravděpodobnost	-10.9251
88	-10.9251
▁vědí	-10.9251
▁provedl	-10.9253
▁extrém	-10.9253
erie	-10.9264
▁jih	-10.9267
5%	-10.9295
▁důraz	-10.9297
nsen	-10.9301
cal	-10.9305
▁přítomnost	-10.9314
▁svobody	-10.9334
▁Bój	-10.9338
▁zájm	-10.9338
počtů	-10.9346
▁existující	-10.9346
▁Argentin	-10.9347
▁Staroměstské	-10.9347
▁Angličan	-10.9347
▁Evropu	-10.9347
▁Mechanik	-10.9347
▁Mečiar	-10.9347
▁Němců	-10.9347
▁Premiér	-10.9347
▁Systém	-10.9347
▁absolutní	-10.9347
▁definitivní	-10.9347
▁kilobajtů	-10.9347
▁paradox	-10.9347
▁podepsán	-10.9347
▁podezření	-10.9347
▁potvrzuje	-10.9347
▁připomněl	-10.9347
▁sjednocení	-10.9347
▁smlouvě	-10.9347
▁teorií	-10.9347
▁vyžádal	-10.9347
▁zastupitelstva	-10.9347
▁Vývoj	-10.9347
▁kyselin	-10.9347
▁tvořit	-10.9347
▁komplikov	-10.9347
▁pochopil	-10.9347
▁tabulce	-10.9347
▁účinek	-10.9347
▁GSM	-10.9347
▁poločas	-10.9347
▁režii	-10.9347
máhat	-10.9347
ografie	-10.9347
▁aspekt	-10.9347
▁pohádk	-10.9347
▁schůze	-10.9347
▁Druhá	-10.9348
▁zrušil	-10.9348
▁lehce	-10.9348
▁zdarma	-10.9348
▁celků	-10.9348
▁membrán	-10.9348
▁ukončil	-10.9348
▁čerstv	-10.9348
▁pokrok	-10.9348
▁nález	-10.9348
▁špatný	-10.9348
▁Sparta	-10.9348
▁Jihlav	-10.9348
táhne	-10.9348
▁tramvaj	-10.9349
▁střetnutí	-10.9349
▁hustot	-10.9349
▁vyřešen	-10.935
▁spotřeby	-10.935
▁("	-10.935
▁pověřen	-10.9351
▁nádor	-10.9351
▁nedokázal	-10.9352
▁nejenom	-10.9353
▁vězni	-10.9353
▁bránit	-10.9354
▁projednáva	-10.9354
▁termo	-10.9357
▁diskuse	-10.9357
▁Cíle	-10.9358
▁189	-10.9359
▁ovoce	-10.9359
▁produkci	-10.9362
▁balík	-10.9363
▁kódování	-10.9363
tratil	-10.9363
▁Dodal	-10.9364
▁koupi	-10.9366
▁dostatek	-10.9367
▁kamion	-10.9367
▁Jelcinov	-10.9371
▁přístav	-10.9372
▁vybírá	-10.9372
▁vyvolává	-10.9376
▁Řeck	-10.9377
▁sláv	-10.9379
▁systematick	-10.9379
▁vaši	-10.938
lizace	-10.9384
▁Jednání	-10.9384
▁Úřadu	-10.9386
▁akademie	-10.9388
▁závislosti	-10.9389
▁veřejných	-10.939
▁nahradil	-10.9396
▁dolní	-10.9401
▁pokladn	-10.9403
▁klasický	-10.9403
▁předložit	-10.9404
▁zvěře	-10.9405
▁překlad	-10.9406
▁fakultu	-10.9408
▁čtenářů	-10.9408
▁strážník	-10.9409
▁živé	-10.9412
▁běh	-10.9417
▁výkonný	-10.942
▁náhodou	-10.9422
VÍ	-10.9424
▁užívání	-10.9425
▁listin	-10.9426
lezsk	-10.943
▁určený	-10.943
▁OD	-10.9434
▁přímý	-10.9435
▁obrovský	-10.9455
▁KB	-10.9457
PI	-10.9458
▁Severní	-10.9459
▁anglický	-10.9463
▁Světové	-10.9463
▁živnost	-10.9464
▁nájemník	-10.9466
ED	-10.9469
▁zdravotnické	-10.9474
▁nezávislé	-10.9474
▁týdnech	-10.948
▁podobného	-10.9487
▁výstavě	-10.9505
▁poznal	-10.951
dáme	-10.951
LOV	-10.9522
▁trenérem	-10.9526
ODA	-10.9529
▁Vlk	-10.9534
▁filmové	-10.9538
▁zdravé	-10.9543
▁základem	-10.9549
stupují	-10.955
▁vzduch	-10.9551
příč	-10.9559
▁Jaký	-10.956
▁klidně	-10.9564
biologick	-10.9582
▁ulic	-10.9583
▁obav	-10.959
▁pohyboval	-10.959
▁bezprostředn	-10.9591
rgi	-10.9603
▁Mel	-10.9605
▁ponech	-10.9618
▁Stal	-10.9619
▁škodu	-10.962
ačnou	-10.9621
▁moment	-10.9627
▁Ústavní	-10.9633
▁Úřad	-10.9633
▁okamžit	-10.9636
▁socialist	-10.9637
▁analog	-10.9642
▁svalov	-10.9644
ontrol	-10.9653
▁důstojn	-10.9658
▁karta	-10.9658
▁bio	-10.9663
▁recept	-10.967
ačtyřicet	-10.967
pomeňme	-10.967
▁Bruselu	-10.967
▁ToolBook	-10.967
▁dohromady	-10.967
▁každoročn	-10.967
▁nejnižší	-10.967
▁pokračuje	-10.967
▁přispět	-10.967
▁sportovců	-10.967
▁spořiteln	-10.967
▁uskutečnit	-10.967
▁volejbal	-10.967
▁Člověk	-10.967
▁Určit	-10.967
▁dražší	-10.967
▁dynamick	-10.967
▁pokračují	-10.967
▁snažit	-10.967
▁demonstra	-10.967
▁nemohu	-10.967
▁podporovat	-10.967
▁Poslanc	-10.967
▁index	-10.967
▁medaili	-10.967
▁vyřešit	-10.967
▁Senátu	-10.967
▁krizi	-10.967
▁bílkovin	-10.967
▁chystá	-10.967
▁vybudovat	-10.967
▁vypadat	-10.967
▁Mnichov	-10.967
sáhne	-10.967
▁Histori	-10.967
▁Vysok	-10.967
▁uvidí	-10.967
▁srážek	-10.967
▁hůře	-10.967
▁Osobn	-10.967
▁turisty	-10.967
▁Vítěz	-10.967
▁doufá	-10.967
▁mlýn	-10.967
▁skončí	-10.967
▁kolegů	-10.9671
▁mzdov	-10.9671
▁sněhu	-10.9671
▁zhodnocení	-10.9672
▁dobrá	-10.9672
▁tvorbě	-10.9673
▁obilí	-10.9673
▁mld	-10.9673
▁umělecké	-10.9674
▁pouští	-10.9675
▁vedlejší	-10.9675
▁chlap	-10.9676
▁znečištěn	-10.9676
▁ráz	-10.9677
▁sběr	-10.9677
▁síti	-10.9678
▁porozumění	-10.9678
▁dcer	-10.9679
▁stiskn	-10.968
▁těší	-10.9681
▁spodní	-10.9682
▁penzion	-10.9683
▁přesvědčit	-10.9683
▁Form	-10.9684
vázal	-10.9685
▁dešti	-10.9685
▁čestn	-10.9687
▁deviz	-10.9687
▁vyřazen	-10.9688
▁všeobecně	-10.969
▁atmosféry	-10.969
▁vesnice	-10.9696
▁Hradci	-10.97
svědčil	-10.97
▁zbytečně	-10.97
▁přinést	-10.9701
▁připojit	-10.9701
▁tuzemské	-10.9711
▁rovině	-10.9711
▁klasické	-10.9713
▁Krát	-10.9714
▁tělo	-10.9714
ÁT	-10.9716
▁spolupracovníků	-10.9717
▁ruky	-10.9717
▁úkon	-10.9718
sazení	-10.9719
▁poznamenal	-10.9721
▁Cup	-10.9721
▁firemní	-10.9722
▁prosadil	-10.9725
▁stávající	-10.9726
▁obsazení	-10.9732
oporu	-10.9735
▁loňsk	-10.9739
ptal	-10.9741
třída	-10.9745
▁městský	-10.9746
▁dokonč	-10.9748
▁grafický	-10.9749
▁Američané	-10.975
▁Novotný	-10.9753
▁silnice	-10.9758
▁opustit	-10.9759
▁Rakousk	-10.9764
▁nadšen	-10.9764
▁maďarsk	-10.9767
▁volných	-10.9775
▁čtyřiceti	-10.9775
▁palác	-10.9779
▁závodní	-10.9783
▁přivedl	-10.9788
▁zájemce	-10.9791
▁postoje	-10.9791
▁personální	-10.9793
▁zájmů	-10.9794
pomínají	-10.9796
▁platil	-10.9799
▁požadované	-10.9799
jan	-10.9804
▁získan	-10.9804
▁mlh	-10.9807
▁kolektivní	-10.9809
▁kontrolní	-10.982
▁Karla	-10.9832
▁Mir	-10.9833
mítnut	-10.9833
▁reagoval	-10.9848
▁odborník	-10.9856
▁kapitálové	-10.9857
nutně	-10.9857
▁kolektiv	-10.9862
▁odraz	-10.9869
▁stranick	-10.9876
▁počítačový	-10.9877
▁management	-10.9883
▁Sever	-10.9896
▁vedla	-10.9899
▁muse	-10.9901
▁osobnost	-10.9903
▁buňk	-10.9915
▁mladý	-10.9931
▁členský	-10.9948
CA	-10.9948
▁dalo	-10.9949
hraniční	-10.995
▁drobné	-10.9966
▁panel	-10.9993
▁Kohl	-10.9994
▁projektů	-10.9995
▁Nic	-11.0002
nvestiční	-11.0002
▁Mluvčí	-11.0003
▁Rudolf	-11.0003
▁elektráren	-11.0003
▁intenzit	-11.0003
▁jednoduchá	-11.0003
▁metropoli	-11.0003
▁nechtějí	-11.0003
▁nejpozději	-11.0003
▁otevřena	-11.0003
▁pochopení	-11.0003
▁výpověď	-11.0003
▁Pardubic	-11.0003
▁dosažení	-11.0003
▁obsažen	-11.0003
▁teorii	-11.0003
▁tradičně	-11.0003
▁hrozb	-11.0003
▁neutrální	-11.0003
táhnout	-11.0003
plácet	-11.0003
▁únoru	-11.0003
▁jmění	-11.0003
▁vysílá	-11.0003
▁Peníze	-11.0003
▁složitější	-11.0003
▁Moskva	-11.0003
▁reakcí	-11.0003
▁mechanick	-11.0004
▁řídící	-11.0004
▁očekával	-11.0004
▁multi	-11.0004
▁mezd	-11.0004
▁likvidace	-11.0004
▁vzácn	-11.0004
▁Divadl	-11.0004
▁anket	-11.0004
▁břehu	-11.0004
▁nevýhod	-11.0005
▁hezk	-11.0005
▁restauraci	-11.0005
▁poplatník	-11.0005
▁Zástupc	-11.0005
▁Rozdíl	-11.0006
▁Obdobn	-11.0006
▁úlev	-11.0007
▁dotace	-11.0008
▁operací	-11.0008
▁dojít	-11.0008
▁kategorii	-11.0009
▁kabel	-11.0009
▁časové	-11.0009
▁ideál	-11.001
▁dělají	-11.0011
cvič	-11.0012
▁předběžn	-11.0012
▁Slovan	-11.0015
▁vtip	-11.0015
▁výhodnější	-11.0017
▁1,5	-11.0019
▁utrpěl	-11.002
▁Šv	-11.0022
▁reformy	-11.0024
▁podporuje	-11.0025
▁udržení	-11.0029
visí	-11.0029
▁sněmovně	-11.0031
▁konečný	-11.0031
▁svobodné	-11.0032
▁vešker	-11.0033
▁městech	-11.0035
▁stíhání	-11.0039
▁množ	-11.004
▁oblačnost	-11.004
▁Nor	-11.004
▁vykoná	-11.0042
▁časopisů	-11.0048
▁přijdou	-11.0051
▁účinně	-11.0053
▁bytost	-11.0055
▁nepříjemné	-11.0059
▁tradici	-11.006
▁zabezpeč	-11.006
▁žádostí	-11.006
vláda	-11.0064
OP	-11.0068
▁Dokon	-11.0073
▁grafick	-11.0075
▁Nemá	-11.0083
▁stisk	-11.0088
▁Tour	-11.0093
▁vína	-11.0096
▁bílé	-11.0098
▁odborníky	-11.0098
▁Takový	-11.0099
národních	-11.0102
▁výkonné	-11.011
dvacetiletý	-11.0111
▁využívání	-11.0113
▁pochází	-11.0114
▁realitní	-11.0114
▁dodá	-11.0117
▁trestné	-11.012
▁Paříži	-11.0121
▁průměrný	-11.0122
▁žádosti	-11.0128
▁vyvolá	-11.0131
▁Dan	-11.0135
▁Bank	-11.0136
▁tank	-11.0137
iletá	-11.0137
▁výrazný	-11.0138
▁hledal	-11.0162
▁vzpomínk	-11.0164
▁uložení	-11.0167
▁Win	-11.0185
▁mluvil	-11.02
▁reálný	-11.0205
▁budova	-11.0224
▁obal	-11.023
▁textový	-11.0231
▁popř	-11.0232
▁levé	-11.0233
atřicet	-11.0238
▁soli	-11.0247
▁domy	-11.0247
▁založení	-11.0253
▁časopise	-11.0256
▁Plat	-11.0256
▁nezaměstnanost	-11.0259
▁ekologick	-11.0277
▁Svat	-11.0284
oučástí	-11.0289
▁narozen	-11.0295
▁ohrožen	-11.0299
dpověď	-11.0303
hrává	-11.0305
▁kilometr	-11.0315
ectví	-11.0317
▁vlk	-11.0318
ďte	-11.0319
▁zvětš	-11.0333
▁reprezentantů	-11.0339
▁čtrnácti	-11.0339
▁pochopit	-11.0346
▁upozorněn	-11.0348
▁Afriky	-11.0348
▁Ameriky	-11.0348
▁Bohužel	-11.0348
▁Ladislav	-11.0348
▁Nedávn	-11.0348
▁Plzni	-11.0348
▁SCSI	-11.0348
▁Telecom	-11.0348
▁devatenáct	-11.0348
▁energii	-11.0348
▁gymnázi	-11.0348
▁instituce	-11.0348
▁investování	-11.0348
▁konkrétně	-11.0348
▁nejvýznamnější	-11.0348
▁nejúspěšnější	-11.0348
▁nizozemsk	-11.0348
▁plzeňsk	-11.0348
▁rámeček	-11.0348
▁výrobek	-11.0348
▁Účast	-11.0348
▁čtvereční	-11.0348
▁čtvrtfinále	-11.0348
▁podpořil	-11.0348
▁přirozené	-11.0348
▁strojírensk	-11.0348
▁hloubk	-11.0348
▁hudby	-11.0348
▁lokální	-11.0348
▁požadují	-11.0348
▁předčasn	-11.0348
▁Policisté	-11.0348
▁garant	-11.0348
▁kapitán	-11.0348
▁ohrožuj	-11.0348
▁chránit	-11.0348
▁mládí	-11.0348
▁názvu	-11.0348
▁ztráce	-11.0348
▁koncepci	-11.0348
▁pobočk	-11.0348
▁nalézt	-11.0348
▁trzích	-11.0348
▁David	-11.0348
▁schránk	-11.0349
máhají	-11.0349
▁Včera	-11.0349
▁Všeobecn	-11.0349
▁odstavce	-11.0349
▁pouhé	-11.0349
▁Děti	-11.0349
▁okénk	-11.0349
▁léčebn	-11.0349
▁umělecký	-11.0349
▁závad	-11.0349
▁zaujal	-11.0349
▁zimě	-11.0349
▁použil	-11.0349
▁dražb	-11.0349
▁ekonomicky	-11.0349
▁klasifik	-11.0349
▁Pozor	-11.035
▁vybrané	-11.035
▁Chip	-11.035
▁stabilní	-11.035
ight	-11.0351
▁obrázky	-11.0352
▁věnovan	-11.0353
▁nadcházející	-11.0353
najdeme	-11.0354
▁Tentokrát	-11.0356
▁Britsk	-11.0356
▁dvojic	-11.0356
▁sklon	-11.0357
beton	-11.0357
▁koncern	-11.0358
▁Nevím	-11.0359
▁zvýšené	-11.0359
▁kated	-11.036
▁kategorií	-11.0361
▁síla	-11.0366
▁opravdov	-11.0366
▁Zahraničn	-11.037
▁lamp	-11.037
měrně	-11.037
▁hlavou	-11.0371
▁právnické	-11.0373
JÍ	-11.0374
▁faktorů	-11.0374
▁49	-11.0375
▁navazuj	-11.0376
▁plod	-11.0377
▁Londýně	-11.0378
▁světovou	-11.0381
67	-11.0383
▁chodit	-11.0383
▁bojovat	-11.0385
▁spravedlnosti	-11.0391
▁připojen	-11.0391
▁originální	-11.0392
pouštějí	-11.0393
▁důsledk	-11.0394
▁tón	-11.0395
vnějších	-11.0404
▁konat	-11.0409
▁schůzky	-11.0414
pravit	-11.0415
▁způsobuje	-11.0416
▁letecké	-11.0416
▁nezbytné	-11.0417
▁relac	-11.0419
▁slíbil	-11.0424
▁vyvoláva	-11.0427
'	-11.0427
▁nemocných	-11.0429
▁zájemci	-11.0432
IA	-11.0438
▁uznal	-11.0441
▁parametrů	-11.0445
▁zbývající	-11.0448
▁kritérií	-11.0451
▁Japon	-11.0453
▁uživatele	-11.0453
▁úkolem	-11.0453
▁51	-11.0464
▁obvodní	-11.0465
▁blíže	-11.0465
mlouva	-11.0472
▁drahé	-11.048
▁biologické	-11.0482
▁uvedení	-11.0489
▁turistický	-11.0503
▁způsobené	-11.0504
▁zaměření	-11.0513
stihnout	-11.0515
▁bosenský	-11.0518
▁podnikatelský	-11.0529
▁nekonečn	-11.0531
▁objevit	-11.0532
CP	-11.0549
▁provozní	-11.0554
▁udržel	-11.056
▁Lidové	-11.0562
riti	-11.0564
PT	-11.0571
▁potřebn	-11.0572
▁úkolů	-11.058
▁nesouhlas	-11.0582
▁listopad	-11.0586
▁180	-11.0587
▁paláce	-11.0589
cestoval	-11.0596
▁odložen	-11.06
▁čtvrtin	-11.0609
▁výprav	-11.0615
▁podat	-11.0621
▁poukaz	-11.0633
▁časopis	-11.0633
▁stovk	-11.0647
▁zastoupen	-11.0655
▁chemick	-11.0657
rodil	-11.0663
▁řízen	-11.0669
▁akademi	-11.0669
▁čtvrtý	-11.0675
▁zvlád	-11.0683
▁výkonnost	-11.0683
▁Stav	-11.0689
etické	-11.0696
reprezenta	-11.0701
řád	-11.0702
▁Alexandr	-11.0705
▁Barceloně	-11.0705
▁Británii	-11.0705
▁Bělehrad	-11.0705
▁IFOR	-11.0705
▁Nejlepší	-11.0705
▁Portugalsk	-11.0705
▁chorvatské	-11.0705
▁honorář	-11.0705
▁instalaci	-11.0705
▁multimediální	-11.0705
▁následek	-11.0705
▁podmínkou	-11.0705
▁požádat	-11.0705
▁publikován	-11.0705
▁tlačítka	-11.0705
▁tlačítkem	-11.0705
▁týdně	-11.0705
▁umožnit	-11.0705
▁úsměv	-11.0705
palestinsk	-11.0705
▁1987	-11.0705
▁Bohemia	-11.0705
▁azbest	-11.0705
▁cigaret	-11.0705
▁fázi	-11.0705
▁normy	-11.0705
▁pravidlo	-11.0705
nápověd	-11.0705
▁1996	-11.0705
▁březnu	-11.0705
▁pomáhá	-11.0705
▁populární	-11.0705
▁bazén	-11.0705
▁Organiza	-11.0705
▁kratší	-11.0705
▁vrstvy	-11.0705
▁déšť	-11.0705
▁pololetí	-11.0705
▁naléhav	-11.0705
▁chalup	-11.0705
▁zklamán	-11.0705
▁ploše	-11.0705
▁příslušníci	-11.0705
▁Srbsk	-11.0705
▁těžce	-11.0705
spěje	-11.0705
▁doposud	-11.0705
▁kanadsk	-11.0706
▁norma	-11.0706
▁ukáže	-11.0706
▁divize	-11.0706
▁provozovatel	-11.0706
▁zajímat	-11.0706
▁Robert	-11.0706
▁Věřím	-11.0706
▁sociálně	-11.0706
▁Soubor	-11.0706
▁úvodu	-11.0706
▁značky	-11.0706
▁likvidaci	-11.0706
▁někoho	-11.0706
▁Část	-11.0706
▁barvu	-11.0706
▁ocitl	-11.0706
▁pozdější	-11.0706
▁prodávající	-11.0707
▁stoupl	-11.0707
▁kvalifikace	-11.0708
▁komisi	-11.0708
▁ekonomice	-11.0708
▁nedokáž	-11.0708
▁Hodnot	-11.0708
certifik	-11.0708
▁prud	-11.0708
▁nutný	-11.0709
▁debat	-11.071
▁posílen	-11.071
▁historik	-11.071
▁Případ	-11.071
▁zkušen	-11.0711
▁Jenom	-11.0711
▁klimatu	-11.0713
▁zeleni	-11.0714
▁uvažovat	-11.0714
▁výstavbě	-11.0715
▁drog	-11.0716
▁právnických	-11.0717
▁Generální	-11.0717
abilní	-11.0719
▁99	-11.0722
▁odpovídal	-11.0724
krýt	-11.0726
▁desky	-11.0727
čátkem	-11.0727
▁červenci	-11.0728
▁Novotná	-11.0732
▁pozorování	-11.0732
▁horách	-11.0734
▁Mohl	-11.0737
▁zjednoduš	-11.0737
▁Bend	-11.0738
▁potvrzení	-11.074
ALI	-11.074
mínil	-11.074
▁rozbor	-11.0741
▁fyzický	-11.0743
▁Často	-11.0743
▁vzorky	-11.0747
▁ukázat	-11.0747
▁letiště	-11.0749
▁myšlenka	-11.0754
▁ohrožení	-11.0756
▁cenách	-11.0758
▁JU	-11.0759
▁poklesl	-11.0762
vodně	-11.0764
▁vánoc	-11.0768
▁%)	-11.0768
▁Znám	-11.0769
▁Slovensk	-11.0771
▁absolvoval	-11.0782
▁obrovsk	-11.0782
psychologick	-11.0786
▁přírodovědecké	-11.0787
▁vozy	-11.0789
▁představitel	-11.0798
▁plet	-11.0799
bíhají	-11.0805
▁vyšel	-11.0809
▁řeky	-11.0809
▁očekávání	-11.081
konala	-11.0822
▁konve	-11.0834
▁dvojí	-11.0839
▁poledn	-11.084
čern	-11.0848
krývají	-11.0856
večer	-11.0857
▁průmyslov	-11.0858
▁vývojové	-11.0861
bíral	-11.0869
▁zbytečn	-11.0879
▁mírn	-11.0881
dejme	-11.0883
▁pouč	-11.0887
▁britsk	-11.0913
▁neznámé	-11.0915
▁bíl	-11.0941
▁stupni	-11.0946
▁Velm	-11.0951
yplývá	-11.097
▁hlubo	-11.0974
▁potenciální	-11.0976
▁psycho	-11.098
.12.	-11.0982
▁specializované	-11.0982
▁založené	-11.0991
▁Správ	-11.0993
▁Společn	-11.0997
▁vymezen	-11.0998
▁pouště	-11.1005
▁vysla	-11.1006
▁kouř	-11.1011
▁Vít	-11.1013
▁návštěvník	-11.1027
▁působící	-11.103
▁figur	-11.103
▁Nikd	-11.103
▁historick	-11.1033
čkách	-11.1036
pojit	-11.1036
ézt	-11.1039
▁nájem	-11.1039
▁výrazné	-11.1041
▁zjednodušen	-11.1043
polí	-11.1049
▁společenský	-11.1053
jíždějí	-11.1061
povídal	-11.107
▁španělské	-11.1072
▁antropolog	-11.1075
▁Chomutov	-11.1076
▁Zvláštní	-11.1076
▁akcionářů	-11.1076
▁církví	-11.1076
▁galerie	-11.1076
▁náboženství	-11.1076
▁ovlivňuje	-11.1076
▁potrestán	-11.1076
▁priorit	-11.1076
▁produktivit	-11.1076
▁prosazovat	-11.1076
▁páteční	-11.1076
▁upozorňuje	-11.1076
▁zpracováva	-11.1076
▁Ukrajiny	-11.1076
▁deficit	-11.1076
▁orchestr	-11.1076
▁ovladač	-11.1076
▁sledování	-11.1076
▁srdeční	-11.1076
▁1997	-11.1076
▁Koaliční	-11.1076
▁naznačil	-11.1076
▁obsluh	-11.1076
▁posádk	-11.1076
▁specifik	-11.1076
▁držitel	-11.1076
▁hřiště	-11.1076
▁určuje	-11.1076
▁šetření	-11.1076
▁IBM	-11.1076
▁Původně	-11.1076
▁bronz	-11.1076
▁nepřátel	-11.1076
▁dveří	-11.1076
▁středoevropsk	-11.1076
▁burze	-11.1076
▁příznak	-11.1076
▁vrstev	-11.1076
▁oxidu	-11.1076
▁enzym	-11.1076
▁usilovat	-11.1076
▁patrné	-11.1076
▁podnicích	-11.1076
připravovan	-11.1076
▁podporou	-11.1076
▁proslul	-11.1076
▁potíží	-11.1076
▁Tchaj	-11.1076
▁nedaleko	-11.1076
▁příslušníků	-11.1076
▁fáze	-11.1076
▁pronájem	-11.1076
▁Trans	-11.1076
▁sdělovací	-11.1076
▁Formát	-11.1076
▁kritické	-11.1076
▁Tureck	-11.1076
▁příliv	-11.1076
▁vzestup	-11.1076
▁filozofie	-11.1076
▁Situac	-11.1076
▁Word	-11.1077
▁lyžař	-11.1077
▁královn	-11.1077
▁zámku	-11.1077
▁naposledy	-11.1077
▁zdi	-11.1077
vázat	-11.1078
hodlají	-11.1078
▁integraci	-11.1078
▁svátky	-11.1078
▁myšlenkou	-11.1078
▁obrázků	-11.1078
▁násilí	-11.1079
▁hutní	-11.1079
▁těžb	-11.108
střih	-11.108
▁hostitel	-11.1081
▁myšlenku	-11.1082
▁válka	-11.1082
▁Kreml	-11.1082
▁manželství	-11.1083
▁přežití	-11.1083
▁odhadnout	-11.1083
▁nehodlá	-11.1083
▁Týr	-11.1083
▁sílu	-11.1084
▁uhlí	-11.1084
▁šíření	-11.1084
▁příjemné	-11.1085
▁měnové	-11.1085
▁tratí	-11.1086
▁duše	-11.1086
▁slabší	-11.1086
▁nevhodn	-11.1087
▁dlouhodobě	-11.1087
▁prováze	-11.1088
▁vážný	-11.1088
▁profil	-11.1088
▁podnět	-11.1089
▁masov	-11.1089
▁obnovu	-11.109
▁znamenalo	-11.109
▁nízko	-11.1091
▁zákazníci	-11.1094
▁posoudit	-11.1097
▁doporučení	-11.1097
▁zdanění	-11.1098
▁soustředění	-11.1103
▁testování	-11.1106
studoval	-11.1107
vesel	-11.1108
▁Komis	-11.1108
▁stanovit	-11.1111
▁silnější	-11.112
▁mírový	-11.1121
▁Labem	-11.1124
▁jádro	-11.1125
▁přístrojů	-11.1129
▁úředníků	-11.113
▁vládou	-11.1139
▁poslání	-11.1139
▁představoval	-11.1142
▁začínající	-11.1148
▁Nizozem	-11.115
▁přinese	-11.1152
▁Nejde	-11.1153
▁tvrdě	-11.1158
▁vzdá	-11.1163
▁předvedl	-11.1164
▁tvrdý	-11.1165
▁totožn	-11.1167
▁jezer	-11.1168
▁vymez	-11.1169
▁kvalifik	-11.1176
▁KON	-11.1201
▁koš	-11.1203
▁evropsk	-11.1203
kryl	-11.1205
▁pevný	-11.1206
▁umělé	-11.1207
▁Jac	-11.1212
▁Platí	-11.1219
▁zachoval	-11.1224
▁italský	-11.123
▁případný	-11.1255
▁světlo	-11.1257
▁Lidov	-11.1258
▁agentur	-11.1258
▁Tisk	-11.1262
▁slovník	-11.1273
▁kvalifikovan	-11.1294
▁66	-11.1296
▁trvalo	-11.1297
▁volit	-11.1306
části	-11.1308
počtu	-11.1308
demokratick	-11.1309
▁doplněn	-11.1326
▁kabinet	-11.134
▁vysoko	-11.1341
▁důchodové	-11.1346
▁Malý	-11.1346
ářství	-11.1346
SKO	-11.1352
▁tarif	-11.1354
▁centrál	-11.1356
▁lidové	-11.1357
▁rozpor	-11.1373
▁obrazovk	-11.1373
▁snížen	-11.1382
▁Výhod	-11.1383
▁postupné	-11.1393
korun	-11.1399
▁52	-11.14
nechává	-11.1406
▁zrušen	-11.1407
jištěn	-11.1416
kupuje	-11.1422
▁trati	-11.1429
▁zaměstnanec	-11.143
▁vzhled	-11.1435
▁náročné	-11.1444
▁obtížně	-11.1455
▁inteligen	-11.1459
radioaktivní	-11.146
▁Nejdřív	-11.146
▁Rakušan	-11.146
▁Republik	-11.146
▁Vedoucí	-11.146
▁Výzkum	-11.146
▁důležitá	-11.146
▁fotoaparát	-11.146
▁franků	-11.146
▁inspekce	-11.146
▁instalace	-11.146
▁majetkem	-11.146
▁oznámení	-11.146
▁pohledávek	-11.146
▁redakce	-11.146
▁upozornit	-11.146
▁vyšetření	-11.146
▁1968	-11.146
▁DPH	-11.146
▁Sovětský	-11.146
▁Thajsk	-11.146
▁dodatečně	-11.146
▁nejmenší	-11.146
▁nezměnil	-11.146
▁zoufal	-11.146
▁1984	-11.146
▁Temelín	-11.146
▁stupňů	-11.146
▁zakladatel	-11.146
▁Bejbl	-11.146
▁hrubého	-11.146
▁konstrukce	-11.146
tvrzují	-11.146
▁Průměrn	-11.146
▁period	-11.146
▁pojmů	-11.146
▁ordinac	-11.146
▁certifikát	-11.146
▁zkratk	-11.146
▁vyvinul	-11.1461
▁dvojnásobn	-11.1461
▁stovek	-11.1461
▁Bílé	-11.1461
▁jedince	-11.1461
▁teplá	-11.1461
▁přežít	-11.1461
▁vojsk	-11.1461
▁chápat	-11.1461
▁Sokol	-11.1461
▁pružn	-11.1461
▁sehrál	-11.1461
▁audio	-11.1461
▁ozdob	-11.1461
▁zkoumá	-11.1461
▁Asociac	-11.1461
▁vyroben	-11.1462
▁Řešení	-11.1462
▁restaurace	-11.1462
▁kvalifikační	-11.1462
▁platební	-11.1463
▁uváděn	-11.1463
▁sněhov	-11.1463
▁spolupracovat	-11.1463
▁formální	-11.1464
▁1986	-11.1464
▁Plán	-11.1464
▁německá	-11.1464
▁poznatků	-11.1464
▁modem	-11.1465
▁něčem	-11.1465
▁III	-11.1465
▁vázán	-11.1466
ČNÍ	-11.1466
▁zatížen	-11.1466
▁kuponov	-11.1466
▁složité	-11.1468
▁rychlejší	-11.1468
pravicov	-11.1469
▁3,5	-11.1469
▁poslanecké	-11.1469
▁května	-11.1469
▁nohy	-11.147
▁rozložení	-11.1471
▁podzemní	-11.1471
losování	-11.1472
▁žáků	-11.1472
▁zajímavost	-11.1472
▁marně	-11.1472
▁volbami	-11.1473
▁zlaté	-11.1473
▁Cheb	-11.1474
▁DEM	-11.1474
nutit	-11.1475
▁ČZ	-11.1475
▁Bill	-11.1476
▁odstranění	-11.1479
▁nápis	-11.148
▁legislativní	-11.1481
▁nájemce	-11.1482
▁Potom	-11.1483
▁upravit	-11.1483
▁bilance	-11.1485
▁Tedy	-11.1486
▁užitek	-11.149
▁vyvolat	-11.1491
▁uvedeno	-11.1491
▁typické	-11.1492
▁týdeník	-11.1495
▁linky	-11.1495
ČE	-11.1495
▁Jedná	-11.15
▁daný	-11.1502
▁připustil	-11.1511
cházelo	-11.1513
▁osobností	-11.1518
▁manželka	-11.1519
▁Nejen	-11.1523
▁Celk	-11.1526
▁měny	-11.1527
▁jevů	-11.1531
▁věrn	-11.1531
▁demokratů	-11.1532
▁vedlo	-11.1535
▁Lux	-11.1536
▁ruku	-11.1539
▁samotný	-11.154
▁specializovan	-11.1561
▁bezprostřední	-11.1564
žití	-11.1567
▁neshod	-11.158
▁svěřen	-11.1593
▁vůdce	-11.1601
▁700	-11.1631
▁spotřebu	-11.1631
▁ozbrojen	-11.1643
morav	-11.1643
▁podstatný	-11.1646
▁hydro	-11.1651
▁charakterizova	-11.1657
tisknout	-11.166
vyšších	-11.1662
▁úrokov	-11.1665
▁výběrové	-11.1665
▁Dub	-11.1667
IST	-11.1683
▁turistick	-11.1684
▁vstupní	-11.1694
▁přenosov	-11.1701
▁zdravotnický	-11.1712
▁Ter	-11.1716
bojí	-11.1721
▁Škod	-11.1726
▁Jediný	-11.1727
▁pravý	-11.1729
▁vzp	-11.173
▁Smlouv	-11.1747
▁červené	-11.1751
▁Obča	-11.1758
▁pozván	-11.1776
▁vyplácen	-11.1793
▁rozhodnut	-11.1794
▁vzrůst	-11.1802
▁IV	-11.1803
hruba	-11.1806
▁vzdálené	-11.1806
▁Jedn	-11.1825
▁Londýn	-11.1826
▁rud	-11.183
rušit	-11.1831
psaný	-11.1832
▁zřetel	-11.1835
▁olympijsk	-11.1838
novými	-11.1839
trpěl	-11.184
▁zálož	-11.1848
žívání	-11.1858
▁Vždy	-11.1859
▁náležit	-11.186
zanedbateln	-11.186
▁EuroTel	-11.186
▁Kalvoda	-11.186
▁Okresní	-11.186
▁Sociální	-11.186
▁brambor	-11.186
▁celostátní	-11.186
▁domnívají	-11.186
▁energetik	-11.186
▁firmám	-11.186
▁hovořit	-11.186
▁komponent	-11.186
▁naštěstí	-11.186
▁nejrychlejší	-11.186
▁nežádoucí	-11.186
▁označuje	-11.186
▁posuzovat	-11.186
▁pracovnice	-11.186
▁publiku	-11.186
▁převzít	-11.186
▁redaktor	-11.186
▁rejstříku	-11.186
▁zbrojní	-11.186
glaciál	-11.186
▁kalendář	-11.186
▁ovlivňují	-11.186
▁připomínk	-11.186
▁radikální	-11.186
▁spoluhráč	-11.186
▁vyhlídk	-11.186
▁Domácí	-11.186
▁dubnu	-11.186
▁uplatnit	-11.186
▁zázemí	-11.186
▁Druhou	-11.186
▁odlišný	-11.186
▁přál	-11.186
▁Elektr	-11.186
▁Poborský	-11.186
▁kamarád	-11.186
▁souhrn	-11.186
▁Českomoravsk	-11.186
▁efektivní	-11.186
▁zásilk	-11.186
▁pokoušel	-11.186
▁Všechno	-11.186
▁osvobození	-11.186
▁nevědí	-11.186
▁viditeln	-11.186
▁Musel	-11.1861
▁záloh	-11.1861
▁fungují	-11.1861
▁učinit	-11.1861
▁invalid	-11.1861
▁nestačil	-11.1861
▁navržen	-11.1861
▁Šéf	-11.1861
▁sněžení	-11.1861
▁slyšet	-11.1861
▁prodlení	-11.1861
▁forem	-11.1861
▁dlouhodobý	-11.1861
▁samospráv	-11.1861
▁stránek	-11.1861
▁ztracen	-11.1862
▁vracet	-11.1862
▁Slavii	-11.1862
▁rysy	-11.1862
▁přijatelné	-11.1862
▁podílejí	-11.1862
▁obrazovce	-11.1862
▁škál	-11.1863
▁Objekt	-11.1864
▁Grand	-11.1864
▁studií	-11.1864
žádají	-11.1865
▁občanství	-11.1866
▁obrázku	-11.1867
rábě	-11.1867
▁neprav	-11.1867
biologie	-11.1868
▁Vesel	-11.1868
▁Norsk	-11.1869
lepnutím	-11.187
▁Františk	-11.187
▁vezme	-11.1874
▁dohad	-11.1875
▁přizpůsobit	-11.1875
jistit	-11.1875
léhá	-11.1877
▁viděn	-11.1878
▁Číny	-11.1879
▁demokraté	-11.1882
▁Roman	-11.1882
▁dobách	-11.1882
▁prodloužení	-11.1884
▁podnikat	-11.1886
ujme	-11.1889
▁regulace	-11.1891
▁All	-11.1896
▁stavbu	-11.1896
▁ukládání	-11.1901
▁fronty	-11.1903
▁Dohod	-11.1904
ENÍ	-11.1904
▁převoz	-11.1905
▁desetin	-11.1906
místě	-11.1908
▁každodenní	-11.1908
▁zpěvák	-11.1911
členné	-11.1919
▁Zelen	-11.1922
▁ÚV	-11.1927
hodnost	-11.193
▁trvalé	-11.1958
▁dávk	-11.1964
▁módní	-11.1977
▁úplné	-11.1986
atřicetilet	-11.199
▁Králov	-11.202
▁mořský	-11.2024
bund	-11.2041
▁odehráv	-11.2048
▁vnímá	-11.205
ařské	-11.2056
▁přiměřen	-11.2091
▁překvapil	-11.2099
▁hit	-11.21
▁poslal	-11.2103
▁64	-11.2111
▁Ostravar	-11.2129
splnění	-11.2138
plyn	-11.2143
dávky	-11.2144
▁krátký	-11.215
▁sněmovn	-11.2153
▁přidal	-11.2155
▁mód	-11.2158
▁osvět	-11.2181
▁Prac	-11.2205
▁platný	-11.2215
▁mechanismu	-11.2233
▁integr	-11.2234
▁Dal	-11.225
▁Pražský	-11.2252
▁předcházel	-11.2257
▁komunisti	-11.2266
▁dobro	-11.2267
ifikace	-11.2267
LED	-11.2268
▁administra	-11.2276
mýšlí	-11.2277
rehabilit	-11.2277
▁Alžbět	-11.2277
▁CADKON	-11.2277
▁Finanční	-11.2277
▁Intergraph	-11.2277
▁Lebeď	-11.2277
▁Pithart	-11.2277
▁Stručně	-11.2277
▁Zjuganov	-11.2277
▁altruismu	-11.2277
▁bližší	-11.2277
▁církvi	-11.2277
▁dědictví	-11.2277
▁fenomén	-11.2277
▁hektar	-11.2277
▁komunální	-11.2277
▁konferencí	-11.2277
▁lázeňsk	-11.2277
▁navrhnout	-11.2277
▁nejstarší	-11.2277
▁neschopnost	-11.2277
▁nábytku	-11.2277
▁odmítají	-11.2277
▁odpovědí	-11.2277
▁ovlivněn	-11.2277
▁psychiatr	-11.2277
▁reagovat	-11.2277
▁schůzi	-11.2277
▁softwaru	-11.2277
▁strategii	-11.2277
▁technologii	-11.2277
▁triumf	-11.2277
▁ukazatel	-11.2277
▁vytvářejí	-11.2277
▁zpoždění	-11.2277
▁zpátky	-11.2277
▁zálivu	-11.2277
▁zůstanou	-11.2277
▁živočichů	-11.2277
▁žádoucí	-11.2277
▁Nejčastěj	-11.2277
▁Srbů	-11.2277
▁Vídni	-11.2277
▁asistent	-11.2277
▁leasing	-11.2277
▁nepřetržit	-11.2277
▁otevírá	-11.2277
▁uzavírá	-11.2277
▁jazz	-11.2277
▁nárůst	-11.2277
▁atentát	-11.2277
▁říjnu	-11.2277
▁dovednost	-11.2277
▁nezaměstnaných	-11.2277
▁Bratink	-11.2277
▁Mencl	-11.2277
▁splatnosti	-11.2277
▁Mazda	-11.2277
▁vyvinut	-11.2277
▁vyznačuj	-11.2277
▁zastavení	-11.2277
▁podpoře	-11.2277
▁nízká	-11.2277
▁zpomal	-11.2277
▁Jistě	-11.2277
▁Polsko	-11.2277
▁dokáží	-11.2277
▁mřížk	-11.2277
▁splnit	-11.2277
▁diagram	-11.2278
štejn	-11.2278
▁maximum	-11.2278
▁kombinaci	-11.2278
▁jistou	-11.2278
▁Praktick	-11.2278
▁zazněl	-11.2278
▁náprav	-11.2278
▁stůl	-11.2278
▁Andre	-11.2279
▁přednášk	-11.2279
▁zvolit	-11.2279
▁Nabídk	-11.2279
▁rozsáhlý	-11.2279
▁Mimo	-11.2279
▁zařadil	-11.2279
▁brzd	-11.2279
▁zahrnut	-11.228
▁vyrovnal	-11.228
▁vrchní	-11.228
▁trpí	-11.228
▁Charles	-11.228
▁délce	-11.2281
▁Zálež	-11.2281
▁ligové	-11.2281
kryje	-11.2282
▁Sedm	-11.2282
▁komunikaci	-11.2283
▁ponechat	-11.2283
jíždí	-11.2284
▁kreslení	-11.2284
▁nejvýše	-11.2284
▁nastat	-11.2284
▁simul	-11.2285
▁okresů	-11.2286
▁kondom	-11.2286
▁nakažen	-11.2286
▁podmíněn	-11.2287
▁Bonn	-11.2288
▁Technick	-11.2289
▁otec	-11.229
oprvé	-11.229
▁bance	-11.2291
▁interval	-11.2291
▁kilogramů	-11.2296
▁Následuj	-11.2299
▁blesk	-11.2301
chytit	-11.2301
▁respektovat	-11.2303
▁pohybovat	-11.2304
▁odejít	-11.2305
charakterizuj	-11.2305
▁jmenuje	-11.2309
▁zřízen	-11.2312
stávat	-11.2312
▁energetické	-11.2313
▁mrav	-11.2314
▁Data	-11.2318
▁postižených	-11.2319
▁květin	-11.232
▁pádu	-11.2321
▁padesátých	-11.2321
▁Mír	-11.2323
▁obchodování	-11.2327
▁trik	-11.2338
▁typický	-11.2389
IG	-11.239
▁vzniknou	-11.2399
▁fotbalov	-11.2403
eckém	-11.2404
▁zaplacení	-11.241
▁zvěř	-11.2415
▁350	-11.2416
▁nazýva	-11.2427
▁objeven	-11.2429
ářských	-11.2431
▁nedal	-11.2432
schválila	-11.2433
hodná	-11.2436
▁jezdil	-11.2438
▁obdobné	-11.2446
být	-11.2449
▁obecný	-11.2457
▁probíhal	-11.2459
svědčení	-11.2469
▁valné	-11.2481
vládne	-11.249
▁typick	-11.25
▁plic	-11.2513
▁rusk	-11.254
▁čínské	-11.2557
▁uplynulý	-11.2558
kreslen	-11.2564
▁Siln	-11.2566
▁jasný	-11.257
▁královsk	-11.2574
íčko	-11.258
▁maďarský	-11.2581
▁pedagog	-11.2582
▁včerejš	-11.2584
▁vznikající	-11.2586
▁zvukové	-11.259
▁mís	-11.2604
▁900	-11.2617
▁190	-11.2644
▁požadovaný	-11.2656
▁symbolick	-11.2659
stoupení	-11.2662
▁pravidelné	-11.2666
▁Invest	-11.2671
▁akciov	-11.2678
jmenovaný	-11.2681
▁doplňk	-11.2693
pomíná	-11.2695
▁pout	-11.2697
▁textové	-11.2704
▁říkají	-11.2706
▁pozdě	-11.2709
prezentuje	-11.2711
▁Casimir	-11.2712
▁Bratislava	-11.2712
▁Demokratick	-11.2712
▁Jindřich	-11.2712
▁Počítač	-11.2712
▁cizince	-11.2712
▁dodržování	-11.2712
▁galerii	-11.2712
▁generací	-11.2712
▁hlubší	-11.2712
▁hypotéz	-11.2712
▁kompetence	-11.2712
▁konstatuje	-11.2712
▁metropole	-11.2712
▁mikroorganism	-11.2712
▁nejmodernější	-11.2712
▁nejznámější	-11.2712
▁nominální	-11.2712
▁otevřít	-11.2712
▁podpořit	-11.2712
▁požadovat	-11.2712
▁prohlídk	-11.2712
▁představenstva	-11.2712
▁přitažliv	-11.2712
▁reaktor	-11.2712
▁semifinále	-11.2712
▁strategií	-11.2712
▁udržuje	-11.2712
▁vojáci	-11.2712
▁vydavatel	-11.2712
▁výsledn	-11.2712
▁wimbledonsk	-11.2712
▁zveřejnil	-11.2712
▁zúčastněn	-11.2712
▁šablon	-11.2712
▁Africe	-11.2712
▁Dopravní	-11.2712
▁Nedvěd	-11.2712
▁Ostatní	-11.2712
▁Tigrid	-11.2712
▁básník	-11.2712
▁identifik	-11.2712
▁literární	-11.2712
▁polojasno	-11.2712
▁požadoval	-11.2712
▁složek	-11.2712
dostatečnou	-11.2712
▁Majitel	-11.2712
▁NDR	-11.2712
▁byznys	-11.2712
▁charakteristik	-11.2712
▁žadatel	-11.2712
▁Podstatn	-11.2712
▁nátlak	-11.2712
▁kodex	-11.2712
▁stránky	-11.2712
▁vyhovuje	-11.2712
▁strávil	-11.2712
▁údolí	-11.2712
střílel	-11.2712
▁Dříve	-11.2712
▁vystřídal	-11.2712
▁čtvrteční	-11.2712
▁divadle	-11.2712
▁patřičn	-11.2712
▁položky	-11.2712
▁rytíř	-11.2712
▁nevidí	-11.2712
▁nízký	-11.2712
▁logické	-11.2712
▁doporučil	-11.2712
▁Městsk	-11.2712
▁poplatek	-11.2712
▁vyrovnat	-11.2712
▁počínaj	-11.2712
▁informovan	-11.2712
▁Jugoslávie	-11.2712
chlazení	-11.2712
▁podobná	-11.2712
▁splnil	-11.2712
▁stoupá	-11.2712
▁účinku	-11.2712
▁Prodej	-11.2712
▁nejhorší	-11.2712
▁potravinářské	-11.2712
▁štáb	-11.2713
pochyby	-11.2713
▁Komerčn	-11.2713
povídat	-11.2713
▁Rychl	-11.2713
▁Maďarsku	-11.2713
▁fotografie	-11.2713
▁přijme	-11.2713
▁počkat	-11.2713
▁ekonomická	-11.2713
▁rakouský	-11.2713
▁ničem	-11.2714
▁korekc	-11.2714
▁zaručen	-11.2714
▁nápoj	-11.2715
▁Marie	-11.2715
▁radnici	-11.2716
▁Začal	-11.2716
▁verzí	-11.2716
▁vstupenk	-11.2717
▁malíř	-11.2717
▁barva	-11.2717
▁bohatství	-11.2718
▁neděle	-11.2718
▁dozor	-11.272
▁lodi	-11.2721
▁Ruml	-11.2722
▁teple	-11.2723
▁odhalen	-11.2724
▁vyhnout	-11.2725
▁Uveden	-11.2725
▁divok	-11.2726
▁jezdit	-11.2727
▁peset	-11.2728
▁změnám	-11.273
▁předcházející	-11.273
▁cement	-11.2732
▁obřad	-11.2732
▁podílet	-11.2734
▁řekne	-11.2737
▁okresy	-11.2737
▁novinách	-11.2738
▁uvědomit	-11.2738
▁zlatý	-11.2739
▁odvet	-11.2739
▁nedostatku	-11.2741
▁oborech	-11.2744
▁EU	-11.2744
▁přelom	-11.2747
▁prodejny	-11.2748
▁Žid	-11.2759
▁složitý	-11.276
stupující	-11.2761
▁zvaný	-11.2761
▁prožil	-11.2771
▁krut	-11.2772
▁Brod	-11.2777
následuj	-11.2777
▁tabulka	-11.2786
▁nemocný	-11.2787
▁5000	-11.2792
▁skalní	-11.2793
padesát	-11.2802
▁energetický	-11.2806
▁Děl	-11.2811
▁Potřebuje	-11.2815
▁obchodníků	-11.2846
▁čínský	-11.2853
▁evropským	-11.2855
▁obuv	-11.2859
▁optick	-11.2868
▁ekologický	-11.2878
▁Vaše	-11.2895
Severoatlantické	-11.2915
▁černý	-11.2919
který	-11.2922
▁hrd	-11.2936
▁zkresl	-11.294
DOS	-11.2947
▁bojovn	-11.2954
hodinové	-11.2955
přijeli	-11.2958
▁návštěvnost	-11.2976
Gar	-11.3004
▁přesvědčiv	-11.3012
▁chodb	-11.3013
▁průběžn	-11.3018
▁260	-11.3032
▁ranní	-11.3054
▁konečn	-11.3055
schopné	-11.3064
▁úředník	-11.31
▁basketbal	-11.3101
▁velkoobchod	-11.3112
▁stíhán	-11.3118
▁automat	-11.3126
▁převážn	-11.3133
▁přesahuj	-11.3159
díval	-11.316
▁Ján	-11.3164
▁Manažer	-11.3166
FIFA	-11.3166
▁Budějovic	-11.3166
▁Bulharsk	-11.3166
▁Bělohradský	-11.3166
▁Dienstbier	-11.3166
▁Dosavadní	-11.3166
▁Fischer	-11.3166
▁Kongres	-11.3166
▁Návštěv	-11.3166
▁Siemens	-11.3166
▁Skupina	-11.3166
▁Těžko	-11.3166
▁byrokrat	-11.3166
▁chirurg	-11.3166
▁design	-11.3166
▁družstvo	-11.3166
▁družstvu	-11.3166
▁geometrii	-11.3166
▁inflaci	-11.3166
▁luxusní	-11.3166
▁naznačuje	-11.3166
▁neuspěl	-11.3166
▁normálně	-11.3166
▁organizáto	-11.3166
▁označován	-11.3166
▁regenerace	-11.3166
▁rekonstrukce	-11.3166
▁rozšiřuje	-11.3166
▁rámečku	-11.3166
▁seznámit	-11.3166
▁skupenství	-11.3166
▁službě	-11.3166
▁strategické	-11.3166
▁transformační	-11.3166
▁zajistí	-11.3166
▁zúčastnit	-11.3166
▁Štědrý	-11.3166
▁1982	-11.3166
▁disponuj	-11.3166
▁obličej	-11.3166
▁čistíren	-11.3166
▁biskup	-11.3166
▁přiznává	-11.3166
▁výživ	-11.3166
připravoval	-11.3166
▁Poldi	-11.3166
▁dodávek	-11.3166
▁posuzován	-11.3166
▁shodují	-11.3166
▁stránku	-11.3166
▁Červen	-11.3166
▁neomezen	-11.3166
▁zákrok	-11.3166
▁velvyslanectví	-11.3166
▁vládnoucí	-11.3166
▁vstupenek	-11.3166
▁uprchl	-11.3166
▁středisko	-11.3166
▁nabídkou	-11.3166
▁posléze	-11.3166
▁Armád	-11.3166
▁Dušan	-11.3166
▁Náklady	-11.3166
▁usiluje	-11.3166
▁žádat	-11.3166
▁informován	-11.3166
▁konstrukcí	-11.3166
▁uznat	-11.3166
▁skromn	-11.3166
▁vazeb	-11.3166
▁vazba	-11.3166
▁Bavor	-11.3167
▁zastánc	-11.3167
▁udržova	-11.3167
▁Manžel	-11.3167
▁jindy	-11.3167
▁Varech	-11.3167
▁tribunál	-11.3167
▁Otevř	-11.3167
▁salát	-11.3167
▁leckd	-11.3167
▁hrůz	-11.3167
▁nabídne	-11.3167
▁spoléha	-11.3167
▁Projekt	-11.3168
▁přejít	-11.3168
▁senátní	-11.3168
▁náhlé	-11.3168
▁duševní	-11.3168
▁nepotřebuje	-11.3168
▁rozmístěn	-11.3168
▁Slavia	-11.3168
▁zodpovědnost	-11.3169
▁profesi	-11.3169
▁směřuje	-11.3169
▁chuť	-11.3169
▁chaos	-11.3169
▁Rozhodnutí	-11.3169
▁trvající	-11.3169
▁integrace	-11.3169
▁Oprav	-11.317
▁regulační	-11.3171
hrádk	-11.3171
▁nesporn	-11.3171
▁nejsem	-11.3172
▁ohně	-11.3173
střelen	-11.3173
allye	-11.3173
▁podrobnosti	-11.3175
▁Váš	-11.3175
▁Nadace	-11.3176
▁nezákonn	-11.3176
blížení	-11.3177
ckner	-11.3178
▁nedošlo	-11.318
▁Závod	-11.3181
▁turné	-11.3182
▁napaden	-11.3184
▁Milán	-11.3184
▁neumí	-11.3184
▁kdykoliv	-11.3187
trhl	-11.3188
▁strop	-11.3189
▁slunce	-11.3189
▁památek	-11.3191
▁tmav	-11.3193
▁vyspěl	-11.3198
▁svatb	-11.3198
▁kůže	-11.3199
Přerov	-11.3204
▁šedesátých	-11.3204
▁atmosféra	-11.3204
▁kontrolovat	-11.3206
pořádat	-11.3206
příkladu	-11.3219
zývají	-11.3221
▁pozic	-11.323
▁matka	-11.323
▁vyhodnocen	-11.3231
▁dotazník	-11.3244
▁švédské	-11.3249
▁Pražsk	-11.3249
kurzor	-11.3256
▁Clintonov	-11.3268
▁interní	-11.3269
▁horské	-11.327
▁zatčen	-11.3279
▁zvon	-11.3283
▁Volb	-11.3297
▁brněnsk	-11.3305
▁vystupuj	-11.3315
▁Poslanec	-11.3322
hrával	-11.3345
natý	-11.3351
▁klíčový	-11.3361
rovné	-11.3364
▁nebezpečný	-11.3367
například	-11.3375
▁elektronický	-11.3383
▁Fotbalist	-11.3398
▁násiln	-11.3399
▁Nemoh	-11.3414
▁urychl	-11.3426
▁světeln	-11.3435
▁získaný	-11.3448
▁svěřenc	-11.3483
▁ČT	-11.3489
▁podnikatelsk	-11.3502
▁počátk	-11.3509
▁Washington	-11.3523
▁důvěry	-11.3532
▁nemocnic	-11.354
▁schůzk	-11.3552
▁užívá	-11.3552
▁Věr	-11.3556
▁Označ	-11.3558
nejvýš	-11.3635
▁Blízké	-11.3642
▁Ekonomick	-11.3642
▁Gabčíkov	-11.3642
▁Kreslení	-11.3642
▁aplikaci	-11.3642
▁důležitou	-11.3642
▁filharmoni	-11.3642
▁kariéru	-11.3642
▁konkurent	-11.3642
▁neexistují	-11.3642
▁nepřítel	-11.3642
▁ovlivnit	-11.3642
▁podmínkám	-11.3642
▁popularit	-11.3642
▁přirozeně	-11.3642
▁referenda	-11.3642
▁svědky	-11.3642
▁ubytovací	-11.3642
▁vynález	-11.3642
▁výpovědi	-11.3642
▁zneužití	-11.3642
▁zázrak	-11.3642
▁Předpokládá	-11.3642
▁kanalizace	-11.3642
▁lehké	-11.3642
▁paralel	-11.3642
▁předpokládal	-11.3642
▁snižovat	-11.3642
▁Michail	-11.3643
▁fosilní	-11.3643
▁komunistů	-11.3643
▁pomůck	-11.3643
▁setkáváme	-11.3643
▁kontrakt	-11.3643
atlantick	-11.3643
▁obrátit	-11.3643
▁stupeň	-11.3643
▁etapě	-11.3643
▁přivezl	-11.3643
▁rubrik	-11.3643
zřídka	-11.3643
▁jedinců	-11.3643
▁zvyšují	-11.3643
▁klobouk	-11.3643
▁nezmění	-11.3643
▁československý	-11.3643
▁politicky	-11.3643
▁přídav	-11.3643
▁povahy	-11.3643
▁talent	-11.3643
▁Dynam	-11.3643
▁Atlantiku	-11.3643
▁přírodu	-11.3643
▁válku	-11.3643
imochodem	-11.3643
▁organick	-11.3643
▁budoucna	-11.3643
▁češtině	-11.3643
▁týče	-11.3643
▁zbaven	-11.3643
▁antropologie	-11.3643
▁staletí	-11.3643
hlíží	-11.3643
▁Karpov	-11.3643
▁smečky	-11.3643
▁administrativní	-11.3643
▁zkrátka	-11.3643
▁výtečn	-11.3643
▁image	-11.3643
▁Lendl	-11.3644
▁kombinace	-11.3644
▁Boyle	-11.3644
▁chybět	-11.3644
▁obzor	-11.3644
▁vyšla	-11.3644
▁mzda	-11.3644
průchod	-11.3644
▁stavět	-11.3644
▁vytížen	-11.3645
▁hokejisté	-11.3645
▁Španělska	-11.3645
▁rumunsk	-11.3645
▁Zdeňk	-11.3646
▁kritický	-11.3646
▁Středisk	-11.3646
▁arabské	-11.3646
▁distributor	-11.3646
▁induk	-11.3646
ukční	-11.3646
▁Říman	-11.3647
▁ocenil	-11.3647
▁1980	-11.3647
▁dostupné	-11.3647
▁poražen	-11.3647
▁nálad	-11.3648
▁převah	-11.3648
▁Minul	-11.3648
▁vyráběn	-11.3648
▁JAK	-11.3648
▁jídla	-11.3648
▁nohou	-11.3648
▁dívat	-11.3649
▁prapor	-11.3649
▁Maďarsko	-11.3649
▁Intel	-11.365
▁liberální	-11.365
▁rozprav	-11.365
▁solidní	-11.365
▁psů	-11.3651
▁2,5	-11.3652
kcionáři	-11.3652
▁příznivců	-11.3653
▁Říká	-11.3653
▁Optima	-11.3653
▁plnit	-11.3653
▁nezbývá	-11.3654
▁zabit	-11.3654
▁arabský	-11.3655
▁tabu	-11.3657
▁Spolu	-11.3658
▁ligový	-11.3658
bydlí	-11.3658
▁Pokus	-11.3659
▁Peck	-11.3659
zkoušet	-11.3659
▁příjezd	-11.3661
▁Příští	-11.3661
▁varování	-11.3665
▁euro	-11.3665
▁oken	-11.3666
▁Konec	-11.3666
▁ohni	-11.3666
▁osnov	-11.3666
rovnávací	-11.3667
▁výraznější	-11.3668
▁sáze	-11.3668
▁matky	-11.3669
▁hračk	-11.3669
▁Škol	-11.367
▁ráj	-11.367
následoval	-11.3671
▁adresář	-11.3675
▁Krist	-11.3676
▁nápln	-11.3677
▁vítr	-11.3677
kazil	-11.3679
▁převést	-11.368
▁stád	-11.3683
přesněji	-11.3696
zřetelně	-11.3698
▁podoba	-11.3703
▁kurt	-11.3708
▁vzdal	-11.3711
▁uznávan	-11.3714
▁genetick	-11.3715
▁elektronické	-11.3717
▁vyprš	-11.3718
▁Slovák	-11.3721
▁zachován	-11.3722
escu	-11.3734
▁zdokonal	-11.3738
▁zved	-11.3745
jadern	-11.3745
▁komet	-11.3748
▁slyší	-11.3749
▁elektrický	-11.375
▁absolv	-11.376
▁Syn	-11.3786
▁zobrazen	-11.3787
▁kluk	-11.3796
▁veškerý	-11.38
▁slun	-11.3808
řejmě	-11.3813
▁klíčové	-11.3813
▁italsk	-11.3844
▁krav	-11.3878
▁krvi	-11.3879
čítat	-11.3883
UJE	-11.3906
▁Král	-11.3913
▁archeolog	-11.3944
tvrdí	-11.396
místo	-11.3963
▁převlád	-11.3981
▁týkají	-11.4036
AG	-11.4037
▁japon	-11.4056
▁totemismu	-11.4057
▁řešen	-11.4084
▁oddělen	-11.4092
▁svobodný	-11.4118
funk	-11.4124
▁Závěr	-11.4126
▁vzpomín	-11.4135
olicejní	-11.4139
▁konzerv	-11.4142
▁obdiv	-11.4142
peptid	-11.4142
▁Doufám	-11.4142
▁PŘED	-11.4142
▁Výsledek	-11.4142
▁Wembley	-11.4142
▁Zdravotn	-11.4142
▁anonymní	-11.4142
▁cizinců	-11.4142
▁definovat	-11.4142
▁dvojnásobek	-11.4142
▁evidenci	-11.4142
▁humanitární	-11.4142
▁intenzivně	-11.4142
▁komfort	-11.4142
▁kriminál	-11.4142
▁království	-11.4142
▁lhůty	-11.4142
▁nabídnut	-11.4142
▁neúspěch	-11.4142
▁otázkách	-11.4142
▁ošetření	-11.4142
▁podruhé	-11.4142
▁pohotovost	-11.4142
▁počáteční	-11.4142
▁převzetí	-11.4142
▁připomenout	-11.4142
▁revoluce	-11.4142
▁srozumiteln	-11.4142
▁strategický	-11.4142
▁tvůrčí	-11.4142
▁týdnu	-11.4142
▁uhličitého	-11.4142
▁upozorňují	-11.4142
▁uskutečň	-11.4142
▁veřejnou	-11.4142
▁zdravotně	-11.4142
▁zvyšovat	-11.4142
▁zážitek	-11.4142
neštěstí	-11.4142
▁Boleslav	-11.4142
▁HGF	-11.4142
▁dětmi	-11.4142
▁ostravské	-11.4142
▁užitečné	-11.4142
▁výrobku	-11.4142
▁zajistil	-11.4142
▁řekněme	-11.4142
▁Výjimk	-11.4143
▁projednávání	-11.4143
▁sankce	-11.4143
▁sportovci	-11.4143
▁zloděj	-11.4143
▁Poborského	-11.4143
▁LDS	-11.4143
▁Strakoni	-11.4143
▁Havlov	-11.4143
▁série	-11.4143
▁umístit	-11.4143
▁Nobelov	-11.4143
▁mobilní	-11.4143
▁skener	-11.4143
▁souprav	-11.4143
▁Mostaru	-11.4143
▁krystal	-11.4143
▁opačný	-11.4143
▁pátý	-11.4143
▁srpnu	-11.4143
pomáhal	-11.4143
▁sleduje	-11.4143
▁MHz	-11.4143
▁odevzda	-11.4143
▁potravy	-11.4143
▁komisí	-11.4143
▁zhoubn	-11.4143
▁centrem	-11.4143
▁chemie	-11.4143
▁kompost	-11.4143
▁nepatří	-11.4143
▁stěžují	-11.4143
▁Názor	-11.4143
▁stačit	-11.4143
▁pozemků	-11.4143
▁Komora	-11.4143
▁rozvinut	-11.4143
▁národnostní	-11.4143
▁minimum	-11.4143
▁letišti	-11.4143
skočit	-11.4143
▁konzervativní	-11.4143
▁sehnat	-11.4143
▁veličin	-11.4143
záhad	-11.4143
▁Počítá	-11.4143
▁Ústí	-11.4143
▁Prahu	-11.4143
▁Filip	-11.4143
▁promítá	-11.4143
▁shluk	-11.4143
▁popsán	-11.4143
▁Úprav	-11.4143
▁obránce	-11.4143
▁obnovit	-11.4143
▁turisté	-11.4143
▁kostým	-11.4143
▁modernizaci	-11.4143
▁vyhověl	-11.4143
▁proběhla	-11.4144
▁nebrání	-11.4144
▁román	-11.4144
▁remíz	-11.4144
▁karet	-11.4145
▁vykonávat	-11.4145
vážet	-11.4145
▁podobnost	-11.4146
▁emise	-11.4146
▁azyl	-11.4146
▁pilot	-11.4146
▁diskusí	-11.4146
▁experimentální	-11.4147
▁moudr	-11.4147
▁podoby	-11.4147
▁španělsk	-11.4147
▁chrání	-11.4148
▁1948	-11.4148
▁cítit	-11.4148
▁Klepn	-11.4149
▁zaslal	-11.4149
▁vylepš	-11.415
ford	-11.415
▁realizaci	-11.415
▁půjčky	-11.415
▁dovoluje	-11.4151
▁videa	-11.4151
▁dárk	-11.4153
▁potřebovat	-11.4153
▁Chang	-11.4153
▁nechci	-11.4154
▁Mistr	-11.4155
▁očima	-11.4156
▁budování	-11.4156
rozuměj	-11.4156
▁POD	-11.4156
▁bát	-11.4159
▁léčení	-11.416
▁nádob	-11.4162
▁Masarykov	-11.4163
▁Bosn	-11.4163
▁nahoru	-11.4164
určují	-11.4165
▁útočn	-11.4166
▁dovolí	-11.4166
▁formulář	-11.4167
rychlostní	-11.417
▁prosím	-11.4177
▁registrac	-11.4183
▁Seznam	-11.419
▁kolekc	-11.4191
0.000	-11.4199
▁pták	-11.4203
sazování	-11.4212
OST	-11.4214
důrazně	-11.4225
▁náhle	-11.4232
▁věčn	-11.4242
▁běže	-11.4256
▁čelní	-11.4263
jížděl	-11.4283
▁závažný	-11.4286
▁diplomatické	-11.4288
▁Večer	-11.4298
bírat	-11.43
▁vycházel	-11.4304
▁Chorvat	-11.4327
cestovat	-11.4343
▁samotn	-11.4346
▁klinick	-11.436
▁izraelský	-11.4368
▁Turist	-11.4448
▁automobilový	-11.4526
▁zemědělsk	-11.453
ohledně	-11.4543
▁šampionát	-11.4549
▁vyžadují	-11.4561
mohou	-11.4571
▁spolupracovník	-11.4592
▁veřejný	-11.4596
svit	-11.4613
▁povolen	-11.4638
▁výpočet	-11.4641
▁Maďar	-11.4658
▁integrovan	-11.4663
ografii	-11.4668
▁Vinohrad	-11.4669
▁univerzáln	-11.4669
sekretariát	-11.4669
zrcadl	-11.4669
▁Dvořák	-11.4669
▁Lubomír	-11.4669
▁Maastrichtu	-11.4669
▁Sarajev	-11.4669
▁Schneider	-11.4669
▁bratislavsk	-11.4669
▁cizinci	-11.4669
▁deklarace	-11.4669
▁evoluční	-11.4669
▁institut	-11.4669
▁kancléř	-11.4669
▁kmitočt	-11.4669
▁lékáren	-11.4669
▁medailí	-11.4669
▁ministerstev	-11.4669
▁nemožné	-11.4669
▁nespokojenost	-11.4669
▁opozici	-11.4669
▁oslaben	-11.4669
▁oživení	-11.4669
▁portfoli	-11.4669
▁posouzení	-11.4669
▁přeháňky	-11.4669
▁redakci	-11.4669
▁restituční	-11.4669
▁skript	-11.4669
▁speciálně	-11.4669
▁struktuře	-11.4669
▁tabulátor	-11.4669
▁tisíciletí	-11.4669
▁uspokojení	-11.4669
▁vyloučit	-11.4669
▁zúčastní	-11.4669
▁Antonín	-11.4669
▁Bayern	-11.4669
▁Benešov	-11.4669
▁Weizs	-11.4669
▁altruist	-11.4669
▁archív	-11.4669
▁cizině	-11.4669
▁informovat	-11.4669
▁komunisté	-11.4669
▁minerální	-11.4669
▁nejsilnější	-11.4669
▁nečekaně	-11.4669
▁spánku	-11.4669
▁tiskárna	-11.4669
▁uzávěr	-11.4669
▁zlepšit	-11.4669
▁Jednotliv	-11.4669
▁Náměst	-11.4669
▁ohlášen	-11.4669
▁stadia	-11.4669
▁výkyvy	-11.4669
▁zlepšil	-11.4669
▁nevznik	-11.4669
▁princezn	-11.4669
▁přidružen	-11.4669
▁svatební	-11.4669
▁krádež	-11.4669
instalovat	-11.4669
▁stoupenc	-11.4669
šetřil	-11.4669
▁Libanon	-11.4669
▁lístky	-11.4669
▁nahrazen	-11.4669
▁družic	-11.4669
▁Mazdy	-11.4669
▁letadlo	-11.4669
▁zasvěcen	-11.4669
▁řemesl	-11.4669
▁preventivn	-11.4669
▁válkou	-11.4669
▁porušil	-11.4669
▁ohrom	-11.4669
▁licence	-11.4669
▁slalom	-11.4669
▁jídlo	-11.4669
hlédl	-11.4669
▁Něco	-11.4669
▁neuvažuj	-11.4669
▁kádru	-11.4669
▁čáry	-11.4669
▁doplnit	-11.4669
▁ovládat	-11.4669
▁vydělat	-11.4669
▁ČSAV	-11.4669
rozhodoval	-11.4669
▁penalt	-11.4669
▁Polsku	-11.4669
▁zahájí	-11.4669
▁jedinečn	-11.4669
▁odškodnění	-11.4669
▁pozemky	-11.4669
▁dealer	-11.4669
▁jedinci	-11.4669
▁Odhad	-11.4669
▁vyrábějí	-11.4669
▁užívat	-11.4669
▁využije	-11.4669
▁účinný	-11.467
▁potrvá	-11.467
▁umístil	-11.467
▁veliká	-11.467
▁USD	-11.467
▁nestalo	-11.467
▁nebudu	-11.467
▁kůži	-11.467
šňů	-11.467
pálil	-11.467
▁hlášen	-11.467
▁žánr	-11.467
▁nemění	-11.4671
▁dopředu	-11.4671
▁městečk	-11.4671
▁hornin	-11.4671
▁odvozen	-11.4671
▁uklid	-11.4671
▁Hlas	-11.4671
▁Holub	-11.4672
▁setkat	-11.4672
▁Krkonoších	-11.4672
▁koncentrací	-11.4672
▁vracejí	-11.4672
projevilo	-11.4672
▁dřevěný	-11.4673
▁přečte	-11.4673
▁návštěvníci	-11.4673
▁Zásad	-11.4673
▁restaurací	-11.4673
▁otřes	-11.4673
▁východisk	-11.4674
dražil	-11.4675
▁chybějící	-11.4675
▁zlata	-11.4676
▁ruchu	-11.4676
▁dešťov	-11.4676
▁masa	-11.4677
▁řešil	-11.4678
▁jádra	-11.4678
přát	-11.4678
▁Juli	-11.4678
▁Nesmí	-11.4681
▁odstín	-11.4682
▁zakončen	-11.4682
▁přenesen	-11.4684
▁záložník	-11.4685
▁převeden	-11.4689
▁léčba	-11.4689
▁náročnější	-11.4691
▁stres	-11.4696
▁vyšetřovací	-11.4696
▁kytarist	-11.4703
▁letoun	-11.4707
▁Byt	-11.4718
▁oceňuj	-11.472
▁počítají	-11.4738
▁právnick	-11.4751
▁vyplývající	-11.4761
▁varoval	-11.4763
méno	-11.4764
▁potka	-11.4773
▁Hodn	-11.4808
strašně	-11.4814
▁nejedn	-11.4833
▁Husov	-11.4849
▁bezpečně	-11.4869
▁zněl	-11.4896
ždyť	-11.4911
▁smrteln	-11.4911
▁jeskyn	-11.4926
▁uskutečnil	-11.4932
▁Světov	-11.4942
▁Severoatlantick	-11.4969
▁kvalitativn	-11.4972
▁kapitálový	-11.5029
print	-11.5051
sovětsk	-11.507
▁všeobecn	-11.5073
▁Potřeb	-11.5094
▁Ostrav	-11.5121
▁magi	-11.5134
▁Ann	-11.5136
▁oblačno	-11.5163
edmdesát	-11.5164
▁zhodnoc	-11.5171
▁věnuj	-11.5173
pouštět	-11.5174
▁umožňují	-11.5182
jišťuje	-11.5191
▁Obsah	-11.5201
▁Masaryk	-11.5201
▁sovětský	-11.5212
ejzajímavější	-11.5224
populárnější	-11.5224
▁Bierhoff	-11.5224
▁Evropou	-11.5224
▁Jackson	-11.5224
▁Jupiter	-11.5224
▁Karadžic	-11.5224
▁Křesťan	-11.5224
▁Letošní	-11.5224
▁Litvínov	-11.5224
▁Naštěstí	-11.5224
▁Obyvatel	-11.5224
▁Olszewsk	-11.5224
▁Sněmovn	-11.5224
▁Softwar	-11.5224
▁Stehlík	-11.5224
▁arcibiskup	-11.5224
▁burzy	-11.5224
▁celosvětov	-11.5224
▁charitativní	-11.5224
▁chorvatský	-11.5224
▁dirigent	-11.5224
▁energií	-11.5224
▁kandidovat	-11.5224
▁krátkodobé	-11.5224
▁laboratorní	-11.5224
▁leccos	-11.5224
▁londýn	-11.5224
▁nahrávk	-11.5224
▁neexistoval	-11.5224
▁nešťastn	-11.5224
▁následovat	-11.5224
▁opozicí	-11.5224
▁premiéře	-11.5224
▁prezervativ	-11.5224
▁prokuratur	-11.5224
▁překážky	-11.5224
▁restitucí	-11.5224
▁seriózní	-11.5224
▁stability	-11.5224
▁televizor	-11.5224
▁vyměnil	-11.5224
▁vzdělávání	-11.5224
▁zdůvodnil	-11.5224
▁závislá	-11.5224
▁Úspěšn	-11.5224
▁úspěšnost	-11.5224
▁Madrid	-11.5224
▁Soutěž	-11.5224
▁incident	-11.5224
▁kontext	-11.5224
▁poskytne	-11.5224
▁preferenc	-11.5224
▁sudetský	-11.5224
▁tendenci	-11.5224
▁totalitní	-11.5224
▁viceprezident	-11.5224
▁zakázán	-11.5224
▁získají	-11.5224
▁Čtvrt	-11.5224
Standard	-11.5224
škráb	-11.5224
▁Bezpečnost	-11.5224
▁dostatečné	-11.5224
▁imunitní	-11.5224
▁odlišné	-11.5224
▁ozónu	-11.5224
▁podotkl	-11.5224
▁socialismu	-11.5224
▁učebnic	-11.5224
▁výkres	-11.5224
▁výslovně	-11.5224
▁záleže	-11.5224
▁Město	-11.5224
▁Podívej	-11.5224
▁Ukrajina	-11.5224
▁Atleti	-11.5224
▁Moderní	-11.5224
▁kapitul	-11.5224
▁výrobou	-11.5224
▁zachránil	-11.5224
▁Pražan	-11.5224
▁mrtvé	-11.5224
▁těžší	-11.5224
▁abeced	-11.5224
▁náleží	-11.5224
▁porušování	-11.5224
▁herečka	-11.5224
▁zemědělci	-11.5224
▁znamení	-11.5224
▁Kopřiv	-11.5224
▁filtr	-11.5224
▁Island	-11.5224
▁Mandler	-11.5224
▁laserov	-11.5224
▁vyžádá	-11.5224
burgu	-11.5224
▁MIDI	-11.5224
▁profese	-11.5224
▁Dukly	-11.5224
▁chápán	-11.5225
▁živnostenský	-11.5225
▁položku	-11.5225
▁zapsán	-11.5225
▁naučit	-11.5225
▁Obvodní	-11.5225
▁nutná	-11.5225
▁hrozil	-11.5225
▁ČSAD	-11.5225
▁příroda	-11.5225
▁druzí	-11.5225
▁obvinil	-11.5225
▁Vojenské	-11.5225
▁Dlouho	-11.5225
▁zajímal	-11.5225
▁převažuj	-11.5225
▁necelé	-11.5225
▁stěží	-11.5225
▁Hapal	-11.5225
▁výlučn	-11.5225
▁rozumět	-11.5225
▁Maďarska	-11.5225
▁kubismu	-11.5226
▁uplatňova	-11.5226
▁mýtu	-11.5226
▁Akci	-11.5226
▁vystupoval	-11.5226
▁koncentraci	-11.5227
▁zvrat	-11.5227
▁frakc	-11.5227
sudek	-11.5227
▁diváci	-11.5227
▁Berger	-11.5227
ampión	-11.5228
▁přečetl	-11.5228
▁vyjít	-11.5228
▁utajen	-11.5228
členný	-11.5228
▁poctiv	-11.5228
▁proměnliv	-11.5229
▁kopané	-11.5229
▁studené	-11.5229
▁kresb	-11.5231
▁nesměl	-11.5232
▁česky	-11.5232
▁cítil	-11.5234
▁ČESK	-11.5235
▁balení	-11.5236
píší	-11.5238
háněl	-11.5238
vrátit	-11.5239
▁kámen	-11.524
▁přidělen	-11.5242
ČSSD	-11.5243
▁důstojník	-11.5245
▁Politick	-11.5246
poškozené	-11.525
▁utekl	-11.5252
▁chápe	-11.5253
především	-11.5255
systém	-11.5256
▁trůn	-11.5257
▁dostupný	-11.5257
▁pojistn	-11.5258
▁Barn	-11.5263
▁Prag	-11.5264
ůstek	-11.5265
▁zanikl	-11.527
nechávají	-11.5272
▁výměník	-11.5282
▁předsednictv	-11.5285
▁mistrovsk	-11.5286
účtování	-11.5291
▁dosahují	-11.5306
▁momentáln	-11.5308
hořel	-11.5324
▁pětadvacet	-11.5327
ografické	-11.533
▁částečn	-11.5332
▁zadržen	-11.5351
▁Geo	-11.5357
▁Zákaz	-11.5362
▁lacin	-11.5369
▁nezískal	-11.5384
ower	-11.5385
▁Buď	-11.5396
▁ověřen	-11.5419
▁nálož	-11.5432
archeologi	-11.545
▁Občansk	-11.5469
▁Karlový	-11.5479
způsobují	-11.5483
▁trojic	-11.5491
ogenní	-11.5509
▁hlás	-11.5518
▁horský	-11.5521
▁prezidentský	-11.5522
bytová	-11.5538
ázev	-11.5555
tlačit	-11.5568
soudit	-11.5593
tvořily	-11.56
pracování	-11.5608
elektrick	-11.5623
▁tradic	-11.5652
významn	-11.5663
▁tečk	-11.5699
vědčí	-11.5702
vezm	-11.5715
▁dávn	-11.5718
▁jater	-11.5719
hodinový	-11.5736
▁Ostravsk	-11.5743
▁Švýcar	-11.5753
▁potvrzen	-11.5759
▁začínal	-11.5772
▁rostl	-11.5784
čínsk	-11.5793
▁vesnic	-11.5793
389	-11.5794
▁vzkaz	-11.5798
▁restaur	-11.5802
vyjádřen	-11.5803
německou	-11.5803
▁Krkonoš	-11.581
nešní	-11.5811
▁Jugosláv	-11.5811
svobozen	-11.5812
▁redukci	-11.5813
doporučují	-11.5813
egyptsk	-11.5813
▁Běloruska	-11.5813
▁Jihoafrick	-11.5813
▁Manchester	-11.5813
▁Niederl	-11.5813
▁Pentium	-11.5813
▁Polskem	-11.5813
▁Poštovní	-11.5813
▁Pravděpodobn	-11.5813
▁Rozhovor	-11.5813
▁Svorada	-11.5813
▁Významn	-11.5813
▁asteroid	-11.5813
▁displej	-11.5813
▁doprovázen	-11.5813
▁ekvivalent	-11.5813
▁gramotnost	-11.5813
▁konfiguraci	-11.5813
▁kooperac	-11.5813
▁lidstva	-11.5813
▁mechanismy	-11.5813
▁ministerstvem	-11.5813
▁mrtvých	-11.5813
▁nejlevnější	-11.5813
▁nejvhodnější	-11.5813
▁nepřijatelné	-11.5813
▁nesprávn	-11.5813
▁organismů	-11.5813
▁oteplení	-11.5813
▁ovlivňova	-11.5813
▁podmínkami	-11.5813
▁pohromadě	-11.5813
▁potvrdit	-11.5813
▁pracovišti	-11.5813
▁prohlašuje	-11.5813
▁protagonist	-11.5813
▁sluchátka	-11.5813
▁spolupracují	-11.5813
▁stabilitu	-11.5813
▁strojírenství	-11.5813
▁svědků	-11.5813
▁ubytovn	-11.5813
▁uskutečněn	-11.5813
▁vyjadřova	-11.5813
▁vyvrchol	-11.5813
▁vzdělávací	-11.5813
▁výhrady	-11.5813
▁výsledcích	-11.5813
▁zachránit	-11.5813
▁zaměstnává	-11.5813
▁zastupitelstvo	-11.5813
▁zvláštnost	-11.5813
▁zvýhodněn	-11.5813
▁závazek	-11.5813
▁závislé	-11.5813
▁švýcarské	-11.5813
▁1981	-11.5813
▁1998	-11.5813
▁Hrdličk	-11.5813
▁Městě	-11.5813
▁generaci	-11.5813
▁hřbitov	-11.5813
▁instance	-11.5813
▁inzerát	-11.5813
▁kampaň	-11.5813
▁mužstvu	-11.5813
▁označují	-11.5813
▁rozvržení	-11.5813
▁vyjednávání	-11.5813
▁zastávk	-11.5813
▁zbraň	-11.5813
▁Eduard	-11.5813
▁Kepler	-11.5813
▁Pořadatel	-11.5813
▁Uvažuje	-11.5813
▁Vědci	-11.5813
▁bázi	-11.5813
▁odehrál	-11.5813
▁složku	-11.5813
▁Thomas	-11.5813
▁kliniky	-11.5813
▁prokázán	-11.5813
přihlášk	-11.5813
▁profesí	-11.5813
▁uplatnil	-11.5813
▁Balkán	-11.5813
▁komentoval	-11.5813
▁očekávají	-11.5813
▁sazby	-11.5813
▁Výběr	-11.5813
▁pátrá	-11.5813
▁kosmický	-11.5813
▁obtíže	-11.5813
▁pouštní	-11.5813
▁Právní	-11.5813
▁čistírn	-11.5813
▁kontrast	-11.5813
▁překonat	-11.5813
▁vazbě	-11.5813
omputer	-11.5813
▁hmyz	-11.5813
▁jedinec	-11.5813
▁podléha	-11.5813
▁poplatků	-11.5813
▁vyřešil	-11.5813
▁Baker	-11.5813
▁sérii	-11.5813
▁dráhu	-11.5813
opakovaně	-11.5813
režie	-11.5813
▁SNR	-11.5813
▁ojediněle	-11.5813
▁přijímat	-11.5813
▁přehrad	-11.5813
▁převrat	-11.5813
▁odvahu	-11.5813
▁zahrnují	-11.5813
▁doplnil	-11.5813
▁neviděl	-11.5813
▁prvotní	-11.5813
▁otravy	-11.5813
▁Gross	-11.5813
▁květ	-11.5813
▁Smith	-11.5813
▁kolaps	-11.5813
▁partie	-11.5813
▁povahu	-11.5813
▁absenc	-11.5813
KDS	-11.5813
▁Reuter	-11.5813
hlížel	-11.5813
▁2:1	-11.5813
▁nadějn	-11.5813
▁sladk	-11.5813
▁jarní	-11.5813
▁postačí	-11.5813
▁kombinací	-11.5814
▁obezit	-11.5814
▁cvičení	-11.5814
▁etapy	-11.5814
▁liberalizac	-11.5814
▁patent	-11.5814
▁velkolep	-11.5814
hlédnutí	-11.5814
▁vpravo	-11.5814
▁sportovce	-11.5814
▁smečka	-11.5814
▁počty	-11.5814
obdržela	-11.5814
▁Radovan	-11.5814
▁ekonomickou	-11.5814
pravdě	-11.5814
▁Kučer	-11.5814
▁Vilém	-11.5814
▁afér	-11.5814
▁ohlas	-11.5814
▁finance	-11.5814
▁dimenz	-11.5815
▁Kvalit	-11.5815
▁filozofii	-11.5815
▁Ford	-11.5815
▁konverz	-11.5815
▁spoření	-11.5816
▁Španělsko	-11.5816
ohrozil	-11.5816
▁hluboký	-11.5816
▁lůžk	-11.5816
▁zaměřuje	-11.5816
▁Krás	-11.5816
▁sníží	-11.5816
▁koncentr	-11.5816
▁dvor	-11.5816
▁derby	-11.5817
běhne	-11.5817
▁děkan	-11.5817
▁členění	-11.5817
▁zmenšen	-11.5817
▁studii	-11.5817
▁Hráč	-11.5818
▁výměr	-11.5818
ředstavitelé	-11.582
▁retro	-11.5823
▁dozví	-11.5827
▁předloh	-11.5828
▁tureck	-11.5829
▁usilují	-11.5831
▁vynesl	-11.5831
▁jakéhokoli	-11.5832
eportáž	-11.5834
▁salon	-11.5835
▁vyzván	-11.5836
▁protivník	-11.5841
▁udělen	-11.5843
▁vyplni	-11.5845
▁mohutn	-11.5849
▁vyhleda	-11.5854
▁dýcha	-11.5859
▁ideologick	-11.5863
▁vyznačen	-11.5868
▁úměrn	-11.5875
▁nazval	-11.5878
▁pozdní	-11.5882
▁pomník	-11.5886
▁zkrac	-11.5888
▁Palác	-11.5892
▁myln	-11.59
▁zažil	-11.5923
▁odluk	-11.5928
hradil	-11.5945
▁lidový	-11.595
kromě	-11.5955
▁polský	-11.5956
▁počítačov	-11.5959
program	-11.5982
▁stabiliz	-11.6012
reál	-11.6012
ktické	-11.6034
▁muslimsk	-11.6065
▁anglick	-11.6084
▁maxim	-11.609
▁dvaadvacet	-11.6123
▁bosen	-11.6138
OSTI	-11.6168
▁fakult	-11.6191
▁Novotn	-11.6233
▁nadměrn	-11.624
▁hrozn	-11.6246
▁Jih	-11.6303
▁ústřed	-11.6347
▁ovládá	-11.638
▁ukončen	-11.6385
smdesát	-11.6392
▁algoritm	-11.6421
obrazit	-11.6429
podivu	-11.6433
Cagiva	-11.6438
▁Barcelony	-11.6438
▁Dudajev	-11.6438
▁Frankfurt	-11.6438
▁Honecker	-11.6438
▁Konkrétn	-11.6438
▁Liverpool	-11.6438
▁Lobkowicz	-11.6438
▁Myslíte	-11.6438
▁Schumacher	-11.6438
▁Stráský	-11.6438
▁angličtiny	-11.6438
▁atribut	-11.6438
▁databázový	-11.6438
▁dosaženo	-11.6438
▁dětství	-11.6438
▁efektivnosti	-11.6438
▁epidemie	-11.6438
▁eventuáln	-11.6438
▁exhibic	-11.6438
▁expanz	-11.6438
▁extremist	-11.6438
▁fundamentalist	-11.6438
▁hollywoodsk	-11.6438
▁intenzivní	-11.6438
▁jménu	-11.6438
▁kinematografie	-11.6438
▁komplikace	-11.6438
▁konkurs	-11.6438
▁kriminalist	-11.6438
▁kritizoval	-11.6438
▁lhůtě	-11.6438
▁mláďat	-11.6438
▁nabízel	-11.6438
▁nabízet	-11.6438
▁nejmladší	-11.6438
▁nelíbí	-11.6438
▁nesmějí	-11.6438
▁notebook	-11.6438
▁ohrozit	-11.6438
▁pohledávky	-11.6438
▁pozůstatk	-11.6438
▁počínání	-11.6438
▁pronájmu	-11.6438
▁pódiu	-11.6438
▁rozšiřování	-11.6438
▁skrývá	-11.6438
▁spekulace	-11.6438
▁spekulací	-11.6438
▁svědectví	-11.6438
▁tlačítek	-11.6438
▁vyčleněn	-11.6438
▁vztazích	-11.6438
▁výdělečn	-11.6438
▁zdůrazňuje	-11.6438
▁ÚSES	-11.6438
▁úředníci	-11.6438
▁ČSTK	-11.6438
▁Čarnogursk	-11.6438
▁švýcarský	-11.6438
▁Luboš	-11.6438
▁Moskvy	-11.6438
▁Měsíc	-11.6438
▁Větší	-11.6438
▁cizinec	-11.6438
▁evoluce	-11.6438
▁metabolick	-11.6438
▁poloostrov	-11.6438
▁polštář	-11.6438
▁profesní	-11.6438
▁redakční	-11.6438
▁separatist	-11.6438
▁seznámil	-11.6438
▁trápí	-11.6438
▁znepokojen	-11.6438
▁Apple	-11.6438
▁Harrachov	-11.6438
▁TNF	-11.6438
▁levněji	-11.6438
▁nacházel	-11.6438
▁omezování	-11.6438
▁předpokládají	-11.6438
▁stadion	-11.6438
generační	-11.6438
▁Opět	-11.6438
▁bydliště	-11.6438
▁hnízd	-11.6438
▁lůžek	-11.6438
kontaminac	-11.6438
▁Budinský	-11.6438
▁nazývá	-11.6438
▁ropovod	-11.6438
▁ilustrac	-11.6438
▁HDP	-11.6438
▁bezespor	-11.6438
Oscar	-11.6438
▁Vánoční	-11.6438
▁plynáren	-11.6438
▁prodavač	-11.6438
▁rozmnož	-11.6438
▁poskytovan	-11.6438
▁učební	-11.6438
▁kosmické	-11.6438
▁matematické	-11.6438
▁nerozumí	-11.6438
▁vyhrazen	-11.6438
▁výzvu	-11.6438
kompenz	-11.6438
▁Haagu	-11.6438
▁mrtvol	-11.6438
▁šlecht	-11.6438
▁terminologi	-11.6438
▁přiznat	-11.6438
KDH	-11.6438
▁skandál	-11.6438
▁Vánoce	-11.6438
▁nekončí	-11.6438
▁sdružuj	-11.6438
▁belgick	-11.6438
▁nazvaný	-11.6438
▁pronajat	-11.6438
▁minulou	-11.6438
▁demisi	-11.6438
▁pojmy	-11.6438
▁převyšuj	-11.6438
▁odlišuj	-11.6438
▁recenze	-11.6438
▁praxí	-11.6438
▁spektrum	-11.6438
▁Easy	-11.6438
▁mezisklad	-11.6438
▁hygienické	-11.6438
▁pokouší	-11.6438
▁nevadí	-11.6438
▁plakát	-11.6438
▁pryč	-11.6438
▁uváděl	-11.6438
▁Kyjev	-11.6438
▁trojnásobn	-11.6438
▁koupě	-11.6438
šplha	-11.6438
▁mutace	-11.6438
▁napodob	-11.6438
týkat	-11.6438
major	-11.6438
▁stereo	-11.6438
▁Římě	-11.6438
▁žádal	-11.6439
▁snižují	-11.6439
▁zastupování	-11.6439
▁Neznám	-11.6439
kročit	-11.6439
týkal	-11.6439
▁levicov	-11.6439
▁PŘI	-11.6439
▁usiloval	-11.6439
▁veterán	-11.6439
▁něčím	-11.6439
▁bydlet	-11.6439
▁vyvážen	-11.6439
▁pohlaví	-11.644
▁inteligentní	-11.644
▁strážníci	-11.644
▁inkas	-11.644
2:0	-11.644
▁Vodičk	-11.644
▁ocas	-11.644
▁rozlož	-11.644
▁spuštění	-11.644
▁námitky	-11.644
▁Group	-11.6441
▁součin	-11.6441
▁prudké	-11.6441
▁LID	-11.6441
▁střechy	-11.6441
▁prevenc	-11.6441
▁rovnost	-11.6441
▁teplé	-11.6441
▁slyšel	-11.6441
▁vyrobil	-11.6441
▁výtisk	-11.6442
▁průhledn	-11.6442
▁někam	-11.6443
▁vápenc	-11.6443
▁pyšn	-11.6444
▁Olg	-11.6446
▁běžc	-11.6446
▁kníže	-11.6446
▁složitost	-11.6447
▁stolní	-11.6447
▁Thun	-11.6449
jistá	-11.6454
▁přežil	-11.6455
▁ustaven	-11.6456
▁geografick	-11.6457
▁teplý	-11.6458
bajt	-11.6459
uskutečnila	-11.6461
▁Brněnsk	-11.6462
Finsko	-11.6464
kontinentální	-11.6464
▁selekčn	-11.6466
▁předešl	-11.6469
▁vzrost	-11.6471
▁koordinac	-11.6471
▁hluk	-11.6475
▁Polák	-11.649
rozuměl	-11.6503
pracovala	-11.6504
▁vozov	-11.6515
▁Hub	-11.6516
bílých	-11.6545
▁demokrat	-11.6577
▁zlikvidov	-11.6682
▁konstatova	-11.6682
vládní	-11.6732
1992	-11.6735
růstá	-11.6768
▁neobyčejn	-11.6796
▁Švéd	-11.6806
sunut	-11.6825
▁William	-11.6835
▁nepřinesl	-11.6835
▁Obchod	-11.6891
▁přírodovědeck	-11.6952
▁etnick	-11.6964
▁poruše	-11.6975
▁naplněn	-11.6982
▁závislost	-11.7015
▁Začátk	-11.7018
▁Míst	-11.702
▁zaplacen	-11.7045
▁Způsob	-11.7064
▁dvacát	-11.7071
▁penzi	-11.7079
chybějí	-11.7098
▁KSČ	-11.7101
ntelektuál	-11.7104
JPEG	-11.7104
sloučenin	-11.7104
▁Austrálie	-11.7104
▁Domnívám	-11.7104
▁FBIS	-11.7104
▁Hamburk	-11.7104
▁Informace	-11.7104
▁Mitterrand	-11.7104
▁Oldřich	-11.7104
▁Pivovar	-11.7104
▁Saúdsk	-11.7104
▁Vešker	-11.7104
▁Vídeň	-11.7104
▁WWW	-11.7104
▁bankovnictví	-11.7104
▁deklaraci	-11.7104
▁důležitější	-11.7104
▁elementární	-11.7104
▁federaci	-11.7104
▁firmách	-11.7104
▁fungování	-11.7104
▁hardwarov	-11.7104
▁infarkt	-11.7104
▁jednodušší	-11.7104
▁komentátor	-11.7104
▁konfigurace	-11.7104
▁konkurovat	-11.7104
▁kosmonaut	-11.7104
▁literatuře	-11.7104
▁marketingu	-11.7104
▁mediální	-11.7104
▁nacionalism	-11.7104
▁nominaci	-11.7104
▁novotvary	-11.7104
▁nukleární	-11.7104
▁odpovědět	-11.7104
▁pneumatik	-11.7104
▁pojišťovnou	-11.7104
▁poptávku	-11.7104
▁problematice	-11.7104
▁pseudo	-11.7104
▁předpovědi	-11.7104
▁předvánoční	-11.7104
▁přerozdělování	-11.7104
▁racionální	-11.7104
▁referát	-11.7104
▁rekreaci	-11.7104
▁rozsáhlejší	-11.7104
▁rubrice	-11.7104
▁symplektick	-11.7104
▁taxonomie	-11.7104
▁trénovat	-11.7104
▁vypráví	-11.7104
▁vyžadovat	-11.7104
▁východoevropský	-11.7104
▁zapomenout	-11.7104
▁zavražděn	-11.7104
▁zodpovězen	-11.7104
▁zákulisí	-11.7104
▁úložiště	-11.7104
▁Četrans	-11.7104
▁1983	-11.7104
▁Ludvík	-11.7104
▁definice	-11.7104
▁krasobruslař	-11.7104
▁makléř	-11.7104
▁médií	-11.7104
▁nenávist	-11.7104
▁prozradil	-11.7104
▁rozvíjejí	-11.7104
▁rozvíjet	-11.7104
▁rozčleněn	-11.7104
▁seskupení	-11.7104
▁tolerance	-11.7104
▁vláken	-11.7104
▁zaručit	-11.7104
▁červnov	-11.7104
▁1976	-11.7104
▁Harvard	-11.7104
▁Maďarskem	-11.7104
▁Pistol	-11.7104
▁domorodc	-11.7104
▁interiér	-11.7104
▁kvót	-11.7104
▁palubě	-11.7104
▁přihlášen	-11.7104
▁stěžovat	-11.7104
▁tiskáren	-11.7104
▁Návrat	-11.7104
▁osaměl	-11.7104
▁procedur	-11.7104
▁špatnou	-11.7104
▁funkčnost	-11.7104
▁plošný	-11.7104
▁populaci	-11.7104
▁povolební	-11.7104
▁rozsudk	-11.7104
▁tendence	-11.7104
▁cementárn	-11.7104
▁kampaně	-11.7104
▁infikova	-11.7104
▁otazník	-11.7104
▁zjišťova	-11.7104
▁analytick	-11.7104
▁milimetr	-11.7104
▁archiv	-11.7104
▁pozměň	-11.7104
▁Právo	-11.7104
▁neškodn	-11.7104
▁odvezl	-11.7104
▁placentál	-11.7104
▁Veřejn	-11.7104
▁vzbudil	-11.7104
▁účinků	-11.7104
▁Kladně	-11.7104
▁mikrofon	-11.7104
▁uvítal	-11.7104
▁fází	-11.7104
▁praktik	-11.7104
▁reagují	-11.7104
▁Francií	-11.7104
▁vyslovit	-11.7104
znamenají	-11.7104
▁stráví	-11.7104
▁nabídek	-11.7104
▁domníval	-11.7104
▁finalist	-11.7104
▁Ctrl	-11.7105
▁hospodaří	-11.7105
▁komunit	-11.7105
▁Michel	-11.7105
▁vrstva	-11.7105
přízeň	-11.7105
▁ujistil	-11.7105
▁amatér	-11.7105
▁účinné	-11.7105
▁Irák	-11.7105
▁biochemi	-11.7105
▁podobnou	-11.7105
▁Kurzy	-11.7105
▁zastupuje	-11.7105
▁povstal	-11.7105
▁vybojoval	-11.7105
▁značku	-11.7105
▁chaotick	-11.7105
▁ustavující	-11.7105
▁popředí	-11.7105
▁dřevěné	-11.7105
▁Marián	-11.7105
▁zánět	-11.7105
▁přehnan	-11.7105
▁pól	-11.7105
▁aridní	-11.7105
▁ovládací	-11.7106
▁Prokop	-11.7106
▁desek	-11.7106
▁tragick	-11.7106
▁plastik	-11.7106
▁směřující	-11.7106
▁nazvané	-11.7106
▁vystavuje	-11.7106
▁narkom	-11.7106
▁přípustn	-11.7106
▁fixac	-11.7106
zkoumat	-11.7106
▁trasy	-11.7107
▁brazilsk	-11.7107
▁rozdělí	-11.7107
▁střídají	-11.7107
▁učiní	-11.7107
▁uplatňován	-11.7107
▁oboustrann	-11.7107
▁Moravia	-11.7107
▁jednostrann	-11.7108
▁Uhersk	-11.7109
▁architektonick	-11.7109
▁Cítí	-11.7109
▁holub	-11.711
▁rockov	-11.711
▁zabránil	-11.711
▁zničil	-11.7112
obyčejně	-11.7112
▁Značn	-11.7112
▁nepřesnost	-11.7112
▁obstará	-11.7114
dražit	-11.7114
▁toxické	-11.7114
▁zajišťující	-11.7117
▁vyprávěl	-11.7119
yplynulo	-11.7119
▁šipk	-11.7119
▁příznačn	-11.7122
▁Aktiv	-11.7125
▁Hleda	-11.7134
věřuje	-11.7136
▁uheln	-11.7143
evropský	-11.7149
▁bál	-11.7152
▁zelený	-11.7192
magnetické	-11.7195
symetri	-11.7197
▁poškozený	-11.7198
▁maso	-11.7217
plácení	-11.722
▁předsedkyn	-11.7242
▁Fakt	-11.7244
▁zoologick	-11.7263
▁protějš	-11.7275
svědčuje	-11.7308
▁pedagogick	-11.731
▁filmař	-11.7311
▁modifik	-11.7387
kontroluje	-11.7465
▁definovan	-11.7478
ometrick	-11.751
▁citeln	-11.752
1991	-11.7567
▁vrácen	-11.7597
▁osazen	-11.7603
▁ovlivnil	-11.7615
▁strašn	-11.7624
▁splněn	-11.7632
přineslo	-11.7662
ůbec	-11.7708
▁překonal	-11.7715
panuje	-11.7722
▁spravedlnost	-11.7729
gramů	-11.7764
▁bilanc	-11.7774
▁technic	-11.7776
▁doporučen	-11.7777
▁kilogram	-11.7785
▁velvyslanec	-11.7819
▁Delphi	-11.7819
▁Muslim	-11.7819
▁SPIRIT	-11.7819
▁bulharsk	-11.7819
▁holding	-11.7819
▁inzulín	-11.7819
▁katalyzátor	-11.7819
▁ofsajd	-11.7819
▁paměť	-11.7819
▁pojišťovně	-11.7819
▁prospěšn	-11.7819
▁raketoplán	-11.7819
▁vrtulník	-11.7819
▁zázračn	-11.7819
▁Černomyrdin	-11.7819
LSNS	-11.7819
ýpovědní	-11.7819
▁Akademie	-11.7819
▁Albertville	-11.7819
▁Bohuslav	-11.7819
▁Bratislavy	-11.7819
▁Digital	-11.7819
▁General	-11.7819
▁Hospodářsk	-11.7819
▁Kuvajt	-11.7819
▁Netanjahu	-11.7819
▁Princip	-11.7819
▁Pálffy	-11.7819
▁TWA	-11.7819
▁Vynikající	-11.7819
▁brožur	-11.7819
▁ceremoniál	-11.7819
▁databáze	-11.7819
▁databázi	-11.7819
▁delegát	-11.7819
▁diktátor	-11.7819
▁drůbež	-11.7819
▁dveřmi	-11.7819
▁finálové	-11.7819
▁havárii	-11.7819
▁kanalizací	-11.7819
▁komedie	-11.7819
▁kompetencí	-11.7819
▁lidstvo	-11.7819
▁milisekund	-11.7819
▁nechybí	-11.7819
▁nosorožců	-11.7819
▁novorozen	-11.7819
▁odpolední	-11.7819
▁olomoucké	-11.7819
▁organismy	-11.7819
▁paradigma	-11.7819
▁podezřelý	-11.7819
▁pojišťoven	-11.7819
▁portfeje	-11.7819
▁pořizovací	-11.7819
▁poštovní	-11.7819
▁přibližuj	-11.7819
▁přísluší	-11.7819
▁severozápad	-11.7819
▁splátek	-11.7819
▁telekomunikací	-11.7819
▁těhotenství	-11.7819
▁vlhkost	-11.7819
▁vyzkoušel	-11.7819
▁vyčerpán	-11.7819
▁vídeňské	-11.7819
▁zahájit	-11.7819
▁zajišťoval	-11.7819
▁zakázek	-11.7819
▁zaručuje	-11.7819
▁zdůraznit	-11.7819
▁zneužívání	-11.7819
▁zpracovává	-11.7819
▁záruční	-11.7819
▁Život	-11.7819
▁železnice	-11.7819
▁1979	-11.7819
▁Reichel	-11.7819
▁bezmocn	-11.7819
▁buněčné	-11.7819
▁kazašsk	-11.7819
▁komisař	-11.7819
▁konstantní	-11.7819
▁kultuře	-11.7819
▁pohodlné	-11.7819
▁pátku	-11.7819
▁radikálně	-11.7819
▁sféře	-11.7819
▁stěžuje	-11.7819
▁thajské	-11.7819
▁zopakoval	-11.7819
▁Teplice	-11.7819
▁dědeček	-11.7819
▁emitent	-11.7819
▁omezit	-11.7819
▁stadiu	-11.7819
▁KGB	-11.7819
▁Němce	-11.7819
▁injekc	-11.7819
▁lehký	-11.7819
▁prodluž	-11.7819
▁tekutin	-11.7819
▁Československý	-11.7819
▁FMV	-11.7819
▁málokdo	-11.7819
▁nesrovnateln	-11.7819
▁překonání	-11.7819
▁účinnou	-11.7819
▁SGI	-11.7819
▁Zpráv	-11.7819
▁PET	-11.7819
▁Dokument	-11.7819
▁Student	-11.7819
▁Západoevropsk	-11.7819
▁obyvatelstvo	-11.7819
▁poválečn	-11.7819
▁lahví	-11.7819
▁trénuj	-11.7819
▁kolegové	-11.7819
▁komodit	-11.7819
▁nejblíže	-11.7819
▁informuje	-11.7819
▁Zajímal	-11.7819
▁rozsáhlou	-11.7819
▁James	-11.7819
▁smířit	-11.7819
▁odstavec	-11.7819
▁svrchované	-11.7819
▁udržován	-11.7819
▁vyústi	-11.7819
▁chystají	-11.7819
▁dávek	-11.7819
▁polymer	-11.7819
▁sloučení	-11.7819
▁Prahou	-11.7819
▁netrpěliv	-11.7819
▁přeplněn	-11.7819
▁někomu	-11.7819
▁podepsat	-11.7819
▁nikomu	-11.7819
▁umírněn	-11.7819
▁meziroční	-11.7819
▁Holandsk	-11.7819
▁srbské	-11.7819
▁železné	-11.7819
▁loupež	-11.7819
▁vzdělan	-11.7819
▁nepodaří	-11.7819
▁Automatick	-11.7819
▁mutací	-11.7819
▁odhalit	-11.7819
▁poznámky	-11.7819
▁Kadlec	-11.7819
▁nedaleké	-11.7819
▁Mlýn	-11.7819
▁Louis	-11.7819
▁podporoval	-11.7819
▁tvořiv	-11.7819
▁chleba	-11.7819
▁oběhové	-11.7819
▁něčeho	-11.7819
▁Fuchs	-11.7819
▁přetížen	-11.7819
▁modré	-11.782
běhnout	-11.782
▁prováděl	-11.782
▁úchyt	-11.782
▁šancí	-11.782
▁mocenské	-11.782
▁sochař	-11.782
▁vybudoval	-11.782
▁dovážen	-11.782
opouštěl	-11.782
▁odvážn	-11.782
▁Front	-11.782
▁Opava	-11.782
▁Bartoš	-11.7821
▁implantát	-11.7821
▁vyhořelé	-11.7821
▁Týden	-11.7821
▁kamenné	-11.7822
▁příloh	-11.7822
hánějí	-11.7822
▁vyplatil	-11.7822
▁hlučn	-11.7822
▁Samotn	-11.7822
▁lehko	-11.7823
▁metan	-11.7823
▁usedl	-11.7824
▁lákav	-11.7824
▁Zvýšen	-11.7824
▁neuron	-11.7825
▁jízdenk	-11.7825
▁princ	-11.7825
▁nereáln	-11.7825
▁zranil	-11.7827
▁Klasick	-11.7827
▁neznají	-11.7828
smluvně	-11.7829
▁rovný	-11.783
▁ležel	-11.783
▁oblouk	-11.7831
▁Místopředsed	-11.7831
▁Hledá	-11.7831
▁únosn	-11.7833
▁odnětí	-11.7834
▁republikánsk	-11.7835
▁vázan	-11.7837
vracení	-11.7837
značení	-11.7838
▁odnesl	-11.7841
▁koncepčn	-11.7841
▁nechut	-11.7843
▁Kováč	-11.7844
▁Esc	-11.7847
▁nádrž	-11.7848
▁vracel	-11.786
▁zelené	-11.7863
▁koncov	-11.7867
▁protín	-11.7889
▁neplatn	-11.7907
tvrze	-11.7921
▁basketbalist	-11.7924
tažené	-11.795
formulovat	-11.7958
▁zmiňuj	-11.7975
konkurenceschopn	-11.7989
▁důvěryhodn	-11.7989
Komensk	-11.8033
extrémně	-11.8042
bitový	-11.8075
▁drsn	-11.8086
▁vyrůst	-11.8086
zemědělská	-11.8097
▁vyplněn	-11.8143
▁regulac	-11.817
působí	-11.82
▁nulov	-11.8216
▁individu	-11.8229
kreslí	-11.8236
muslimské	-11.8264
▁animac	-11.8287
▁Nebude	-11.8317
▁vůdc	-11.8326
▁požadovan	-11.8378
hlídce	-11.8421
▁meteorolog	-11.8436
▁mušk	-11.8468
▁každodenn	-11.8494
▁výdaj	-11.8496
▁souvisl	-11.8526
▁soustředěn	-11.853
▁Vietnam	-11.853
▁vytvářen	-11.8539
▁kytar	-11.8542
poskytla	-11.8582
cionálně	-11.8588
▁začátečn	-11.8588
deutsche	-11.8588
navrhovatel	-11.8588
soustřeďuje	-11.8588
▁Australan	-11.8588
▁Chvalovský	-11.8588
▁Dlouhý	-11.8588
▁Frýdku	-11.8588
▁Giovanni	-11.8588
▁Gretzky	-11.8588
▁Hendrix	-11.8588
▁Hercegovin	-11.8588
▁Holbrooke	-11.8588
▁Kravčuk	-11.8588
▁Margaret	-11.8588
▁Marseille	-11.8588
▁MicroStation	-11.8588
▁Navrátil	-11.8588
▁OpenScript	-11.8588
▁Oxfordu	-11.8588
▁Padesát	-11.8588
▁Pospíšil	-11.8588
▁Rangers	-11.8588
▁Sládka	-11.8588
▁Solidarit	-11.8588
▁Stockholm	-11.8588
▁Varšav	-11.8588
▁Zeitung	-11.8588
▁antropogenní	-11.8588
▁bezšňůrov	-11.8588
▁biosfér	-11.8588
▁biotechnologi	-11.8588
▁cyklů	-11.8588
▁delegací	-11.8588
▁deregulac	-11.8588
▁diktatur	-11.8588
▁diskrimin	-11.8588
▁dominantní	-11.8588
▁doporučit	-11.8588
▁elektrárna	-11.8588
▁epizod	-11.8588
▁fanoušci	-11.8588
▁fyziologick	-11.8588
▁havárie	-11.8588
▁horizontu	-11.8588
▁hypoték	-11.8588
▁hřbet	-11.8588
▁instalační	-11.8588
▁investoři	-11.8588
▁izolační	-11.8588
▁jihovýchodní	-11.8588
▁kariéry	-11.8588
▁karlovarsk	-11.8588
▁knihkupectví	-11.8588
▁konvertibilit	-11.8588
▁libovolné	-11.8588
▁lukrativní	-11.8588
▁manažeři	-11.8588
▁navštívit	-11.8588
▁nejčastější	-11.8588
▁návaznost	-11.8588
▁odcházel	-11.8588
▁organizován	-11.8588
▁osamostatn	-11.8588
▁perfektní	-11.8588
▁podmínku	-11.8588
▁podrážděn	-11.8588
▁poliklinik	-11.8588
▁portrét	-11.8588
▁poselství	-11.8588
▁prezentován	-11.8588
▁prvoligov	-11.8588
▁přicházel	-11.8588
▁připomínal	-11.8588
▁příchozí	-11.8588
▁půvab	-11.8588
▁reprezentovat	-11.8588
▁revoluci	-11.8588
▁rovnoběž	-11.8588
▁rovnoměrn	-11.8588
▁roztříštěn	-11.8588
▁službách	-11.8588
▁stránkách	-11.8588
▁tiskárnu	-11.8588
▁trolejbus	-11.8588
▁turistiky	-11.8588
▁třicátých	-11.8588
▁utrpení	-11.8588
▁ušlechtil	-11.8588
▁veterinární	-11.8588
▁výcvik	-11.8588
▁zákonodárn	-11.8588
▁západoevropský	-11.8588
▁závislý	-11.8588
▁Štěpán	-11.8588
korespond	-11.8588
restrukturalizac	-11.8588
ŠTÍ	-11.8588
▁Bedřich	-11.8588
▁Bukureš	-11.8588
▁Hovořil	-11.8588
▁Očekává	-11.8588
▁Parlament	-11.8588
▁Plzně	-11.8588
▁Překvap	-11.8588
▁Silvestr	-11.8588
▁Sportovní	-11.8588
▁Stráž	-11.8588
▁analytik	-11.8588
▁disident	-11.8588
▁handicap	-11.8588
▁křesla	-11.8588
▁medvěd	-11.8588
▁média	-11.8588
▁povzbuz	-11.8588
▁schvalování	-11.8588
▁substantiv	-11.8588
▁tělovýchov	-11.8588
▁upravuje	-11.8588
▁uspokojit	-11.8588
▁zlepšování	-11.8588
▁zvážit	-11.8588
▁zásuvk	-11.8588
vyskytuje	-11.8588
▁Klient	-11.8588
▁Kralup	-11.8588
▁Památk	-11.8588
▁definován	-11.8588
▁domnívat	-11.8588
▁posuzoval	-11.8588
▁středisek	-11.8588
▁výchozí	-11.8588
▁všelijak	-11.8588
▁zapomenut	-11.8588
▁čtvrtletně	-11.8588
▁konektor	-11.8588
▁odhodlán	-11.8588
pište	-11.8588
▁Kultur	-11.8588
▁Záhřebu	-11.8588
▁evidentn	-11.8588
▁iniciátor	-11.8588
▁legální	-11.8588
▁nepůjde	-11.8588
▁nevyhnul	-11.8588
▁Kontakt	-11.8588
▁dodávku	-11.8588
▁převezme	-11.8588
▁útlum	-11.8588
▁fázové	-11.8588
▁náznak	-11.8588
▁studijní	-11.8588
▁tabák	-11.8588
▁hájit	-11.8588
▁vizuální	-11.8588
▁intelektuální	-11.8588
▁ministerský	-11.8588
▁politici	-11.8588
▁srovnávat	-11.8588
▁neskončil	-11.8588
▁pařížsk	-11.8588
▁lístku	-11.8588
▁sazba	-11.8588
▁vhodnější	-11.8588
▁chápou	-11.8588
▁sváteční	-11.8588
▁nervozit	-11.8588
▁delikt	-11.8588
▁shodli	-11.8588
▁vůdčí	-11.8588
▁nebytový	-11.8588
▁romantick	-11.8588
▁barokní	-11.8588
▁afrických	-11.8588
▁hesla	-11.8588
▁vyrobit	-11.8588
▁monarchi	-11.8588
▁recese	-11.8588
▁licenci	-11.8588
▁židovské	-11.8588
▁názvy	-11.8588
▁položek	-11.8588
▁úklid	-11.8588
▁rovnou	-11.8588
▁Vytvořen	-11.8588
▁přijede	-11.8588
▁fašismu	-11.8588
▁netuší	-11.8588
▁stránka	-11.8588
▁vybuchl	-11.8588
▁látku	-11.8588
▁dovezen	-11.8588
▁prověrk	-11.8588
▁vypovězen	-11.8588
▁vyřeší	-11.8588
▁dráze	-11.8588
▁Pechar	-11.8588
▁krizí	-11.8588
▁trošk	-11.8588
▁Snímek	-11.8588
▁zátěž	-11.8588
▁Žije	-11.8588
▁hloup	-11.8588
▁zachycuj	-11.8589
▁Soros	-11.8589
▁motýl	-11.8589
▁mrzí	-11.8589
▁poezie	-11.8589
▁klasik	-11.8589
▁pohodlně	-11.8589
▁Francis	-11.8589
▁Pravidl	-11.8589
▁obklop	-11.8589
▁Albert	-11.859
▁Příprav	-11.859
▁obrátí	-11.859
▁Kraus	-11.859
▁čtyřnásobn	-11.859
▁podporovan	-11.859
▁laskav	-11.859
▁odcizi	-11.859
▁útul	-11.859
▁šperk	-11.8591
▁postranní	-11.8591
▁krabic	-11.8591
▁úročen	-11.8591
▁Údaj	-11.8591
▁dědičn	-11.8591
▁pasáž	-11.8592
▁Zlatý	-11.8593
▁nedokonč	-11.8593
▁nepočítal	-11.8594
▁určován	-11.8594
▁podceňova	-11.8596
▁aukcí	-11.8597
tlačil	-11.8598
▁Atén	-11.8598
▁odolnost	-11.8598
obtížnější	-11.8599
▁útěk	-11.8599
▁udělil	-11.8599
▁Lenn	-11.86
▁Hrál	-11.86
▁pozemkov	-11.8602
▁smyslupln	-11.8602
▁Trnav	-11.8603
▁vypsán	-11.8604
dokonalejší	-11.8605
▁hymn	-11.8607
▁principiáln	-11.8612
▁sólo	-11.8614
▁obměn	-11.8614
▁Botan	-11.8622
▁slovinsk	-11.8626
dvacátého	-11.8627
▁vápn	-11.8628
podstatnější	-11.8629
Místku	-11.8632
interpretaci	-11.8633
▁kytic	-11.8646
▁Čísl	-11.865
pravdivost	-11.866
▁nerozhodn	-11.8664
milionový	-11.8666
socialistický	-11.8668
▁odebíra	-11.8679
▁potravinářský	-11.8685
opádn	-11.8689
divné	-11.8724
▁neposkyt	-11.8732
světlení	-11.8756
▁garáž	-11.8771
mnohých	-11.8786
▁vypracován	-11.8788
růstající	-11.8831
▁tenistk	-11.8831
nekonečně	-11.8983
▁zpracoval	-11.902
▁vycház	-11.9035
▁nedoved	-11.9067
▁modifikac	-11.9076
▁kolečk	-11.9097
podnik	-11.911
▁stabilizovan	-11.9143
drobnější	-11.9165
nezávislý	-11.9235
sledují	-11.9253
švédsk	-11.9268
▁vyplývají	-11.9275
▁Georg	-11.9275
▁slavnostn	-11.9323
yžaduje	-11.9326
▁společenstv	-11.9366
▁uplatněn	-11.9368
▁prodloužen	-11.9371
▁Hlavn	-11.9379
▁odstraněn	-11.938
▁public	-11.9386
oblečen	-11.9412
endotoxin	-11.9421
▁Bruntál	-11.9421
▁Institut	-11.9421
▁Komárk	-11.9421
▁Leopold	-11.9421
▁Nazarbajev	-11.9421
▁Suchopár	-11.9421
▁Wernisch	-11.9421
▁nezměněn	-11.9421
▁olympionik	-11.9421
▁posluchačů	-11.9421
▁preparát	-11.9421
▁štafet	-11.9421
emigrant	-11.9421
inflační	-11.9421
ymfocyty	-11.9421
▁Agassi	-11.9421
▁EVROP	-11.9421
▁Grimaux	-11.9421
▁Hamilton	-11.9421
▁Kratochvíl	-11.9421
▁MPEG	-11.9421
▁Nejdůležitější	-11.9421
▁Palestinců	-11.9421
▁Plečnik	-11.9421
▁Podmínkou	-11.9421
▁Později	-11.9421
▁Přibliž	-11.9421
▁Příslušn	-11.9421
▁Umožňuje	-11.9421
▁Uživatel	-11.9421
▁VLÁD	-11.9421
▁Vladislav	-11.9421
▁Vltavy	-11.9421
▁absolutně	-11.9421
▁celoživotní	-11.9421
▁civilizace	-11.9421
▁demokracií	-11.9421
▁financovat	-11.9421
▁fungovat	-11.9421
▁hierarchi	-11.9421
▁indián	-11.9421
▁inscenace	-11.9421
▁interview	-11.9421
▁jihozápad	-11.9421
▁kambodžsk	-11.9421
▁kolísání	-11.9421
▁komplikuje	-11.9421
▁konfrontace	-11.9421
▁kontinuit	-11.9421
▁lékárny	-11.9421
▁matematice	-11.9421
▁mikroskopick	-11.9421
▁navštěvuj	-11.9421
▁nejjednodušší	-11.9421
▁neobejde	-11.9421
▁nepřístup	-11.9421
▁netradiční	-11.9421
▁nevrátí	-11.9421
▁novoroční	-11.9421
▁následovn	-11.9421
▁onemocněl	-11.9421
▁opodstatněn	-11.9421
▁otázkám	-11.9421
▁ovlivňován	-11.9421
▁peněženk	-11.9421
▁pochlubit	-11.9421
▁pokaždé	-11.9421
▁prezentovat	-11.9421
▁problematické	-11.9421
▁předpokládané	-11.9421
▁příslušenství	-11.9421
▁relikvi	-11.9421
▁restituce	-11.9421
▁revoluční	-11.9421
▁schůzce	-11.9421
▁splátky	-11.9421
▁spolehnout	-11.9421
▁spolumajitel	-11.9421
▁státoprávní	-11.9421
▁středoškolsk	-11.9421
▁stříbra	-11.9421
▁televizí	-11.9421
▁trinitron	-11.9421
▁usilovně	-11.9421
▁uskupení	-11.9421
▁velvyslance	-11.9421
▁videozáznam	-11.9421
▁virtuální	-11.9421
▁vytvářel	-11.9421
▁zdůrazňují	-11.9421
▁zveřejnit	-11.9421
▁Úspěch	-11.9421
▁Ústřední	-11.9421
▁živočišn	-11.9421
▁3:0	-11.9421
▁Amerika	-11.9421
▁Galerie	-11.9421
▁Kredba	-11.9421
▁besedy	-11.9421
▁bosenskosrbsk	-11.9421
▁celoročn	-11.9421
▁doporučí	-11.9421
▁fanoušky	-11.9421
▁heslem	-11.9421
▁hnojiv	-11.9421
▁impuls	-11.9421
▁kopírování	-11.9421
▁můstku	-11.9421
▁navždy	-11.9421
▁nepřál	-11.9421
▁nesplnil	-11.9421
▁paprsky	-11.9421
▁podvojné	-11.9421
▁poskytoval	-11.9421
▁posloužit	-11.9421
▁prosazoval	-11.9421
▁přetrvávají	-11.9421
▁připouští	-11.9421
▁reaguje	-11.9421
▁rezoluc	-11.9421
▁rámečky	-11.9421
▁užitečný	-11.9421
▁vytápěn	-11.9421
▁United	-11.9421
▁kritizuj	-11.9421
▁ledovců	-11.9421
▁omezuje	-11.9421
▁pěveck	-11.9421
▁Kovařík	-11.9421
▁majoritní	-11.9421
▁monument	-11.9421
▁pasivní	-11.9421
▁různorod	-11.9421
▁svrchovaný	-11.9421
▁Ženevě	-11.9421
▁kampani	-11.9421
▁policií	-11.9421
▁senzor	-11.9421
▁příslib	-11.9421
▁tělocvičn	-11.9421
▁zeptat	-11.9421
▁špatná	-11.9421
trénoval	-11.9421
▁Opavy	-11.9421
▁předchůdce	-11.9421
▁vězeň	-11.9421
▁Kambodž	-11.9421
▁nenápadn	-11.9421
▁nerentabiln	-11.9421
▁půjdou	-11.9421
▁směnitelnost	-11.9421
▁Čtenář	-11.9421
OECD	-11.9421
buněčný	-11.9421
▁Vyšší	-11.9421
▁dceřin	-11.9421
▁dálniční	-11.9421
▁licenční	-11.9421
▁rozvíjen	-11.9421
▁uprchlíků	-11.9421
▁nářadí	-11.9421
▁paušál	-11.9421
▁zatykač	-11.9421
▁Lepší	-11.9421
▁dívky	-11.9421
▁potřetí	-11.9421
stěhovat	-11.9421
▁Galás	-11.9421
▁nalézá	-11.9421
▁sazeb	-11.9421
▁stěžoval	-11.9421
▁vyjmut	-11.9421
▁potravu	-11.9421
▁shodně	-11.9421
▁Chariton	-11.9421
ejdražší	-11.9421
▁nečekané	-11.9421
▁renomovan	-11.9421
hlížejí	-11.9421
vyplácí	-11.9421
▁VZP	-11.9421
▁Zahrad	-11.9421
▁nevyloučil	-11.9421
▁striktn	-11.9421
▁detektiv	-11.9421
▁rozhořč	-11.9421
▁středeční	-11.9421
▁uniform	-11.9421
▁sérií	-11.9421
▁žalud	-11.9421
▁mozek	-11.9421
▁ukončí	-11.9421
čerpat	-11.9421
▁vyvolané	-11.9422
▁ohranič	-11.9422
Science	-11.9422
▁omezil	-11.9422
▁facto	-11.9422
▁rozloučil	-11.9422
▁lichenolog	-11.9422
▁hájil	-11.9422
▁zajímají	-11.9422
CHOD	-11.9422
ejtěžší	-11.9422
▁přiblížil	-11.9422
▁neúměrn	-11.9422
konvenční	-11.9422
▁osminásobn	-11.9422
▁1:1	-11.9422
▁Basikov	-11.9422
▁bojkot	-11.9422
▁Oblast	-11.9422
▁projekc	-11.9423
▁papež	-11.9423
▁Tabul	-11.9423
▁objednal	-11.9423
▁neočekáv	-11.9423
Soft	-11.9423
▁ustálen	-11.9424
▁krvav	-11.9424
▁rentabilit	-11.9424
krývat	-11.9424
▁úpadk	-11.9424
▁Instala	-11.9425
▁kouzeln	-11.9425
▁nabídká	-11.9425
▁Považuj	-11.9425
▁Rabac	-11.9425
▁náhlý	-11.9426
▁Trestn	-11.9428
▁lokaliz	-11.9428
PRAV	-11.9428
▁potěšen	-11.943
▁hlavičk	-11.9431
▁pečuj	-11.9432
▁Daňov	-11.9435
▁tajemn	-11.9438
▁Černovic	-11.9438
▁mravenc	-11.9438
▁zpřístupněn	-11.9442
▁syrov	-11.9444
▁bibli	-11.9444
ejlépe	-11.9448
▁vyslán	-11.9453
pravděpodobnější	-11.9455
▁publicist	-11.9456
▁Obsahuj	-11.9457
▁podepíš	-11.9463
Liaz	-11.9464
▁Lidsk	-11.9464
▁vyučova	-11.947
▁opětovn	-11.9471
▁iniciova	-11.9487
▁skřín	-11.9495
▁politolog	-11.9521
profit	-11.9532
▁obzvláš	-11.9557
▁nakupova	-11.9578
znamuje	-11.9639
nejdůležitějších	-11.964
▁Stavebn	-11.9661
hrozně	-11.9714
▁nenechá	-11.9719
otemismus	-11.9817
milionové	-11.9818
pravděpodobnosti	-11.9977
▁vyplacen	-12.0231
▁uspořádán	-12.0254
kategori	-12.0271
▁zaměstnán	-12.0288
▁Minist	-12.0288
▁zdravotnick	-12.0303
▁pečliv	-12.0315
realistick	-12.0322
uživatelské	-12.0323
▁nepřiměřen	-12.0323
▁zahraničně	-12.033
▁záhrobní	-12.033
Gabriel	-12.033
Vancouver	-12.033
mýšlejí	-12.033
▁Astronom	-12.033
▁Austrálii	-12.033
▁Basketbal	-12.033
▁Beethoven	-12.033
▁Einstein	-12.033
▁Inspekt	-12.033
▁Mandlíkov	-12.033
▁baseball	-12.033
▁expedic	-12.033
▁falešné	-12.033
▁hypertext	-12.033
▁jihoafrické	-12.033
▁komprim	-12.033
▁kormidelník	-12.033
▁lhostejn	-12.033
▁nacionalist	-12.033
▁neoprávněné	-12.033
▁netrouf	-12.033
▁orientované	-12.033
▁pardubick	-12.033
▁prozkoumán	-12.033
▁reciproční	-12.033
▁středoškolá	-12.033
▁upozorňova	-12.033
▁vyhrožoval	-12.033
▁zdvojnásob	-12.033
Netscape	-12.033
avrančíková	-12.033
emětřesení	-12.033
onfederace	-12.033
organizoval	-12.033
▁ATAPI	-12.033
▁Allianz	-12.033
▁Angeles	-12.033
▁BUDE	-12.033
▁Bangkoku	-12.033
▁Corser	-12.033
▁EGAP	-12.033
▁Helmut	-12.033
▁Hájek	-12.033
▁Johannes	-12.033
▁Jozef	-12.033
▁Kancelář	-12.033
▁Lebedě	-12.033
▁Lisabon	-12.033
▁Litomyšl	-12.033
▁Mexiku	-12.033
▁Miloševič	-12.033
▁Nejstarší	-12.033
▁Pochopitelně	-12.033
▁Privatizace	-12.033
▁Shift	-12.033
▁Skuhravý	-12.033
▁Sládek	-12.033
▁Stratton	-12.033
▁Vogts	-12.033
▁Vyšetřovatel	-12.033
▁Werich	-12.033
▁Zdůraznil	-12.033
▁Zjednoduš	-12.033
▁abstraktní	-12.033
▁agresivit	-12.033
▁angličtině	-12.033
▁baktérie	-12.033
▁bouřliv	-12.033
▁cílevědom	-12.033
▁diagnostick	-12.033
▁dodávkách	-12.033
▁efektivnější	-12.033
▁epimerace	-12.033
▁eukleidovsk	-12.033
▁evidence	-12.033
▁frekvence	-12.033
▁frekvenci	-12.033
▁geometrické	-12.033
▁humanitní	-12.033
▁hypoteční	-12.033
▁instrument	-12.033
▁izolace	-12.033
▁izolaci	-12.033
▁jazyce	-12.033
▁kompatibilní	-12.033
▁konfekční	-12.033
▁konkurencí	-12.033
▁koupaliště	-12.033
▁lokomotiv	-12.033
▁makroskopick	-12.033
▁mechanismem	-12.033
▁medicíny	-12.033
▁mezimolekulární	-12.033
▁mučedník	-12.033
▁nehrozí	-12.033
▁neobjevil	-12.033
▁neoprávněně	-12.033
▁neuvěřitelné	-12.033
▁občerstvení	-12.033
▁olomoucký	-12.033
▁osmifinále	-12.033
▁paprsků	-12.033
▁perfektně	-12.033
▁pomalejší	-12.033
▁porcelán	-12.033
▁potrubí	-12.033
▁povědomí	-12.033
▁pracovištích	-12.033
▁prohlížeč	-12.033
▁prokazateln	-12.033
▁prosperity	-12.033
▁prémie	-12.033
▁předměstí	-12.033
▁překážek	-12.033
▁přemýšlet	-12.033
▁přihlásit	-12.033
▁přijímací	-12.033
▁přispívá	-12.033
▁půldruh	-12.033
▁režijní	-12.033
▁smlouvou	-12.033
▁soustředit	-12.033
▁stoupající	-12.033
▁střízliv	-12.033
▁suverénní	-12.033
▁terminál	-12.033
▁tragédie	-12.033
▁výkyvů	-12.033
▁výpovědí	-12.033
▁zakořeněn	-12.033
▁zlepšuje	-12.033
▁Ázerbájdžán	-12.033
▁úspěšná	-12.033
▁ČVUT	-12.033
▁Šapošnikov	-12.033
▁Šumperk	-12.033
▁Curych	-12.033
▁Frederi	-12.033
▁Impac	-12.033
▁Lewis	-12.033
▁Máčala	-12.033
▁Opatření	-12.033
▁Průmyslov	-12.033
▁Připravuje	-12.033
▁Studie	-12.033
▁Zjistil	-12.033
▁besedě	-12.033
▁hazard	-12.033
▁kruzích	-12.033
▁nedostatečné	-12.033
▁nepovažuje	-12.033
▁nádhern	-12.033
▁odkázán	-12.033
▁přistěhovalců	-12.033
▁trenéři	-12.033
1393	-12.033
▁1939	-12.033
▁1969	-12.033
▁Centrum	-12.033
▁Předpoklad	-12.033
▁Typickým	-12.033
▁ambici	-12.033
▁defekt	-12.033
▁zvyšoval	-12.033
pokročilejší	-12.033
stěhuje	-12.033
▁1946	-12.033
▁geometrický	-12.033
▁kosmetick	-12.033
▁lustrací	-12.033
▁lístků	-12.033
▁narychlo	-12.033
▁oltáře	-12.033
▁pondělní	-12.033
▁TBC	-12.033
▁albánsk	-12.033
▁atropin	-12.033
▁kuchyně	-12.033
▁nejvýrazněj	-12.033
▁novodob	-12.033
▁populační	-12.033
▁skleněn	-12.033
▁zajišťován	-12.033
▁Gračov	-12.033
▁Tradičn	-12.033
▁pamětí	-12.033
▁plážové	-12.033
▁savců	-12.033
▁využívan	-12.033
▁opouští	-12.033
▁populací	-12.033
▁zamítl	-12.033
▁zkusit	-12.033
▁zástupkyn	-12.033
▁National	-12.033
▁neměnn	-12.033
▁východoněmeck	-12.033
▁Špaček	-12.033
▁instrukc	-12.033
▁konstrukci	-12.033
▁výhře	-12.033
▁Slunci	-12.033
▁uchovává	-12.033
▁Rázl	-12.033
▁ministerské	-12.033
▁úskalí	-12.033
▁upřímně	-12.033
▁Dukovan	-12.033
▁nejcennější	-12.033
▁vztyčen	-12.033
▁knižní	-12.033
▁převzat	-12.033
▁variace	-12.033
▁databank	-12.033
přijatelnou	-12.033
▁Markoman	-12.033
▁Sampras	-12.033
▁pesimist	-12.033
▁zanechal	-12.033
▁Sobot	-12.033
▁překročil	-12.033
▁rektor	-12.033
▁milovník	-12.0331
▁sledovaný	-12.0331
všudy	-12.0331
▁Smetan	-12.0331
▁zpestř	-12.0331
▁Nutno	-12.0331
▁obchodovateln	-12.0331
▁učiněn	-12.0331
▁zkoumají	-12.0331
▁postřeh	-12.0331
▁hvězdárn	-12.0331
▁brestsk	-12.0331
▁Liberec	-12.0331
▁Děčín	-12.0331
▁Strahov	-12.0331
▁embarg	-12.0331
hřát	-12.0331
Pérez	-12.0331
▁Vítkovic	-12.0332
▁mohyl	-12.0332
▁rolník	-12.0332
▁pohrom	-12.0333
▁patron	-12.0333
▁namátko	-12.0333
▁Korejsk	-12.0333
▁mléčn	-12.0334
▁Brazilc	-12.0334
▁erupc	-12.0334
▁přemístěn	-12.0335
▁Soukrom	-12.0335
▁sériov	-12.0335
▁návyk	-12.0336
fašist	-12.0337
▁specializac	-12.0339
▁petic	-12.0348
▁plášt	-12.0351
▁stezk	-12.0351
říkajíc	-12.038
▁dotčen	-12.0393
▁pekař	-12.0423
▁vyslovuj	-12.0443
▁drastick	-12.0459
zabývala	-12.046
▁vypouště	-12.0479
▁produkuj	-12.0481
bydlel	-12.0495
hlasovali	-12.0496
▁nevídan	-12.0552
účtovat	-12.0558
kreslit	-12.0589
vládnutí	-12.0608
▁adaptovan	-12.066
šéfem	-12.0668
▁rukopis	-12.0669
milionář	-12.067
▁neurolog	-12.0715
▁potlač	-12.0732
uskutečnilo	-12.0801
▁Ročn	-12.0808
▁promítn	-12.083
energetick	-12.1025
IČK	-12.1068
svědčit	-12.1071
▁vyjíždě	-12.1117
přinesly	-12.1163
▁úmrtnost	-12.1241
▁otevíra	-12.1298
oncentrace	-12.1302
▁hygienic	-12.1315
dovozce	-12.1327
tabilita	-12.1327
▁tribun	-12.1329
prezentují	-12.1329
▁Nedostat	-12.133
▁Hirsch	-12.133
▁farmaceut	-12.133
▁kompetenční	-12.133
cyklistické	-12.133
eřejnoprávní	-12.133
organizovat	-12.133
posluchači	-12.133
shromáždil	-12.133
spolupracoval	-12.133
zprostředkovatel	-12.133
▁Advokát	-12.133
▁Arábii	-12.133
▁Calgary	-12.133
▁College	-12.133
▁DIVADL	-12.133
▁Darwin	-12.133
▁Dortmund	-12.133
▁FOTBALOV	-12.133
▁Gordon	-12.133
▁Havlíčk	-12.133
▁Hospital	-12.133
▁Kalifornie	-12.133
▁Kanaďan	-12.133
▁Kočárník	-12.133
▁Kriminalisté	-12.133
▁Moldavsk	-12.133
▁Mongolsk	-12.133
▁Myšlenk	-12.133
▁NAŠI	-12.133
▁Neexistuje	-12.133
▁Office	-12.133
▁Picass	-12.133
▁Prostřed	-12.133
▁Rekonstrukc	-12.133
▁Stejskal	-12.133
▁Zieleniec	-12.133
▁angažmá	-12.133
▁aplikovat	-12.133
▁brigád	-12.133
▁deklarovan	-12.133
▁doporučuji	-12.133
▁dosažiteln	-12.133
▁doživotn	-12.133
▁družstvech	-12.133
▁důležitost	-12.133
▁entropie	-12.133
▁epidemiolog	-12.133
▁evidují	-12.133
▁exponáty	-12.133
▁financuje	-12.133
▁halogenovan	-12.133
▁hlístice	-12.133
▁homosexuál	-12.133
▁hospodařit	-12.133
▁infekční	-12.133
▁instanci	-12.133
▁interpelace	-12.133
▁izotop	-12.133
▁kontaminovan	-12.133
▁kontroverzní	-12.133
▁kvartéru	-12.133
▁libovolný	-12.133
▁makroekonomick	-12.133
▁manifest	-12.133
▁merkaptan	-12.133
▁monoklonální	-12.133
▁nejkratší	-12.133
▁nejrozšířenější	-12.133
▁nejvýhodnější	-12.133
▁nekompromisn	-12.133
▁nelegální	-12.133
▁neopakovateln	-12.133
▁neuroprotéz	-12.133
▁nezúčastnil	-12.133
▁námořnictv	-12.133
▁obhajob	-12.133
▁odjinud	-12.133
▁odpůrce	-12.133
▁oznámit	-12.133
▁paleontolog	-12.133
▁pasažér	-12.133
▁periferní	-12.133
▁podotknout	-12.133
▁postěžoval	-12.133
▁pracovišť	-12.133
▁pracovněprávní	-12.133
▁primitivní	-12.133
▁prohloubení	-12.133
▁prohlásit	-12.133
▁prémií	-12.133
▁přihlášek	-12.133
▁připravovat	-12.133
▁příbuzensk	-12.133
▁rekonstrukcí	-12.133
▁rekonstruovat	-12.133
▁repertoár	-12.133
▁reproduktory	-12.133
▁rozpočtem	-12.133
▁signalizuje	-12.133
▁skříňky	-12.133
▁sparťan	-12.133
▁stagnuje	-12.133
▁starožitnictví	-12.133
▁suverenit	-12.133
▁testosteron	-12.133
▁uzavírat	-12.133
▁velmoci	-12.133
▁vzpěrač	-12.133
▁výslech	-12.133
▁zodpovědět	-12.133
▁ázerbájdžánsk	-12.133
▁úspěšní	-12.133
▁Špindlerov	-12.133
▁Železný	-12.133
▁Krajicek	-12.133
▁Srbové	-12.133
▁Třebíč	-12.133
▁Ukrajinu	-12.133
▁definuje	-12.133
▁důvěra	-12.133
▁elegans	-12.133
▁hledisek	-12.133
▁korupci	-12.133
▁navštíví	-12.133
▁nemožnost	-12.133
▁nevadilo	-12.133
▁protiprávn	-12.133
▁rekvalifik	-12.133
▁střešní	-12.133
▁trofej	-12.133
▁zpochybněn	-12.133
▁zvýrazněn	-12.133
▁Žižkov	-12.133
geochemi	-12.133
▁1999	-12.133
▁747	-12.133
▁Agentur	-12.133
▁Moldan	-12.133
▁Nástroje	-12.133
▁Termín	-12.133
▁Záznam	-12.133
▁kongener	-12.133
▁nadvlád	-12.133
▁neuzavř	-12.133
▁ochránce	-12.133
▁odmítal	-12.133
▁odměňuje	-12.133
▁postulát	-12.133
▁pouliční	-12.133
▁přiznávají	-12.133
▁upřesnil	-12.133
explozi	-12.133
▁1966	-12.133
▁Olympijský	-12.133
▁Sigmy	-12.133
▁chystané	-12.133
▁hasičsk	-12.133
▁legálně	-12.133
▁mládě	-12.133
▁pátrají	-12.133
▁zakázaný	-12.133
▁Olympijské	-12.133
▁Urban	-12.133
▁charakterizován	-12.133
▁nezávadn	-12.133
▁využíval	-12.133
▁Hokej	-12.133
▁celistv	-12.133
▁gynekolog	-12.133
▁investoval	-12.133
komunistickou	-12.133
přijatelnější	-12.133
▁kolébk	-12.133
▁nohama	-12.133
▁ďábl	-12.133
▁žralok	-12.133
▁vyhraněn	-12.133
▁zlepšova	-12.133
▁mozaik	-12.133
▁ložisk	-12.133
▁Mimořádn	-12.133
▁odškodn	-12.133
▁žalostn	-12.133
▁směšn	-12.133
▁šroub	-12.133
▁podjednotk	-12.133
▁instalován	-12.133
▁obohac	-12.133
▁akceptoval	-12.133
podrobněji	-12.133
zmrzl	-12.133
charakteristické	-12.133
▁vesničk	-12.133
▁nejistý	-12.133
▁Koukal	-12.133
▁pobaltsk	-12.133
▁vyrostl	-12.133
▁instituci	-12.1331
libyjsk	-12.1331
▁značkov	-12.1331
▁tropické	-12.1331
▁předplatitel	-12.1331
▁stokorunov	-12.1331
▁svébytn	-12.1331
▁zřítil	-12.1331
▁subvenc	-12.1331
▁Snažím	-12.1331
▁těhotn	-12.1331
receptory	-12.1331
▁instalovan	-12.1331
▁nahrazuj	-12.1331
▁novověk	-12.1331
▁morfologi	-12.1331
▁dodávaný	-12.1331
▁Jičín	-12.1331
▁1:2	-12.1332
▁Němk	-12.1332
▁okupovan	-12.1332
▁odlišně	-12.1332
▁podporován	-12.1332
▁překročen	-12.1332
▁vyučován	-12.1332
▁kojenc	-12.1333
▁Očekáva	-12.1334
apadesátilet	-12.1334
napůl	-12.1334
▁dominují	-12.1336
▁nadprůměrn	-12.1336
▁mnohonásobn	-12.1336
▁preferuj	-12.1338
▁lyrick	-12.134
▁identick	-12.1342
AŠE	-12.1342
charakteristický	-12.1342
▁podepsan	-12.1347
▁doručen	-12.1352
japonských	-12.1356
▁skotsk	-12.1362
kopíruj	-12.1376
▁Škodovk	-12.1378
▁indick	-12.1388
▁předepsan	-12.1391
▁znehodnoc	-12.1407
(	-12.6944
"	-12.9419
<	-13.962
