<unk>	0
<s>	0
</s>	0
<doc>	0
</doc>	0
<head>	0
</head>	0
<phr>	0
</phr>	0
▁	-1.70512
,	-3.23624
.	-3.38435
▁a	-4.29273
▁v	-4.39626
▁se	-4.48378
▁na	-4.62338
a	-4.69251
ch	-4.92398
m	-4.9819
▁je	-5.0025
u	-5.04215
i	-5.08548
ho	-5.13471
y	-5.14701
▁"	-5.1864
▁že	-5.25674
▁z	-5.31154
▁s	-5.36671
▁o	-5.55614
▁do	-5.58011
ou	-5.60781
e	-5.66366
á	-5.68564
▁-	-5.76691
▁pro	-5.78046
o	-5.79359
▁za	-5.87801
í	-5.91717
é	-5.93279
▁k	-5.93378
▁i	-5.95653
▁to	-5.95844
ě	-5.97185
▁ve	-5.99967
em	-6.00415
▁(	-6.00758
▁V	-6.05949
▁po	-6.06377
▁by	-6.09058
s	-6.09184
to	-6.10875
▁ale	-6.18582
>	-6.202
▁si	-6.27247
ž	-6.35857
mi	-6.36708
▁jsou	-6.37862
t	-6.38207
▁jako	-6.41208
▁které	-6.42907
▁od	-6.48787
▁však	-6.50736
▁:	-6.53274
)	-6.54045
▁při	-6.56782
▁tak	-6.57198
ých	-6.58971
ů	-6.61157
ý	-6.61628
▁který	-6.62444
▁nebo	-6.71135
▁jeho	-6.71729
▁bude	-6.72693
?	-6.75041
▁ne	-6.77791
▁jen	-6.7853
ní	-6.85757
▁než	-6.86666
▁má	-6.88571
x	-6.91752
▁už	-6.94094
▁aby	-6.94689
me	-6.95858
▁Na	-6.96549
▁byl	-6.96585
▁A	-6.96776
▁jejich	-6.98564
▁jsem	-6.99886
▁až	-6.99979
▁před	-7
▁být	-7.00132
▁jak	-7.00246
▁S	-7.00929
▁Po	-7.02555
▁která	-7.04694
▁také	-7.05275
▁jsme	-7.08563
▁ze	-7.09668
▁<	-7.09703
▁podle	-7.09921
te	-7.11316
▁Je	-7.16356
mu	-7.20332
▁Z	-7.20397
▁co	-7.20852
▁není	-7.21675
▁bylo	-7.25012
▁mezi	-7.25735
▁ani	-7.26105
▁či	-7.28126
▁ještě	-7.28199
▁své	-7.28804
▁již	-7.29762
▁když	-7.29979
▁může	-7.30702
ce	-7.31655
▁byla	-7.327
▁toho	-7.35427
kud	-7.36811
▁let	-7.37486
▁O	-7.38624
/	-7.38923
▁P	-7.39238
▁korun	-7.39918
ně	-7.40145
l	-7.41209
▁pak	-7.43042
ého	-7.43327
▁další	-7.45042
▁K	-7.4565
▁kteří	-7.45669
▁tím	-7.46007
▁té	-7.47261
).	-7.48408
v	-7.49744
▁kde	-7.5042
▁roku	-7.5198
▁více	-7.52193
▁tedy	-7.52422
ka	-7.52539
▁první	-7.52644
ové	-7.55161
k	-7.55361
▁nich	-7.56804
z	-7.59685
▁To	-7.60564
▁bez	-7.61305
že	-7.61357
▁mají	-7.62293
▁vy	-7.62856
),	-7.63434
▁tu	-7.65624
▁roce	-7.66314
▁pouze	-7.66714
▁musí	-7.67126
▁tom	-7.67754
▁li	-7.68064
▁kdy	-7.68534
▁tomu	-7.6954
ky	-7.71526
-	-7.71602
▁pod	-7.72124
▁proto	-7.723
▁ke	-7.72315
ek	-7.72544
▁budou	-7.74037
li	-7.74656
▁třeba	-7.74862
▁protože	-7.75729
ech	-7.76239
▁totiž	-7.76472
▁lze	-7.78926
▁nás	-7.78933
▁proti	-7.80188
p	-7.82086
▁I	-7.82705
na	-7.82743
▁byly	-7.83004
▁Za	-7.83324
▁měl	-7.8338
d	-7.83681
▁velmi	-7.83932
▁její	-7.84042
▁zatím	-7.84729
▁poslední	-7.84799
▁asi	-7.84954
ová	-7.85373
▁ty	-7.87977
▁Podl	-7.88102
ým	-7.88276
▁řekl	-7.88393
▁nad	-7.89084
▁včera	-7.89222
▁M	-7.91159
r	-7.91749
▁dnes	-7.93872
▁firmy	-7.94627
ná	-7.94748
cí	-7.95175
la	-7.95583
ku	-7.95711
▁D	-7.9584
▁dva	-7.96906
▁především	-7.96991
▁vlastní	-7.98467
▁případě	-7.99484
▁'	-8.00378
ci	-8.00791
▁Pro	-8.00833
▁Ne	-8.00888
▁tisíc	-8.01014
▁například	-8.01125
né	-8.02298
▁všech	-8.02319
▁rok	-8.02637
▁přes	-8.03945
▁době	-8.04067
▁nyní	-8.0427
▁mít	-8.05535
▁nám	-8.05841
n	-8.06162
▁U	-8.07121
▁ji	-8.07444
▁J	-8.0781
jí	-8.08712
▁lidí	-8.09243
▁jim	-8.09264
ovat	-8.09294
▁společnosti	-8.09328
▁tři	-8.0945
▁mohou	-8.09551
▁práce	-8.09673
▁stále	-8.10605
▁těchto	-8.1088
▁ovšem	-8.11017
▁všechny	-8.1132
▁Při	-8.11588
co	-8.11852
▁zda	-8.12086
▁jeden	-8.13909
▁několik	-8.14473
ň	-8.14483
▁Ve	-8.14926
▁kterou	-8.15395
nou	-8.16038
▁což	-8.16212
▁Do	-8.17644
▁tento	-8.18141
▁procent	-8.18937
▁něm	-8.20053
it	-8.20103
...	-8.20427
▁možné	-8.20469
ových	-8.20748
▁jde	-8.21039
▁České	-8.21486
j	-8.21708
ovi	-8.22137
▁Ale	-8.22149
▁dalších	-8.22533
▁dvou	-8.22742
▁nové	-8.22853
cela	-8.2355
právě	-8.23917
▁měla	-8.24632
uje	-8.24986
▁ČR	-8.25035
▁pře	-8.25474
▁Jak	-8.25807
▁Praze	-8.25814
▁naše	-8.26527
téměř	-8.26636
▁zejména	-8.26826
▁svou	-8.27241
ování	-8.2849
ách	-8.28696
▁strany	-8.29251
▁Proto	-8.30131
▁jednání	-8.30523
▁sice	-8.3155
▁zařízení	-8.31644
▁letech	-8.31855
▁T	-8.32
ný	-8.3218
▁kdo	-8.32297
b	-8.32638
▁základní	-8.33247
▁svého	-8.33414
▁prostředí	-8.33575
▁dvě	-8.34255
▁svých	-8.34308
▁Kdy	-8.34536
ost	-8.35318
▁N	-8.35507
▁nejen	-8.35719
š	-8.36243
ům	-8.36364
▁jiné	-8.36417
▁větší	-8.36572
č	-8.3728
▁naši	-8.37593
▁světa	-8.385
▁tomto	-8.38506
▁možnost	-8.38702
▁místo	-8.38851
lo	-8.38862
▁Co	-8.39128
▁nic	-8.40581
▁každý	-8.40699
▁000	-8.4124
▁Tak	-8.4154
▁druhé	-8.42185
▁milionů	-8.42278
▁R	-8.43032
▁něco	-8.43513
▁vlády	-8.43538
▁svým	-8.43697
▁zde	-8.44426
▁část	-8.447
▁stát	-8.44713
en	-8.44885
▁H	-8.4498
▁stejně	-8.45498
ze	-8.45738
▁ceny	-8.46913
▁uvedl	-8.47065
▁%	-8.47569
▁zákona	-8.4769
▁mu	-8.47824
▁kolem	-8.47902
spo	-8.48349
c	-8.48926
ři	-8.49145
ými	-8.49246
▁Od	-8.49823
▁oblasti	-8.50087
▁dobře	-8.50635
▁příliš	-8.50982
▁B	-8.5134
▁tam	-8.51416
▁země	-8.51464
▁říká	-8.51534
▁dosud	-8.51621
▁svůj	-8.51636
▁byli	-8.51786
či	-8.51816
▁2	-8.51833
▁některých	-8.52046
▁práci	-8.52299
▁některé	-8.5244
▁systém	-8.52558
▁patří	-8.53391
▁zboží	-8.53666
▁vůbec	-8.5373
▁1	-8.54713
cích	-8.54986
▁vždy	-8.55954
▁neboť	-8.56207
▁opět	-8.56207
il	-8.56791
▁zemí	-8.5721
▁jež	-8.57649
ovou	-8.58893
▁C	-8.58906
▁firma	-8.59183
▁L	-8.59282
▁nejsou	-8.59735
▁sociální	-8.60216
▁10	-8.60228
▁často	-8.6032
▁období	-8.60493
▁pracovní	-8.60739
▁systému	-8.60791
▁finanční	-8.61539
▁dokonce	-8.62076
▁jste	-8.62328
▁den	-8.62408
▁nej	-8.62536
▁několika	-8.62868
▁měli	-8.62978
▁USA	-8.63
▁sám	-8.63243
▁Js	-8.63596
ské	-8.63806
ře	-8.63876
▁Kč	-8.64076
▁lidé	-8.64618
▁celé	-8.64682
ští	-8.65625
▁níž	-8.65943
▁střední	-8.66148
▁rovněž	-8.66167
během	-8.66458
▁trhu	-8.66636
ných	-8.66713
▁vyšší	-8.67365
▁nimi	-8.67594
▁roz	-8.6769
▁přímo	-8.67822
al	-8.67974
▁doby	-8.68107
at	-8.68191
včetně	-8.68541
vůli	-8.68562
▁části	-8.6893
▁situace	-8.68942
▁takže	-8.6927
▁zahraničí	-8.6975
ám	-8.69853
▁státní	-8.69878
zřejmě	-8.69971
ový	-8.70531
▁3	-8.70735
▁vše	-8.70804
le	-8.70919
▁informace	-8.71201
tato	-8.71315
no	-8.71648
st	-8.71854
g	-8.71909
A	-8.72085
▁méně	-8.7211
▁mohl	-8.72524
▁Evropy	-8.72631
▁peníze	-8.72636
▁hodin	-8.72751
ne	-8.73068
▁např	-8.7324
S	-8.73335
ami	-8.73441
▁počet	-8.73475
▁Zatím	-8.73482
▁pět	-8.73513
▁víc	-8.73536
▁vám	-8.73546
▁znamená	-8.73612
▁chce	-8.73835
▁něj	-8.7389
ny	-8.74045
▁nebude	-8.74137
si	-8.74362
ta	-8.74405
▁způsobem	-8.74527
▁takové	-8.74693
▁Jan	-8.75207
▁společnost	-8.75214
▁spíše	-8.7537
▁republiky	-8.75371
▁zákon	-8.756
ém	-8.75748
osti	-8.75762
▁mě	-8.76031
▁nemá	-8.76129
▁dále	-8.76271
▁velký	-8.76298
▁navíc	-8.76896
▁přitom	-8.76918
in	-8.7694
▁dobu	-8.77022
▁čas	-8.77228
▁ten	-8.77542
▁První	-8.77757
▁vlastně	-8.77776
▁problémy	-8.77795
ují	-8.7813
▁jednoho	-8.78167
▁sebe	-8.78333
▁české	-8.78503
▁naopak	-8.78655
ni	-8.78759
▁čtyři	-8.80012
▁obchodní	-8.80043
▁Ty	-8.80484
▁5	-8.80654
▁města	-8.80671
▁zájem	-8.80785
▁letošní	-8.80882
▁skutečně	-8.80944
▁straně	-8.81537
▁jednotlivý	-8.81691
▁ministr	-8.81695
▁vláda	-8.81706
▁největší	-8.81767
▁životní	-8.81811
▁znovu	-8.81847
▁jej	-8.81849
▁většinou	-8.82166
▁zahraniční	-8.82178
▁mnoho	-8.82645
▁zhruba	-8.82673
▁ředitel	-8.82967
▁současné	-8.82972
▁řešení	-8.8324
ra	-8.83654
▁prezident	-8.83747
▁řízení	-8.83757
▁platí	-8.83831
▁území	-8.84123
▁20	-8.84494
▁jiných	-8.84522
▁Jiří	-8.84592
po	-8.84648
h	-8.8499
▁nelze	-8.85092
D	-8.85234
▁celý	-8.85246
▁snad	-8.85678
▁bych	-8.85799
▁1992	-8.86041
▁začal	-8.86416
▁letos	-8.86527
ly	-8.86645
▁smlouvy	-8.86973
▁dolarů	-8.86986
M	-8.87191
▁rozhodnutí	-8.87249
▁G	-8.8791
▁r	-8.8795
▁půl	-8.87973
▁tzv	-8.87997
▁velké	-8.88025
▁jedné	-8.88118
▁mimo	-8.8829
▁pomocí	-8.88974
je	-8.89015
▁množství	-8.89352
▁činnosti	-8.89491
ť	-8.89699
▁zase	-8.89818
▁naší	-8.90344
▁roky	-8.90826
▁Přesto	-8.90984
▁vás	-8.9101
▁člověk	-8.91081
▁světě	-8.91629
kou	-8.91639
▁různých	-8.91935
▁hlavní	-8.92282
▁státu	-8.92447
▁jednou	-8.92655
▁později	-8.9282
f	-8.92882
T	-8.9306
▁můžete	-8.9335
▁programu	-8.93571
▁ČSFR	-8.94134
ův	-8.94195
▁člověka	-8.94385
▁program	-8.94787
▁podniku	-8.94916
▁Evropě	-8.94998
▁vedení	-8.95042
▁dost	-8.9519
▁skupiny	-8.95271
▁století	-8.95533
▁věci	-8.95845
▁1.	-8.95857
▁služby	-8.96047
se	-8.96296
ově	-8.964
▁rozdíl	-8.9644
▁dlouho	-8.96578
▁Václav	-8.96728
▁domácí	-8.96762
▁málo	-8.97001
▁mělo	-8.97022
▁jinak	-8.9711
▁deset	-8.97176
▁činnost	-8.97289
ích	-8.97352
▁obou	-8.9754
▁prý	-8.97754
▁zároveň	-8.97816
▁tří	-8.98065
▁situaci	-8.98181
K	-8.98459
▁prohlásil	-8.98886
▁snímku	-8.99267
▁náklady	-8.99299
▁Před	-8.99361
er	-8.99403
▁nových	-8.99453
▁trh	-8.99662
▁možná	-8.99811
▁přesto	-8.99842
▁Petr	-9.00014
▁tvrdí	-9.0009
▁cenu	-9.00265
ří	-9.00268
▁měly	-9.00615
▁problém	-9.00692
▁nemůže	-9.00736
▁návrh	-9.00845
▁máme	-9.00851
▁jaké	-9.01048
▁mohli	-9.01179
el	-9.01402
▁děti	-9.01469
▁firem	-9.02171
▁získat	-9.02589
▁prvním	-9.02615
▁spolu	-9.02672
▁Praha	-9.02905
▁toto	-9.0303
▁států	-9.03058
▁život	-9.03228
▁těch	-9.03581
▁majetku	-9.03732
▁šest	-9.03744
▁nakonec	-9.03782
lu	-9.03836
▁všechno	-9.03846
▁Byl	-9.0399
▁funkce	-9.0411
▁stojí	-9.04248
▁nikdy	-9.04295
R	-9.04528
or	-9.04528
▁lety	-9.04578
▁bývalé	-9.04595
▁svém	-9.04725
▁výši	-9.04989
▁4	-9.05212
▁místě	-9.05216
▁svět	-9.05329
▁proč	-9.0577
N	-9.05969
▁1993	-9.05981
▁CD	-9.06042
▁americké	-9.06387
▁vody	-9.06389
ský	-9.06496
▁možnosti	-9.06661
on	-9.06944
▁konce	-9.07027
▁stavu	-9.07271
▁nového	-9.07428
▁dříve	-9.07568
▁100	-9.07571
▁dnešní	-9.07587
▁Prahy	-9.07793
ř	-9.07826
▁sobotu	-9.07833
▁třetí	-9.0784
▁30	-9.08074
▁jedna	-9.08333
▁nutné	-9.08388
▁mezinárodní	-9.08802
vá	-9.08935
▁nebyl	-9.08972
▁pěti	-9.09108
▁parlamentu	-9.09317
čí	-9.09388
▁lepší	-9.09476
▁místní	-9.09698
▁předseda	-9.09926
ného	-9.09974
U	-9.10281
▁stav	-9.10378
▁Tento	-9.10402
▁bychom	-9.10416
I	-9.10643
▁zemi	-9.10695
▁ministerstva	-9.10805
pl	-9.10998
▁týden	-9.11087
▁15	-9.11228
▁přece	-9.11578
▁Tato	-9.11603
▁Není	-9.11758
by	-9.11988
▁policie	-9.12036
▁podniků	-9.12052
vě	-9.12062
▁poté	-9.12114
▁všichni	-9.12246
ry	-9.12264
▁samozřejmě	-9.124
▁osob	-9.12441
▁rychle	-9.12638
▁můžeme	-9.12639
▁nikdo	-9.12658
▁Další	-9.12684
ste	-9.13142
nebo	-9.1316
B	-9.13185
▁hlavně	-9.13284
▁nový	-9.13427
▁moc	-9.13609
ným	-9.13673
▁českých	-9.13709
▁poměrně	-9.13791
▁F	-9.13838
▁prezidenta	-9.13887
▁něho	-9.13889
▁věcí	-9.14091
▁Ten	-9.14466
▁sdružení	-9.14551
▁dvěma	-9.14574
trochu	-9.14615
▁50	-9.14625
▁stran	-9.15044
▁Kromě	-9.15181
▁Jana	-9.15274
jich	-9.15491
▁Vy	-9.15568
bychom	-9.15668
▁SSSR	-9.15822
L	-9.16134
▁Mezi	-9.16468
ji	-9.16575
ská	-9.16745
▁organizace	-9.16928
▁Jako	-9.16951
▁dobré	-9.17003
▁informací	-9.17041
an	-9.17054
▁kdyby	-9.17063
▁komise	-9.17116
▁Jestli	-9.17116
▁podmínky	-9.17117
▁sobě	-9.17117
▁někdy	-9.17118
▁základě	-9.17864
▁pohled	-9.17996
▁Evropské	-9.1806
▁zemích	-9.18455
▁došlo	-9.18607
▁výroby	-9.18818
▁čím	-9.18845
ru	-9.18934
▁kromě	-9.19103
▁pan	-9.19266
▁většina	-9.19315
▁způsob	-9.19449
▁místa	-9.19697
ec	-9.19732
▁postup	-9.19926
▁určité	-9.20092
▁ostatní	-9.20146
va	-9.20353
▁hned	-9.2043
▁E	-9.20443
▁de	-9.20671
▁nejlepší	-9.20726
ova	-9.20758
▁Má	-9.20767
tu	-9.20773
▁života	-9.20841
▁jedno	-9.20988
▁vedoucí	-9.21021
dním	-9.21065
▁právní	-9.21717
ového	-9.21735
▁rozpočtu	-9.21786
▁hry	-9.2189
▁dál	-9.22046
▁podíl	-9.2229
ním	-9.22371
▁cena	-9.22436
če	-9.2244
▁druhý	-9.22463
▁vysoké	-9.22469
▁tehdy	-9.22471
▁jistě	-9.22507
▁východní	-9.22544
▁malé	-9.2284
▁mnoha	-9.22897
ského	-9.22972
V	-9.23003
▁jich	-9.2312
▁ním	-9.23145
▁teď	-9.23161
▁prohlášení	-9.23288
▁milionu	-9.23308
▁nebylo	-9.2352
ko	-9.2364
▁prosince	-9.23853
▁prostředky	-9.23854
▁poprvé	-9.23855
▁vývoj	-9.2396
us	-9.23998
▁stejné	-9.24138
▁času	-9.24185
2	-9.2443
▁unie	-9.24553
ají	-9.25016
▁40	-9.2524
▁spolupráci	-9.25256
▁výsledky	-9.25267
▁teprve	-9.25277
▁opatření	-9.25282
▁jenž	-9.25307
▁jí	-9.25395
▁ti	-9.25579
▁ob	-9.25711
▁dodal	-9.25897
▁výrazně	-9.26008
▁žádné	-9.26107
▁nějak	-9.2614
lá	-9.26154
1	-9.26174
kem	-9.26264
▁večer	-9.26508
▁prakticky	-9.26717
▁vnitřní	-9.26796
ující	-9.26951
▁tvoří	-9.26997
ti	-9.27105
▁procenta	-9.27221
▁potom	-9.27276
▁hlediska	-9.27399
▁prostřednictví	-9.27399
▁čtyř	-9.27415
▁utkání	-9.27425
▁kterým	-9.27549
▁200	-9.2802
▁ministra	-9.2812
▁republice	-9.28124
▁celou	-9.28227
▁velice	-9.28231
O	-9.28262
ro	-9.28307
za	-9.28422
▁ODS	-9.28627
▁osm	-9.28718
da	-9.28764
▁někdo	-9.28855
▁daně	-9.28874
▁mnoh	-9.29042
mohlo	-9.29102
▁vliv	-9.29363
▁prostor	-9.29409
▁dispozici	-9.29599
▁akce	-9.29608
▁pár	-9.29627
▁obě	-9.29642
▁souvislosti	-9.29666
díky	-9.29695
▁řadu	-9.2995
▁typu	-9.29982
▁minut	-9.30481
▁já	-9.30533
▁změny	-9.3081
mohla	-9.30848
▁6	-9.30926
▁obyvatel	-9.30983
▁rámci	-9.31077
▁ledna	-9.31082
nu	-9.31119
hle	-9.31252
▁mne	-9.31298
▁sebou	-9.31516
▁původní	-9.31597
▁budeme	-9.31629
▁jedn	-9.31632
P	-9.31634
ba	-9.31663
▁doma	-9.31672
▁stal	-9.3182
▁nejméně	-9.31838
▁menší	-9.31885
▁podařilo	-9.31887
nost	-9.32353
9	-9.32476
▁státy	-9.32477
▁premiér	-9.32521
▁roli	-9.32594
oval	-9.32651
▁různé	-9.32658
▁čs	-9.32848
▁vítězství	-9.32897
▁Ta	-9.33143
▁Například	-9.33349
▁podnikání	-9.33372
▁1990	-9.3373
▁výše	-9.33926
▁opravdu	-9.3412
▁Jde	-9.34143
▁zdravotní	-9.34277
▁podnik	-9.34364
ty	-9.34371
ků	-9.34484
▁tolik	-9.34619
hl	-9.34631
C	-9.34747
▁západní	-9.34837
▁smlouvu	-9.34893
▁vů	-9.34909
▁miliónů	-9.34911
▁náš	-9.34912
▁minulý	-9.34929
▁prostě	-9.34976
▁peněz	-9.35017
▁nedávno	-9.35048
od	-9.35054
3	-9.35199
▁dne	-9.35356
▁názor	-9.3537
▁Jen	-9.355
▁funkci	-9.35674
▁Dnes	-9.35708
▁zvýšení	-9.35786
du	-9.358
▁právo	-9.35882
▁služeb	-9.35927
▁loni	-9.35955
▁p	-9.36343
re	-9.36355
ských	-9.3643
▁Kdo	-9.36501
▁měsíců	-9.36569
▁středu	-9.36656
▁žádný	-9.36868
ější	-9.37159
▁dnech	-9.37202
▁chtějí	-9.37256
▁koaliční	-9.37256
▁ministerstvo	-9.37256
▁politické	-9.37685
▁nižší	-9.37918
4	-9.37943
▁metrů	-9.3809
▁postupně	-9.38129
▁jiného	-9.38131
proti	-9.3817
▁úřadu	-9.38251
▁rady	-9.3827
▁Windows	-9.38336
▁zahraničních	-9.38544
▁Š	-9.38576
ím	-9.38735
▁společenství	-9.38894
▁svazu	-9.38926
▁získal	-9.38979
▁miliard	-9.39031
ší	-9.39321
ních	-9.39541
▁8	-9.3967
▁členů	-9.39866
▁trenér	-9.39889
▁pomoc	-9.39913
▁25	-9.3998
▁12	-9.40043
▁šesti	-9.40202
▁význam	-9.40392
▁číslo	-9.40502
▁Zde	-9.4066
Á	-9.40909
ení	-9.40959
▁podobně	-9.41239
▁podporu	-9.41264
▁nadále	-9.41381
▁Bude	-9.41407
▁klubu	-9.41412
▁sto	-9.41702
ov	-9.4189
▁počtu	-9.41988
▁1991	-9.42004
▁osobní	-9.42196
▁Pak	-9.42262
▁kam	-9.42393
▁týmu	-9.42725
▁dat	-9.42727
▁podniky	-9.42795
▁malý	-9.42862
▁ročně	-9.42874
ri	-9.42894
▁přibližn	-9.42971
▁Většin	-9.42995
▁hospodářství	-9.42995
▁nabídky	-9.42995
▁lépe	-9.42996
▁okolí	-9.43143
▁pojištění	-9.43183
▁MS	-9.43206
▁Ani	-9.43245
▁ta	-9.4332
▁každ	-9.43572
▁podstatně	-9.43828
▁umožňuje	-9.43842
▁jenom	-9.43882
▁vede	-9.43941
▁W	-9.43994
▁přesně	-9.44073
▁hodně	-9.44112
▁dostal	-9.44205
▁růst	-9.44228
▁fondu	-9.44316
▁výkon	-9.44345
▁chování	-9.44423
▁slova	-9.44443
ému	-9.44486
▁musíme	-9.44582
▁1994	-9.44659
▁začíná	-9.44697
▁říci	-9.44707
▁případech	-9.44733
▁novou	-9.44736
▁městě	-9.44816
▁banky	-9.45011
mž	-9.45071
▁nejvyšší	-9.45113
Dr	-9.45226
▁Se	-9.45237
▁řada	-9.45294
▁pomoci	-9.45365
▁možností	-9.45481
ha	-9.45586
▁oddělení	-9.45613
▁vedle	-9.45785
▁českého	-9.45865
▁obvykle	-9.4594
▁nebyla	-9.46016
▁zdá	-9.46344
▁kterém	-9.46359
▁otázku	-9.46429
▁politiky	-9.46474
▁cen	-9.46499
▁celkové	-9.46625
▁průběhu	-9.46636
▁18	-9.46743
▁provoz	-9.46804
▁soud	-9.46908
▁deseti	-9.46942
▁miliardy	-9.4706
▁považuje	-9.47286
▁nabízí	-9.47306
▁nemají	-9.47327
▁ulici	-9.47364
▁zdrojů	-9.47422
▁nemusí	-9.47537
jší	-9.47543
▁Už	-9.48057
▁skutečnost	-9.48189
▁otázky	-9.48191
▁úrovni	-9.48191
▁chvíli	-9.48191
▁celkem	-9.48192
▁Česká	-9.48194
▁pracovníků	-9.48439
▁hrát	-9.48594
▁moci	-9.48624
▁pražské	-9.48737
▁názoru	-9.48928
bu	-9.49028
▁jednom	-9.49056
▁dosavadní	-9.49062
▁postavení	-9.49223
▁dohody	-9.49224
▁takto	-9.49232
▁zástupce	-9.49266
▁objektů	-9.49274
▁zisk	-9.49568
▁nepo	-9.49611
ať	-9.49757
▁platit	-9.4976
▁změn	-9.49957
▁dětí	-9.49985
▁energie	-9.49985
▁NATO	-9.49986
▁snaží	-9.50108
▁působí	-9.50291
▁společností	-9.5056
▁sítě	-9.50713
▁cestu	-9.50722
▁bývalý	-9.50725
▁sedm	-9.50788
▁takový	-9.508
▁objekt	-9.50837
▁tržní	-9.5088
▁finále	-9.50894
▁listopadu	-9.5094
▁představuje	-9.5095
▁přístup	-9.50978
▁setkání	-9.51057
▁měsíce	-9.51089
▁sama	-9.51132
▁kterých	-9.51179
▁jejím	-9.51289
▁7	-9.51477
▁Klaus	-9.51496
▁světové	-9.51575
nější	-9.51596
▁každé	-9.51659
E	-9.51722
ma	-9.51783
▁prostředků	-9.51812
▁čtvrtek	-9.51822
▁Ještě	-9.51843
ví	-9.51848
▁Tím	-9.51849
▁současně	-9.51937
▁řadě	-9.5199
▁obchodního	-9.52108
▁my	-9.52116
▁národní	-9.5222
▁hráčů	-9.52233
▁zdroje	-9.52258
▁oba	-9.5227
▁příští	-9.5228
▁textu	-9.5234
ání	-9.52342
▁volební	-9.52482
▁Navíc	-9.52737
▁Nyní	-9.52739
▁produkce	-9.52744
▁OSN	-9.52744
▁výrobky	-9.52757
▁atd	-9.52768
▁neděli	-9.52836
ovým	-9.52841
▁nikoli	-9.52851
ěte	-9.52879
es	-9.529
▁skutečnosti	-9.53389
Z	-9.53422
▁dá	-9.53428
▁musel	-9.53449
▁sil	-9.53619
▁Josef	-9.53672
▁federální	-9.53672
▁zasedání	-9.53677
▁kvalitní	-9.53694
▁muset	-9.53726
▁poně	-9.53792
de	-9.53799
▁výrobků	-9.53892
▁všem	-9.53964
ční	-9.54015
řitom	-9.54057
▁sami	-9.54078
▁výboru	-9.54109
▁hlavním	-9.54299
▁uvádí	-9.54552
▁začátku	-9.54624
▁srovnání	-9.54666
lí	-9.54762
▁přiče	-9.54822
▁akcií	-9.54831
▁hodnoty	-9.5485
▁součástí	-9.54869
▁mluvčí	-9.54966
▁jiný	-9.55037
▁obchodu	-9.5505
▁školy	-9.55076
▁prezentace	-9.55148
▁tým	-9.55194
▁teorie	-9.55567
▁privatizace	-9.55567
▁apod	-9.55569
▁společné	-9.55591
▁jasné	-9.55608
▁text	-9.55797
▁mistrovství	-9.55798
▁zvláštní	-9.55809
▁těm	-9.56016
▁2.	-9.56018
▁problémů	-9.56053
ve	-9.56187
▁provozu	-9.56197
▁generální	-9.56234
▁objektu	-9.56248
▁olympijské	-9.56465
▁dopravy	-9.56578
▁domů	-9.56596
▁kterého	-9.56678
▁jednotlivé	-9.56698
▁1989	-9.56747
▁poslanců	-9.56794
▁Ze	-9.56877
▁buď	-9.5689
krát	-9.56971
tr	-9.57088
▁telefonní	-9.5711
▁nevy	-9.57296
prve	-9.57414
▁chtěl	-9.57426
▁ekonomické	-9.5745
▁našem	-9.57454
▁zdravotnictví	-9.575
▁Někter	-9.57503
▁umění	-9.57521
ar	-9.57538
▁kole	-9.57654
▁ME	-9.57732
tě	-9.57743
▁údaje	-9.57799
▁kolik	-9.57967
tra	-9.57975
▁dalším	-9.57996
▁Bylo	-9.58023
▁slov	-9.58081
0	-9.58142
os	-9.58174
▁11	-9.58209
▁práva	-9.58282
▁podobě	-9.58514
▁kultury	-9.58549
▁ostatních	-9.58567
▁investice	-9.58593
▁plně	-9.586
▁noci	-9.5867
▁skupina	-9.58886
▁státního	-9.58961
▁celého	-9.59022
např	-9.59125
▁zájmu	-9.59541
▁společně	-9.5956
▁Proč	-9.59582
▁přednost	-9.59594
▁pracovat	-9.59688
▁soutěže	-9.59692
▁snadno	-9.59701
▁strana	-9.59742
▁smrti	-9.59767
▁úřad	-9.59813
▁občanů	-9.59829
▁předem	-9.59846
et	-9.59943
▁Toto	-9.60115
▁tisíce	-9.60181
▁jméno	-9.60471
▁politických	-9.60533
ter	-9.60817
▁míst	-9.60851
▁dává	-9.61036
ační	-9.61406
▁24	-9.61416
▁Stejn	-9.61482
▁snímek	-9.61485
▁zdraví	-9.61488
▁lidi	-9.61524
tí	-9.61534
▁vytvoření	-9.6156
▁důvodů	-9.61591
▁Ivan	-9.61635
▁nejvíce	-9.61671
▁čeká	-9.62106
▁soudu	-9.62235
▁moderní	-9.62395
▁her	-9.62406
▁vybavení	-9.62438
▁Jaroslav	-9.62501
▁vzhledem	-9.62597
▁velkou	-9.62607
▁mužů	-9.62725
však	-9.6275
▁list	-9.62808
▁konkrétní	-9.62903
▁hráči	-9.62925
▁počítače	-9.63117
▁hnutí	-9.63144
▁otázka	-9.63349
▁okolo	-9.63534
▁vod	-9.63589
5	-9.63865
▁hodiny	-9.63946
▁spíš	-9.64227
▁věc	-9.64243
▁film	-9.64328
▁16	-9.64333
▁náměstí	-9.64573
▁zástupci	-9.64576
▁někteří	-9.64577
▁rukou	-9.64578
▁září	-9.64578
▁Země	-9.6458
▁zaměstnání	-9.64605
▁obsahuje	-9.64605
▁kilometrů	-9.6473
▁koncem	-9.64749
▁60	-9.6475
▁věku	-9.64758
▁oboru	-9.64833
▁mám	-9.64897
▁mohly	-9.64994
lé	-9.65108
▁vládní	-9.65118
▁nějaké	-9.65278
▁veřejné	-9.65338
▁14	-9.6553
▁cestovní	-9.65626
▁výsledek	-9.65626
▁Nej	-9.65626
▁přišel	-9.65706
svoji	-9.65715
▁druhů	-9.6575
▁zkušenosti	-9.65864
▁hospodářské	-9.66018
vi	-9.66073
▁těžko	-9.66221
▁Kčs	-9.66254
▁cizí	-9.66263
▁objekty	-9.66306
kr	-9.66582
▁Pavel	-9.66633
▁Může	-9.6669
▁dnů	-9.66692
▁podmínek	-9.66693
▁nebudou	-9.66701
▁dvacet	-9.66742
▁koalice	-9.66752
▁St	-9.66885
ši	-9.66918
▁existuje	-9.67055
▁zaměstnanců	-9.6706
▁bývá	-9.67177
▁smyslu	-9.67211
▁český	-9.67242
▁zůstává	-9.67292
▁loňské	-9.67295
▁každého	-9.67459
▁dobrý	-9.6756
▁dr	-9.6763
▁úroveň	-9.67765
▁tady	-9.67776
pravidla	-9.67813
▁případ	-9.67829
val	-9.67893
▁minulosti	-9.67913
▁celkov	-9.67936
▁Podobn	-9.67953
▁spojení	-9.68567
▁případně	-9.68707
še	-9.68749
▁pátek	-9.68852
▁praxi	-9.68852
▁poslanci	-9.68854
▁Každý	-9.68994
▁určitě	-9.68995
▁jediný	-9.6907
▁Já	-9.69197
000	-9.69219
skou	-9.69224
▁pozornost	-9.69323
▁rychlost	-9.6937
▁Jelcin	-9.69649
▁obsah	-9.69658
▁Brně	-9.6978
▁důležité	-9.69951
▁vidět	-9.69951
▁šanci	-9.69952
▁konci	-9.69962
▁kvality	-9.69988
▁zpět	-9.7002
▁doba	-9.70088
▁dal	-9.70327
nutí	-9.70334
▁možno	-9.70367
▁použití	-9.70508
▁druhém	-9.70666
▁prvního	-9.70757
▁skupin	-9.70966
▁zápas	-9.71046
▁šéf	-9.71055
▁síly	-9.71065
▁volbách	-9.71069
▁července	-9.7107
▁dny	-9.71081
▁nikoliv	-9.71133
▁krok	-9.71156
▁změnit	-9.71203
▁odpovídá	-9.7123
▁knihy	-9.71288
ila	-9.71414
▁Německa	-9.71426
▁členy	-9.7149
w	-9.71516
dr	-9.71619
▁nebezpečí	-9.71859
▁Český	-9.71922
▁chyb	-9.72108
▁rozvoj	-9.72151
▁daleko	-9.72185
▁nákladů	-9.72221
▁podstatě	-9.72229
▁ruské	-9.72319
děl	-9.72324
ká	-9.72391
▁vztah	-9.72414
ství	-9.72491
▁tisku	-9.72553
▁činí	-9.72639
▁stačí	-9.7304
▁tepla	-9.73324
▁úplně	-9.73328
▁výrobu	-9.7336
▁představitelé	-9.73407
▁investiční	-9.73424
▁Ministerstv	-9.73463
▁druhou	-9.73614
▁práv	-9.73742
ovali	-9.73789
▁domu	-9.73852
▁podobné	-9.73885
▁techniky	-9.74051
▁výzkum	-9.74075
▁Již	-9.74263
▁delší	-9.74293
▁podnikatele	-9.74352
▁celá	-9.7456
▁volby	-9.74615
▁míry	-9.74625
▁pracuje	-9.74662
00	-9.74687
dnu	-9.74694
▁údajn	-9.74756
ili	-9.74765
▁zprávy	-9.74808
▁č	-9.74865
▁léta	-9.74875
6	-9.75094
▁voleb	-9.7513
▁vznikl	-9.75153
▁fond	-9.75225
▁fakt	-9.75303
▁účast	-9.75308
▁rád	-9.75433
is	-9.75466
▁též	-9.75485
▁světový	-9.75563
▁stavební	-9.75611
ovy	-9.75631
▁dvakrát	-9.75676
▁vytvořit	-9.75702
▁televizní	-9.75803
▁polovin	-9.75829
▁návrhu	-9.75836
▁chcete	-9.75867
▁vlastnosti	-9.75913
▁bytů	-9.75922
▁klub	-9.76015
▁dělat	-9.7609
skoro	-9.76196
▁fotbalové	-9.76249
▁parlament	-9.76291
let	-9.76349
▁Ti	-9.76357
▁financí	-9.76811
▁konečně	-9.76849
▁muž	-9.76891
▁každém	-9.77061
ované	-9.7723
▁jít	-9.77317
▁13	-9.77388
ické	-9.77578
ck	-9.77671
▁bod	-9.77718
▁tun	-9.77825
vláště	-9.7791
zhledem	-9.77948
▁běžné	-9.77955
▁federace	-9.78001
▁použít	-9.78001
▁firmě	-9.78009
▁Jeden	-9.78012
dl	-9.78019
▁Všechny	-9.78053
▁současnosti	-9.78074
▁zpracování	-9.7808
▁evropských	-9.78116
▁bodů	-9.78221
▁průmyslu	-9.78231
▁počítá	-9.78317
▁Německu	-9.78423
▁škol	-9.78675
▁ženy	-9.78954
▁Jedno	-9.79008
▁model	-9.79014
▁osoby	-9.79146
▁pravděpodobně	-9.79192
▁Právě	-9.79206
▁Společenství	-9.79206
▁Vladimír	-9.79206
▁zbraní	-9.79206
▁nejlépe	-9.79207
▁Bez	-9.79214
▁Běh	-9.79225
▁rozhodující	-9.79231
▁jaký	-9.79253
▁objeví	-9.79319
▁80	-9.79322
man	-9.79335
▁ředitele	-9.79418
▁typ	-9.79487
ROM	-9.795
▁Firma	-9.79551
▁Zeman	-9.79622
nosti	-9.79634
▁původně	-9.79635
dy	-9.79657
▁cílem	-9.79668
▁amerických	-9.7969
▁projekt	-9.79722
▁schopn	-9.79894
▁byt	-9.79988
▁následující	-9.80007
▁olympijský	-9.80261
▁prostoru	-9.80277
▁žen	-9.80358
▁udělat	-9.80444
▁sněmovny	-9.8048
ob	-9.80534
▁vhodné	-9.80587
dí	-9.80603
ců	-9.80653
▁kulturní	-9.80677
značně	-9.80818
▁počítač	-9.8102
▁republik	-9.81066
▁dlouhé	-9.81117
ev	-9.81133
▁lékaře	-9.81265
▁důvod	-9.81271
▁těmi	-9.8129
▁zisku	-9.81313
▁růstu	-9.8136
▁technologie	-9.8147
▁patrně	-9.81655
▁informační	-9.8166
▁čísla	-9.8166
▁brzy	-9.8166
▁hovoří	-9.81675
▁obrany	-9.81737
▁SR	-9.81836
▁Miloš	-9.81843
▁ústavu	-9.81914
▁rokem	-9.81931
tá	-9.82122
▁obraz	-9.82164
▁veřejnosti	-9.82186
▁vědecké	-9.82311
▁pravda	-9.8243
▁ES	-9.82478
▁vodní	-9.82822
raději	-9.82905
▁většinu	-9.8291
▁jinde	-9.8291
▁péče	-9.8291
▁začne	-9.82914
viz	-9.82918
▁dovolenou	-9.82955
▁vládě	-9.82981
▁úspěch	-9.83097
▁prací	-9.83118
▁denně	-9.83119
▁data	-9.83124
▁čem	-9.83155
▁prodej	-9.83264
▁stala	-9.83293
▁slovo	-9.83323
▁takovou	-9.83398
▁výrobce	-9.83461
▁vzájemn	-9.83678
▁vědět	-9.83684
▁národního	-9.83722
▁17	-9.83791
ice	-9.83852
▁nejbližší	-9.83983
▁Ma	-9.84093
▁aplikace	-9.84104
▁jisté	-9.84161
▁pozadí	-9.84176
▁látky	-9.84177
▁pokračovat	-9.84181
íky	-9.84206
▁sluneční	-9.84216
▁potřebné	-9.84523
▁stalo	-9.84741
▁procesu	-9.84786
▁zranění	-9.84813
do	-9.85011
▁Ko	-9.85078
str	-9.85149
br	-9.852
▁dosáhl	-9.85243
▁budoucí	-9.85388
▁nebyly	-9.85426
▁UEFA	-9.85458
▁demokracie	-9.85458
▁označil	-9.85458
▁televizi	-9.85458
▁oficiální	-9.85458
▁Havel	-9.85459
▁nijak	-9.85463
sti	-9.85468
▁nemohou	-9.8547
▁ukazuje	-9.85478
▁okamžitě	-9.8548
▁hodnocení	-9.85488
▁zabývá	-9.85549
▁Spojený	-9.85569
▁míru	-9.85647
▁naprosto	-9.857
▁starší	-9.85712
▁cesty	-9.85746
▁plné	-9.85802
▁určen	-9.85817
▁bezpečnosti	-9.85842
▁Pře	-9.85917
▁vzniku	-9.86033
▁Nové	-9.86051
▁body	-9.86108
▁odborné	-9.86223
▁dát	-9.86339
třech	-9.86391
▁výběr	-9.86593
▁trvá	-9.86656
▁řečeno	-9.86757
▁majetek	-9.86758
▁počasí	-9.86758
▁svaz	-9.86792
▁členové	-9.86802
▁vládu	-9.86942
▁kanceláře	-9.86966
8	-9.86966
▁potřeby	-9.86974
▁ČSSD	-9.87075
ol	-9.87093
▁zákony	-9.87256
▁vyhrál	-9.8733
▁řady	-9.87337
▁lékaři	-9.87351
▁rozšíření	-9.87416
▁systémů	-9.8758
▁lidský	-9.8761
ali	-9.87654
▁Nový	-9.87711
mj	-9.87718
▁Měl	-9.88008
▁nějaký	-9.88009
▁vývoje	-9.88031
▁hranice	-9.8805
▁názvem	-9.88072
▁onemocnění	-9.88072
▁rozhodně	-9.88074
▁vojenské	-9.88076
▁příjmy	-9.88092
▁2000	-9.88094
▁lidem	-9.88108
▁ekonomiky	-9.88125
▁500	-9.88136
▁dosáhnout	-9.88149
F	-9.88154
▁téma	-9.88226
▁požadavky	-9.88236
▁neza	-9.88237
▁Slovensku	-9.8826
▁podobný	-9.88265
H	-9.88391
▁smysl	-9.88498
CH	-9.8872
▁počátku	-9.8898
▁přístupu	-9.89015
▁dokáže	-9.89393
▁konference	-9.89406
▁televize	-9.89406
▁ligy	-9.89407
▁policejní	-9.8941
▁vánoční	-9.89418
▁třicet	-9.89523
▁roční	-9.89524
▁Státní	-9.89525
▁jednak	-9.89529
▁řekla	-9.89563
▁mechaniky	-9.89604
▁hlavního	-9.89635
▁300	-9.89774
▁trestní	-9.89826
▁Čech	-9.89871
▁celém	-9.89885
nout	-9.90009
▁výsledků	-9.90039
aci	-9.90103
čky	-9.90137
▁Tu	-9.90148
▁společného	-9.90271
▁pole	-9.90277
▁prodeje	-9.90408
▁dostat	-9.90637
▁poskytuje	-9.90757
▁vnitra	-9.90758
▁velká	-9.90759
▁Prezident	-9.9076
▁parlamentní	-9.90763
▁Československu	-9.9078
vol	-9.90838
▁nechal	-9.9089
▁osmi	-9.90905
▁lékař	-9.90914
▁škody	-9.90928
brž	-9.90944
▁druhá	-9.91077
▁rychlostí	-9.91095
▁nová	-9.91214
▁Velké	-9.91234
▁proces	-9.91276
▁závěru	-9.9131
▁souboru	-9.91356
▁druhu	-9.91363
▁závod	-9.91409
▁termín	-9.91419
▁PowerPoint	-9.91475
▁výrobní	-9.91497
▁řad	-9.91609
▁disk	-9.91652
▁skončil	-9.9167
▁majitel	-9.91727
▁obchod	-9.91749
▁zákonů	-9.92006
▁dní	-9.92044
▁19	-9.92091
▁druhého	-9.92095
▁zemědělství	-9.92127
▁látek	-9.92128
▁najít	-9.92138
▁měsících	-9.92142
▁Čechách	-9.92155
▁desítky	-9.9216
▁Atlantě	-9.92169
▁správy	-9.92193
▁dopravní	-9.92196
pe	-9.92232
vý	-9.92248
▁zákoníku	-9.92285
▁jinou	-9.92321
▁vydání	-9.92324
▁město	-9.92356
▁měsíc	-9.92387
méně	-9.92494
šlo	-9.92498
Í	-9.92502
ostí	-9.92577
id	-9.92812
▁výběru	-9.92815
▁čele	-9.92865
▁70	-9.92886
▁výbor	-9.92932
▁takového	-9.92963
▁rozhodl	-9.93049
▁rada	-9.93178
▁dvaceti	-9.93301
ran	-9.93332
▁Francie	-9.93516
▁schopen	-9.93516
▁nabídku	-9.93516
▁ustanovení	-9.93517
▁snímků	-9.93517
▁uplatnění	-9.93571
dávají	-9.93588
▁ráno	-9.93599
▁evropské	-9.93652
▁státech	-9.93717
op	-9.93808
vy	-9.93876
▁začali	-9.93929
▁přijde	-9.94093
▁soukromé	-9.94257
vr	-9.94288
▁změna	-9.94376
▁nim	-9.94532
▁oblast	-9.94678
NÍ	-9.94774
▁stanice	-9.94892
▁seznamu	-9.94894
▁těžké	-9.94924
▁využít	-9.94924
▁rozpočet	-9.94931
▁hodlá	-9.94931
▁školství	-9.94931
▁působení	-9.94943
▁zajistit	-9.94947
▁přijetí	-9.94958
▁tentokrát	-9.94967
▁převážně	-9.95003
▁dalšího	-9.95065
▁pořadí	-9.95124
▁částky	-9.95127
▁pokus	-9.95129
▁vysokou	-9.95142
▁okamžiku	-9.95144
▁Takže	-9.95158
▁jiná	-9.95171
ovaných	-9.95195
▁vyplývá	-9.95257
▁chybí	-9.95266
▁minulé	-9.95359
tím	-9.95557
▁využití	-9.95671
▁chtěli	-9.95831
▁odmítl	-9.95891
▁obrat	-9.95924
kách	-9.95975
▁názory	-9.95992
ace	-9.95998
▁nesmí	-9.96147
▁ceně	-9.96195
ant	-9.96218
hr	-9.96221
▁Přes	-9.96242
▁Její	-9.96246
▁předpokládá	-9.96278
pro	-9.96295
▁on	-9.96307
▁spolupráce	-9.96353
▁nejrůznější	-9.96353
▁Mezinárodní	-9.96361
▁směrem	-9.96411
▁místech	-9.96418
▁povolení	-9.9642
▁údajů	-9.9643
▁cestou	-9.96556
▁Cen	-9.96564
▁nejde	-9.96591
fi	-9.96615
▁máte	-9.96721
▁bohužel	-9.96844
▁družstva	-9.96844
▁němu	-9.96888
▁nes	-9.9697
▁stane	-9.97105
▁Li	-9.97123
▁nez	-9.97142
▁výzkumu	-9.97166
lou	-9.97197
▁Ke	-9.97279
▁systémy	-9.97396
▁potřebuje	-9.97516
▁nedo	-9.97554
▁uvedla	-9.97573
▁druh	-9.97711
▁jednat	-9.97746
▁jestli	-9.97767
▁vznik	-9.97781
▁pondělí	-9.97802
▁prezentaci	-9.97802
▁ohledu	-9.97816
▁armády	-9.97851
▁pravidelně	-9.97859
ing	-9.97865
▁vyslovil	-9.97867
▁předtím	-9.97898
▁smluvní	-9.97951
▁vědy	-9.98189
ed	-9.98193
▁připraven	-9.98223
▁případů	-9.98239
▁dodává	-9.98282
▁veřejnost	-9.98365
len	-9.98406
▁vztahy	-9.9856
▁tiskové	-9.98634
▁podnikatel	-9.98768
▁změnu	-9.98852
ovala	-9.98962
▁taková	-9.98995
▁soubor	-9.99018
▁získá	-9.99085
▁dostane	-9.99164
▁konferenci	-9.99273
▁podmínkách	-9.99273
▁úrovně	-9.99273
▁spoust	-9.99275
▁radnice	-9.99275
▁června	-9.99277
▁příjmů	-9.99278
▁Poslední	-9.99282
▁výjimkou	-9.99316
▁politiku	-9.99357
▁částku	-9.9944
▁rodiny	-9.99521
▁směru	-9.99584
▁severní	-9.99623
▁důležitý	-9.99694
▁padesát	-9.99704
pa	-9.99743
▁HIV	-9.99779
▁neměl	-9.99832
▁vztahu	-10.0006
▁podnikatelů	-10.002
án	-10.0023
▁speciální	-10.0026
▁museli	-10.0028
▁pokles	-10.0028
▁hráče	-10.0036
ul	-10.0038
▁Naše	-10.0039
▁jakým	-10.0046
▁vstup	-10.0062
▁%.	-10.0067
▁Jedna	-10.007
▁konkurence	-10.0072
▁volné	-10.0072
▁řešit	-10.0074
▁války	-10.0077
▁většině	-10.0077
▁účetnictví	-10.0077
▁Současn	-10.0077
▁moře	-10.0079
▁jednoznačně	-10.0087
▁aliance	-10.0088
▁hráč	-10.0105
▁aktivity	-10.0105
▁skupině	-10.0111
▁žádn	-10.0114
▁hodnotu	-10.0118
▁povinnost	-10.012
▁Mám	-10.0128
uto	-10.0143
▁polovinu	-10.016
▁přírodní	-10.0167
▁bezpečnostní	-10.0171
▁Aby	-10.0174
▁Rusko	-10.0178
▁hraje	-10.0186
▁Václava	-10.0187
▁nově	-10.0197
▁akci	-10.0199
ák	-10.0203
▁90	-10.0208
▁většiny	-10.0228
▁politice	-10.0228
▁začít	-10.0228
▁řád	-10.0229
▁vždycky	-10.0229
▁pořádku	-10.0231
▁ODA	-10.0235
▁nemocnice	-10.0236
▁Jenže	-10.0238
▁individuální	-10.0239
▁člen	-10.0241
▁centra	-10.0241
▁třemi	-10.0241
▁pracovníci	-10.0242
▁univerzity	-10.0247
▁předsedy	-10.026
▁LN	-10.0263
▁Německo	-10.0263
▁budoucnosti	-10.0281
▁německé	-10.0292
▁životě	-10.0297
▁paní	-10.03
▁22	-10.0308
▁Kdyby	-10.0313
▁koupit	-10.0319
▁snížení	-10.0321
rt	-10.0325
▁týká	-10.0332
▁jím	-10.0342
▁čase	-10.035
▁Re	-10.0374
ga	-10.0376
pr	-10.0378
▁AIDS	-10.0382
▁Británie	-10.0382
▁srpna	-10.0382
▁obyvatelstva	-10.0382
▁Možná	-10.0386
▁předchozí	-10.0387
▁hlasů	-10.0389
▁Vždyť	-10.039
▁Cel	-10.0394
▁objevil	-10.0396
▁důsledku	-10.0404
▁složení	-10.0409
▁miliony	-10.0412
▁plyn	-10.0427
▁vzdělání	-10.0435
▁takových	-10.0439
▁úřady	-10.0473
▁vaše	-10.0477
ároveň	-10.0499
▁výkonu	-10.05
vnitř	-10.0504
▁používá	-10.0508
▁banka	-10.0509
▁400	-10.0509
▁státních	-10.0514
▁místopředsed	-10.0519
▁projektu	-10.0527
▁35	-10.0537
▁očekávat	-10.0538
▁silniční	-10.0538
▁buněk	-10.0538
▁zdalek	-10.0541
J	-10.0544
▁kvalitu	-10.0544
▁uspořádání	-10.0548
▁příštím	-10.0548
▁Martin	-10.055
▁ni	-10.0552
▁dochází	-10.0553
▁myslím	-10.0558
▁průměru	-10.0565
▁21	-10.0571
▁auto	-10.0575
▁počítačů	-10.0575
▁chceme	-10.0575
▁premiéra	-10.0596
▁New	-10.0596
▁jiným	-10.0598
▁John	-10.0603
▁povinnosti	-10.0604
▁jejího	-10.0614
▁neu	-10.0614
▁funkcí	-10.0621
▁hudební	-10.0623
▁demokratické	-10.0626
▁Pan	-10.0626
▁La	-10.0628
▁stroje	-10.0634
▁muži	-10.0634
▁obcí	-10.0635
▁technické	-10.0649
▁měsíční	-10.0653
▁síť	-10.0662
▁verze	-10.0664
nými	-10.0666
▁OS	-10.0666
▁částí	-10.0674
▁závěr	-10.0683
▁konec	-10.0686
▁piva	-10.0694
▁přírody	-10.0697
▁zřejmé	-10.0697
▁Karel	-10.0697
▁marek	-10.0697
▁článku	-10.0698
▁název	-10.0698
▁okresní	-10.07
▁úvahu	-10.0701
▁občas	-10.0702
▁vyžaduje	-10.0708
▁jaderné	-10.0709
▁odborníků	-10.0711
▁agentury	-10.0715
▁bank	-10.0715
▁privatizaci	-10.0717
▁programy	-10.0718
▁150	-10.0724
G	-10.0726
▁Oba	-10.0728
budete	-10.074
▁kolo	-10.0741
▁Mar	-10.0766
▁mění	-10.0766
▁hlavních	-10.0768
ček	-10.0768
▁kola	-10.0771
▁sovětské	-10.0779
▁budu	-10.0784
▁poslanec	-10.0788
▁příštího	-10.08
▁relativn	-10.0805
pra	-10.0815
▁4.	-10.0821
vo	-10.0824
nit	-10.084
▁nepro	-10.084
▁vývoji	-10.084
▁dvanáct	-10.0842
▁Pod	-10.0858
▁jména	-10.0858
▁věnovat	-10.0858
▁historii	-10.0858
▁válce	-10.0858
▁Myslím	-10.0859
▁vaší	-10.0861
▁vyjádřil	-10.0866
▁zákaz	-10.0869
▁liší	-10.0869
▁politika	-10.0871
▁vývoz	-10.0879
▁režimu	-10.09
▁hotelu	-10.0903
hal	-10.0906
▁změně	-10.0909
▁druhy	-10.0924
▁Škoda	-10.0925
▁programů	-10.0937
▁Miroslav	-10.095
▁výrobců	-10.095
▁Č	-10.0951
▁Roz	-10.0954
▁nákup	-10.0956
▁titul	-10.0958
▁daňové	-10.0962
▁Společnost	-10.0963
▁soutěž	-10.0968
nik	-10.0978
▁Ú	-10.0995
▁bytu	-10.1006
▁aktivní	-10.1015
ěkteří	-10.1022
▁považován	-10.1022
▁1995	-10.1022
▁stranu	-10.1027
▁Základní	-10.1028
▁smlouva	-10.1029
▁pocit	-10.1033
ovací	-10.1038
▁mechanika	-10.1042
alo	-10.1042
▁vzor	-10.1043
▁autor	-10.1054
▁typů	-10.1055
ven	-10.1055
▁hranici	-10.1058
▁jednoduché	-10.1061
▁zůstane	-10.1066
▁roste	-10.1072
▁družstev	-10.1072
▁abych	-10.1082
▁veškeré	-10.1082
▁skutečné	-10.1088
▁Stál	-10.1099
▁typy	-10.1104
▁potvrdil	-10.1108
▁sta	-10.1113
▁počítat	-10.1124
▁zákazníků	-10.1129
ver	-10.1133
▁lékařů	-10.1134
gr	-10.1141
rad	-10.1156
▁podnikatelské	-10.1158
▁Že	-10.1164
▁Hlavní	-10.1178
▁svému	-10.1178
▁kláves	-10.1188
▁úterý	-10.1189
▁Lidé	-10.1189
▁Letos	-10.1189
▁šance	-10.1189
▁lednu	-10.119
▁někdejší	-10.119
vin	-10.119
▁globální	-10.1191
▁ruce	-10.1192
▁jestliže	-10.1195
▁dům	-10.1198
▁My	-10.1199
▁set	-10.12
▁profesionální	-10.1202
▁hledání	-10.1211
▁získala	-10.1211
▁pořád	-10.1212
▁oblastí	-10.1221
▁kapitálu	-10.1227
▁značné	-10.1229
ic	-10.1237
▁devět	-10.1244
▁vrátit	-10.1248
nice	-10.1252
▁dob	-10.126
▁problémem	-10.1265
▁96	-10.129
▁uvedené	-10.129
jící	-10.1291
SK	-10.1291
▁stejný	-10.1292
▁tvrzení	-10.1296
▁re	-10.131
▁Ba	-10.1317
▁vznikla	-10.1327
řka	-10.1336
▁soutěži	-10.1341
▁třetím	-10.1343
▁připravuje	-10.135
▁poměr	-10.1352
▁Chce	-10.1354
▁včerejší	-10.1357
▁Zákon	-10.1357
▁používat	-10.1358
▁verzi	-10.1358
▁potíže	-10.1358
▁vystoupení	-10.1359
▁tabulky	-10.136
▁mzdy	-10.1361
▁nejdříve	-10.1362
▁časem	-10.1363
▁shromáždění	-10.1363
▁zvlášť	-10.1367
▁3.	-10.1367
▁novým	-10.1367
▁někter	-10.137
▁známé	-10.137
▁nedá	-10.1371
▁odpověď	-10.1373
▁rozdělení	-10.1375
inak	-10.1376
▁najednou	-10.1377
/2	-10.1379
ník	-10.1391
▁označení	-10.1399
▁vztahů	-10.1404
▁zprávu	-10.1414
▁členství	-10.1417
▁sportovní	-10.1419
zn	-10.1423
▁silné	-10.1425
▁jakou	-10.1439
▁počítači	-10.1444
▁existují	-10.1445
▁centru	-10.1472
▁23	-10.1475
▁oznámil	-10.1482
▁soudí	-10.149
▁tlačítko	-10.1493
cen	-10.1494
▁plán	-10.1502
▁nechce	-10.1515
dostatečně	-10.1518
▁Ná	-10.1522
ována	-10.1525
▁hra	-10.1528
▁hospodaření	-10.1531
▁zaměstnanci	-10.1531
▁Nicméně	-10.1531
▁výrobci	-10.1531
▁mil	-10.1531
▁odpadů	-10.1533
ejte	-10.1542
▁pozici	-10.1546
▁soukromých	-10.1546
▁dané	-10.1546
▁0	-10.1549
▁odpovídající	-10.1549
ální	-10.1554
▁Československa	-10.1556
▁respekt	-10.1558
▁soudní	-10.1561
▁pohybu	-10.1563
▁díla	-10.1573
▁MB	-10.1588
kové	-10.159
▁občanské	-10.1593
▁poměru	-10.1597
▁vnější	-10.1599
▁Národní	-10.1608
▁disku	-10.1611
▁velikost	-10.1615
▁schopnost	-10.1625
▁týdne	-10.1632
ován	-10.164
▁podepsal	-10.1643
▁Františ	-10.1651
▁zajímavé	-10.1658
▁pojistné	-10.166
▁spočívá	-10.1665
▁získali	-10.1665
bor	-10.1676
tní	-10.168
dostala	-10.1687
▁přechod	-10.1698
▁zaplatí	-10.1698
ily	-10.1703
▁hledat	-10.1707
▁prvků	-10.1707
▁Dále	-10.1707
▁Pohár	-10.1707
▁DNA	-10.1708
▁firmu	-10.1709
▁mozku	-10.1711
▁půdě	-10.1712
▁mnozí	-10.1714
▁letošním	-10.1715
▁Sb	-10.1727
▁Nová	-10.173
▁teploty	-10.173
▁poháru	-10.173
▁sedmi	-10.1731
▁zemědělské	-10.1736
▁metody	-10.1743
▁neví	-10.1745
sk	-10.1754
▁nárok	-10.1762
▁ochranu	-10.1765
▁stanoven	-10.1775
▁Největší	-10.1777
▁napsal	-10.1779
▁zvolen	-10.1783
bal	-10.1784
▁měnit	-10.1784
rovna	-10.1793
ící	-10.1795
▁účasti	-10.1801
▁základ	-10.1802
▁hrozí	-10.1807
▁tradiční	-10.1809
▁zemřel	-10.1811
▁tajemství	-10.1812
▁poznání	-10.1818
▁plat	-10.1819
▁republika	-10.182
▁budoucnost	-10.1822
▁posledním	-10.1834
▁výraz	-10.1838
▁NA	-10.1841
▁materiál	-10.1842
▁Vše	-10.1856
▁déle	-10.188
▁zůstat	-10.188
▁žije	-10.1882
▁pohledu	-10.1882
▁snah	-10.1883
▁natolik	-10.1885
▁rodiče	-10.1885
▁zdůraznil	-10.1885
▁podpory	-10.1885
▁tudíž	-10.1885
▁reprezentace	-10.1885
▁výrobě	-10.1887
▁částečně	-10.1888
▁Poté	-10.1893
▁centrální	-10.1896
▁vytváření	-10.1898
▁karty	-10.1899
▁významné	-10.1899
▁dílo	-10.19
▁vlastností	-10.19
▁vzájemné	-10.1903
▁Existuj	-10.1907
▁Československo	-10.1909
▁seznam	-10.1913
▁dalšími	-10.1914
▁slouží	-10.1916
▁zavedení	-10.1916
▁dávno	-10.1921
▁jaderný	-10.193
▁efekt	-10.193
pis	-10.1936
▁aplikací	-10.1946
▁výroba	-10.1955
▁rekord	-10.1968
lit	-10.1969
▁těžký	-10.1974
▁obrazu	-10.1979
▁záležitost	-10.198
▁důvodu	-10.198
▁musím	-10.198
ního	-10.1982
▁lidské	-10.1988
▁start	-10.1991
▁patnáct	-10.1992
kami	-10.1996
ací	-10.2008
ina	-10.2013
▁úřadů	-10.2017
▁slovenské	-10.202
▁leží	-10.2024
▁riziko	-10.2024
rn	-10.2028
▁společný	-10.203
▁včas	-10.2031
EL	-10.2065
▁brněnské	-10.2065
▁připojištění	-10.2066
▁kvalifikaci	-10.2067
▁pomalu	-10.2067
▁neexistuje	-10.2067
▁česká	-10.2067
▁připomíná	-10.2067
▁odpoledne	-10.2069
▁oblastech	-10.2072
▁Dva	-10.2077
▁svědčí	-10.208
▁Tři	-10.2081
▁materiálů	-10.2087
▁mně	-10.2089
▁odboru	-10.2094
▁ztráty	-10.2095
ží	-10.2096
▁mnohé	-10.2098
▁dohodu	-10.2099
▁Slovenska	-10.2103
ková	-10.2108
▁Musí	-10.2127
hn	-10.2136
▁poloviny	-10.2159
▁teplo	-10.2159
šel	-10.2161
▁potřeba	-10.2163
7	-10.2167
ovými	-10.2169
▁rádi	-10.2169
▁technický	-10.2175
▁nabízejí	-10.2177
▁nutno	-10.2182
▁měst	-10.2183
▁loňském	-10.2186
▁zásadní	-10.2187
▁přístroje	-10.219
▁zahájení	-10.2195
▁představ	-10.2195
CE	-10.22
▁autorů	-10.2201
▁Ústav	-10.2211
▁nejvíc	-10.2217
▁příklad	-10.2222
▁tajemník	-10.2227
▁končí	-10.2238
▁očekává	-10.2242
▁vánoce	-10.2243
▁Itálie	-10.2252
▁Ovšem	-10.2252
▁Program	-10.2252
▁stránce	-10.2252
▁praxe	-10.2252
▁minimální	-10.2252
▁desítek	-10.2252
▁vybrat	-10.2254
▁Ministr	-10.2254
▁Ostravě	-10.2255
▁nicméně	-10.2255
▁neustále	-10.2255
▁vyjádření	-10.2262
▁zdejší	-10.2262
ot	-10.2262
▁soustavy	-10.2262
▁dodnes	-10.2266
▁zvířat	-10.2278
▁rozhovoru	-10.228
▁programové	-10.228
▁problému	-10.2284
▁určitou	-10.2287
sta	-10.2289
▁ústavní	-10.2293
▁standardní	-10.2298
▁staré	-10.23
▁takovém	-10.2304
▁nepři	-10.2316
▁italské	-10.2317
del	-10.2325
▁vývozu	-10.2327
▁současn	-10.2328
▁řádu	-10.2333
▁váš	-10.234
▁závodu	-10.2341
▁molekul	-10.2341
▁Ch	-10.2344
▁Ro	-10.2359
pat	-10.236
▁čisté	-10.2369
▁malá	-10.2374
▁mimořádn	-10.2381
▁dělá	-10.2382
RA	-10.2391
▁žena	-10.2399
▁Někd	-10.2403
▁znám	-10.241
▁telefon	-10.2413
▁filmu	-10.243
▁úkol	-10.2431
ad	-10.244
▁Všichni	-10.244
▁náměstek	-10.244
▁špatně	-10.244
▁Naopak	-10.244
▁Snad	-10.244
▁jediná	-10.244
▁poptávky	-10.2441
▁odborníci	-10.2441
▁zaměstnance	-10.2441
▁okna	-10.2441
▁poslance	-10.2441
rak	-10.2442
▁potřebují	-10.2443
▁nemohl	-10.2443
▁KSČM	-10.2443
▁koncentrace	-10.2445
▁vychází	-10.2447
▁měření	-10.2448
▁stovky	-10.2451
▁samo	-10.2452
▁těsně	-10.2453
▁produktů	-10.2454
▁manažer	-10.2454
▁současný	-10.2457
rod	-10.246
▁liber	-10.2467
▁záležitostí	-10.2469
▁zrušení	-10.2472
▁automaticky	-10.2472
▁vzduchu	-10.2475
▁rozsahu	-10.2488
hu	-10.2508
též	-10.2511
▁neměli	-10.252
▁přesvědčen	-10.2525
▁19.	-10.2529
▁jedná	-10.253
▁činností	-10.2538
▁úspěchu	-10.2539
ur	-10.2547
ač	-10.2552
▁objem	-10.2553
▁zákonem	-10.2554
sko	-10.2562
▁oni	-10.2562
▁diváků	-10.2565
▁studentů	-10.2568
ané	-10.257
▁pravé	-10.2571
▁Evropa	-10.2572
▁papír	-10.2581
hled	-10.2581
ovaný	-10.2589
▁příslušné	-10.2597
ilo	-10.2601
▁Zdá	-10.2619
▁rozvoje	-10.262
▁rozhodne	-10.2624
▁Každ	-10.2624
▁boj	-10.2624
▁ochran	-10.2626
▁Velk	-10.2631
▁paměti	-10.2633
▁Ředitel	-10.2633
▁historie	-10.2633
▁věnoval	-10.2633
▁bydlení	-10.2633
▁pojetí	-10.2633
▁investovat	-10.2634
▁lidmi	-10.2635
▁dodávky	-10.2635
bavit	-10.2635
▁krátce	-10.2635
▁pohybuje	-10.2636
▁12.	-10.2637
jet	-10.2642
▁návrhy	-10.2645
▁trest	-10.2647
HO	-10.2648
▁úvěr	-10.2648
▁šampionátu	-10.2649
▁dostává	-10.2649
▁mladé	-10.2653
▁domě	-10.2654
tud	-10.2659
▁daň	-10.2659
▁provedení	-10.266
▁normální	-10.2665
▁omezení	-10.2665
▁muže	-10.2675
▁cesta	-10.2683
▁domácím	-10.2685
čet	-10.2686
▁obecní	-10.2688
▁Br	-10.2689
ič	-10.2689
▁čtení	-10.2696
mého	-10.27
▁materiálu	-10.2703
▁určit	-10.2716
▁vítěz	-10.2719
raz	-10.2723
▁rychlosti	-10.2744
▁vést	-10.2744
▁jinými	-10.275
čka	-10.2754
th	-10.2755
▁prospěch	-10.2759
▁Čí	-10.2768
mat	-10.2775
ú	-10.2784
▁koncert	-10.2787
▁km	-10.2789
ovaly	-10.2792
▁9	-10.2797
▁daní	-10.2801
▁Zá	-10.2802
fr	-10.2806
var	-10.2822
▁studie	-10.2827
▁Především	-10.2829
▁Richard	-10.2829
▁snížit	-10.2829
▁umožní	-10.2829
▁úsilí	-10.2829
▁minimálně	-10.2829
▁míře	-10.2829
▁doslova	-10.2829
▁měsíčně	-10.2829
▁pravdu	-10.2829
▁Češi	-10.2829
▁snímky	-10.283
▁Spojené	-10.283
▁celek	-10.2832
▁zvýšit	-10.2832
▁policistů	-10.2833
▁zobrazení	-10.2838
▁myší	-10.2839
▁tvorbu	-10.284
▁poškození	-10.2841
▁okolností	-10.2842
▁pozice	-10.2842
▁obecně	-10.2842
bou	-10.2845
▁mistrů	-10.2848
▁cestě	-10.2848
▁odpadní	-10.2851
▁elektrárny	-10.2853
▁akcie	-10.2855
▁třídy	-10.2861
▁různým	-10.2863
▁povrchu	-10.287
▁festivalu	-10.2874
▁žádná	-10.2874
▁žádném	-10.2875
▁nemoci	-10.2878
lze	-10.2878
▁cm	-10.2903
▁domácích	-10.2905
▁centrum	-10.2908
▁vzniká	-10.291
▁poklesu	-10.2916
ujeme	-10.2919
▁nechat	-10.2922
▁PowerPointu	-10.2923
▁Evropsk	-10.2929
▁hodinu	-10.2939
▁známo	-10.2944
▁skupinu	-10.2945
▁jediné	-10.2945
čtí	-10.2947
ném	-10.2948
▁správně	-10.2951
▁znát	-10.2954
▁uvedený	-10.2961
▁dějin	-10.2967
▁jaká	-10.2967
▁FS	-10.2967
▁polovina	-10.2986
▁zpráv	-10.2986
▁Ob	-10.2992
▁Federální	-10.2997
▁zahájil	-10.3002
hy	-10.3003
▁radost	-10.3004
směs	-10.301
▁Tam	-10.3014
▁hospodářsk	-10.3021
▁tvář	-10.3024
▁Samozřejmě	-10.3029
▁divadla	-10.3029
▁pojišťovny	-10.3029
▁rozhodování	-10.3029
▁ČNR	-10.3029
▁nabídka	-10.3029
▁širší	-10.3029
▁půjde	-10.3029
▁konkurenční	-10.303
▁myšlení	-10.3033
▁výskyt	-10.3035
▁nebyli	-10.3038
▁půdy	-10.3043
▁armáda	-10.3044
▁vrátil	-10.3044
▁představení	-10.3045
▁sdělení	-10.3046
▁nezávislých	-10.3055
▁výdaje	-10.3064
▁podnikatelé	-10.3065
▁Tr	-10.3075
▁postoj	-10.3077
▁úpravy	-10.3079
▁zákazníky	-10.3079
ském	-10.3084
▁vysokých	-10.3087
▁námi	-10.3094
nk	-10.3099
as	-10.3108
▁existence	-10.3118
▁britské	-10.3118
pětí	-10.3134
jak	-10.314
ických	-10.3146
▁přední	-10.3152
▁organizací	-10.3157
▁akcí	-10.3159
▁hlasování	-10.3164
▁paragraf	-10.3171
▁zpráva	-10.3172
há	-10.3174
ovo	-10.318
nil	-10.3184
▁17.	-10.319
▁maximáln	-10.3194
▁voda	-10.3209
▁Slovensko	-10.3209
▁pořad	-10.321
▁II	-10.3213
ive	-10.3217
▁letní	-10.3225
Š	-10.323
▁příslušný	-10.3233
▁Němci	-10.3233
▁církve	-10.3233
▁nízké	-10.3233
▁odmítá	-10.3233
▁týdny	-10.3233
▁zapotřebí	-10.3233
▁přišla	-10.3233
▁usnesení	-10.3233
▁Teď	-10.3233
▁privatizační	-10.3233
▁létě	-10.3233
▁1988	-10.3233
ig	-10.3233
▁občan	-10.3235
▁StB	-10.3235
▁správné	-10.3243
▁souhlas	-10.3245
▁zájmy	-10.3246
▁prodejní	-10.3247
níci	-10.3248
▁mluví	-10.3248
▁automobilů	-10.3249
▁děje	-10.3249
▁ú	-10.325
▁stejn	-10.3251
▁obce	-10.3255
▁porušení	-10.3256
▁ruský	-10.3257
▁mladých	-10.3258
▁původu	-10.3261
▁důsledky	-10.3261
ovu	-10.3279
▁Internetu	-10.3281
▁žijící	-10.3282
▁Ano	-10.329
▁představy	-10.3298
▁reprezentant	-10.33
▁lidského	-10.3304
▁velikosti	-10.3307
▁německého	-10.3315
nt	-10.3318
▁částka	-10.3319
▁škola	-10.3322
▁myslí	-10.3326
▁běžný	-10.3332
▁hvězd	-10.3333
▁Sovětské	-10.3336
▁smrt	-10.3339
▁Te	-10.3345
▁barevné	-10.3347
▁bezpečnost	-10.3353
Sc	-10.3355
▁vůle	-10.3355
EN	-10.3361
▁rozhodla	-10.337
▁pacientů	-10.3377
▁vědomí	-10.3378
▁zmíněné	-10.3379
▁řídí	-10.3393
▁vyspělý	-10.3394
▁Ku	-10.3396
▁byty	-10.34
▁Tomáš	-10.3407
▁pozitivní	-10.3409
▁Asi	-10.3415
▁uveden	-10.3422
▁Moskvě	-10.3441
▁Třetí	-10.3441
▁vynikající	-10.3441
▁štěstí	-10.3441
▁Francii	-10.3441
▁populace	-10.3441
▁ihned	-10.3441
▁technologií	-10.3441
▁spotřební	-10.3441
▁mužstva	-10.3441
▁mluvit	-10.3442
▁Pomuku	-10.3442
ber	-10.3442
▁firmou	-10.3443
▁obětí	-10.3443
▁vlastním	-10.3443
▁zvyšuje	-10.3444
▁Dr	-10.3447
▁těla	-10.3448
▁dovolené	-10.3451
▁Proti	-10.3452
▁Více	-10.3453
▁obavy	-10.3453
▁úmrtnosti	-10.3454
▁nemocnici	-10.3457
▁zastoupení	-10.3459
▁Avšak	-10.3461
and	-10.3467
▁příprav	-10.3469
▁Předseda	-10.3475
▁Jižní	-10.348
Č	-10.348
▁pracovník	-10.3485
▁úspor	-10.3486
čin	-10.3487
▁Druhý	-10.3488
▁lesní	-10.3489
▁ryb	-10.3489
▁příkaz	-10.3499
▁ročníku	-10.3506
▁míč	-10.3506
▁ba	-10.3515
▁Milan	-10.3516
▁německých	-10.3516
▁Česko	-10.3521
▁řeč	-10.3527
▁všeho	-10.3539
▁výhradn	-10.3543
▁tamní	-10.3545
vou	-10.355
▁osud	-10.355
▁vidí	-10.355
▁kroky	-10.3552
tal	-10.356
ická	-10.356
ovaná	-10.3565
▁nena	-10.357
▁spokojen	-10.3571
▁zdroj	-10.3576
▁odvětví	-10.3577
▁molekuly	-10.358
▁horší	-10.3583
▁studiu	-10.3585
EM	-10.3588
▁přichází	-10.3589
▁snaha	-10.359
▁určitý	-10.3595
▁Mo	-10.3596
▁600	-10.3596
ík	-10.3597
▁největším	-10.3602
▁školní	-10.3603
čení	-10.3605
▁představují	-10.3606
▁pa	-10.3606
▁celkový	-10.3606
něk	-10.3607
▁příštích	-10.361
▁placení	-10.3613
vést	-10.3619
▁dokument	-10.3621
▁Pr	-10.3626
▁osmdesát	-10.3628
▁postupu	-10.3631
▁pražském	-10.3631
nul	-10.3633
ským	-10.3634
dle	-10.364
▁tisk	-10.3643
▁lékařské	-10.3647
▁ex	-10.3651
▁budoucnu	-10.3654
▁civilní	-10.3654
▁konkurenci	-10.3654
▁nakladatelství	-10.3654
▁sledovat	-10.3654
▁transformace	-10.3654
▁zabránit	-10.3654
▁zlepšení	-10.3654
▁úmrtí	-10.3654
▁Slavie	-10.3654
▁souvisí	-10.3654
▁tehdejší	-10.3654
▁jedinou	-10.3654
▁operace	-10.3654
▁PCB	-10.3655
▁výsledkem	-10.3655
▁doktor	-10.3656
▁příjmu	-10.3658
▁rozhodnout	-10.3658
▁formou	-10.366
▁Vedle	-10.366
▁funkční	-10.3661
▁Vláda	-10.3662
▁zbytečné	-10.3663
ej	-10.3666
▁výhodné	-10.3667
▁zaplatit	-10.3667
▁nákladní	-10.3678
koliv	-10.3682
▁financování	-10.3683
▁prodat	-10.3684
▁americký	-10.3688
ovány	-10.3691
▁povinností	-10.3693
▁účely	-10.3693
▁partnery	-10.3701
▁produktu	-10.3703
▁noviny	-10.3704
▁účastní	-10.3705
▁starých	-10.3706
ář	-10.3707
▁příležitosti	-10.3712
▁řeči	-10.3719
▁koruny	-10.3719
▁přijal	-10.3721
ska	-10.3737
▁velkým	-10.3738
▁pracovníky	-10.374
ned	-10.3753
▁Ho	-10.3757
▁pražsk	-10.3758
▁napětí	-10.376
▁zápasy	-10.3768
▁zápasu	-10.378
KA	-10.3783
▁neměla	-10.3788
iny	-10.379
▁uzavření	-10.3807
▁kapalin	-10.3811
ita	-10.3811
▁dostali	-10.3814
▁rychlé	-10.3819
▁německý	-10.3819
▁kontrolu	-10.3827
SE	-10.3835
▁jasně	-10.3841
▁zůstal	-10.3843
sku	-10.3849
▁někde	-10.387
▁Ostatně	-10.3871
▁Sdružení	-10.3871
▁rekreační	-10.3871
▁krize	-10.3871
▁červnu	-10.3871
▁Bo	-10.3873
▁přiznání	-10.3874
▁udržet	-10.3874
▁sítí	-10.3876
▁porovnání	-10.3876
▁obrázek	-10.388
▁místnosti	-10.388
▁prodávat	-10.3883
▁Kde	-10.3885
▁Moravy	-10.389
▁neod	-10.3892
▁znalosti	-10.3892
▁strojů	-10.3893
▁všemi	-10.3893
▁začátkem	-10.3894
▁hodnotě	-10.3895
▁lesy	-10.39
▁trenéra	-10.39
▁Washingtonu	-10.3901
▁rozporu	-10.3902
▁zimní	-10.3903
▁Hor	-10.3911
▁dotaz	-10.3915
▁turnaje	-10.3918
▁Ačkoli	-10.3926
per	-10.3929
▁hodnota	-10.3939
ovém	-10.3939
▁nemáme	-10.394
ický	-10.3942
▁vedením	-10.3949
▁export	-10.3956
▁Ruska	-10.3959
▁hod	-10.396
▁nynější	-10.3972
▁operační	-10.3973
▁modelů	-10.3974
dali	-10.3978
▁barev	-10.398
▁spojené	-10.3992
▁cenný	-10.3995
▁použit	-10.3995
▁součást	-10.3998
▁případné	-10.3999
pana	-10.4
▁místy	-10.4001
▁spor	-10.4003
▁případu	-10.4004
▁obr	-10.4008
mile	-10.4009
▁slovy	-10.4011
▁jednotky	-10.4014
▁voličů	-10.4022
▁přináší	-10.4025
▁pražského	-10.4025
ala	-10.4025
▁porazil	-10.4041
▁záleží	-10.4047
osud	-10.4059
▁De	-10.4067
kupní	-10.4081
▁ano	-10.4083
▁pravidla	-10.4083
▁dítě	-10.4084
▁soupeře	-10.4087
▁Nebo	-10.4088
▁pobyt	-10.4089
▁Bratislavě	-10.4094
▁Návrh	-10.4094
▁nabídnout	-10.4094
▁otázce	-10.4094
▁týdnů	-10.4094
▁uskuteční	-10.4094
▁dovolit	-10.4094
▁podpora	-10.4094
▁péči	-10.4094
▁okno	-10.4094
▁nedostatek	-10.4094
▁nepodařilo	-10.4094
▁kategorie	-10.4094
▁Brno	-10.4095
▁Nakonec	-10.4096
▁připravit	-10.4097
▁návštěvě	-10.4097
▁prvky	-10.4097
▁buňky	-10.4099
▁stará	-10.4099
ště	-10.41
▁druhým	-10.4101
▁Podnik	-10.4104
▁jaterní	-10.4106
▁Evropský	-10.4106
▁věd	-10.4107
▁malou	-10.411
▁Pavl	-10.4112
▁domácnosti	-10.4113
▁stroj	-10.4113
▁všechn	-10.4113
▁dojde	-10.4114
▁osobně	-10.4116
▁získání	-10.4126
▁provést	-10.4126
eprve	-10.413
▁nezaměstnanosti	-10.4134
▁stanici	-10.4134
▁tlak	-10.4143
ster	-10.4153
▁stál	-10.4158
▁partnera	-10.417
▁charakter	-10.4174
▁chod	-10.4174
▁3000	-10.4177
▁vstupu	-10.4178
musela	-10.4186
▁nájemné	-10.4188
,5	-10.419
OV	-10.4192
▁filmů	-10.4201
▁postižené	-10.4204
nem	-10.4205
▁případy	-10.4216
dat	-10.422
▁státním	-10.4223
▁pracoval	-10.4234
▁sv	-10.4234
▁začalo	-10.4238
▁nese	-10.4239
▁regionální	-10.4244
sp	-10.4247
té	-10.4251
▁denní	-10.4254
:	-10.4264
▁stává	-10.4266
▁odpověděl	-10.4271
▁dřív	-10.4278
▁ochot	-10.4285
▁čtenář	-10.4286
▁ministrů	-10.4292
▁tenis	-10.4294
▁profesor	-10.4294
▁modelu	-10.4299
▁západních	-10.4308
stav	-10.431
éměř	-10.4315
mar	-10.4317
ment	-10.4318
▁Místo	-10.4319
▁Slunce	-10.4321
▁funguje	-10.4321
▁otázek	-10.4321
▁pojišťovna	-10.4321
▁rozhodovat	-10.4321
▁stáří	-10.4321
▁dlouhodobé	-10.4321
▁letadla	-10.4321
▁molekulární	-10.4321
▁žádá	-10.4321
▁operaci	-10.4321
▁aktuální	-10.4321
▁přání	-10.4322
▁SRN	-10.4323
▁vyšetřování	-10.4323
▁oficiálně	-10.4324
▁vystudoval	-10.4325
▁formě	-10.4325
▁sezóně	-10.4325
▁vypadá	-10.4326
▁Brna	-10.4327
▁vytvoří	-10.4328
▁fakultě	-10.433
▁odst	-10.4332
▁UK	-10.4335
▁dobrou	-10.4339
▁komory	-10.4341
▁zjištění	-10.4342
▁fakulty	-10.4342
▁návštěvníků	-10.4343
▁jezdí	-10.4345
▁rozdíly	-10.4347
▁otevření	-10.4348
▁vyberte	-10.435
▁struktury	-10.435
▁úspěšně	-10.4352
▁cíle	-10.4358
▁členem	-10.4359
▁víkendu	-10.4359
▁hrál	-10.4365
▁začaly	-10.4373
▁nájemného	-10.4382
▁pobytu	-10.4388
▁takovým	-10.4399
▁On	-10.4399
▁ostatně	-10.44
▁obyvatelé	-10.4404
▁princip	-10.4406
▁dohoda	-10.4414
zen	-10.4416
▁jižní	-10.4419
▁PRO	-10.4424
▁klubů	-10.4434
▁docela	-10.4436
▁prodeji	-10.4438
cházet	-10.4444
▁ročník	-10.4445
▁významný	-10.4448
▁neo	-10.4451
he	-10.4451
▁obsahu	-10.4454
▁příležitost	-10.4458
der	-10.4459
▁snížil	-10.446
▁pořadatel	-10.4464
▁čtvrté	-10.4469
▁brankář	-10.4473
▁mé	-10.4488
▁účastníků	-10.4489
▁odpovědnost	-10.4493
▁tvar	-10.4501
▁zůstávají	-10.4506
▁prostory	-10.4506
▁styl	-10.4517
▁hotel	-10.4517
▁církev	-10.4519
▁zjistit	-10.4522
kov	-10.4533
▁americk	-10.4542
▁hře	-10.4542
▁stejném	-10.4546
▁Anglie	-10.4553
▁institucí	-10.4553
▁nestačí	-10.4553
▁Nejvyšší	-10.4553
▁příspěvek	-10.4553
▁Polici	-10.4553
▁přinejmenším	-10.4554
▁mladší	-10.4554
▁přijít	-10.4554
▁dráhy	-10.4554
▁Stačí	-10.4554
▁organizační	-10.4556
▁poznatky	-10.4556
▁vozů	-10.4556
▁policisté	-10.4557
nov	-10.4557
▁vlastnictví	-10.4558
▁zabezpečení	-10.4558
▁levnější	-10.4558
▁Bosně	-10.456
▁nejlepším	-10.456
▁přijmout	-10.4561
▁Králové	-10.4561
▁Bar	-10.4562
▁předpisů	-10.4562
▁uznání	-10.4563
▁obrazovky	-10.4564
▁tvorby	-10.4566
▁komplexní	-10.4567
▁hodinách	-10.4569
ovalo	-10.4572
▁podobu	-10.4574
▁fyziky	-10.4575
▁hodnot	-10.4576
▁jiném	-10.4577
▁The	-10.4579
▁předsedou	-10.4585
▁Olomouci	-10.4588
▁léky	-10.4589
▁Američan	-10.4591
▁starosti	-10.4594
▁zákazník	-10.4594
▁českou	-10.4595
▁plochy	-10.4596
▁zvýšil	-10.4605
▁vytváří	-10.4606
▁pacienta	-10.461
▁ekonomických	-10.461
Ž	-10.4611
ODS	-10.4627
▁úspěšné	-10.4628
▁zápasů	-10.4629
▁16.	-10.4632
▁zemské	-10.4633
▁nejdůležitější	-10.4633
▁nejčastěji	-10.4634
vzdor	-10.4635
ouze	-10.4637
ca	-10.4641
▁pochopitelně	-10.4641
▁auta	-10.4641
▁Obě	-10.4644
▁vrátí	-10.4649
▁popis	-10.4657
▁Bi	-10.4658
vu	-10.466
▁mnohd	-10.4664
▁rodinné	-10.4675
▁připravil	-10.4677
▁ministrem	-10.4684
▁průmyslový	-10.4685
▁fotbal	-10.4686
kli	-10.4688
▁vojensk	-10.4694
▁podzim	-10.4695
▁úprav	-10.4701
▁chodí	-10.4704
▁Da	-10.4707
▁potravin	-10.4715
cím	-10.4716
blíž	-10.4724
▁městské	-10.4724
▁prodává	-10.473
▁di	-10.4734
▁významu	-10.474
▁f	-10.4747
▁postaven	-10.4749
ete	-10.475
zí	-10.475
▁kancelář	-10.4752
▁konstatoval	-10.4754
▁video	-10.4759
▁pří	-10.479
▁Anglii	-10.4791
▁NHL	-10.4791
▁asociace	-10.4791
▁duchovní	-10.4791
▁jménem	-10.4791
▁medaile	-10.4791
▁mužstvo	-10.4791
▁navzájem	-10.4791
▁odpovědi	-10.4791
▁využívat	-10.4791
▁článek	-10.4791
▁chvíle	-10.4791
▁dětem	-10.4791
▁ČEZ	-10.4791
▁Jaromír	-10.4792
▁Microsoft	-10.4792
▁zástupců	-10.4792
▁Chtěl	-10.4792
▁požadavek	-10.4792
tem	-10.4792
▁okolní	-10.4792
nic	-10.4796
▁zabývat	-10.4797
▁výpočetní	-10.4797
▁třikrát	-10.4799
vat	-10.4805
▁Dvě	-10.4806
pol	-10.4809
▁výstavby	-10.481
▁18.	-10.4811
▁trhy	-10.4815
▁týkající	-10.4817
▁uzavřít	-10.4821
▁dopis	-10.4822
▁umístění	-10.4826
▁SE	-10.4826
▁Takové	-10.4835
▁post	-10.4837
▁Pa	-10.4838
▁praktické	-10.4838
▁samostatné	-10.4838
▁osobnosti	-10.4839
▁používání	-10.4839
▁28	-10.4842
▁stanovení	-10.4844
▁obsahující	-10.4847
▁Profitu	-10.4851
▁fondů	-10.4851
▁špatné	-10.4852
▁projev	-10.4854
ler	-10.4862
▁mistra	-10.4873
▁francouzské	-10.4874
▁veřejně	-10.4876
▁ona	-10.4876
▁jednoduchý	-10.4884
▁ekologické	-10.4886
▁úvodní	-10.4889
▁daňový	-10.4892
▁45	-10.4896
▁blok	-10.4899
▁obratu	-10.4902
▁generál	-10.4905
▁vedl	-10.4908
▁svá	-10.4918
▁prezidentem	-10.4922
▁počítačové	-10.4924
▁Jedin	-10.493
▁žádost	-10.4945
▁250	-10.4947
▁soupeř	-10.495
▁nepře	-10.4951
▁minulém	-10.4952
▁sdělil	-10.4953
▁odpor	-10.4954
▁čekají	-10.4954
lík	-10.4956
▁průměrn	-10.4957
▁Ha	-10.4958
▁kon	-10.4958
▁skončila	-10.4961
▁vyhrála	-10.4963
▁120	-10.4964
up	-10.4969
tel	-10.4975
gen	-10.4977
vé	-10.4979
▁Lu	-10.4979
▁chemické	-10.4985
▁Rusk	-10.4992
▁něž	-10.4999
stavit	-10.4999
▁turnaj	-10.5003
▁organismu	-10.5016
▁způsobu	-10.5022
▁Stát	-10.5025
▁kolegy	-10.5029
▁dlouhý	-10.5035
▁ministři	-10.5035
▁považuji	-10.5035
▁vysoká	-10.5035
▁obrátil	-10.5035
▁organizaci	-10.5035
▁Michal	-10.5035
▁chtít	-10.5035
▁generace	-10.5035
▁územní	-10.5036
▁studia	-10.5036
▁volně	-10.5037
▁souladu	-10.5038
▁vyplatí	-10.5038
▁neznamená	-10.5039
▁nejspíš	-10.504
▁Karlovy	-10.5044
▁související	-10.5046
▁10.	-10.5046
▁Polska	-10.5046
▁lesů	-10.5047
▁nástrojů	-10.5047
▁nastoupil	-10.5048
▁ačkoli	-10.5048
▁zajištění	-10.505
▁silně	-10.5052
▁časopisu	-10.5062
▁panelu	-10.5062
▁odborných	-10.5064
▁kdysi	-10.5065
▁občané	-10.5067
▁opravy	-10.508
▁ústavy	-10.5081
▁sekundu	-10.5082
▁možných	-10.5086
▁přenosu	-10.5086
▁nemělo	-10.5086
▁skončilo	-10.5091
▁Ar	-10.5094
▁Slovenské	-10.5099
▁Poslaneck	-10.51
▁Obchodní	-10.5109
▁ochrany	-10.511
▁reprezentační	-10.5112
▁gól	-10.5113
▁předložil	-10.5113
zu	-10.5116
ale	-10.5118
▁příčin	-10.5118
▁33	-10.5121
▁dostalo	-10.5127
▁schopnosti	-10.5127
▁přechodu	-10.5128
▁zákazníka	-10.5132
ben	-10.5134
▁titulu	-10.5135
▁sport	-10.5136
▁kurs	-10.5143
▁hodnotí	-10.5145
▁dobou	-10.5146
▁planet	-10.5149
▁projekty	-10.5156
▁novém	-10.5156
muž	-10.5158
▁šlo	-10.5159
▁stanoví	-10.5164
▁RN	-10.5165
▁dají	-10.517
▁32	-10.5191
lin	-10.5193
▁trval	-10.5194
▁přicházejí	-10.5195
▁čemu	-10.5198
cké	-10.5198
▁reálné	-10.5203
▁jimi	-10.5206
▁totem	-10.5211
▁desetiletí	-10.5213
▁turistů	-10.5214
▁zápase	-10.5217
ici	-10.5219
▁představitelů	-10.5222
▁politického	-10.5223
▁Americk	-10.5224
▁syn	-10.5229
ten	-10.5236
▁Plzeň	-10.5245
▁bytové	-10.5247
▁Nad	-10.5252
▁zato	-10.5256
▁míní	-10.526
▁regionu	-10.5262
▁odhad	-10.5263
▁grafické	-10.5266
▁čeho	-10.5266
▁dokonale	-10.528
▁hledá	-10.5285
▁atmosféře	-10.5285
▁inflace	-10.5285
▁přírodě	-10.5285
▁službu	-10.5285
▁delegace	-10.5285
▁penzijní	-10.5285
▁politická	-10.5285
▁květnu	-10.5286
▁brát	-10.5286
▁poptávka	-10.5286
▁vysvětlení	-10.5286
ion	-10.5286
▁považují	-10.5286
▁stupně	-10.5286
▁mínění	-10.5287
▁stanovisko	-10.5288
▁kvalita	-10.5289
▁vysvětlit	-10.529
▁podaří	-10.5291
AN	-10.5293
▁Nejvíce	-10.5294
▁dřívější	-10.5294
▁dosahuje	-10.5296
▁prosadit	-10.5297
▁představit	-10.5297
▁léků	-10.5299
▁Chceme	-10.53
60	-10.5302
▁znaků	-10.5302
▁role	-10.5303
▁ukazují	-10.5306
▁myši	-10.5309
▁zkušeností	-10.531
▁ukázalo	-10.5311
▁slovenských	-10.5312
▁orgánů	-10.5315
▁přípravě	-10.5316
ovněž	-10.5316
▁francouzský	-10.5317
▁trvale	-10.5317
▁nebezpečné	-10.5319
stup	-10.532
▁zbytek	-10.5321
▁existenci	-10.5322
▁odchodu	-10.5326
▁Čs	-10.5326
jev	-10.5327
pen	-10.5332
▁kanceláří	-10.5344
padá	-10.5345
▁Gorbačov	-10.5349
▁místem	-10.5349
CI	-10.5355
ke	-10.5364
est	-10.5366
▁materiály	-10.5369
▁všude	-10.5373
▁ko	-10.5374
▁vědecký	-10.5377
▁vysoký	-10.5378
IN	-10.5382
▁výstava	-10.5384
▁vodou	-10.5386
▁režim	-10.5387
uji	-10.5389
▁změní	-10.5391
bar	-10.5397
▁novin	-10.5398
▁Tad	-10.5398
pravděpodobností	-10.5404
▁kniha	-10.5404
orku	-10.541
▁800	-10.5417
▁cenou	-10.5418
▁20.	-10.5422
▁názorů	-10.5431
ČSL	-10.5432
▁představu	-10.5433
plav	-10.5433
rát	-10.5435
▁závodě	-10.5442
form	-10.5444
▁domnívá	-10.5445
žen	-10.5452
▁podnikové	-10.5458
▁pracují	-10.5459
▁dojem	-10.5471
▁čtenáře	-10.5471
tek	-10.5473
▁výklad	-10.5477
▁rozsah	-10.5477
▁zúčastnil	-10.5478
▁adres	-10.548
▁vrchol	-10.5499
▁zásob	-10.55
▁vzal	-10.5503
▁způsoby	-10.5511
▁27	-10.5513
▁osobních	-10.5514
gu	-10.5515
tky	-10.5518
▁stud	-10.5519
▁zbraně	-10.5523
ovaného	-10.5534
▁vážně	-10.5541
▁Výsledk	-10.5542
▁dlouhá	-10.5542
▁chráněn	-10.5542
▁koncepce	-10.5542
▁naděje	-10.5542
▁telekomunikační	-10.5542
▁závisí	-10.5542
▁muzea	-10.5542
▁blízké	-10.5542
▁unii	-10.5542
▁rozšířit	-10.5542
▁žebříčku	-10.5543
▁vysvětluje	-10.5543
▁neznámý	-10.5543
▁tiskárny	-10.5544
▁naději	-10.5545
▁předpokládat	-10.5545
▁vysoce	-10.5546
dob	-10.5547
▁externí	-10.5549
▁můj	-10.5549
▁barvy	-10.555
▁návštěvu	-10.5552
▁složky	-10.5552
▁Sparty	-10.5552
▁umožňující	-10.5552
▁dvojice	-10.5554
▁Ostrava	-10.5556
▁uvést	-10.5556
▁čtyřech	-10.5558
projevuje	-10.556
▁Autor	-10.5562
▁Nikdo	-10.5563
nd	-10.5566
▁milióny	-10.5568
LA	-10.5569
▁prodal	-10.5572
▁záměr	-10.5578
▁hrají	-10.5582
▁totéž	-10.5583
▁akciové	-10.5584
▁PO	-10.5584
▁agentura	-10.5587
▁nemůžeme	-10.5588
▁budovy	-10.5594
▁podal	-10.5594
▁nemoc	-10.5596
▁čtyřmi	-10.5606
sky	-10.562
▁zásad	-10.5622
▁noční	-10.5622
▁studium	-10.5626
▁nároky	-10.5628
▁nabídce	-10.5631
▁tajné	-10.5636
port	-10.5641
▁politický	-10.5642
▁podání	-10.5642
jde	-10.5647
▁filmový	-10.5655
▁čísle	-10.5655
▁trestný	-10.5661
▁podstatné	-10.5665
▁listu	-10.5667
▁vědci	-10.5668
stoupí	-10.5672
▁trend	-10.5676
vádí	-10.5689
nické	-10.569
▁obor	-10.5696
▁stranou	-10.5698
▁návrat	-10.5704
▁Cena	-10.5711
▁nabídl	-10.5712
▁vydal	-10.5718
▁světového	-10.5721
kovi	-10.5723
▁bodu	-10.5726
▁finančn	-10.5734
▁systémem	-10.5736
▁píše	-10.5736
▁umí	-10.5738
▁Profit	-10.5741
▁Nebyl	-10.5747
ejména	-10.575
▁střed	-10.5754
▁cest	-10.5761
▁dvanácti	-10.5772
▁obchodním	-10.5773
▁spisovatel	-10.5791
▁negativní	-10.5797
iště	-10.5803
▁Itálii	-10.5805
▁povinen	-10.5805
▁Miloslav	-10.5805
▁podívat	-10.5805
▁Jugoslávii	-10.5805
▁říct	-10.5805
▁najevo	-10.5805
▁Peter	-10.5805
▁obligace	-10.5807
▁vybírat	-10.5808
▁fax	-10.5808
▁vojáků	-10.581
▁pivo	-10.581
▁peněžní	-10.5811
▁snižování	-10.5811
▁Moravě	-10.5815
▁skončení	-10.5815
▁kusů	-10.5815
▁hlavu	-10.5815
▁předmětem	-10.5816
▁dění	-10.5822
▁povolání	-10.5824
▁cyklus	-10.5825
▁odvolání	-10.5827
▁kartu	-10.5828
▁aut	-10.5832
▁japonské	-10.5833
▁úvěrů	-10.5835
lid	-10.5838
▁dílem	-10.5841
▁národů	-10.5846
▁vlny	-10.5851
▁celku	-10.5852
ard	-10.5853
▁živ	-10.5854
▁přehled	-10.5856
▁výstavy	-10.5858
▁důvodem	-10.5859
▁některým	-10.586
▁věří	-10.5862
▁jakých	-10.5862
▁škole	-10.5863
▁Kolik	-10.5866
▁složen	-10.5871
▁starosta	-10.5872
▁ode	-10.5878
▁odbyt	-10.5879
▁oprávněn	-10.5879
▁přípravy	-10.588
▁Dalším	-10.5885
▁Počet	-10.5886
▁pás	-10.5887
▁fotbalový	-10.5891
▁jakékoli	-10.5894
LI	-10.5894
▁Ruské	-10.5897
▁fyzické	-10.5899
▁horní	-10.59
▁kol	-10.59
▁pouhý	-10.5906
▁nákupu	-10.5911
▁upozornil	-10.5912
▁českým	-10.5913
▁důkaz	-10.5918
▁tvrdé	-10.5919
ký	-10.5928
▁posun	-10.5933
▁Znamen	-10.5937
▁záznamník	-10.5954
▁George	-10.5956
▁jistý	-10.5959
▁devíti	-10.5963
kl	-10.5967
dal	-10.5977
bl	-10.5984
▁partner	-10.599
nka	-10.5997
30	-10.6002
▁schopna	-10.6009
▁volný	-10.601
▁Lékař	-10.6012
▁informoval	-10.6012
▁Al	-10.602
▁bloku	-10.602
▁jasno	-10.6022
▁umístěn	-10.6022
▁hotov	-10.6029
▁přímé	-10.6029
ené	-10.603
▁Ru	-10.6036
▁chemický	-10.6039
▁průběh	-10.6042
▁požaduje	-10.6045
▁Např	-10.6047
▁bankovní	-10.6054
půjč	-10.6059
nozí	-10.6065
▁partnerů	-10.6069
▁Řad	-10.6074
▁Univerzit	-10.6075
▁existovat	-10.6075
▁informaci	-10.6075
▁obtížné	-10.6075
▁prezentací	-10.6075
▁ubytování	-10.6075
▁vyjádřit	-10.6075
▁vytvářet	-10.6075
▁února	-10.6075
▁optimální	-10.6075
▁zítra	-10.6076
▁Bójové	-10.6076
▁hrách	-10.6077
rů	-10.6078
▁jednotek	-10.6078
▁rychleji	-10.608
▁ztrácí	-10.608
▁československé	-10.6081
▁tradice	-10.6082
▁nadace	-10.6084
▁závodech	-10.6084
vod	-10.6085
▁hlavy	-10.6085
▁brání	-10.6085
▁objevuje	-10.6085
▁boje	-10.6088
▁politiků	-10.609
▁správu	-10.609
▁ústřední	-10.6092
▁střediska	-10.6092
▁obvinění	-10.6093
▁dohodě	-10.6094
▁kontroly	-10.6095
▁předpisy	-10.6096
▁kalů	-10.6097
▁Vlastní	-10.61
▁vesnici	-10.6101
▁vedou	-10.6103
▁slavnostní	-10.6113
▁zdánlivě	-10.6113
▁narodil	-10.6113
▁založen	-10.6113
▁souborů	-10.6117
▁vzdálenosti	-10.612
▁signálu	-10.6124
▁rizika	-10.6127
▁In	-10.6128
▁Svoboda	-10.613
▁sále	-10.6132
▁ozbrojený	-10.6133
▁klid	-10.6142
▁návratu	-10.6143
▁mistr	-10.6149
▁PC	-10.6155
▁vysloven	-10.6157
OU	-10.6159
▁udělá	-10.6161
▁klepn	-10.6161
▁správný	-10.6163
▁nástroj	-10.6164
▁drží	-10.6165
jíž	-10.617
▁oči	-10.6174
▁sobotní	-10.6175
▁ideální	-10.6175
počátku	-10.6177
▁Fr	-10.618
▁závodů	-10.6191
případě	-10.6199
▁ostatními	-10.6203
▁důvody	-10.6207
▁dostávají	-10.621
▁domov	-10.6214
onu	-10.6225
▁určený	-10.6231
ine	-10.6236
▁zkušenost	-10.624
▁nucen	-10.6242
ast	-10.6246
▁nápad	-10.6253
▁vznikají	-10.6257
▁jazyk	-10.626
▁vybraný	-10.6267
lep	-10.6279
▁určené	-10.6279
▁vědců	-10.628
▁str	-10.6285
▁přispěl	-10.629
▁čtyřicet	-10.629
▁řeší	-10.6292
▁komunikace	-10.6295
NA	-10.6297
▁sestav	-10.6297
▁státě	-10.6303
▁příjem	-10.6304
▁dětské	-10.6305
▁historický	-10.6313
najdete	-10.6322
fer	-10.6325
▁samostatný	-10.6328
▁sportu	-10.6337
▁hlas	-10.6341
▁mohu	-10.6349
nést	-10.6353
▁demokracii	-10.6353
▁jednoduše	-10.6353
▁nádraží	-10.6353
▁otázkou	-10.6353
▁ovzduší	-10.6353
▁vyrábí	-10.6353
▁častěji	-10.6353
▁obnoven	-10.6353
▁knize	-10.6353
▁obligací	-10.6353
▁čísel	-10.6353
▁věnován	-10.6353
▁záření	-10.6353
▁vážné	-10.6353
▁dohodnout	-10.6353
▁pracoviště	-10.6354
▁oblečení	-10.6355
▁několikrát	-10.6356
▁vyvolal	-10.6356
▁pobřeží	-10.6357
▁kvalitě	-10.6357
▁komunistické	-10.6357
▁klimatický	-10.6358
▁žít	-10.6358
▁uprostřed	-10.6359
▁dopravě	-10.6359
▁opoziční	-10.6361
▁blízkosti	-10.6361
ST	-10.6363
▁ovládání	-10.6363
▁příchod	-10.6363
▁nepochybn	-10.6364
▁předsed	-10.6367
▁odstranit	-10.6368
▁připadá	-10.6369
▁novináři	-10.6375
▁Pražské	-10.6375
▁servis	-10.6378
ění	-10.6378
▁nejlepších	-10.6379
▁Rakousku	-10.6382
▁obrazů	-10.6384
▁Internet	-10.6385
▁výpravy	-10.6386
▁znaky	-10.6388
▁železniční	-10.6388
▁Taková	-10.6391
▁pl	-10.6392
mluv	-10.6395
▁běžně	-10.6398
kla	-10.6398
▁testu	-10.6399
▁viděli	-10.64
▁rodinný	-10.6402
IS	-10.6411
▁uzavřel	-10.6417
▁velkého	-10.6418
▁5.	-10.6418
▁působit	-10.6423
▁mezinárodních	-10.6424
▁metoda	-10.6427
ké	-10.6427
▁souhlasí	-10.6428
koli	-10.6432
▁Rusku	-10.6432
▁úvěry	-10.6439
lek	-10.645
DE	-10.6462
▁tajný	-10.6462
▁investor	-10.6464
▁určitých	-10.6471
ón	-10.6474
ud	-10.6477
▁měsíci	-10.6481
▁festival	-10.6487
▁termínu	-10.6488
▁dopravu	-10.6493
▁pohyb	-10.6493
ele	-10.6494
▁fondy	-10.6497
▁Ra	-10.6497
▁metod	-10.65
▁sídle	-10.6501
▁částic	-10.6506
▁společn	-10.6509
▁plánu	-10.6511
ěji	-10.6512
řídit	-10.6515
86	-10.6516
▁strach	-10.6516
▁doprava	-10.6537
▁větším	-10.6538
▁býval	-10.654
lat	-10.6543
▁Musím	-10.6545
▁prohrál	-10.6545
▁vodu	-10.655
▁kapitál	-10.6552
▁forma	-10.6559
▁vytvořil	-10.6564
▁večerní	-10.6566
▁zlato	-10.6569
▁používají	-10.6571
▁účetní	-10.6572
▁pohybují	-10.6581
▁Di	-10.6586
▁pomůže	-10.6587
▁široké	-10.6587
▁zvítězil	-10.6591
▁Ka	-10.6596
▁Major	-10.6598
ju	-10.66
▁software	-10.6601
▁nemusel	-10.6604
ovský	-10.6605
▁převzal	-10.6605
▁výnos	-10.661
▁začínají	-10.6612
▁komerční	-10.6615
šli	-10.6621
▁režisér	-10.6626
▁knih	-10.6629
▁ulice	-10.6631
zo	-10.6632
▁čin	-10.6634
▁Americe	-10.6639
▁dopoledne	-10.6639
▁ministerstvu	-10.6639
▁nejrychleji	-10.6639
▁reakce	-10.6639
▁rekonstrukci	-10.6639
▁rozhoduje	-10.6639
▁strategie	-10.6639
▁srdce	-10.6639
▁policii	-10.6639
▁dveře	-10.6639
▁partneři	-10.6639
▁Klub	-10.6639
▁vzít	-10.6639
▁trvat	-10.6639
▁vězení	-10.6639
▁penze	-10.6639
▁psát	-10.6639
▁čekat	-10.664
▁dubna	-10.664
▁jaře	-10.664
▁dotací	-10.664
▁politickou	-10.664
▁považovat	-10.6641
▁mysli	-10.6641
▁zachovat	-10.6641
▁Trenér	-10.6642
▁poskytnout	-10.6642
▁krve	-10.6643
▁stavby	-10.6644
▁ukončení	-10.6645
▁obsahovat	-10.6647
▁provádět	-10.6649
▁vojenský	-10.6649
▁65	-10.665
▁narození	-10.665
▁Havla	-10.6652
▁areálu	-10.6653
▁přišli	-10.6653
inu	-10.6654
▁obci	-10.6654
nici	-10.6658
▁vším	-10.666
▁připojení	-10.6661
▁událostí	-10.6662
▁deník	-10.6663
▁hranic	-10.6663
dla	-10.6667
▁Mnoho	-10.6668
▁postavit	-10.6668
▁sovětských	-10.667
▁severu	-10.667
▁vrací	-10.667
▁schválení	-10.6671
▁průmyslové	-10.6673
▁zastavit	-10.6673
▁orgány	-10.6675
▁rad	-10.6676
ohledem	-10.6677
▁příkladem	-10.6678
▁kontakty	-10.6679
▁výhody	-10.6684
▁objektivní	-10.6686
▁kabinetu	-10.6687
▁události	-10.6693
▁managementu	-10.6695
▁zjistili	-10.6697
▁budov	-10.6698
▁cosi	-10.6698
▁produkty	-10.6699
ge	-10.6699
▁hlasy	-10.67
▁útoku	-10.67
▁přesvědčení	-10.6708
▁výkonné	-10.6708
▁principy	-10.6713
▁maximální	-10.6714
▁rodina	-10.6715
▁občany	-10.6722
▁samostatně	-10.6723
▁vyhlásil	-10.6723
▁Rad	-10.6728
▁elektrické	-10.6729
ór	-10.673
MA	-10.6731
▁souhlasu	-10.6732
▁využívá	-10.6737
▁vyrábět	-10.6739
10	-10.6744
▁pozor	-10.6746
▁sloužit	-10.6746
▁pečlivě	-10.6749
tur	-10.675
▁vašeho	-10.675
▁soubory	-10.6755
▁třiceti	-10.6757
▁výstav	-10.6762
držení	-10.6766
▁kal	-10.6767
▁setkal	-10.6769
▁dělí	-10.6769
▁rozhodli	-10.677
▁55	-10.6771
▁jedenáct	-10.6772
▁stejným	-10.6775
▁Rada	-10.6777
▁obrovské	-10.678
▁kluby	-10.6785
▁předpoklad	-10.6793
▁oznámila	-10.6795
▁zmíněný	-10.68
▁průměrné	-10.6804
▁zásadně	-10.6807
▁změnil	-10.6808
▁jakém	-10.6811
▁hran	-10.6812
kon	-10.6814
▁1000	-10.6814
▁člena	-10.6816
son	-10.6818
▁Če	-10.6822
▁produkt	-10.6823
▁sociálního	-10.6824
▁znamenat	-10.6825
▁projevil	-10.6827
▁techniku	-10.6829
▁vyzval	-10.6839
▁přiznal	-10.684
▁víme	-10.6852
mír	-10.6863
nění	-10.6863
les	-10.6869
▁nechtěl	-10.6871
▁obec	-10.6874
OH	-10.6875
▁pravidel	-10.6878
▁založil	-10.6884
nové	-10.6888
▁hor	-10.6891
▁zaměstnavatele	-10.6893
▁postupy	-10.6897
▁nástroje	-10.6899
příliš	-10.69
▁cyklu	-10.691
▁milion	-10.691
▁formu	-10.6913
▁Německ	-10.6914
▁povinn	-10.6914
▁rostou	-10.6918
▁přenosov	-10.6919
▁Stanislav	-10.6933
▁března	-10.6933
▁geometrie	-10.6933
▁rozmezí	-10.6933
▁zahrnuje	-10.6933
▁sotva	-10.6933
▁rakouské	-10.6933
▁klesá	-10.6933
▁čtvrtletí	-10.6933
▁zahynul	-10.6933
▁využil	-10.6933
▁dovoz	-10.6935
▁téhož	-10.6936
▁diskusi	-10.6936
▁snižuje	-10.6937
▁výsledku	-10.6938
▁morální	-10.6938
▁zajišťuje	-10.6939
▁poradce	-10.6939
▁školách	-10.694
▁účinky	-10.694
▁opozice	-10.694
▁kovů	-10.6941
▁třídě	-10.6942
čátkem	-10.6943
▁pravomoci	-10.6945
▁formy	-10.6945
▁zvýší	-10.6947
▁činit	-10.6948
▁map	-10.6953
▁zachování	-10.6956
▁Tehd	-10.6957
▁startu	-10.6959
be	-10.6963
▁kandidátů	-10.6965
▁přestal	-10.6965
▁miliónu	-10.6966
▁provádí	-10.6968
▁duchu	-10.697
▁kupónov	-10.697
▁volbu	-10.6974
▁příčinou	-10.6978
dostanou	-10.698
oč	-10.6981
▁představiteli	-10.6983
▁formátu	-10.6984
nec	-10.6984
čili	-10.6992
▁Zemi	-10.7002
ble	-10.7012
▁pražských	-10.7016
ang	-10.7017
mot	-10.7031
▁přinesl	-10.7032
▁papíru	-10.7034
▁producent	-10.7036
▁plnění	-10.7036
padají	-10.7047
▁zaměstnavatel	-10.7049
bě	-10.7051
kám	-10.7054
▁vzpomíná	-10.7055
▁Boris	-10.706
▁Občanské	-10.7061
▁kurz	-10.7062
▁obchody	-10.7063
▁klasický	-10.7063
ger	-10.7069
▁modely	-10.708
▁poskytl	-10.7085
▁ztratil	-10.7088
▁chyby	-10.709
psal	-10.7091
▁loňský	-10.7092
▁daném	-10.7096
▁rozhodčí	-10.7096
jedou	-10.7111
▁následujících	-10.7115
▁věda	-10.7123
▁filmové	-10.7125
▁krátké	-10.7137
▁Popper	-10.7137
▁vysvětlil	-10.7138
ó	-10.7141
▁Michael	-10.7142
▁San	-10.7146
lem	-10.7148
▁Zájem	-10.7153
▁průzkum	-10.7156
▁příslušn	-10.7156
▁15.	-10.7164
▁našel	-10.7166
dané	-10.717
▁jediným	-10.7175
ír	-10.7177
▁menšin	-10.7197
hlav	-10.7199
▁vstoupil	-10.7199
▁test	-10.7202
▁nezávislé	-10.7202
▁barevný	-10.7203
▁Mnoh	-10.7205
▁pojištěn	-10.7206
▁koní	-10.7206
OS	-10.7213
▁vstříc	-10.7214
▁nedávné	-10.7214
▁soutěží	-10.7216
▁podpis	-10.7217
▁služba	-10.7217
▁chtěla	-10.7221
▁pas	-10.7222
▁reakci	-10.7225
▁uvažuje	-10.723
▁divadlo	-10.7236
▁kyslíku	-10.7236
▁označit	-10.7236
▁prognóz	-10.7236
▁prosinci	-10.7236
▁sekretář	-10.7236
▁transformaci	-10.7236
▁vozidel	-10.7236
▁vězňů	-10.7236
▁zvyšování	-10.7236
▁důvěru	-10.7236
▁počtem	-10.7236
▁vazby	-10.7236
▁Práce	-10.7236
▁digitální	-10.7236
▁nikoho	-10.7236
▁pokračování	-10.7236
▁definitivně	-10.7236
▁Býval	-10.7236
▁výročí	-10.7236
▁svoje	-10.7236
▁myšlenky	-10.7237
▁Člen	-10.7237
▁hluboké	-10.7237
▁poradit	-10.7238
▁hřišti	-10.7241
▁oběti	-10.7241
▁sexuální	-10.7242
▁navrhuje	-10.7243
▁Otázka	-10.7243
▁neplatí	-10.7244
▁mírně	-10.7244
▁majitele	-10.7244
▁Jaké	-10.7245
▁výdajů	-10.7245
▁poplatky	-10.7246
▁rozšířil	-10.7246
▁Třeba	-10.7247
▁začátek	-10.7247
sad	-10.7247
▁října	-10.7249
▁zaveden	-10.7249
▁boji	-10.725
▁sezóny	-10.725
zemědělských	-10.7251
▁krajiny	-10.7251
▁pokuty	-10.7251
▁mechanismus	-10.7253
▁tuzemsku	-10.7254
▁dílů	-10.7255
▁zrušit	-10.7256
▁Uvedl	-10.7257
klad	-10.7258
▁super	-10.726
▁Československé	-10.726
▁východě	-10.7261
▁třetiny	-10.7265
▁reklamy	-10.7265
▁Hlavním	-10.7266
▁příležitostí	-10.7272
▁koncertu	-10.7272
▁útok	-10.7274
▁vědí	-10.7275
▁Le	-10.7275
▁nastavení	-10.7276
▁klidně	-10.7279
▁zůstalo	-10.7279
▁svobody	-10.7279
ající	-10.7279
▁Rakouska	-10.728
▁činil	-10.7284
▁schopností	-10.7285
▁přítomnosti	-10.7286
▁výborů	-10.7288
▁představitele	-10.7289
▁majitelé	-10.7296
▁objevují	-10.7301
▁obsahují	-10.7301
▁Světové	-10.7301
pel	-10.7304
▁ukázal	-10.7304
▁prv	-10.7308
▁anti	-10.731
ak	-10.7317
▁náhradní	-10.7321
▁povrch	-10.7322
▁nesouhlasí	-10.7323
▁1992.	-10.7325
▁stylu	-10.7326
▁CO	-10.7336
▁starý	-10.7337
ér	-10.7339
▁záležitosti	-10.7342
▁českém	-10.7346
ros	-10.735
▁zjistil	-10.7356
▁spojen	-10.7359
▁necelý	-10.7372
▁navrhl	-10.7372
oje	-10.7375
▁postavil	-10.7378
▁tisíci	-10.7379
▁ekonomický	-10.7383
▁známý	-10.7386
▁východ	-10.7388
▁exportu	-10.7393
NÁ	-10.7398
▁výrobních	-10.7403
▁silný	-10.7415
un	-10.7424
▁sousední	-10.7433
▁obrovský	-10.7439
▁Izrael	-10.7442
▁textový	-10.7448
▁výkony	-10.745
▁Obecn	-10.7453
▁11.	-10.7453
▁primátor	-10.7456
▁dosáhla	-10.746
▁sklad	-10.7461
▁cíl	-10.7464
▁firemní	-10.7467
▁Úřadu	-10.7468
▁atraktivní	-10.747
11	-10.747
▁nejnovější	-10.747
▁rodičů	-10.7477
▁fotbalistů	-10.7477
▁zdravotního	-10.7477
▁učinil	-10.7482
rou	-10.7482
▁klasické	-10.7483
▁státem	-10.7486
vají	-10.7486
▁surovin	-10.7489
▁Soud	-10.7489
▁Muž	-10.7492
▁Bush	-10.7496
▁přenos	-10.7497
▁společenské	-10.7501
▁padesáti	-10.7501
▁ostatním	-10.7507
íte	-10.7511
▁6.	-10.7512
▁účtu	-10.7514
▁akt	-10.7515
▁důraz	-10.7516
stoupil	-10.752
▁dětský	-10.7531
▁nesmírn	-10.7533
▁hrad	-10.7539
▁pán	-10.7542
▁menších	-10.7545
▁Euro	-10.7547
▁ústav	-10.7547
▁Evropu	-10.7548
▁Premiér	-10.7548
▁Systém	-10.7548
▁Vývoj	-10.7548
▁kilobajtů	-10.7548
▁lehce	-10.7548
▁potvrzuje	-10.7548
▁režii	-10.7548
▁sjednocení	-10.7548
▁smlouvě	-10.7548
▁tabulce	-10.7548
▁teorií	-10.7548
▁tvořit	-10.7548
▁zdarma	-10.7548
▁účinek	-10.7548
▁schůze	-10.7548
▁podezření	-10.7548
▁spotřeby	-10.7548
▁zastupitelstva	-10.7549
▁střetnutí	-10.7549
▁nedokázal	-10.7549
▁bránit	-10.7549
▁GSM	-10.7549
▁definitivní	-10.7549
▁produkci	-10.7549
▁celků	-10.755
▁Inter	-10.755
▁resp	-10.755
▁ovoce	-10.755
▁nejenom	-10.7551
▁absolutní	-10.7551
▁diskuse	-10.7551
▁("	-10.7552
▁vaši	-10.7552
▁předložit	-10.7553
▁dolní	-10.7555
▁akademie	-10.7555
▁kódování	-10.7557
▁vyvolává	-10.7557
▁Vý	-10.756
▁zahraničním	-10.7561
▁Severní	-10.7562
▁Druhá	-10.7563
▁Staroměstské	-10.7564
▁kontrolní	-10.7564
▁najde	-10.7564
▁Jednání	-10.7566
▁dostatek	-10.7566
kládají	-10.7569
▁Dodal	-10.7571
▁Sparta	-10.7571
▁vlastnost	-10.7572
▁náhodou	-10.7573
▁motiv	-10.7573
▁zdravé	-10.7575
▁26	-10.7576
▁výstavě	-10.7576
▁závislosti	-10.7577
▁užívání	-10.758
▁veřejných	-10.758
▁fakultu	-10.7581
ner	-10.7581
▁zvěře	-10.7588
▁Změn	-10.7588
▁objev	-10.7591
▁nahradil	-10.7592
▁škodu	-10.7593
▁základem	-10.7593
▁teplota	-10.7598
▁ukončil	-10.7607
aj	-10.7608
▁trénink	-10.7614
▁označen	-10.7616
▁Ústavní	-10.7618
kyně	-10.762
leté	-10.7622
▁zdravotnické	-10.7623
▁příčiny	-10.7624
▁host	-10.7635
▁vyžádal	-10.7638
▁principu	-10.7638
▁pevné	-10.7638
▁sporu	-10.7644
▁grafický	-10.7646
▁trenérem	-10.7647
▁NE	-10.7648
▁způsobil	-10.765
▁trestné	-10.7662
▁Novák	-10.7667
▁Němec	-10.767
▁koupí	-10.7674
▁31.	-10.7681
▁týdnech	-10.7683
▁34	-10.7686
▁fyzický	-10.7702
▁bratr	-10.7702
den	-10.7709
ier	-10.771
sil	-10.7711
▁graf	-10.7712
▁jiní	-10.7716
▁podobného	-10.7716
▁mnou	-10.7718
▁1,	-10.7721
▁formát	-10.7724
lib	-10.7728
▁důsled	-10.773
▁Bra	-10.7732
▁reálný	-10.7743
▁SP	-10.7745
íme	-10.7745
kol	-10.7747
edení	-10.7749
▁znění	-10.775
hi	-10.7764
ana	-10.7767
py	-10.7776
▁pokračoval	-10.7776
▁variant	-10.7779
št	-10.7781
▁Firm	-10.7785
rop	-10.779
▁situací	-10.7795
▁rozhraní	-10.7798
iz	-10.7798
jako	-10.78
▁pravděpodobnost	-10.7801
▁životním	-10.7806
▁Paul	-10.7808
ct	-10.781
kor	-10.7814
▁nezávislost	-10.7818
▁Jelcina	-10.7819
▁bezprostředn	-10.782
▁odsouzen	-10.7823
▁oprav	-10.7828
85	-10.7828
letý	-10.7831
▁vlně	-10.7837
ll	-10.7838
▁jmenován	-10.7849
ností	-10.7856
▁poskytují	-10.786
▁Viktor	-10.787
jedině	-10.7871
▁Poslanc	-10.7871
▁chystá	-10.7871
▁dražší	-10.7871
▁krizi	-10.7871
▁nemohu	-10.7871
▁podporovat	-10.7871
▁přispět	-10.7871
▁sportovců	-10.7871
▁vyřešit	-10.7871
▁Člověk	-10.7871
▁Osobn	-10.7871
▁skončí	-10.7871
▁turisty	-10.7871
▁nejnižší	-10.7871
▁dohromady	-10.7871
▁sněhu	-10.7871
▁mld	-10.7871
▁obilí	-10.7871
▁dobrá	-10.7871
▁snažit	-10.7871
▁atmosféry	-10.7872
▁vybudovat	-10.7872
▁vypadat	-10.7872
▁přesvědčit	-10.7873
▁Hradci	-10.7873
▁pokračuje	-10.7874
▁zbytečně	-10.7874
▁ploch	-10.7875
▁ruky	-10.7875
▁vedlejší	-10.7876
▁připojit	-10.7876
▁zhodnocení	-10.7876
▁třetího	-10.7876
▁porozumění	-10.7877
▁poznamenal	-10.7878
▁tvorbě	-10.7878
▁všeobecně	-10.7878
▁síti	-10.788
▁Bruselu	-10.7881
voz	-10.7882
▁srážek	-10.7883
▁Svět	-10.7883
▁rovině	-10.7884
▁staví	-10.7885
▁Kon	-10.7886
nek	-10.7887
▁přinést	-10.7888
▁vesnice	-10.7889
▁obsazení	-10.789
▁spolupracovníků	-10.789
▁analýzy	-10.7892
▁Chorvatska	-10.7896
▁Senátu	-10.7898
▁důchodu	-10.7902
▁opustit	-10.7903
▁plno	-10.7904
▁dovozu	-10.7904
▁autobusy	-10.7906
▁kolektivní	-10.7906
▁Američané	-10.7908
▁bílé	-10.7911
▁silnice	-10.7913
▁Mohl	-10.7914
koupit	-10.7916
▁zájemce	-10.7923
pak	-10.7925
▁dodat	-10.7926
▁nachází	-10.7929
▁výkonný	-10.7933
▁městský	-10.7936
▁grafu	-10.7943
▁Karla	-10.7947
▁požadované	-10.7947
ření	-10.7952
TA	-10.7953
▁drobné	-10.7957
▁Zahraničn	-10.7957
▁volných	-10.7961
▁nevím	-10.7964
▁přivedl	-10.7965
▁průměrný	-10.7966
▁tlaku	-10.7969
▁zlom	-10.7969
kul	-10.797
▁nepříjemné	-10.7973
▁dalo	-10.7973
tit	-10.7974
▁objemu	-10.7983
áš	-10.7984
▁učitel	-10.7985
▁členský	-10.7986
▁cítí	-10.7986
zv	-10.7988
▁projektů	-10.7992
▁130	-10.7992
▁přijat	-10.8004
▁personální	-10.8009
▁struktura	-10.8018
ismus	-10.8019
▁Takový	-10.8037
▁vedla	-10.804
▁nástup	-10.8044
▁Rus	-10.8045
go	-10.8046
áři	-10.8051
▁1,5	-10.8061
▁získan	-10.8064
▁konečný	-10.8068
▁turistický	-10.8069
ik	-10.807
▁hůře	-10.8071
▁hledají	-10.8081
▁vědě	-10.8084
▁Du	-10.8084
▁událost	-10.8091
5%	-10.8093
▁prosadil	-10.8097
▁Konečn	-10.8097
▁investic	-10.81
▁kvantov	-10.8102
leč	-10.8108
ška	-10.8109
▁prof	-10.8111
věřil	-10.8112
▁nutnost	-10.8116
▁záznam	-10.8117
stal	-10.8119
▁osobnost	-10.8119
▁Kr	-10.8119
▁otevřené	-10.812
▁editor	-10.8122
▁potenciál	-10.8124
TE	-10.813
dis	-10.8134
▁neboli	-10.8136
fu	-10.8136
▁management	-10.8139
▁výrazný	-10.8145
▁průmysl	-10.8147
▁překvapení	-10.8149
nictví	-10.8153
íci	-10.8156
ij	-10.8166
▁značný	-10.8177
▁Jaká	-10.8192
san	-10.8198
▁aminokyselin	-10.8203
▁metropoli	-10.8204
▁pochopení	-10.8204
▁teorii	-10.8204
▁tradičně	-10.8204
▁únoru	-10.8204
▁Peníze	-10.8204
▁neutrální	-10.8204
▁reakcí	-10.8204
▁výpověď	-10.8204
▁dosažení	-10.8204
▁Zástupc	-10.8204
▁likvidace	-10.8204
▁restauraci	-10.8204
▁Mluvčí	-10.8204
▁Rozdíl	-10.8204
▁nejpozději	-10.8205
▁jmění	-10.8205
▁nechtějí	-10.8205
▁Rudolf	-10.8205
▁dotace	-10.8205
▁operací	-10.8205
▁dojít	-10.8205
▁dělají	-10.8206
▁kategorii	-10.8206
▁výhodnější	-10.8207
rat	-10.8207
▁mezd	-10.8207
▁reformy	-10.8208
▁realitní	-10.8209
▁dělení	-10.821
▁podporuje	-10.8211
▁elektráren	-10.8211
▁sněmovně	-10.8211
▁břehu	-10.8212
▁městech	-10.8213
▁vína	-10.8214
▁hru	-10.8214
▁přijdou	-10.8216
▁Tour	-10.8217
▁udržení	-10.8218
▁časopisů	-10.8218
▁jednoduchá	-10.8219
▁pochází	-10.8221
▁sezónu	-10.8222
▁Mir	-10.8227
▁uložení	-10.8227
▁stíhání	-10.823
▁hledal	-10.8242
▁žádostí	-10.8242
▁otevřena	-10.8243
▁účel	-10.8244
▁vystaven	-10.8246
▁zraněn	-10.8248
▁skla	-10.8248
▁Paříži	-10.8248
▁odborníky	-10.8249
▁hmoty	-10.825
▁obvodní	-10.825
táhnout	-10.825
▁využívání	-10.8252
ává	-10.8257
▁svobodu	-10.8257
▁vln	-10.8259
aly	-10.8263
▁založení	-10.8264
▁vybaven	-10.8266
▁Lon	-10.8268
▁JE	-10.8274
▁těles	-10.8276
▁domy	-10.8281
men	-10.8284
RU	-10.8286
▁záměru	-10.829
▁OH	-10.829
▁žádosti	-10.8291
ismu	-10.8292
▁škoda	-10.8293
nesou	-10.8294
▁děl	-10.8301
▁omezen	-10.8304
▁ukázala	-10.8307
▁jednotliv	-10.8308
slov	-10.8315
▁nemohli	-10.8316
LE	-10.8317
▁dokázal	-10.8321
▁patnácti	-10.8324
▁platy	-10.8327
KO	-10.8327
píše	-10.8328
▁upraven	-10.8335
kat	-10.8336
▁mimořádné	-10.8337
▁ztráta	-10.8337
▁činu	-10.8338
▁letecké	-10.8343
▁provozní	-10.8344
▁schválil	-10.8344
▁zákazníkům	-10.835
▁vešker	-10.8356
▁Důležit	-10.8358
▁šedesát	-10.8365
nes	-10.8372
▁řídící	-10.8372
nedávn	-10.8375
▁zvýšené	-10.8376
▁schválen	-10.8385
▁dokumentu	-10.8386
▁umožnil	-10.8387
▁čtvrtý	-10.8389
běhu	-10.839
▁požádal	-10.839
▁hlad	-10.8394
▁složitější	-10.8401
▁rodin	-10.8404
▁Ca	-10.8407
▁zad	-10.8409
▁Čas	-10.8411
▁mladí	-10.8416
▁týmy	-10.8417
▁server	-10.8418
íka	-10.842
▁mluvčího	-10.8421
▁monitor	-10.8423
▁patřil	-10.8424
▁každému	-10.8427
vz	-10.8431
▁vydává	-10.8431
ený	-10.8432
▁podnikatelský	-10.8433
pře	-10.8439
▁vývojové	-10.8446
▁dopad	-10.845
▁stanic	-10.8453
▁zvýšen	-10.8453
▁slep	-10.8456
▁platnost	-10.8459
▁zařazen	-10.846
▁uspořáda	-10.8461
▁pražský	-10.8461
▁kompromis	-10.8461
▁uskutečnit	-10.8463
▁úrovní	-10.8472
'	-10.8474
▁dala	-10.8474
▁muse	-10.8478
▁klade	-10.8481
▁výstup	-10.8482
▁navštívil	-10.8482
puštěn	-10.8483
fo	-10.8486
▁nezaměstnanost	-10.8487
ačnou	-10.8487
▁šéfa	-10.8489
▁noc	-10.849
▁značn	-10.8492
▁snažil	-10.8493
▁založené	-10.8493
▁klíč	-10.8493
▁diplomat	-10.8495
ď	-10.8497
oučástí	-10.8498
myšlen	-10.8499
běhl	-10.8501
▁příběh	-10.851
din	-10.8516
▁poskytovat	-10.852
▁plný	-10.8524
▁postupné	-10.8524
ren	-10.8526
▁obecné	-10.8527
▁adresu	-10.8529
TO	-10.8537
▁živé	-10.8541
▁pokusil	-10.8545
▁Pomoc	-10.8545
▁Ameriky	-10.8549
▁Bohužel	-10.8549
▁SCSI	-10.8549
▁chránit	-10.8549
▁energii	-10.8549
▁kapitán	-10.8549
▁mládí	-10.8549
▁názvu	-10.8549
▁přirozené	-10.8549
▁koncepci	-10.8549
▁Včera	-10.8549
▁čtvrtfinále	-10.8549
▁Nedávn	-10.8549
▁blízko	-10.8549
▁ekonomicky	-10.8549
▁investování	-10.8549
▁Plzni	-10.8549
▁nejvýznamnější	-10.8549
▁stabilní	-10.8549
▁Ladislav	-10.8549
▁Policisté	-10.8549
▁trzích	-10.8549
▁rámeček	-10.8549
▁Francouz	-10.855
▁výrobek	-10.855
▁zimě	-10.8551
▁síla	-10.8552
▁obrázky	-10.8552
▁konat	-10.8552
▁uznal	-10.8553
▁tón	-10.8553
▁Malé	-10.8553
▁kritérií	-10.8553
▁Tentokrát	-10.8553
▁Londýně	-10.8554
▁tělo	-10.8554
▁chodit	-10.8554
▁použil	-10.8554
▁bojovat	-10.8555
▁David	-10.8556
▁úvahy	-10.8557
▁hlavou	-10.8557
▁Afriky	-10.8559
▁hudby	-10.8559
▁lokální	-10.8559
▁odstavce	-10.8559
▁umělecký	-10.856
▁Pět	-10.856
▁parametrů	-10.856
▁tradici	-10.8561
▁právnické	-10.8562
▁originální	-10.8562
ir	-10.8564
hodil	-10.8564
▁zbývající	-10.8565
▁schůzky	-10.8565
▁způsobuje	-10.8565
▁požadují	-10.8565
▁povede	-10.8566
▁bosenský	-10.8566
▁scény	-10.8568
▁faktorů	-10.8568
▁vesmíru	-10.8569
▁nezbytné	-10.857
▁Děti	-10.8572
▁úroky	-10.8574
▁vlasti	-10.8575
▁zájemci	-10.8575
▁uživatele	-10.8579
▁spravedlnosti	-10.8579
▁Vznik	-10.8579
▁třetinu	-10.8586
▁nalézt	-10.8587
▁lékařsk	-10.8587
▁nemocných	-10.8594
▁úkolem	-10.8596
▁slíbil	-10.8596
▁světovou	-10.8597
▁Sa	-10.8599
▁okruhu	-10.8599
▁drahé	-10.8599
▁zní	-10.8601
▁způsobené	-10.8602
▁Dobr	-10.8604
▁los	-10.8604
▁starosty	-10.8606
▁paliva	-10.8607
▁Lidové	-10.8608
▁dokumentů	-10.8609
par	-10.8609
▁Klause	-10.8612
▁aktivit	-10.8613
▁představí	-10.8613
něte	-10.8618
AL	-10.8619
▁herec	-10.8622
▁sekund	-10.8622
▁95	-10.8622
88	-10.8623
▁hradu	-10.8624
▁celní	-10.8626
▁vybrané	-10.8627
▁udržel	-10.8628
▁přijel	-10.8629
▁zásady	-10.8629
▁podat	-10.863
▁blíže	-10.8631
▁klidu	-10.8633
▁Bu	-10.8636
▁úkolů	-10.8637
▁limit	-10.8639
▁uvedení	-10.8642
nci	-10.8644
zb	-10.8647
▁pouhé	-10.8649
▁výkonem	-10.8653
▁společensk	-10.8654
▁sklon	-10.8667
▁zásah	-10.8669
šly	-10.8674
▁rozdělen	-10.8676
▁dalšímu	-10.8676
ujících	-10.8677
ováno	-10.8677
▁Mi	-10.8678
▁automobil	-10.8679
▁společenský	-10.8683
▁paláce	-10.8689
▁otevřel	-10.8692
▁slib	-10.8694
▁umělé	-10.8697
▁zůstala	-10.8699
▁hovořil	-10.8701
▁výš	-10.8706
▁odkud	-10.8712
▁skutečný	-10.8715
▁metr	-10.8718
▁jeví	-10.8721
rna	-10.8723
vnějších	-10.8732
▁biologické	-10.8733
▁Nevím	-10.8739
▁školu	-10.8742
▁Několik	-10.8742
▁lustrační	-10.8746
plat	-10.8746
▁9.	-10.8751
▁filmy	-10.8752
▁bran	-10.8753
▁pevný	-10.8756
▁zahraničními	-10.8758
oři	-10.8758
▁hloub	-10.8761
▁objevit	-10.8763
▁30.	-10.8766
▁potřebný	-10.8775
cký	-10.878
50	-10.8781
▁Britsk	-10.8784
▁platný	-10.8786
▁výrok	-10.8808
▁nalezen	-10.8813
▁8.	-10.8815
▁čtvrt	-10.8822
rem	-10.8826
šti	-10.8828
▁svědomí	-10.8834
▁návod	-10.8837
▁poli	-10.8837
▁možný	-10.8839
▁ono	-10.8841
▁hrob	-10.8841
▁vzduch	-10.8841
▁parku	-10.8844
▁monopol	-10.8845
▁plynu	-10.8846
▁dítěte	-10.8846
▁ochotni	-10.8848
kož	-10.8849
rán	-10.885
▁neb	-10.8859
80	-10.8859
▁exportní	-10.8868
ičtí	-10.8869
vali	-10.8873
ok	-10.8874
▁kus	-10.8879
▁agent	-10.8894
bytek	-10.8894
▁podílu	-10.8897
▁přínos	-10.8897
olog	-10.8899
ODA	-10.8902
▁standard	-10.8905
▁Auto	-10.8905
▁koně	-10.8905
▁Alexandr	-10.8906
▁Barceloně	-10.8906
▁Británii	-10.8906
▁březnu	-10.8906
▁déšť	-10.8906
▁fázi	-10.8906
▁instalaci	-10.8906
▁normy	-10.8906
▁pomáhá	-10.8906
▁požádat	-10.8906
▁pravidlo	-10.8906
▁tlačítka	-10.8906
▁tlačítkem	-10.8906
▁týdně	-10.8906
▁umožnit	-10.8906
▁vrstvy	-10.8906
▁divize	-10.8906
▁kratší	-10.8906
▁ploše	-10.8906
▁těžce	-10.8906
▁likvidaci	-10.8906
▁značky	-10.8906
▁podmínkou	-10.8906
▁někoho	-10.8906
▁populární	-10.8906
▁pololetí	-10.8906
▁Robert	-10.8906
▁doposud	-10.8907
▁příslušníci	-10.8907
▁ekonomice	-10.8907
▁komisi	-10.8907
▁následek	-10.8907
▁klimatu	-10.8907
▁pozdější	-10.8907
▁červenci	-10.8907
▁Soubor	-10.8907
▁desky	-10.8908
▁IFOR	-10.8908
▁uvažovat	-10.8908
▁kvalifikace	-10.8909
▁horách	-10.891
▁ukázat	-10.891
▁Generální	-10.891
wa	-10.8911
▁Hodnot	-10.8911
▁Dá	-10.8911
▁multimediální	-10.8912
▁Novotná	-10.8912
tp	-10.8912
▁právnických	-10.8913
▁zajímat	-10.8914
▁letiště	-10.8915
▁vzorky	-10.8916
▁vyšel	-10.8917
▁výstavbě	-10.8918
▁vozy	-10.8918
▁působící	-10.8918
▁cenách	-10.8919
▁barvu	-10.892
▁pojem	-10.8925
▁parametry	-10.8925
▁pozorování	-10.8925
▁potvrzení	-10.8925
▁chyběl	-10.8926
▁ukáže	-10.8927
▁Cíle	-10.8928
▁JU	-10.893
▁ohrožení	-10.8931
▁Atlanty	-10.8932
▁účelem	-10.8935
▁%)	-10.8935
▁příspěvky	-10.8939
▁plynů	-10.8939
▁obvyklé	-10.894
▁mezinárodním	-10.8941
▁srážky	-10.8941
▁důchodové	-10.8943
▁úvodu	-10.8944
▁věnuje	-10.8944
▁dvojí	-10.8944
▁muzeum	-10.8948
▁očekávání	-10.895
tře	-10.8953
▁Svazu	-10.8953
▁sektoru	-10.8955
▁příjemné	-10.8957
▁přírodovědecké	-10.8957
▁studenti	-10.896
▁Karadžič	-10.8963
▁styku	-10.8964
▁držet	-10.8966
▁lidsk	-10.8966
▁potenciální	-10.8967
▁řeky	-10.8967
▁napsat	-10.8968
▁ztrátu	-10.8968
▁obchodů	-10.8973
▁varianty	-10.8974
▁třetina	-10.8978
▁nahradit	-10.8978
▁průzkumu	-10.8985
▁španělské	-10.8987
▁ekonomika	-10.8991
▁cíli	-10.8994
19	-10.9
▁kontrola	-10.9003
▁polo	-10.9005
▁trvalé	-10.9012
▁starost	-10.9013
▁spokojeni	-10.9013
▁jediného	-10.9016
▁zjevn	-10.9022
▁Velm	-10.9022
▁38	-10.9023
kin	-10.9024
▁změnila	-10.9024
eb	-10.9028
skutk	-10.9029
▁Často	-10.9037
▁založena	-10.9038
▁pořádá	-10.9043
▁černé	-10.9043
▁výrazné	-10.9044
▁určitém	-10.9046
▁hrála	-10.9054
leb	-10.9064
čku	-10.9071
▁osoba	-10.9073
LO	-10.9076
▁telefonu	-10.908
▁Ž	-10.9082
▁světov	-10.9085
▁specializované	-10.9086
AR	-10.909
▁udělal	-10.909
▁chorvatské	-10.9091
▁rostlin	-10.9091
▁signál	-10.9093
izace	-10.9094
▁Celk	-10.9094
TI	-10.9094
▁nějakým	-10.9095
▁předložen	-10.9102
▁rychlý	-10.9102
▁(1	-10.9105
▁společném	-10.9107
▁představitel	-10.9115
▁důsledně	-10.9123
▁Martina	-10.9123
▁46	-10.9124
▁menším	-10.9129
▁král	-10.9147
▁výbuch	-10.9147
dit	-10.9148
▁italský	-10.915
národních	-10.9155
▁česko	-10.918
▁Vlk	-10.9187
fe	-10.9189
▁tvořen	-10.919
▁dohod	-10.9195
vad	-10.9203
nese	-10.9208
▁zájemců	-10.9211
▁devadesát	-10.9212
▁čtrnáct	-10.9216
▁koupi	-10.9217
▁čtyřiceti	-10.9218
▁pověst	-10.9218
▁kupující	-10.9219
▁zásluh	-10.9228
▁vedoucího	-10.9238
▁dar	-10.9239
▁přesun	-10.9242
▁Výbor	-10.9245
▁předal	-10.9245
▁stisk	-10.9247
▁náskok	-10.9251
cího	-10.9252
ick	-10.9253
▁Společn	-10.9264
▁vím	-10.9267
pas	-10.9276
▁Koaliční	-10.9277
▁Ukrajiny	-10.9277
▁Zvláštní	-10.9277
▁burze	-10.9277
▁církví	-10.9277
▁galerie	-10.9277
▁patrné	-10.9277
▁upozorňuje	-10.9277
▁určuje	-10.9277
▁šetření	-10.9277
▁naznačil	-10.9277
▁náboženství	-10.9277
▁ovlivňuje	-10.9277
▁sdělovací	-10.9277
▁usilovat	-10.9277
▁fáze	-10.9277
▁příliv	-10.9277
▁držitel	-10.9277
▁podporou	-10.9277
▁vzestup	-10.9277
nutně	-10.9277
▁integraci	-10.9277
vázat	-10.9277
▁filozofie	-10.9277
▁hutní	-10.9277
▁zámku	-10.9277
▁Formát	-10.9277
▁myšlenkou	-10.9277
▁1997	-10.9277
▁duše	-10.9277
▁svátky	-10.9277
▁slabší	-10.9277
▁manželství	-10.9277
▁nehodlá	-10.9277
▁myšlenku	-10.9277
▁nízko	-10.9277
▁sílu	-10.9278
▁obnovu	-10.9278
▁přežití	-10.9278
▁srdeční	-10.9278
▁obrázků	-10.9278
▁podnicích	-10.9278
▁Původně	-10.9278
▁Komis	-10.9279
▁hřiště	-10.9279
▁plod	-10.9279
▁šíření	-10.9279
▁odhadnout	-10.928
▁mírové	-10.928
▁testování	-10.9281
▁přestup	-10.9281
▁pronájem	-10.9282
hodlají	-10.9282
▁potíží	-10.9283
▁prosazovat	-10.9284
▁sledování	-10.9285
▁doporučení	-10.9286
▁Nejde	-10.9286
▁silnější	-10.9287
▁úředníků	-10.9287
kar	-10.9287
▁posoudit	-10.9289
▁36	-10.9289
▁kop	-10.9289
▁přístrojů	-10.929
▁Byli	-10.9291
▁Labem	-10.9291
▁přinese	-10.9291
W	-10.9293
▁znamenalo	-10.9293
▁zákazníci	-10.9293
▁soustředění	-10.9294
▁tvrdě	-10.9295
ňování	-10.9295
▁úlohu	-10.9295
▁jistotu	-10.9296
▁olej	-10.9296
▁Nikd	-10.9297
▁následky	-10.9298
▁přehlídky	-10.9299
▁karta	-10.9304
▁příslušníků	-10.9305
▁soudce	-10.9306
ovské	-10.9307
▁vládou	-10.9308
▁nedaleko	-10.9309
▁Naši	-10.9311
▁válka	-10.9311
▁stanovit	-10.9311
▁začínající	-10.9312
▁ostře	-10.9314
▁viděl	-10.9316
táhne	-10.9318
▁lidové	-10.9321
▁75	-10.9322
▁Platí	-10.9322
▁výhod	-10.9324
óz	-10.9327
▁Eva	-10.9327
▁pouště	-10.9332
▁experti	-10.9333
Ú	-10.9334
bere	-10.9335
▁rozsáhlé	-10.9336
▁díly	-10.9336
▁hotelů	-10.9338
▁rostoucí	-10.9338
▁zápisu	-10.9338
▁náročné	-10.9341
▁výbuchu	-10.9343
▁americkém	-10.9344
▁mimořádný	-10.9346
▁Dan	-10.9349
▁protest	-10.9349
▁národ	-10.9349
▁vložit	-10.9349
▁papírů	-10.935
▁předpoklady	-10.9353
▁technika	-10.9354
kolik	-10.9357
▁samotné	-10.936
▁výstavu	-10.9361
▁7.	-10.9364
▁moravsk	-10.9368
▁Cest	-10.9368
▁vrcholu	-10.9372
denní	-10.9372
▁sociálně	-10.9373
▁procento	-10.9377
▁týmem	-10.9378
▁spory	-10.938
▁Výhod	-10.9382
▁krátký	-10.9383
▁fotbalu	-10.9383
vyšších	-10.9383
▁ziskem	-10.9383
▁měnové	-10.9387
▁Malý	-10.9391
▁číst	-10.9394
▁pacient	-10.9396
▁14.	-10.94
nechává	-10.9401
▁snahy	-10.9402
▁světlo	-10.9402
▁vstupní	-10.9403
▁rozlišení	-10.9404
▁IBM	-10.9408
▁technického	-10.9424
▁naposledy	-10.9425
▁zákazu	-10.943
IT	-10.9431
15	-10.9434
▁ztrát	-10.9437
▁osobě	-10.9437
▁připraveni	-10.9439
▁Pří	-10.944
▁taneční	-10.9445
▁tříd	-10.9446
pil	-10.9449
▁našim	-10.9452
dařilo	-10.9453
▁tuzemské	-10.9458
▁chová	-10.946
nky	-10.946
▁All	-10.9462
▁vzdálené	-10.9462
▁programem	-10.9463
▁85	-10.9471
▁trvalo	-10.9476
▁republiku	-10.9479
▁školení	-10.9483
▁oxidu	-10.9496
▁Vol	-10.9503
▁kulturních	-10.9507
iletý	-10.9509
▁dospěl	-10.9511
▁nedělní	-10.9523
tů	-10.9526
▁víkend	-10.9528
▁obsadil	-10.9534
▁koho	-10.9541
▁úspěšný	-10.9547
▁šel	-10.9547
▁trati	-10.9548
▁Jaký	-10.955
▁Nejs	-10.9551
▁určena	-10.9553
ug	-10.9553
▁180	-10.9565
▁29	-10.9565
▁Oznámil	-10.9565
▁mo	-10.9567
▁přítomnost	-10.9571
▁podstatný	-10.9571
▁typické	-10.9574
ováním	-10.9578
▁vzdálenost	-10.9578
ona	-10.9581
▁soused	-10.9583
▁fanoušků	-10.9589
star	-10.959
▁praktický	-10.9593
ickou	-10.9593
ama	-10.9597
▁Možnost	-10.96
▁Problém	-10.96
▁výlet	-10.96
▁kabinet	-10.9601
▁zabývají	-10.9601
out	-10.9603
▁poskytnut	-10.9605
▁sortiment	-10.9606
▁základním	-10.961
týká	-10.9613
▁malého	-10.9616
▁symbol	-10.9616
ráží	-10.9619
▁1987	-10.9621
▁okrese	-10.9624
▁zvolil	-10.9627
ejme	-10.9633
▁snížen	-10.9633
▁připomněl	-10.9643
▁zvíře	-10.9644
CA	-10.9645
▁Be	-10.9648
▁poznat	-10.9651
volat	-10.9652
▁jádro	-10.9654
ab	-10.9656
▁podvod	-10.9656
▁přístroj	-10.9659
nášet	-10.9661
▁Vedoucí	-10.9661
▁dodatečně	-10.9661
▁důležitá	-10.9661
▁franků	-10.9661
▁instalace	-10.9661
▁konstrukce	-10.9661
▁pohledávek	-10.9661
▁redakce	-10.9661
▁stupňů	-10.9661
▁upozornit	-10.9661
▁Bejbl	-10.9661
▁pojmů	-10.9661
▁přežít	-10.9661
▁DPH	-10.9661
▁Asociac	-10.9661
▁jedince	-10.9661
▁kvalifikační	-10.9661
▁restaurace	-10.9661
▁Řešení	-10.9661
▁Prostě	-10.9661
▁1984	-10.9661
▁sněhov	-10.9661
▁formální	-10.9662
▁stovek	-10.9662
▁1968	-10.9662
▁nohy	-10.9662
▁nejmenší	-10.9662
▁vyšetření	-10.9662
▁1986	-10.9662
▁poznatků	-10.9662
▁inspekce	-10.9662
▁Průměrn	-10.9662
▁Tedy	-10.9662
▁spolupracovat	-10.9662
▁legislativní	-10.9662
▁května	-10.9663
▁nápis	-10.9663
▁podzemní	-10.9663
▁marně	-10.9663
▁majetkem	-10.9664
▁Bill	-10.9664
▁chápat	-10.9664
▁drog	-10.9665
▁Belgie	-10.9665
▁3,5	-10.9665
▁III	-10.9665
▁ruku	-10.9666
▁manželka	-10.9666
▁upravit	-10.9666
▁vyvolat	-10.9667
▁potřeb	-10.9667
▁DEM	-10.9669
▁platební	-10.9669
▁užitek	-10.9669
▁Potom	-10.967
▁uplynulý	-10.9671
▁ZA	-10.9671
▁odstranění	-10.9672
▁Nejen	-10.9672
▁rozložení	-10.9674
▁elektřiny	-10.9674
▁jevů	-10.9674
▁žáků	-10.9675
▁návštěvy	-10.9675
▁volbami	-10.9676
▁oznámení	-10.9677
▁polohy	-10.9678
▁Lux	-10.9678
▁bilance	-10.968
▁Sovětský	-10.9682
▁tr	-10.9683
▁zvukové	-10.9685
▁Japonsku	-10.9686
▁většího	-10.9689
▁linky	-10.9692
▁půdu	-10.9692
▁utrpěl	-10.9692
▁měny	-10.9693
▁Sv	-10.9694
▁výstavbu	-10.9694
lení	-10.9695
▁osobností	-10.9695
▁Německem	-10.9696
▁Jedná	-10.9696
váží	-10.9699
▁Nejdřív	-10.97
▁koalici	-10.97
▁Výstava	-10.97
▁ostrovy	-10.9703
MU	-10.9705
▁uměl	-10.9705
▁týdeník	-10.9706
▁demokratů	-10.9707
▁hrubého	-10.9709
▁složité	-10.9709
▁oceánu	-10.971
▁kapacity	-10.9711
▁Me	-10.9712
▁obvodu	-10.9715
▁orgánu	-10.9715
▁vedlo	-10.9717
▁oborů	-10.972
▁Celkov	-10.9721
▁bezprostřední	-10.9724
▁mírový	-10.9724
▁stejná	-10.9727
▁potřebu	-10.9729
▁strom	-10.973
▁monitoru	-10.9735
▁výběrem	-10.9738
▁Rady	-10.9742
▁metru	-10.9744
▁nájemní	-10.9744
▁nájemce	-10.9749
▁pachatel	-10.9756
▁systematick	-10.9759
▁přátel	-10.9765
▁dokumenty	-10.977
▁hvězdy	-10.9773
pt	-10.9778
▁primátora	-10.9778
▁skutečností	-10.9783
▁fotbalových	-10.9789
bel	-10.9789
▁nastavit	-10.9792
▁základy	-10.9792
70	-10.9793
padlo	-10.9794
▁skupinou	-10.9795
▁plány	-10.9796
▁mechanik	-10.9798
▁konkrétně	-10.9799
▁25.	-10.9799
▁zjištěn	-10.9801
▁reagoval	-10.9802
▁vůdce	-10.9802
▁poslanecké	-10.9812
ruší	-10.9816
▁kom	-10.9817
▁běh	-10.9819
icky	-10.9819
jat	-10.9819
▁připustil	-10.9829
▁sportovních	-10.9832
▁evropského	-10.9833
inter	-10.9836
tak	-10.9837
▁Jediný	-10.9841
▁pra	-10.9841
▁vzniknou	-10.9842
ovky	-10.9842
▁mořský	-10.9849
▁Bílé	-10.9851
▁současném	-10.9853
▁šedesáti	-10.9854
▁prozatím	-10.9855
usi	-10.9863
▁zdravotnický	-10.9868
itel	-10.9873
▁odraz	-10.9875
TU	-10.988
▁rozvoji	-10.9882
klád	-10.9885
▁bohat	-10.989
dů	-10.9895
▁listy	-10.9895
vil	-10.9899
%	-10.9902
▁kandidát	-10.9902
▁připravena	-10.9912
▁potřeboval	-10.9913
▁konečné	-10.9913
▁specializovan	-10.9915
dra	-10.9917
nů	-10.9917
▁chci	-10.9924
▁zpravodaj	-10.9925
▁prvé	-10.9925
▁podklad	-10.9928
▁jmen	-10.993
číst	-10.9941
▁třináct	-10.9942
▁Obdobn	-10.9948
▁zná	-10.9949
pokoj	-10.9953
▁silnic	-10.9962
▁Zajímav	-10.9972
her	-10.9973
bývá	-10.9974
▁modul	-10.9976
han	-10.9977
▁minuty	-10.9979
áci	-10.9979
▁německá	-10.998
při	-10.9982
▁průměr	-10.9986
▁těší	-10.9987
▁zájmů	-10.9992
▁původním	-10.9993
šek	-10.9995
▁zápis	-10.9996
▁hluboko	-10.9996
▁rozvod	-10.9997
▁právník	-10.9999
hodnou	-11
▁raket	-11.0001
▁čistý	-11.0002
▁divadelní	-11.0002
▁klientů	-11.0003
▁fotbalov	-11.0004
set	-11.0006
▁vstupné	-11.0035
▁Ján	-11.0036
▁následn	-11.0038
▁Mechanik	-11.0039
▁koupil	-11.0041
▁probíh	-11.0045
▁hlubo	-11.0048
▁zaznamenal	-11.0048
AV	-11.0049
▁Karlový	-11.0051
▁doporučuje	-11.0051
▁pomohl	-11.0055
▁věděl	-11.0056
▁13.	-11.006
▁postoje	-11.0061
▁domnívají	-11.0061
▁hovořit	-11.0061
▁naštěstí	-11.0061
▁nevědí	-11.0061
▁odlišný	-11.0061
▁převzít	-11.0061
▁uplatnit	-11.0061
▁zázemí	-11.0061
▁Domácí	-11.0061
▁Musel	-11.0061
▁Poborský	-11.0061
▁učinit	-11.0061
▁Sociální	-11.0061
▁sněžení	-11.0061
▁pokoušel	-11.0061
▁slyšet	-11.0061
▁škál	-11.0061
▁forem	-11.0061
▁Slavii	-11.0061
▁prodlení	-11.0061
▁nejrychlejší	-11.0061
▁stránek	-11.0061
▁efektivní	-11.0061
▁dlouhodobý	-11.0061
▁firmám	-11.0061
▁dubnu	-11.0062
▁obrazovce	-11.0062
▁studií	-11.0062
▁radikální	-11.0062
▁přizpůsobit	-11.0062
▁uvedeno	-11.0062
▁občanství	-11.0062
▁označuje	-11.0063
▁Vesel	-11.0063
▁fronty	-11.0064
▁posuzovat	-11.0064
▁Pracovní	-11.0064
▁podílejí	-11.0064
▁Číny	-11.0065
▁obrázku	-11.0065
▁stavbu	-11.0067
▁každodenní	-11.0067
▁Okresní	-11.0067
▁rejstříku	-11.0071
▁pracovnice	-11.0071
▁Všechno	-11.0071
▁kritéria	-11.0071
▁podnikat	-11.0071
▁písemně	-11.0074
▁Roman	-11.0075
▁poslal	-11.0075
▁souhrn	-11.0076
▁dobách	-11.0077
▁regulace	-11.0077
▁demokraté	-11.0078
▁osvobození	-11.0078
▁znalostí	-11.0078
▁všeobecné	-11.0078
▁náhradu	-11.0079
▁předmětů	-11.008
▁zbrojní	-11.008
▁výjimky	-11.008
▁rysy	-11.0081
▁Druhou	-11.0082
▁včerejším	-11.0083
▁Kalvoda	-11.0084
▁Wimbledonu	-11.0084
▁teplotě	-11.0086
▁summitu	-11.0087
▁ukládání	-11.0087
▁redaktor	-11.0088
▁bot	-11.0089
jdou	-11.0089
▁návštěva	-11.0092
hrát	-11.0092
▁vůz	-11.0093
▁obchodníci	-11.0093
▁orientaci	-11.0094
▁tvaru	-11.0095
▁nemovitosti	-11.0096
▁Organiza	-11.0098
▁ztrátou	-11.0101
▁resortu	-11.0101
▁bojů	-11.0102
▁předměty	-11.0102
▁módní	-11.0107
▁jednalo	-11.0107
▁vstoupit	-11.0112
▁věty	-11.0112
▁Cha	-11.0113
▁Čechů	-11.0114
▁špičkové	-11.0116
▁divu	-11.0117
▁odbory	-11.0117
▁sboru	-11.0118
▁Karl	-11.0118
▁kandidáty	-11.0122
▁sjezdu	-11.0123
▁vybírá	-11.0123
▁zvuku	-11.0123
čela	-11.0124
▁představil	-11.0125
ony	-11.0128
▁prodloužení	-11.0128
▁Han	-11.0128
▁konto	-11.0133
▁snažili	-11.0135
▁světla	-11.0136
▁nezávisl	-11.0141
▁mapy	-11.0142
40	-11.0143
,6	-11.0151
▁důkazy	-11.0151
▁Pražského	-11.0154
▁sestavení	-11.0155
▁planety	-11.0158
▁gen	-11.0167
▁celkovém	-11.0175
▁úspory	-11.0176
▁charakteru	-11.018
Ile	-11.0181
▁Aleš	-11.0184
▁von	-11.0186
▁Michaela	-11.0187
▁úkoly	-11.0189
▁známých	-11.019
▁Ni	-11.019
▁metra	-11.0191
tion	-11.0194
▁ochotn	-11.0202
▁ovlivňují	-11.0203
▁vracet	-11.0204
kovou	-11.0207
bývají	-11.0209
▁předvolební	-11.0213
▁Moskva	-11.0215
▁uživatel	-11.0218
▁požár	-11.0219
konala	-11.0219
▁klient	-11.022
▁některý	-11.0224
▁Les	-11.0227
▁ClipArt	-11.0227
▁Ben	-11.0228
▁naším	-11.0229
▁")	-11.0229
▁nebezpečný	-11.0233
▁německém	-11.0234
cky	-11.0241
▁Podnikatel	-11.0241
▁bolest	-11.0242
▁bývají	-11.0247
▁daný	-11.0248
por	-11.0251
▁skládá	-11.0255
▁objeven	-11.0256
▁předchozích	-11.0259
▁roze	-11.0262
▁700	-11.0266
▁evropském	-11.0267
▁drah	-11.0272
▁typický	-11.0273
čern	-11.0274
▁maďarský	-11.0275
▁jevy	-11.0289
cházelo	-11.0289
rám	-11.0292
▁významn	-11.0294
▁autora	-11.0298
▁vyp	-11.0299
▁svobod	-11.03
▁výkonů	-11.0302
▁pracovníka	-11.0305
▁páté	-11.0308
▁vydat	-11.031
Severoatlantické	-11.0311
▁podílí	-11.0311
rušení	-11.0312
▁okamžik	-11.0321
▁vystoupil	-11.0322
▁Kor	-11.0324
áhy	-11.0325
nvestiční	-11.0326
části	-11.0336
▁demokratick	-11.0338
ologie	-11.0341
▁služební	-11.0342
▁vámi	-11.0342
▁počítačový	-11.0343
ral	-11.0346
▁styk	-11.0347
▁48	-11.0358
daly	-11.0359
▁kuponov	-11.0374
▁díl	-11.0376
▁tábor	-11.0377
▁češt	-11.0378
og	-11.038
▁procesor	-11.0381
MI	-11.0382
být	-11.0384
cker	-11.0384
▁okolnost	-11.0386
▁obyvatele	-11.0391
loni	-11.0391
▁Pražský	-11.0391
▁olympijsk	-11.0392
▁fyzikální	-11.0395
▁statistické	-11.0401
▁Němců	-11.0405
▁Novotný	-11.0407
ON	-11.0407
▁magistrát	-11.0413
▁vysoko	-11.0413
▁mlýn	-11.0415
▁Sovětském	-11.0417
▁uživatelů	-11.0421
elné	-11.0422
▁min	-11.0425
▁čtenářů	-11.043
▁mód	-11.0431
▁reprezentantů	-11.0431
▁Než	-11.0432
nová	-11.0434
bíhá	-11.0434
schválila	-11.0438
ide	-11.0451
▁mechanismu	-11.0455
▁vyvíj	-11.0456
▁oleje	-11.0457
▁instituce	-11.0458
▁Šest	-11.0459
KU	-11.046
▁Olomouc	-11.0461
▁britsk	-11.0467
daných	-11.0467
▁krajan	-11.047
▁Část	-11.0472
stupují	-11.0475
▁23.	-11.0478
▁statut	-11.0478
▁CADKON	-11.0478
▁Lebeď	-11.0478
▁Pithart	-11.0478
▁Srbů	-11.0478
▁bližší	-11.0478
▁církvi	-11.0478
▁konferencí	-11.0478
▁nízká	-11.0478
▁odpovědí	-11.0478
▁ovlivněn	-11.0478
▁reagovat	-11.0478
▁schůzi	-11.0478
▁softwaru	-11.0478
▁strategii	-11.0478
▁zpátky	-11.0478
▁zálivu	-11.0478
▁žádoucí	-11.0478
▁Šéf	-11.0478
▁zazněl	-11.0478
▁Mencl	-11.0478
▁nárůst	-11.0478
▁technologii	-11.0478
▁uzavírá	-11.0478
▁Vídni	-11.0478
▁dědictví	-11.0478
▁stůl	-11.0478
▁nábytku	-11.0478
▁kombinaci	-11.0478
▁zařadil	-11.0478
▁Praktick	-11.0478
▁navrhnout	-11.0478
▁komunikaci	-11.0478
▁vrchní	-11.0478
▁maximum	-11.0478
▁Mazda	-11.0478
▁délce	-11.0478
▁nastat	-11.0478
▁bance	-11.0479
▁otec	-11.0479
▁okresů	-11.048
▁zvolit	-11.048
▁Finanční	-11.048
▁kreslení	-11.048
▁odejít	-11.0481
pálen	-11.0481
▁dokáží	-11.0482
tav	-11.0482
▁pohybovat	-11.0483
▁nejvýše	-11.0484
▁nezaměstnaných	-11.0484
▁užit	-11.0484
▁komunální	-11.0484
▁Polsko	-11.0484
▁živočichů	-11.0484
▁Brazílie	-11.0485
▁odmítají	-11.0485
▁Chci	-11.0485
▁respektovat	-11.0486
▁Stručně	-11.0486
▁uložit	-11.0486
▁pochopit	-11.0486
▁kilogramů	-11.0486
▁obchodování	-11.0486
▁dočasně	-11.0486
▁ponechat	-11.0486
▁Postup	-11.0487
▁splatnosti	-11.0487
▁vkladů	-11.0488
čně	-11.0488
▁říjnu	-11.0491
▁64	-11.0491
oprvé	-11.0492
▁splnit	-11.0492
▁levé	-11.0493
▁Nic	-11.0496
▁kontrole	-11.0496
▁řidič	-11.05
▁Spor	-11.05
▁energetické	-11.05
▁Moh	-11.0501
▁zaplacení	-11.0504
ista	-11.0504
▁jistou	-11.0504
▁Jin	-11.0505
▁zastavení	-11.0506
▁poskytování	-11.0506
▁zakázky	-11.0507
ckých	-11.0507
▁postižených	-11.0507
▁potřebujeme	-11.0508
▁vozidla	-11.0508
▁anglické	-11.051
▁kongresu	-11.051
▁schématu	-11.0511
▁dokončení	-11.0513
▁titulů	-11.0514
▁Stav	-11.0515
▁vyhlášení	-11.0518
▁KB	-11.0519
▁padesátých	-11.0519
▁Kniha	-11.0524
MO	-11.0525
▁projeví	-11.0526
▁lidu	-11.0527
▁student	-11.0527
▁účinnosti	-11.0528
▁trpí	-11.053
▁hale	-11.053
▁katolické	-11.0532
▁témat	-11.0532
▁Intergraph	-11.0532
▁pádu	-11.0532
▁valné	-11.0535
▁listů	-11.0536
▁vzá	-11.0536
▁zvukov	-11.0539
▁Jedn	-11.054
▁dosti	-11.0542
▁představoval	-11.0546
pochyby	-11.055
▁recept	-11.0552
▁specifické	-11.0555
▁snaz	-11.0556
▁dokázali	-11.0556
hodit	-11.0557
▁kruh	-11.0558
▁rodinu	-11.0558
▁niž	-11.0558
▁kontakt	-11.0559
▁poruch	-11.056
▁past	-11.056
89	-11.0565
▁nápady	-11.0569
vedl	-11.057
▁předpokladu	-11.0573
▁odbor	-11.0575
stál	-11.0576
▁zabývající	-11.0584
▁podnikatelsk	-11.0584
▁údaj	-11.0585
eček	-11.0585
▁hotely	-11.0586
▁porad	-11.0591
▁řešením	-11.0591
▁čtenáři	-11.0595
ičky	-11.0598
▁21.	-11.0599
▁míra	-11.0602
▁růstem	-11.0605
▁jakož	-11.0605
▁vědu	-11.0606
▁určení	-11.0607
▁reprezentanti	-11.0608
▁spotřebitele	-11.0609
▁Představ	-11.0615
klo	-11.062
▁jazyka	-11.0621
▁každým	-11.0625
▁pravidelné	-11.0625
▁brankáře	-11.0626
nému	-11.0626
▁Jistě	-11.0626
▁zůstanou	-11.0626
▁zvuk	-11.0626
▁církevní	-11.0626
▁našli	-11.0628
▁vz	-11.0629
▁podřízen	-11.063
▁vznikající	-11.0632
▁osudu	-11.0633
▁věk	-11.0633
šit	-11.0639
▁Prvním	-11.0641
▁objevily	-11.0643
▁zvýšila	-11.0647
▁neměly	-11.0649
▁Volb	-11.0653
▁pokusy	-11.0657
▁rezerv	-11.0658
▁hlásí	-11.066
▁přijala	-11.0662
▁odmítli	-11.0667
▁Sun	-11.0669
▁společných	-11.0674
▁stála	-11.0675
volání	-11.068
▁Stal	-11.0681
▁výchov	-11.0686
▁vyhlášen	-11.0686
▁zvířata	-11.0695
▁manžel	-11.0696
hla	-11.0697
▁stejných	-11.0697
losování	-11.0698
▁nemám	-11.0706
▁rozhovor	-11.0707
▁zeměmi	-11.0707
▁obtížně	-11.0709
▁závodní	-11.0713
▁Hol	-11.0713
Ř	-11.0718
▁66	-11.072
van	-11.0721
▁rozsáhlý	-11.0723
▁advokát	-11.0723
▁úz	-11.0724
pustil	-11.073
▁47	-11.0731
▁Johna	-11.0731
náší	-11.0735
▁pu	-11.0737
▁odpovídal	-11.074
ráže	-11.0742
▁přidal	-11.0746
▁týdenní	-11.0752
▁hráčem	-11.0752
▁podílel	-11.0759
▁známe	-11.076
▁klíčový	-11.0761
▁jest	-11.0766
▁Rozhodn	-11.0766
▁návrhů	-11.0766
▁katalog	-11.077
▁závažný	-11.0771
▁uvede	-11.0775
▁tváří	-11.0775
▁únik	-11.0775
▁úmysl	-11.0776
▁protein	-11.0778
▁Par	-11.0786
▁praví	-11.0787
dává	-11.0787
▁vládních	-11.0787
▁zahájen	-11.079
hlížet	-11.079
▁modern	-11.0793
25	-11.0794
▁hladin	-11.0794
72	-11.0794
átor	-11.0795
jezd	-11.0796
▁sehrál	-11.0796
▁děj	-11.0799
lci	-11.08
▁císaře	-11.0801
20	-11.0804
▁Zemana	-11.081
net	-11.081
▁podpořil	-11.0813
najdeme	-11.0815
▁Chyb	-11.0818
▁Jac	-11.0819
▁odchod	-11.0822
IST	-11.0823
rob	-11.0825
▁požadovaný	-11.0826
asi	-11.0826
▁hrdin	-11.0828
▁sjezd	-11.0831
▁jmenuje	-11.0831
▁Ros	-11.0833
celku	-11.0837
▁moment	-11.0841
▁cestující	-11.0842
▁uplynul	-11.0843
▁hmot	-11.0843
▁49	-11.0844
▁Fotbal	-11.0846
▁oblačnost	-11.0847
▁schéma	-11.0848
▁proměn	-11.0849
▁nevěděl	-11.0849
▁novinářů	-11.085
▁umělecké	-11.085
▁dres	-11.0851
▁premiéru	-11.0853
▁dividend	-11.0853
▁členům	-11.0855
▁obsažen	-11.0856
▁existující	-11.0857
▁pokládá	-11.0858
res	-11.0863
▁konkrétním	-11.0863
▁zdravotním	-11.0864
▁urychlen	-11.0871
kryje	-11.0872
▁Mark	-11.0875
▁získává	-11.0878
▁zaujal	-11.088
▁nižších	-11.088
▁provedl	-11.088
▁Divadl	-11.088
RO	-11.088
▁beze	-11.0882
skočil	-11.0883
▁pohyboval	-11.0887
ller	-11.0889
▁sedí	-11.089
▁51	-11.0892
▁svěřen	-11.0892
▁zaměřen	-11.0893
▁zrušil	-11.0899
padne	-11.0905
▁stupni	-11.0906
šení	-11.0907
▁překvapivě	-11.091
▁říkají	-11.091
▁pozdě	-11.091
▁vytvořen	-11.0912
▁Nedvěd	-11.0913
▁Ostatní	-11.0913
▁Tigrid	-11.0913
▁charakteristik	-11.0913
▁cizince	-11.0913
▁divadle	-11.0913
▁galerii	-11.0913
▁hlubší	-11.0913
▁kompetence	-11.0913
▁konstatuje	-11.0913
▁literární	-11.0913
▁metropole	-11.0913
▁nejmodernější	-11.0913
▁nejznámější	-11.0913
▁polojasno	-11.0913
▁požadovat	-11.0913
▁semifinále	-11.0913
▁složek	-11.0913
▁strategií	-11.0913
▁vyhovuje	-11.0913
▁údolí	-11.0913
▁šablon	-11.0913
▁Bratislava	-11.0913
▁Majitel	-11.0913
▁otevřít	-11.0913
▁počínaj	-11.0913
▁stránky	-11.0913
▁Komerčn	-11.0913
▁Prodej	-11.0913
▁představenstva	-11.0913
▁Jugoslávie	-11.0913
▁NDR	-11.0913
▁Mimo	-11.0913
▁poplatek	-11.0913
▁fotografie	-11.0913
▁nejhorší	-11.0913
▁přijme	-11.0913
▁ekonomická	-11.0913
▁malíř	-11.0913
▁Začal	-11.0913
▁vyhnout	-11.0913
▁radnici	-11.0913
▁jezdit	-11.0913
▁Marie	-11.0913
▁logické	-11.0913
▁bohatství	-11.0913
▁udržuje	-11.0914
▁dešti	-11.0914
▁Ruml	-11.0914
▁nominální	-11.0914
▁nedostatku	-11.0914
▁uvědomit	-11.0914
▁vyrovnat	-11.0914
▁neděle	-11.0915
▁podobná	-11.0915
▁Dříve	-11.0916
▁peset	-11.0916
▁přelom	-11.0917
▁chorob	-11.0917
▁Rok	-11.0917
▁předcházející	-11.0917
▁novinách	-11.0918
▁podílet	-11.0918
▁centimetrů	-11.0919
▁prodejny	-11.0919
▁armádě	-11.0919
▁Africe	-11.092
▁fotbalisté	-11.092
▁okresy	-11.092
▁oborech	-11.092
▁položky	-11.0921
▁Ital	-11.0921
▁vyjde	-11.0922
▁počkat	-11.0922
▁závazky	-11.0922
▁změnám	-11.0922
▁kvalitou	-11.0922
▁Maďarsku	-11.0923
▁uvádějí	-11.0923
▁plánování	-11.0926
▁tabulka	-11.0926
přijeli	-11.0927
▁posílen	-11.0928
▁zkušební	-11.0929
▁nemovitostí	-11.0929
▁Let	-11.0929
▁dodržování	-11.093
▁vozu	-11.093
▁Dopravní	-11.0931
▁trenérů	-11.0931
▁par	-11.0932
▁1994.	-11.0932
▁mládeže	-11.0934
▁nevýhod	-11.0934
▁seriálu	-11.0935
▁šestnáct	-11.0935
▁novely	-11.0936
▁vojáci	-11.0937
▁dolů	-11.0938
▁řekne	-11.0938
▁tvarů	-11.0939
▁zubní	-11.0939
▁menu	-11.094
▁přidat	-11.0941
▁výměnu	-11.0942
▁ocenění	-11.0942
▁přijatelné	-11.0944
▁referendum	-11.0946
▁Excelu	-11.0947
▁Budou	-11.0947
3,	-11.0949
▁potravinářské	-11.0951
▁budově	-11.0953
kládá	-11.0953
▁hmotnosti	-11.0957
▁zřízení	-11.0957
elný	-11.0958
▁básník	-11.0959
▁vedoucích	-11.0959
ůj	-11.0966
▁ředitelem	-11.0968
▁Demokratick	-11.0969
▁vystřídal	-11.0971
▁volí	-11.0973
▁studenty	-11.0975
▁materiálem	-11.0976
▁stadiónu	-11.0976
▁tvrdil	-11.0981
▁podzimní	-11.0981
▁magistrátu	-11.0982
▁Clinton	-11.0985
▁procesoru	-11.0986
▁SV	-11.0986
lka	-11.0989
▁ST	-11.0989
▁výhodu	-11.099
▁hráli	-11.0996
▁aktivitu	-11.0996
▁poukaz	-11.1001
▁zdát	-11.1002
▁obchodníků	-11.1003
▁lesa	-11.1004
▁pohádk	-11.1006
▁energetický	-11.1008
▁sestavy	-11.1008
▁plyne	-11.1009
▁taky	-11.1009
▁Potřebuje	-11.101
▁narazil	-11.1012
▁ranní	-11.1013
▁krokem	-11.1014
▁záměry	-11.1015
▁strávil	-11.1021
▁žijí	-11.1021
▁přehledu	-11.1022
▁projevy	-11.1022
▁Františk	-11.1022
▁jedenácti	-11.1023
▁alkohol	-11.1025
▁zvýšily	-11.1025
▁jugoslávské	-11.1027
▁čínský	-11.103
▁rozpočtové	-11.1031
myslí	-11.1033
▁odpovědnosti	-11.1035
▁úpravu	-11.1036
kládat	-11.1037
▁snadné	-11.1037
▁plocha	-11.104
▁rozpad	-11.1042
▁vloni	-11.1049
▁stávající	-11.105
▁člověku	-11.105
ens	-11.1057
▁Ri	-11.1058
▁starého	-11.1058
▁vytvořila	-11.1059
▁odešl	-11.106
▁muselo	-11.1064
jal	-11.1066
▁podpořit	-11.1068
▁bo	-11.1069
ivé	-11.1083
rovná	-11.1084
▁drobn	-11.1086
▁syna	-11.1086
▁teplot	-11.1087
▁přírodního	-11.1091
▁stoupá	-11.1094
▁objevili	-11.1096
pustí	-11.1096
▁datové	-11.1098
bud	-11.1107
▁závody	-11.1107
▁Své	-11.1108
▁procesy	-11.1109
▁rozhodnutím	-11.1112
▁zvyk	-11.1114
▁vlád	-11.1116
boj	-11.1118
▁testy	-11.1119
▁odborn	-11.112
▁ikon	-11.1121
▁28.	-11.1122
▁pr	-11.1124
▁kup	-11.1124
▁velitel	-11.1126
▁obrazy	-11.1126
▁správce	-11.1128
▁předchozím	-11.1133
▁západním	-11.1135
▁působil	-11.114
stávají	-11.1142
▁řek	-11.1146
▁výtvarné	-11.1151
▁motocykl	-11.1153
novými	-11.1154
▁čtrnácti	-11.1158
▁5000	-11.1158
ány	-11.1163
▁nezbytn	-11.1166
razí	-11.1169
▁pokyn	-11.117
▁otevře	-11.1174
▁prav	-11.1175
▁odborník	-11.1176
▁kroku	-11.1177
▁známá	-11.1181
ďte	-11.1182
▁významným	-11.1185
ena	-11.119
▁vědeck	-11.1191
mer	-11.1192
▁texty	-11.1192
▁struktur	-11.1204
▁platné	-11.1208
▁nedostal	-11.1211
▁kg	-11.1216
razil	-11.1222
plňuje	-11.1222
čních	-11.1223
▁Svobod	-11.1226
▁konkrétních	-11.1239
▁prodejem	-11.1239
98	-11.1241
▁jednáních	-11.1242
▁Slovensk	-11.1246
▁prožil	-11.1246
▁Met	-11.1253
▁evropským	-11.126
▁způsobů	-11.1261
pustit	-11.1264
▁klasick	-11.1266
▁fakta	-11.1274
▁náročný	-11.1277
▁Kohl	-11.1277
▁minulost	-11.1278
držel	-11.1279
▁rod	-11.1292
▁volebním	-11.1293
▁Fin	-11.1299
▁Fond	-11.13
▁rozpor	-11.13
▁stadión	-11.1301
▁okruh	-11.1302
▁druhému	-11.1303
▁svazové	-11.1308
▁vyskytují	-11.1311
▁spoj	-11.1312
▁sedmdesát	-11.1313
▁grafick	-11.1319
▁grafik	-11.1319
▁zaměření	-11.1322
▁svobodné	-11.1325
počet	-11.1325
▁způsoben	-11.1327
▁mikro	-11.1328
kombin	-11.1329
řazen	-11.1329
pos	-11.133
▁seminář	-11.1331
▁park	-11.1331
▁stole	-11.1339
▁každoročn	-11.1339
▁debat	-11.1339
▁automobilový	-11.1341
▁převážn	-11.1341
▁uspořádal	-11.1342
▁vrstev	-11.1345
hav	-11.1347
▁myšlenka	-11.1349
jmout	-11.1352
▁prezidentský	-11.1355
▁polské	-11.1357
▁Graf	-11.136
▁Správ	-11.1361
▁probíhal	-11.1364
▁zpěv	-11.1365
▁stíhán	-11.1367
▁Grand	-11.1367
▁1982	-11.1367
▁Armád	-11.1367
▁Dienstbier	-11.1367
▁Dosavadní	-11.1367
▁Fischer	-11.1367
▁Siemens	-11.1367
▁družstvo	-11.1367
▁družstvu	-11.1367
▁geometrii	-11.1367
▁inflaci	-11.1367
▁konstrukcí	-11.1367
▁naznačuje	-11.1367
▁normálně	-11.1367
▁regenerace	-11.1367
▁rekonstrukce	-11.1367
▁rozšiřuje	-11.1367
▁seznámit	-11.1367
▁shodují	-11.1367
▁skupenství	-11.1367
▁službě	-11.1367
▁stránku	-11.1367
▁vstupenek	-11.1367
▁zúčastnit	-11.1367
▁Štědrý	-11.1367
▁Bavor	-11.1367
▁Poldi	-11.1367
▁nabídkou	-11.1367
▁uznat	-11.1367
▁žádat	-11.1367
▁Manžel	-11.1367
▁dodávek	-11.1367
▁integrace	-11.1367
▁Dušan	-11.1367
▁posléze	-11.1367
▁Slavia	-11.1367
▁Náklady	-11.1367
▁směřuje	-11.1367
▁duševní	-11.1367
▁salát	-11.1367
▁rozmístěn	-11.1367
▁rámečku	-11.1367
▁spoléha	-11.1367
▁transformační	-11.1368
▁regulační	-11.1368
▁Rozhodnutí	-11.1368
▁jindy	-11.1368
▁podrobnosti	-11.1368
▁turné	-11.1368
▁napaden	-11.1368
▁nedošlo	-11.1369
▁zmíněn	-11.1369
▁slunce	-11.1369
▁ÚV	-11.1369
▁památek	-11.1369
▁informován	-11.1369
▁přejít	-11.1369
▁usiluje	-11.1369
▁Varech	-11.1369
▁atmosféra	-11.1369
▁přiznává	-11.137
▁pravděpodobné	-11.137
▁Bělohradský	-11.137
▁Milán	-11.137
ukce	-11.1372
▁Těžko	-11.1372
▁souhlasit	-11.1374
▁matka	-11.1374
▁kůže	-11.1374
▁literatury	-11.1374
▁anglický	-11.1375
▁zajistí	-11.1376
▁sedimentů	-11.1376
▁Nadace	-11.1377
▁středisko	-11.1377
hnal	-11.1377
▁nejsem	-11.1378
▁Skupina	-11.1378
▁plná	-11.1378
▁dokázat	-11.1381
▁spojů	-11.1381
▁kdykoliv	-11.1381
▁pěkně	-11.1381
▁sedmdesátých	-11.1382
▁velvyslanectví	-11.1382
ckner	-11.1382
enství	-11.1384
▁upozornění	-11.1384
▁armádu	-11.1385
▁zveřejnění	-11.1385
▁smluv	-11.1386
▁šedesátých	-11.1387
▁olympiádě	-11.1387
▁moři	-11.1387
▁Ad	-11.1387
▁středisku	-11.1388
▁závažné	-11.1388
▁zaslouží	-11.1388
▁zbytky	-11.1389
▁švédské	-11.1389
▁sféry	-11.1389
▁slibuje	-11.1391
▁směn	-11.1391
▁univerzitě	-11.1392
▁fotbalista	-11.1393
▁senátní	-11.1394
▁záruky	-11.1394
▁neuspěl	-11.1396
▁interní	-11.1396
▁postupovat	-11.1397
▁uživatelé	-11.1398
▁luxusní	-11.1398
▁dostaneme	-11.1399
▁složitý	-11.1399
▁činů	-11.1404
▁nešlo	-11.1405
▁samy	-11.1405
▁faktory	-11.1408
▁Fotbalist	-11.1409
▁zuby	-11.141
platit	-11.141
▁horské	-11.141
▁olympiády	-11.1411
▁Št	-11.1411
▁spojuje	-11.1413
▁zásadě	-11.1414
▁příspěvku	-11.1414
▁rozhovorů	-11.1414
▁mise	-11.1415
▁zodpovědnost	-11.1417
▁argumenty	-11.1417
▁výstavní	-11.1417
▁popisuje	-11.1418
▁náhlé	-11.1418
▁ohrožen	-11.1418
například	-11.142
▁hrou	-11.142
▁tlakem	-11.1421
▁přijímá	-11.1421
platí	-11.1423
▁Úřad	-11.1423
▁proudu	-11.1423
▁stopy	-11.1425
▁vládnoucí	-11.1426
▁množstvím	-11.1427
▁metodou	-11.1429
▁dividendy	-11.143
▁měří	-11.1431
brat	-11.1431
▁zprávě	-11.1431
řídil	-11.1434
:3	-11.1434
▁klienty	-11.1434
▁alkoholu	-11.1435
zákon	-11.1437
▁hus	-11.1437
▁doklady	-11.144
spal	-11.1442
▁pacienti	-11.1444
▁silným	-11.1446
▁Asie	-11.1447
▁dotazník	-11.1448
▁propadl	-11.1452
▁přím	-11.1453
▁mateřské	-11.1453
▁Změny	-11.1454
mysl	-11.1456
▁strategické	-11.1456
▁nutnosti	-11.1456
▁nastala	-11.1458
▁překlad	-11.1459
▁škod	-11.1461
▁úspěchem	-11.1462
▁klíčové	-11.1462
▁výnosy	-11.1463
ána	-11.1463
▁Ši	-11.1464
▁spol	-11.1468
▁obory	-11.1474
▁2,	-11.1475
▁Lékaři	-11.1476
▁stě	-11.1478
▁prohráli	-11.1485
▁tělesné	-11.1485
▁městského	-11.1491
ja	-11.1493
▁slovem	-11.1495
▁kapacit	-11.1497
▁tvrdý	-11.1501
▁reáln	-11.1504
ckého	-11.1507
▁Případ	-11.1508
▁potřebn	-11.1508
▁republikou	-11.1511
▁Mečiar	-11.1512
▁přirozený	-11.1512
▁přípravu	-11.1513
▁tenisové	-11.152
▁manažerské	-11.1521
▁červené	-11.1523
▁příslušného	-11.1523
▁trvání	-11.1525
▁Nejlepší	-11.153
▁minutě	-11.1532
▁pojistného	-11.1533
▁podepsali	-11.1535
▁efektu	-11.1538
▁garant	-11.1538
▁pochyb	-11.1542
▁pracující	-11.1543
▁motor	-11.1544
▁zahájením	-11.1545
▁podlehl	-11.1545
▁závěrečném	-11.1546
▁daních	-11.155
▁nadcházející	-11.1552
lis	-11.1557
▁zdi	-11.1557
▁připraveny	-11.1557
▁získaný	-11.1563
▁Vítěz	-11.1565
rit	-11.1567
▁souboj	-11.1567
CD	-11.157
▁značná	-11.1578
tají	-11.1579
▁1996	-11.158
▁Rozhod	-11.1581
▁návrhem	-11.1584
▁úspěchy	-11.1589
splnění	-11.159
▁kontrolovat	-11.1592
▁závodník	-11.1593
▁kont	-11.16
▁dle	-11.161
kázal	-11.1611
▁led	-11.1619
▁red	-11.1622
▁žil	-11.1627
▁pohár	-11.1629
▁orgán	-11.163
▁dluh	-11.1631
▁poradensk	-11.1632
▁jinému	-11.1634
▁odkaz	-11.1636
▁fyzika	-11.1638
▁volb	-11.1639
▁toku	-11.1645
▁známým	-11.1646
▁takovému	-11.1646
IC	-11.1648
▁nejúspěšnější	-11.1648
▁doklad	-11.1656
▁ekonomického	-11.1661
▁kroků	-11.1663
▁Podstatn	-11.1664
áme	-11.1666
▁obvod	-11.1667
▁univerzit	-11.1674
▁nemohla	-11.1675
oji	-11.1676
▁260	-11.1684
▁nějakém	-11.1685
▁původ	-11.1694
jel	-11.1694
▁per	-11.1696
dní	-11.1698
▁znak	-11.1701
▁malým	-11.1701
▁Nemoh	-11.1709
▁studoval	-11.171
▁obal	-11.1711
▁Poslanec	-11.1716
▁Karadžiče	-11.1717
▁zas	-11.1717
tažení	-11.1718
razit	-11.1721
mor	-11.1721
▁zvláštním	-11.1724
▁dvoj	-11.1727
▁kapitálové	-11.1728
▁experiment	-11.1733
▁př	-11.1739
▁personál	-11.174
pot	-11.174
▁Tomu	-11.1741
▁důvěry	-11.1741
▁rychlejší	-11.1744
▁Srbsk	-11.1744
▁zastoupen	-11.1745
▁aktivita	-11.1745
chází	-11.1747
bírá	-11.1752
▁útočník	-11.1754
▁svobodný	-11.1756
▁900	-11.1756
níky	-11.1759
ozi	-11.1759
▁dosavadních	-11.1761
▁dosah	-11.1762
▁samot	-11.1765
▁plném	-11.1768
▁úprava	-11.1768
▁humor	-11.177
▁důsledk	-11.1773
▁Chip	-11.1775
▁pokrok	-11.1776
▁Washington	-11.1778
,8	-11.1779
brán	-11.1784
▁jakými	-11.1785
▁sbor	-11.1789
▁balík	-11.1791
šť	-11.1792
▁všemu	-11.1794
rum	-11.1798
▁užívá	-11.1802
yl	-11.1802
hruba	-11.1803
▁nastal	-11.1806
ues	-11.1809
▁zpětn	-11.1809
▁Mí	-11.181
▁stačil	-11.1811
▁Ste	-11.1812
▁trvající	-11.1814
▁ekologick	-11.1817
▁zaměstnanec	-11.1817
vede	-11.182
▁Věřím	-11.1821
▁fin	-11.1825
▁Objekt	-11.1825
▁Paříž	-11.1825
árně	-11.1826
▁dokončen	-11.1828
▁Bla	-11.1828
▁uvedli	-11.183
stává	-11.1831
▁Hra	-11.1832
▁stavbě	-11.1834
ŘÍ	-11.1837
nejvýš	-11.1837
▁Zálež	-11.1843
▁komu	-11.1843
tor	-11.1843
▁Jindřich	-11.1843
▁Michail	-11.1843
▁aplikaci	-11.1843
▁důležitou	-11.1843
▁kanalizace	-11.1843
▁kariéru	-11.1843
▁komunistů	-11.1843
▁lehké	-11.1843
▁obrátit	-11.1843
▁ovlivnit	-11.1843
▁přirozeně	-11.1843
▁přírodu	-11.1843
▁referenda	-11.1843
▁snižovat	-11.1843
▁stupeň	-11.1843
▁svědky	-11.1843
▁ubytovací	-11.1843
▁jedinců	-11.1843
▁válku	-11.1843
▁zbaven	-11.1843
▁Boyle	-11.1843
▁administrativní	-11.1843
▁podmínkám	-11.1843
▁zneužití	-11.1843
▁budoucna	-11.1843
▁týče	-11.1843
▁Kreslení	-11.1843
▁antropologie	-11.1843
▁fosilní	-11.1843
▁kombinace	-11.1844
▁hokejisté	-11.1844
▁přivezl	-11.1844
▁zkrátka	-11.1844
▁češtině	-11.1844
▁dívat	-11.1844
▁příjezd	-11.1844
▁prapor	-11.1844
▁stavět	-11.1844
▁nezmění	-11.1844
▁staletí	-11.1844
▁nezbývá	-11.1844
▁Optima	-11.1844
▁nohou	-11.1844
▁ocenil	-11.1844
▁Zdeňk	-11.1844
▁Minul	-11.1844
▁1980	-11.1845
▁psů	-11.1845
▁nápln	-11.1845
▁ligový	-11.1845
▁výpovědi	-11.1845
▁Říká	-11.1845
▁Příští	-11.1846
▁vítr	-11.1846
▁Konec	-11.1846
▁matky	-11.1846
▁jídla	-11.1846
▁varování	-11.1847
▁kontrakt	-11.1847
konců	-11.1848
▁solidní	-11.1848
▁Karpov	-11.1848
▁vyměnit	-11.1849
▁hlasovat	-11.1849
▁setkáváme	-11.1849
▁převést	-11.185
▁ráj	-11.185
▁etapě	-11.1851
▁chybět	-11.1851
▁Belgii	-11.1851
▁stavba	-11.1851
▁Španělska	-11.1852
▁Atlantiku	-11.1852
▁kontinentu	-11.1852
▁znečištění	-11.1852
▁EU	-11.1853
▁vašem	-11.1853
▁vystoupí	-11.1854
▁smečky	-11.1855
ždyť	-11.1856
▁výraznější	-11.1856
▁Říman	-11.1858
▁současným	-11.1858
▁chuť	-11.1858
▁detailní	-11.1858
▁dostupné	-11.1859
▁vojáky	-11.186
▁knížky	-11.186
▁liberální	-11.186
age	-11.186
▁vítěze	-11.186
▁vyh	-11.1862
▁povahy	-11.1863
▁mzda	-11.1863
álně	-11.1863
▁kanálů	-11.1863
▁osnov	-11.1864
▁zvládnout	-11.1864
▁částkou	-11.1865
▁tržby	-11.1866
▁rizik	-11.1867
▁podobným	-11.1867
▁vybudování	-11.1867
▁logicky	-11.1868
▁uvolnění	-11.1869
▁oken	-11.187
▁expertů	-11.1871
▁učení	-11.1871
▁Kam	-11.1873
▁Dom	-11.1874
umět	-11.1876
▁uzavřena	-11.1878
▁kořeny	-11.188
▁starostí	-11.188
▁Bank	-11.188
▁Blízké	-11.1881
lín	-11.1882
▁Mag	-11.1882
▁čistě	-11.1882
▁volbou	-11.1882
▁kapacitou	-11.1883
▁krevní	-11.1883
▁subjektů	-11.1883
▁KDU	-11.1887
▁prestižní	-11.1887
▁uchazečů	-11.1887
▁krajní	-11.189
▁Voda	-11.1892
▁Maďarsko	-11.1893
,4	-11.1893
▁vyšla	-11.1893
▁nemocí	-11.1895
▁úseku	-11.1895
▁sval	-11.1896
▁sektor	-11.1896
▁play	-11.1896
▁příznivců	-11.1898
▁sloužil	-11.1898
▁průměrně	-11.1904
▁šok	-11.1906
▁Vesmíru	-11.1906
▁okraji	-11.1911
eta	-11.1913
▁strukturu	-11.1914
▁Ex	-11.1922
▁mechaniku	-11.1925
▁Mel	-11.1925
▁lék	-11.1925
▁postih	-11.1926
▁Výrob	-11.1927
▁krásné	-11.1929
▁učí	-11.193
tisknout	-11.193
▁2,5	-11.1932
tvo	-11.1933
▁zásahu	-11.1934
▁oceněn	-11.1936
jeli	-11.1937
▁veškerý	-11.1937
▁obchodě	-11.1937
▁přesný	-11.1938
▁ekonom	-11.1941
AM	-11.1943
jedno	-11.1945
▁počítačov	-11.1945
▁hosty	-11.1945
▁vlastními	-11.1946
hraje	-11.1946
▁brněnsk	-11.1946
af	-11.195
▁mozkov	-11.195
▁Nez	-11.1951
▁Host	-11.1952
▁Den	-11.1952
▁právem	-11.1952
▁vytvořili	-11.1953
▁Ci	-11.1956
▁manažerů	-11.1957
▁elektronické	-11.1958
ton	-11.1959
▁zadní	-11.1961
▁div	-11.1964
▁získáva	-11.1965
▁německým	-11.1965
▁projevu	-11.1966
▁tvary	-11.1968
▁turnaji	-11.1969
▁DO	-11.1974
▁záznamové	-11.1977
▁vedly	-11.1977
šování	-11.1978
elů	-11.1979
▁CS	-11.1981
▁páteční	-11.1982
dáme	-11.1982
era	-11.1983
poví	-11.1983
▁obhájce	-11.1986
▁přijali	-11.1986
PS	-11.1987
▁slabý	-11.1988
▁dějiny	-11.199
ených	-11.1994
▁ztratila	-11.1995
▁350	-11.1998
▁Masarykov	-11.2005
▁relativní	-11.2006
místo	-11.2007
▁komentář	-11.2007
▁náhod	-11.2007
▁rud	-11.2012
▁HZDS	-11.2014
▁politicky	-11.2015
▁poměry	-11.2015
▁uváděn	-11.2024
▁zabit	-11.2025
▁vydala	-11.2025
▁majitelů	-11.2029
zení	-11.2038
▁asistent	-11.204
bin	-11.2041
tedy	-11.2044
▁vodě	-11.2044
▁horský	-11.2048
▁Husov	-11.2053
▁hotové	-11.2054
ino	-11.2056
▁maďarské	-11.2057
▁22.	-11.2058
bude	-11.2062
▁arabské	-11.2064
▁vítězů	-11.2064
řejmě	-11.2064
▁jednal	-11.2064
▁pre	-11.2065
▁občana	-11.2067
▁elektronický	-11.2071
▁předání	-11.2074
ička	-11.2076
▁automatické	-11.2083
ill	-11.2088
bíd	-11.2093
padla	-11.2097
znamenat	-11.2099
▁kontaktu	-11.2101
▁Staré	-11.2101
▁oslav	-11.2105
mark	-11.2105
▁obyčejný	-11.211
▁atomové	-11.2121
▁potvrdila	-11.2121
▁dával	-11.2129
▁témata	-11.213
▁významně	-11.2132
▁jednotné	-11.2132
▁lov	-11.2132
▁zločin	-11.2133
▁kritický	-11.2135
▁spotřebitel	-11.2138
▁historické	-11.2139
ávat	-11.2145
▁přesné	-11.2145
▁trans	-11.2145
▁čištění	-11.2148
▁1500	-11.2148
▁zlaté	-11.2149
▁Výš	-11.2156
▁stanovené	-11.2161
▁mís	-11.2164
utí	-11.2164
dejme	-11.2165
▁vět	-11.2166
▁jednotlivým	-11.2169
nce	-11.217
▁0,	-11.2171
řádně	-11.2174
isté	-11.2179
▁cenové	-11.218
▁otevřený	-11.2185
▁Fa	-11.2192
kům	-11.2196
pir	-11.2196
trh	-11.2203
UJE	-11.2206
▁následujícím	-11.2211
▁jejími	-11.2213
▁týmů	-11.2217
,7	-11.222
ence	-11.2221
▁kolektiv	-11.2225
prázdn	-11.2226
▁jugoslávsk	-11.2227
▁ledový	-11.2228
AD	-11.2231
▁kolech	-11.2232
dnes	-11.2234
▁arabský	-11.2239
▁moravské	-11.2243
▁image	-11.2243
▁Týr	-11.2245
▁královn	-11.2245
kovat	-11.2245
▁ocitl	-11.2246
▁vzhled	-11.2248
▁klesl	-11.2249
▁výprav	-11.2257
▁ráda	-11.2259
und	-11.226
▁mandát	-11.2261
▁dolar	-11.2264
ického	-11.2268
▁pouští	-11.2269
▁sportovním	-11.227
▁zemědělců	-11.2272
▁akcionářů	-11.2273
▁fotoaparát	-11.2273
hradit	-11.2273
▁obdobné	-11.2273
▁budova	-11.2275
▁zdanění	-11.2275
▁Kazachstán	-11.2277
▁Svaz	-11.2278
ins	-11.2279
▁Izraelsk	-11.228
▁certifikát	-11.228
▁rakovin	-11.2283
▁Bor	-11.2283
▁úplné	-11.2284
▁týkají	-11.2289
▁vývojem	-11.2289
NI	-11.2289
▁nejlepšího	-11.229
▁opravu	-11.2291
▁mluvil	-11.2292
▁Pražsk	-11.2292
▁předběžn	-11.2296
▁spodní	-11.2296
▁intenzit	-11.2296
bili	-11.2296
▁akciov	-11.2299
▁Konce	-11.2299
▁blíží	-11.2304
▁odpovídají	-11.2306
▁vzniklé	-11.2309
▁sponzor	-11.2309
▁zachoval	-11.2311
▁Dokon	-11.2311
▁kabel	-11.2313
dni	-11.2314
▁publikován	-11.2315
▁jih	-11.2318
▁medaili	-11.2322
▁klíče	-11.2322
▁hrálo	-11.2323
▁chybu	-11.2323
▁Tur	-11.2325
▁99	-11.2326
ork	-11.2327
nutit	-11.233
68	-11.2333
▁výkonnost	-11.2335
▁případný	-11.2339
▁dlouhodobě	-11.2341
▁Klepn	-11.2341
stu	-11.2342
olicejní	-11.2343
▁Výjimk	-11.2343
▁Výsledek	-11.2343
▁Wembley	-11.2343
▁anonymní	-11.2343
▁cizinců	-11.2343
▁definovat	-11.2343
▁dětmi	-11.2343
▁humanitární	-11.2343
▁intenzivně	-11.2343
▁komisí	-11.2343
▁království	-11.2343
▁lhůty	-11.2343
▁mobilní	-11.2343
▁nabídnut	-11.2343
▁nepatří	-11.2343
▁otázkách	-11.2343
▁připomenout	-11.2343
▁revoluce	-11.2343
▁sankce	-11.2343
▁skener	-11.2343
▁srpnu	-11.2343
▁série	-11.2343
▁uhličitého	-11.2343
▁umístit	-11.2343
▁upozorňují	-11.2343
▁veřejnou	-11.2343
▁zdravotně	-11.2343
▁Komora	-11.2343
▁Názor	-11.2343
▁pozemků	-11.2343
▁pátý	-11.2343
▁stačit	-11.2343
▁řekněme	-11.2343
▁týdnu	-11.2343
▁užitečné	-11.2343
▁vyhověl	-11.2343
▁Ústí	-11.2343
▁Prahu	-11.2343
▁obránce	-11.2343
▁projednávání	-11.2343
▁shluk	-11.2343
▁turisté	-11.2343
▁tvůrčí	-11.2343
▁letišti	-11.2343
▁zážitek	-11.2343
▁nebrání	-11.2343
▁modernizaci	-11.2344
▁sportovci	-11.2344
▁vykonávat	-11.2344
▁Bohemia	-11.2344
▁zaslal	-11.2344
▁kostým	-11.2344
▁minimum	-11.2344
▁realizaci	-11.2344
▁karet	-11.2344
▁evidenci	-11.2344
▁1948	-11.2344
▁proběhla	-11.2344
▁HGF	-11.2344
▁emise	-11.2344
▁převzetí	-11.2344
▁zajistil	-11.2344
▁Chang	-11.2344
▁tmav	-11.2344
▁léčení	-11.2344
▁cítit	-11.2344
▁dvojnásobek	-11.2345
▁experimentální	-11.2345
▁videa	-11.2345
▁atmosféru	-11.2345
▁půjčky	-11.2345
▁přestane	-11.2345
▁rozdělit	-11.2346
▁ČZ	-11.2346
▁ošetření	-11.2346
▁očima	-11.2346
▁venku	-11.2347
▁Ukázal	-11.2347
▁prosím	-11.2348
▁ušetří	-11.2348
▁potřebovat	-11.2348
▁nahoru	-11.2348
▁Poborského	-11.2348
▁tabulku	-11.2348
▁nechci	-11.2348
▁dovoluje	-11.2348
▁čelní	-11.2349
▁potravy	-11.2351
▁sleduje	-11.2352
▁Mostaru	-11.2352
dělování	-11.2353
▁výrobku	-11.2355
▁Pojišťovna	-11.2356
▁ostrovů	-11.2356
▁centrem	-11.2356
▁vycházet	-11.2356
▁prvek	-11.2356
▁stěžují	-11.2357
▁policisty	-11.2361
▁odměny	-11.2361
VA	-11.2361
▁prostorách	-11.2363
▁architektury	-11.2364
▁přišly	-11.2364
▁používal	-11.2365
▁nádor	-11.2365
▁voliči	-11.2366
▁Důvodem	-11.2368
▁technikou	-11.2369
▁národnostní	-11.2369
▁prodejně	-11.2369
▁Doufám	-11.2371
▁volit	-11.2372
▁postižen	-11.2373
▁užitku	-11.2373
▁reklamní	-11.2374
▁problematiku	-11.2376
▁položil	-11.2377
▁stížnosti	-11.2378
▁Švédsku	-11.2378
▁Mac	-11.2379
▁plní	-11.2381
▁kontrolou	-11.2381
danou	-11.2383
▁semináře	-11.2383
▁sehnat	-11.2383
▁Smlouva	-11.2384
▁způsobit	-11.2384
▁Seznam	-11.2384
▁změnách	-11.2384
▁podoby	-11.2384
▁opravě	-11.2384
▁komunismu	-11.2385
▁novela	-11.2386
▁Olomouce	-11.2387
▁vlastníkem	-11.2389
▁Film	-11.2391
▁biologick	-11.2392
▁posil	-11.2393
▁elektrický	-11.2394
▁Lig	-11.2394
eny	-11.2397
▁chladu	-11.2399
▁dělníků	-11.2399
▁vybere	-11.24
▁naprosté	-11.2401
▁37	-11.2402
▁vstupuje	-11.241
▁požadavkům	-11.2411
▁světu	-11.2412
▁rozhovory	-11.2414
▁kruhy	-11.2415
▁stráž	-11.2416
▁rozpadu	-11.2419
▁ústavů	-11.2419
▁úmyslu	-11.2421
▁stromy	-11.2421
▁Tým	-11.2425
▁Chorvat	-11.2425
▁rostliny	-11.2426
▁novinářům	-11.2427
▁43	-11.2427
▁pracujících	-11.2429
▁vzdal	-11.2432
▁lize	-11.2433
▁125	-11.2434
▁obranné	-11.2434
▁ducha	-11.2434
vádějí	-11.2434
▁nevíme	-11.2435
▁šíří	-11.2436
▁udělali	-11.2437
▁hlasu	-11.2437
▁rodné	-11.2437
▁hovořili	-11.2438
▁geny	-11.2442
▁26.	-11.2445
▁potenciálu	-11.2445
▁plochu	-11.2447
▁stříbrné	-11.2447
volal	-11.2448
▁komora	-11.245
tito	-11.2451
dom	-11.2452
▁Nobelov	-11.2452
▁plnit	-11.2454
▁procesů	-11.2455
▁závěrečný	-11.2455
▁mistry	-11.2455
▁index	-11.2455
▁klubem	-11.2455
▁ostravské	-11.2456
▁rozhodlo	-11.2459
▁krav	-11.2459
▁šestnácti	-11.2461
▁deníku	-11.2462
NC	-11.2462
▁Ot	-11.2463
▁oper	-11.2467
▁SD	-11.2468
▁výkladu	-11.2475
ovaným	-11.248
har	-11.248
▁skvělé	-11.2481
▁vycházel	-11.2486
▁věta	-11.249
▁kovy	-11.2496
▁činila	-11.2502
▁papíry	-11.2502
▁pověřen	-11.2503
▁telefony	-11.2505
vání	-11.2506
▁Mé	-11.2506
▁27.	-11.2508
▁soupeřů	-11.2512
▁efekty	-11.2514
▁El	-11.2515
▁jednoznačný	-11.2517
▁LDS	-11.2524
▁zvyšovat	-11.2524
▁MHz	-11.2524
▁pocity	-11.253
▁Kdybych	-11.2538
▁Řekl	-11.254
polí	-11.2541
▁zavře	-11.2545
dají	-11.2545
▁jdou	-11.255
▁Pe	-11.2555
▁Per	-11.2556
▁Egypt	-11.256
vedli	-11.2564
poloviční	-11.2566
ickým	-11.2567
▁vážný	-11.2568
▁procenty	-11.2571
procentní	-11.2572
jasn	-11.2576
VI	-11.2576
▁24.	-11.2578
▁nutný	-11.2585
▁budoucího	-11.2594
▁kilometr	-11.2595
▁podnikatelům	-11.2596
▁vyhráli	-11.2597
▁dělal	-11.2598
▁Japonsko	-11.2598
▁přírodověd	-11.2598
počítá	-11.2601
▁tvůrce	-11.2603
▁hostů	-11.2603
▁tvrd	-11.2604
▁nep	-11.2606
cení	-11.2608
ujícího	-11.2609
▁sloup	-11.261
ust	-11.2619
▁katolick	-11.262
▁bohatý	-11.2622
tah	-11.2624
jednat	-11.2627
▁Večer	-11.2628
▁Plat	-11.2628
▁zákonu	-11.263
▁nežádoucí	-11.2635
ívají	-11.2637
▁zásilk	-11.2639
▁Text	-11.2643
▁chemie	-11.2644
▁pozornosti	-11.2644
ovanou	-11.2649
▁podruhé	-11.265
▁vtip	-11.2651
▁okraj	-11.2654
▁obává	-11.2657
měř	-11.2657
nete	-11.2658
▁vydá	-11.2662
▁zákoně	-11.2665
▁oceán	-11.2665
žijí	-11.2667
▁soupeři	-11.2668
▁Gr	-11.2668
▁postupů	-11.2669
▁úst	-11.2678
▁agentur	-11.2678
měnit	-11.268
projevilo	-11.2683
▁mini	-11.2684
▁odmítla	-11.2684
valy	-11.269
EK	-11.2693
ité	-11.2695
▁Západ	-11.2697
▁zastavil	-11.2703
▁komplex	-11.2705
▁gigant	-11.2705
teče	-11.2709
▁prodá	-11.271
▁expert	-11.2717
▁výběrové	-11.2719
▁napadl	-11.2719
níku	-11.2721
▁Mal	-11.2722
▁průmyslov	-11.2723
▁Sta	-11.2726
▁konzervativní	-11.2727
▁dostih	-11.2727
▁stálé	-11.2736
▁duch	-11.2737
▁disket	-11.2741
metr	-11.2742
▁Světov	-11.2742
▁stolu	-11.2743
▁rusk	-11.2747
▁čistíren	-11.2747
▁běžn	-11.275
▁Všeobecn	-11.2753
▁tráv	-11.2753
iner	-11.2753
▁zřízen	-11.2754
▁fotograf	-11.2754
▁Zlín	-11.2755
US	-11.2758
▁mém	-11.2768
▁Mon	-11.2768
čil	-11.2769
▁vojsk	-11.2771
▁of	-11.2772
▁produktivit	-11.2773
▁Argentin	-11.2775
▁izraelský	-11.2777
▁budování	-11.2781
▁nos	-11.2785
▁Miloše	-11.2791
▁Svat	-11.2793
ng	-11.2795
tický	-11.2796
▁požadavků	-11.2799
▁nejvyšších	-11.28
▁ing	-11.28
ston	-11.2801
▁nezná	-11.2802
▁odpovědn	-11.2802
▁aparát	-11.2803
▁veletrh	-11.2803
▁brambor	-11.2806
▁účinnost	-11.2807
▁komponent	-11.2807
▁Rád	-11.2807
▁rozbor	-11.2807
▁cigaret	-11.2808
▁bílkovin	-11.2809
▁císař	-11.2809
▁dodavatele	-11.281
▁Or	-11.2812
sty	-11.2812
▁Zemanov	-11.2815
▁vyžadují	-11.2817
▁Her	-11.2818
▁investorů	-11.2821
kový	-11.2821
padal	-11.2821
▁jednorázov	-11.283
lék	-11.2838
▁Zjuganov	-11.2842
▁Angličan	-11.2842
▁stávají	-11.2843
▁spoluhráč	-11.2843
▁Důvod	-11.2844
▁vytvářejí	-11.2845
▁následuj	-11.2846
alternativ	-11.285
▁Projekt	-11.2851
▁kondom	-11.2855
▁Zda	-11.2855
▁Val	-11.2857
▁otevírá	-11.2858
lap	-11.2861
▁prud	-11.2862
dpověď	-11.2867
▁smí	-11.2867
▁Jednotliv	-11.287
▁Náměst	-11.287
▁Weizs	-11.287
▁cizinci	-11.287
▁cizině	-11.287
▁deklarace	-11.287
▁kmitočt	-11.287
▁komunisté	-11.287
▁letadlo	-11.287
▁lístky	-11.287
▁medailí	-11.287
▁ministerstev	-11.287
▁nahrazen	-11.287
▁nemožné	-11.287
▁nečekaně	-11.287
▁opozici	-11.287
▁redakci	-11.287
▁restituční	-11.287
▁stadia	-11.287
▁struktuře	-11.287
▁uspokojení	-11.287
▁válkou	-11.287
▁výkyvy	-11.287
▁zlepšit	-11.287
▁zúčastní	-11.287
▁ovládat	-11.287
▁Benešov	-11.287
▁potrvá	-11.287
▁pozemky	-11.287
▁zahájí	-11.287
▁Lubomír	-11.287
▁jídlo	-11.287
▁čáry	-11.287
▁jedinci	-11.287
▁licence	-11.287
▁Antonín	-11.287
▁umístil	-11.287
▁vyrábějí	-11.287
▁návštěvníci	-11.287
▁nebudu	-11.287
▁Dvořák	-11.287
▁nejsilnější	-11.287
▁odvozen	-11.287
▁ČSAV	-11.287
▁Něco	-11.287
▁kůži	-11.287
▁nestalo	-11.287
▁Mazdy	-11.287
▁dopředu	-11.287
▁koncentrací	-11.287
▁informovat	-11.287
▁Maastrichtu	-11.287
▁USD	-11.287
▁léčba	-11.287
▁Schneider	-11.287
▁tisíciletí	-11.287
▁Krkonoších	-11.287
▁úkor	-11.287
▁vyloučit	-11.2871
▁vracejí	-11.2871
▁setkat	-11.2871
▁připojen	-11.2871
lákat	-11.2871
▁minerální	-11.2871
▁tempo	-11.2872
▁zkoušky	-11.2872
▁mikroorganismů	-11.2872
▁užívat	-11.2872
▁oživení	-11.2873
▁základnu	-11.2873
cal	-11.2873
▁kancléř	-11.2874
▁vykazuje	-11.2874
▁vydělat	-11.2874
▁náročnější	-11.2874
▁rozhodujícím	-11.2874
bydlí	-11.2875
▁spánku	-11.2875
rst	-11.2876
▁odškodnění	-11.2876
▁závazků	-11.2876
▁víno	-11.2876
▁SNS	-11.2877
▁svatební	-11.2877
▁přeháňky	-11.2878
▁odmítnout	-11.2878
▁hlavě	-11.2878
▁absurdní	-11.2879
▁rozhodnuto	-11.2879
oucí	-11.288
▁Hrad	-11.2881
▁posouzení	-11.2881
▁linek	-11.2881
▁nemění	-11.2882
▁Los	-11.2882
▁vidění	-11.2883
▁doplnit	-11.2883
▁vyšetřovací	-11.2884
▁Chorvatsko	-11.2884
▁skok	-11.2884
▁Kole	-11.2884
▁ukládat	-11.2884
▁varoval	-11.2884
▁chybějící	-11.2884
▁Situace	-11.2884
▁zájezdy	-11.2885
▁měřítku	-11.2886
▁řádek	-11.2886
▁různá	-11.2887
▁výpočet	-11.2887
▁Polsku	-11.2887
▁vztahuje	-11.2888
bil	-11.2888
krytí	-11.2889
▁kartě	-11.2889
▁radu	-11.2889
▁vybral	-11.289
▁letoun	-11.289
▁údržbu	-11.289
▁tiskárna	-11.289
▁popsat	-11.2891
▁islámské	-11.2891
▁genů	-11.2893
staral	-11.2894
▁myslíte	-11.2894
▁městská	-11.2894
▁Bójů	-11.2894
▁pracovním	-11.2895
▁spokojenosti	-11.2895
▁boku	-11.2896
▁rána	-11.2898
▁Ří	-11.2899
▁jádra	-11.29
▁Věr	-11.2901
stával	-11.2902
▁Slovinska	-11.2903
▁kádru	-11.2904
▁terénu	-11.2904
▁stačilo	-11.2904
▁hovoru	-11.2906
▁matematiky	-11.2908
▁kdybychom	-11.291
▁stiskn	-11.291
▁tuzemských	-11.2911
▁subjekty	-11.2912
▁stop	-11.2912
▁hit	-11.2912
▁mírou	-11.2916
rád	-11.2917
▁vyplývající	-11.2917
▁Váš	-11.2918
▁kanálu	-11.2919
▁Japonska	-11.2919
▁partnerem	-11.2921
▁nalezení	-11.2922
▁fyziku	-11.2925
▁slovník	-11.2928
letěl	-11.2929
▁zadání	-11.2931
yplývá	-11.2933
▁ruchu	-11.2933
▁délku	-11.2933
▁postižení	-11.2935
▁účastníky	-11.2937
▁zlata	-11.2937
ša	-11.2939
▁teoretické	-11.2939
▁hranicích	-11.2939
stické	-11.294
jímá	-11.2946
▁Doba	-11.2947
▁mal	-11.2949
▁kostela	-11.2949
▁příznivé	-11.295
▁řidiči	-11.295
▁přítele	-11.2951
▁dresu	-11.2951
▁pat	-11.2952
▁rozumné	-11.2952
tažením	-11.2953
jem	-11.2953
ějších	-11.2953
▁140	-11.2959
▁volba	-11.2959
▁testů	-11.2962
▁pevně	-11.2963
NO	-11.2963
▁bi	-11.2965
▁trojic	-11.2967
▁standardu	-11.2968
strašně	-11.2971
▁okresech	-11.2974
▁typick	-11.2977
vedou	-11.2978
▁opakovat	-11.2982
▁variantu	-11.2982
2.	-11.2983
far	-11.2985
▁hospodářský	-11.2986
▁odvolal	-11.2986
▁vyšetřovatel	-11.2988
▁manžela	-11.2989
▁bodem	-11.2989
▁Fran	-11.299
dělit	-11.2992
▁výnosu	-11.2994
▁knihu	-11.2994
▁informovali	-11.2996
▁metodu	-11.2996
▁tiskový	-11.2997
▁servisu	-11.2999
▁iniciativa	-11.3
▁kód	-11.3002
▁znají	-11.3002
▁členské	-11.3004
ezi	-11.3004
21	-11.3005
▁dopisy	-11.3005
▁technick	-11.3008
▁bytí	-11.3012
hem	-11.3012
▁prázdnin	-11.3013
▁číslem	-11.3015
▁zůstaly	-11.3018
▁92	-11.3019
▁rozliš	-11.3025
▁ryby	-11.3025
▁linka	-11.3025
▁hrubé	-11.3027
kládání	-11.3035
▁velkém	-11.3036
▁srovnatelné	-11.3039
▁Řek	-11.3041
▁obsazen	-11.3041
▁kaly	-11.3042
▁řetěz	-11.3043
▁přítomn	-11.3044
▁režiséra	-11.3046
▁přinesla	-11.3047
▁způsobila	-11.3048
▁přesvědčeni	-11.3049
▁52	-11.3054
zní	-11.3061
mana	-11.3063
▁ukládá	-11.3065
▁domnívám	-11.3073
▁stromů	-11.3075
▁zabýval	-11.3077
ani	-11.3078
▁Car	-11.3078
▁drahá	-11.3078
jdu	-11.3078
▁časopise	-11.308
▁předvedl	-11.3082
▁pád	-11.3083
drží	-11.3087
▁autobus	-11.3089
▁platu	-11.3089
▁určeno	-11.3092
▁hradí	-11.3093
▁membrán	-11.3097
etické	-11.3106
▁sešli	-11.3114
▁regul	-11.3117
▁hormon	-11.312
▁jakého	-11.3122
▁bytě	-11.3126
▁jezdil	-11.3137
▁manažera	-11.3139
▁firmami	-11.3142
zích	-11.3146
▁Jeli	-11.3147
▁kap	-11.3149
▁dřevěný	-11.315
▁top	-11.3151
bírat	-11.3151
▁řekli	-11.3156
▁argument	-11.3168
áček	-11.3172
▁kapitálový	-11.3174
▁bohaté	-11.3175
kládal	-11.3176
▁skryt	-11.318
▁speciálně	-11.3181
▁vyv	-11.3182
▁FIFA	-11.3186
▁kurzor	-11.3189
▁lidový	-11.319
jen	-11.3192
▁nechá	-11.3194
rok	-11.3195
▁útvar	-11.3196
loží	-11.3196
IL	-11.3205
▁využije	-11.3208
▁chovat	-11.3211
▁spotřebu	-11.3215
▁příště	-11.3221
▁srovnatelný	-11.3226
ině	-11.3226
▁ostrov	-11.3227
řídí	-11.3233
▁Test	-11.3233
ika	-11.3239
hel	-11.3241
▁vázán	-11.3242
ph	-11.3244
▁veden	-11.3245
▁Win	-11.3247
▁vys	-11.3258
▁technologický	-11.326
▁pís	-11.326
▁stali	-11.3266
přes	-11.3266
▁Pre	-11.3267
▁poločase	-11.3268
▁Kolek	-11.3269
mění	-11.3272
12	-11.3272
ES	-11.3274
▁zavedl	-11.3277
▁region	-11.3279
ČSSD	-11.3287
▁zvěř	-11.3288
▁Nor	-11.3289
slat	-11.3295
▁citliv	-11.3296
poslední	-11.3296
především	-11.33
žení	-11.33
zoval	-11.3301
▁délk	-11.3307
▁odjel	-11.331
▁znal	-11.331
▁paliv	-11.3313
▁placen	-11.3313
▁některého	-11.3321
▁Označ	-11.3321
▁nejedn	-11.333
▁chodu	-11.3332
▁cc	-11.3332
▁věřit	-11.3332
ávají	-11.3334
▁nesouhlas	-11.3337
▁29.	-11.334
jednala	-11.334
▁sedmnáct	-11.3341
▁Nesmí	-11.3341
ložili	-11.3345
▁počítají	-11.3351
▁Wales	-11.3353
▁blesk	-11.3353
76	-11.3357
▁Telecom	-11.3358
▁přál	-11.336
▁Španěl	-11.3361
▁hal	-11.3361
▁pravém	-11.3361
▁vlk	-11.3361
▁Republik	-11.3362
▁výtvarn	-11.3364
▁podnět	-11.3365
▁úkon	-11.3365
▁vyrovnal	-11.3365
▁zákoník	-11.3366
▁pochopil	-11.3369
▁semen	-11.337
▁sousedů	-11.3371
▁vezme	-11.3373
ovce	-11.3375
▁neznám	-11.3375
▁kyselin	-11.3376
letí	-11.3376
▁nabídne	-11.3378
▁scénář	-11.3379
▁projednáva	-11.3379
FS	-11.3379
▁klima	-11.3386
▁Znám	-11.3389
▁věnuj	-11.3391
▁absolvoval	-11.3392
nili	-11.3395
ola	-11.3395
▁Chomutov	-11.3398
▁pokračují	-11.34
▁bývalém	-11.3401
▁pouh	-11.3401
▁umožňují	-11.3402
▁účet	-11.3406
ložil	-11.3408
▁enzym	-11.3411
dostatečnou	-11.3412
▁krvi	-11.3413
▁filozof	-11.3416
lské	-11.3417
part	-11.3417
ačtyřicet	-11.342
jednali	-11.3421
látka	-11.3422
▁oblačno	-11.3423
allye	-11.3423
▁zjistí	-11.3424
▁vkus	-11.3424
▁opustil	-11.3424
▁Nejčastěj	-11.3425
▁Bezpečnost	-11.3425
▁Evropou	-11.3425
▁Jupiter	-11.3425
▁Letošní	-11.3425
▁Moderní	-11.3425
▁Město	-11.3425
▁Naštěstí	-11.3425
▁Stehlík	-11.3425
▁Ukrajina	-11.3425
▁burzy	-11.3425
▁dostatečné	-11.3425
▁energií	-11.3425
▁imunitní	-11.3425
▁krátkodobé	-11.3425
▁náleží	-11.3425
▁odlišné	-11.3425
▁opozicí	-11.3425
▁ozónu	-11.3425
▁podotkl	-11.3425
▁poskytne	-11.3425
▁překážky	-11.3425
▁seriózní	-11.3425
▁stability	-11.3425
▁televizor	-11.3425
▁totalitní	-11.3425
▁těžší	-11.3425
▁viceprezident	-11.3425
▁vzdělávání	-11.3425
▁výslovně	-11.3425
▁zachránil	-11.3425
▁zemědělci	-11.3425
▁znamení	-11.3425
▁závislá	-11.3425
▁získají	-11.3425
▁Úspěšn	-11.3425
▁úspěšnost	-11.3425
▁Podívej	-11.3425
▁herečka	-11.3425
▁nutná	-11.3425
▁položku	-11.3425
▁příroda	-11.3425
▁vyžádá	-11.3425
▁Island	-11.3425
▁MIDI	-11.3425
▁naučit	-11.3425
▁Hapal	-11.3425
▁profese	-11.3425
▁výlučn	-11.3425
▁živnostenský	-11.3425
▁charitativní	-11.3425
▁Obvodní	-11.3425
▁chápán	-11.3425
▁ČSAD	-11.3425
▁koncentraci	-11.3425
▁Olszewsk	-11.3425
▁leccos	-11.3425
▁diváci	-11.3425
▁druzí	-11.3425
▁vyjít	-11.3426
▁následovat	-11.3426
▁nesměl	-11.3426
▁cítil	-11.3426
▁studené	-11.3426
▁bio	-11.3426
▁česky	-11.3426
▁filtr	-11.3426
▁Spolu	-11.3426
▁zvyklí	-11.3426
▁obdrží	-11.3426
▁kámen	-11.3427
▁balení	-11.3427
▁písma	-11.3427
▁trůn	-11.3427
▁síni	-11.3427
▁rozumět	-11.3427
▁Obyvatel	-11.3428
▁prázdninách	-11.3428
▁publikace	-11.3428
▁uskutečnil	-11.3428
▁vzorků	-11.3428
▁Soutěž	-11.3429
▁Potvrdil	-11.3429
▁sbírky	-11.3429
▁kopané	-11.343
účtování	-11.343
▁Švýcarska	-11.343
▁branku	-11.3432
▁tip	-11.3432
▁Vaše	-11.3432
▁náhodně	-11.3433
▁přihlásil	-11.3434
▁FC	-11.3434
▁přerušení	-11.3435
▁výměník	-11.3436
▁barva	-11.3436
▁levné	-11.3436
▁výrobou	-11.3437
▁Dukly	-11.3437
▁porušování	-11.3438
▁připravují	-11.3438
▁1950	-11.3438
▁jakkoli	-11.3438
▁tendenci	-11.3438
▁nasazení	-11.3439
▁vysílání	-11.3439
▁42	-11.3439
▁Bro	-11.3439
▁zdůvodnil	-11.344
▁sídla	-11.344
▁biologie	-11.344
▁Rumunsko	-11.3441
▁armádní	-11.3441
▁udává	-11.3441
▁přečetl	-11.3441
▁expozice	-11.3441
▁kompletní	-11.3442
▁řádky	-11.3443
▁pravomocí	-11.3443
▁drobných	-11.3443
▁provozovat	-11.3443
▁osobám	-11.3443
▁Maďarska	-11.3444
▁neznámé	-11.3444
▁prodejna	-11.3444
▁politikou	-11.3444
▁odjezd	-11.3446
▁Vložit	-11.3446
▁vyrovnání	-11.3447
▁Příklad	-11.3447
▁stěží	-11.3448
▁Žena	-11.3448
▁předčasné	-11.3448
▁sídlí	-11.3448
▁léto	-11.3449
▁alternativní	-11.3449
▁izraelské	-11.3449
nechávají	-11.345
▁pla	-11.345
▁zbytku	-11.345
▁zasáhnout	-11.3452
▁31	-11.3453
▁zajímavá	-11.3453
▁textové	-11.3454
▁vystupoval	-11.3455
▁kraje	-11.3456
▁necelé	-11.3456
▁tělesn	-11.3456
▁zajímá	-11.3456
▁IV	-11.3457
▁psaní	-11.3458
▁infekce	-11.3459
▁Tvrdí	-11.3459
▁výměny	-11.3459
▁potřebujete	-11.3459
▁scénu	-11.3459
▁příslušníky	-11.3459
▁jmenoval	-11.346
▁Vojenské	-11.3462
▁56	-11.3464
cími	-11.3466
▁Optic	-11.3466
▁osobu	-11.3467
▁odborů	-11.3468
▁rodině	-11.3468
▁vraždy	-11.3468
▁nevidí	-11.3469
▁provozování	-11.3471
▁tvorba	-11.3472
▁hradě	-11.3473
▁ToolBooku	-11.3473
▁dorazil	-11.3474
▁nemocného	-11.3475
▁poradil	-11.3476
▁uplatňují	-11.3476
▁dohodli	-11.3476
▁kláštera	-11.3477
▁pozná	-11.3479
▁sdělit	-11.348
▁obvinil	-11.348
▁získávání	-11.3481
▁rozhlasu	-11.3483
▁ruch	-11.3483
▁analýza	-11.3483
▁spojených	-11.3486
▁mořské	-11.3486
▁slavného	-11.3487
▁nakupovat	-11.3491
OP	-11.3492
▁příkazem	-11.3495
▁veletrhu	-11.3496
▁Víme	-11.3497
▁zbývá	-11.3498
▁kandidovat	-11.3498
▁premiéře	-11.3498
▁grafiky	-11.3499
▁prezidentovi	-11.3501
oma	-11.3501
padnout	-11.3501
▁zvukových	-11.3503
▁laboratorní	-11.3503
▁hladiny	-11.3504
▁výchovy	-11.3505
tlačit	-11.3506
▁očích	-11.3506
▁Husa	-11.3507
▁poskytnutí	-11.3507
▁vyrovnaný	-11.351
▁anglického	-11.3511
áno	-11.3512
▁dokonalé	-11.3514
▁kruhu	-11.3514
▁realizovat	-11.3517
▁obsadili	-11.352
▁osmé	-11.3521
▁stromu	-11.3522
▁zásahy	-11.3522
▁přímý	-11.3523
▁70.	-11.3524
▁uživatelům	-11.3524
▁zařazeny	-11.3524
▁radní	-11.3525
▁Ostravsk	-11.3526
▁zdravý	-11.3527
▁pivovarů	-11.3527
▁požádali	-11.3531
▁platnosti	-11.3532
▁Izraelem	-11.3535
příč	-11.3538
enc	-11.3539
ících	-11.3545
áni	-11.3547
▁východu	-11.3547
▁takzvané	-11.3548
▁proměnil	-11.3549
▁dole	-11.3551
▁mm	-11.3552
▁cel	-11.3552
lic	-11.3555
▁uzavřené	-11.3556
▁zásoby	-11.3557
▁Novém	-11.356
▁obviněn	-11.3563
▁vyjadřují	-11.3578
▁gólu	-11.3578
▁naproti	-11.3579
▁dopise	-11.3579
.12.	-11.3581
▁mozkové	-11.3581
▁Carl	-11.3584
▁bojoval	-11.3585
▁přístupem	-11.3587
SA	-11.3587
▁plánované	-11.3589
▁opačném	-11.3589
▁poledne	-11.36
▁Chart	-11.3601
▁dostupný	-11.3602
▁aneb	-11.3604
▁kdež	-11.3606
dem	-11.3608
ěné	-11.3612
▁zvítězila	-11.3613
▁čekání	-11.3616
▁OLE	-11.3616
▁utekl	-11.362
▁Výzkum	-11.3622
▁Dag	-11.3622
▁domova	-11.3623
▁komunistický	-11.3626
▁jemu	-11.3626
▁částice	-11.3628
▁zadržen	-11.3629
BA	-11.363
▁dodala	-11.3633
▁vznikne	-11.3634
▁soukromým	-11.3635
▁Dal	-11.3636
istů	-11.3637
▁autory	-11.3638
▁nezískal	-11.364
▁závěry	-11.3641
▁klimatické	-11.3644
▁pilot	-11.3648
▁cit	-11.3652
▁kritické	-11.3652
padl	-11.3652
ičtější	-11.3653
▁připravila	-11.3656
▁širok	-11.3657
▁snížila	-11.3658
▁omezené	-11.3661
▁Er	-11.3664
▁majitelem	-11.3665
▁nepr	-11.3668
▁obyčejné	-11.3671
▁rozšířen	-11.3673
▁kapitoly	-11.3675
PT	-11.3677
▁Jean	-11.3678
žije	-11.3679
▁skončily	-11.3682
▁průkaz	-11.3682
▁Čechy	-11.3683
ers	-11.3684
▁softwarový	-11.3685
land	-11.3685
▁Lib	-11.3686
▁plic	-11.3688
▁očekávané	-11.3693
▁skalní	-11.3699
▁hol	-11.3701
▁pěst	-11.3701
▁pachatele	-11.3703
▁říkám	-11.3707
▁časové	-11.3713
▁bezpečnostních	-11.3713
▁známa	-11.3714
▁etický	-11.3715
▁speciálních	-11.3715
před	-11.3718
▁předpokládal	-11.3723
▁štít	-11.3725
▁křiv	-11.3726
ějším	-11.3728
nova	-11.373
▁propad	-11.3731
▁pokutu	-11.3738
▁ekologický	-11.374
▁mladík	-11.3741
▁bolesti	-11.3757
▁samé	-11.3757
dávat	-11.3758
▁příjemný	-11.3758
▁Ře	-11.3759
▁hrub	-11.3762
389	-11.3764
palestinsk	-11.3765
▁Čtyři	-11.3766
▁popř	-11.3768
▁daří	-11.3769
▁středním	-11.377
▁čtvrteční	-11.3774
▁velkoobchod	-11.3777
▁vědom	-11.3786
▁zlé	-11.379
ézt	-11.3791
▁talent	-11.3802
rel	-11.3806
▁zaměstnancům	-11.3807
SP	-11.3807
ung	-11.381
▁komentáře	-11.3814
▁účastník	-11.3816
▁nesporn	-11.3817
▁důkladně	-11.3818
▁zajímavý	-11.382
tická	-11.382
dění	-11.3823
íček	-11.3828
ohledně	-11.3829
koro	-11.3829
▁vyloučen	-11.383
▁výzkumné	-11.3831
▁Hr	-11.3832
▁předmět	-11.3834
▁Ga	-11.3836
bře	-11.3838
▁slovu	-11.384
▁americkým	-11.384
▁šla	-11.3843
67	-11.3843
psat	-11.3846
▁prost	-11.3848
▁poslancům	-11.3849
▁zajištěn	-11.3849
▁osmnáct	-11.3851
▁prohlásila	-11.3851
▁dozvěděl	-11.3851
▁ozdob	-11.3852
nějších	-11.3852
▁Moc	-11.3852
hý	-11.3857
▁hrůz	-11.3858
▁zvaný	-11.3858
▁dohodnut	-11.3859
▁výhodou	-11.3861
▁Vesmír	-11.3861
▁přev	-11.3864
▁hlás	-11.3866
▁letecký	-11.3868
▁Krát	-11.3868
▁vyvolá	-11.3869
▁podpoře	-11.3869
ker	-11.387
▁sedmé	-11.387
▁dávn	-11.3872
▁nájem	-11.3874
▁žalob	-11.3877
▁rizikový	-11.3878
▁zahrnut	-11.3878
▁staveb	-11.3882
▁110	-11.3882
▁takzvaný	-11.3889
▁běžným	-11.3891
líbil	-11.3892
▁Sedm	-11.3892
▁sklo	-11.3893
▁profesionál	-11.3893
novu	-11.3898
▁družstevní	-11.3907
▁časový	-11.3911
▁náměstk	-11.3919
▁odráž	-11.3922
rez	-11.3926
▁disciplín	-11.3926
byl	-11.3927
▁Uveden	-11.3928
▁závěrečné	-11.3928
▁černý	-11.3929
ární	-11.3929
▁jezer	-11.393
▁Stran	-11.3934
▁Pozor	-11.3934
▁nejstarší	-11.3935
▁Mil	-11.3938
▁generací	-11.3939
▁kamion	-11.3941
▁kolegů	-11.3942
▁štáb	-11.3944
▁muzeu	-11.3944
▁počítačem	-11.3946
▁doporučil	-11.3946
▁minutu	-11.3947
ováni	-11.3947
rab	-11.3947
▁společným	-11.3947
pustili	-11.3948
▁převoz	-11.395
slovní	-11.395
▁koncern	-11.395
cvič	-11.3951
▁propojení	-11.3953
▁vteřin	-11.3953
▁Boj	-11.3954
▁dnem	-11.3955
lární	-11.3956
35	-11.3956
▁pojistn	-11.3956
▁lodi	-11.3959
art	-11.396
▁povrchov	-11.3962
ňoval	-11.3962
▁prokurátor	-11.3962
KDU	-11.3963
▁zpěvák	-11.3963
▁dělník	-11.3963
▁uzná	-11.3967
kromě	-11.397
▁vyrovnané	-11.3971
prostřed	-11.3971
▁Man	-11.3974
▁dav	-11.3974
▁uměle	-11.3974
▁vazeb	-11.3975
▁obdiv	-11.3976
▁biskup	-11.3976
▁podepsán	-11.3977
▁jater	-11.3982
▁jednotný	-11.3983
IP	-11.3986
▁prst	-11.3986
▁nátlak	-11.3987
▁Mnichov	-11.3987
▁překvapen	-11.3988
▁nemocný	-11.3992
▁souvislost	-11.3996
▁leasing	-11.3996
▁nabízen	-11.3999
drželi	-11.3999
▁Předpokládá	-11.4002
nin	-11.4004
▁nepotřebuje	-11.4006
▁Rozhodl	-11.4007
▁otřes	-11.4009
zrcadl	-11.401
▁Peck	-11.4011
▁krystal	-11.4011
ředstavitelé	-11.4013
▁předkládá	-11.4013
▁1981	-11.4014
▁Eduard	-11.4014
▁Městě	-11.4014
▁Poštovní	-11.4014
▁Rozhovor	-11.4014
▁Svorada	-11.4014
▁Výběr	-11.4014
▁Vědci	-11.4014
▁bázi	-11.4014
▁displej	-11.4014
▁instance	-11.4014
▁inzerát	-11.4014
▁konfiguraci	-11.4014
▁mechanismy	-11.4014
▁ministerstvem	-11.4014
▁mužstvu	-11.4014
▁nejvhodnější	-11.4014
▁ovlivňova	-11.4014
▁očekávají	-11.4014
▁pohromadě	-11.4014
▁protagonist	-11.4014
▁prvotní	-11.4014
▁sazby	-11.4014
▁složku	-11.4014
▁sluchátka	-11.4014
▁svědků	-11.4014
▁vyjadřova	-11.4014
▁výsledcích	-11.4014
▁zbraň	-11.4014
▁závazek	-11.4014
▁závislé	-11.4014
▁dráhu	-11.4014
▁jedinec	-11.4014
▁odvahu	-11.4014
▁otravy	-11.4014
▁profesí	-11.4014
▁sérii	-11.4014
▁vazbě	-11.4014
▁Reuter	-11.4014
▁lidstva	-11.4014
▁slalom	-11.4014
▁uplatnil	-11.4014
▁vyjednávání	-11.4014
▁Pořadatel	-11.4014
▁kolaps	-11.4014
▁postačí	-11.4014
▁počty	-11.4014
▁prohlašuje	-11.4014
▁Radovan	-11.4014
▁nejlevnější	-11.4014
▁partie	-11.4014
▁vpravo	-11.4014
▁stabilitu	-11.4014
▁léčbě	-11.4014
▁finance	-11.4014
▁kombinací	-11.4014
▁jarní	-11.4014
▁smečka	-11.4014
▁doplnil	-11.4014
▁rozvržení	-11.4014
▁sníží	-11.4014
▁nedostatkem	-11.4014
▁ekonomickou	-11.4014
▁zaměřuje	-11.4014
▁pouštní	-11.4014
▁ohlas	-11.4014
▁generaci	-11.4014
▁sportovce	-11.4014
▁výměr	-11.4014
▁výhrady	-11.4014
▁Vilém	-11.4014
▁filozofii	-11.4014
▁Baker	-11.4014
▁derby	-11.4014
▁cvičení	-11.4014
▁1998	-11.4014
▁spoření	-11.4014
▁pravdy	-11.4014
▁SNR	-11.4014
▁studii	-11.4014
▁pravice	-11.4015
▁Hráč	-11.4015
▁jednotlivců	-11.4015
▁čelit	-11.4015
▁správnou	-11.4015
▁Winter	-11.4016
▁památky	-11.4016
▁členění	-11.4016
▁lodí	-11.4016
▁ISO	-11.4016
▁potvrdit	-11.4016
▁překonat	-11.4016
▁článků	-11.4016
▁nákladech	-11.4017
▁švýcarské	-11.4017
▁proud	-11.4017
KDS	-11.4017
▁dálkové	-11.4017
▁sbírek	-11.4017
▁vyhleda	-11.4017
▁tunel	-11.4018
▁kampaň	-11.4018
▁komentoval	-11.4018
▁poplatků	-11.4018
▁Kar	-11.4018
▁pití	-11.4018
▁plus	-11.4018
nešní	-11.4018
▁zachránit	-11.4018
▁celky	-11.4018
▁strojírenství	-11.4018
▁zastupitelstvo	-11.4018
▁podmínkami	-11.4019
▁základny	-11.4019
▁označují	-11.4019
▁pracovišti	-11.4019
▁ušetřit	-11.402
▁nazval	-11.402
▁vydrží	-11.402
▁Provoz	-11.402
▁přijímat	-11.402
▁vzdělávací	-11.402
▁vybrán	-11.4021
▁Polskem	-11.4021
▁Škol	-11.4021
▁pozorovatelů	-11.4021
▁2:1	-11.4021
▁Kolín	-11.4022
▁organismů	-11.4022
▁branky	-11.4022
▁domku	-11.4023
▁slavný	-11.4023
▁oteplení	-11.4024
▁tenkrát	-11.4024
▁ojediněle	-11.4024
▁pomáhat	-11.4025
▁okresu	-11.4025
německou	-11.4025
▁Palác	-11.4025
▁obří	-11.4026
▁alternativy	-11.4026
▁pětinu	-11.4027
opakovaně	-11.4028
▁tvor	-11.4028
▁silami	-11.4028
▁hranicí	-11.4028
▁scéně	-11.4028
▁trase	-11.4028
▁prosazuje	-11.4028
▁záměrně	-11.4028
▁Běloruska	-11.4028
▁procentní	-11.4028
▁skupinách	-11.4029
▁nepřijatelné	-11.4029
▁dialog	-11.4029
▁přísně	-11.403
▁zaplatil	-11.403
▁kliniky	-11.403
▁odluk	-11.4032
▁pozdní	-11.4032
▁OD	-11.4032
▁ledové	-11.4033
▁Air	-11.4033
▁slavné	-11.4033
▁přenesen	-11.4033
▁anketě	-11.4033
▁obchodech	-11.4034
▁etapy	-11.4034
▁přibývá	-11.4035
▁koordinac	-11.4036
▁zárukou	-11.4036
▁odměnu	-11.4036
▁domácností	-11.4036
▁stavy	-11.4036
▁vidíte	-11.4038
▁pes	-11.4039
▁povahu	-11.404
▁stranách	-11.4041
▁nadšen	-11.4041
▁skutečnou	-11.4043
▁jazyků	-11.4044
54	-11.4044
▁publikací	-11.4045
▁vklad	-11.4045
▁komunismus	-11.4045
▁NT	-11.4046
▁nehod	-11.4046
▁audio	-11.4046
▁prodejce	-11.4047
▁opravit	-11.4048
berg	-11.4048
▁využívající	-11.4049
stihnout	-11.4049
▁problematiky	-11.4049
píší	-11.4049
▁ideologick	-11.405
skými	-11.4051
▁správě	-11.4052
▁cukru	-11.4052
▁stínu	-11.4053
▁zkratk	-11.4053
▁odpady	-11.4053
▁Nejsem	-11.4054
▁přibylo	-11.4056
75	-11.4056
▁MOV	-11.4057
▁konfliktu	-11.4057
▁spojeno	-11.4058
▁Thomas	-11.4059
nda	-11.4059
▁Žádný	-11.4059
▁reálná	-11.406
▁slabé	-11.406
▁prochází	-11.4061
pad	-11.4061
▁pochybnosti	-11.4063
noví	-11.4063
▁západu	-11.4065
▁dialogové	-11.4065
▁zeleni	-11.4065
▁podávání	-11.4067
▁hromada	-11.4067
▁neviděl	-11.4067
▁Švýcar	-11.4071
▁slevy	-11.4072
▁hub	-11.4076
▁mostu	-11.4077
▁montáž	-11.4077
▁rodinou	-11.4079
▁prázdniny	-11.408
▁vhodných	-11.4082
▁Mc	-11.4086
▁jmenování	-11.4087
▁spolehlivě	-11.4089
▁zaměstnává	-11.4091
▁Pentium	-11.4091
▁dávat	-11.4092
▁skleníkový	-11.4092
▁Kazachstánu	-11.4093
▁historického	-11.4093
▁skoku	-11.4093
▁jednotn	-11.4093
▁Španělsko	-11.4095
▁hlava	-11.4095
▁znamenala	-11.4095
▁otevřenou	-11.4095
▁polského	-11.4096
skal	-11.4099
▁dlužníka	-11.4099
▁kapacitu	-11.4099
▁levný	-11.4101
▁zařazení	-11.4101
▁zajímavých	-11.4103
▁pravý	-11.4104
▁perspektivní	-11.4105
▁spis	-11.4106
▁předloh	-11.4107
▁britských	-11.4108
▁osmnácti	-11.411
▁mezer	-11.411
▁milión	-11.411
▁Ročn	-11.411
oba	-11.4113
▁vybaveny	-11.4119
bírají	-11.4119
▁desítká	-11.412
▁hokejové	-11.4124
▁oprávnění	-11.4126
▁automobilu	-11.4127
▁zájemcům	-11.4128
▁Sen	-11.4129
▁suroviny	-11.4129
end	-11.4131
▁postav	-11.4131
▁smyslem	-11.4131
▁záznamu	-11.4133
▁tepelné	-11.4134
▁vynesl	-11.4135
▁pozval	-11.4138
▁účelu	-11.4139
▁hospodářských	-11.414
▁závodníků	-11.4141
▁stanov	-11.4142
▁překvapením	-11.4142
vel	-11.4142
▁zahájena	-11.4144
▁podpisu	-11.4145
▁začínal	-11.4147
▁Don	-11.4148
▁časopis	-11.415
▁1991.	-11.415
▁vyšším	-11.4151
▁ran	-11.4154
▁vlak	-11.4155
▁čekal	-11.4156
▁určitým	-11.4156
▁kandidáta	-11.4156
▁případem	-11.4157
▁azyl	-11.4158
těl	-11.4158
▁panel	-11.4162
▁najdou	-11.4162
▁chlad	-11.4164
▁potraviny	-11.4167
▁poznal	-11.4167
▁polský	-11.4168
▁novináře	-11.417
běhne	-11.417
▁místním	-11.4171
▁vznikal	-11.4176
▁těsné	-11.4176
sté	-11.4179
▁vlna	-11.4183
▁jist	-11.4185
▁technologické	-11.4187
▁součásti	-11.4188
▁cenami	-11.4189
hoře	-11.419
▁vzniklo	-11.419
▁pokračovala	-11.4191
▁cenné	-11.4194
EC	-11.4194
▁(2	-11.4198
▁manažery	-11.4205
▁vrátili	-11.4206
▁devatenáct	-11.4206
ujte	-11.4207
▁reklam	-11.4208
▁textů	-11.421
▁průvodce	-11.4211
CO	-11.4212
ČNÍ	-11.4214
▁historik	-11.4214
DA	-11.4218
▁naučil	-11.4221
▁91	-11.4223
▁hlasováním	-11.4225
▁tvrdit	-11.4225
dol	-11.423
▁Ford	-11.4233
měrně	-11.4237
▁základu	-11.4241
▁tituly	-11.4241
▁zařízením	-11.4243
▁No	-11.425
nos	-11.4251
▁daného	-11.4254
▁mrtvých	-11.4254
▁převrat	-11.4255
▁slev	-11.4257
▁tiskov	-11.4266
▁Stan	-11.4268
57	-11.4269
dělení	-11.427
▁1)	-11.4271
mořsk	-11.4271
▁lékáren	-11.4273
obdržela	-11.4274
▁podnikateli	-11.4278
▁britský	-11.4278
pozn	-11.4283
stávat	-11.4284
▁světem	-11.4284
▁činy	-11.4287
▁nabízený	-11.429
▁čtvrtin	-11.4292
▁povrchové	-11.4292
▁jakéhokoli	-11.4301
▁aktivac	-11.4305
ručně	-11.4311
▁neumí	-11.4312
▁atomov	-11.4317
roj	-11.4321
▁palác	-11.4322
▁vzdálen	-11.4327
▁zápasem	-11.4327
íš	-11.433
vice	-11.4331
▁přibyl	-11.4333
▁řídit	-11.4335
▁nadměrn	-11.4335
▁chladn	-11.4337
▁známou	-11.4342
▁bit	-11.4342
▁vědec	-11.4343
jevit	-11.4343
likvid	-11.4344
▁nud	-11.4346
▁jejímu	-11.435
neme	-11.435
▁dech	-11.4351
▁Plán	-11.4351
ečná	-11.436
▁genu	-11.4362
▁neobvyklé	-11.4363
▁váh	-11.4366
▁poloviční	-11.4368
▁neštěstí	-11.4371
▁stranické	-11.4374
▁Lá	-11.4378
▁čínské	-11.4378
7%	-11.4379
éra	-11.438
▁rytm	-11.438
hne	-11.4381
▁MU	-11.4381
▁třetin	-11.4387
▁olympiád	-11.4387
LED	-11.4393
▁Trh	-11.4394
tika	-11.4395
▁Spíš	-11.4398
▁Zd	-11.4399
▁Severoatlantick	-11.44
bral	-11.4408
▁prováděn	-11.4409
▁pěkný	-11.4413
▁psycholog	-11.4419
▁hvězda	-11.442
▁průběžn	-11.442
ED	-11.4421
▁pokryt	-11.4426
▁Velký	-11.4431
▁240	-11.4432
▁žádným	-11.4432
▁přesvědčil	-11.4434
▁ligové	-11.4437
▁povolen	-11.444
▁přirozeným	-11.4441
ica	-11.4442
▁nepříjemný	-11.4443
▁Král	-11.445
▁As	-11.4451
▁Rakousk	-11.4452
▁míče	-11.4453
▁vyplněn	-11.4453
▁elektro	-11.4455
▁mír	-11.4456
▁symbolick	-11.4457
▁občanům	-11.4458
▁Nemá	-11.4461
▁smích	-11.4462
▁koalic	-11.4464
▁bariér	-11.4466
▁úsek	-11.4473
▁mladý	-11.4476
7,	-11.4478
▁rovin	-11.4478
▁občansk	-11.4479
▁přidělen	-11.4483
▁Závod	-11.4485
▁pedagog	-11.4485
ikonu	-11.4486
▁inspektor	-11.4487
▁historick	-11.4487
▁fakult	-11.4487
▁dostaly	-11.4488
rp	-11.4489
▁finančním	-11.4492
▁hráčům	-11.4496
ivost	-11.4497
▁zažil	-11.4498
▁Ter	-11.45
▁národním	-11.45
▁automat	-11.4501
▁sever	-11.4503
kají	-11.4504
87	-11.4506
šl	-11.451
čan	-11.4511
▁žlut	-11.4511
VÍ	-11.4512
▁výtečn	-11.4517
uskutečnila	-11.4519
jedná	-11.4521
▁děkan	-11.4521
▁Lac	-11.4524
▁slovensk	-11.4524
▁úvod	-11.4527
▁odmítnut	-11.4528
ologické	-11.4537
▁poz	-11.4538
okres	-11.4538
▁Občansk	-11.4539
měl	-11.454
▁Výrobc	-11.454
▁sledoval	-11.4541
▁prestiž	-11.4542
▁spojit	-11.4543
▁inženýr	-11.4544
MF	-11.4549
mentálně	-11.4553
▁bojovn	-11.4559
mála	-11.456
▁kouř	-11.456
ingu	-11.4562
▁nesmysl	-11.4562
▁dveří	-11.4562
vých	-11.4564
▁kategorií	-11.4564
▁KON	-11.4568
▁byznys	-11.4569
▁EuroTel	-11.457
▁prů	-11.4571
vní	-11.4572
▁požadoval	-11.4572
▁velko	-11.4572
▁návštěvnost	-11.4572
ota	-11.4573
nský	-11.4573
▁vidím	-11.4574
▁vlivu	-11.4574
▁zákrok	-11.4575
▁korunu	-11.4575
třeba	-11.4575
▁kostel	-11.4576
▁záloh	-11.4579
▁vystupuj	-11.4579
▁Ostravar	-11.458
▁Histori	-11.4581
45	-11.4582
▁duši	-11.4582
▁Východ	-11.4583
▁Žid	-11.4583
▁Juli	-11.4583
▁remíz	-11.4584
krácen	-11.4587
▁krev	-11.4587
peptid	-11.4588
96	-11.4589
▁hmotnost	-11.4591
kan	-11.4593
▁zničení	-11.4594
▁Cup	-11.4596
tivní	-11.4596
pek	-11.4597
▁triumf	-11.4598
▁dobrého	-11.4598
▁přesahuj	-11.4598
▁deficit	-11.46
▁vánoc	-11.4601
▁využívají	-11.4601
▁množ	-11.4604
vesel	-11.4604
▁uvolněn	-11.4605
▁setká	-11.4605
▁dvojnásobn	-11.4607
▁očí	-11.4608
▁zvol	-11.4608
▁román	-11.4609
dání	-11.4613
nder	-11.4613
▁zázrak	-11.4613
počíta	-11.4614
čené	-11.4618
▁vazba	-11.4619
▁povinné	-11.462
▁dívá	-11.4621
▁obnovit	-11.4621
▁krut	-11.4621
▁kurt	-11.4625
▁figur	-11.4626
pera	-11.4627
▁krále	-11.4628
konalo	-11.463
hlédne	-11.4632
tahuje	-11.4633
vát	-11.4634
▁loď	-11.4636
▁podporují	-11.4636
▁elektrick	-11.4637
▁Vždy	-11.4637
míří	-11.4637
▁účinně	-11.4638
▁Trans	-11.4638
▁Tchaj	-11.4638
▁Apple	-11.4639
▁Barcelony	-11.4639
▁Budinský	-11.4639
▁Liverpool	-11.4639
▁Lobkowicz	-11.4639
▁Moskvy	-11.4639
▁Opět	-11.4639
▁Stráský	-11.4639
▁TNF	-11.4639
▁Větší	-11.4639
▁angličtiny	-11.4639
▁atribut	-11.4639
▁bydliště	-11.4639
▁databázový	-11.4639
▁dosaženo	-11.4639
▁dětství	-11.4639
▁epidemie	-11.4639
▁evoluce	-11.4639
▁jménu	-11.4639
▁kosmické	-11.4639
▁lhůtě	-11.4639
▁lůžek	-11.4639
▁mrtvol	-11.4639
▁nabízel	-11.4639
▁nabízet	-11.4639
▁nekončí	-11.4639
▁nelíbí	-11.4639
▁nesmějí	-11.4639
▁pohledávky	-11.4639
▁počínání	-11.4639
▁pronájmu	-11.4639
▁redakční	-11.4639
▁rozšiřování	-11.4639
▁skrývá	-11.4639
▁svědectví	-11.4639
▁tlačítek	-11.4639
▁vztazích	-11.4639
▁výzvu	-11.4639
▁zdůrazňuje	-11.4639
▁ÚSES	-11.4639
▁Haagu	-11.4639
▁Vánoční	-11.4639
▁intenzivní	-11.4639
▁plakát	-11.4639
▁prodavač	-11.4639
▁profesní	-11.4639
▁přiznat	-11.4639
▁demisi	-11.4639
▁pojmy	-11.4639
▁pokouší	-11.4639
▁pryč	-11.4639
▁Easy	-11.4639
týkat	-11.4639
▁komplikace	-11.4639
▁mutace	-11.4639
▁nevadí	-11.4639
▁praxí	-11.4639
▁něčím	-11.4639
▁zastupování	-11.4639
▁bezespor	-11.4639
▁inteligentní	-11.4639
▁vyrobil	-11.4639
▁usiloval	-11.4639
▁Myslíte	-11.4639
▁nejmladší	-11.4639
▁Group	-11.4639
▁ledovce	-11.4639
▁bydlet	-11.4639
▁neodpovídá	-11.4639
▁slyšel	-11.4639
▁bát	-11.4639
▁pohlaví	-11.4639
▁zastupitelství	-11.4639
▁mezisklad	-11.4639
▁komunikací	-11.4639
▁trápí	-11.4639
▁ocas	-11.4639
▁reprezentuje	-11.4639
pravdě	-11.4639
▁stolní	-11.4639
▁léčby	-11.4639
▁teplé	-11.4639
▁levněji	-11.4639
▁Berger	-11.4639
▁norem	-11.4639
▁nezajímá	-11.4639
▁někam	-11.4639
▁určí	-11.4639
▁veterán	-11.4639
▁ČSTK	-11.4639
▁vyčleněn	-11.4639
▁námitky	-11.4639
▁sousedství	-11.464
▁HDP	-11.464
▁stoprocentní	-11.464
▁sumy	-11.464
▁strážníci	-11.464
KDH	-11.464
▁střechy	-11.464
▁pozitivně	-11.464
▁zkoušku	-11.4641
▁dílčí	-11.4641
▁úředníci	-11.4641
rozuměl	-11.4641
▁Prohlásil	-11.4641
▁domluv	-11.4641
▁Nemůže	-11.4641
▁teplý	-11.4641
▁Izraele	-11.4641
▁prodejců	-11.4642
▁přírodním	-11.4642
▁hluk	-11.4642
▁Libor	-11.4642
▁přestávce	-11.4642
▁novinkou	-11.4642
▁kinematografie	-11.4642
▁Neměl	-11.4642
▁datum	-11.4642
▁Vánoce	-11.4643
▁NOV	-11.4643
▁švýcarský	-11.4643
▁Luboš	-11.4643
▁účelům	-11.4643
▁spekulace	-11.4644
▁sídlo	-11.4644
▁Grafová	-11.4644
▁omezování	-11.4644
▁socialistické	-11.4644
▁přenést	-11.4645
▁Tatra	-11.4645
▁hektarů	-11.4645
▁Pardubice	-11.4645
▁vykázal	-11.4646
▁Původní	-11.4647
▁filozofické	-11.4647
▁dějinách	-11.4648
▁Postupně	-11.4648
▁opak	-11.4648
▁posuzování	-11.4648
▁Olg	-11.4649
▁trik	-11.4649
▁sestra	-11.4649
▁smrtí	-11.465
▁10%	-11.465
ectví	-11.4651
▁Alma	-11.4651
▁uznává	-11.4651
▁ohrozit	-11.4652
▁plot	-11.4652
▁učební	-11.4654
▁spektrum	-11.4655
▁disponuje	-11.4655
▁poklesl	-11.4655
▁hygienické	-11.4656
▁Římě	-11.4657
▁badatelé	-11.4657
▁Zpočátku	-11.4657
▁invalidní	-11.4657
▁myslet	-11.4657
▁kompresi	-11.4657
▁úsměvem	-11.4658
▁považoval	-11.4658
▁motocyklů	-11.4658
▁odhaduje	-11.4658
▁předpokládají	-11.466
▁zvon	-11.4661
▁Dukla	-11.4661
▁zbožím	-11.4661
▁herci	-11.4661
▁svazek	-11.4661
▁fotbalisty	-11.4661
▁uváděl	-11.4662
▁zvířete	-11.4662
▁spuštění	-11.4663
▁Určitě	-11.4663
bývalo	-11.4664
▁Neznám	-11.4665
▁dálnice	-11.4666
▁450	-11.4666
věřit	-11.4667
▁bazénu	-11.4667
▁rozměrů	-11.4668
▁schránky	-11.4668
▁Londýna	-11.4668
▁vyplácení	-11.4669
▁OK	-11.467
▁minulou	-11.467
▁prázdné	-11.467
▁ostrově	-11.467
▁špičkových	-11.467
▁nevhodné	-11.4671
▁kritiky	-11.4673
▁Nizozemska	-11.4676
▁posádky	-11.468
trhl	-11.468
▁sporů	-11.468
▁výuky	-11.468
▁dáno	-11.4681
▁převodu	-11.4683
▁vyhlášky	-11.4684
▁Kremlu	-11.4684
▁azbestu	-11.4684
▁nahradí	-11.4684
▁zrodil	-11.4684
▁Pravda	-11.4685
▁sněmovna	-11.4685
▁odpadu	-11.4685
▁vytvořený	-11.4686
▁Paříže	-11.4686
▁efektivnosti	-11.4686
▁Radnic	-11.4687
▁zakázku	-11.4687
▁iniciativy	-11.4689
▁Těm	-11.4689
▁klepnutím	-11.4689
▁zásobník	-11.4689
▁ekonomickým	-11.4689
▁zvané	-11.469
▁učitelé	-11.4692
▁povrchem	-11.4692
▁zakázal	-11.4692
▁problémech	-11.4693
jmenovaný	-11.4693
▁příkladu	-11.4693
▁sond	-11.4693
▁pořádně	-11.4694
▁doplnění	-11.4695
▁doprovodu	-11.4696
▁Sol	-11.4697
▁jízdu	-11.4699
▁akcionáři	-11.4699
▁lese	-11.47
sáhnout	-11.4701
▁Koup	-11.4702
▁geografick	-11.4702
▁etnick	-11.4703
▁paktu	-11.4703
▁vteřiny	-11.4703
▁Benda	-11.4705
▁stanovil	-11.4705
▁vidíme	-11.4707
▁olympiádu	-11.4707
▁slevu	-11.4708
▁dialogu	-11.4709
▁tunelu	-11.471
▁Václavské	-11.471
▁složitost	-11.4711
▁předmětu	-11.4711
▁List	-11.4712
▁hostin	-11.4713
▁Sex	-11.4718
Vesmír	-11.4719
▁prováze	-11.4719
▁položen	-11.472
▁mzdové	-11.4721
▁interpretace	-11.4721
▁seznámil	-11.4721
▁volném	-11.4721
▁dolaru	-11.4723
▁okamžité	-11.4724
▁choroby	-11.4726
▁poplatníků	-11.4726
▁systémech	-11.4727
▁vysílač	-11.4728
▁právním	-11.4728
slouží	-11.4731
▁nákladné	-11.4732
▁údaji	-11.4734
▁zaujím	-11.4734
▁procesory	-11.4736
▁plzeňské	-11.4736
▁používané	-11.4736
▁Nova	-11.4738
▁pomocník	-11.4738
▁převyšuj	-11.474
▁náměstka	-11.474
▁pacienty	-11.474
přineslo	-11.4742
▁prodávají	-11.4742
▁silnici	-11.4742
▁koná	-11.4743
▁Kub	-11.4743
▁přežil	-11.4744
▁monopolní	-11.4744
▁celostátní	-11.4745
potřeb	-11.4746
▁ceník	-11.4746
LOV	-11.4747
▁příspěvk	-11.4748
▁sortimentu	-11.4749
pin	-11.4753
▁otázkami	-11.4753
▁útvarů	-11.4753
hodinové	-11.4754
▁zemřelo	-11.4754
▁vyhrazen	-11.4755
▁tváře	-11.4756
škodí	-11.4758
vládne	-11.476
▁zaručen	-11.4764
tové	-11.4764
▁ukázaly	-11.4765
▁leteck	-11.4767
přestává	-11.4767
▁Ivo	-11.4769
▁omezeným	-11.4771
▁Tito	-11.4772
▁zvětš	-11.4772
počtu	-11.4773
▁formul	-11.4776
▁hodí	-11.478
▁zakladatel	-11.478
▁doplněn	-11.478
USA	-11.4785
▁věřím	-11.4785
▁zvolí	-11.4785
Pro	-11.479
▁fyzik	-11.4793
jeden	-11.4793
▁vlastník	-11.4794
▁rozhlas	-11.4796
▁Dole	-11.4797
▁národa	-11.48
▁vzali	-11.48
▁Uvažuje	-11.4801
▁RAM	-11.4802
ářské	-11.4802
▁ja	-11.4803
▁soutěžích	-11.4803
▁řez	-11.4805
jistá	-11.4805
nově	-11.4808
gel	-11.4809
▁Přím	-11.481
nského	-11.4812
▁odběratele	-11.4816
▁dokázala	-11.4818
▁zúčastněný	-11.4821
ško	-11.4823
▁porazili	-11.4824
▁zůstali	-11.4827
▁provede	-11.4829
▁zbytečný	-11.4829
▁oprávněné	-11.483
▁Tisk	-11.4831
▁vesnic	-11.4834
▁soukrom	-11.4835
▁oddíl	-11.4837
▁příkazu	-11.4843
▁Geo	-11.4843
▁doufám	-11.4843
▁Američanů	-11.4845
ht	-11.4846
26	-11.4847
▁příklady	-11.4849
cházejí	-11.485
▁neobyčejn	-11.4855
▁největšího	-11.4855
▁komor	-11.4856
▁most	-11.4859
▁slovenského	-11.4863
▁dnešním	-11.4865
▁automobilové	-11.4866
▁kritizoval	-11.4868
▁ptát	-11.4868
▁matematické	-11.487
▁koš	-11.4872
▁rozdílné	-11.4879
▁dramatické	-11.488
▁vložené	-11.4883
▁tvůrc	-11.4883
▁náboženský	-11.4885
▁světle	-11.4887
ložit	-11.4887
▁místopředsedy	-11.4888
▁útoků	-11.4888
▁hory	-11.4888
▁6,	-11.4892
▁nech	-11.4894
ash	-11.4897
▁příjemně	-11.4904
▁Hus	-11.4904
▁prac	-11.4906
▁činitel	-11.4909
▁tradičních	-11.4913
▁vlastníka	-11.4917
▁způsobí	-11.4918
stupující	-11.4919
▁podstat	-11.4921
▁Fo	-11.4926
vydržel	-11.4926
▁rekordní	-11.4929
krás	-11.4933
▁varianta	-11.4933
řad	-11.4934
▁postupuje	-11.4937
▁tkání	-11.4941
kého	-11.4942
tvořily	-11.495
71	-11.4953
HA	-11.4953
▁deviz	-11.4955
živí	-11.4956
▁dlužník	-11.4958
▁zvolený	-11.4961
race	-11.4963
telné	-11.4972
▁Počítač	-11.4972
▁resort	-11.4976
▁směr	-11.499
▁kout	-11.4991
▁les	-11.4993
▁nejlepšími	-11.4993
▁kvalifikovan	-11.4996
▁výhodn	-11.5
▁kraj	-11.5001
alba	-11.5001
dáte	-11.5003
šky	-11.5003
▁skutečným	-11.5004
▁pomohla	-11.5004
svědčil	-11.5006
▁evoluční	-11.5016
▁jednot	-11.5018
vir	-11.5036
▁Žádn	-11.5042
▁jede	-11.5044
▁prokázán	-11.5047
▁uživatelské	-11.5048
▁nebe	-11.5048
3.	-11.5049
▁síťové	-11.505
▁bytový	-11.5053
▁hodině	-11.5053
pouštět	-11.5056
▁cítím	-11.5056
▁kmen	-11.5057
▁použitím	-11.5063
jte	-11.5066
▁párů	-11.507
obyčejně	-11.5074
▁Vznikl	-11.5081
▁vhodný	-11.5082
▁stručn	-11.5083
skop	-11.5085
▁doufá	-11.5091
OST	-11.5093
anti	-11.5095
sídl	-11.5098
▁Obchod	-11.5102
▁uvědomil	-11.5103
▁malém	-11.511
▁opačné	-11.5111
6.	-11.5112
▁pochod	-11.5115
▁demokrat	-11.5115
▁72	-11.5122
▁186	-11.5124
tiky	-11.5125
▁Janov	-11.5126
▁vyjadřuj	-11.5128
▁politickým	-11.5134
▁SI	-11.5136
▁AC	-11.5138
▁výhodný	-11.514
▁široký	-11.5144
▁ČS	-11.5145
▁důchod	-11.5145
pit	-11.5151
hodinový	-11.5151
▁Lab	-11.5152
řez	-11.5156
▁stimul	-11.516
rot	-11.516
staly	-11.516
▁specifik	-11.5162
▁postoupil	-11.5167
vrácení	-11.5169
▁dán	-11.5173
▁Eli	-11.5177
podivu	-11.5181
▁priorit	-11.5184
▁obchodník	-11.5186
▁přistoupil	-11.5187
▁Vysok	-11.5191
▁prokázal	-11.5191
násob	-11.5192
▁násiln	-11.5192
▁ztracen	-11.52
▁77	-11.5201
▁vyřešen	-11.5206
▁vzrostl	-11.5209
▁přírodovědeck	-11.5209
▁vyvinul	-11.5209
▁nepříjemn	-11.5213
▁znalost	-11.5214
▁předák	-11.5216
▁konstatova	-11.5222
▁chirurg	-11.5227
▁pocházejí	-11.5227
ŘE	-11.5229
▁čtvereční	-11.523
▁tratí	-11.523
▁laboratoř	-11.5231
▁ohně	-11.5232
17	-11.5233
nc	-11.5233
ičku	-11.5233
▁klobouk	-11.5234
▁násilí	-11.5234
děk	-11.5235
▁bomb	-11.5235
▁Intel	-11.5235
▁design	-11.5236
▁kodex	-11.5236
▁tank	-11.5237
▁Word	-11.5238
▁svatb	-11.5238
▁chat	-11.5239
▁autorit	-11.5239
▁extrémní	-11.524
níků	-11.524
▁cement	-11.524
▁leckd	-11.5242
áním	-11.5243
▁jakoukoli	-11.5243
▁připomínk	-11.5244
▁Každé	-11.5248
▁rytíř	-11.5248
hlížel	-11.5249
▁Bur	-11.5251
AG	-11.5253
▁závislost	-11.5254
▁uzavřený	-11.5255
▁vzájemný	-11.5256
▁ideál	-11.5257
▁infekc	-11.5265
▁kluk	-11.5265
▁elektrod	-11.5265
EP	-11.5265
▁vzrůst	-11.5268
▁Morav	-11.5269
▁Závěr	-11.5269
tovat	-11.527
krývají	-11.5271
jo	-11.5273
skočit	-11.5273
▁označován	-11.5276
▁Kraj	-11.5277
▁norma	-11.5277
▁pozván	-11.5277
▁prostý	-11.5279
▁fenomén	-11.5279
▁stálo	-11.5279
▁komfort	-11.528
▁Rakušan	-11.5281
▁Určit	-11.5282
střelen	-11.5286
sadit	-11.5288
▁nazvaný	-11.5288
▁měřit	-11.5288
▁zajímavost	-11.529
▁sediment	-11.5291
▁následné	-11.5292
pomeňme	-11.5294
rý	-11.5299
vážet	-11.53
▁Kolumbi	-11.5301
▁strážník	-11.5302
▁hornin	-11.5302
▁Jenom	-11.5303
▁dopadl	-11.5303
▁nevznik	-11.5303
cová	-11.5303
▁KSČ	-11.5304
▁Filip	-11.5305
▁William	-11.5305
▁bezpečně	-11.5305
▁1983	-11.5305
▁Austrálie	-11.5305
▁Ludvík	-11.5305
▁Návrat	-11.5305
▁Oldřich	-11.5305
▁Pistol	-11.5305
▁Právo	-11.5305
▁Vešker	-11.5305
▁WWW	-11.5305
▁bankovnictví	-11.5305
▁definice	-11.5305
▁deklaraci	-11.5305
▁důležitější	-11.5305
▁federaci	-11.5305
▁fungování	-11.5305
▁hardwarov	-11.5305
▁infarkt	-11.5305
▁kampaně	-11.5305
▁konfigurace	-11.5305
▁konkurovat	-11.5305
▁literatuře	-11.5305
▁nukleární	-11.5305
▁odpovědět	-11.5305
▁plošný	-11.5305
▁pojišťovnou	-11.5305
▁populaci	-11.5305
▁problematice	-11.5305
▁prozradil	-11.5305
▁předpovědi	-11.5305
▁přerozdělování	-11.5305
▁rekreaci	-11.5305
▁rubrice	-11.5305
▁tiskáren	-11.5305
▁trénovat	-11.5305
▁vypráví	-11.5305
▁zapomenout	-11.5305
▁zaručit	-11.5305
▁zákulisí	-11.5305
▁účinné	-11.5305
▁špatnou	-11.5305
přízeň	-11.5305
▁Ctrl	-11.5305
▁Francií	-11.5305
▁reagují	-11.5305
▁ujistil	-11.5305
▁vláken	-11.5305
▁interiér	-11.5305
▁praktik	-11.5305
▁východoevropský	-11.5305
▁zastupuje	-11.5305
▁Kurzy	-11.5305
▁povolební	-11.5305
▁ustavující	-11.5305
▁značku	-11.5305
atlantick	-11.5305
▁elementární	-11.5305
▁jednodušší	-11.5305
▁mikrofon	-11.5305
▁nabídek	-11.5305
▁Četrans	-11.5305
▁multi	-11.5305
▁ovládací	-11.5305
▁popředí	-11.5305
▁stráví	-11.5305
▁taxonomie	-11.5305
▁vrstva	-11.5305
▁úložiště	-11.5305
▁desek	-11.5305
▁uplatňován	-11.5305
▁Pivovar	-11.5305
▁realizace	-11.5305
ford	-11.5305
▁plaz	-11.5305
▁rozvíjet	-11.5305
▁lázní	-11.5305
▁rozsáhlejší	-11.5305
▁poušti	-11.5305
▁tolerance	-11.5306
▁léčbu	-11.5306
▁učiní	-11.5306
▁komunikační	-11.5306
▁šipk	-11.5306
▁FBIS	-11.5306
▁firmách	-11.5306
▁fází	-11.5306
▁vyžadovat	-11.5306
▁zánět	-11.5306
▁dotaci	-11.5306
▁češtiny	-11.5306
▁Moravia	-11.5306
▁poptávku	-11.5306
▁Vzá	-11.5306
▁sníh	-11.5306
▁Značn	-11.5306
▁distribuční	-11.5306
▁spotřeba	-11.5306
▁robot	-11.5306
▁holub	-11.5306
▁fakticky	-11.5306
▁toxické	-11.5306
▁kameny	-11.5307
▁líčí	-11.5307
▁ČSD	-11.5307
▁vyprávěl	-11.5307
▁obchodovat	-11.5307
▁1976	-11.5307
▁vyslovit	-11.5307
▁publikaci	-11.5307
▁Cítí	-11.5307
▁Setkání	-11.5307
▁vystavuje	-11.5307
▁vysloužil	-11.5308
▁bál	-11.5308
▁Data	-11.5308
▁podobnou	-11.5308
▁všední	-11.5308
▁předvánoční	-11.5308
▁Nechci	-11.5308
▁vynutil	-11.5308
▁produkcí	-11.5309
▁hospodaří	-11.5309
▁pestr	-11.531
▁dvoudenní	-11.531
▁spektra	-11.5311
▁mezistátní	-11.5311
▁Maďarskem	-11.5311
▁volající	-11.5311
▁umělci	-11.5311
▁Informace	-11.5311
▁novotvary	-11.5312
▁mediální	-11.5312
▁hepatocytů	-11.5312
▁přijatelná	-11.5312
▁zajišťující	-11.5312
▁vydávat	-11.5312
▁symplektick	-11.5313
▁cestách	-11.5313
▁vlasy	-11.5313
▁vysílací	-11.5313
▁seskupení	-11.5313
▁zimy	-11.5313
▁nominaci	-11.5314
▁kardinál	-11.5314
▁konsensus	-11.5314
▁významnější	-11.5314
▁připraví	-11.5314
▁výšky	-11.5314
▁ředitelství	-11.5314
▁desetkrát	-11.5315
▁nestátní	-11.5315
▁odsoudil	-11.5315
▁palubě	-11.5315
▁Kladně	-11.5315
▁tendence	-11.5315
▁předloží	-11.5317
štění	-11.5317
▁Soulu	-11.5317
▁dosáhne	-11.5317
▁válečný	-11.5317
▁vyhodnocení	-11.5317
▁pozoruhodné	-11.5318
▁nouze	-11.5318
▁distributor	-11.5319
▁rozdělí	-11.5319
▁altruismus	-11.5319
▁zvířecí	-11.5319
▁cokoli	-11.5319
▁oceánické	-11.5319
▁jednotlivce	-11.5319
▁konání	-11.5319
ousek	-11.532
▁mlhy	-11.532
▁vyhrát	-11.5321
▁různě	-11.5321
▁prokázat	-11.5322
▁řádku	-11.5322
▁pokrýt	-11.5322
▁pozorovatelé	-11.5323
▁komentátor	-11.5323
▁ekonomikou	-11.5323
▁zeď	-11.5323
▁řetězce	-11.5323
▁použije	-11.5324
▁pořádek	-11.5324
▁strop	-11.5325
▁krajině	-11.5325
▁sestaven	-11.5325
▁zatížení	-11.5325
▁jistotou	-11.5326
▁nástupce	-11.5326
▁pásmu	-11.5326
▁hudbu	-11.5326
▁Šlo	-11.5327
▁Číně	-11.5327
▁katastrofy	-11.5328
▁ránu	-11.5329
▁fyzick	-11.5329
▁vědce	-11.5329
▁trasy	-11.5329
▁drav	-11.533
▁modelování	-11.533
díval	-11.533
▁tah	-11.533
▁evropskou	-11.5331
▁předkol	-11.5331
▁zmínil	-11.5331
▁faktorem	-11.5331
▁vyřazení	-11.5332
▁analýze	-11.5332
▁uplatňuj	-11.5332
▁sumu	-11.5332
▁soukromí	-11.5334
užit	-11.5335
▁liga	-11.5336
▁ekonomiku	-11.5336
▁kurzů	-11.5337
▁vybojoval	-11.5337
▁autobusem	-11.5337
▁přesností	-11.5337
DI	-11.5339
▁vzbudil	-11.5339
▁dodavatelů	-11.534
▁Lidový	-11.534
▁dřevěné	-11.534
▁vyloučeno	-11.5342
▁nuly	-11.5342
▁motorem	-11.5343
▁směřující	-11.5343
▁zvykem	-11.5344
▁dopisů	-11.5345
▁opakuje	-11.5346
▁startovat	-11.5346
▁podepsání	-11.5347
▁pokladny	-11.535
▁uvítal	-11.535
▁rozpočtový	-11.535
▁Domnívám	-11.535
▁podoba	-11.535
▁středoevropské	-11.535
▁hormonů	-11.5351
▁virus	-11.5351
▁dodávat	-11.5351
▁kalendářní	-11.5351
ovitých	-11.5352
▁návštěvníky	-11.5354
▁Chebu	-11.5354
▁uchazeč	-11.5354
▁technickou	-11.5354
▁listiny	-11.5354
▁Syn	-11.5355
▁telefonů	-11.5355
▁středověku	-11.5356
▁nedokáže	-11.5357
▁Francouzský	-11.5357
▁úhradu	-11.5359
▁účinků	-11.5359
▁Anna	-11.536
▁kulturu	-11.536
▁zastává	-11.536
▁Alžběta	-11.5361
▁Bratinka	-11.5361
▁diváky	-11.5362
▁kanály	-11.5362
▁slavnosti	-11.5363
věří	-11.5363
▁přístavu	-11.5364
▁větru	-11.5364
▁marketingu	-11.5364
▁Ber	-11.5365
▁Saúdsk	-11.5365
▁etapa	-11.5366
▁vyloučení	-11.5367
ptal	-11.5367
▁přispívají	-11.5368
▁odstupné	-11.5368
▁dospělých	-11.5368
▁chaty	-11.5369
▁porod	-11.537
zem	-11.5371
▁disciplíny	-11.5374
▁postaví	-11.5375
▁hosté	-11.5377
▁230	-11.5378
▁dozvěděli	-11.5379
▁hrd	-11.5379
▁délky	-11.5379
UM	-11.538
tických	-11.5383
▁autobusové	-11.5385
hodná	-11.5386
▁odvezl	-11.5386
▁útvaru	-11.5388
▁zločiny	-11.5388
▁stoupla	-11.5388
▁vybrali	-11.539
▁aparátu	-11.5391
▁dluhy	-11.5392
▁Historick	-11.5394
▁zodpovězen	-11.5394
▁pořádání	-11.5395
▁návratnost	-11.5397
▁šťastný	-11.5397
▁nastane	-11.5401
▁rezervy	-11.5401
▁městem	-11.5401
▁vědecky	-11.5402
▁vzrostla	-11.5403
▁vrah	-11.5403
▁horké	-11.5404
▁aplikacemi	-11.5405
▁ledu	-11.5405
▁nevěděli	-11.5405
▁hladinu	-11.541
▁nejbližším	-11.541
▁proteinu	-11.541
▁katalogu	-11.5411
klep	-11.5412
▁zabránil	-11.5413
▁svěřil	-11.5413
▁možnostech	-11.5414
▁zvolení	-11.5415
▁titulem	-11.5416
▁Pen	-11.5416
▁signály	-11.5418
▁přísné	-11.5419
▁tématu	-11.5419
▁Možnosti	-11.5419
▁Perské	-11.5421
▁černého	-11.5422
▁samotného	-11.5422
▁ostrova	-11.5423
▁Hilla	-11.5425
▁královské	-11.5425
▁nahoře	-11.5427
▁počáteční	-11.5432
▁vysokým	-11.5432
▁Fakt	-11.5433
▁klesla	-11.5434
▁Prof	-11.5435
▁investici	-11.5437
▁nazvané	-11.5437
▁obchodníky	-11.5439
▁druhých	-11.5439
0.000	-11.5439
▁úspěšných	-11.544
▁nemáte	-11.5442
▁editoru	-11.5443
munist	-11.5443
▁Dne	-11.5443
▁kurzy	-11.5443
▁nezávislosti	-11.5444
▁pohybů	-11.5445
▁Muži	-11.5445
▁objevilo	-11.5447
▁radí	-11.5447
▁hromadné	-11.545
▁tréninku	-11.545
▁zaměstnavateli	-11.5452
▁nechtěli	-11.5455
▁sub	-11.5459
▁vaku	-11.5461
▁šesté	-11.5462
atrně	-11.5463
obr	-11.5463
▁představila	-11.5471
▁dobrém	-11.5471
▁góly	-11.5473
▁Americké	-11.5475
nej	-11.5476
▁dramatick	-11.5476
vající	-11.5477
▁dovnitř	-11.5478
▁trávi	-11.5479
▁odporu	-11.5481
▁udělala	-11.5483
▁staro	-11.5483
býval	-11.5484
▁děd	-11.5487
48	-11.5487
▁kanceláři	-11.549
▁založili	-11.549
▁kursu	-11.5491
icí	-11.5491
▁umělý	-11.5491
36	-11.5494
▁psa	-11.5495
▁dotazy	-11.5495
▁zub	-11.5495
▁volání	-11.5497
▁vítězem	-11.5497
▁Mat	-11.5499
▁podzimu	-11.5499
▁logický	-11.55
pokládat	-11.5501
▁nepřímo	-11.5503
▁stěn	-11.5505
▁požádala	-11.5507
▁vyjádřen	-11.5513
▁dotazu	-11.5515
▁bitv	-11.552
▁osobním	-11.552
▁off	-11.5524
▁kapacita	-11.5526
▁známy	-11.5527
▁nacházejí	-11.5529
▁trvalý	-11.553
▁dramat	-11.5531
▁vlastníky	-11.5531
méno	-11.5534
▁zobraz	-11.5534
třel	-11.5535
▁přítel	-11.5536
▁upravené	-11.5541
▁vložil	-11.5542
▁jízd	-11.5542
▁odstoupil	-11.5543
▁zápasech	-11.5543
▁reklama	-11.5543
vané	-11.5547
▁Odbor	-11.5551
stane	-11.5551
▁Černé	-11.5552
▁nedělním	-11.5554
ria	-11.5554
▁nabídla	-11.5555
příště	-11.5559
lob	-11.5561
▁statistick	-11.5562
▁časy	-11.5566
▁jasný	-11.5572
▁samém	-11.5573
otisk	-11.5573
ong	-11.5576
▁Bab	-11.5578
▁dokonalý	-11.5579
▁Způsob	-11.5584
▁českému	-11.5586
▁majetkové	-11.5586
večer	-11.5588
▁českými	-11.559
počítat	-11.5591
▁náhle	-11.5592
který	-11.5592
čištění	-11.5597
▁sbír	-11.5597
▁Hodn	-11.56
▁Jejím	-11.5603
▁jakosti	-11.5603
▁Počítá	-11.5604
▁Pal	-11.5607
▁předků	-11.561
▁cizím	-11.5612
bytová	-11.5612
▁generálním	-11.5613
▁disky	-11.5614
▁poradenské	-11.5615
▁jednáním	-11.5618
▁krátkém	-11.5622
▁obecný	-11.5624
▁opačný	-11.5626
▁prah	-11.5627
▁Horní	-11.5636
▁představa	-11.5642
1%	-11.5646
▁Pel	-11.5647
▁pravým	-11.5649
▁dosáhli	-11.5653
uad	-11.5655
visí	-11.5658
▁obcích	-11.566
▁zabezpeč	-11.5663
kých	-11.5666
▁vytvořené	-11.5667
▁knihovn	-11.5668
▁Turist	-11.5669
▁Las	-11.567
kání	-11.5671
▁vypracoval	-11.5672
▁velitele	-11.5673
500	-11.568
▁stres	-11.5681
▁přeprav	-11.5683
▁nedělá	-11.5684
▁šetřit	-11.5686
▁náhradník	-11.5687
▁polární	-11.569
▁faktor	-11.5691
▁van	-11.5695
▁naléhav	-11.5695
▁Casimir	-11.5696
▁zajímav	-11.5703
▁budoucím	-11.5704
▁41	-11.5705
vědčí	-11.5705
▁Softwar	-11.5706
▁pomáhají	-11.5706
▁nabízené	-11.5709
▁Borise	-11.5712
místě	-11.5712
▁vyroben	-11.5714
▁měnil	-11.5716
▁starších	-11.5719
▁Ken	-11.5721
▁uvolni	-11.5722
▁přesněji	-11.5724
▁maso	-11.5725
AC	-11.5726
▁hodnotit	-11.5727
▁moderního	-11.5727
▁mužem	-11.573
hlédnout	-11.5738
▁příznivc	-11.5743
▁osobou	-11.5744
▁překonal	-11.5747
▁dávky	-11.5752
poskytla	-11.5757
▁kapitol	-11.5759
lle	-11.5765
90	-11.577
▁Dán	-11.5775
▁podrobně	-11.5776
▁loňsk	-11.5776
tle	-11.5779
▁omyl	-11.5781
▁sobotním	-11.5782
▁Mladiče	-11.5782
▁slušný	-11.5783
▁4000	-11.5786
jížděl	-11.5786
▁prodával	-11.5787
▁popsán	-11.5793
▁zřetelně	-11.5795
plyn	-11.5795
izovat	-11.5797
▁dostával	-11.5801
▁troj	-11.5801
▁kosti	-11.5808
▁udělen	-11.5809
▁špatný	-11.5809
▁pane	-11.5815
OR	-11.582
káže	-11.582
▁říkal	-11.5821
▁dodá	-11.5827
▁Bob	-11.583
▁kanál	-11.583
▁svazk	-11.5833
▁Druh	-11.5833
▁divák	-11.5846
▁proveden	-11.5852
iček	-11.5857
▁problémům	-11.5858
▁statistik	-11.5859
1.	-11.5861
▁zmizel	-11.5862
▁písmen	-11.5874
konaly	-11.5876
▁poškozen	-11.5878
▁chyba	-11.5879
▁kříže	-11.588
krátko	-11.5883
vala	-11.5885
▁strašn	-11.5888
▁výplat	-11.5889
▁Real	-11.589
1972	-11.5892
▁kapel	-11.5893
platné	-11.5894
ůbec	-11.5894
jednává	-11.5894
▁ženské	-11.5896
jov	-11.5898
▁ovlivnil	-11.5899
▁kart	-11.5901
dělat	-11.5902
▁racionální	-11.5903
▁žádají	-11.5903
bitový	-11.5903
kdy	-11.5904
ativní	-11.5904
▁Kur	-11.5907
▁poražen	-11.5908
lena	-11.5908
▁bývalým	-11.5913
▁televizním	-11.5913
▁občanský	-11.5915
▁Hill	-11.5918
▁Lendl	-11.5921
▁doprovod	-11.5922
▁popularit	-11.5922
▁zveřejnil	-11.5922
▁potrestán	-11.5923
▁poplatník	-11.5924
▁domácnost	-11.5924
▁veřejný	-11.5926
▁nemovitost	-11.5929
taž	-11.5929
▁pozic	-11.593
▁trhů	-11.5934
▁rock	-11.5935
▁červený	-11.5936
▁obrovsk	-11.5937
ding	-11.5939
▁těle	-11.5941
cem	-11.5942
hrával	-11.5945
▁myš	-11.5945
▁charakterizova	-11.5946
▁žádného	-11.5946
učili	-11.5946
čkách	-11.595
▁obdobím	-11.5951
▁chaos	-11.5952
▁bere	-11.5952
▁něčem	-11.5952
▁podobnost	-11.5953
střílel	-11.5954
▁myslel	-11.5955
▁poslání	-11.5956
▁rozumí	-11.5956
▁spravedlnost	-11.5957
▁interval	-11.5957
▁ovládá	-11.5957
▁Obsahuj	-11.5958
▁odběratelů	-11.5958
▁odcházejí	-11.5959
▁objektiv	-11.5959
děláme	-11.5962
▁zemní	-11.5962
▁verzí	-11.5963
▁Vstup	-11.5965
▁TV	-11.5967
▁nemocné	-11.597
▁kostele	-11.597
▁politickém	-11.5971
▁poskytován	-11.5971
isty	-11.5974
kování	-11.5975
▁komet	-11.5975
▁mládež	-11.5976
čov	-11.5977
▁zatčen	-11.5978
čínsk	-11.5979
▁diplomatické	-11.598
▁honorář	-11.5983
▁bilanc	-11.5984
▁touží	-11.5984
▁Víc	-11.5986
▁uzavře	-11.5988
▁obezit	-11.5988
▁Míst	-11.5988
▁vězni	-11.599
▁přestupu	-11.599
áty	-11.599
13	-11.5991
▁zvyšují	-11.5994
▁odvet	-11.5995
▁oblib	-11.5995
▁prodávající	-11.5999
▁chrání	-11.6001
▁skript	-11.6005
▁kilogram	-11.6006
▁Gen	-11.6007
▁chápe	-11.6009
▁Mistr	-11.6009
▁nařídil	-11.601
▁Buď	-11.6011
▁53	-11.6011
▁Ul	-11.6012
rozhodoval	-11.6013
hradil	-11.6014
▁vycházejí	-11.6015
▁učit	-11.6018
▁schopný	-11.6018
▁vzdálený	-11.6018
▁Gross	-11.6019
atel	-11.6019
▁vyprš	-11.6019
▁velvyslanec	-11.6019
▁Dennett	-11.6019
▁Reichel	-11.6019
▁Vynikající	-11.6019
▁brožur	-11.6019
▁olomoucké	-11.6019
▁Akademie	-11.6019
▁Albertville	-11.6019
▁Bratislavy	-11.6019
▁Delphi	-11.6019
▁Digital	-11.6019
▁General	-11.6019
▁Hospodářsk	-11.6019
▁Netanjahu	-11.6019
▁Němce	-11.6019
▁Princip	-11.6019
▁Pálffy	-11.6019
▁SGI	-11.6019
▁SPIRIT	-11.6019
▁TWA	-11.6019
▁Teplice	-11.6019
▁databáze	-11.6019
▁databázi	-11.6019
▁dveřmi	-11.6019
▁inzulín	-11.6019
▁kanalizací	-11.6019
▁komedie	-11.6019
▁komisař	-11.6019
▁komodit	-11.6019
▁kompetencí	-11.6019
▁lidstvo	-11.6019
▁milisekund	-11.6019
▁nechybí	-11.6019
▁nesrovnateln	-11.6019
▁nosorožců	-11.6019
▁obyvatelstvo	-11.6019
▁odpolední	-11.6019
▁omezit	-11.6019
▁pohodlné	-11.6019
▁pojišťoven	-11.6019
▁pojišťovně	-11.6019
▁portfeje	-11.6019
▁poštovní	-11.6019
▁přísluší	-11.6019
▁sféře	-11.6019
▁splátek	-11.6019
▁těhotenství	-11.6019
▁vrtulník	-11.6019
▁zahájit	-11.6019
▁zaručuje	-11.6019
▁zdůraznit	-11.6019
▁zopakoval	-11.6019
▁zpracovává	-11.6019
▁záruční	-11.6019
▁účinnou	-11.6019
▁Černomyrdin	-11.6019
▁železné	-11.6019
▁Kadlec	-11.6019
▁Zajímal	-11.6019
▁havárii	-11.6019
▁kultuře	-11.6019
▁loupež	-11.6019
▁odstavec	-11.6019
▁James	-11.6019
▁někomu	-11.6019
▁podepsat	-11.6019
▁přetížen	-11.6019
▁nikomu	-11.6019
▁odhalit	-11.6019
▁Prahou	-11.602
▁poznámky	-11.602
▁vybudoval	-11.602
▁Bohuslav	-11.602
▁chystají	-11.602
▁mutací	-11.602
▁Automatick	-11.602
▁Fuchs	-11.602
▁lehký	-11.602
▁Front	-11.602
▁něčeho	-11.602
▁Louis	-11.602
▁formálně	-11.602
LSNS	-11.602
▁Zpráv	-11.602
▁legendární	-11.602
▁mocenské	-11.602
▁pořizovací	-11.602
▁ceremoniál	-11.602
▁hokejistů	-11.602
▁FMV	-11.602
▁informuje	-11.602
▁dědeček	-11.602
hánějí	-11.602
▁kapsy	-11.602
▁nazvat	-11.602
▁Samotn	-11.602
▁implantát	-11.602
▁fotografií	-11.602
▁Kouba	-11.602
▁chleba	-11.602
▁písmo	-11.602
▁stromeček	-11.602
▁zmizí	-11.602
▁Účastníci	-11.602
▁dovednost	-11.602
▁oblouk	-11.602
▁Hledá	-11.602
▁paměť	-11.602
▁dávek	-11.602
▁registrační	-11.602
▁podporoval	-11.602
▁1979	-11.602
▁nepodaří	-11.602
▁katalyzátor	-11.602
▁pojmu	-11.602
▁stimulaci	-11.602
▁Přenos	-11.602
▁ultra	-11.602
▁Zápas	-11.602
▁pátku	-11.602
▁nikam	-11.602
▁odezv	-11.602
▁vejce	-11.602
▁účinnější	-11.602
▁jinam	-11.602
▁zakázek	-11.6021
▁umělců	-11.6021
▁zády	-11.6021
▁nikde	-11.6021
▁Následující	-11.6021
▁1970	-11.6021
▁svrchované	-11.6021
▁zranil	-11.6021
▁ležel	-11.6021
▁posílit	-11.6021
▁Suková	-11.6021
▁starat	-11.6021
▁inteligence	-11.6021
▁hraček	-11.6021
▁zneužívání	-11.6021
▁Jaw	-11.6022
▁Stef	-11.6022
▁stanovisku	-11.6022
▁střelec	-11.6022
▁manželkou	-11.6022
▁Obavy	-11.6022
▁třídenní	-11.6022
▁koncept	-11.6022
▁sněmu	-11.6022
▁Jágr	-11.6022
▁vyzkoušet	-11.6022
▁KGB	-11.6022
▁palet	-11.6022
▁vyhledávání	-11.6023
▁málokdo	-11.6023
▁lékařství	-11.6023
▁zelené	-11.6023
▁Snah	-11.6023
▁odnětí	-11.6023
▁deště	-11.6023
▁okně	-11.6023
▁železnice	-11.6024
▁stadiu	-11.6024
▁topení	-11.6024
▁had	-11.6024
▁Ježek	-11.6024
▁přenáší	-11.6024
▁způsobeno	-11.6024
▁Dostál	-11.6024
▁bohatší	-11.6025
▁řadič	-11.6025
▁deska	-11.6025
▁výsad	-11.6025
▁smířit	-11.6025
▁články	-11.6026
▁neznají	-11.6026
▁odstoupení	-11.6026
▁nejsme	-11.6026
▁tekutin	-11.6026
▁terč	-11.6026
▁kolegové	-11.6027
▁překonání	-11.6027
▁berou	-11.6027
▁dobrovolně	-11.6028
▁oběhové	-11.6028
extrémně	-11.6028
▁křesťanské	-11.6028
▁Španělsku	-11.6028
▁jasná	-11.6029
▁zkoumání	-11.6029
▁vyrazil	-11.6029
▁nejblíže	-11.6029
▁ordinace	-11.6029
▁France	-11.6029
▁konstantní	-11.6029
daná	-11.6029
▁spolupracuje	-11.603
▁říční	-11.6031
▁dostání	-11.6031
▁organismy	-11.6031
▁602	-11.6031
▁stěžuje	-11.6031
▁šancí	-11.6031
▁lahví	-11.6032
formulovat	-11.6032
▁stáj	-11.6032
▁novinky	-11.6033
▁ponechal	-11.6033
▁kopií	-11.6033
▁Dvou	-11.6034
▁cla	-11.6034
▁Čína	-11.6035
▁dovedl	-11.6036
▁nechut	-11.6036
▁sloučení	-11.6037
▁radikálně	-11.6037
▁rozsáhlou	-11.6037
▁závazku	-11.6037
▁skrz	-11.6037
▁nedají	-11.6037
▁známky	-11.6038
▁regionů	-11.6038
▁nehraje	-11.6038
▁zařadit	-11.6038
ázev	-11.6038
▁neshody	-11.6038
▁představovat	-11.6039
▁Open	-11.6039
▁výměně	-11.6039
▁Student	-11.604
▁ČESK	-11.604
▁příznaky	-11.604
▁spořitelny	-11.604
▁Kup	-11.604
IE	-11.6041
▁půlnoci	-11.6041
▁zájezdů	-11.6041
▁odletěl	-11.6041
▁působnost	-11.6041
▁záchranu	-11.6041
▁stížností	-11.6041
▁Alp	-11.6042
▁odhalení	-11.6043
▁sešla	-11.6044
▁dopravou	-11.6044
▁způsobilosti	-11.6045
▁basketbalist	-11.6045
▁pitné	-11.6045
▁ropy	-11.6045
▁drát	-11.6046
▁kůry	-11.6046
▁pětatřicet	-11.6046
▁Československý	-11.6047
▁dodržovat	-11.6047
▁výměnou	-11.6048
▁etapu	-11.6048
▁stručně	-11.6049
▁bodech	-11.6049
▁zklamání	-11.6049
▁Střední	-11.605
▁činitelé	-11.605
▁teoreticky	-11.605
▁funkcionářů	-11.605
▁prodejen	-11.6051
▁kolena	-11.6052
▁Kanady	-11.6052
▁Mnichově	-11.6052
▁hudba	-11.6052
▁Clintonová	-11.6052
▁adaptace	-11.6052
▁věcech	-11.6053
bez	-11.6053
▁Bonnu	-11.6054
▁předpokladů	-11.6054
▁srovnateln	-11.6055
▁Místopředsed	-11.6055
▁pleti	-11.6055
▁honoráře	-11.6056
▁Rakousko	-11.6056
▁publikum	-11.6056
▁plánuje	-11.6057
▁svatého	-11.6058
▁vídeňské	-11.6059
▁prováděl	-11.6059
▁soukromá	-11.6059
▁pojmem	-11.6059
▁psací	-11.6059
▁znakem	-11.606
▁kostr	-11.606
▁Chorvatsku	-11.606
▁porážky	-11.6061
▁zdálo	-11.6061
▁Opava	-11.6062
▁navázal	-11.6062
▁vlastnostmi	-11.6062
▁dostanete	-11.6062
▁mřížky	-11.6063
▁větě	-11.6063
▁provádění	-11.6063
▁případném	-11.6063
▁nervové	-11.6064
dána	-11.6064
ismem	-11.6065
▁ukazatel	-11.6066
▁Adam	-11.6066
▁tématem	-11.6066
▁náhrada	-11.6067
▁lokality	-11.6067
▁rakouských	-11.6067
▁hrací	-11.6068
▁symbolem	-11.6068
▁skladby	-11.6069
▁Výborný	-11.6069
▁přeplněn	-11.6069
▁zpožděním	-11.607
soudit	-11.6071
smluvně	-11.6071
▁zakládání	-11.6072
▁rohu	-11.6073
▁61	-11.6073
▁uloženy	-11.6076
▁nepříznivý	-11.6076
vážil	-11.6077
▁rozměry	-11.6077
▁buněčné	-11.6079
▁popsal	-11.6079
▁jednorázové	-11.608
taj	-11.6081
▁hezké	-11.6082
▁popel	-11.6083
▁teplotou	-11.6083
▁thajské	-11.6084
▁programech	-11.6086
▁nedaleké	-11.6087
▁přip	-11.6087
▁umožnilo	-11.6087
▁ostré	-11.6088
▁oslavil	-11.6089
▁směsi	-11.609
zemědělská	-11.609
▁činitelů	-11.609
▁organismus	-11.609
▁Západní	-11.6091
LET	-11.6091
▁netrpěliv	-11.6091
▁většinový	-11.6092
▁POD	-11.6093
▁Strany	-11.6094
▁paláci	-11.6095
▁vydělal	-11.6096
▁srbské	-11.6096
▁gólem	-11.6097
▁Jelcinovi	-11.6098
▁lidskou	-11.6098
pust	-11.6098
▁ceníku	-11.6098
▁kyseliny	-11.6099
▁hormony	-11.61
▁modré	-11.6101
▁sedmnácti	-11.6101
▁čtverečních	-11.6101
▁uši	-11.6101
▁pochopili	-11.6103
▁diskety	-11.6104
▁kolegům	-11.6107
▁autobusu	-11.6109
▁zajišťoval	-11.6109
▁skoky	-11.6109
▁(5	-11.611
▁zachován	-11.6115
▁Kovohut	-11.6122
▁dluhu	-11.6124
▁použito	-11.6125
▁startem	-11.6125
▁zmizela	-11.6126
▁kontaktů	-11.6127
pracovala	-11.6127
▁odhadů	-11.6127
▁Map	-11.6128
▁částech	-11.6129
▁boty	-11.6131
▁okolnosti	-11.6132
▁teplotu	-11.6134
konkurenceschopn	-11.6134
▁nemůžete	-11.6134
▁prach	-11.6135
▁kancelářské	-11.6135
▁kdybych	-11.6137
řek	-11.6138
▁viditeln	-11.6138
SM	-11.6139
▁Švédsko	-11.6139
▁Vysoké	-11.6141
▁profil	-11.6142
▁Západoevropsk	-11.6145
97	-11.6146
▁momentáln	-11.6147
▁vníma	-11.6149
▁čist	-11.615
rodil	-11.6151
RE	-11.6151
▁záznamy	-11.6152
▁měnící	-11.6153
▁Mont	-11.6154
▁klientům	-11.6154
▁čerstvé	-11.6155
▁hrobu	-11.6156
▁Firmy	-11.6158
▁kamenné	-11.616
▁slavn	-11.6161
▁dáma	-11.6162
▁třídu	-11.6162
nz	-11.6162
▁pokusili	-11.6165
▁útoky	-11.6165
▁novinka	-11.6167
▁pozorně	-11.6167
▁výměna	-11.6169
▁manželů	-11.6169
▁převeden	-11.6173
▁olympijském	-11.6173
▁Bulharsk	-11.6174
▁dobrým	-11.6174
▁nastává	-11.6177
▁investory	-11.6178
▁mimořádného	-11.6178
▁dohodnuté	-11.6179
▁hrdina	-11.618
▁narazí	-11.6184
▁hmotné	-11.6187
▁kulturním	-11.6188
▁trendy	-11.6191
kupuje	-11.6193
▁příznivý	-11.6193
čné	-11.6194
což	-11.6194
▁vkládání	-11.6196
bla	-11.6198
▁účastí	-11.6198
▁akciový	-11.6199
▁zúčastnili	-11.6205
▁projevů	-11.6205
pisuje	-11.6206
▁Kan	-11.6206
▁oxid	-11.6209
▁vypracova	-11.6211
▁vyhořelé	-11.6211
ografie	-11.6213
▁nároku	-11.6214
▁Skutečn	-11.6214
▁proviz	-11.6216
▁provedené	-11.6218
▁motorový	-11.6219
▁krátk	-11.6219
izované	-11.622
▁Zájemc	-11.6221
lech	-11.6222
íků	-11.6222
▁zněl	-11.6225
▁kapaliny	-11.6226
▁připravili	-11.6226
▁tich	-11.6227
▁dopisu	-11.6227
▁zřídka	-11.6227
antní	-11.6227
▁poločas	-11.6228
ručí	-11.6229
▁objektem	-11.6231
RS	-11.6237
bylo	-11.6237
▁tyči	-11.6239
vojí	-11.6241
▁hromadn	-11.6242
▁desetiletích	-11.6245
čila	-11.6245
▁Kol	-11.6249
▁Nemám	-11.6249
terak	-11.6249
▁předností	-11.6251
▁lékařského	-11.6252
▁Evropan	-11.6253
▁trestu	-11.6253
▁vynález	-11.6257
▁zrušen	-11.6257
▁ministry	-11.626
▁nástrojem	-11.6268
▁přechodné	-11.627
▁vyřešil	-11.627
▁úrokové	-11.6272
▁podnikem	-11.6272
▁chybou	-11.6275
▁úvěru	-11.6277
▁vhodným	-11.628
▁vypadl	-11.6281
čel	-11.6284
▁atletické	-11.6285
▁Národního	-11.6285
stru	-11.6288
▁potvrdily	-11.6291
▁chladné	-11.6291
▁59	-11.6292
▁uvolnil	-11.6293
▁oboustrann	-11.6294
končit	-11.6297
▁divákům	-11.6298
▁Gorbačova	-11.6298
▁studentům	-11.63
▁závazný	-11.6305
▁Začátk	-11.6305
hlásí	-11.6306
▁splněn	-11.631
▁známého	-11.6314
staví	-11.6315
ničím	-11.6316
▁Star	-11.6318
tkání	-11.6324
▁váhy	-11.6328
▁podob	-11.633
▁specifický	-11.6334
dová	-11.6342
aných	-11.6342
▁sovětsk	-11.6342
▁zasáhl	-11.6344
▁jakýkoli	-11.6351
▁zobrazen	-11.6353
▁lékařům	-11.6353
▁stavem	-11.6356
▁dělit	-11.6358
▁životem	-11.6361
▁prezidentské	-11.6362
mus	-11.6363
sáhl	-11.6365
povídat	-11.6366
▁Bub	-11.6368
▁snížením	-11.6368
▁schopné	-11.6369
▁majiteli	-11.637
▁sociálním	-11.637
▁We	-11.6372
▁cenový	-11.6374
▁3,	-11.6376
▁tenisový	-11.6383
▁účinný	-11.6385
▁vstoupí	-11.6389
imochodem	-11.6392
▁světl	-11.6392
▁mála	-11.6392
▁Schumacher	-11.6397
▁starým	-11.6399
▁subjekt	-11.6399
▁přesnost	-11.64
▁zodpovědn	-11.6404
hlédl	-11.6407
▁výtvarný	-11.6414
▁pevn	-11.6414
kova	-11.6416
▁sam	-11.6418
▁užití	-11.6419
▁podmíněn	-11.6426
▁Har	-11.6427
14	-11.6434
střih	-11.6437
▁ucho	-11.644
svit	-11.6447
▁technik	-11.6449
▁odp	-11.6449
▁brzd	-11.6457
▁zvukový	-11.6458
▁kontrol	-11.6463
prodej	-11.6466
▁pouč	-11.6467
▁úrokový	-11.647
▁iniciativ	-11.6472
▁zanikl	-11.6472
trž	-11.6474
graf	-11.6475
ŽE	-11.6476
▁panu	-11.6482
dent	-11.6485
míněn	-11.6485
▁zlat	-11.6486
▁Kos	-11.6486
kazuje	-11.6492
▁očekávaný	-11.6493
▁Neu	-11.6493
znamená	-11.6495
▁známost	-11.6498
▁Politick	-11.6499
dík	-11.6505
▁pouhým	-11.6506
vrátit	-11.6509
▁vůdc	-11.6509
▁uložen	-11.6511
▁44	-11.6514
▁pětadvacet	-11.6514
▁meziroční	-11.6514
▁vítězstvím	-11.6517
▁nepod	-11.6518
soudí	-11.6521
nucen	-11.6525
▁nasazen	-11.6525
které	-11.6527
▁maxim	-11.6528
▁zisky	-11.6529
▁1300	-11.6535
▁odhadu	-11.6536
▁Lys	-11.6537
▁centrál	-11.6547
▁magnet	-11.655
▁nekonečn	-11.6551
▁Nebude	-11.6552
ovice	-11.6554
▁chodil	-11.6555
▁tepeln	-11.6556
▁plánovaný	-11.6557
▁vel	-11.6558
ámek	-11.6562
▁geolog	-11.6569
▁JAK	-11.657
▁popisu	-11.657
▁slavnost	-11.657
▁pop	-11.6572
členný	-11.6572
▁Dohod	-11.6575
▁nález	-11.6577
PI	-11.6579
▁požádá	-11.6594
tice	-11.6594
▁čtvrti	-11.6596
▁lékařem	-11.6599
▁extremist	-11.6599
▁vracel	-11.6603
držet	-11.6604
▁hrubý	-11.6604
stran	-11.6609
▁statistický	-11.6609
▁kated	-11.6609
▁Moj	-11.6613
▁přístav	-11.6613
▁akcionáře	-11.6614
týdenní	-11.6621
▁fotbale	-11.6623
▁odpovědný	-11.6624
levo	-11.6633
▁dvojic	-11.6634
▁skutečn	-11.6639
93	-11.664
▁severním	-11.664
▁mateřsk	-11.6643
▁penězi	-11.6647
loha	-11.6647
▁samotný	-11.665
▁ptá	-11.6655
▁vymezi	-11.6656
▁úzké	-11.6659
▁závad	-11.6659
▁reálném	-11.6659
ero	-11.666
▁západ	-11.6664
▁neomezen	-11.6664
▁výdaj	-11.667
▁94	-11.6671
▁předpis	-11.6671
▁Pokus	-11.6675
▁zbyl	-11.6676
▁spolupracovník	-11.6678
▁nepřátel	-11.6679
instalovat	-11.668
▁Ekonomick	-11.6685
ER	-11.6686
▁9000	-11.6687
▁neprav	-11.669
▁očekával	-11.669
▁tisícovk	-11.669
▁pokoj	-11.6695
díl	-11.6697
▁běže	-11.6698
▁chemick	-11.6699
▁orchestr	-11.6704
▁otevřeno	-11.6707
▁zdokonal	-11.6707
▁vražd	-11.6707
▁šampionát	-11.671
▁diskusí	-11.6711
▁dosahují	-11.6719
▁neúspěch	-11.6719
▁tribunál	-11.672
išť	-11.6722
▁ToolBook	-11.6722
▁Senát	-11.6723
rah	-11.6725
▁orientac	-11.6726
▁penzion	-11.6728
▁nálad	-11.6729
▁nepřítel	-11.6731
▁životnost	-11.6734
rušit	-11.6735
▁záložník	-11.6735
hraj	-11.6735
▁pochybnost	-11.6737
ALE	-11.6737
▁neexistují	-11.6737
dávání	-11.6739
pracovat	-11.6741
▁strav	-11.6744
▁kytar	-11.6748
▁nádob	-11.6748
▁cenov	-11.6748
▁cílů	-11.675
▁soustředěn	-11.6752
▁Zásad	-11.6753
▁stoupl	-11.6753
▁atentát	-11.6754
▁minul	-11.6754
▁měnov	-11.6754
bíhají	-11.6754
▁výrobním	-11.6755
▁kořen	-11.6756
▁připomínají	-11.6757
▁marketing	-11.6757
▁třem	-11.6758
čátek	-11.676
▁požadovan	-11.6761
▁rozprav	-11.6762
▁úder	-11.6762
▁anket	-11.6763
▁pru	-11.6763
▁kubismu	-11.6764
▁nesl	-11.6764
%.	-11.6765
▁totemismu	-11.6765
▁Motor	-11.6765
▁interak	-11.6766
▁náročn	-11.6766
▁meteorolog	-11.6768
▁patent	-11.6768
▁risk	-11.6769
▁osvobozen	-11.6769
▁odehráv	-11.6769
dělal	-11.6769
luje	-11.6771
▁zemím	-11.6772
▁Jelcinov	-11.6773
▁Sport	-11.6774
▁porušil	-11.6774
▁tabulátor	-11.6774
ěsíční	-11.6776
▁právnick	-11.6776
▁ekvivalent	-11.6777
▁poměrů	-11.6779
▁odstín	-11.6781
▁muzik	-11.6782
árek	-11.6783
važoval	-11.6784
LU	-11.6785
▁přeměn	-11.6785
▁PŘED	-11.6786
▁Budějovic	-11.6787
▁efektivně	-11.6788
▁projevují	-11.6789
▁fázové	-11.6789
vyskytuje	-11.6789
▁Australan	-11.6789
▁Chvalovský	-11.6789
▁Frýdku	-11.6789
▁Gretzky	-11.6789
▁Holbrooke	-11.6789
▁Klient	-11.6789
▁Kravčuk	-11.6789
▁Margaret	-11.6789
▁Marseille	-11.6789
▁MicroStation	-11.6789
▁Oxfordu	-11.6789
▁Parlament	-11.6789
▁Pospíšil	-11.6789
▁Rangers	-11.6789
▁Sládka	-11.6789
▁Zeitung	-11.6789
▁analytik	-11.6789
▁antropogenní	-11.6789
▁cyklů	-11.6789
▁delikt	-11.6789
▁dodávku	-11.6789
▁dominantní	-11.6789
▁domnívat	-11.6789
▁doporučit	-11.6789
▁elektrárna	-11.6789
▁epizod	-11.6789
▁fanoušci	-11.6789
▁havárie	-11.6789
▁hájit	-11.6789
▁hřbet	-11.6789
▁instalační	-11.6789
▁izolační	-11.6789
▁kariéry	-11.6789
▁křesla	-11.6789
▁libovolné	-11.6789
▁lístku	-11.6789
▁manažeři	-11.6789
▁navštívit	-11.6789
▁nejčastější	-11.6789
▁nervozit	-11.6789
▁náznak	-11.6789
▁odcházel	-11.6789
▁poliklinik	-11.6789
▁politici	-11.6789
▁portrét	-11.6789
▁posuzoval	-11.6789
▁prezentován	-11.6789
▁připomínal	-11.6789
▁příchozí	-11.6789
▁službách	-11.6789
▁stránkách	-11.6789
▁studijní	-11.6789
▁středisek	-11.6789
▁tabák	-11.6789
▁turistiky	-11.6789
▁vyrobit	-11.6789
▁výchozí	-11.6789
▁výcvik	-11.6789
▁zlepšování	-11.6789
▁zvážit	-11.6789
▁čtvrtletně	-11.6789
restrukturalizac	-11.6789
▁Příprav	-11.6789
▁barokní	-11.6789
▁delegací	-11.6789
▁disident	-11.6789
▁hesla	-11.6789
▁knihkupectví	-11.6789
▁názvy	-11.6789
▁odhodlán	-11.6789
▁recese	-11.6789
▁rovnou	-11.6789
▁ušlechtil	-11.6789
▁vizuální	-11.6789
▁vyřeší	-11.6789
▁úklid	-11.6789
▁afrických	-11.6789
▁certifikace	-11.6789
▁chápou	-11.6789
▁investoři	-11.6789
▁licenci	-11.6789
▁nebytový	-11.6789
▁přijede	-11.6789
▁sváteční	-11.6789
▁vypovězen	-11.6789
▁vůdčí	-11.6789
▁položek	-11.6789
▁provází	-11.6789
▁sazba	-11.6789
▁Pechar	-11.6789
▁Snímek	-11.6789
▁krizí	-11.6789
▁nepůjde	-11.6789
▁laskav	-11.6789
▁návaznost	-11.6789
▁dráze	-11.6789
▁mléko	-11.6789
▁smíšený	-11.6789
▁trolejbus	-11.6789
▁Francis	-11.6789
▁Pravidl	-11.6789
▁perfektní	-11.6789
▁postranní	-11.6789
▁Štěpán	-11.6789
▁Údaj	-11.6789
▁ideologie	-11.6789
▁podporovan	-11.6789
▁odrůd	-11.6789
▁reprezentaci	-11.6789
▁reprezentovat	-11.6789
▁emisí	-11.6789
▁iluze	-11.6789
▁poezie	-11.6789
▁obrátí	-11.6789
▁útěk	-11.6789
▁mléka	-11.6789
▁prostředkem	-11.6789
▁stránka	-11.6789
▁letadel	-11.6789
▁vztek	-11.6789
▁biologii	-11.6789
▁akutní	-11.6789
▁Obvykl	-11.6789
▁udělil	-11.6789
▁masa	-11.6789
▁Nynější	-11.6789
▁nevyhnul	-11.6789
▁rámec	-11.6789
▁podmínku	-11.6789
▁říkat	-11.6789
▁hladovku	-11.6789
▁látku	-11.6789
▁zaměstnanosti	-11.6789
▁důchodců	-11.6789
▁láska	-11.6789
▁dárek	-11.6789
▁spolkové	-11.6789
▁Příčin	-11.679
interpretaci	-11.679
▁výpis	-11.679
▁rozpočtů	-11.679
▁zpravodajství	-11.679
▁báječn	-11.679
▁poselství	-11.679
▁profesi	-11.679
▁motivace	-11.679
▁schvalování	-11.679
bajt	-11.679
▁Plzně	-11.679
▁Zlatý	-11.679
▁vyvíjet	-11.679
▁Hotel	-11.679
▁zdražení	-11.679
▁Hrál	-11.679
▁polohách	-11.679
▁ekologie	-11.679
věřuje	-11.6791
▁Nováček	-11.6791
▁památku	-11.6791
▁krouž	-11.6791
▁poučení	-11.6791
▁unikl	-11.6791
▁uspokojit	-11.6791
▁legální	-11.6791
▁lukrativní	-11.6791
▁média	-11.6791
▁Japonci	-11.6791
▁Boston	-11.6791
▁Kontrol	-11.6791
▁síle	-11.6791
▁Řadič	-11.6792
▁lidech	-11.6792
lip	-11.6792
▁záchod	-11.6792
▁zátěž	-11.6792
▁pátrání	-11.6792
▁veterinární	-11.6792
▁juniorů	-11.6792
▁utrpení	-11.6792
▁jezdce	-11.6792
▁shoda	-11.6792
▁silnicích	-11.6792
▁vyhnul	-11.6792
▁CAD	-11.6793
▁stanoviska	-11.6793
▁třicátých	-11.6793
▁linie	-11.6793
▁představen	-11.6793
mnohých	-11.6794
▁psí	-11.6794
opádn	-11.6794
▁soustavně	-11.6794
platila	-11.6794
obtížnější	-11.6794
▁odcizi	-11.6794
▁Sportovní	-11.6794
▁směrech	-11.6795
▁Čísl	-11.6795
▁Jenomže	-11.6795
▁suma	-11.6795
▁zpracovávat	-11.6795
▁regionech	-11.6795
▁říše	-11.6795
▁setkávají	-11.6795
▁akční	-11.6796
přát	-11.6796
▁IPS	-11.6796
▁upravuje	-11.6796
▁fronta	-11.6796
▁kdykoli	-11.6796
rochu	-11.6797
▁důchodce	-11.6797
▁Zabývá	-11.6797
▁přizpůsobení	-11.6797
▁Jihlavě	-11.6797
▁tiskárnu	-11.6797
▁naučí	-11.6798
▁prosazují	-11.6798
▁plynule	-11.6798
▁Nastavení	-11.6798
▁oceli	-11.6798
▁intelektuální	-11.6799
▁Podíl	-11.6799
▁měrou	-11.6799
▁smyslupln	-11.6799
▁iniciátor	-11.6799
▁statisíce	-11.68
▁mrzí	-11.68
▁vzdát	-11.68
Místku	-11.68
▁parkování	-11.68
▁jihovýchodní	-11.6801
▁srovnávat	-11.6801
▁suché	-11.6802
▁západoevropský	-11.6802
▁nevěří	-11.6802
▁BF	-11.6802
▁Hel	-11.6803
▁zjistíme	-11.6803
▁hudbou	-11.6803
▁Rom	-11.6804
▁příčku	-11.6804
▁obdobně	-11.6805
▁Olympi	-11.6805
▁stoly	-11.6805
▁An	-11.6806
▁bitů	-11.6806
▁soukromník	-11.6807
▁brány	-11.6807
▁Made	-11.6807
▁středně	-11.6807
▁Informoval	-11.6808
▁Záhřebu	-11.6808
▁slabě	-11.6808
▁Turecka	-11.6808
▁formace	-11.6808
▁Dlouhý	-11.6811
▁poškozený	-11.6811
▁větr	-11.6811
▁Slovan	-11.6811
▁spalování	-11.6811
▁ujal	-11.6811
soustřeďuje	-11.6812
▁zkrácení	-11.6812
▁Helen	-11.6812
▁dokladů	-11.6812
▁korekce	-11.6812
▁biologických	-11.6812
▁islámský	-11.6813
▁horizontu	-11.6813
▁LID	-11.6814
▁zachytit	-11.6814
▁Či	-11.6814
▁pokutou	-11.6815
▁nedokáž	-11.6815
▁vykonává	-11.6816
▁objednávky	-11.6816
▁zpracovat	-11.6816
▁procesech	-11.6816
▁židovské	-11.6817
256	-11.6817
▁organizátor	-11.6817
▁Obsah	-11.6818
▁Skutečně	-11.6818
▁odběru	-11.6818
▁jízdě	-11.6818
▁zjednodušení	-11.682
▁Úpravy	-11.682
átory	-11.6822
▁postihnout	-11.6822
▁vyznačen	-11.6822
▁učitelů	-11.6822
▁Stalin	-11.6822
▁funkcionáři	-11.6823
▁modifikac	-11.6823
▁silná	-11.6823
ručením	-11.6823
▁stejnojmenné	-11.6824
▁prohlédnout	-11.6825
▁výborně	-11.6825
▁Alda	-11.6825
▁šaty	-11.6825
▁úřadech	-11.6826
▁cokoliv	-11.6826
▁předcházel	-11.6827
▁fungující	-11.6827
▁pokračující	-11.6827
▁polní	-11.6827
▁úroků	-11.6827
▁Tri	-11.6828
▁kapitole	-11.6829
dražit	-11.6829
▁dokazuje	-11.6829
▁Angličané	-11.683
▁Skutečnost	-11.683
▁zpěvačka	-11.683
▁písní	-11.683
▁shodli	-11.683
▁čekalo	-11.683
▁policista	-11.6832
dokonalejší	-11.6832
▁špičky	-11.6833
▁psychologické	-11.6834
▁podporující	-11.6835
▁vlastnické	-11.6835
▁nechceme	-11.6836
cestovat	-11.6836
▁domech	-11.6837
▁službami	-11.6837
▁posunu	-11.6837
▁odměna	-11.6839
▁Diana	-11.6839
▁správní	-11.684
▁Nabídky	-11.684
▁vhodnější	-11.684
▁Zvláště	-11.6841
▁obdrželi	-11.6841
▁dně	-11.6842
▁charakterizuj	-11.6842
▁rozumu	-11.6843
▁přátelé	-11.6844
▁dálnici	-11.6844
▁odborové	-11.6845
▁zbraněmi	-11.6845
47	-11.6846
▁koncertů	-11.6846
▁analýzu	-11.6847
▁schůzka	-11.6847
▁velení	-11.6849
▁samozřejmé	-11.6849
▁nalezli	-11.685
▁konečn	-11.685
▁vyhlášku	-11.6851
▁správa	-11.6851
▁křivka	-11.6852
lidov	-11.6852
▁úrazu	-11.6852
▁Žije	-11.6853
▁Mlad	-11.6853
▁radioaktivních	-11.6853
▁soch	-11.6853
▁Rud	-11.6853
▁scházejí	-11.6853
▁ústavem	-11.6854
▁přepravy	-11.6855
▁neznáme	-11.6855
▁odkladu	-11.6855
▁nutností	-11.6856
▁Čern	-11.6856
▁Čeká	-11.6856
▁jízdy	-11.6857
▁pravou	-11.6857
▁poct	-11.6857
lít	-11.6859
▁nezávisle	-11.686
▁vzrostly	-11.6861
▁programování	-11.6862
▁výplatu	-11.6862
▁prachu	-11.6862
▁vinou	-11.6863
▁VE	-11.6864
▁nepočítal	-11.6866
▁posláním	-11.6867
▁tenistk	-11.6868
▁postavy	-11.6868
▁zima	-11.6869
▁sledovali	-11.6869
▁Lam	-11.6869
▁příspěvků	-11.687
▁soli	-11.6872
▁Ev	-11.6872
▁Cupu	-11.6872
▁poznali	-11.6873
▁rumunské	-11.6873
▁Popov	-11.6874
▁úkony	-11.6874
▁rezervní	-11.6875
▁Technické	-11.6875
▁reklamu	-11.6876
▁výstavb	-11.6877
▁váhu	-11.6877
▁obviněni	-11.6878
▁změnilo	-11.6878
▁žalobu	-11.6878
víz	-11.6879
▁technicky	-11.688
▁natočil	-11.6881
▁zveřejněné	-11.6884
▁kategoriích	-11.6884
eme	-11.6884
▁rakoviny	-11.6884
▁neznámého	-11.6884
▁nezávislý	-11.6885
▁Fil	-11.6886
▁vlků	-11.6887
▁používali	-11.6888
▁strategický	-11.6889
▁kriminální	-11.6889
OLE	-11.689
▁způsobilo	-11.6892
▁International	-11.6892
▁Management	-11.6892
▁kapitola	-11.6894
▁dani	-11.6894
▁odklad	-11.6897
▁přeci	-11.6897
▁jednoduch	-11.69
▁písemné	-11.69
▁adrese	-11.69
▁prokázala	-11.6901
hrají	-11.6902
▁převezme	-11.6902
▁větu	-11.6902
▁zemědělcům	-11.6903
▁wimbledonské	-11.6907
ňuje	-11.6907
▁Rudé	-11.6908
▁bojuje	-11.691
▁Hovořil	-11.691
▁Podnikatelské	-11.691
stály	-11.6911
▁Dobrý	-11.6911
▁tvrdili	-11.6911
HP	-11.6915
▁pravá	-11.6915
▁nedávn	-11.6916
nekonečně	-11.6916
▁prázdný	-11.6916
▁Mohu	-11.6917
▁požáru	-11.6918
▁lekto	-11.6918
▁příbuzných	-11.6919
▁vysokými	-11.692
▁provedena	-11.6921
yp	-11.6922
▁nizozemské	-11.6922
▁zaměřený	-11.6922
▁počátk	-11.6924
▁politickými	-11.6924
▁devadesáti	-11.6926
▁prošel	-11.6927
▁limity	-11.6927
▁vstupem	-11.6929
▁odnesl	-11.693
stein	-11.693
volnou	-11.6931
▁Argentina	-11.6931
▁teoretický	-11.6931
▁obecného	-11.6937
vl	-11.6938
▁Ir	-11.6942
▁procentech	-11.6943
▁ploché	-11.6943
lová	-11.6944
▁vlnu	-11.6946
▁útočníka	-11.6947
▁nástupu	-11.695
▁128	-11.6951
▁rozhodčího	-11.6952
▁doprovázen	-11.6956
▁rodu	-11.6958
▁základů	-11.6959
▁živý	-11.6959
▁kanadské	-11.696
▁Fed	-11.696
▁Spolkové	-11.696
▁podobá	-11.6961
▁Chyba	-11.6963
▁strojní	-11.6963
▁vytvořena	-11.6963
▁Sam	-11.6965
▁levá	-11.6966
▁kurzu	-11.6967
ávání	-11.697
▁vypadal	-11.6974
▁vloží	-11.6976
▁situacích	-11.6976
▁strachu	-11.6977
▁hrud	-11.6978
▁obličeje	-11.6979
▁přebírá	-11.6982
▁nebudeme	-11.6982
▁pružn	-11.6983
▁telekomunikací	-11.6983
sit	-11.6984
▁kursy	-11.6985
▁záměrů	-11.6986
zaměstnan	-11.6986
▁důkladné	-11.6987
▁denním	-11.6988
▁Dlouho	-11.6989
jela	-11.6989
delov	-11.6991
▁stranick	-11.6995
▁kazet	-11.6995
▁zaměřené	-11.6996
sunut	-11.6996
▁vzácné	-11.7003
▁příčinu	-11.7006
▁chybné	-11.7006
▁disků	-11.7006
▁textem	-11.7007
▁Mart	-11.7009
▁žili	-11.7012
▁čtvrtka	-11.7012
▁pracovali	-11.7016
▁Vytvořen	-11.7016
▁vkládat	-11.7018
▁tráví	-11.7019
kově	-11.702
▁proslulé	-11.7022
▁nebezpečím	-11.7023
▁soudem	-11.7028
▁následoval	-11.7029
▁univerzitní	-11.7029
▁zdroji	-11.7032
▁sudetský	-11.7033
▁zničil	-11.7034
TON	-11.7034
ovského	-11.7036
▁dospělé	-11.7038
▁spravedlivé	-11.7039
▁účastníkům	-11.7039
▁oblíbené	-11.7041
▁Min	-11.7043
▁přicházel	-11.7043
▁dodávají	-11.7044
potřebě	-11.7046
▁ROK	-11.7048
▁funkcemi	-11.7049
▁vyzvala	-11.7049
▁Roy	-11.7049
▁oblastní	-11.7049
▁Žen	-11.7053
▁řadí	-11.7056
žití	-11.7058
▁seznamy	-11.7058
wan	-11.7059
▁všeobecném	-11.7062
▁Siln	-11.7062
▁odstup	-11.7064
▁vysla	-11.7064
▁Českomoravské	-11.7065
▁Budu	-11.7065
▁šetří	-11.707
▁pacientům	-11.707
▁ženu	-11.7072
▁večera	-11.7073
▁ministerský	-11.7083
▁sloučenin	-11.7085
▁znamenal	-11.7087
▁matematick	-11.7089
▁organizacích	-11.7089
▁dneška	-11.7089
▁Gorbačovov	-11.7095
▁Brněnsk	-11.7096
▁jevu	-11.7097
▁přímým	-11.7098
▁klad	-11.71
dotýká	-11.7101
▁vrcholový	-11.7102
▁SPR	-11.7103
▁sdělila	-11.7104
SKO	-11.7105
▁Společnosti	-11.7109
▁specifick	-11.7115
lona	-11.7116
▁trošk	-11.712
▁jižním	-11.7125
IA	-11.7129
očí	-11.7129
▁svalové	-11.7142
kových	-11.7143
▁Pohled	-11.7143
44	-11.7143
▁vyz	-11.7146
bran	-11.7146
ovku	-11.7146
▁elektronick	-11.7147
▁faktu	-11.7152
ance	-11.7152
▁rozumný	-11.716
USK	-11.717
▁zřetel	-11.7171
▁vrátila	-11.7172
▁hr	-11.7174
▁naplněn	-11.7175
▁přispíva	-11.7176
▁půd	-11.7177
▁En	-11.7177
lů	-11.7178
▁Zvýšen	-11.7179
▁srozumiteln	-11.7182
▁rozdílem	-11.7189
▁muslimské	-11.7191
▁příhod	-11.7193
▁Ph	-11.7194
▁rozv	-11.7198
7,5	-11.72
▁rozměr	-11.7204
▁učitele	-11.7209
▁kultur	-11.7209
▁stáli	-11.7211
▁ohlásil	-11.7216
▁Toho	-11.7217
▁zpracoval	-11.7218
▁zmenšen	-11.722
LN	-11.7222
▁DOS	-11.7225
▁Ram	-11.7231
▁Mitterrand	-11.7235
▁kultura	-11.7237
▁potravinářský	-11.7238
▁založený	-11.7243
▁mužské	-11.7245
pracuje	-11.7246
▁turistick	-11.7254
▁veliká	-11.7258
▁nabit	-11.726
▁žlutý	-11.7261
entní	-11.7264
▁pohraniční	-11.7266
získaly	-11.7266
▁vyvinut	-11.7267
▁rozpadl	-11.7268
víme	-11.7268
▁Cagiva	-11.7269
▁finančními	-11.7274
ima	-11.7275
▁ovladač	-11.7275
▁pokusů	-11.7276
▁Finsko	-11.7277
▁možnou	-11.7283
▁Což	-11.7285
ložených	-11.7291
▁letním	-11.7292
▁patřičn	-11.7297
▁39	-11.7298
▁včerejšk	-11.73
▁třídní	-11.7301
▁opor	-11.7301
▁bránil	-11.7306
▁vítězné	-11.7313
▁odběratel	-11.7317
▁obměn	-11.7319
▁oblíbený	-11.732
▁lepším	-11.7322
▁nejvyšším	-11.7323
▁dobro	-11.7326
▁důstojn	-11.733
▁žádal	-11.7331
▁sovět	-11.7331
▁úspěchů	-11.7332
▁zvýšený	-11.7333
▁potu	-11.7334
▁úraz	-11.7335
dával	-11.7336
hru	-11.7338
6,5	-11.7343
▁horko	-11.7349
▁uhlí	-11.7349
▁poslanecký	-11.735
enou	-11.7351
▁hrazen	-11.7353
▁devatenácti	-11.7353
zdrav	-11.7353
▁psychiatr	-11.7357
gan	-11.7357
▁soudy	-11.7358
▁Kepler	-11.736
▁léčebný	-11.7363
MW	-11.7367
▁novinář	-11.7369
▁zapomenut	-11.7369
▁mez	-11.7372
▁Atlant	-11.7375
▁Nov	-11.738
▁kraji	-11.7381
▁používaný	-11.7381
▁desáté	-11.7383
▁Osl	-11.7386
▁autorské	-11.7387
nášejí	-11.7388
▁přijímán	-11.739
▁ryz	-11.7394
▁výhoda	-11.7397
▁písemn	-11.7405
nských	-11.7406
▁sovětský	-11.7408
ME	-11.7413
nejdůležitějších	-11.7413
ickém	-11.7418
▁architekt	-11.742
▁divok	-11.742
▁zveřejněn	-11.7424
▁úrok	-11.7426
▁Van	-11.7427
▁Giovanni	-11.7427
▁matematik	-11.743
▁kosmický	-11.7431
▁Park	-11.7433
tisk	-11.7433
rozuměj	-11.7443
▁Dudajev	-11.7445
▁CP	-11.7446
▁KD	-11.7454
▁dařilo	-11.7456
▁anglick	-11.7456
▁160	-11.7457
rová	-11.746
▁přidružen	-11.746
▁manipul	-11.7464
▁nalezl	-11.7465
▁doporučují	-11.7466
▁magnetické	-11.7466
▁režie	-11.7466
▁páry	-11.7467
▁miliardu	-11.7471
▁jednací	-11.7476
vým	-11.7477
istický	-11.7478
▁Poně	-11.7478
▁návštěvník	-11.748
volené	-11.7481
může	-11.7485
▁fa	-11.7486
▁koz	-11.7486
četné	-11.7487
▁Fir	-11.7488
▁uvědom	-11.7489
▁úhrad	-11.7493
▁vlast	-11.7497
▁vládním	-11.7499
ess	-11.75
obec	-11.7503
nových	-11.7504
▁Pravděpodobn	-11.751
▁čte	-11.7514
▁elektron	-11.7515
rací	-11.7519
▁dokončil	-11.752
▁(18	-11.7521
▁zlepšil	-11.7523
▁chorvatský	-11.7523
▁nemocnic	-11.7524
stroj	-11.7524
▁obřad	-11.7524
▁vyhlášk	-11.7525
▁Starost	-11.7526
▁Knih	-11.7526
snad	-11.7528
státní	-11.7529
▁hlasoval	-11.7529
▁Podpor	-11.753
▁čest	-11.7532
▁Slovák	-11.7532
▁SN	-11.7533
úpln	-11.7534
▁Novým	-11.7535
pír	-11.7536
dlouho	-11.7537
čkem	-11.7538
▁zákonné	-11.7539
▁žadatel	-11.7545
program	-11.7545
▁vyplývají	-11.7547
zapomněl	-11.755
▁potvrzen	-11.7552
▁ničem	-11.7555
▁kongres	-11.7555
▁Excel	-11.7556
▁mrtvé	-11.7557
▁neschopnost	-11.7558
▁stoupenc	-11.7558
elice	-11.7563
▁příslušnost	-11.7563
▁protokol	-11.7566
▁svazový	-11.7566
▁nosič	-11.7566
▁řešil	-11.7567
▁choval	-11.7569
▁penzi	-11.757
tzv	-11.7572
▁Kovo	-11.7572
vodně	-11.7572
zvlášt	-11.7574
[...]
