<unk>	0
<s>	0
</s>	0
<doc>	0
</doc>	0
<head>	0
</head>	0
<phr>	0
</phr>	0
▁	-1.71944
,	-3.2652
.	-3.41267
▁a	-4.32672
▁v	-4.41655
▁se	-4.5089
a	-4.62269
▁na	-4.63798
m	-4.88035
u	-4.91616
ch	-4.93137
i	-5.01279
▁je	-5.03146
y	-5.06663
ho	-5.17128
▁"	-5.21583
▁že	-5.28683
▁z	-5.31091
▁s	-5.34704
▁o	-5.55925
▁do	-5.5796
e	-5.58126
ou	-5.6005
á	-5.62193
o	-5.68599
▁pro	-5.77994
▁-	-5.79661
í	-5.8416
é	-5.84819
▁za	-5.8483
ě	-5.91205
em	-5.91332
▁k	-5.94495
s	-5.95941
▁to	-5.98738
▁i	-6.00183
▁po	-6.01471
▁ve	-6.02308
▁(	-6.02485
▁V	-6.06456
to	-6.09342
▁by	-6.12114
▁ale	-6.21611
>	-6.23143
t	-6.23293
ž	-6.25296
mi	-6.28552
▁si	-6.30583
ů	-6.37524
▁jsou	-6.40685
ý	-6.41967
▁jako	-6.44075
▁které	-6.45835
▁od	-6.46871
▁však	-6.53665
▁při	-6.53813
ých	-6.55456
)	-6.55946
▁:	-6.56436
▁tak	-6.60047
▁který	-6.65316
ní	-6.70675
▁ne	-6.70934
▁nebo	-6.74042
▁jeho	-6.74593
▁bude	-6.75578
?	-6.77984
▁jen	-6.8106
me	-6.85105
x	-6.87249
▁než	-6.89592
▁má	-6.91211
▁S	-6.92053
▁A	-6.94873
▁už	-6.96442
▁Po	-6.97329
▁aby	-6.97675
▁Na	-6.98632
▁před	-6.99263
▁byl	-6.99472
▁jejich	-7.01505
▁jak	-7.02698
▁jsem	-7.02829
▁být	-7.0307
te	-7.03119
▁až	-7.03261
▁která	-7.07635
▁také	-7.08164
l	-7.10905
▁jsme	-7.11506
▁<	-7.12646
▁podle	-7.12854
▁ze	-7.13464
ce	-7.14587
▁Je	-7.16009
mu	-7.17876
▁Z	-7.18739
ně	-7.19775
z	-7.20402
v	-7.22099
▁co	-7.24028
▁není	-7.2467
▁mezi	-7.27841
▁bylo	-7.28095
ého	-7.29243
▁ani	-7.29344
▁či	-7.30528
▁ještě	-7.30856
▁své	-7.31157
ka	-7.32021
▁již	-7.32638
▁když	-7.32935
▁O	-7.33243
▁může	-7.33783
k	-7.34663
▁vy	-7.34842
▁byla	-7.35761
▁P	-7.37426
▁let	-7.37644
▁toho	-7.38312
kud	-7.39786
p	-7.40457
/	-7.41697
ové	-7.42498
▁korun	-7.42902
d	-7.44793
▁K	-7.45442
▁pak	-7.46109
▁další	-7.47914
▁kteří	-7.48612
▁tím	-7.48981
).	-7.49453
▁té	-7.50626
▁kde	-7.52144
ech	-7.5382
že	-7.54402
▁více	-7.54648
▁roku	-7.54974
▁první	-7.55136
li	-7.55296
▁tedy	-7.55358
ky	-7.55493
▁To	-7.55834
r	-7.56672
ek	-7.59049
▁nich	-7.59767
na	-7.60159
▁bez	-7.6177
ým	-7.62885
),	-7.65119
▁mají	-7.65224
ci	-7.66729
▁tu	-7.67413
ná	-7.68061
▁pod	-7.684
▁roce	-7.69259
▁pouze	-7.69546
▁musí	-7.69992
▁tom	-7.70347
la	-7.70549
▁kdy	-7.71465
-	-7.71491
ku	-7.71799
▁tomu	-7.72605
▁li	-7.7328
▁ke	-7.74652
ová	-7.74905
▁proto	-7.75333
▁Za	-7.76174
▁budou	-7.76648
▁třeba	-7.77825
cí	-7.7847
n	-7.78547
▁protože	-7.78676
né	-7.78681
▁totiž	-7.79415
▁proti	-7.81381
▁nás	-7.81692
▁lze	-7.81942
▁I	-7.82178
▁M	-7.85215
▁byly	-7.86088
▁měl	-7.86207
▁nad	-7.86423
▁poslední	-7.8673
▁velmi	-7.86878
▁její	-7.87083
▁asi	-7.87721
▁zatím	-7.87762
ovat	-7.87826
▁Ne	-7.88296
▁D	-7.89557
b	-7.89618
▁ty	-7.90802
▁řekl	-7.91246
▁Podl	-7.92016
▁včera	-7.92165
it	-7.93021
uje	-7.96004
▁dnes	-7.96848
ách	-7.96944
jí	-7.97419
▁firmy	-7.9757
š	-7.97643
▁dva	-7.98888
č	-7.99008
▁Pro	-7.99354
▁především	-7.99922
▁pře	-8.00748
nou	-8.0086
▁vlastní	-8.01204
j	-8.02397
▁případě	-8.02407
▁U	-8.02475
▁tisíc	-8.02688
▁'	-8.03302
▁J	-8.03471
ň	-8.03915
▁například	-8.04054
ovi	-8.04445
▁všech	-8.04751
▁přes	-8.05491
▁rok	-8.05567
▁době	-8.06999
▁nyní	-8.07218
lo	-8.07605
▁mít	-8.08052
▁ji	-8.08703
▁nám	-8.08736
▁Při	-8.09012
co	-8.09538
ových	-8.09953
ný	-8.1088
en	-8.10898
▁tři	-8.11299
c	-8.11484
▁lidí	-8.12191
▁jim	-8.12249
▁společnosti	-8.12303
▁mohou	-8.12528
▁práce	-8.12616
▁Do	-8.13517
▁stále	-8.13553
▁těchto	-8.13824
ost	-8.13905
▁ovšem	-8.1396
▁všechny	-8.14273
▁zda	-8.14631
▁Ve	-8.14635
ze	-8.154
▁jeden	-8.15495
▁několik	-8.16653
ování	-8.17882
ům	-8.17958
▁kterou	-8.18338
▁což	-8.19198
▁něm	-8.20577
▁tento	-8.21089
al	-8.21185
...	-8.2146
le	-8.21536
▁procent	-8.21629
▁možné	-8.23412
▁jde	-8.24245
▁České	-8.24443
▁Ale	-8.2481
il	-8.24983
▁dvou	-8.2523
▁dalších	-8.25476
▁nové	-8.26094
právě	-8.2611
▁Jak	-8.26212
cela	-8.26525
st	-8.26908
▁měla	-8.2767
▁ČR	-8.27978
▁H	-8.28168
▁T	-8.28456
▁Praze	-8.28757
téměř	-8.29586
▁naše	-8.29599
▁zejména	-8.29762
▁svou	-8.30206
cích	-8.30675
▁strany	-8.32218
ské	-8.33085
▁Proto	-8.33096
▁jednání	-8.33399
▁prostředí	-8.3413
▁kdo	-8.34146
▁zařízení	-8.34525
▁sice	-8.34631
▁letech	-8.3483
▁Co	-8.35452
ře	-8.35521
▁Kdy	-8.35842
▁základní	-8.36169
▁svého	-8.36321
ne	-8.36652
▁dvě	-8.37198
▁svých	-8.37259
▁větší	-8.3735
ými	-8.38079
▁Od	-8.38209
▁nejen	-8.3867
g	-8.38852
ných	-8.39287
▁jiné	-8.39318
▁roz	-8.40001
▁naši	-8.40592
▁světa	-8.40895
in	-8.41276
▁tomto	-8.41461
▁možnost	-8.41554
▁místo	-8.41798
▁G	-8.42127
či	-8.42891
ři	-8.43144
▁R	-8.43367
▁B	-8.43437
▁každý	-8.43489
no	-8.43645
▁N	-8.44103
▁nic	-8.44205
ni	-8.44263
▁000	-8.44454
▁Tak	-8.44502
ovou	-8.45146
spo	-8.45171
▁milionů	-8.45225
▁druhé	-8.45237
h	-8.45301
at	-8.45329
▁část	-8.45351
▁mu	-8.45891
ta	-8.46259
▁něco	-8.4646
▁vlády	-8.46496
▁svým	-8.46681
▁zde	-8.47112
▁nej	-8.47355
▁stát	-8.47425
▁uvedl	-8.47651
ém	-8.48141
ra	-8.48328
▁stejně	-8.48437
ám	-8.48955
el	-8.49301
▁2	-8.49496
ny	-8.49546
▁L	-8.49745
▁ceny	-8.49889
▁zákona	-8.50691
ový	-8.50829
osti	-8.50858
▁kolem	-8.50899
▁C	-8.51081
▁%	-8.51338
f	-8.52213
ují	-8.52406
lu	-8.52894
▁oblasti	-8.53053
▁dobře	-8.53585
po	-8.53664
▁příliš	-8.53889
▁patří	-8.5389
▁země	-8.54059
▁systém	-8.54153
▁tam	-8.5437
▁říká	-8.54408
▁byli	-8.54562
▁dosud	-8.54564
▁svůj	-8.54579
▁některých	-8.5499
▁práci	-8.55242
▁některé	-8.55404
▁zboží	-8.56545
▁vůbec	-8.56672
se	-8.57204
▁opět	-8.57224
ami	-8.57434
S	-8.57692
▁10	-8.58122
or	-8.58529
▁1	-8.58577
▁vždy	-8.58623
kou	-8.58834
▁neboť	-8.59156
M	-8.59279
je	-8.59931
▁zemí	-8.60096
ly	-8.60668
si	-8.60859
▁jež	-8.61249
A	-8.6128
ří	-8.61579
▁firma	-8.62111
ští	-8.62374
▁nejsou	-8.62667
▁sociální	-8.63113
▁často	-8.63261
▁období	-8.63372
▁pracovní	-8.63431
▁několika	-8.63442
▁systému	-8.63832
▁finanční	-8.64413
▁dokonce	-8.64892
▁den	-8.65255
▁jste	-8.65272
▁USA	-8.65926
▁měli	-8.66027
▁sám	-8.66344
T	-8.66686
▁Js	-8.66722
▁Kč	-8.67025
▁lidé	-8.67562
▁celé	-8.6763
▁3	-8.68413
▁střední	-8.68887
▁níž	-8.6899
ově	-8.69039
▁rovněž	-8.69111
během	-8.69195
▁trhu	-8.69657
vá	-8.69984
▁vyšší	-8.70209
▁počet	-8.70389
▁nimi	-8.7057
pl	-8.70675
▁doby	-8.70691
▁přímo	-8.70728
on	-8.70801
er	-8.7119
včetně	-8.71485
vůli	-8.71511
▁části	-8.71812
▁situace	-8.71885
▁takže	-8.71929
D	-8.7215
▁hodin	-8.72544
ř	-8.7258
▁zahraničí	-8.72693
▁státní	-8.72775
▁Jan	-8.72879
zřejmě	-8.72921
▁5	-8.73138
▁vše	-8.7395
▁informace	-8.74128
tato	-8.74424
▁mě	-8.74727
▁méně	-8.74969
▁mohl	-8.74971
▁společnost	-8.75114
▁Ty	-8.7515
vě	-8.75462
▁pět	-8.75553
▁Evropy	-8.75574
▁peníze	-8.75579
▁např	-8.7565
▁Zatím	-8.76426
▁zákon	-8.76449
▁víc	-8.76451
ko	-8.76784
▁něj	-8.76833
▁znamená	-8.76835
▁vám	-8.76836
▁chce	-8.76869
ného	-8.7696
▁nebude	-8.77062
▁způsobem	-8.77433
▁takové	-8.77644
va	-8.7787
▁spíše	-8.78353
▁republiky	-8.78357
B	-8.78848
če	-8.79026
▁nemá	-8.79035
ích	-8.79063
▁velký	-8.79141
▁čas	-8.79215
čí	-8.79281
▁dále	-8.7945
▁dobu	-8.79486
▁F	-8.79609
▁ten	-8.79822
▁navíc	-8.79839
▁přitom	-8.79866
▁půl	-8.8046
▁sebe	-8.80473
▁První	-8.80514
▁obchodní	-8.80602
▁vlastně	-8.80722
▁problémy	-8.80777
▁jednoho	-8.81163
▁čtyři	-8.81312
▁české	-8.81377
▁naopak	-8.81598
▁ministr	-8.81726
R	-8.81824
us	-8.8208
ru	-8.8224
▁ředitel	-8.82332
tu	-8.8278
ť	-8.82989
an	-8.83464
▁města	-8.83631
▁zájem	-8.83696
▁letošní	-8.83795
▁skutečně	-8.83886
ro	-8.83927
▁straně	-8.84494
▁největší	-8.8467
L	-8.84733
▁20	-8.84786
▁mnoho	-8.84791
▁znovu	-8.84796
▁vláda	-8.84919
▁životní	-8.84958
▁jej	-8.85003
▁zahraniční	-8.85079
▁většinou	-8.85102
▁zhruba	-8.85267
▁jednotlivý	-8.85355
▁platí	-8.85423
ov	-8.85493
K	-8.85643
oval	-8.85683
▁současné	-8.86051
▁řešení	-8.86121
▁prezident	-8.862
da	-8.86495
▁řízení	-8.86667
▁území	-8.87066
▁jiných	-8.87478
▁Jiří	-8.87535
▁mimo	-8.87916
▁snad	-8.87973
▁nelze	-8.88039
▁celý	-8.882
▁ob	-8.88645
by	-8.88748
▁bych	-8.8877
ská	-8.88818
▁1992	-8.89198
▁začal	-8.89237
▁letos	-8.89483
ský	-8.89658
▁smlouvy	-8.89916
▁dolarů	-8.89936
▁rozhodnutí	-8.90124
▁zase	-8.90667
ri	-8.90744
▁velké	-8.90912
▁tzv	-8.90926
▁jedné	-8.91083
▁tří	-8.91285
nost	-8.91304
ového	-8.91351
ti	-8.91372
ným	-8.9156
▁program	-8.91798
▁pomocí	-8.91924
ry	-8.91933
▁Vy	-8.9212
kem	-8.92156
I	-8.92199
▁množství	-8.92227
ji	-8.92463
▁činnosti	-8.92474
ův	-8.9275
▁r	-8.93139
▁naší	-8.93547
ší	-8.93573
lá	-8.93653
▁člověk	-8.93862
▁roky	-8.93893
▁Přesto	-8.93929
▁vás	-8.93992
▁šest	-8.94282
4	-8.94344
V	-8.94391
▁světě	-8.94595
ující	-8.94643
▁jednou	-8.94761
▁různých	-8.94869
▁hlavní	-8.95187
ním	-8.95365
▁státu	-8.95523
N	-8.95574
▁později	-8.95756
ba	-8.95879
▁můžete	-8.96331
▁programu	-8.96641
ského	-8.9675
▁ČSFR	-8.96901
du	-8.97385
▁člověka	-8.97387
▁Petr	-8.97474
▁1.	-8.97587
nu	-8.9787
▁Evropě	-8.9794
▁podniku	-8.97947
▁vedení	-8.9801
3	-8.98025
▁dost	-8.98201
▁skupiny	-8.98255
hl	-8.9832
▁století	-8.98478
tě	-8.98742
ec	-8.98762
▁věci	-8.9884
▁život	-8.98891
▁služby	-8.9899
▁málo	-8.99235
▁rozdíl	-8.99293
▁Václav	-8.99392
▁dlouho	-8.99469
C	-8.99612
▁domácí	-8.99658
▁jinak	-9.00053
▁mělo	-9.00077
▁prý	-9.00093
▁deset	-9.00141
▁činnost	-9.00167
▁obou	-9.00702
▁zároveň	-9.00761
▁Před	-9.00981
▁trh	-9.01121
▁situaci	-9.01124
▁dnešní	-9.01665
▁prohlásil	-9.01776
lí	-9.01866
P	-9.01872
za	-9.01872
ím	-9.02193
▁snímku	-9.02211
1	-9.02231
▁náklady	-9.02248
▁spolu	-9.02327
▁lepší	-9.02675
▁možná	-9.02744
ova	-9.02756
▁nových	-9.02792
▁přesto	-9.02792
▁prvním	-9.03133
▁cenu	-9.03287
▁tvrdí	-9.03324
▁problém	-9.03407
re	-9.03428
▁návrh	-9.0361
▁nemůže	-9.03667
▁měly	-9.03723
ty	-9.03787
Á	-9.03814
▁máme	-9.03922
▁svět	-9.03996
▁jaké	-9.04172
▁mohli	-9.0418
▁děti	-9.04412
U	-9.04526
▁4	-9.04682
2	-9.04963
▁firem	-9.05014
▁získat	-9.05532
▁Praha	-9.05842
▁států	-9.06081
▁toto	-9.06087
▁těch	-9.06577
od	-9.06595
▁majetku	-9.06665
▁CD	-9.06672
▁nakonec	-9.06724
ste	-9.0675
▁všechno	-9.06812
▁Byl	-9.06845
▁funkce	-9.07037
▁nikdy	-9.07238
▁E	-9.07515
▁stojí	-9.07573
▁lety	-9.07917
▁výši	-9.07942
▁svém	-9.08007
▁bývalé	-9.08069
ků	-9.08107
▁proč	-9.08289
▁1993	-9.08593
▁místě	-9.08727
▁vody	-9.09408
▁americké	-9.09481
▁možnosti	-9.0969
▁konce	-9.09944
▁pěti	-9.09955
ha	-9.10078
děl	-9.10112
▁nového	-9.10343
▁stavu	-9.10369
▁dříve	-9.10503
▁100	-9.10517
et	-9.10564
▁jedno	-9.10672
▁Prahy	-9.10736
▁třetí	-9.10743
▁sobotu	-9.10781
▁nutné	-9.11331
▁moc	-9.11406
is	-9.11426
▁Má	-9.11578
▁stav	-9.11598
▁jedna	-9.11679
▁mezinárodní	-9.11698
▁nebyl	-9.1174
▁30	-9.12056
ají	-9.12209
▁parlamentu	-9.12302
▁místní	-9.1265
▁přece	-9.12777
▁předseda	-9.1294
ních	-9.12942
ví	-9.1295
▁bychom	-9.13102
▁osob	-9.13203
▁zemi	-9.1323
▁Tento	-9.13352
▁nepo	-9.13444
▁ministerstva	-9.13748
ských	-9.13894
▁týden	-9.13964
▁Tato	-9.14562
▁15	-9.14739
▁de	-9.14795
▁Není	-9.14818
▁podniků	-9.14965
▁informací	-9.14979
▁policie	-9.14979
▁organizace	-9.14979
▁poté	-9.15098
▁všichni	-9.15185
▁Další	-9.15336
▁samozřejmě	-9.15351
▁rychle	-9.15577
▁nikdo	-9.15601
▁můžeme	-9.15656
de	-9.15883
▁Ten	-9.16174
▁nový	-9.16221
▁hlavně	-9.16228
nebo	-9.16557
▁českých	-9.16654
▁Kromě	-9.16854
▁prezidenta	-9.16908
▁něho	-9.16949
▁poměrně	-9.16962
▁p	-9.17053
▁věcí	-9.17067
O	-9.17161
9	-9.17403
▁sdružení	-9.17502
trochu	-9.17502
▁dvěma	-9.17524
▁pan	-9.17687
▁jí	-9.17951
▁vedoucí	-9.18097
▁50	-9.18208
▁Jana	-9.18378
▁stran	-9.18423
▁SSSR	-9.18765
bychom	-9.18892
jich	-9.18902
še	-9.19015
lé	-9.19384
▁Mezi	-9.19412
▁prohlášení	-9.1942
▁právní	-9.19581
ma	-9.19599
▁dobré	-9.19944
▁kdyby	-9.20016
▁podmínky	-9.20059
▁Jestli	-9.20059
▁komise	-9.20059
▁někdy	-9.20061
▁sobě	-9.20061
▁Jako	-9.20078
▁postup	-9.20438
tra	-9.20709
vol	-9.20724
▁základě	-9.20822
▁pohled	-9.20864
ení	-9.20981
▁Evropské	-9.21136
▁zemích	-9.214
▁došlo	-9.21575
▁výroby	-9.21772
▁způsob	-9.21872
ců	-9.21906
▁čím	-9.21917
▁kromě	-9.22011
▁většina	-9.22254
▁ti	-9.22539
▁místa	-9.22711
tr	-9.22913
▁ostatní	-9.23037
ar	-9.23078
▁určité	-9.23108
dním	-9.23127
▁hned	-9.23374
ické	-9.23526
▁nejlepší	-9.23609
ob	-9.23627
▁dál	-9.23633
ve	-9.23696
▁života	-9.24012
▁Š	-9.24149
▁já	-9.243
ální	-9.24313
▁sto	-9.24401
▁tehdy	-9.24728
▁rozpočtu	-9.24729
▁hry	-9.24888
▁podíl	-9.25051
os	-9.25108
bu	-9.25174
▁druhý	-9.25356
▁vysoké	-9.25412
▁cena	-9.25462
▁východní	-9.25536
▁jistě	-9.25597
▁obě	-9.25692
mohlo	-9.25834
▁jich	-9.25866
▁malé	-9.25871
▁osm	-9.25889
▁mnoha	-9.25968
▁teď	-9.26106
tá	-9.26143
▁milionu	-9.26271
▁jedn	-9.26286
vi	-9.26346
▁vývoj	-9.26441
▁prostor	-9.26488
▁nebylo	-9.26505
man	-9.26531
kr	-9.26618
Z	-9.26679
▁prosince	-9.26796
▁prostředky	-9.26797
▁poprvé	-9.26799
▁vliv	-9.26805
val	-9.2685
▁dne	-9.27059
▁času	-9.27266
▁stejné	-9.27344
▁unie	-9.27496
dr	-9.27508
▁názor	-9.28003
nější	-9.28199
▁spolupráci	-9.28199
▁výsledky	-9.28211
▁teprve	-9.28222
▁opatření	-9.28228
▁jenž	-9.28391
ili	-9.28428
▁nějak	-9.28771
▁dodal	-9.28946
▁výrazně	-9.28964
▁žádné	-9.29093
▁200	-9.29103
ol	-9.29118
jší	-9.29142
▁večer	-9.29167
▁Se	-9.29262
▁40	-9.29317
▁prakticky	-9.29662
▁vnitřní	-9.29747
▁Ta	-9.29836
▁politické	-9.29922
▁čtyř	-9.30013
▁W	-9.30072
▁tvoří	-9.30157
▁nevy	-9.30164
▁potom	-9.30168
▁procenta	-9.30331
▁hlediska	-9.30342
▁prostřednictví	-9.30342
▁utkání	-9.30373
▁ním	-9.30374
▁zdravotní	-9.30421
ější	-9.30667
hle	-9.30851
▁podnik	-9.30905
▁republice	-9.31067
ši	-9.31093
▁premiér	-9.31135
▁velice	-9.31173
▁celou	-9.31181
▁ministra	-9.31193
▁6	-9.31255
▁mnoh	-9.31334
pe	-9.31412
▁kterým	-9.31461
▁ODS	-9.31477
ční	-9.31784
▁někdo	-9.31798
▁daně	-9.31818
▁pár	-9.32388
▁nižší	-9.32532
▁dispozici	-9.32534
▁akce	-9.32548
▁souvislosti	-9.32615
díky	-9.32681
▁řadu	-9.32983
▁typu	-9.32986
▁minut	-9.33247
▁1990	-9.33274
▁Ko	-9.33298
mohla	-9.33337
ila	-9.33643
▁změny	-9.33795
▁obyvatel	-9.33885
w	-9.33948
▁rámci	-9.34021
▁ledna	-9.34029
▁mne	-9.34362
0	-9.34418
▁původní	-9.34534
▁sebou	-9.34638
▁dat	-9.34691
▁budeme	-9.34728
▁menší	-9.34764
▁nejméně	-9.34782
▁doma	-9.34784
▁podařilo	-9.34866
E	-9.35077
▁stal	-9.35091
ovým	-9.35394
▁státy	-9.35538
▁roli	-9.35544
let	-9.3561
▁různé	-9.35702
▁vítězství	-9.35769
▁čs	-9.35901
▁Například	-9.36292
▁podnikání	-9.36311
▁prostě	-9.36414
dy	-9.36482
▁ta	-9.36674
5	-9.36757
▁výše	-9.36862
▁opravdu	-9.37065
▁Jde	-9.37099
▁právo	-9.37313
▁tolik	-9.37471
▁západní	-9.37708
es	-9.37714
▁smlouvu	-9.37836
▁miliónů	-9.37859
▁náš	-9.37872
▁nejvyšší	-9.37872
▁minulý	-9.37899
▁nedávno	-9.37901
▁peněz	-9.37914
▁význam	-9.38063
▁miliard	-9.38267
▁funkci	-9.38618
▁Jen	-9.38628
▁Dnes	-9.38659
▁zvýšení	-9.38741
▁služeb	-9.38744
▁loni	-9.38848
▁soud	-9.39153
▁šesti	-9.39334
ovali	-9.39351
▁okolí	-9.39432
▁Kdo	-9.39453
▁chování	-9.39511
▁měsíců	-9.39534
▁středu	-9.39623
▁žádný	-9.3977
▁kam	-9.39832
ká	-9.39942
▁koaliční	-9.40198
▁ministerstvo	-9.40198
▁chtějí	-9.40199
▁dnech	-9.40231
ační	-9.40277
▁pojištění	-9.40301
tí	-9.40528
▁jiného	-9.41046
▁metrů	-9.4106
▁postupně	-9.41089
vr	-9.41176
▁úřadu	-9.41267
▁Windows	-9.41275
▁rady	-9.41291
▁vů	-9.41344
proti	-9.41377
dí	-9.41393
▁zahraničních	-9.41473
▁získal	-9.41578
▁zisk	-9.41787
▁společenství	-9.41841
▁dosavadní	-9.41874
▁svazu	-9.41927
▁12	-9.4195
▁text	-9.41976
▁trenér	-9.42066
▁pomoc	-9.42622
▁deseti	-9.42696
▁členů	-9.42757
ému	-9.42975
ání	-9.43144
▁neu	-9.43321
▁nemusí	-9.43438
▁číslo	-9.4345
▁Pak	-9.43616
▁Zde	-9.43666
▁pracovníků	-9.437
▁8	-9.43877
▁podobně	-9.44156
▁podporu	-9.44204
▁zástupce	-9.44273
▁tržní	-9.44306
▁nadále	-9.44347
dl	-9.44349
▁25	-9.44363
skou	-9.44369
▁Bude	-9.44399
▁klubu	-9.44445
pa	-9.4484
▁provoz	-9.44884
▁počtu	-9.44891
▁osobní	-9.45106
▁1991	-9.45289
▁týmu	-9.45741
▁ročně	-9.4579
▁podniky	-9.45837
▁snaží	-9.4587
▁Většin	-9.45938
▁hospodářství	-9.45938
▁nabídky	-9.45938
▁lépe	-9.4594
hr	-9.45969
rt	-9.46024
▁MS	-9.46152
▁Ani	-9.46295
▁přibližn	-9.46295
▁18	-9.46299
▁každ	-9.46425
▁výkon	-9.46591
▁malý	-9.46734
▁podstatně	-9.46765
▁umožňuje	-9.46785
▁jenom	-9.46836
▁dostal	-9.46856
▁růst	-9.46969
▁přesně	-9.4703
▁hodně	-9.47045
Dr	-9.47265
▁fondu	-9.47356
▁slova	-9.47484
▁musíme	-9.4761
▁považuje	-9.4764
▁začíná	-9.4764
▁říci	-9.4766
▁1994	-9.47681
▁případech	-9.47683
vý	-9.47689
▁novou	-9.47699
▁městě	-9.47767
ované	-9.47907
▁7	-9.47996
▁zdá	-9.48052
▁banky	-9.48053
▁objekt	-9.48155
▁řada	-9.48342
▁pomoci	-9.48354
▁možností	-9.48491
▁obvykle	-9.48502
▁sítě	-9.48504
▁St	-9.48562
▁oddělení	-9.48593
▁českého	-9.48778
▁vedle	-9.48789
pr	-9.48813
▁cen	-9.48822
ing	-9.49022
▁nebyla	-9.49043
▁otázku	-9.49372
▁výrobků	-9.49374
▁politiky	-9.4942
▁průběhu	-9.49606
▁nez	-9.49694
▁vede	-9.4974
ter	-9.49819
▁kterém	-9.4987
▁celkové	-9.49949
▁miliardy	-9.50081
▁11	-9.5021
▁nabízí	-9.50249
▁nemají	-9.50283
▁ulici	-9.50312
▁zdrojů	-9.50385
▁Klaus	-9.50434
6	-9.50812
sti	-9.50882
▁16	-9.50918
ali	-9.5103
▁skutečnost	-9.51066
▁cestu	-9.51103
▁otázky	-9.51134
▁úrovni	-9.51134
▁chvíli	-9.51134
▁celkem	-9.51136
▁Česká	-9.51139
▁Už	-9.5114
ať	-9.51154
▁uvádí	-9.51195
mž	-9.51428
ství	-9.51472
▁moci	-9.51661
▁pražské	-9.51692
00	-9.517
▁takto	-9.51737
▁dá	-9.51831
op	-9.51961
▁mistrovství	-9.5203
▁názoru	-9.52052
▁textu	-9.52166
▁dohody	-9.5218
▁postavení	-9.52214
▁objektů	-9.52269
▁změn	-9.52319
F	-9.52356
▁kole	-9.52447
▁jednom	-9.525
▁dětí	-9.52927
▁energie	-9.52927
▁NATO	-9.52929
▁Re	-9.5295
▁působí	-9.53184
CH	-9.53264
ák	-9.53409
▁přístup	-9.53565
▁platit	-9.5357
▁společností	-9.5357
▁14	-9.53611
▁jejím	-9.53768
▁takový	-9.53808
▁finále	-9.53837
▁hrát	-9.53879
▁představuje	-9.53904
▁listopadu	-9.53922
▁setkání	-9.54014
▁měsíce	-9.54047
▁bývalý	-9.54111
▁kterých	-9.54129
str	-9.54254
▁sama	-9.54263
▁Ze	-9.54323
▁sedm	-9.54474
▁každé	-9.54569
▁světové	-9.54601
▁prostředků	-9.54754
▁čtvrtek	-9.5477
▁Ještě	-9.54793
▁Tím	-9.5481
▁současně	-9.54918
ur	-9.54963
▁řadě	-9.54965
▁my	-9.54988
▁provozu	-9.55012
▁obchodního	-9.55046
▁skupina	-9.55046
▁hráčů	-9.55121
▁příští	-9.5517
▁zdroje	-9.55188
▁národní	-9.55278
▁volební	-9.55526
▁Pře	-9.55586
▁sami	-9.5566
▁Navíc	-9.5568
▁Nyní	-9.55683
▁výrobky	-9.55684
▁OSN	-9.55688
▁produkce	-9.55689
▁atd	-9.55734
▁sil	-9.5575
▁nikoli	-9.55761
▁čeká	-9.55821
▁her	-9.55838
▁neděli	-9.5595
▁musel	-9.56109
▁2.	-9.56186
▁oba	-9.56264
▁skutečnosti	-9.56378
aci	-9.56436
fi	-9.56585
▁Josef	-9.56614
▁federální	-9.56614
▁zasedání	-9.5662
▁kvalitní	-9.56656
▁muset	-9.56679
▁slov	-9.56771
▁všem	-9.56954
▁výboru	-9.57142
▁přiče	-9.57279
▁hlavním	-9.57343
▁poně	-9.57363
▁začátku	-9.57596
▁srovnání	-9.57631
nutí	-9.57729
▁akcií	-9.57797
▁součástí	-9.57841
▁hodnoty	-9.57845
▁jiný	-9.57925
▁mluvčí	-9.57926
▁tým	-9.57935
▁prezentace	-9.58081
ace	-9.5809
▁školy	-9.58109
▁obchodu	-9.58126
br	-9.58167
řitom	-9.5818
nosti	-9.58427
▁míst	-9.58452
▁teorie	-9.5851
▁privatizace	-9.5851
▁apod	-9.58514
▁jasné	-9.5856
zn	-9.58613
▁společné	-9.58625
▁zvláštní	-9.58703
ck	-9.58773
Í	-9.58899
ěte	-9.58913
▁problémů	-9.58986
▁těm	-9.59019
▁nes	-9.59245
vy	-9.59276
▁kterého	-9.59286
▁generální	-9.59294
▁objektu	-9.59321
ží	-9.59455
▁Země	-9.59483
▁olympijské	-9.59525
▁Nej	-9.59528
▁dopravy	-9.59548
▁domů	-9.59566
▁poslanců	-9.59667
▁1989	-9.59669
▁plně	-9.59693
▁jednotlivé	-9.59711
krát	-9.59779
▁projekt	-9.59785
▁buď	-9.5981
▁neza	-9.59924
▁dává	-9.6013
▁chtěl	-9.60133
▁telefonní	-9.60142
▁výzkum	-9.60151
ostí	-9.60192
▁našem	-9.6039
▁ekonomické	-9.60406
▁veřejné	-9.60443
▁zdravotnictví	-9.60443
▁Někter	-9.60445
▁umění	-9.60466
▁kolik	-9.60719
▁údaje	-9.60748
ovala	-9.60769
prve	-9.60865
ovy	-9.60907
▁věc	-9.60968
▁Bylo	-9.61021
id	-9.61092
▁chyb	-9.61179
lou	-9.61219
▁práva	-9.61367
▁dalším	-9.61379
▁podobě	-9.6146
▁ostatních	-9.6151
▁investice	-9.61546
▁kultury	-9.61621
▁noci	-9.61637
▁spojení	-9.61701
▁ME	-9.61759
▁Jelcin	-9.61803
▁státního	-9.61869
pra	-9.61899
ven	-9.61903
▁24	-9.61919
▁celého	-9.61925
▁úřad	-9.62117
např	-9.62364
▁Ivan	-9.62433
ice	-9.62485
▁společně	-9.62509
▁přednost	-9.62526
▁zájmu	-9.62535
▁Proč	-9.6258
gr	-9.62592
▁soutěže	-9.62656
▁snadno	-9.62704
▁občanů	-9.62718
▁smrti	-9.62736
▁strana	-9.62774
▁obsah	-9.63211
▁Toto	-9.63213
hu	-9.63252
▁předem	-9.63262
▁tisíce	-9.63299
▁19	-9.63369
▁jméno	-9.63414
▁pracovat	-9.63452
▁politických	-9.63462
▁vzájemn	-9.63635
8	-9.64027
▁dr	-9.64307
▁Stejn	-9.64427
▁snímek	-9.64431
▁zdraví	-9.64439
▁lidi	-9.64472
▁vytvoření	-9.64512
▁důvodů	-9.64563
▁nejvíce	-9.64631
ul	-9.64908
H	-9.64995
▁moderní	-9.65031
čky	-9.65068
▁list	-9.65183
▁vybavení	-9.65317
▁soudu	-9.65364
▁práv	-9.65433
▁Jaroslav	-9.65444
▁vod	-9.65484
▁vzhledem	-9.65547
▁velkou	-9.65582
▁Český	-9.65677
▁mužů	-9.65709
▁konkrétní	-9.65803
▁jisté	-9.65823
▁hráči	-9.65932
však	-9.66008
▁počítače	-9.66016
▁hnutí	-9.6606
▁Ti	-9.66165
000	-9.66257
▁otázka	-9.66276
▁okolo	-9.66475
ran	-9.66563
stav	-9.66807
▁daleko	-9.66877
▁film	-9.66974
▁těžko	-9.67049
▁hodiny	-9.67055
▁Ma	-9.67126
▁spíš	-9.67141
▁skupin	-9.67227
len	-9.67501
▁náměstí	-9.67516
▁delší	-9.67519
▁někteří	-9.67521
▁zástupci	-9.67522
▁září	-9.67523
▁rukou	-9.67524
▁zaměstnání	-9.6755
▁obsahuje	-9.6756
▁kilometrů	-9.67564
svoji	-9.67612
▁věku	-9.67736
▁oboru	-9.67817
▁koncem	-9.6782
lit	-9.67893
▁60	-9.67911
▁mohly	-9.68059
▁Ch	-9.6811
▁vládní	-9.68219
ú	-9.68349
▁výsledek	-9.68569
▁cestovní	-9.68569
▁nějaké	-9.68659
▁přišel	-9.68676
▁druhů	-9.68735
rad	-9.68782
▁zkušenosti	-9.68866
ed	-9.68869
do	-9.6896
▁mám	-9.68966
▁hospodářské	-9.69135
▁cizí	-9.69185
ga	-9.69268
▁Kčs	-9.69283
▁objekty	-9.69348
▁případ	-9.69384
▁Pavel	-9.69563
▁nebudou	-9.69633
▁Může	-9.69633
▁podmínek	-9.69635
▁dnů	-9.69637
▁koalice	-9.697
▁olympijský	-9.69717
ad	-9.69806
▁stavební	-9.69812
▁celkov	-9.69822
▁zaměstnanců	-9.69932
▁existuje	-9.69991
▁český	-9.701
▁smyslu	-9.70221
▁zůstává	-9.70224
▁nedo	-9.703
▁tun	-9.70374
▁každého	-9.70391
▁běžné	-9.70406
▁řád	-9.70413
▁dobrý	-9.70419
pro	-9.7044
▁šéf	-9.70524
▁škol	-9.70559
ver	-9.70652
▁úroveň	-9.70708
▁tady	-9.70727
rn	-9.70742
▁re	-9.70768
▁Podobn	-9.7083
▁minulosti	-9.70866
▁efekt	-9.70904
pravidla	-9.70992
▁loňské	-9.7104
▁dvacet	-9.71085
▁klub	-9.71085
▁13	-9.71138
▁fond	-9.71182
del	-9.71213
nik	-9.71227
▁rozvoj	-9.71241
▁republik	-9.71575
sta	-9.71643
▁případně	-9.7165
▁bývá	-9.71677
▁zpět	-9.71687
viz	-9.71763
▁pátek	-9.71795
▁praxi	-9.71795
▁poslanci	-9.71798
▁účast	-9.71808
▁rychlost	-9.71877
ev	-9.71894
▁jediný	-9.71921
▁určitě	-9.71948
▁Každý	-9.71963
ant	-9.72019
▁Já	-9.72083
▁pozornost	-9.72226
án	-9.72231
sk	-9.72486
▁Brně	-9.72499
ací	-9.72728
nice	-9.72756
▁důležité	-9.72894
▁vidět	-9.72894
▁šanci	-9.72895
▁konci	-9.72919
▁kvality	-9.72955
▁možno	-9.73218
ském	-9.73293
▁Ro	-9.73384
▁použití	-9.73396
pat	-9.73421
▁doba	-9.73439
▁prvního	-9.73577
▁zápas	-9.73738
▁druhém	-9.7379
▁krok	-9.73881
▁síly	-9.7401
▁volbách	-9.74013
▁července	-9.74021
▁dny	-9.74041
▁nikoliv	-9.74096
▁změnit	-9.74175
▁odpovídá	-9.74177
▁dal	-9.74185
ník	-9.74233
▁knihy	-9.74306
▁Německa	-9.74395
sku	-9.74426
▁členy	-9.7447
▁nebezpečí	-9.74728
šlo	-9.74785
▁vztah	-9.75061
▁nákladů	-9.75173
▁podstatě	-9.75175
▁zranění	-9.7532
▁speciální	-9.75525
▁ruské	-9.75631
▁tisku	-9.75662
▁Le	-9.75754
ního	-9.75836
▁činí	-9.75873
▁obraz	-9.7594
▁stačí	-9.75953
▁č	-9.76178
▁Ministerstv	-9.76265
▁technologie	-9.76265
▁tepla	-9.76265
▁úplně	-9.76272
▁výrobu	-9.76339
▁představitelé	-9.76359
▁investiční	-9.76367
▁prodej	-9.76542
▁druhou	-9.76591
bor	-9.76664
▁podobné	-9.76848
▁techniky	-9.77034
▁Již	-9.77165
▁domu	-9.77228
▁podnikatele	-9.77315
nout	-9.77324
kové	-9.77437
▁míry	-9.77484
▁celá	-9.77522
▁pracuje	-9.77565
▁volby	-9.77573
▁léta	-9.77699
ROM	-9.7777
▁zprávy	-9.77784
bal	-9.77787
▁fakt	-9.77895
▁voleb	-9.77915
vo	-9.78009
▁vznikl	-9.78182
7	-9.78193
▁údajn	-9.78482
▁polovin	-9.78578
▁Bez	-9.78597
ilo	-9.78604
▁dvakrát	-9.78618
▁vytvořit	-9.78644
▁televizní	-9.78667
▁chcete	-9.78832
▁vlastnosti	-9.78871
▁bytů	-9.78942
▁návrhu	-9.78953
▁parlament	-9.7899
▁světový	-9.79054
▁též	-9.79181
▁muž	-9.79221
skoro	-9.79295
▁fotbalové	-9.79499
▁financí	-9.79754
▁konečně	-9.79816
▁Mar	-9.79858
▁typ	-9.8001
▁SR	-9.80013
▁každém	-9.80021
▁dělat	-9.80038
▁výběr	-9.80073
▁Tr	-9.80227
vláště	-9.80338
nými	-9.80338
▁jít	-9.80422
▁Jedno	-9.8055
▁vyhrál	-9.80624
▁schopn	-9.80638
hal	-9.80682
▁bod	-9.80766
▁lidský	-9.80877
zhledem	-9.80908
▁federace	-9.80944
▁použít	-9.80944
▁firmě	-9.80953
▁Jeden	-9.80962
▁výsledků	-9.80963
▁evropských	-9.80984
▁Všechny	-9.81001
▁současnosti	-9.81027
▁zpracování	-9.81036
Š	-9.81107
▁hranice	-9.81147
▁průmyslu	-9.81207
▁bodů	-9.81208
▁Německu	-9.81255
há	-9.81261
▁vojenské	-9.8128
mat	-9.81365
▁model	-9.81452
▁Ú	-9.81649
íky	-9.81954
▁termín	-9.8197
ič	-9.82085
▁rozhodující	-9.82123
▁pravděpodobně	-9.82145
▁Společenství	-9.82149
▁Vladimír	-9.82149
▁Právě	-9.82149
▁zbraní	-9.82149
▁nejlépe	-9.8215
▁původně	-9.82168
▁Běh	-9.82171
▁osoby	-9.82207
▁Zeman	-9.82228
▁objeví	-9.82317
▁ředitele	-9.82408
▁ženy	-9.82425
▁Firma	-9.82516
ic	-9.82608
▁jaký	-9.82631
▁amerických	-9.82636
▁80	-9.82653
▁rád	-9.8266
▁cílem	-9.82666
dnu	-9.82873
▁následující	-9.82913
▁byt	-9.82989
as	-9.83057
vin	-9.83149
▁počítač	-9.8316
zí	-9.83212
▁udělat	-9.83398
▁prostoru	-9.83424
▁sněmovny	-9.83428
▁dokáže	-9.83462
značně	-9.83561
▁vhodné	-9.83588
▁kulturní	-9.83662
▁nepři	-9.83721
▁Ná	-9.8389
▁počítá	-9.83945
▁důvod	-9.84023
▁dlouhé	-9.84048
ovaných	-9.84113
nit	-9.84149
▁lékaře	-9.84168
ily	-9.84215
J	-9.84252
▁těmi	-9.84336
▁růstu	-9.84422
▁zisku	-9.84481
▁Miloš	-9.84567
▁dvaceti	-9.84587
▁patrně	-9.84598
▁informační	-9.84603
▁brzy	-9.84603
▁čísla	-9.84603
kov	-9.84609
▁hovoří	-9.84618
ovací	-9.84642
▁obrany	-9.84734
▁ex	-9.84798
▁vodní	-9.84905
ován	-9.84961
▁ústavu	-9.84979
▁rokem	-9.85025
kách	-9.85071
▁veřejnosti	-9.85166
and	-9.85286
▁pravda	-9.85344
▁vědecké	-9.85348
ik	-9.85433
▁roční	-9.85461
▁žen	-9.8547
▁závod	-9.85701
▁ES	-9.85732
▁úspěch	-9.85802
raději	-9.85851
▁většinu	-9.85853
▁jinde	-9.85853
▁péče	-9.85853
▁začne	-9.8586
▁nemohou	-9.85868
▁dovolenou	-9.85904
▁vládě	-9.85949
▁17	-9.85979
▁denně	-9.86111
▁prací	-9.86223
▁řad	-9.86305
▁výrobce	-9.86337
▁slovo	-9.8635
G	-9.86357
▁data	-9.86357
NÍ	-9.86378
▁čem	-9.86407
▁stala	-9.86412
▁takovou	-9.86413
▁vědět	-9.86627
▁připraven	-9.86628
▁národního	-9.86643
jící	-9.8673
▁nejbližší	-9.86851
▁aplikace	-9.87028
▁pokračovat	-9.87119
▁pozadí	-9.87119
▁látky	-9.87121
▁Roz	-9.87143
▁sluneční	-9.87214
dávají	-9.87312
▁potřebné	-9.87528
▁starší	-9.87646
▁nákup	-9.87675
▁stalo	-9.87776
▁procesu	-9.87807
hy	-9.87918
dob	-9.88024
▁dosáhl	-9.88105
▁UEFA	-9.88401
▁demokracie	-9.88401
▁důležitý	-9.88401
▁oficiální	-9.88401
▁označil	-9.88401
▁televizi	-9.88401
▁Spojený	-9.88401
▁Havel	-9.88402
▁nijak	-9.88407
▁ukazuje	-9.88422
▁okamžitě	-9.88425
▁hodnocení	-9.88435
▁nebyly	-9.88474
▁míru	-9.8849
▁svaz	-9.88515
▁zabývá	-9.88529
▁určen	-9.88635
▁cesty	-9.88731
▁La	-9.88738
▁výbor	-9.88762
▁Ba	-9.88783
▁plné	-9.88805
▁bezpečnosti	-9.88812
▁naprosto	-9.88869
▁Br	-9.88908
třech	-9.88935
mluv	-9.89047
▁vzniku	-9.89049
▁budoucí	-9.89069
▁body	-9.89112
▁dát	-9.89284
▁odborné	-9.89299
▁odmítl	-9.89342
▁oblast	-9.89371
▁pří	-9.89434
▁Nové	-9.89508
▁trvá	-9.89588
▁2000	-9.89674
▁majetek	-9.897
▁řečeno	-9.897
▁počasí	-9.89702
▁členové	-9.89751
▁stanice	-9.89878
▁téma	-9.89918
▁kanceláře	-9.89927
ík	-9.89933
▁potřeby	-9.89943
▁ČSSD	-9.89946
▁vládu	-9.89966
vod	-9.90027
čin	-9.90151
▁pole	-9.90279
▁rozšíření	-9.90294
▁lékaři	-9.9034
▁zákony	-9.90385
▁řady	-9.90396
▁bank	-9.90476
nt	-9.90488
mj	-9.90523
▁druh	-9.90652
▁Nový	-9.90654
up	-9.90683
▁systémů	-9.90691
:	-9.90697
▁nová	-9.90724
cen	-9.90737
gen	-9.9075
ící	-9.90822
▁500	-9.90919
▁Měl	-9.90957
▁vývoje	-9.90966
▁nějaký	-9.90998
▁názvem	-9.91015
▁onemocnění	-9.91015
▁požadavky	-9.91015
▁příjmy	-9.91015
▁rozhodně	-9.91017
▁lidem	-9.91064
▁ekonomiky	-9.91072
▁dosáhnout	-9.91092
▁podobný	-9.91173
ot	-9.91196
▁Slovensku	-9.91277
▁Martin	-9.91393
zen	-9.91481
▁Pan	-9.91553
▁třicet	-9.9164
▁smysl	-9.91691
▁počátku	-9.91827
stup	-9.91933
▁rada	-9.91937
čka	-9.92017
▁Tu	-9.92041
▁přístupu	-9.92079
▁konference	-9.92349
▁televize	-9.92349
▁ligy	-9.9235
▁vánoční	-9.92351
▁policejní	-9.92354
▁dostat	-9.92357
▁mil	-9.92435
▁Státní	-9.92495
▁jednak	-9.92501
▁hlavního	-9.92535
ček	-9.92582
▁mechaniky	-9.92597
▁Čech	-9.92753
▁lékař	-9.92828
▁celém	-9.92885
▁řekla	-9.92919
ment	-9.92921
▁trestní	-9.93062
▁společného	-9.93195
▁300	-9.93247
▁22	-9.93252
▁proces	-9.93257
▁prodeje	-9.93361
▁soubor	-9.93429
▁Pod	-9.93433
▁nepro	-9.93441
▁obchod	-9.9349
čet	-9.9354
▁osmi	-9.93699
▁poskytuje	-9.937
▁Československu	-9.937
▁vnitra	-9.93701
▁Prezident	-9.93703
▁velká	-9.93704
▁Mo	-9.93742
▁parlamentní	-9.9383
▁vstup	-9.9383
▁nechal	-9.93913
mysl	-9.93945
▁škody	-9.93962
▁70	-9.93968
▁Aby	-9.93979
brž	-9.93987
▁rychlostí	-9.94067
▁druhá	-9.94078
▁disk	-9.94172
▁plyn	-9.94225
▁Velké	-9.94245
▁závěru	-9.94324
▁PowerPoint	-9.94335
▁výrobní	-9.94376
fr	-9.94392
▁souboru	-9.94433
▁druhu	-9.94452
▁skončil	-9.94474
▁majitel	-9.94486
▁Že	-9.9463
ovými	-9.94661
▁obrat	-9.94666
ina	-9.94737
▁Li	-9.94878
▁Ob	-9.94938
▁druhého	-9.94983
klad	-9.95
ována	-9.95002
sp	-9.95007
▁zemědělství	-9.9507
▁látek	-9.95072
▁desítky	-9.95076
▁najít	-9.95084
▁měsících	-9.95087
▁Čechách	-9.95107
bou	-9.95111
▁Atlantě	-9.95136
▁správy	-9.95142
▁zákonů	-9.95148
▁dopravní	-9.9519
▁ú	-9.95205
▁měsíc	-9.95222
▁zákoníku	-9.95248
▁vydání	-9.95298
▁jinou	-9.95303
▁město	-9.95324
▁Ke	-9.95365
▁povinnost	-9.95509
ář	-9.95545
▁Pr	-9.95551
▁čele	-9.95673
vat	-9.95697
▁vývoz	-9.95717
méně	-9.95743
▁rozhodl	-9.95858
▁výběru	-9.95919
▁takového	-9.95938
▁hráč	-9.96056
ických	-9.96198
nem	-9.96224
▁jednat	-9.96235
ber	-9.96361
tím	-9.96441
▁schopen	-9.96459
▁Francie	-9.96459
▁nabídku	-9.96459
▁ustanovení	-9.96459
▁snímků	-9.96461
▁hudební	-9.96506
▁uplatnění	-9.9652
▁evropské	-9.96544
▁ráno	-9.96589
ický	-9.96693
▁státech	-9.96705
▁oznámil	-9.96884
▁Cel	-9.96968
▁začali	-9.96998
šel	-9.97001
▁přijde	-9.97028
▁Pa	-9.97081
čení	-9.97225
▁získá	-9.9742
▁soukromé	-9.97434
▁dní	-9.97523
▁změna	-9.97565
SK	-9.97639
▁nim	-9.9776
▁pokus	-9.97773
▁dalšího	-9.97821
▁těžké	-9.97867
▁využít	-9.97867
▁působení	-9.97869
▁přijetí	-9.97869
▁školství	-9.97877
▁hodlá	-9.97877
▁rozpočet	-9.97877
▁zajistit	-9.97908
▁tentokrát	-9.97909
▁převážně	-9.97951
▁pořadí	-9.98086
▁částky	-9.98111
▁Takže	-9.98117
▁vysokou	-9.98123
▁vyplývá	-9.98197
▁jiná	-9.982
▁okamžiku	-9.98227
▁Cen	-9.98253
nka	-9.98261
▁chybí	-9.98289
▁seznamu	-9.98393
▁Přes	-9.98498
▁minulé	-9.9853
▁využití	-9.98546
hled	-9.98816
▁chtěli	-9.98838
▁ceně	-9.98957
bl	-9.98976
▁nesmí	-9.99072
▁názory	-9.99145
▁předpokládá	-9.9921
▁Její	-9.99219
▁spolupráce	-9.99296
▁nejrůznější	-9.99296
▁Mezinárodní	-9.99304
ném	-9.99314
▁povolení	-9.99372
▁místech	-9.99379
▁údajů	-9.99387
▁směrem	-9.99422
▁cestou	-9.99512
hn	-9.99528
▁řešit	-9.99559
▁21	-9.99567
▁nejde	-9.99572
▁bohužel	-9.99778
▁družstva	-9.99778
▁máte	-9.99831
▁%.	-10.001
alo	-10.002
▁myslím	-10.0028
iny	-10.0033
▁výzkumu	-10.0037
▁dodává	-10.0041
▁vznik	-10.0042
▁potřebuje	-10.0042
pokoj	-10.0051
▁němu	-10.0052
▁systémy	-10.0057
ge	-10.0067
▁jestli	-10.0071
▁pondělí	-10.0075
▁prezentaci	-10.0075
▁ohledu	-10.0077
▁armády	-10.008
▁vyslovil	-10.0081
▁pravidelně	-10.0081
▁předtím	-10.0085
▁stane	-10.0086
▁uvedla	-10.0087
▁smluvní	-10.0088
ig	-10.0092
▁podnikatel	-10.0096
▁vzor	-10.0096
ujeme	-10.0117
▁vědy	-10.0123
▁veřejnost	-10.0124
▁případů	-10.0125
▁pocit	-10.0129
ct	-10.0135
nd	-10.0152
▁vztahy	-10.0157
RA	-10.0163
▁pokles	-10.0166
bě	-10.0173
▁kolo	-10.018
▁daňové	-10.018
▁tiskové	-10.0184
sko	-10.0185
▁změnu	-10.0193
té	-10.0201
▁taková	-10.0207
▁dostane	-10.0211
uto	-10.0214
▁HIV	-10.0222
▁konferenci	-10.0222
▁podmínkách	-10.0222
▁příjmů	-10.0222
▁úrovně	-10.0222
▁spoust	-10.0222
▁června	-10.0222
▁radnice	-10.0222
▁Poslední	-10.0223
▁výjimkou	-10.0226
dle	-10.0228
▁politiku	-10.0231
▁dvanáct	-10.0233
▁částku	-10.0243
▁rodiny	-10.0249
▁Bo	-10.0254
▁neměl	-10.026
▁severní	-10.0262
kami	-10.0264
raz	-10.0279
ovaný	-10.028
ač	-10.0286
▁směru	-10.0287
per	-10.0297
▁podnikatelů	-10.0311
▁vztahu	-10.0311
▁hráče	-10.0328
▁museli	-10.0329
▁konkurence	-10.0331
▁Naše	-10.0334
kon	-10.0335
▁plat	-10.0335
▁jakým	-10.0368
▁většině	-10.0371
▁války	-10.0371
▁účetnictví	-10.0371
▁aliance	-10.0371
▁Současn	-10.0371
▁tvrzení	-10.0372
▁moře	-10.0374
▁New	-10.0378
▁Jedna	-10.038
▁jednoznačně	-10.0381
▁volné	-10.0389
▁síť	-10.0395
▁žádn	-10.0396
rovna	-10.0404
▁trest	-10.0407
▁skupině	-10.041
nk	-10.0411
▁současn	-10.0413
▁uvedené	-10.0415
▁aktivity	-10.0419
▁titul	-10.0422
▁hodnotu	-10.0423
▁zvířat	-10.0424
ené	-10.0429
ejte	-10.043
▁člen	-10.0433
▁akci	-10.0434
jet	-10.0438
10	-10.0449
▁kola	-10.0454
▁přírodní	-10.0455
pis	-10.0463
▁polovinu	-10.0465
▁bezpečnostní	-10.047
▁Rusko	-10.047
▁hraje	-10.0471
▁Ho	-10.0486
▁soudní	-10.0488
▁autor	-10.0496
▁Václava	-10.0498
▁poměr	-10.0498
▁poslanec	-10.05
▁ODA	-10.052
▁kláves	-10.0522
▁většiny	-10.0522
▁politice	-10.0522
▁začít	-10.0523
▁vždycky	-10.0523
▁pořádku	-10.0527
▁nemocnice	-10.0531
▁nově	-10.0531
▁Jenže	-10.0533
▁individuální	-10.0535
ovány	-10.0537
▁centra	-10.0537
▁třemi	-10.0538
▁Německo	-10.054
▁pracovníci	-10.0542
▁čase	-10.0548
▁ba	-10.0548
▁LN	-10.0549
ická	-10.0553
▁univerzity	-10.0555
▁předsedy	-10.0557
níci	-10.0559
rod	-10.0565
▁90	-10.0569
▁budoucnosti	-10.0579
▁padesát	-10.0585
▁Lu	-10.0585
▁německé	-10.0587
▁sta	-10.059
▁životě	-10.0602
▁400	-10.0605
▁sportovní	-10.0608
▁Kdyby	-10.0609
▁paní	-10.0609
▁snížení	-10.0609
žen	-10.0628
cházet	-10.064
ovém	-10.0671
▁Kr	-10.0673
▁AIDS	-10.0676
▁Británie	-10.0676
▁vzdělání	-10.0676
▁srpna	-10.0676
▁obyvatelstva	-10.0676
ovo	-10.0679
▁Možná	-10.068
▁Vždyť	-10.0684
▁objevil	-10.0688
▁hlasů	-10.0689
▁předchozí	-10.0692
▁jím	-10.0697
▁důsledku	-10.0702
▁miliony	-10.0709
▁složení	-10.0714
ud	-10.0727
▁Mám	-10.0732
▁týká	-10.0741
▁takových	-10.0743
vnitř	-10.0768
▁úřady	-10.0776
▁vaše	-10.0781
ároveň	-10.0781
▁radost	-10.0788
▁koupit	-10.0795
ster	-10.0797
▁používá	-10.0797
▁místopředsed	-10.0803
▁výkonu	-10.0809
▁státních	-10.081
▁Vý	-10.0815
nov	-10.0816
▁Ha	-10.0816
▁zemřel	-10.082
sky	-10.0824
▁očekávat	-10.0832
▁silniční	-10.0832
▁buněk	-10.0833
▁tajemství	-10.0833
▁název	-10.0833
▁verze	-10.0833
▁připravuje	-10.0835
▁zdalek	-10.0837
▁banka	-10.0839
▁kvalitu	-10.0842
▁uspořádání	-10.0844
▁poznání	-10.0847
▁piva	-10.0852
▁příštím	-10.0855
rát	-10.086
▁respekt	-10.0861
▁dochází	-10.0861
▁průměru	-10.0863
ským	-10.0864
▁35	-10.0867
▁projektu	-10.0867
▁chceme	-10.0874
tní	-10.0874
▁počítačů	-10.0875
▁aktivní	-10.0879
ala	-10.0884
ková	-10.0888
th	-10.0889
▁John	-10.0891
▁zajímavé	-10.0892
▁jejího	-10.0894
▁trval	-10.0897
▁jiným	-10.0903
▁povinnosti	-10.0909
▁premiéra	-10.0913
▁funkcí	-10.0915
▁disku	-10.092
▁závěr	-10.0927
▁auto	-10.0931
▁stroje	-10.0933
▁demokratické	-10.0933
▁on	-10.0934
▁měsíční	-10.0935
▁muži	-10.0937
▁obcí	-10.094
▁150	-10.0943
▁Hor	-10.0943
▁Oba	-10.0946
▁technické	-10.0946
▁napsal	-10.0952
▁teplo	-10.0962
▁konec	-10.0975
▁částí	-10.0983
▁přírody	-10.0991
▁zřejmé	-10.0991
▁privatizaci	-10.0991
ovalo	-10.0991
▁marek	-10.0992
▁Zákon	-10.0992
ej	-10.0993
▁Karel	-10.0993
▁článku	-10.0993
▁okresní	-10.0995
▁úvahu	-10.0996
▁pozitivní	-10.0997
▁občas	-10.0998
▁vyžaduje	-10.1002
▁jaderné	-10.1007
ovaly	-10.1011
▁odborníků	-10.1013
he	-10.1017
▁agentury	-10.1017
▁sovětské	-10.1023
řka	-10.1035
▁programy	-10.104
▁jaderný	-10.1055
▁mění	-10.106
▁hlavních	-10.1063
▁ryb	-10.109
▁relativn	-10.1091
▁příštího	-10.1092
plav	-10.1097
▁De	-10.1102
OV	-10.1105
▁republika	-10.1109
▁přechod	-10.1116
▁pořád	-10.1129
▁těžký	-10.1132
▁vyjádřil	-10.1142
▁zákaz	-10.1143
▁vývoji	-10.1145
▁jména	-10.1152
▁věnovat	-10.1152
▁válce	-10.1152
▁historii	-10.1152
▁Myslím	-10.1153
▁roste	-10.1154
budete	-10.1155
▁vaší	-10.1157
tky	-10.1159
▁seznam	-10.1162
▁politika	-10.1166
ner	-10.1169
▁liší	-10.1171
▁úkol	-10.1171
▁Škoda	-10.1173
▁budu	-10.1181
▁soutěž	-10.1183
▁změně	-10.1186
▁základ	-10.1186
▁papír	-10.1207
▁režimu	-10.1207
▁neod	-10.1211
▁hotelu	-10.1211
▁4.	-10.1212
▁OS	-10.1217
▁Č	-10.1225
form	-10.1229
▁druhy	-10.1231
▁bo	-10.1234
▁výrobců	-10.1237
ška	-10.1239
▁Miroslav	-10.1243
▁úřadů	-10.1246
be	-10.1249
▁programů	-10.1252
▁Společnost	-10.1254
tem	-10.1258
▁příklad	-10.1273
▁tlačítko	-10.128
▁3.	-10.131
▁družstev	-10.131
ěkteří	-10.1316
▁jednoduché	-10.1316
▁považován	-10.1316
▁zůstane	-10.1316
▁1995	-10.1317
▁Někd	-10.1317
▁tajemník	-10.1318
▁Stál	-10.1322
▁smlouva	-10.1323
▁Základní	-10.1323
▁bytu	-10.1334
▁déle	-10.1339
▁mechanika	-10.1343
inu	-10.1344
▁stranu	-10.1345
lek	-10.1346
▁hranici	-10.1355
▁řeč	-10.1356
▁typů	-10.1356
▁abych	-10.1376
▁úvěr	-10.1382
▁potvrdil	-10.1384
▁rekord	-10.1385
▁veškeré	-10.1385
▁skutečné	-10.1391
▁normální	-10.1397
▁typy	-10.1408
dal	-10.1411
▁hra	-10.1412
▁počítat	-10.1413
koliv	-10.1414
▁zákazníků	-10.1418
▁lékařů	-10.1426
ele	-10.1462
▁Hlavní	-10.1463
▁podnikatelské	-10.1479
▁devět	-10.1481
▁úterý	-10.1483
▁Lidé	-10.1483
▁Letos	-10.1484
▁šance	-10.1484
▁někdejší	-10.1484
▁lednu	-10.1484
▁globální	-10.1485
▁ruce	-10.1489
▁jestliže	-10.1489
▁dům	-10.1498
▁malá	-10.1498
▁profesionální	-10.1499
nil	-10.15
▁svému	-10.1504
▁23	-10.1511
▁hledání	-10.1512
▁získala	-10.1518
▁oblastí	-10.1521
▁stejný	-10.1522
▁telefon	-10.1523
▁kapitálu	-10.1526
▁značné	-10.1527
▁dělá	-10.1535
▁set	-10.1548
▁96	-10.1554
jak	-10.1564
▁zvolen	-10.1564
▁problémem	-10.1567
ovaného	-10.1576
▁My	-10.1583
▁molekul	-10.1586
▁blok	-10.1598
▁ni	-10.1599
blíž	-10.1603
▁nepře	-10.1607
Ž	-10.1608
▁koncert	-10.161
▁soutěži	-10.1627
▁tisk	-10.163
▁vznikla	-10.1631
rů	-10.1637
▁ruský	-10.1644
▁třetím	-10.1651
▁vrátit	-10.1651
▁včerejší	-10.1651
▁používat	-10.1653
▁mzdy	-10.1653
▁verzi	-10.1653
▁potíže	-10.1653
▁najednou	-10.1653
▁členství	-10.1653
▁vystoupení	-10.1654
▁Chce	-10.1654
▁tabulky	-10.1654
▁někter	-10.1655
▁novým	-10.1656
▁studie	-10.1656
▁nejdříve	-10.1657
/2	-10.1657
▁shromáždění	-10.1658
▁zvlášť	-10.1661
▁nedá	-10.1665
▁odpověď	-10.1668
▁dob	-10.1672
▁známé	-10.1674
▁časem	-10.1675
tel	-10.1676
▁rozdělení	-10.1679
olog	-10.1687
▁Ka	-10.1696
▁liber	-10.1697
▁označení	-10.17
▁plán	-10.1701
▁vztahů	-10.1705
▁sedmi	-10.1712
▁zprávu	-10.1716
▁MB	-10.1718
Č	-10.1725
▁existují	-10.1735
CE	-10.1739
▁počítači	-10.1745
▁silné	-10.1746
tek	-10.1748
ovu	-10.1749
▁centru	-10.1761
dostala	-10.1771
▁pa	-10.1776
též	-10.1788
tře	-10.1788
▁post	-10.1789
▁soudí	-10.1792
▁riziko	-10.1793
ovaná	-10.1796
▁včas	-10.18
pil	-10.1807
uji	-10.1807
▁nechce	-10.1809
ané	-10.1809
dostatečně	-10.1812
▁Dr	-10.1823
▁posledním	-10.1825
▁prospěch	-10.1825
▁rozhodne	-10.1825
▁Československa	-10.1825
▁hospodaření	-10.1825
▁paragraf	-10.1825
▁Nicméně	-10.1825
▁zaměstnanci	-10.1825
▁výrobci	-10.1826
mar	-10.1827
tah	-10.1828
▁odpadů	-10.1831
▁spočívá	-10.1835
▁soukromých	-10.1841
▁pozici	-10.1841
▁Tři	-10.1842
▁odpovídající	-10.1847
kla	-10.1848
nos	-10.185
▁pohybu	-10.1864
▁kop	-10.1864
port	-10.1866
▁12.	-10.1869
ten	-10.1873
▁Františ	-10.1881
▁díla	-10.1881
▁Česko	-10.1883
vu	-10.1892
inak	-10.1894
gu	-10.1896
▁Národní	-10.19
nese	-10.1902
▁velikost	-10.1903
▁Sb	-10.1904
tur	-10.1906
▁poměru	-10.1908
▁schopnost	-10.1909
▁dokument	-10.191
▁znám	-10.1922
▁týdne	-10.1926
▁objem	-10.1928
▁podepsal	-10.1933
▁občanské	-10.1933
nic	-10.1935
▁rozvoje	-10.1936
▁patnáct	-10.1938
▁nena	-10.1944
HO	-10.1952
▁str	-10.1956
▁pojistné	-10.1958
▁vnější	-10.196
dali	-10.1964
▁očekává	-10.1965
▁získali	-10.1968
▁0	-10.1974
rak	-10.1974
▁zaplatí	-10.1991
▁Tomáš	-10.2
ér	-10.2001
▁hledat	-10.2001
▁Pohár	-10.2002
▁Dále	-10.2002
▁prvků	-10.2002
▁jakou	-10.2002
▁DNA	-10.2003
▁firmu	-10.2004
▁mozku	-10.2006
▁půdě	-10.2008
▁mnozí	-10.2009
cké	-10.2014
▁letošním	-10.2023
▁vědomí	-10.2024
▁teploty	-10.2027
▁poháru	-10.2033
▁Nová	-10.2034
▁zemědělské	-10.2034
ard	-10.2035
▁neví	-10.2036
▁Asi	-10.2038
letý	-10.2038
▁nárok	-10.2039
▁výraz	-10.205
▁metody	-10.2055
▁stanoven	-10.2061
▁Největší	-10.2066
▁ochranu	-10.2067
▁Sa	-10.2079
EN	-10.2086
▁hrozí	-10.2099
▁tradiční	-10.2104
▁materiál	-10.2107
▁účasti	-10.2108
▁budoucnost	-10.2112
▁Zá	-10.2113
vou	-10.2122
▁Čí	-10.2128
▁neo	-10.2133
▁samo	-10.2134
▁manažer	-10.214
▁měnit	-10.216
▁dané	-10.2164
▁snah	-10.2167
▁zůstat	-10.2173
▁Vše	-10.2178
▁Existuj	-10.2179
▁natolik	-10.2179
▁zdůraznil	-10.2179
▁Československo	-10.2179
▁rodiče	-10.2179
▁podpory	-10.2179
▁tudíž	-10.2179
▁slouží	-10.2179
▁reprezentace	-10.2179
pen	-10.2181
▁výrobě	-10.2183
▁částečně	-10.2184
▁vytváření	-10.2188
▁žije	-10.219
▁Poté	-10.2191
▁centrální	-10.2193
▁výroba	-10.2195
▁vlastností	-10.2196
▁Dva	-10.2196
▁pohledu	-10.2199
▁dílo	-10.22
▁karty	-10.22
lin	-10.2206
▁dávno	-10.2213
▁zavedení	-10.2219
▁Ku	-10.2237
▁aplikací	-10.224
▁dalšími	-10.224
▁významné	-10.2241
var	-10.2246
▁start	-10.2247
▁zpráva	-10.225
▁záležitost	-10.2267
iz	-10.227
SE	-10.2273
▁PO	-10.2277
▁lidské	-10.2285
▁důvodu	-10.2286
▁zmíněné	-10.2289
▁obrazu	-10.2294
ici	-10.2304
▁leží	-10.2305
▁pás	-10.231
▁společný	-10.2318
▁slovenské	-10.232
▁vzájemné	-10.232
▁živ	-10.2348
▁musím	-10.2354
št	-10.2359
▁paměti	-10.2361
▁připojištění	-10.2361
▁pomalu	-10.2361
▁kvalifikaci	-10.2361
▁neexistuje	-10.2361
▁česká	-10.2362
nky	-10.2364
▁odpoledne	-10.2364
▁připomíná	-10.2364
▁oblastech	-10.2369
▁měst	-10.2372
▁svědčí	-10.2375
▁materiálů	-10.2385
▁brněnské	-10.2387
▁Musí	-10.2387
kovi	-10.2395
▁mnohé	-10.2395
▁odboru	-10.2396
▁ztráty	-10.2396
▁založen	-10.2396
▁dohodu	-10.2397
▁Slovenska	-10.2409
▁stud	-10.2413
ben	-10.2417
▁představ	-10.2431
▁NA	-10.2449
pětí	-10.2453
▁mně	-10.2456
men	-10.2456
▁nabízejí	-10.2457
LA	-10.2458
▁poloviny	-10.2461
▁potřeba	-10.2467
▁nutno	-10.2467
EL	-10.2471
▁rádi	-10.2475
▁kon	-10.2478
ion	-10.248
▁loňském	-10.2483
est	-10.2485
▁přístroje	-10.2485
▁zahájení	-10.2485
▁technický	-10.2485
▁zásadní	-10.2487
dat	-10.2489
▁Bi	-10.2489
▁Ústav	-10.249
▁autorů	-10.25
bar	-10.2505
ště	-10.2508
▁nejvíc	-10.2508
stoupil	-10.2511
▁končí	-10.2528
▁vánoce	-10.2537
▁mimořádn	-10.2538
▁Itálie	-10.2546
▁Ovšem	-10.2546
▁Program	-10.2546
▁minimální	-10.2546
▁stránce	-10.2546
▁praxe	-10.2546
▁desítek	-10.2547
▁vyjádření	-10.2548
▁nicméně	-10.2549
▁Ostravě	-10.2549
▁Ministr	-10.255
▁ročník	-10.255
▁vybrat	-10.255
▁zdejší	-10.2552
▁neustále	-10.2552
ak	-10.2552
▁dodnes	-10.2561
▁soustavy	-10.2564
son	-10.2571
▁standardní	-10.2578
▁určitou	-10.2582
lze	-10.2584
▁rozhovoru	-10.2584
▁osud	-10.2591
▁výhradn	-10.2601
▁staré	-10.2601
mír	-10.2603
▁problému	-10.2606
▁f	-10.2611
▁programové	-10.2611
▁ústavní	-10.2616
▁italské	-10.2621
koli	-10.2624
▁takovém	-10.2625
▁vývozu	-10.2645
tud	-10.2653
▁závodu	-10.2655
▁souhlas	-10.2664
▁váš	-10.2668
▁řádu	-10.2675
kl	-10.2681
vádí	-10.2692
cím	-10.2697
▁Fr	-10.27
▁Velk	-10.2706
▁nemohl	-10.2724
▁čisté	-10.2732
▁úspor	-10.2733
nul	-10.2734
▁KSČM	-10.2734
▁Všichni	-10.2735
▁jednoduchý	-10.2735
▁náměstek	-10.2735
▁špatně	-10.2735
▁Naopak	-10.2735
▁Snad	-10.2735
▁jediná	-10.2735
▁poptávky	-10.2735
▁odborníci	-10.2735
▁zaměstnance	-10.2735
▁poslance	-10.2736
▁okna	-10.2736
▁těsně	-10.2736
▁potřebují	-10.2737
▁koncentrace	-10.274
▁měření	-10.2743
▁automaticky	-10.2744
▁filmu	-10.2744
▁vychází	-10.2745
▁dotaz	-10.2745
▁produktů	-10.2751
▁stovky	-10.2755
▁spokojen	-10.2762
▁záležitostí	-10.2766
▁zrušení	-10.2772
▁vzduchu	-10.2773
ca	-10.2785
▁rozsahu	-10.2789
▁Evropa	-10.281
▁přesvědčen	-10.2811
▁19.	-10.2814
▁neměli	-10.282
▁pořadatel	-10.2828
ler	-10.2832
▁styl	-10.2832
▁žena	-10.2833
▁činností	-10.2841
▁úspěchu	-10.2846
tal	-10.2849
▁ochran	-10.2851
▁diváků	-10.2853
pol	-10.2855
▁studentů	-10.2858
bere	-10.2858
▁Zdá	-10.2859
▁daní	-10.2861
▁zákonem	-10.2862
ita	-10.2875
▁Me	-10.2883
▁jedná	-10.2895
▁současný	-10.2896
▁vítěz	-10.29
▁příslušné	-10.2901
voz	-10.2903
▁Každ	-10.2908
▁Ar	-10.2913
▁pravé	-10.2922
▁Ředitel	-10.2927
▁historie	-10.2927
▁věnoval	-10.2927
▁bydlení	-10.2927
▁věd	-10.2927
▁pojetí	-10.2927
ok	-10.2928
▁investovat	-10.2929
▁daň	-10.2929
▁lidmi	-10.293
▁krátce	-10.293
bavit	-10.293
▁pohybuje	-10.2931
▁dodávky	-10.294
▁dostává	-10.2943
▁voličů	-10.2946
▁mladé	-10.2952
▁domě	-10.2952
▁šampionátu	-10.2953
▁návrhy	-10.2956
▁oni	-10.2959
vede	-10.2962
▁provedení	-10.2965
▁omezení	-10.2968
▁muže	-10.2974
▁určit	-10.2982
TA	-10.2982
▁pobyt	-10.2984
▁cesta	-10.2985
der	-10.2989
sil	-10.2991
▁obecní	-10.2994
▁domácím	-10.2996
▁materiálu	-10.3007
▁vést	-10.3014
▁různým	-10.3024
▁čtení	-10.3029
ang	-10.3031
ska	-10.3042
▁rychlosti	-10.3046
▁jinými	-10.3055
▁nájemné	-10.307
▁boj	-10.307
▁nejdůležitější	-10.3108
▁In	-10.3117
▁úspěšné	-10.3123
▁Především	-10.3123
▁Richard	-10.3123
▁Spojené	-10.3123
▁elektrárny	-10.3123
▁minimálně	-10.3123
▁snížit	-10.3123
▁umožní	-10.3123
▁zvýšit	-10.3123
▁úsilí	-10.3123
▁míře	-10.3123
▁doslova	-10.3123
▁měsíčně	-10.3123
▁pravdu	-10.3124
▁Češi	-10.3124
▁snímky	-10.3125
▁celek	-10.3128
▁policistů	-10.3128
▁zobrazení	-10.3133
▁pozice	-10.3134
▁myší	-10.3135
▁tvorbu	-10.3136
▁obecně	-10.3137
▁okolností	-10.3137
▁poškození	-10.3138
▁cestě	-10.3145
▁Da	-10.3145
▁mistrů	-10.3146
▁Evropsk	-10.3146
▁zpráv	-10.3148
▁akcie	-10.3152
▁žádném	-10.3164
ke	-10.317
▁odpadní	-10.3171
▁žádná	-10.3172
slov	-10.3172
▁třídy	-10.3173
▁festivalu	-10.3174
▁povrchu	-10.3177
▁hotel	-10.318
▁nemoci	-10.3183
▁domácích	-10.3199
▁vzniká	-10.3207
▁centrum	-10.3211
▁nechat	-10.3212
▁mé	-10.3217
▁poklesu	-10.3222
▁součást	-10.3229
▁PowerPointu	-10.323
iště	-10.323
▁km	-10.3235
▁cm	-10.324
▁správně	-10.3243
▁jediné	-10.3252
▁známo	-10.3252
▁odhad	-10.3256
▁dějin	-10.3256
▁skupinu	-10.3262
▁znát	-10.3269
ký	-10.327
▁17.	-10.3275
▁hospodářsk	-10.3275
▁map	-10.3276
▁FS	-10.3277
▁hodinu	-10.3282
▁tvář	-10.3283
▁zahájil	-10.3289
▁polovina	-10.329
▁vrátil	-10.3291
▁Federální	-10.3291
ismus	-10.3295
mého	-10.33
▁městské	-10.3308
▁sestav	-10.3309
směs	-10.3311
▁uvedený	-10.3316
▁Samozřejmě	-10.3323
▁divadla	-10.3323
▁pojišťovny	-10.3323
▁rozhodování	-10.3323
▁ČNR	-10.3323
▁výskyt	-10.3323
▁půjde	-10.3323
▁nabídka	-10.3323
▁širší	-10.3323
▁konkurenční	-10.3324
▁jaká	-10.3329
▁myšlení	-10.333
▁nezávislých	-10.3334
▁Proti	-10.3338
▁armáda	-10.3339
▁sdělení	-10.3341
▁Tam	-10.3341
▁představení	-10.3342
▁hře	-10.3342
▁půdy	-10.3344
▁nebyli	-10.3345
▁úvodní	-10.3347
něk	-10.3351
▁výdaje	-10.3359
▁postoj	-10.3362
▁podnikatelé	-10.3363
padá	-10.337
▁export	-10.3372
▁úpravy	-10.3377
▁zákazníky	-10.3378
▁Američan	-10.3378
▁vysokých	-10.3381
san	-10.3383
▁chemické	-10.339
▁špatné	-10.3394
ající	-10.3397
ive	-10.3398
▁princip	-10.3403
▁prodejní	-10.3404
▁existence	-10.3411
▁občan	-10.3417
stal	-10.3428
▁myslí	-10.3432
▁vidí	-10.3432
▁čtenář	-10.3433
▁Nebo	-10.3447
▁metod	-10.3447
▁organizací	-10.3451
▁námi	-10.3451
▁britské	-10.3452
▁hlasování	-10.3452
▁akcí	-10.3455
▁spojen	-10.3457
▁motiv	-10.3468
▁generál	-10.3484
▁maximáln	-10.3489
vé	-10.3492
▁smrt	-10.3497
W	-10.3501
▁pořad	-10.3505
▁stejn	-10.3506
leté	-10.3508
šit	-10.3511
▁reprezentant	-10.3511
▁II	-10.3521
▁Slovensko	-10.3522
půjč	-10.3523
▁daňový	-10.3525
▁postaven	-10.3526
ó	-10.3527
▁Němci	-10.3527
▁církve	-10.3527
▁nízké	-10.3527
▁týdny	-10.3527
▁odmítá	-10.3527
▁zapotřebí	-10.3527
▁usnesení	-10.3527
▁přišla	-10.3527
▁Teď	-10.3527
▁privatizační	-10.3527
▁1988	-10.3528
▁létě	-10.3528
▁StB	-10.3531
▁vědecký	-10.3533
▁vůle	-10.3536
▁voda	-10.3539
▁správné	-10.3541
▁hvězd	-10.3546
▁Kde	-10.3546
▁příslušný	-10.3547
▁děje	-10.3548
▁zájmy	-10.3549
▁sklad	-10.3549
▁automobilů	-10.3551
30	-10.3554
▁porušení	-10.3556
▁důsledky	-10.3558
▁původu	-10.3559
▁mluví	-10.3562
mile	-10.3565
▁obce	-10.3566
▁mladých	-10.3573
▁představitelů	-10.3575
kor	-10.3578
▁Internetu	-10.3581
▁žijící	-10.359
plat	-10.3591
▁lidského	-10.3597
▁německých	-10.3597
▁představy	-10.3598
▁velikosti	-10.3606
▁hlas	-10.3606
▁německého	-10.3607
▁Ano	-10.3607
▁hran	-10.3609
▁Te	-10.3615
▁Sovětské	-10.3615
▁nucen	-10.3623
▁signál	-10.3624
▁částka	-10.3627
▁běžný	-10.3633
▁bezpečnost	-10.3637
▁pís	-10.3643
čtí	-10.3645
KA	-10.3648
▁hodnot	-10.3651
▁nástroj	-10.3652
nění	-10.3654
ST	-10.3662
▁škola	-10.3663
▁pacientů	-10.3668
▁barevné	-10.3669
▁odbyt	-10.3673
▁rozhodla	-10.3673
▁příprav	-10.3681
▁uveden	-10.3688
▁vyspělý	-10.3693
ned	-10.3706
ouze	-10.3716
▁Bar	-10.3722
▁byty	-10.3723
nici	-10.3726
▁kal	-10.3734
▁řeči	-10.3735
▁Moskvě	-10.3735
▁Třetí	-10.3735
▁populace	-10.3735
▁vynikající	-10.3735
▁štěstí	-10.3735
▁Francii	-10.3735
▁ihned	-10.3735
▁technologií	-10.3735
▁mužstva	-10.3736
▁spotřební	-10.3736
▁reprezentační	-10.3736
▁Pomuku	-10.3736
▁mluvit	-10.3736
ČSL	-10.3737
▁firmou	-10.3738
▁obětí	-10.3738
▁Milan	-10.3738
▁pracovník	-10.374
▁zvyšuje	-10.3742
▁dovolené	-10.3745
nické	-10.3747
▁těla	-10.3748
rád	-10.3748
▁Více	-10.3748
▁úmrtnosti	-10.3749
▁nemocnici	-10.3752
▁přehled	-10.3753
▁Avšak	-10.3756
▁obavy	-10.3757
▁zastoupení	-10.3762
▁Předseda	-10.3772
▁letní	-10.3778
▁příkaz	-10.3778
▁Jižní	-10.3782
▁účastní	-10.3784
▁vlastním	-10.379
▁Druhý	-10.379
▁chod	-10.3794
itel	-10.3795
rán	-10.3799
▁lesní	-10.38
▁míč	-10.38
▁přední	-10.3824
▁ročníku	-10.3826
▁všeho	-10.3826
fer	-10.3826
▁opak	-10.3833
IN	-10.3835
▁zdroj	-10.3838
ón	-10.3841
AN	-10.3844
osud	-10.3847
▁příležitost	-10.3852
nesou	-10.3852
▁školní	-10.3854
▁kroky	-10.3856
▁řídí	-10.3861
▁tenis	-10.3863
Sc	-10.3864
▁potravin	-10.3869
▁horší	-10.387
▁odvětví	-10.3872
▁studiu	-10.3872
dané	-10.3873
jde	-10.3878
▁určitý	-10.3883
tor	-10.3885
▁molekuly	-10.3886
EM	-10.3887
▁přichází	-10.3888
▁představují	-10.3889
▁snaha	-10.3894
▁Al	-10.3901
▁osmdesát	-10.3904
▁příštích	-10.3904
▁tamní	-10.3905
▁největším	-10.3923
ď	-10.3926
▁postupu	-10.3927
▁pražském	-10.3929
CI	-10.3929
▁doktor	-10.3938
un	-10.3942
▁celkový	-10.3946
▁civilní	-10.3948
▁konkurenci	-10.3948
▁nakladatelství	-10.3948
▁negativní	-10.3948
▁příjmu	-10.3948
▁sledovat	-10.3948
▁transformace	-10.3948
▁zlepšení	-10.3948
▁úmrtí	-10.3948
▁budoucnu	-10.3948
▁zabránit	-10.3948
▁Slavie	-10.3948
▁souvisí	-10.3948
▁tehdejší	-10.3948
▁jedinou	-10.3948
▁operace	-10.3949
▁PCB	-10.3949
▁výsledkem	-10.395
▁Inter	-10.395
▁financování	-10.3951
▁funkční	-10.3952
▁Vedle	-10.3952
ger	-10.3953
▁lékařské	-10.3953
▁rozhodnout	-10.3953
▁formou	-10.3957
▁Vláda	-10.3958
▁zbytečné	-10.3958
zv	-10.3961
▁zaplatit	-10.3965
▁výhodné	-10.3966
ju	-10.3969
▁PRO	-10.397
▁Ra	-10.3974
▁9	-10.3975
▁americký	-10.3976
▁600	-10.3984
▁prodat	-10.3985
▁nákladní	-10.3991
▁povinností	-10.3995
▁zásad	-10.3995
▁partnery	-10.3999
▁účely	-10.4001
▁starých	-10.4002
▁noviny	-10.4002
▁Obě	-10.4004
▁produktu	-10.4004
▁přijal	-10.4007
▁příležitosti	-10.4016
▁placení	-10.4019
vést	-10.4019
pana	-10.4023
▁prodává	-10.4024
▁německý	-10.4027
ké	-10.4033
▁sv	-10.4037
▁pražsk	-10.4045
▁pracovníky	-10.4045
lík	-10.4052
▁postižen	-10.4056
▁režim	-10.4063
▁napětí	-10.4063
držel	-10.4069
▁zápasy	-10.4072
▁Ru	-10.408
▁velkým	-10.4085
▁bankovní	-10.4089
▁zápasu	-10.409
▁neměla	-10.4091
▁uzavření	-10.4096
▁kapalin	-10.41
▁koruny	-10.4102
▁domov	-10.4115
▁barev	-10.4116
▁ko	-10.4116
▁zůstal	-10.4119
▁dostali	-10.4121
▁rychlé	-10.4135
šti	-10.4137
▁turnaje	-10.4139
▁jasně	-10.4148
▁kód	-10.4161
▁odst	-10.4164
▁někde	-10.4165
▁Ostatně	-10.4166
▁Sdružení	-10.4166
▁rekreační	-10.4166
▁krize	-10.4166
▁navrhl	-10.4166
▁červnu	-10.4166
▁sítí	-10.4166
ění	-10.4168
▁přiznání	-10.4168
▁jednotky	-10.417
▁udržet	-10.4172
fo	-10.4172
▁kontrolu	-10.4173
▁porovnání	-10.4174
▁obrázek	-10.4174
▁místnosti	-10.4175
▁prodávat	-10.4181
▁Moravy	-10.4186
▁znalosti	-10.4188
▁začátkem	-10.4191
▁strojů	-10.4192
▁hodnotě	-10.4194
▁zimní	-10.4197
před	-10.4198
▁Washingtonu	-10.4199
▁lesy	-10.4204
▁všemi	-10.4206
▁rozporu	-10.4207
▁trenéra	-10.421
lem	-10.4211
ujících	-10.4212
vzdor	-10.4215
net	-10.4218
zu	-10.4219
▁Ačkoli	-10.4219
tion	-10.4221
15	-10.4225
fu	-10.4237
her	-10.4239
▁ano	-10.424
▁nemáme	-10.4242
dla	-10.4243
▁hodnota	-10.4248
▁něž	-10.4251
ený	-10.4251
▁spor	-10.4256
▁Ruska	-10.426
▁operační	-10.4262
▁použit	-10.4266
▁partnerů	-10.4268
▁sport	-10.4269
▁nynější	-10.4272
les	-10.4274
▁vedením	-10.4275
▁modelů	-10.4281
▁dar	-10.429
▁dojde	-10.4292
eprve	-10.4296
ickou	-10.43
musela	-10.4302
▁čísle	-10.431
▁místy	-10.4313
▁případu	-10.4315
▁pražského	-10.4316
▁přináší	-10.4318
▁umístěn	-10.4319
▁pravidla	-10.4329
▁slovy	-10.4331
▁porazil	-10.4332
▁On	-10.4333
chází	-10.4335
▁případné	-10.4337
▁záleží	-10.4338
▁hod	-10.434
▁stroj	-10.434
šli	-10.4357
▁spojené	-10.4361
▁28	-10.4364
vedl	-10.4366
▁dítě	-10.4366
%	-10.4368
▁soupeře	-10.4374
ává	-10.4376
kupní	-10.4377
IS	-10.438
aj	-10.4387
▁Bratislavě	-10.4388
▁Návrh	-10.4388
▁nabídnout	-10.4388
▁otázce	-10.4388
▁týdnů	-10.4388
▁uskuteční	-10.4388
▁péči	-10.4388
▁dovolit	-10.4388
▁podpora	-10.4388
▁okno	-10.4388
▁kategorie	-10.4389
▁nedostatek	-10.4389
▁nepodařilo	-10.4389
go	-10.4389
▁Nakonec	-10.439
▁Brno	-10.4392
▁prvky	-10.4393
▁stál	-10.4393
▁připravit	-10.4394
▁návštěvě	-10.4394
▁tajné	-10.4395
▁stará	-10.4397
▁Podnik	-10.4398
▁zjistit	-10.4399
▁di	-10.4402
▁jaterní	-10.4403
▁UK	-10.4405
▁Pavl	-10.4405
▁malou	-10.4409
▁hledá	-10.441
▁tlak	-10.441
▁buňky	-10.441
▁osobně	-10.4416
▁domácnosti	-10.4416
▁druhým	-10.4421
▁provést	-10.4421
▁získání	-10.4424
▁gól	-10.4429
▁nezaměstnanosti	-10.4431
▁projev	-10.4431
▁stanici	-10.4432
▁Kar	-10.4434
▁obr	-10.4435
▁Evropský	-10.4442
▁cenný	-10.4443
▁investor	-10.4446
ast	-10.4449
oč	-10.4453
▁charakter	-10.4454
▁3000	-10.4457
▁partnera	-10.447
▁Du	-10.447
▁vojenský	-10.4474
▁ochot	-10.4495
▁nemoc	-10.4506
▁filmů	-10.4509
▁střel	-10.4515
van	-10.452
▁případy	-10.452
▁jedenáct	-10.4525
▁pracoval	-10.4525
▁vstupu	-10.4525
ismu	-10.4532
▁regionální	-10.4539
▁Han	-10.4543
▁začalo	-10.4548
▁stává	-10.4548
▁prodal	-10.4549
onu	-10.4553
hla	-10.4554
▁přicházejí	-10.456
▁odpověděl	-10.4563
▁státním	-10.4565
▁objev	-10.4566
▁změní	-10.4568
▁dřív	-10.4568
▁aut	-10.4572
▁planet	-10.4575
isté	-10.4576
kul	-10.4578
▁profesor	-10.4586
▁prohrál	-10.4588
myšlen	-10.4593
▁svá	-10.4594
▁západních	-10.4603
▁mo	-10.4604
▁video	-10.4609
řídit	-10.4609
éměř	-10.4611
▁modelu	-10.4612
▁úspěšně	-10.4614
▁oficiálně	-10.4614
▁Slunce	-10.4615
▁existenci	-10.4615
▁funguje	-10.4615
▁ostatně	-10.4615
▁otázek	-10.4615
▁rozhodovat	-10.4615
▁pojišťovna	-10.4615
▁stáří	-10.4615
▁letadla	-10.4615
▁dlouhodobé	-10.4615
▁molekulární	-10.4615
▁žádá	-10.4615
▁operaci	-10.4616
▁Místo	-10.4616
▁vystudoval	-10.4616
▁aktuální	-10.4617
▁jezdí	-10.4617
▁přání	-10.4617
▁SRN	-10.4618
▁vyšetřování	-10.4618
▁ministrů	-10.4619
▁sezóně	-10.462
▁Ž	-10.4622
▁formě	-10.4622
▁vytvoří	-10.4623
▁vypadá	-10.4623
▁fakultě	-10.4625
▁Brna	-10.4626
▁fakulty	-10.4638
rem	-10.4639
▁návštěvníků	-10.464
ete	-10.4642
▁vyberte	-10.4643
▁zjištění	-10.4643
▁dobrou	-10.4645
▁hrál	-10.4645
▁Če	-10.4646
dařilo	-10.4647
▁struktury	-10.4647
▁postižené	-10.465
▁otevření	-10.4651
▁komory	-10.4653
▁The	-10.4655
▁členem	-10.4657
▁víkendu	-10.4659
nec	-10.4659
den	-10.4659
▁rozdíly	-10.4663
cký	-10.4672
▁cíle	-10.4675
▁budov	-10.4677
▁nájemného	-10.4684
▁začaly	-10.4691
▁denní	-10.4695
▁pobytu	-10.4702
▁východ	-10.4705
▁příjem	-10.4705
▁obyvatelé	-10.4705
ěji	-10.4707
▁nese	-10.4711
▁dohoda	-10.4714
▁podal	-10.4729
▁docela	-10.4731
hrát	-10.4739
▁snížil	-10.4748
▁klubů	-10.4752
▁akt	-10.4756
▁prodeji	-10.4757
▁fotbal	-10.4759
▁takovým	-10.476
,5	-10.4765
▁brankář	-10.4765
19	-10.4768
▁20.	-10.4768
▁dovoz	-10.4773
jdou	-10.4775
▁americk	-10.4775
▁tvar	-10.4776
▁obsahu	-10.4778
▁účastníků	-10.478
▁odpovědnost	-10.4785
▁stejném	-10.4787
▁zůstávají	-10.4797
▁církev	-10.4801
▁knih	-10.4804
zo	-10.4815
MA	-10.4816
píše	-10.4819
▁čtvrté	-10.4819
▁prostory	-10.4827
nové	-10.4828
elný	-10.4828
▁NE	-10.4832
▁všechn	-10.4834
ovský	-10.4834
▁prv	-10.4836
▁záměr	-10.484
▁Ot	-10.4844
▁významný	-10.4847
▁Anglie	-10.4848
▁institucí	-10.4848
▁přispěl	-10.4848
▁software	-10.4848
▁nestačí	-10.4848
▁Polici	-10.4848
▁Nejvyšší	-10.4848
▁příspěvek	-10.4848
▁vlastnictví	-10.4848
▁mladší	-10.4848
▁přinejmenším	-10.4848
▁přijít	-10.4848
▁dráhy	-10.4848
▁Stačí	-10.4849
▁vědců	-10.4849
▁vrátí	-10.4849
▁organizační	-10.485
▁poznatky	-10.4851
▁policisté	-10.4852
▁zabezpečení	-10.4853
▁vozů	-10.4853
▁Bosně	-10.4855
▁levnější	-10.4855
▁oči	-10.4856
▁přijmout	-10.4857
▁Králové	-10.4857
▁uznání	-10.486
▁tvorby	-10.4861
▁předpisů	-10.4864
▁32	-10.4864
▁výstav	-10.4865
▁nehod	-10.4866
▁ideální	-10.4866
▁hodinách	-10.4869
▁fyziky	-10.4869
▁zákazník	-10.4871
▁nejlepším	-10.4871
▁podobu	-10.4872
▁obrazovky	-10.4873
▁komplexní	-10.4875
▁předsedou	-10.4879
▁popis	-10.4884
▁Olomouci	-10.4885
▁zvýšil	-10.4885
▁jižní	-10.4885
▁George	-10.4888
▁18.	-10.4889
▁českou	-10.4897
▁vytváří	-10.4898
▁léky	-10.4898
kli	-10.4898
▁ekonomických	-10.4905
▁starosti	-10.4905
▁celní	-10.4909
▁plochy	-10.491
▁ode	-10.4912
▁jiném	-10.4919
py	-10.492
▁pacienta	-10.4922
▁nejčastěji	-10.4927
▁vojensk	-10.4928
▁zemské	-10.4931
▁pochopitelně	-10.4934
▁zápasů	-10.4935
▁nemusel	-10.4937
▁býval	-10.4947
▁syn	-10.4949
ODS	-10.4952
▁auta	-10.4957
▁připravil	-10.496
▁servis	-10.4963
star	-10.4968
▁úprav	-10.4969
stoupí	-10.497
▁podzim	-10.4974
▁chodí	-10.4977
▁zkušenost	-10.4985
ováno	-10.4989
▁nápad	-10.499
▁ministrem	-10.4995
▁rodinné	-10.4996
▁kancelář	-10.5002
▁16.	-10.501
▁33	-10.5014
▁Nad	-10.5015
nedávn	-10.5015
▁ústav	-10.5016
▁setkal	-10.5017
▁27	-10.502
▁ploch	-10.5022
▁rozhodčí	-10.5026
bud	-10.503
▁konstatoval	-10.505
ros	-10.5051
▁zato	-10.5052
▁významu	-10.5067
▁Man	-10.5079
hlav	-10.5084
▁mnohd	-10.5085
▁Anglii	-10.5086
▁Microsoft	-10.5086
▁NHL	-10.5086
▁asociace	-10.5086
▁duchovní	-10.5086
▁jménem	-10.5086
▁medaile	-10.5086
▁mužstvo	-10.5086
▁navzájem	-10.5086
▁odpovědi	-10.5086
▁uzavřít	-10.5086
▁veřejně	-10.5086
▁využívat	-10.5086
▁článek	-10.5086
▁chvíle	-10.5086
▁dětem	-10.5086
▁Jaromír	-10.5086
▁ČEZ	-10.5086
▁požadavek	-10.5086
▁zástupců	-10.5086
▁okolní	-10.5086
▁Chtěl	-10.5086
11	-10.5089
▁zabývat	-10.5092
▁dopis	-10.5092
▁výpočetní	-10.5093
▁třikrát	-10.5093
▁ulice	-10.51
▁náhradní	-10.5104
▁výstavby	-10.5106
▁Dvě	-10.5109
▁týkající	-10.5118
tak	-10.5118
▁SE	-10.512
▁umístění	-10.5129
20	-10.513
▁Takové	-10.5136
▁osobnosti	-10.5137
▁praktické	-10.5138
▁používání	-10.514
▁samostatné	-10.514
▁trhy	-10.514
▁stanovení	-10.5143
▁Profitu	-10.5153
▁obsahující	-10.5158
▁fondů	-10.516
60	-10.5165
stavit	-10.5167
▁francouzské	-10.5167
▁mistra	-10.5172
▁Jedin	-10.5178
▁způsobil	-10.5187
OS	-10.5194
▁45	-10.52
▁sdělil	-10.5201
▁odpor	-10.521
▁bran	-10.5211
▁obratu	-10.5216
▁250	-10.522
ale	-10.5224
▁soupeř	-10.5225
▁široké	-10.5225
▁ekologické	-10.5227
▁prezidentem	-10.5229
▁průmyslový	-10.5231
▁čekají	-10.5231
▁žádost	-10.5232
počítá	-10.5234
▁kom	-10.5238
▁minulém	-10.524
▁počítačové	-10.5241
▁obchodním	-10.5244
▁přenos	-10.5245
▁ztratil	-10.525
mot	-10.5254
▁120	-10.5256
▁skončila	-10.5266
jev	-10.5268
pře	-10.5272
LI	-10.5278
sad	-10.5279
▁vyhrála	-10.5286
▁průměrn	-10.5288
▁pl	-10.5289
▁turnaj	-10.529
▁rozdělen	-10.5292
▁postih	-10.5302
▁organismu	-10.5308
▁Stát	-10.531
▁kolegy	-10.5322
ir	-10.5325
▁nechtěl	-10.5326
▁dlouhý	-10.533
▁ministři	-10.533
▁považuji	-10.533
▁souladu	-10.533
▁vysoká	-10.533
▁obrátil	-10.533
▁organizaci	-10.533
▁Michal	-10.533
▁chtít	-10.533
▁generace	-10.533
▁nejspíš	-10.533
▁územní	-10.533
▁studia	-10.5331
vz	-10.5331
▁ukazují	-10.5332
▁vyplatí	-10.5334
▁volně	-10.5334
▁neznamená	-10.5335
vil	-10.5336
▁způsobu	-10.5337
▁související	-10.5343
▁Polska	-10.5343
▁pre	-10.5347
▁lesů	-10.5347
▁zajištění	-10.5348
▁Karlovy	-10.5349
▁nástrojů	-10.535
jedno	-10.5351
▁silně	-10.5352
▁odborných	-10.5359
▁časopisu	-10.5359
▁kdysi	-10.5363
▁panelu	-10.5363
▁občané	-10.5365
vali	-10.5372
▁možných	-10.538
▁ačkoli	-10.5381
▁aktivit	-10.5381
▁sekundu	-10.5382
▁nedávné	-10.5384
▁nemělo	-10.5386
▁nastoupil	-10.5388
zb	-10.5389
▁opravy	-10.539
▁skončilo	-10.5391
▁ústavy	-10.5395
▁ukázal	-10.5395
▁příčin	-10.5399
▁pán	-10.5399
▁přenosu	-10.5401
▁Obchodní	-10.5405
▁Poslaneck	-10.5406
▁ochrany	-10.5411
RU	-10.5414
▁Slovenské	-10.5415
▁předložil	-10.5416
▁kurs	-10.5421
▁schopnosti	-10.5429
▁dostalo	-10.5431
▁zákazníka	-10.5433
dit	-10.5435
▁přechodu	-10.5443
psal	-10.5444
▁metr	-10.5445
▁titulu	-10.5451
▁cest	-10.5453
▁stanoví	-10.5456
▁10.	-10.5458
▁hodnotí	-10.5458
▁jednotliv	-10.5459
▁třiceti	-10.5461
▁Rusk	-10.5462
por	-10.5471
▁RN	-10.5472
tit	-10.5472
▁dobou	-10.5472
▁oprav	-10.5479
▁Plzeň	-10.5483
▁totem	-10.5488
▁režisér	-10.549
▁Americk	-10.549
AD	-10.549
▁projekty	-10.5492
kat	-10.5496
▁dají	-10.5499
áš	-10.5499
▁turistů	-10.5501
fe	-10.5508
▁desetiletí	-10.5508
▁zápase	-10.5512
▁novém	-10.5512
tivní	-10.5514
▁reálné	-10.5515
▁forma	-10.5521
mark	-10.5521
▁čemu	-10.5522
▁politického	-10.5532
▁podpis	-10.5537
▁vrchol	-10.554
▁míní	-10.5552
▁regionu	-10.5556
▁Bra	-10.5559
jíž	-10.5562
▁pracují	-10.5563
▁jimi	-10.5574
▁kvalita	-10.5577
▁atmosféře	-10.558
▁delegace	-10.558
▁francouzský	-10.558
▁inflace	-10.558
▁přírodě	-10.558
▁službu	-10.558
▁nejnovější	-10.558
▁penzijní	-10.558
▁považují	-10.558
▁politická	-10.558
▁květnu	-10.558
▁poptávka	-10.558
▁vysvětlení	-10.558
▁brát	-10.5581
▁mínění	-10.5582
▁stanovisko	-10.5582
▁stupně	-10.5582
▁vysvětlit	-10.5584
▁dokonale	-10.5585
▁čeho	-10.5585
▁podaří	-10.5586
▁vysvětlil	-10.5586
din	-10.5588
rou	-10.5589
▁Nejvíce	-10.5589
▁dřívější	-10.559
▁dosahuje	-10.5592
▁představit	-10.5592
▁slib	-10.5595
▁prosadit	-10.5596
▁Chceme	-10.5596
▁bytové	-10.5596
▁znaků	-10.56
nést	-10.5602
▁léků	-10.5602
rat	-10.5604
▁věří	-10.5606
▁myši	-10.5606
▁slovenských	-10.5607
ckých	-10.5611
▁zkušeností	-10.5611
▁umí	-10.5612
▁role	-10.5613
▁přípravě	-10.5613
▁ukázalo	-10.5614
ovněž	-10.5615
▁vrací	-10.5617
▁host	-10.5617
▁Gorbačov	-10.5619
▁orgánů	-10.5621
▁zbytek	-10.5621
▁nesouhlasí	-10.5622
▁odchodu	-10.5625
▁Čs	-10.5628
muž	-10.5632
▁trvale	-10.5635
▁kanceláří	-10.5646
KO	-10.5647
▁místem	-10.5653
čili	-10.5653
▁nebezpečné	-10.5656
koupit	-10.5656
▁závodě	-10.5659
▁vysoký	-10.5664
▁grafické	-10.5664
▁všude	-10.5665
▁zjistil	-10.5667
▁materiály	-10.567
▁novin	-10.5675
▁třináct	-10.5684
ide	-10.5691
▁vodou	-10.5693
▁800	-10.5703
▁výstava	-10.5708
AR	-10.571
pravděpodobností	-10.5711
óz	-10.5713
▁ona	-10.5713
▁zásob	-10.5717
▁deník	-10.5719
▁pevné	-10.5721
▁cenou	-10.5723
▁domnívá	-10.5728
age	-10.5729
▁kniha	-10.5733
▁představu	-10.5746
tů	-10.5746
ivé	-10.5747
▁adres	-10.5752
NA	-10.5758
▁obor	-10.5759
▁názorů	-10.5761
orku	-10.5761
▁výklad	-10.5762
▁rozsah	-10.5763
▁zúčastnil	-10.5768
▁dojem	-10.5769
lep	-10.5771
▁čtenáře	-10.5784
▁zaměstnavatele	-10.5795
ton	-10.5797
▁pozor	-10.5799
vad	-10.5801
dra	-10.5803
ij	-10.5808
▁přestup	-10.5809
▁vzal	-10.5809
▁osobních	-10.581
ren	-10.5816
▁zbraně	-10.5816
▁podnikové	-10.5817
cího	-10.5825
▁způsoby	-10.5825
▁Sv	-10.5833
hi	-10.5834
▁vážně	-10.5835
▁vedl	-10.5836
▁Výsledk	-10.5836
▁atraktivní	-10.5836
▁dlouhá	-10.5836
▁rozhraní	-10.5836
▁telekomunikační	-10.5836
▁tiskárny	-10.5836
▁chráněn	-10.5836
▁koncepce	-10.5836
▁nabídce	-10.5836
▁používají	-10.5836
▁naděje	-10.5836
▁závisí	-10.5836
▁učinil	-10.5836
▁blízké	-10.5836
▁muzea	-10.5836
▁unii	-10.5837
▁rozšířit	-10.5837
▁žebříčku	-10.5837
▁vysvětluje	-10.5837
▁předpokládat	-10.584
▁naději	-10.5841
▁vysoce	-10.5841
▁pachatel	-10.5841
▁externí	-10.5844
▁můj	-10.5845
▁složky	-10.5847
▁Ostrava	-10.5849
▁umožňující	-10.5849
▁uvést	-10.5852
▁barvy	-10.5854
▁čtyřech	-10.5856
▁dvojice	-10.5856
▁návštěvu	-10.5857
▁Sparty	-10.5857
▁Tad	-10.5859
▁Nikdo	-10.586
projevuje	-10.5861
▁Autor	-10.5862
▁milióny	-10.5865
▁fotbalistů	-10.587
▁totéž	-10.588
▁akciové	-10.5885
▁šlo	-10.5888
▁nemůžeme	-10.5888
▁noční	-10.5891
kám	-10.5898
▁úst	-10.5902
▁agentura	-10.5902
▁čtyřmi	-10.5907
ír	-10.5908
▁budovy	-10.5909
▁politický	-10.5927
▁studium	-10.593
▁nároky	-10.593
▁neznámý	-10.5932
ine	-10.5933
▁mysli	-10.5935
▁Di	-10.594
nce	-10.5946
▁kurz	-10.5947
▁podání	-10.5951
hnal	-10.5951
▁trend	-10.5958
▁vědci	-10.5958
▁podstatné	-10.5963
ovské	-10.5969
▁test	-10.597
nský	-10.5981
▁povrch	-10.5984
▁filmový	-10.5985
▁listu	-10.5985
▁návrat	-10.5986
atel	-10.5996
▁stranou	-10.5996
▁formát	-10.5996
▁teplota	-10.5996
▁tříd	-10.5997
▁past	-10.5999
lib	-10.5999
▁nabídl	-10.6001
icky	-10.6002
pel	-10.6007
▁vln	-10.6009
▁pra	-10.6012
▁světového	-10.6013
ral	-10.6014
▁finančn	-10.6019
▁Cena	-10.602
▁trestný	-10.6024
▁Profit	-10.6027
▁vydal	-10.6034
▁kandidát	-10.6037
ejména	-10.6042
taj	-10.6045
nes	-10.605
▁bodu	-10.605
▁systémem	-10.6051
▁řeší	-10.6055
puštěn	-10.606
▁střed	-10.6065
▁dvanácti	-10.6067
▁kol	-10.6075
▁hrají	-10.608
▁spisovatel	-10.6082
▁rad	-10.6084
▁přijat	-10.6086
nek	-10.6089
ona	-10.6091
▁Kolik	-10.6092
álně	-10.6094
pak	-10.6095
▁Itálii	-10.6099
▁Miloslav	-10.6099
▁odsouzen	-10.6099
▁povinen	-10.6099
▁menšin	-10.6099
▁podívat	-10.6099
▁úrovní	-10.6099
▁Jugoslávii	-10.6099
▁obligace	-10.6099
▁najevo	-10.61
▁říct	-10.61
▁Peter	-10.61
▁vybírat	-10.6103
▁Nebyl	-10.6103
▁snižování	-10.6104
▁vojáků	-10.6105
▁fax	-10.6105
▁skončení	-10.6105
▁peněžní	-10.6107
▁Rad	-10.6108
▁Be	-10.6109
▁Moravě	-10.611
▁kusů	-10.6112
▁pivo	-10.6112
▁hlavu	-10.6114
áři	-10.6114
▁předmětem	-10.6115
▁Počet	-10.6118
▁povolání	-10.612
▁cyklus	-10.6123
▁odvolání	-10.6124
▁celku	-10.6129
▁Soud	-10.6132
▁japonské	-10.6132
lat	-10.6134
▁chemický	-10.6135
▁kartu	-10.6136
▁větším	-10.6136
čku	-10.6141
▁úvěrů	-10.6141
▁pouhý	-10.6142
▁nesmírn	-10.6142
▁partner	-10.6143
▁oprávněn	-10.6146
▁dílem	-10.6147
▁složen	-10.6154
lid	-10.6156
▁národů	-10.6158
▁důvodem	-10.6159
▁vyh	-10.6162
▁vlny	-10.6164
▁limit	-10.6166
▁automobil	-10.617
▁výstavy	-10.6171
▁škole	-10.6171
▁jakékoli	-10.6171
TO	-10.6174
▁některým	-10.6176
▁jakých	-10.618
▁přípravy	-10.618
jat	-10.6184
▁Den	-10.6186
váží	-10.6186
▁důkaz	-10.6187
IT	-10.6191
▁starosta	-10.6195
▁upozornil	-10.6196
▁San	-10.6199
▁Pří	-10.6199
▁fotbalový	-10.62
▁Ruské	-10.6207
▁posun	-10.6209
▁Francouz	-10.6212
▁Dalším	-10.6213
▁otevřené	-10.6219
▁českým	-10.6221
▁Znamen	-10.6222
ena	-10.6224
▁devíti	-10.6227
▁horní	-10.6233
▁účel	-10.6235
ováním	-10.6237
▁záznamník	-10.6237
▁upraven	-10.6242
▁nákupu	-10.6252
▁tvrdé	-10.6252
▁fyzické	-10.6252
▁klid	-10.6258
▁par	-10.6264
šl	-10.6272
gel	-10.6279
▁čin	-10.6289
▁Wales	-10.6295
▁Major	-10.63
▁Bush	-10.6301
▁informoval	-10.6302
▁Lékař	-10.6302
▁Rus	-10.6302
▁hotov	-10.6309
▁jasno	-10.6313
▁volný	-10.6314
▁jistý	-10.6315
▁schopna	-10.6323
▁graf	-10.6326
pustit	-10.6328
▁průběh	-10.6331
▁požaduje	-10.6335
klo	-10.6338
▁přímé	-10.6339
íte	-10.6345
▁kompromis	-10.6345
▁Např	-10.6351
▁manžel	-10.6353
▁anti	-10.6357
razí	-10.6358
nozí	-10.636
▁dění	-10.6367
nci	-10.6367
▁Řad	-10.6368
▁Univerzit	-10.6369
▁existovat	-10.6369
▁informaci	-10.6369
▁obtížné	-10.6369
▁prezentací	-10.6369
▁vyjádřit	-10.6369
▁vytvářet	-10.6369
▁února	-10.6369
▁ubytování	-10.637
▁optimální	-10.637
▁vybraný	-10.637
▁zítra	-10.637
▁Bójové	-10.6372
▁zdánlivě	-10.6373
▁hrách	-10.6373
▁ztrácí	-10.6375
▁jednotek	-10.6375
▁rychleji	-10.6375
▁tradice	-10.6377
▁československé	-10.6377
▁podvod	-10.6379
▁vedou	-10.638
▁závodech	-10.6382
▁nadace	-10.6382
▁hlavy	-10.6383
▁politiků	-10.6386
▁správu	-10.6386
▁objevuje	-10.6386
▁brání	-10.6387
▁střediska	-10.6387
▁ústřední	-10.6389
▁dohodě	-10.639
▁starost	-10.639
▁obvinění	-10.6391
▁dostávají	-10.6396
▁kontroly	-10.6398
▁boje	-10.6401
▁vesnici	-10.6402
▁předpisy	-10.6404
běhl	-10.6406
▁Izrael	-10.6406
▁kalů	-10.6406
▁narodil	-10.6407
▁těles	-10.6409
▁26	-10.641
▁symbol	-10.6412
íme	-10.6413
▁slavnostní	-10.6414
ňuje	-10.6417
▁souborů	-10.6423
▁schválil	-10.6425
▁rizika	-10.6425
▁vzdálenosti	-10.643
▁zaveden	-10.643
▁mistr	-10.643
▁Svoboda	-10.6431
▁vysloven	-10.6432
▁sále	-10.6433
▁Vlastní	-10.6433
▁soutěží	-10.6434
og	-10.644
▁55	-10.644
ckého	-10.6443
▁oper	-10.6445
▁drží	-10.6446
▁návratu	-10.6446
▁hrad	-10.6446
▁píše	-10.6451
▁správný	-10.6457
▁udělá	-10.6458
átor	-10.6463
▁sobotní	-10.6464
▁signálu	-10.6466
▁PC	-10.6468
ností	-10.6476
hodil	-10.6476
▁Změn	-10.6481
▁klíč	-10.649
▁jazyk	-10.6492
▁bloku	-10.6492
▁dopad	-10.6499
počátku	-10.6501
▁ostatními	-10.6508
▁závodů	-10.6509
mer	-10.651
bel	-10.651
▁důvody	-10.6512
případě	-10.6525
▁vznikají	-10.6527
▁Ad	-10.6539
ených	-10.654
aly	-10.6546
▁stop	-10.656
věřil	-10.6565
bývá	-10.6566
▁předsed	-10.6567
kol	-10.6569
▁server	-10.6571
▁určený	-10.6572
▁pu	-10.6572
▁ozbrojený	-10.6578
▁čtyřicet	-10.658
slav	-10.6584
▁komunikace	-10.6584
▁vyp	-10.6589
▁určené	-10.659
▁dětské	-10.6603
RO	-10.6604
kům	-10.6609
▁státě	-10.6613
▁historický	-10.6615
▁výrok	-10.6626
ór	-10.6631
klád	-10.6632
najdete	-10.6634
▁samostatný	-10.6636
▁Ital	-10.6639
TI	-10.6643
▁mohu	-10.6643
▁demokracii	-10.6647
▁jednoduše	-10.6647
▁navštívil	-10.6647
▁nepochybn	-10.6647
▁nádraží	-10.6647
▁otázkou	-10.6647
▁ovzduší	-10.6647
▁pracoviště	-10.6647
▁vyrábí	-10.6647
▁častěji	-10.6647
▁železniční	-10.6647
▁obligací	-10.6647
▁obnoven	-10.6647
▁knize	-10.6647
▁modul	-10.6647
▁věnován	-10.6647
▁čísel	-10.6647
▁záření	-10.6647
▁vážné	-10.6648
▁dohodnout	-10.6648
▁oblečení	-10.665
▁odstranit	-10.6651
▁pobřeží	-10.6651
▁několikrát	-10.6652
▁komunistické	-10.6653
▁kvalitě	-10.6654
▁uprostřed	-10.6654
▁vyvolal	-10.6654
▁opoziční	-10.6656
▁blízkosti	-10.6656
▁omezen	-10.6657
▁dopravě	-10.6657
▁žít	-10.6658
▁ovládání	-10.6659
▁sportu	-10.666
▁pomůže	-10.6662
▁rezerv	-10.6663
▁příchod	-10.6663
▁klimatický	-10.6664
▁zvyk	-10.6666
▁připadá	-10.6668
▁Internet	-10.6669
▁novináři	-10.6671
▁demokratick	-10.6671
▁nejlepších	-10.6673
OU	-10.6678
▁tajný	-10.6679
▁klade	-10.6682
▁výpravy	-10.6683
86	-10.6683
▁Pražské	-10.6684
▁mini	-10.6686
▁znaky	-10.6689
▁Taková	-10.6689
▁obrazů	-10.6689
▁cítí	-10.6693
▁uživatel	-10.6697
▁uzavřel	-10.67
▁velkého	-10.6703
▁Rakousku	-10.6709
▁argument	-10.6711
▁viděli	-10.6712
▁působit	-10.6712
▁mezinárodních	-10.6718
ab	-10.6723
▁chyběl	-10.6725
DE	-10.6726
▁rodinný	-10.673
▁kapitál	-10.6733
NÁ	-10.6734
▁Rusku	-10.6738
▁testu	-10.6739
▁souhlasí	-10.6739
▁pohyb	-10.6741
▁festival	-10.6749
▁úvěry	-10.6755
▁tr	-10.6757
▁metoda	-10.6761
▁společn	-10.6763
▁určitých	-10.6766
kin	-10.6773
kyně	-10.6777
▁klepn	-10.6779
▁měsíci	-10.6784
▁plný	-10.6795
▁strach	-10.6797
▁dopravu	-10.6808
zení	-10.681
▁fondy	-10.6814
▁událost	-10.6816
▁termínu	-10.6819
▁sídle	-10.6831
▁umožnil	-10.6832
▁Malé	-10.6832
▁vys	-10.684
▁doprava	-10.6841
jedou	-10.6843
▁zaměstnavatel	-10.6843
▁částic	-10.6844
ika	-10.6844
▁plánu	-10.6845
▁standard	-10.6848
▁výnos	-10.6854
▁schválen	-10.6855
▁editor	-10.6858
ohledem	-10.6859
▁využívá	-10.686
▁okamžik	-10.686
▁pohybují	-10.6861
▁vytvořil	-10.6862
▁Fo	-10.6863
▁zlato	-10.6864
ick	-10.6867
▁účetní	-10.687
▁formu	-10.6872
▁převzal	-10.6876
▁zvítězil	-10.6876
▁Musím	-10.6892
▁5.	-10.6895
▁vodu	-10.6895
íka	-10.6896
▁hru	-10.6896
▁začínají	-10.6899
▁advokát	-10.6904
▁komerční	-10.6906
▁Čas	-10.6921
eny	-10.6926
40	-10.6927
▁národ	-10.6932
▁večerní	-10.6932
▁Americe	-10.6933
▁dopoledne	-10.6933
▁dveře	-10.6933
▁ministerstvu	-10.6933
▁nejrychleji	-10.6933
▁považovat	-10.6933
▁reakce	-10.6933
▁rekonstrukci	-10.6933
▁rozhoduje	-10.6933
▁strategie	-10.6933
▁vyrábět	-10.6933
▁Trenér	-10.6933
▁sloužit	-10.6933
▁policii	-10.6933
▁srdce	-10.6933
▁partneři	-10.6933
▁Klub	-10.6933
▁areálu	-10.6933
▁vzít	-10.6934
▁vězení	-10.6934
▁krve	-10.6934
▁penze	-10.6934
▁psát	-10.6934
▁trvat	-10.6934
▁politickou	-10.6934
▁dubna	-10.6935
▁čekat	-10.6935
▁jaře	-10.6935
▁dotací	-10.6935
▁Konečn	-10.6935
▁zachovat	-10.6937
▁poskytnout	-10.6937
▁zraněn	-10.6939
▁aminokyselin	-10.694
▁stavby	-10.6941
▁provádět	-10.6943
▁obsahovat	-10.6944
▁Havla	-10.6947
▁narození	-10.6947
ření	-10.6949
▁objektivní	-10.695
▁Bu	-10.695
▁ukončení	-10.695
▁přišli	-10.6952
▁elektrické	-10.6953
ier	-10.6953
pálen	-10.6957
držení	-10.6957
▁dítěte	-10.696
▁událostí	-10.6963
▁obci	-10.6965
▁Mnoho	-10.6965
▁vším	-10.6965
kar	-10.6966
▁viděl	-10.6967
▁postavit	-10.6967
▁Mi	-10.6968
▁zastavit	-10.697
▁připojení	-10.6971
▁sovětských	-10.6972
▁taneční	-10.6972
kládá	-10.6975
▁schválení	-10.6976
▁kontakty	-10.6976
▁běžně	-10.6979
▁otevřel	-10.698
▁orgány	-10.6981
▁příkladem	-10.6982
▁výhody	-10.6984
▁kabinetu	-10.6988
▁severu	-10.6992
▁učitel	-10.6996
▁managementu	-10.6997
▁produkty	-10.6998
▁přátel	-10.6999
▁události	-10.7001
▁cosi	-10.7001
▁dodat	-10.7002
dělit	-10.7002
brán	-10.7002
han	-10.7002
▁útoku	-10.7002
▁zjistili	-10.7009
▁přesvědčení	-10.7012
▁samostatně	-10.7012
▁rodina	-10.7015
▁dokázal	-10.7016
▁maximální	-10.7019
▁Pe	-10.702
▁čtvrt	-10.7021
▁hlasy	-10.7021
▁občany	-10.7023
▁principy	-10.7025
bili	-10.7025
50	-10.7028
▁vyhlásil	-10.7034
▁hranic	-10.7037
▁vašeho	-10.7042
▁souhlasu	-10.7046
tav	-10.705
▁oslav	-10.7053
▁Kor	-10.7058
▁průmyslové	-10.7066
▁soubory	-10.707
▁pravidel	-10.707
▁předpoklad	-10.707
▁rozhodli	-10.7073
▁65	-10.7079
▁stejným	-10.7087
▁Rada	-10.7089
▁dělí	-10.7092
▁1000	-10.7093
pustil	-10.7093
▁obrovské	-10.7094
▁znamenat	-10.7102
▁kluby	-10.7104
▁sociálního	-10.7105
▁změnil	-10.7112
▁výkonné	-10.7121
▁zmíněný	-10.7121
▁člena	-10.7121
▁vstoupil	-10.7124
▁projevil	-10.7127
šil	-10.7128
▁odkaz	-10.7129
▁vyzval	-10.713
AL	-10.7131
▁přiznal	-10.7132
▁univerzit	-10.7132
LE	-10.7135
▁obec	-10.7136
▁techniku	-10.7137
▁oznámila	-10.7137
▁pas	-10.7143
▁zásadně	-10.715
▁jakém	-10.715
▁průměrné	-10.7161
skal	-10.7169
▁formátu	-10.717
▁milion	-10.717
▁Nez	-10.7172
▁povinn	-10.7175
ana	-10.7176
▁Hol	-10.7181
▁založil	-10.7182
▁Německ	-10.7185
lis	-10.7185
▁(1	-10.7186
▁pečlivě	-10.7191
šly	-10.7195
nů	-10.7197
▁cyklu	-10.7201
▁nástroje	-10.7203
▁rostou	-10.7205
brat	-10.7207
▁postupy	-10.7218
kož	-10.7219
ug	-10.7222
něte	-10.7223
▁Euro	-10.7225
příliš	-10.7226
▁Stanislav	-10.7227
▁března	-10.7227
▁geometrie	-10.7227
▁snižuje	-10.7227
▁zahrnuje	-10.7227
▁zahynul	-10.7227
▁rozmezí	-10.7227
▁sotva	-10.7227
▁kupónov	-10.7227
▁klesá	-10.7227
▁rakouské	-10.7227
▁čtvrtletí	-10.7227
▁využil	-10.7227
měr	-10.7229
▁návod	-10.7229
▁Šest	-10.7229
▁téhož	-10.723
ll	-10.723
▁diskusi	-10.7231
▁morální	-10.7232
▁výsledku	-10.7233
▁zajišťuje	-10.7233
▁1,	-10.7234
▁opozice	-10.7235
▁účinky	-10.7236
▁školách	-10.7237
▁poradce	-10.7237
▁Dom	-10.724
▁zásluh	-10.724
▁pravomoci	-10.724
▁Hrad	-10.7241
▁zvýší	-10.7242
▁kovů	-10.7244
▁třídě	-10.7245
▁vzpomíná	-10.7246
▁formy	-10.7248
▁činit	-10.7248
▁zachování	-10.7261
▁živé	-10.7263
▁miliónu	-10.7265
▁resp	-10.7266
▁přinesl	-10.7267
▁přestal	-10.7268
▁duchu	-10.7269
řídil	-10.727
▁příčinou	-10.7273
▁volbu	-10.7274
▁provádí	-10.7277
▁kandidátů	-10.7281
▁představiteli	-10.7282
▁věnuje	-10.7288
íci	-10.7288
▁žil	-10.729
par	-10.7291
▁cíl	-10.7291
oři	-10.7293
▁příběh	-10.7301
▁sam	-10.7302
▁startu	-10.7302
▁Zemi	-10.7308
▁pražských	-10.7311
▁slep	-10.7312
padají	-10.7313
▁Tehd	-10.7316
▁Lon	-10.7326
▁producent	-10.7329
▁Zájem	-10.733
LO	-10.7334
▁plnění	-10.7339
oje	-10.734
dů	-10.7341
▁padesáti	-10.7345
▁poskytl	-10.7347
▁kruh	-10.7347
dostanou	-10.7348
▁Boris	-10.7352
vítá	-10.7353
▁papíru	-10.7361
▁nezbytn	-10.7365
▁obchody	-10.7368
rna	-10.7368
▁JE	-10.7368
▁Občanské	-10.7375
▁hor	-10.7375
▁sponzor	-10.7377
jem	-10.738
▁klasický	-10.7382
▁modely	-10.7386
▁daném	-10.7396
TE	-10.7401
▁7.	-10.7402
▁Popper	-10.7403
▁vybaven	-10.7406
ble	-10.7409
▁následujících	-10.7409
dní	-10.7414
▁příslušn	-10.7417
OH	-10.7421
ány	-10.7421
▁chyby	-10.7421
▁Michael	-10.7431
▁průzkum	-10.7438
▁chat	-10.7445
ON	-10.7446
▁barevný	-10.7446
▁protest	-10.7447
▁CO	-10.7451
▁pivovar	-10.7451
▁krátké	-10.7452
▁výbuch	-10.7456
▁15.	-10.7457
▁31.	-10.7457
▁věda	-10.7459
▁loňský	-10.746
▁víme	-10.7461
▁poruch	-10.7466
▁proměn	-10.7473
dis	-10.7474
▁filmové	-10.7475
▁čtrnáct	-10.7476
rab	-10.7477
volal	-10.7478
vají	-10.7479
nictví	-10.7488
ologie	-10.7489
▁vzdálenost	-10.7489
▁jediným	-10.7495
▁pojištěn	-10.7496
▁Mnoh	-10.7496
▁vstříc	-10.7502
▁herec	-10.7509
▁služba	-10.751
end	-10.751
▁reakci	-10.7518
▁uvažuje	-10.752
▁produkt	-10.7528
níků	-10.7528
▁našel	-10.7529
▁Otázka	-10.753
▁definitivně	-10.753
▁digitální	-10.753
▁divadlo	-10.753
▁gigant	-10.753
▁kyslíku	-10.753
▁označit	-10.753
▁pokračování	-10.753
▁prognóz	-10.753
▁sekretář	-10.753
▁transformaci	-10.753
▁vězňů	-10.753
▁zvyšování	-10.753
▁Československé	-10.753
▁října	-10.753
▁důvěru	-10.753
▁počtem	-10.753
▁vozidel	-10.753
▁prosinci	-10.753
▁vazby	-10.753
▁Práce	-10.753
▁nikoho	-10.753
▁výročí	-10.753
▁Býval	-10.753
▁svoje	-10.7531
▁myšlenky	-10.7531
▁přenosov	-10.7531
▁super	-10.7532
▁hluboké	-10.7532
▁gen	-10.7532
▁Člen	-10.7532
▁chtěla	-10.7533
▁poradit	-10.7534
▁hřišti	-10.7535
▁navrhuje	-10.7537
▁sexuální	-10.7537
▁oběti	-10.7538
▁majitele	-10.7538
▁neplatí	-10.7539
▁mírně	-10.7539
▁poplatky	-10.7541
▁útok	-10.7541
▁výdajů	-10.7541
▁začátek	-10.7542
▁pochod	-10.7544
▁rozšířil	-10.7544
▁sezóny	-10.7545
zemědělských	-10.7546
▁Třeba	-10.7548
▁mechanismus	-10.7549
▁zrušit	-10.755
▁tuzemsku	-10.7551
▁rostoucí	-10.7554
▁Uvedl	-10.7555
▁boji	-10.7556
▁dílů	-10.7558
▁vz	-10.7558
▁bratr	-10.7559
▁třetiny	-10.7562
▁rozsáhlé	-10.7562
▁východě	-10.7567
▁krajiny	-10.7567
ičtí	-10.757
▁1992.	-10.7573
▁příležitostí	-10.7573
▁reklamy	-10.7574
▁Jaké	-10.7576
▁pokuty	-10.7576
ňování	-10.7576
▁důsled	-10.7577
▁svobody	-10.7577
▁zůstalo	-10.7578
▁vědí	-10.7579
▁Hlavním	-10.7579
▁nezávislé	-10.7581
▁nastavení	-10.7582
▁obsahují	-10.7584
▁schopností	-10.7584
▁představitele	-10.7586
▁pacient	-10.7587
▁průkaz	-10.7593
▁výborů	-10.7596
▁majitelé	-10.7596
▁přítomnosti	-10.7597
▁postavil	-10.7598
ložit	-10.7598
▁činil	-10.7604
▁koncertu	-10.7605
▁koní	-10.7608
▁kultur	-10.7617
▁Ši	-10.7618
▁Rakouska	-10.762
▁starý	-10.7621
▁objevují	-10.7622
▁zločin	-10.7623
▁společenské	-10.7636
vání	-10.7638
▁tisíci	-10.764
▁klient	-10.7641
▁záležitosti	-10.7644
▁stylu	-10.7649
▁Vlk	-10.7653
▁směr	-10.7659
▁Světové	-10.766
▁ekonomický	-10.766
▁tuzemské	-10.7669
▁známý	-10.7678
▁necelý	-10.7679
▁českém	-10.7681
▁karta	-10.7682
▁věděl	-10.7684
▁obvod	-10.7685
ovky	-10.7688
leč	-10.7689
▁výrobních	-10.7698
ičky	-10.7698
▁mimořádný	-10.7719
▁klidně	-10.7722
▁36	-10.7722
ruší	-10.7725
▁exportu	-10.7727
trh	-10.7731
▁sousední	-10.7735
▁zpravodaj	-10.7735
▁primátor	-10.7744
▁obrovský	-10.7745
▁vystoupil	-10.7752
▁běh	-10.7755
▁porad	-10.7761
▁výkony	-10.7763
▁rodičů	-10.7764
rd	-10.7766
▁vlastnost	-10.7767
▁dosáhla	-10.7768
▁silný	-10.777
▁účtu	-10.7771
▁obsadil	-10.7776
šť	-10.7776
▁surovin	-10.7778
▁Pomoc	-10.7779
▁zdravotního	-10.7781
▁Muž	-10.7784
▁kont	-10.7788
▁diplomat	-10.7791
wa	-10.7796
▁potřeboval	-10.78
čátkem	-10.7801
▁důraz	-10.7803
▁státem	-10.7805
▁přítomnost	-10.7809
▁Obecn	-10.7809
nc	-10.781
▁klasické	-10.7811
▁ostatním	-10.7813
▁Výbor	-10.7815
▁Úřadu	-10.7816
▁vlně	-10.7817
kládají	-10.7817
▁firemní	-10.7818
skočil	-10.7821
stické	-10.7825
ickým	-10.783
▁dětský	-10.7837
bytek	-10.7838
▁menších	-10.784
▁Evropu	-10.7843
▁Mechanik	-10.7843
▁Němců	-10.7843
▁Premiér	-10.7843
▁Systém	-10.7843
▁Vývoj	-10.7843
▁definitivní	-10.7843
▁kilobajtů	-10.7843
▁lehce	-10.7843
▁potvrzuje	-10.7843
▁připomněl	-10.7843
▁režii	-10.7843
▁sjednocení	-10.7843
▁smlouvě	-10.7843
▁tabulce	-10.7843
▁teorií	-10.7843
▁tvořit	-10.7843
▁účinek	-10.7843
▁zdarma	-10.7843
▁schůze	-10.7843
▁podezření	-10.7843
▁spotřeby	-10.7843
▁zastupitelstva	-10.7843
▁střetnutí	-10.7843
▁nedokázal	-10.7843
▁pověřen	-10.7843
▁bránit	-10.7843
▁GSM	-10.7844
▁produkci	-10.7844
▁celků	-10.7844
▁Pět	-10.7845
▁nejenom	-10.7845
▁absolutní	-10.7845
▁ovoce	-10.7846
▁("	-10.7846
▁11.	-10.7846
▁diskuse	-10.7846
▁Dodal	-10.7848
▁vaši	-10.7849
▁systematick	-10.785
▁předložit	-10.7852
▁kódování	-10.7852
dem	-10.7852
▁dolní	-10.7853
▁vyvolává	-10.7854
▁akademie	-10.7854
▁trénink	-10.7859
▁Druhá	-10.7859
▁Staroměstské	-10.786
▁dostatek	-10.7862
▁Jednání	-10.7863
▁46	-10.7863
ller	-10.7864
▁náhodou	-10.7867
▁kontrolní	-10.787
▁závislosti	-10.7874
▁zahraničním	-10.7874
ani	-10.7875
▁najde	-10.7876
▁Severní	-10.7876
kovou	-10.7876
▁označen	-10.7878
▁užívání	-10.7879
▁výstavě	-10.7879
▁fakultu	-10.788
týká	-10.7882
▁textový	-10.7883
▁veřejných	-10.7886
▁předložen	-10.7888
▁nahradil	-10.7888
▁Sparta	-10.7889
▁základem	-10.7896
▁zdravé	-10.7897
▁ukončil	-10.7897
ista	-10.7899
▁zvěře	-10.79
▁škodu	-10.7914
▁probíh	-10.7916
táhne	-10.7919
▁koupil	-10.7921
▁příčiny	-10.7925
▁zdravotnické	-10.7928
▁Mir	-10.7933
▁Němec	-10.7935
▁SP	-10.7937
▁Ústavní	-10.794
áme	-10.7945
▁vyžádal	-10.7949
▁stráž	-10.7949
▁trenérem	-10.7951
▁sporu	-10.7952
▁levé	-10.7956
▁principu	-10.7958
nová	-10.7959
▁týdnech	-10.7977
▁6.	-10.7983
▁Novák	-10.7988
zemní	-10.7989
jeli	-10.7994
▁postav	-10.8
nému	-10.8003
▁podobného	-10.8006
▁prav	-10.8009
razit	-10.8022
AV	-10.8023
▁proud	-10.8031
▁koho	-10.8035
▁trestné	-10.8036
ického	-10.8036
edení	-10.8038
▁jiní	-10.8045
▁variant	-10.8047
MO	-10.8049
čních	-10.8052
▁pravděpodobnost	-10.8053
▁Fin	-10.8054
▁Per	-10.8055
▁znění	-10.806
▁mnou	-10.8061
▁pokračoval	-10.8065
▁komplex	-10.8068
▁Firm	-10.8069
skok	-10.8069
▁styk	-10.8071
▁reálný	-10.8076
ony	-10.8076
▁životním	-10.8079
boj	-10.8085
elné	-10.8086
▁Ni	-10.8088
▁situací	-10.8089
pad	-10.8091
▁městský	-10.8096
▁Paul	-10.8101
▁bezprostředn	-10.8106
▁nezávislost	-10.8113
▁lékařsk	-10.8116
▁Svět	-10.8119
▁zjištěn	-10.8119
MU	-10.8128
řazen	-10.8129
80	-10.8129
lka	-10.8135
▁škod	-10.8136
áhy	-10.8142
▁rostlin	-10.8144
▁grafický	-10.8145
jako	-10.8146
85	-10.8146
▁poskytují	-10.8152
pot	-10.816
▁třetího	-10.8162
▁Jelcina	-10.8164
▁Viktor	-10.8164
jedině	-10.8165
▁Poslanc	-10.8165
▁chystá	-10.8165
▁dražší	-10.8165
▁krizi	-10.8165
▁nemohu	-10.8165
▁podporovat	-10.8165
▁přispět	-10.8165
▁sportovců	-10.8165
▁uskutečnit	-10.8165
▁vybudovat	-10.8165
▁vyřešit	-10.8165
▁Člověk	-10.8165
▁skončí	-10.8165
▁Osobn	-10.8165
▁nejnižší	-10.8165
▁turisty	-10.8165
▁mlýn	-10.8165
▁dohromady	-10.8165
▁sněhu	-10.8165
▁mld	-10.8166
▁obilí	-10.8166
▁dobrá	-10.8166
▁snažit	-10.8166
▁atmosféry	-10.8166
▁síti	-10.8166
▁bomb	-10.8166
▁vypadat	-10.8167
▁těší	-10.8167
▁přesvědčit	-10.8168
▁zbytečně	-10.8169
▁vedlejší	-10.8169
▁Hradci	-10.817
▁bi	-10.8171
▁zhodnocení	-10.8171
▁pokračuje	-10.8171
▁porozumění	-10.8171
KU	-10.8172
▁ruky	-10.8173
▁umělecké	-10.8173
▁tvorbě	-10.8173
▁všeobecně	-10.8173
▁připojit	-10.8173
▁tělo	-10.8173
5%	-10.8174
▁hůře	-10.8175
▁Kon	-10.8175
▁Bruselu	-10.8176
▁srážek	-10.8177
▁dala	-10.8179
▁právník	-10.8182
▁34	-10.8184
▁přinést	-10.8184
▁ztrát	-10.8185
▁ZA	-10.8186
číst	-10.8186
▁poznamenal	-10.8186
▁obsazení	-10.8187
▁vesnice	-10.8188
▁analýzy	-10.8188
▁rovině	-10.8189
▁Chorvatska	-10.8192
▁Úřad	-10.8194
▁Senátu	-10.8196
▁spolupracovníků	-10.8197
▁zad	-10.8201
běhu	-10.8202
▁autobusy	-10.8203
▁kolektivní	-10.8208
▁silnice	-10.8211
▁Američané	-10.8213
▁důchodu	-10.8213
▁zájmů	-10.8214
šení	-10.8214
▁opustit	-10.822
▁per	-10.8222
▁dovozu	-10.8226
▁zájemce	-10.8228
pul	-10.8229
▁pochyb	-10.8229
▁výkonný	-10.8238
▁zlom	-10.8244
▁Novotný	-10.8246
▁Karla	-10.825
▁požadované	-10.8252
▁volných	-10.8257
▁grafu	-10.8261
▁drobné	-10.8266
▁citliv	-10.8269
▁nevím	-10.827
▁přivedl	-10.8272
▁vědě	-10.8274
▁nepříjemné	-10.8276
▁tlaku	-10.8276
▁podřízen	-10.8276
pin	-10.8277
▁130	-10.8277
▁experiment	-10.8279
▁Mohl	-10.8285
▁patnácti	-10.8286
▁dalo	-10.8288
▁nachází	-10.8295
MI	-10.8296
▁průměrný	-10.8299
šek	-10.8301
▁objemu	-10.8303
▁Ca	-10.8304
eb	-10.8305
▁personální	-10.8308
▁poli	-10.8312
▁nástup	-10.8315
▁struktura	-10.8321
▁získan	-10.8322
▁Několik	-10.8327
▁Rakousk	-10.8328
▁bílé	-10.8333
▁projektů	-10.8333
▁průmysl	-10.834
iletý	-10.8341
izace	-10.8341
▁členský	-10.8341
▁ekonom	-10.8343
▁záznam	-10.8344
▁hledají	-10.8346
▁1,5	-10.8354
▁potenciál	-10.8357
pt	-10.836
nské	-10.8362
bývají	-10.8362
▁vedla	-10.8363
▁budova	-10.8371
▁fyzický	-10.8372
▁dostih	-10.8377
▁Takový	-10.838
▁turistický	-10.8382
▁Jaký	-10.8385
▁investic	-10.8386
▁roze	-10.8394
▁odborník	-10.8395
rop	-10.8401
▁Jaká	-10.8402
▁nebe	-10.8405
▁nutnost	-10.8405
▁montáž	-10.8406
▁koupí	-10.8406
▁osobnost	-10.8409
▁hlad	-10.841
vala	-10.841
▁jmenován	-10.8416
▁prosadil	-10.8424
mála	-10.8424
▁management	-10.8425
▁král	-10.8426
klep	-10.8433
ZE	-10.8434
▁překvapení	-10.8437
▁čtyřiceti	-10.8444
▁vyšetřovatel	-10.8446
▁plno	-10.8449
▁dokumentu	-10.8452
31	-10.8464
▁neb	-10.8466
▁značný	-10.8467
▁zvíře	-10.8472
denní	-10.8474
▁Jin	-10.8476
▁konečný	-10.8476
▁výrazný	-10.8479
▁neboli	-10.8482
hlížet	-10.8483
▁dělení	-10.8488
▁Her	-10.8491
▁Cha	-10.8497
▁trans	-10.8498
▁Mluvčí	-10.8499
▁dosažení	-10.8499
▁jednoduchá	-10.8499
▁metropoli	-10.8499
▁nechtějí	-10.8499
▁neutrální	-10.8499
▁pochopení	-10.8499
▁teorii	-10.8499
▁tradičně	-10.8499
▁výpověď	-10.8499
▁únoru	-10.8499
▁reakcí	-10.8499
▁Peníze	-10.8499
▁Divadl	-10.8499
▁likvidace	-10.8499
▁Zástupc	-10.8499
▁restauraci	-10.8499
▁nevýhod	-10.8499
▁Obdobn	-10.8499
▁nejpozději	-10.8499
▁Rudolf	-10.8499
▁Rozdíl	-10.8499
▁jmění	-10.8499
▁dotace	-10.8499
▁dojít	-10.85
▁operací	-10.85
▁kategorii	-10.85
▁kabel	-10.85
▁mladý	-10.8501
▁dělají	-10.8501
▁výhodnější	-10.8501
▁mezd	-10.8502
▁elektráren	-10.8504
▁obsažen	-10.8505
▁sněmovně	-10.8506
▁reformy	-10.8506
▁podporuje	-10.8507
▁břehu	-10.8508
▁Zahraničn	-10.8508
▁městech	-10.8509
▁realitní	-10.8511
▁vína	-10.8512
▁udržení	-10.8514
▁časopisů	-10.8515
▁rodin	-10.8516
▁oblačnost	-10.8516
▁sezónu	-10.8518
▁přijdou	-10.8518
▁Tour	-10.8523
padne	-10.8523
▁stíhání	-10.8527
▁OH	-10.8531
▁uložení	-10.8533
yl	-10.8534
táhnout	-10.8535
▁pochází	-10.8536
▁žádostí	-10.854
▁otevřena	-10.8542
▁skla	-10.8543
▁hmoty	-10.8548
▁hledal	-10.8549
▁Paříži	-10.855
ární	-10.8555
▁kvantov	-10.8556
▁svobodu	-10.8558
▁mechanik	-10.8564
▁odborníky	-10.8564
▁využívání	-10.8564
▁strom	-10.8565
bin	-10.8571
▁posílen	-10.8576
▁prof	-10.8577
▁staví	-10.8577
▁Sun	-10.8579
▁obvodní	-10.8586
▁uspořáda	-10.859
▁žádosti	-10.8592
▁domy	-10.8599
▁vystaven	-10.86
▁založení	-10.8601
rovná	-10.8603
▁záměru	-10.8605
DA	-10.8605
▁vešker	-10.8613
▁Lib	-10.8613
▁Bla	-10.8615
▁nemohli	-10.8619
▁spoj	-10.8621
88	-10.8623
▁Ber	-10.8626
▁Důležit	-10.8627
▁škoda	-10.8631
▁ukázala	-10.8633
ička	-10.864
25	-10.8643
▁mimořádné	-10.8644
▁motor	-10.8644
žení	-10.8644
▁reprezentantů	-10.8646
pas	-10.8653
▁vydat	-10.8654
Ř	-10.8657
▁patřil	-10.8658
▁zákazníkům	-10.866
▁ztráta	-10.866
▁letecké	-10.8664
volat	-10.8664
▁platy	-10.8664
OR	-10.8665
▁požádal	-10.8674
▁tich	-10.8675
▁vydává	-10.868
▁led	-10.8681
▁činu	-10.8683
▁provozní	-10.8686
zní	-10.8686
▁zvýšené	-10.8689
▁šedesát	-10.869
▁složitější	-10.8692
▁mladí	-10.8697
▁zvýšen	-10.8698
bral	-10.8699
▁9.	-10.87
▁zvuk	-10.8702
▁mluvčího	-10.8709
▁řídící	-10.8711
▁monitor	-10.8716
▁otevře	-10.8727
land	-10.8728
▁týmy	-10.8729
▁stanic	-10.8731
mor	-10.8742
▁95	-10.8746
▁každému	-10.8747
▁platnost	-10.8748
▁spotřebitel	-10.8751
▁pražský	-10.8751
usi	-10.8752
▁zařazen	-10.8752
▁čtvrtý	-10.8753
národních	-10.8756
ačnou	-10.8756
▁úmysl	-10.8763
▁muse	-10.8764
▁výstup	-10.8768
▁značn	-10.877
▁protein	-10.8771
▁monopol	-10.8772
▁vlád	-10.8772
▁nezaměstnanost	-10.8777
ama	-10.878
▁podnikatelský	-10.8782
šky	-10.8783
▁ukázk	-10.8784
▁snažil	-10.8785
▁chorob	-10.8788
čně	-10.8789
▁podílel	-10.879
▁Plat	-10.879
oučástí	-10.879
▁noc	-10.8791
'	-10.88
čil	-10.8801
áním	-10.8803
▁Vznik	-10.881
▁vývojové	-10.8811
▁šéfa	-10.8811
▁následn	-10.8815
▁poskytovat	-10.8816
zoval	-10.8818
▁vtip	-10.8819
▁obecné	-10.8828
▁stačil	-10.883
▁Or	-10.8835
▁Ri	-10.8835
▁adresu	-10.8839
▁blízko	-10.8843
děk	-10.8843
▁Ameriky	-10.8843
▁Bohužel	-10.8843
▁Plzni	-10.8843
▁SCSI	-10.8843
▁energii	-10.8843
▁instituce	-10.8843
▁kapitán	-10.8843
▁nejvýznamnější	-10.8843
▁podpořil	-10.8843
▁čtvrtfinále	-10.8843
▁chránit	-10.8843
▁mládí	-10.8843
▁názvu	-10.8843
▁přirozené	-10.8843
▁koncepci	-10.8843
▁rámeček	-10.8843
▁Včera	-10.8843
▁nejúspěšnější	-10.8843
▁Nedávn	-10.8843
▁investování	-10.8844
▁použil	-10.8844
▁Ladislav	-10.8844
▁zaujal	-10.8844
▁Policisté	-10.8844
▁stabilní	-10.8844
▁ekonomicky	-10.8844
▁trzích	-10.8844
▁Chip	-10.8844
▁výrobek	-10.8845
▁nadcházející	-10.8845
▁zimě	-10.8846
▁obrázky	-10.8846
▁síla	-10.8847
▁Tentokrát	-10.8848
▁Londýně	-10.8848
▁faktorů	-10.8849
▁tradici	-10.8849
▁konat	-10.8849
▁tón	-10.8849
▁chodit	-10.885
▁uznal	-10.8851
▁bojovat	-10.8851
▁úvahy	-10.8852
▁David	-10.8853
▁hlavou	-10.8853
▁Afriky	-10.8854
▁hudby	-10.8854
▁odstavce	-10.8854
▁pokusil	-10.8856
▁lokální	-10.8856
▁kritérií	-10.8857
▁právnické	-10.8857
▁originální	-10.8859
▁umělecký	-10.8859
▁schůzky	-10.8861
▁požadují	-10.8861
▁scény	-10.8864
▁způsobuje	-10.8864
▁parametrů	-10.8867
▁Vol	-10.8867
▁park	-10.8875
▁slíbil	-10.8875
▁spravedlnosti	-10.8875
▁vybrané	-10.8877
▁nezbytné	-10.8877
▁Děti	-10.8878
▁zbývající	-10.8879
▁zájemci	-10.888
▁nalézt	-10.8881
▁vlasti	-10.8881
▁úroky	-10.8882
pit	-10.8883
▁povede	-10.8885
▁třetinu	-10.8885
▁vesmíru	-10.8886
níky	-10.8887
▁uživatele	-10.8891
▁světovou	-10.8894
▁drahé	-10.8895
▁zaměření	-10.8897
▁sekund	-10.8898
▁okruhu	-10.89
pustí	-10.89
▁grafick	-10.89
▁ostře	-10.8901
▁přijel	-10.8901
▁úkolem	-10.8903
ovaným	-10.8903
▁Dobr	-10.8903
▁způsobené	-10.8904
▁paliva	-10.8905
▁Mark	-10.8907
▁nemocných	-10.8908
▁Fa	-10.8909
▁Zajímav	-10.891
▁Lidové	-10.8911
▁postupné	-10.8912
▁společensk	-10.8913
▁bosenský	-10.8915
▁představí	-10.8916
▁Klause	-10.8917
▁dospěl	-10.8918
▁starosty	-10.8925
kládat	-10.8925
▁dokumentů	-10.8925
▁ekologick	-10.8926
platit	-10.8927
▁blíže	-10.8931
▁los	-10.8936
▁poukaz	-10.8936
▁klidu	-10.8939
▁zásah	-10.8939
▁hradu	-10.894
padl	-10.8943
vní	-10.8945
▁udržel	-10.8945
▁zásady	-10.8947
▁uvedení	-10.8949
▁podat	-10.895
▁založené	-10.8952
▁výkonem	-10.8958
▁úkolů	-10.8958
▁pouhé	-10.896
▁výš	-10.8962
▁konkrétně	-10.8966
▁hovořil	-10.8968
▁Představ	-10.8973
počet	-10.8974
set	-10.8978
▁paláce	-10.8985
sty	-10.8985
leb	-10.8986
inter	-10.8988
▁bot	-10.8993
dává	-10.8995
▁zná	-10.9002
▁zůstala	-10.9003
oji	-10.9008
▁umělé	-10.9011
▁rozhovor	-10.9012
▁dalšímu	-10.9012
▁skutečný	-10.9013
rum	-10.9014
▁výhod	-10.9017
▁společenský	-10.9018
▁odkud	-10.9019
▁sklon	-10.9019
res	-10.9022
nova	-10.9029
▁platné	-10.9033
cení	-10.9036
▁30.	-10.9043
▁parku	-10.9047
▁biologické	-10.905
▁připojen	-10.9051
▁lustrační	-10.9056
▁pevný	-10.906
▁filmy	-10.9063
▁pokyn	-10.9066
SA	-10.9066
▁hladin	-10.9066
bíhá	-10.9067
spal	-10.9069
▁zahraničními	-10.9069
▁působil	-10.907
▁Nevím	-10.9071
kryt	-10.9077
eček	-10.9082
▁školu	-10.9083
▁objevit	-10.9084
hodnou	-10.9085
kládal	-10.9089
▁díl	-10.909
▁All	-10.9096
▁nalezen	-10.9096
▁oceán	-10.9096
▁potřebný	-10.9097
antní	-10.9105
ráže	-10.9112
rám	-10.9114
▁dvoj	-10.9115
▁možný	-10.9116
▁8.	-10.9117
▁česko	-10.9118
▁svědomí	-10.912
vnějších	-10.9123
▁vzduch	-10.9127
▁38	-10.9127
▁hrob	-10.9128
ejme	-10.9129
▁jeví	-10.9138
▁hal	-10.9141
▁Britsk	-10.9141
▁divadelní	-10.9144
▁student	-10.9146
▁děj	-10.9148
ŘE	-10.9156
▁Tur	-10.9157
▁ochotni	-10.9164
▁zastoupen	-10.9165
cky	-10.9166
TU	-10.9166
áno	-10.9167
▁exportní	-10.9167
oucí	-10.9172
▁přínos	-10.9172
▁29	-10.9179
kan	-10.9187
▁agent	-10.9188
▁koně	-10.9193
▁Auto	-10.9196
dor	-10.92
▁rytm	-10.92
ačtyřicet	-10.9201
▁Alexandr	-10.9201
▁Barceloně	-10.9201
▁Británii	-10.9201
▁Nejlepší	-10.9201
▁Srbsk	-10.9201
▁březnu	-10.9201
▁déšť	-10.9201
▁fázi	-10.9201
▁instalaci	-10.9201
▁normy	-10.9201
▁následek	-10.9201
▁podmínkou	-10.9201
▁pomáhá	-10.9201
▁populární	-10.9201
▁požádat	-10.9201
▁pravidlo	-10.9201
▁tlačítka	-10.9201
▁tlačítkem	-10.9201
▁týdně	-10.9201
▁umožnit	-10.9201
▁kratší	-10.9201
▁vrstvy	-10.9201
▁Robert	-10.9201
▁divize	-10.9201
▁ploše	-10.9201
▁těžce	-10.9201
▁Část	-10.9201
▁likvidaci	-10.9201
▁ocitl	-10.9201
▁značky	-10.9201
▁Soubor	-10.9201
▁někoho	-10.9201
▁pololetí	-10.9201
▁debat	-10.9201
▁kvalifikace	-10.9201
▁příslušníci	-10.9201
▁doposud	-10.9201
▁komisi	-10.9201
▁pozdější	-10.9201
▁ekonomice	-10.9201
▁klimatu	-10.9202
▁uvažovat	-10.9202
▁IFOR	-10.9202
▁červenci	-10.9204
▁desky	-10.9204
pek	-10.9204
ODA	-10.9205
▁drog	-10.9205
▁Cíle	-10.9205
▁horách	-10.9205
▁Generální	-10.9206
▁Hodnot	-10.9206
▁platný	-10.9206
▁ukázat	-10.9207
▁multimediální	-10.9207
▁právnických	-10.9207
▁plynu	-10.9208
▁zajímat	-10.921
▁letiště	-10.9212
▁výstavbě	-10.9214
▁vzorky	-10.9214
▁Ros	-10.9215
▁myšlenka	-10.9216
▁Karadžič	-10.9217
▁cenách	-10.9218
▁vyšel	-10.9219
▁Hus	-10.922
▁Novotná	-10.9222
▁vozy	-10.9222
▁lidsk	-10.9222
▁pozorování	-10.9223
▁ukáže	-10.9224
▁potvrzení	-10.9225
▁obvyklé	-10.9227
▁ohrožení	-10.9228
▁barvu	-10.9229
▁pojem	-10.9233
▁JU	-10.9234
▁podílu	-10.9235
▁kapacit	-10.9235
▁parametry	-10.9237
▁Jac	-10.9239
▁účelem	-10.9239
▁Atlanty	-10.9242
▁ekonomika	-10.9242
▁úvodu	-10.9243
▁most	-10.9244
▁srážky	-10.9246
▁%)	-10.9246
▁muzeum	-10.9247
▁plynů	-10.9247
▁očekávání	-10.925
▁Svazu	-10.9253
▁sektoru	-10.9255
▁příspěvky	-10.9256
▁přírodovědecké	-10.9258
▁Často	-10.9259
▁dvojí	-10.9259
▁napsat	-10.9262
▁mezinárodním	-10.9264
▁stupni	-10.9264
▁důchodové	-10.9264
▁studenti	-10.9267
▁telefonu	-10.9269
ng	-10.927
▁Kub	-10.927
▁perspektiv	-10.927
entní	-10.9271
▁řeky	-10.9272
▁nahradit	-10.9272
▁potenciální	-10.9273
▁varianty	-10.9274
▁třetina	-10.9277
▁obchodů	-10.9279
▁Slovensk	-10.928
▁ztrátu	-10.9281
▁příjemné	-10.9282
▁styku	-10.9284
▁Hra	-10.9288
▁průzkumu	-10.9289
▁španělské	-10.9291
▁hloub	-10.9292
▁vět	-10.9292
metr	-10.9293
har	-10.9295
▁ono	-10.9295
▁působící	-10.9299
▁nezávisl	-10.9302
▁kilometr	-10.9302
▁zjevn	-10.9304
▁cíli	-10.9305
▁Organiza	-10.9306
▁jediného	-10.9307
áci	-10.9323
▁představitel	-10.9325
skutk	-10.9325
▁změnila	-10.9327
▁spokojeni	-10.9328
41	-10.9331
vel	-10.9333
▁průmyslov	-10.9333
▁koupi	-10.9336
▁kontrola	-10.9337
▁černé	-10.9337
▁kus	-10.9337
▁určitém	-10.9339
▁Věřím	-10.934
▁stisk	-10.934
▁spol	-10.934
▁sever	-10.934
▁nedostal	-10.9346
▁pořádá	-10.9349
poví	-10.9353
▁katastrof	-10.9355
▁Dá	-10.9357
▁hrála	-10.9357
▁Velm	-10.9358
▁výrazné	-10.937
▁udělal	-10.9374
▁společném	-10.9374
,8	-10.9377
▁jednot	-10.9382
▁rychlý	-10.9385
▁chorvatské	-10.9393
▁lék	-10.9394
▁tvořen	-10.9396
▁specializované	-10.9398
▁založena	-10.9401
▁lov	-10.9405
▁Eva	-10.9409
▁osoba	-10.941
▁důsledně	-10.9415
ško	-10.9418
▁disket	-10.9421
▁nějakým	-10.9422
▁sloup	-10.9424
▁úraz	-10.9432
▁dohod	-10.9434
eta	-10.9441
máhají	-10.9444
▁Františk	-10.9451
▁italský	-10.9452
▁1996	-10.9454
▁tábor	-10.9465
▁menším	-10.9466
EC	-10.9467
▁Martina	-10.9473
▁prost	-10.9475
nášet	-10.9477
▁rovin	-10.9479
ens	-10.9479
lob	-10.9485
ložil	-10.9487
ickém	-10.9493
▁pověst	-10.9493
,6	-10.9496
jel	-10.9497
▁Par	-10.9498
daných	-10.9499
▁odbor	-10.95
▁zájemců	-10.9501
▁devadesát	-10.9502
▁šestnáct	-10.9504
▁bariér	-10.9505
▁min	-10.9511
▁kupující	-10.9516
Ú	-10.9516
NI	-10.9516
▁Podnikatel	-10.9518
▁výběrové	-10.9527
ujícího	-10.9528
▁nastal	-10.9528
tají	-10.9529
▁přesun	-10.953
art	-10.9533
RE	-10.9535
▁Les	-10.9537
daly	-10.9538
elná	-10.9538
▁vedoucího	-10.9543
▁náskok	-10.9543
tp	-10.9543
hání	-10.9544
nského	-10.9554
▁Společn	-10.9555
jmout	-10.9563
▁Ci	-10.9569
▁Španěl	-10.9569
ES	-10.957
▁humor	-10.957
najdeme	-10.957
▁Koaliční	-10.9571
▁Ukrajiny	-10.9571
▁Zvláštní	-10.9571
▁burze	-10.9571
▁církví	-10.9571
▁deficit	-10.9571
▁galerie	-10.9571
▁náboženství	-10.9571
▁ovlivňuje	-10.9571
▁patrné	-10.9571
▁páteční	-10.9571
▁upozorňuje	-10.9571
▁určuje	-10.9571
▁šetření	-10.9571
▁naznačil	-10.9571
▁IBM	-10.9571
▁oxidu	-10.9571
▁usilovat	-10.9571
▁držitel	-10.9571
▁pronájem	-10.9571
▁sdělovací	-10.9571
▁podporou	-10.9571
▁produktivit	-10.9571
▁příliv	-10.9571
▁fáze	-10.9571
▁královn	-10.9571
▁vzestup	-10.9571
nutně	-10.9571
▁nedaleko	-10.9571
vázat	-10.9571
▁filozofie	-10.9571
▁integraci	-10.9571
▁Formát	-10.9571
▁zámku	-10.9571
▁hutní	-10.9571
▁naposledy	-10.9571
▁1997	-10.9571
▁myšlenkou	-10.9571
▁slabší	-10.9572
▁svátky	-10.9572
▁šíření	-10.9572
▁manželství	-10.9572
▁duše	-10.9572
▁myšlenku	-10.9572
▁srdeční	-10.9572
▁obrázků	-10.9572
▁vážný	-10.9572
▁přežití	-10.9573
▁nízko	-10.9573
▁podnicích	-10.9573
▁sílu	-10.9573
▁Týr	-10.9573
▁obnovu	-10.9573
▁Původně	-10.9573
▁nehodlá	-10.9573
▁hřiště	-10.9574
▁stanovit	-10.9574
rob	-10.9575
▁odhadnout	-10.9575
▁Komis	-10.9576
▁75	-10.9576
▁plod	-10.9576
▁testování	-10.9576
▁znamenalo	-10.9577
▁zdanění	-10.9577
▁potíží	-10.9578
▁prosazovat	-10.9579
▁Správ	-10.9579
hodlají	-10.9581
▁sledování	-10.9581
násob	-10.9583
▁silnější	-10.9584
ork	-10.9585
▁Nejde	-10.9585
▁dám	-10.9586
▁doporučení	-10.9586
▁přístrojů	-10.9587
▁posoudit	-10.9588
▁zákazníci	-10.9588
▁fan	-10.9589
▁olej	-10.9589
▁akcionářů	-10.959
▁soustředění	-10.9591
▁jádro	-10.9591
▁Labem	-10.9591
▁úlohu	-10.9592
▁úředníků	-10.9592
▁jistotu	-10.9592
▁mírové	-10.9594
▁Sta	-10.9594
▁následky	-10.9594
▁tvrdě	-10.9595
▁přehlídky	-10.9595
▁Fran	-10.9597
padlo	-10.96
▁polo	-10.96
▁přinese	-10.9601
▁příslušníků	-10.9602
▁Nikd	-10.9603
▁nep	-10.9604
▁Celk	-10.9606
▁Pre	-10.9608
▁soudce	-10.9609
▁vládou	-10.9611
▁začínající	-10.9615
▁pouště	-10.9616
▁Lit	-10.9618
▁Naši	-10.9622
▁Byli	-10.9629
▁Svat	-10.9633
▁americkém	-10.9634
▁Kovo	-10.9635
▁lidové	-10.9638
▁pomohl	-10.9638
▁válka	-10.9638
ovanou	-10.964
▁zápisu	-10.964
▁zachoval	-10.9642
▁Platí	-10.9643
▁náročné	-10.9643
out	-10.9645
▁experti	-10.9645
▁díly	-10.965
▁hotelů	-10.9652
▁světov	-10.9653
▁předpoklady	-10.9654
▁samotné	-10.9661
▁moravsk	-10.9662
▁výbuchu	-10.9662
▁Cest	-10.9665
▁papírů	-10.9669
▁sbor	-10.9672
▁25.	-10.9673
IC	-10.9676
▁vrcholu	-10.968
▁ikon	-10.968
▁týmem	-10.9682
▁spory	-10.9684
kolik	-10.9684
▁membrán	-10.9685
▁zavře	-10.9688
▁výstavu	-10.9688
▁rozlišení	-10.9689
vykl	-10.9689
náší	-10.969
▁fotbalu	-10.969
▁technika	-10.969
▁85	-10.9694
▁ziskem	-10.9701
nechává	-10.9703
▁Malý	-10.9706
▁snahy	-10.9706
▁slovník	-10.9708
▁vložit	-10.9714
▁světlo	-10.9715
▁technického	-10.9715
▁děl	-10.9716
▁zní	-10.9719
▁procento	-10.9719
▁orgán	-10.9725
▁skladb	-10.9727
vyšších	-10.973
▁měnové	-10.9735
▁předvedl	-10.974
▁vstupní	-10.9741
▁zákazu	-10.9744
▁osobě	-10.9745
▁21.	-10.9746
▁červené	-10.975
▁témat	-10.9753
▁komor	-10.9754
▁úz	-10.9757
▁Výhod	-10.9757
▁typické	-10.9764
▁Pracovní	-10.9766
▁soused	-10.9769
▁připraveni	-10.977
▁školení	-10.9771
▁chová	-10.9772
▁držet	-10.9774
▁přev	-10.9775
▁vzdálené	-10.9784
pos	-10.9785
▁trvalé	-10.9786
rot	-10.9788
▁programem	-10.9788
▁víkend	-10.9795
▁agentur	-10.9795
▁kulturních	-10.9802
logický	-10.9803
▁No	-10.9813
▁nedělní	-10.9814
jte	-10.9819
vrácení	-10.9821
▁republiku	-10.9826
▁vím	-10.9827
▁pohádk	-10.9828
▁úspěšný	-10.9831
▁180	-10.9833
▁14.	-10.9846
▁našim	-10.9846
▁aktivita	-10.9848
CA	-10.9849
ja	-10.985
▁Oznámil	-10.9853
▁Chyb	-10.9856
rní	-10.9861
▁určena	-10.9864
▁Nejs	-10.9869
áni	-10.9874
▁zaměstnanec	-10.9874
znamenal	-10.9876
▁fanoušků	-10.9876
▁trati	-10.9877
▁zabývají	-10.9881
▁praktický	-10.9885
▁rozpor	-10.9886
▁předal	-10.9887
▁kabinet	-10.9887
▁Problém	-10.9889
▁podstatný	-10.989
▁poskytnut	-10.989
▁výlet	-10.989
▁Možnost	-10.9891
▁sortiment	-10.9892
▁trvalo	-10.9895
▁pěst	-10.9897
rit	-10.9898
▁malého	-10.9903
▁1987	-10.9909
▁okrese	-10.9916
▁krátký	-10.9918
▁prozatím	-10.9919
▁snížen	-10.9925
pir	-10.9927
▁přístroj	-10.9928
▁vzhled	-10.9929
▁zvolil	-10.9929
▁uměl	-10.9935
plňuje	-10.9936
▁neroz	-10.9939
VA	-10.994
▁poznat	-10.9944
letí	-10.9946
cházejí	-10.9947
▁číst	-10.9951
▁kvalifikovan	-10.9952
▁Vedoucí	-10.9956
▁dodatečně	-10.9956
▁důležitá	-10.9956
▁fotoaparát	-10.9956
▁franků	-10.9956
▁instalace	-10.9956
▁konstrukce	-10.9956
▁majetkem	-10.9956
▁pohledávek	-10.9956
▁redakce	-10.9956
▁stupňů	-10.9956
▁upozornit	-10.9956
▁vyšetření	-10.9956
▁Bejbl	-10.9956
▁Průměrn	-10.9956
▁pojmů	-10.9956
▁přežít	-10.9956
▁stovek	-10.9956
▁DPH	-10.9956
▁vojsk	-10.9956
▁Asociac	-10.9956
▁jedince	-10.9956
▁uváděn	-10.9956
▁certifikát	-10.9956
▁Řešení	-10.9956
▁restaurace	-10.9956
▁Prostě	-10.9956
▁kvalifikační	-10.9956
▁sněhov	-10.9956
▁1984	-10.9956
▁Rád	-10.9956
▁formální	-10.9956
▁1968	-10.9956
▁nejmenší	-10.9956
▁1986	-10.9957
▁inspekce	-10.9957
▁poznatků	-10.9957
▁nohy	-10.9957
▁spolupracovat	-10.9957
▁legislativní	-10.9957
▁května	-10.9957
▁Tedy	-10.9957
▁nápis	-10.9958
nutit	-10.9958
▁žáků	-10.9958
▁marně	-10.9959
▁chápat	-10.9959
▁Bill	-10.996
▁3,5	-10.996
▁III	-10.996
▁mírový	-10.9961
▁podzemní	-10.9961
▁rychlejší	-10.9962
▁Sovětský	-10.9963
▁ruku	-10.9964
▁DEM	-10.9964
▁vyvolat	-10.9964
▁upravit	-10.9965
▁užitek	-10.9965
▁platební	-10.9965
▁manželka	-10.9965
▁Belgie	-10.9965
▁utrpěl	-10.9966
▁Potom	-10.9966
▁elektřiny	-10.997
▁rozložení	-10.9971
▁volbami	-10.9971
▁základním	-10.9971
▁odpovědn	-10.9971
▁Nejen	-10.9972
▁Ste	-10.9973
▁jevů	-10.9973
▁odstranění	-10.9974
hlásí	-10.9974
▁bilance	-10.9976
▁většího	-10.9977
▁oznámení	-10.9978
▁návštěvy	-10.9983
▁Lux	-10.9983
▁Bur	-10.9983
▁polohy	-10.9986
▁poslanecké	-10.9991
▁osobností	-10.9992
▁Nejdřív	-10.9993
▁výstavbu	-10.9993
▁Německem	-10.9994
▁linky	-10.9995
LU	-10.9995
▁koalici	-10.9997
▁Jedná	-10.9997
▁ostrovy	-11.0001
▁Japonsku	-11.0001
▁půdu	-11.0002
▁hrubého	-11.0002
▁měny	-11.0002
▁týdeník	-11.0003
▁nájemní	-11.0004
lení	-11.0005
▁uplynulý	-11.0007
▁demokratů	-11.0007
▁sociálně	-11.0008
▁Výstava	-11.0009
▁složité	-11.001
stál	-11.001
▁Jedn	-11.0017
▁vedlo	-11.0021
44	-11.0023
▁kapacity	-11.0024
▁oborů	-11.0025
▁stejná	-11.0026
▁potřeb	-11.0027
▁bezprostřední	-11.0028
tisknout	-11.0029
▁Dan	-11.003
▁orgánu	-11.0031
▁potřebu	-11.0034
▁oceánu	-11.0036
▁monitoru	-11.0039
▁reagoval	-11.0042
▁šok	-11.0046
▁nájemce	-11.0046
▁výběrem	-11.0048
▁obvodu	-11.0048
▁Ben	-11.0048
dáme	-11.0049
▁Rady	-11.0051
IL	-11.0056
▁zvukové	-11.0059
era	-11.0071
▁průměr	-11.0074
▁nastavit	-11.0075
cházelo	-11.0076
▁učí	-11.0077
▁hvězdy	-11.0077
asi	-11.0078
▁primátora	-11.008
▁češt	-11.0082
▁fotbalových	-11.0084
▁metru	-11.0086
▁skutečností	-11.0088
▁vědom	-11.0089
▁velitel	-11.0093
▁obdobné	-11.0097
▁vůdce	-11.0097
▁dokumenty	-11.0098
▁skupinou	-11.0099
▁plány	-11.0103
kovat	-11.0107
▁základy	-11.011
▁pohár	-11.0111
▁šedesáti	-11.0113
▁evropského	-11.0123
▁vzniknou	-11.0127
▁bohat	-11.0128
psané	-11.013
ence	-11.0134
bíd	-11.0138
▁specializovan	-11.014
▁Celkov	-11.0141
▁jmen	-11.0141
▁sportovních	-11.0146
čan	-11.0147
▁příbuzn	-11.0151
▁tráv	-11.0157
▁skryt	-11.0164
▁připustil	-11.0165
jen	-11.0168
▁venkov	-11.017
▁Bílé	-11.0171
▁plyne	-11.0175
▁současném	-11.0179
▁mořský	-11.018
▁zdravotnický	-11.0182
valy	-11.0183
▁zlaté	-11.0185
▁Kam	-11.0185
při	-11.0187
splnění	-11.0193
▁známe	-11.0198
▁rozvoji	-11.02
▁svěřen	-11.0203
▁sedí	-11.0206
70	-11.0208
▁listy	-11.0213
race	-11.0214
▁podklad	-11.0215
▁Jediný	-11.0216
zákon	-11.0216
ráží	-11.0222
přes	-11.0246
▁pop	-11.0247
▁dvojnásobn	-11.0248
▁silnic	-11.0249
▁700	-11.0251
řídí	-11.0252
▁vyloučen	-11.0259
▁dodavatele	-11.0261
▁připravena	-11.0261
▁fotbalov	-11.0262
▁německá	-11.027
▁délk	-11.027
▁dolar	-11.027
▁uvedeno	-11.0273
▁konečné	-11.0275
byl	-11.0281
▁alkohol	-11.0281
▁zápis	-11.0282
▁hluboko	-11.0283
▁zastavil	-11.0286
▁Nor	-11.0286
▁dozvěděl	-11.0287
▁původním	-11.0289
▁zahrad	-11.029
▁raket	-11.029
▁odraz	-11.0295
▁kap	-11.0296
▁rozvod	-11.0299
▁klientů	-11.0299
▁49	-11.0299
▁minuty	-11.0299
▁Mon	-11.03
▁sjezd	-11.0304
hruba	-11.0304
prodej	-11.0306
▁2,	-11.0312
jal	-11.0317
▁chci	-11.0322
▁nechá	-11.0324
stávají	-11.0325
▁čistý	-11.0326
▁ozdob	-11.0329
89	-11.0332
▁prvé	-11.0339
ána	-11.034
▁motocykl	-11.034
ša	-11.0341
▁textové	-11.0342
▁hlubo	-11.0342
ujte	-11.0343
▁doporučuje	-11.0344
▁vstupné	-11.0344
▁vysoko	-11.0353
▁Mas	-11.0354
▁postoje	-11.0354
snad	-11.0355
▁brambor	-11.0356
▁domnívají	-11.0356
▁hovořit	-11.0356
▁naštěstí	-11.0356
▁nežádoucí	-11.0356
▁označuje	-11.0356
▁převzít	-11.0356
▁spoluhráč	-11.0356
▁uplatnit	-11.0356
▁zázemí	-11.0356
▁Poborský	-11.0356
▁komponent	-11.0356
▁nevědí	-11.0356
▁odlišný	-11.0356
▁Domácí	-11.0356
▁Sociální	-11.0356
▁kamarád	-11.0356
▁učinit	-11.0356
▁viditeln	-11.0356
▁Musel	-11.0356
▁redaktor	-11.0356
▁zásilk	-11.0356
▁nestačil	-11.0356
▁pokoušel	-11.0356
▁sněžení	-11.0356
▁nejrychlejší	-11.0356
▁slyšet	-11.0356
▁škál	-11.0356
▁Slavii	-11.0356
▁forem	-11.0356
▁prodlení	-11.0356
▁ztracen	-11.0356
▁vracet	-11.0356
▁firmám	-11.0356
▁efektivní	-11.0356
▁dlouhodobý	-11.0356
▁stránek	-11.0356
▁obrazovce	-11.0356
▁23.	-11.0356
▁dubnu	-11.0356
▁Grand	-11.0356
▁radikální	-11.0356
▁studií	-11.0356
▁podílejí	-11.0357
▁přál	-11.0357
▁občanství	-11.0357
▁přizpůsobit	-11.0357
▁Vesel	-11.0357
▁posuzovat	-11.0358
▁obrázku	-11.036
▁Číny	-11.036
▁fronty	-11.036
▁51	-11.0362
▁převoz	-11.0363
▁Okresní	-11.0363
▁stavbu	-11.0363
▁pracovnice	-11.0366
▁rejstříku	-11.0366
▁Všechno	-11.0366
▁dobách	-11.0367
▁zaznamenal	-11.0368
▁podnikat	-11.0368
▁písemně	-11.0369
▁každodenní	-11.037
▁prodloužení	-11.0373
▁regulace	-11.0373
▁demokraté	-11.0373
▁osvobození	-11.0374
▁znalostí	-11.0374
▁souhrn	-11.0374
12	-11.0375
▁výjimky	-11.0376
▁Švédsk	-11.0377
▁poslal	-11.0377
▁rysy	-11.0377
▁Druhou	-11.0377
▁Roman	-11.0377
▁včerejším	-11.0379
▁Kalvoda	-11.0379
▁Wimbledonu	-11.0381
▁zbrojní	-11.0382
▁předmětů	-11.0383
▁ukládání	-11.0383
ávat	-11.0383
▁teplotě	-11.0384
▁summitu	-11.0384
▁zvěř	-11.0385
▁kritéria	-11.0386
▁úplné	-11.0389
▁čekal	-11.039
▁orientaci	-11.039
▁nemovitosti	-11.0393
▁náhradu	-11.0394
af	-11.0394
níku	-11.0396
enství	-11.0397
▁obchodníci	-11.0401
▁resortu	-11.0401
▁vůz	-11.0402
▁ztrátou	-11.0403
▁tvaru	-11.0404
rst	-11.0407
▁módní	-11.0409
▁jednalo	-11.041
▁předměty	-11.041
▁všeobecné	-11.0413
sed	-11.0415
▁návštěva	-11.0415
žádají	-11.0416
žijí	-11.0417
▁představil	-11.0417
▁Šéf	-11.0417
▁divu	-11.0418
▁vybírá	-11.0421
▁koš	-11.0424
▁odbory	-11.0424
jímá	-11.0425
▁smích	-11.0425
▁čtrnácti	-11.0427
▁věty	-11.043
▁sjezdu	-11.043
▁vstoupit	-11.0431
▁13.	-11.0431
▁Mc	-11.0433
▁snažili	-11.0435
▁sboru	-11.0437
▁zvuku	-11.0441
iner	-11.0442
▁Pražského	-11.0446
▁Moskva	-11.045
▁48	-11.045
▁kandidáty	-11.0452
▁Čechů	-11.0452
▁světla	-11.0453
ologické	-11.0453
▁důkazy	-11.0453
těl	-11.0456
▁rud	-11.0457
▁svobod	-11.0461
▁rod	-11.0462
▁konto	-11.0465
▁planety	-11.047
▁celkovém	-11.0475
čela	-11.0475
▁sestavení	-11.0477
▁mapy	-11.0487
▁známých	-11.0487
▁Michaela	-11.0489
▁charakteru	-11.049
▁požár	-11.0491
▁špičkové	-11.0492
▁úspory	-11.0493
▁ovlivňují	-11.0495
konala	-11.0498
▁předvolební	-11.0498
▁bolest	-11.05
▁ClipArt	-11.05
▁")	-11.0501
▁britsk	-11.0503
▁zdi	-11.0505
▁některý	-11.0506
▁bojů	-11.0514
▁úkoly	-11.0517
utí	-11.052
▁El	-11.0521
▁Ján	-11.0523
▁Moh	-11.0524
▁neznám	-11.0525
▁německém	-11.0526
bla	-11.0535
▁investorů	-11.0543
▁Bor	-11.0548
▁metra	-11.055
Ile	-11.0551
▁předchozích	-11.0553
▁skládá	-11.0556
▁daný	-11.056
▁příspěvk	-11.0561
▁šel	-11.0566
▁64	-11.057
myslí	-11.057
měř	-11.0575
▁přírodověd	-11.0576
▁maďarský	-11.058
stupující	-11.0582
▁evropském	-11.0583
▁naším	-11.0583
▁údaj	-11.0584
rušení	-11.0584
▁drah	-11.0588
▁47	-11.0589
far	-11.0589
▁páté	-11.0601
▁účastník	-11.0607
▁von	-11.0611
▁typický	-11.0617
72	-11.0617
▁ochotn	-11.0625
▁pracovníka	-11.0625
▁výkonů	-11.0626
▁podílí	-11.0628
▁autora	-11.0629
▁pokut	-11.0629
▁olympijsk	-11.0632
▁rozliš	-11.0633
▁procesor	-11.0647
volání	-11.0649
rp	-11.0655
▁objeven	-11.066
části	-11.0661
dění	-11.0665
▁jevy	-11.0666
▁fyzikální	-11.0671
▁Ří	-11.0671
▁okolnost	-11.0674
▁vyhlášen	-11.0676
schválila	-11.0687
▁Sovětském	-11.0687
▁nedal	-11.0687
▁žalob	-11.0689
▁sklo	-11.069
▁obyvatele	-11.0695
dávat	-11.0695
▁Rok	-11.0696
▁Karl	-11.0697
▁nebezpečný	-11.0698
▁magistrát	-11.0699
▁kuponov	-11.0699
▁Pražský	-11.07
▁vámi	-11.0701
▁služební	-11.0704
▁Olomouc	-11.0704
cker	-11.0709
▁doklad	-11.0711
▁počítačový	-11.0712
▁mód	-11.0717
▁krajan	-11.0718
▁uživatelů	-11.072
lci	-11.0722
▁čtenářů	-11.0727
▁časové	-11.0728
ářské	-11.0729
▁zas	-11.0729
bil	-11.0729
čern	-11.0735
▁scénář	-11.0736
▁vyvíj	-11.0741
NO	-11.0742
▁statistické	-11.0743
být	-11.0744
▁mechanismu	-11.0746
Severoatlantické	-11.0747
▁zhorš	-11.0748
▁oleje	-11.0753
ola	-11.0754
▁poz	-11.0761
stupují	-11.0762
kombin	-11.0766
ŘÍ	-11.0767
nvestiční	-11.0771
▁statut	-11.0772
▁CADKON	-11.0772
▁Intergraph	-11.0772
▁Lebeď	-11.0772
▁Pithart	-11.0772
▁Srbů	-11.0772
▁Zjuganov	-11.0772
▁asistent	-11.0772
▁bližší	-11.0772
▁církvi	-11.0772
▁konferencí	-11.0772
▁nejstarší	-11.0772
▁nábytku	-11.0772
▁nárůst	-11.0772
▁odpovědí	-11.0772
▁ovlivněn	-11.0772
▁reagovat	-11.0772
▁schůzi	-11.0772
▁softwaru	-11.0772
▁strategii	-11.0772
▁zpátky	-11.0772
▁zálivu	-11.0772
▁říjnu	-11.0772
▁nízká	-11.0772
▁nezaměstnaných	-11.0772
▁žádoucí	-11.0772
▁splnit	-11.0772
▁technologii	-11.0772
▁uzavírá	-11.0772
▁Mencl	-11.0772
▁Vídni	-11.0772
▁dědictví	-11.0772
▁zazněl	-11.0772
▁zůstanou	-11.0772
▁stůl	-11.0772
▁kombinaci	-11.0772
▁navrhnout	-11.0772
▁Charles	-11.0772
▁Praktick	-11.0772
▁zařadil	-11.0772
▁maximum	-11.0772
▁Mazda	-11.0773
▁vrchní	-11.0773
▁komunikaci	-11.0773
▁kondom	-11.0773
▁ligové	-11.0773
▁délce	-11.0773
▁vytvářejí	-11.0773
▁chlap	-11.0773
▁otevírá	-11.0773
▁nastat	-11.0773
▁bance	-11.0774
▁okresů	-11.0774
▁otec	-11.0774
▁Finanční	-11.0775
▁zvolit	-11.0775
▁podmíněn	-11.0775
▁komunální	-11.0775
▁kreslení	-11.0776
▁vyrovnal	-11.0776
▁společník	-11.0776
padla	-11.0777
▁dokáží	-11.0777
▁odmítají	-11.0777
▁řidič	-11.0778
▁pohybovat	-11.0778
▁nejvýše	-11.0778
▁pochopit	-11.0778
▁blesk	-11.0779
▁Brazílie	-11.078
▁živočichů	-11.078
▁Polsko	-11.078
▁Stručně	-11.078
▁obchodování	-11.0781
▁ponechat	-11.0782
▁odejít	-11.0782
▁kilogramů	-11.0782
▁splatnosti	-11.0782
▁respektovat	-11.0783
▁vkladů	-11.0786
▁uložit	-11.0789
▁dočasně	-11.0789
▁Chci	-11.079
▁Vít	-11.0792
▁Spor	-11.0794
▁Postup	-11.0795
▁Nic	-11.0796
oprvé	-11.0797
▁energetické	-11.0798
▁kontrole	-11.0799
▁postižených	-11.08
▁řešením	-11.0801
▁zakázky	-11.0804
▁vozidla	-11.0804
▁dokončení	-11.0804
▁poskytování	-11.0805
ívají	-11.0805
▁potřebujeme	-11.0806
▁jistou	-11.0808
▁kongresu	-11.0809
▁zastavení	-11.0809
jíždějí	-11.0814
▁padesátých	-11.0815
▁zaplacení	-11.0815
▁anglické	-11.0816
▁Met	-11.0816
▁Karlový	-11.0817
loni	-11.0818
▁vyhlášení	-11.0818
▁Stav	-11.082
▁kontakt	-11.082
▁titulů	-11.0821
▁Kniha	-11.0821
▁účinnosti	-11.0826
▁míra	-11.0828
▁projeví	-11.0828
▁nemocný	-11.083
▁představoval	-11.0831
▁schématu	-11.0831
▁KB	-11.0831
▁trpí	-11.0831
▁Než	-11.0832
▁bývají	-11.0837
▁pádu	-11.0839
▁lidu	-11.0841
▁katolické	-11.0843
▁soust	-11.0844
řad	-11.0845
▁listů	-11.0846
2.	-11.0849
▁recept	-11.0849
▁valné	-11.0852
▁hale	-11.0854
▁vzá	-11.0856
▁specifické	-11.0859
▁rodinu	-11.0863
▁tip	-11.0865
▁dokázali	-11.087
noví	-11.0871
▁niž	-11.0876
▁předpokladu	-11.088
pochyby	-11.0884
hodit	-11.0886
▁nápady	-11.0887
▁sousedů	-11.0893
▁snaz	-11.0893
▁klíče	-11.0897
▁drobn	-11.0899
pust	-11.0899
▁užit	-11.0901
▁hotely	-11.0908
▁závodní	-11.091
▁čtenáři	-11.0911
▁dynamick	-11.0912
▁předcházel	-11.0912
▁růstem	-11.0912
▁reprezentanti	-11.0912
▁zabývající	-11.0917
▁určení	-11.0917
▁tváří	-11.0922
▁brankáře	-11.0923
▁podnikatelsk	-11.0924
držet	-11.0925
dom	-11.0928
ino	-11.093
▁Jistě	-11.093
▁jazyka	-11.0931
▁církevní	-11.0933
▁vědu	-11.0939
▁Aleš	-11.0939
losování	-11.0942
▁spotřebitele	-11.0949
▁dosti	-11.095
▁pravidelné	-11.095
▁zajímavý	-11.095
▁objevily	-11.0951
▁šla	-11.0952
▁zvýšila	-11.0952
▁věk	-11.0956
▁zvukov	-11.0957
▁britský	-11.0957
▁neměly	-11.0958
▁vznikající	-11.0961
▁našli	-11.0963
▁uvede	-11.0963
▁obtížně	-11.0966
▁osudu	-11.0966
▁pokusy	-11.0967
▁přijala	-11.0968
▁Prvním	-11.0969
▁společných	-11.0969
▁mal	-11.0972
stu	-11.0973
lap	-11.0975
árně	-11.0984
ston	-11.0987
▁stála	-11.0987
▁stejných	-11.0992
▁odmítli	-11.0993
▁Volb	-11.0995
▁ÚV	-11.0997
lů	-11.1
▁tvrd	-11.1001
▁Host	-11.1002
▁přidal	-11.1004
stávat	-11.1007
▁přítomn	-11.1009
věřit	-11.1009
tisk	-11.1017
▁každým	-11.1018
▁odpovídal	-11.1019
▁zeměmi	-11.1024
▁rozsáhlý	-11.1029
▁rozumn	-11.1031
vice	-11.1032
▁uplynul	-11.1032
▁sehrál	-11.1032
istický	-11.1035
▁ST	-11.1038
▁výchov	-11.1038
▁přijímá	-11.104
▁sedmnáct	-11.1041
▁Johna	-11.1042
▁hmot	-11.1043
:3	-11.1045
▁katalog	-11.1047
▁moment	-11.1051
3,	-11.1052
vir	-11.1056
▁zvířata	-11.1056
▁únik	-11.1058
ějším	-11.1062
▁fyzick	-11.1065
▁nemám	-11.1066
▁jakož	-11.1068
▁zahrnut	-11.1069
kryje	-11.1072
▁modern	-11.1073
▁zahájen	-11.1075
▁schéma	-11.1076
▁zábav	-11.108
▁hráčem	-11.108
jezd	-11.1081
▁vládních	-11.1082
stran	-11.1084
▁66	-11.1085
▁expert	-11.1086
neme	-11.1087
▁Fotbal	-11.1094
▁reklam	-11.1096
▁císaře	-11.1096
▁zaměřen	-11.1098
▁vázán	-11.11
▁návrhů	-11.11
▁Paříž	-11.1101
▁zrušil	-11.1104
ůj	-11.1105
▁odchod	-11.1105
▁znak	-11.1108
▁beze	-11.1109
▁Sever	-11.1111
▁významn	-11.1114
kupovat	-11.1121
▁jmenuje	-11.1121
▁hrdin	-11.1124
▁Zemana	-11.1125
ins	-11.1133
▁katolick	-11.1133
▁požadovaný	-11.1137
▁cestující	-11.1138
▁Svobod	-11.1138
▁nevěděl	-11.1139
▁novinářů	-11.1139
▁dres	-11.1139
▁dividend	-11.1142
▁vytvořen	-11.1148
▁pokládá	-11.1149
▁Gr	-11.115
tle	-11.1151
▁klíčový	-11.1153
▁existující	-11.1156
kových	-11.1158
▁urychlen	-11.116
celku	-11.1161
▁pracující	-11.1162
▁získává	-11.1164
OP	-11.1164
▁nech	-11.1168
▁konkrétním	-11.1175
68	-11.1176
istů	-11.1181
▁1994.	-11.1186
▁pohyboval	-11.1188
▁členům	-11.1189
▁provedl	-11.1194
telné	-11.1196
▁teplot	-11.1196
▁OD	-11.1198
dol	-11.1199
▁říkají	-11.1203
▁pozdě	-11.1205
dostatečnou	-11.1207
▁Demokratick	-11.1207
▁Dříve	-11.1207
▁Nedvěd	-11.1207
▁Ostatní	-11.1207
▁Počítač	-11.1207
▁Tigrid	-11.1207
▁byznys	-11.1207
▁charakteristik	-11.1207
▁cizince	-11.1207
▁divadle	-11.1207
▁galerii	-11.1207
▁hlubší	-11.1207
▁hypotéz	-11.1207
▁kompetence	-11.1207
▁konstatuje	-11.1207
▁literární	-11.1207
▁metropole	-11.1207
▁nejmodernější	-11.1207
▁nejznámější	-11.1207
▁nominální	-11.1207
▁polojasno	-11.1207
▁požadoval	-11.1207
▁požadovat	-11.1207
▁semifinále	-11.1207
▁složek	-11.1207
▁strategií	-11.1207
▁stránky	-11.1207
▁udržuje	-11.1207
▁vyhovuje	-11.1207
▁údolí	-11.1207
▁šablon	-11.1207
▁Bratislava	-11.1207
▁Majitel	-11.1207
▁nevidí	-11.1207
▁otevřít	-11.1207
▁počínaj	-11.1207
▁kodex	-11.1207
▁doporučil	-11.1207
▁poplatek	-11.1207
▁Jugoslávie	-11.1207
▁Komerčn	-11.1207
▁představenstva	-11.1207
▁vyrovnat	-11.1207
▁Prodej	-11.1207
▁stoupá	-11.1207
▁štáb	-11.1207
▁čtvrteční	-11.1207
▁NDR	-11.1207
▁nátlak	-11.1207
▁fotografie	-11.1207
▁Mimo	-11.1207
▁nejhorší	-11.1207
▁přijme	-11.1207
▁generací	-11.1207
▁malíř	-11.1207
▁ekonomická	-11.1208
▁jezdit	-11.1208
▁Začal	-11.1208
▁radnici	-11.1208
▁bohatství	-11.1208
▁vyhnout	-11.1208
▁Marie	-11.1208
▁logické	-11.1208
▁Ruml	-11.1208
▁nižších	-11.1208
▁obřad	-11.1209
▁ukládá	-11.1209
▁nedostatku	-11.1209
▁dešti	-11.1209
▁neděle	-11.1209
▁uvědomit	-11.121
▁podobná	-11.121
▁peset	-11.1211
▁premiéru	-11.1211
▁předcházející	-11.1213
▁novinách	-11.1213
▁přelom	-11.1213
▁armádě	-11.1214
▁podílet	-11.1214
▁Africe	-11.1215
▁okresy	-11.1215
▁překvapivě	-11.1215
▁položky	-11.1216
▁prodejny	-11.1216
▁zvaný	-11.1216
▁oborech	-11.1217
▁počkat	-11.1217
▁závazky	-11.1217
▁Maďarsku	-11.1218
▁uvádějí	-11.1218
ávají	-11.1218
▁změnám	-11.1219
▁centimetrů	-11.1219
hav	-11.122
▁vyjde	-11.1221
▁tabulka	-11.1221
▁kvalitou	-11.1222
▁návštěvnost	-11.1223
▁nemovitostí	-11.1225
▁Clinton	-11.1226
▁dodržování	-11.1227
▁fotbalisté	-11.1228
▁šed	-11.1228
▁plánování	-11.1229
▁trenérů	-11.1231
▁Dopravní	-11.1231
▁vojáci	-11.1231
▁seriálu	-11.1232
▁novely	-11.1232
▁skalní	-11.1233
▁Uveden	-11.1233
▁zkušební	-11.1235
▁mládeže	-11.1235
▁řekne	-11.1238
▁vozu	-11.1238
▁výměnu	-11.124
▁tvarů	-11.124
ručí	-11.124
▁zubní	-11.124
▁ocenění	-11.124
▁DO	-11.1241
lék	-11.1242
▁přidat	-11.1243
▁referendum	-11.1243
▁Excelu	-11.1245
▁zdravotním	-11.1245
▁odešl	-11.1248
▁propojení	-11.125
98	-11.125
▁potravinářské	-11.1251
▁dolů	-11.1253
▁přijatelné	-11.1254
▁hmotnosti	-11.1254
▁zřízení	-11.1255
▁menu	-11.1256
nášel	-11.1256
ingu	-11.126
▁jízd	-11.1261
▁Budou	-11.1261
▁budově	-11.1261
71	-11.1267
▁dav	-11.1267
platí	-11.1267
▁komu	-11.1271
▁tvrdil	-11.1274
▁vystřídal	-11.1274
▁kraj	-11.1275
▁materiálem	-11.1276
▁hrou	-11.1278
▁stadiónu	-11.1279
▁týdenní	-11.1282
▁vedoucích	-11.1283
▁hráli	-11.1284
▁magistrátu	-11.1285
▁studenty	-11.1286
ovce	-11.1288
PT	-11.1289
▁elektron	-11.1289
▁procesoru	-11.129
▁podzimní	-11.1291
part	-11.1295
▁Rozhodn	-11.1296
▁výhodu	-11.1298
▁Potřebuje	-11.1299
▁známá	-11.1302
CP	-11.1302
▁energetický	-11.1304
▁vyz	-11.1304
dent	-11.1306
▁narazil	-11.1306
▁zdát	-11.1312
vesel	-11.1314
může	-11.1316
přijeli	-11.1318
▁krokem	-11.1318
▁ředitelem	-11.1319
▁evropským	-11.132
▁volí	-11.1321
▁čínský	-11.1321
tání	-11.1322
▁obchodníků	-11.1324
ptal	-11.1325
▁ekologický	-11.1327
▁básník	-11.1328
▁lesa	-11.1328
▁zvýšily	-11.1329
▁záměry	-11.1329
▁strávil	-11.1332
▁projevy	-11.1333
visí	-11.1334
▁jugoslávské	-11.1336
▁odpovědnosti	-11.1338
▁aktivitu	-11.1339
▁rozpočtové	-11.134
ria	-11.134
▁prázdnin	-11.134
▁vloni	-11.1342
nášejí	-11.1346
▁úpravu	-11.1346
▁stávající	-11.1348
▁starého	-11.1349
▁sestavy	-11.1351
▁barva	-11.1351
▁celostátní	-11.1354
▁snadné	-11.1359
▁podpořit	-11.136
▁ranní	-11.1362
▁vytvořila	-11.1362
▁Er	-11.1362
▁přehledu	-11.1363
▁prožil	-11.1367
▁dlužník	-11.1374
▁muselo	-11.1374
▁přírodního	-11.138
▁doplňk	-11.1382
▁jedenácti	-11.1384
▁fyzika	-11.1386
▁kout	-11.1388
▁plocha	-11.139
▁jest	-11.1391
ďte	-11.1393
▁černý	-11.1397
▁předchozím	-11.1397
▁Let	-11.1398
IST	-11.14
▁objevili	-11.1404
▁syna	-11.1405
tvo	-11.1406
zdrav	-11.1409
měnit	-11.1412
▁člověku	-11.1416
▁Stal	-11.1418
▁procesy	-11.142
cová	-11.1421
▁správce	-11.1422
▁struktur	-11.1423
▁5000	-11.1428
▁závody	-11.1435
hlédnout	-11.1437
▁praví	-11.1441
▁28.	-11.1443
▁znal	-11.1451
▁obrazy	-11.1458
▁rozpad	-11.1465
▁sval	-11.1467
▁odborn	-11.1469
▁datové	-11.147
▁západním	-11.1471
▁rozhodnutím	-11.1471
▁výtvarné	-11.1472
elů	-11.1473
▁klasick	-11.1478
ust	-11.148
pustili	-11.1482
▁pedagog	-11.1483
▁specifik	-11.1487
▁horské	-11.1492
▁Mé	-11.15
zaměstnan	-11.1503
▁kroku	-11.1505
▁Své	-11.1513
ME	-11.1515
▁významným	-11.1517
ložení	-11.1528
off	-11.1528
▁přesvědčiv	-11.1529
▁kup	-11.1529
ité	-11.1531
▁nesouhlas	-11.1533
▁konkrétních	-11.1533
▁Win	-11.1535
▁jist	-11.1537
▁jednáních	-11.1537
▁vědeck	-11.1538
▁závažný	-11.1539
▁Zlín	-11.154
75	-11.1541
▁dával	-11.1545
▁křiv	-11.155
▁sběr	-11.1551
nějších	-11.1555
▁prac	-11.1557
▁SV	-11.1558
▁texty	-11.1561
▁Hr	-11.1564
▁Rozhod	-11.1564
▁minulost	-11.1566
▁testy	-11.1567
▁Kohl	-11.1569
počíta	-11.157
▁vzpomínk	-11.1579
▁prodejem	-11.158
▁zmíněn	-11.158
lín	-11.1582
▁desetin	-11.1586
▁probíhal	-11.1586
▁Fond	-11.1586
▁náročný	-11.1587
▁stadión	-11.1587
▁okruh	-11.1587
▁fakta	-11.1592
▁vyskytují	-11.1592
▁sledoval	-11.1593
novými	-11.1593
▁způsobů	-11.1597
▁žijí	-11.1597
▁volebním	-11.1599
ezi	-11.1602
▁99	-11.1604
rok	-11.1608
▁260	-11.161
▁setká	-11.1611
▁taky	-11.1616
▁grafik	-11.1617
▁seminář	-11.1619
otisk	-11.1622
▁mikro	-11.1622
ill	-11.1624
▁svobodné	-11.1624
čné	-11.1626
▁Št	-11.1629
razil	-11.1629
▁každoročn	-11.163
▁doplněn	-11.1631
▁vrstev	-11.1634
▁převážn	-11.1634
▁klima	-11.1636
povídá	-11.1637
▁druhému	-11.1638
▁kg	-11.1639
▁kamer	-11.1643
▁stole	-11.1644
▁přesahuj	-11.1648
▁Graf	-11.1654
▁neumí	-11.1654
▁množ	-11.1656
▁zpěv	-11.1658
▁směn	-11.1659
▁strážník	-11.166
▁Mečiar	-11.166
látka	-11.1661
▁1982	-11.1662
▁Dienstbier	-11.1662
▁Dosavadní	-11.1662
▁Fischer	-11.1662
▁Poldi	-11.1662
▁Siemens	-11.1662
▁Skupina	-11.1662
▁design	-11.1662
▁dodávek	-11.1662
▁družstvo	-11.1662
▁družstvu	-11.1662
▁geometrii	-11.1662
▁inflaci	-11.1662
▁konstrukcí	-11.1662
▁naznačuje	-11.1662
▁neuspěl	-11.1662
▁normálně	-11.1662
▁posléze	-11.1662
▁přiznává	-11.1662
▁regenerace	-11.1662
▁rekonstrukce	-11.1662
▁rozšiřuje	-11.1662
▁rámečku	-11.1662
▁seznámit	-11.1662
▁shodují	-11.1662
▁skupenství	-11.1662
▁službě	-11.1662
▁stránku	-11.1662
▁zákrok	-11.1662
▁zúčastnit	-11.1662
▁Štědrý	-11.1662
▁Armád	-11.1662
▁Kongres	-11.1662
▁Náklady	-11.1662
▁uznat	-11.1662
▁vládnoucí	-11.1662
▁vstupenek	-11.1662
▁čistíren	-11.1662
▁nabídkou	-11.1662
▁Bavor	-11.1662
▁žádat	-11.1662
▁usiluje	-11.1662
▁jindy	-11.1662
▁leckd	-11.1662
▁velvyslanectví	-11.1662
▁Manžel	-11.1662
▁Varech	-11.1662
▁audio	-11.1662
▁vazba	-11.1662
krácen	-11.1662
▁náhlé	-11.1662
▁Dušan	-11.1662
▁Slavia	-11.1662
▁směřuje	-11.1662
▁integrace	-11.1662
▁duševní	-11.1662
▁salát	-11.1662
▁spoléha	-11.1662
▁transformační	-11.1662
▁rozmístěn	-11.1662
▁nesporn	-11.1662
▁regulační	-11.1662
▁Rozhodnutí	-11.1662
▁ohně	-11.1662
střelen	-11.1662
▁chuť	-11.1662
▁nejsem	-11.1663
▁podrobnosti	-11.1663
allye	-11.1664
ckner	-11.1664
▁atmosféra	-11.1664
▁přejít	-11.1664
▁turné	-11.1664
▁informován	-11.1664
▁nedošlo	-11.1664
▁památek	-11.1664
▁svatb	-11.1664
▁napaden	-11.1664
▁kontrolovat	-11.1664
▁stíhán	-11.1664
▁slunce	-11.1665
▁nepotřebuje	-11.1665
▁Bělohradský	-11.1665
▁Milán	-11.1665
▁Těžko	-11.1667
ukce	-11.1669
▁souhlasit	-11.1671
▁kůže	-11.1671
▁zajistí	-11.1671
▁středisko	-11.1672
▁pravděpodobné	-11.1672
▁Nadace	-11.1672
▁faktory	-11.1672
▁sedimentů	-11.1673
▁matka	-11.1673
▁Krát	-11.1674
▁způsoben	-11.1674
▁hlásí	-11.1675
▁sedmdesátých	-11.1676
▁pěkně	-11.1676
▁anglický	-11.1677
▁kdykoliv	-11.1678
▁vzrůst	-11.1679
▁přeměn	-11.168
▁armádu	-11.1681
▁šedesátých	-11.1681
▁plná	-11.1681
▁upozornění	-11.1682
▁olympiádě	-11.1682
▁Los	-11.1682
▁dokázat	-11.1682
▁zaslouží	-11.1683
▁polské	-11.1683
▁středisku	-11.1684
▁spojů	-11.1685
▁švédské	-11.1685
▁literatury	-11.1687
▁zbytky	-11.1687
▁moři	-11.1688
▁Případ	-11.169
▁záruky	-11.1691
▁ohrožen	-11.1692
▁sféry	-11.1693
▁dotazník	-11.1694
▁zveřejnění	-11.1694
▁velkoobchod	-11.1696
▁interní	-11.1696
▁dostaneme	-11.1697
▁luxusní	-11.1699
▁slibuje	-11.17
7,	-11.1702
▁univerzitě	-11.1705
▁uspořádal	-11.1705
▁mise	-11.1708
▁zuby	-11.1709
▁olympiády	-11.1709
▁uživatelé	-11.171
zem	-11.1711
▁nešlo	-11.1711
▁značná	-11.1711
▁postupovat	-11.1712
▁složitý	-11.1715
▁senátní	-11.1716
▁činů	-11.1716
▁závažné	-11.1718
▁zničení	-11.1719
▁zodpovědnost	-11.1721
▁tlakem	-11.1721
▁zásadě	-11.1721
tický	-11.1723
schopné	-11.1723
stanou	-11.1725
▁svazové	-11.1726
▁rozhovorů	-11.1727
▁popisuje	-11.1727
▁spojuje	-11.1728
mana	-11.1728
▁dividendy	-11.173
▁oddíl	-11.1731
nete	-11.1732
▁doklady	-11.1734
▁fotbalista	-11.1734
▁Konce	-11.1736
▁výstavní	-11.1736
▁Fotbalist	-11.1737
▁příspěvku	-11.1744
lip	-11.1745
například	-11.1746
rez	-11.1746
roj	-11.1746
▁alkoholu	-11.1747
▁jednal	-11.1747
▁metodou	-11.1748
▁zprávě	-11.1749
▁garant	-11.175
▁ducha	-11.175
VI	-11.175
staví	-11.1751
▁měří	-11.1752
▁Ex	-11.1753
▁samy	-11.1755
DI	-11.1757
▁nutnosti	-11.1757
▁pla	-11.1758
▁klienty	-11.1758
▁mateřské	-11.176
PS	-11.1762
▁pacienti	-11.1763
▁Asie	-11.1764
▁silným	-11.1764
▁úspěchem	-11.1765
▁výnosy	-11.1765
vané	-11.1766
▁argumenty	-11.1766
▁strategické	-11.1766
▁smluv	-11.1768
▁překlad	-11.1768
▁pozná	-11.1769
▁Změny	-11.177
▁proudu	-11.1772
▁automobilový	-11.1775
▁stopy	-11.1775
▁Lékaři	-11.1777
▁CS	-11.1778
▁obory	-11.178
▁nastala	-11.1783
▁množstvím	-11.1787
▁elektro	-11.1789
teče	-11.1793
potřeb	-11.1794
danou	-11.1795
▁přirozený	-11.1796
▁pr	-11.1799
tisícov	-11.1801
▁hus	-11.1801
▁Vítěz	-11.1804
▁městského	-11.1804
hel	-11.1805
▁tělesné	-11.1806
ováni	-11.181
▁klíčové	-11.1814
▁prohráli	-11.1814
▁slovem	-11.1814
▁příslušného	-11.1814
Přerov	-11.1816
▁trvání	-11.1816
26	-11.1822
▁manažerské	-11.1822
▁pojistného	-11.1823
bran	-11.1824
▁republikou	-11.1825
▁přípravu	-11.1826
▁prezidentský	-11.1829
▁minutě	-11.1837
▁závěrečném	-11.1838
▁podepsali	-11.1841
▁daních	-11.1845
▁of	-11.1847
▁vlak	-11.185
▁špatný	-11.1851
kový	-11.1855
▁souboj	-11.1857
▁propadl	-11.1858
▁zahájením	-11.1858
▁psycholog	-11.186
▁smí	-11.1862
▁krátk	-11.1862
▁tvrdý	-11.1869
▁propad	-11.1869
tažení	-11.1869
▁přím	-11.187
und	-11.1875
▁tenisové	-11.1876
▁Mí	-11.1888
jasn	-11.1894
▁připraveny	-11.1897
▁poradensk	-11.1899
▁návrhem	-11.1899
kázal	-11.19
ečná	-11.1901
▁dělal	-11.1902
▁úspěchy	-11.1902
▁nájem	-11.1903
▁obal	-11.1908
▁staro	-11.1909
▁získaný	-11.1909
stru	-11.1913
▁dluh	-11.1914
▁závodník	-11.1916
▁loňsk	-11.1922
▁řek	-11.1925
▁poklesl	-11.1927
▁aktiv	-11.1927
▁proveden	-11.193
▁podlehl	-11.1939
▁vražd	-11.194
▁nějakém	-11.1943
▁potřebn	-11.1944
▁předmět	-11.1946
▁ekonomického	-11.1947
▁jinému	-11.1954
▁původ	-11.1963
▁figur	-11.1964
▁takovému	-11.1966
▁známým	-11.1969
▁troj	-11.1971
▁efektu	-11.1978
▁red	-11.1982
▁stě	-11.1985
CD	-11.1985
▁Nemoh	-11.1986
▁Poslanec	-11.1989
▁kroků	-11.199
▁nemohla	-11.1991
▁reáln	-11.1993
sadil	-11.1998
,4	-11.1999
▁Val	-11.2
▁Tomu	-11.2005
▁Karadžiče	-11.2013
díl	-11.2015
▁personál	-11.2015
bře	-11.2028
▁říkal	-11.2032
▁zajímav	-11.2034
▁samot	-11.2035
▁dosah	-11.2035
eme	-11.2037
▁malým	-11.2037
▁900	-11.2041
▁0,	-11.2042
▁Mel	-11.2042
▁útočník	-11.2042
▁Podstatn	-11.2042
▁zvláštním	-11.2043
zřetelně	-11.2044
▁astronomi	-11.2045
ině	-11.2045
▁Kanad	-11.2046
bírá	-11.2052
▁Mal	-11.2053
▁Vaše	-11.2054
▁volb	-11.2058
▁rizik	-11.2058
▁pokrok	-11.2062
▁důvěry	-11.2062
▁Washington	-11.2064
▁prestiž	-11.2066
ložili	-11.2069
▁prokázal	-11.207
místě	-11.2075
▁priorit	-11.2075
▁Výrob	-11.2078
čel	-11.2078
▁plném	-11.2083
▁sedmdesát	-11.2083
▁22.	-11.2085
▁balík	-11.2085
▁úprava	-11.2085
cvič	-11.2088
jedna	-11.2089
▁užívá	-11.209
▁svobodný	-11.2091
▁strop	-11.2092
▁dosavadních	-11.2096
▁Pal	-11.2098
▁trvající	-11.2105
▁Východ	-11.2105
vedli	-11.2105
lské	-11.2108
následoval	-11.2109
▁projevu	-11.211
▁Motor	-11.2111
ějších	-11.2112
ňoval	-11.2114
▁nejedn	-11.2115
rozměr	-11.2116
▁Objekt	-11.2119
▁inženýr	-11.2119
▁jakými	-11.2123
▁filozof	-11.2124
▁dokončen	-11.2125
▁kapitálové	-11.2127
▁vašem	-11.2127
▁vyvoláva	-11.2129
sadit	-11.213
▁vyv	-11.213
nejvýš	-11.2131
▁toku	-11.2135
faktor	-11.2135
▁všemu	-11.2135
▁Zálež	-11.2137
▁organizáto	-11.2137
zřídka	-11.2138
▁Jindřich	-11.2138
▁Michail	-11.2138
▁aplikaci	-11.2138
▁důležitou	-11.2138
▁fosilní	-11.2138
▁kanalizace	-11.2138
▁kariéru	-11.2138
▁komunistů	-11.2138
▁konkurent	-11.2138
▁lehké	-11.2138
▁obrátit	-11.2138
▁ovlivnit	-11.2138
▁podmínkám	-11.2138
▁popularit	-11.2138
▁přirozeně	-11.2138
▁referenda	-11.2138
▁rubrik	-11.2138
▁snižovat	-11.2138
▁svědky	-11.2138
▁ubytovací	-11.2138
▁výpovědi	-11.2138
▁zneužití	-11.2138
▁jedinců	-11.2138
▁přírodu	-11.2138
▁stupeň	-11.2138
▁válku	-11.2138
▁Atlantiku	-11.2138
▁Karpov	-11.2138
▁budoucna	-11.2138
▁zbaven	-11.2138
▁Boyle	-11.2138
▁Kreslení	-11.2138
▁týče	-11.2138
▁administrativní	-11.2138
▁antropologie	-11.2138
▁mzda	-11.2138
▁politicky	-11.2138
▁kombinace	-11.2138
▁zkrátka	-11.2138
▁Lendl	-11.2138
▁přivezl	-11.2138
▁hokejisté	-11.2138
▁češtině	-11.2138
▁smečky	-11.2138
▁Španělska	-11.2138
▁dívat	-11.2138
▁stavět	-11.2138
▁dostupné	-11.2138
▁příjezd	-11.2138
▁image	-11.2138
▁nezmění	-11.2138
▁prapor	-11.2138
▁staletí	-11.2139
▁příznivců	-11.2139
▁Intel	-11.2139
▁nohou	-11.2139
▁ocenil	-11.2139
▁Zdeňk	-11.2139
▁nezbývá	-11.2139
▁sektor	-11.2139
▁zázrak	-11.2139
▁1980	-11.2139
▁Minul	-11.2139
▁Optima	-11.2139
▁psů	-11.214
▁plnit	-11.214
▁ligový	-11.214
▁liberální	-11.214
▁Říká	-11.2141
▁nápln	-11.2141
▁Příští	-11.2141
▁kontrakt	-11.2141
▁Peck	-11.2141
▁Konec	-11.2142
▁jídla	-11.2142
▁vítr	-11.2142
▁solidní	-11.2142
▁varování	-11.2142
▁Pokus	-11.2142
▁matky	-11.2142
▁setkáváme	-11.2144
▁2,5	-11.2144
▁vyměnit	-11.2145
▁převést	-11.2146
▁chybět	-11.2147
▁hlasovat	-11.2147
▁Škol	-11.2147
▁znečištění	-11.2147
▁kurt	-11.2147
▁ráj	-11.2147
konců	-11.2149
AM	-11.2149
▁EU	-11.2149
▁výraznější	-11.215
▁stavba	-11.215
▁etapě	-11.2151
▁získáva	-11.2151
▁vystoupí	-11.2152
▁extrémní	-11.2153
▁vyřešen	-11.2155
▁vojáky	-11.2155
▁knížky	-11.2155
▁vítěze	-11.2157
▁Říman	-11.2158
▁povahy	-11.2158
▁Belgii	-11.2159
▁polární	-11.216
▁KDU	-11.2161
▁vybudování	-11.2163
▁kanálů	-11.2164
▁osnov	-11.2165
▁kluk	-11.2166
▁uvolnění	-11.2166
▁detailní	-11.2167
stává	-11.2167
▁komet	-11.2167
▁částkou	-11.2168
▁oken	-11.2168
▁kontinentu	-11.2169
přesněji	-11.2169
▁prodávající	-11.2169
▁zvládnout	-11.217
▁distributor	-11.2174
▁expertů	-11.2176
▁kořeny	-11.2177
▁volbou	-11.2178
reform	-11.2179
DOS	-11.2179
▁tržby	-11.2181
▁Blízké	-11.2182
▁př	-11.2183
▁Maďarsko	-11.2184
▁učení	-11.2184
▁stán	-11.2186
ance	-11.2187
▁uzavřena	-11.2187
▁uchazečů	-11.2187
▁brněnsk	-11.2187
▁kapacitou	-11.2189
▁krevní	-11.219
ičtější	-11.2191
umět	-11.2191
▁starostí	-11.2191
▁vyšla	-11.2191
▁arabské	-11.2191
▁stavbě	-11.2192
▁úseku	-11.2195
▁Předpokládá	-11.2196
▁nepr	-11.2196
▁čistě	-11.2197
▁krvi	-11.22
▁nemocí	-11.2202
▁subjektů	-11.2202
▁průměrně	-11.2203
▁podobným	-11.2205
▁současným	-11.2206
▁uvedli	-11.2208
▁Vesmíru	-11.2209
▁play	-11.2209
bývalo	-11.221
▁prestižní	-11.221
nder	-11.2211
▁důsledk	-11.2213
berg	-11.2215
▁strukturu	-11.2217
▁Voda	-11.2218
▁krajní	-11.2219
▁oceněn	-11.222
▁Bank	-11.2221
býval	-11.2221
ňovat	-11.2221
▁odběratelů	-11.2221
koro	-11.2222
slovní	-11.2225
▁Vlast	-11.2225
ozi	-11.2226
třel	-11.2227
▁spis	-11.2227
ždyť	-11.2231
▁okraji	-11.2234
▁zaručen	-11.2236
▁37	-11.2237
▁obchodě	-11.2238
▁zásahu	-11.224
▁mozkov	-11.2242
▁mechaniku	-11.2244
dnes	-11.2245
▁logicky	-11.225
▁elektrický	-11.225
▁vytvořili	-11.2256
nda	-11.2256
▁top	-11.2257
▁veškerý	-11.2262
▁právem	-11.227
▁témata	-11.2271
hraje	-11.2272
▁turnaji	-11.2272
▁tvary	-11.2273
▁elektronické	-11.2274
▁manažerů	-11.2274
▁hosty	-11.2274
▁obhájce	-11.228
▁německým	-11.2284
▁vlastními	-11.2289
▁přijali	-11.2291
▁Pel	-11.2292
▁krásné	-11.2292
▁vedly	-11.2293
▁zadní	-11.2294
▁majitelů	-11.2296
▁dějiny	-11.2296
▁záznamové	-11.2299
▁komentář	-11.23
▁náhod	-11.2305
▁HZDS	-11.2306
ica	-11.2306
▁formul	-11.2307
▁maďarské	-11.231
▁350	-11.2312
▁fin	-11.2316
ruh	-11.2319
ues	-11.2321
▁Car	-11.2323
▁relativní	-11.2324
▁slev	-11.2325
▁Masarykov	-11.2327
měrně	-11.2327
▁vydala	-11.2327
▁Bre	-11.2328
místo	-11.2334
▁ztratila	-11.2337
▁odpad	-11.2341
▁zachován	-11.2342
▁počítačov	-11.2344
jednat	-11.2344
▁poměry	-11.2345
▁vítězů	-11.2345
šetří	-11.2346
▁statistik	-11.2347
řejmě	-11.2349
▁slabý	-11.2357
▁Jelcinov	-11.2361
▁hotové	-11.2361
enou	-11.2364
▁Kla	-11.2365
▁projednáva	-11.2366
▁náhle	-11.2374
▁občana	-11.2375
▁vodě	-11.2376
▁studoval	-11.2377
▁automatické	-11.2379
▁div	-11.238
▁Mag	-11.2383
▁přesný	-11.2384
▁bio	-11.2386
šování	-11.2386
skými	-11.2387
.12.	-11.2389
tedy	-11.239
▁písmen	-11.2392
příč	-11.24
▁horský	-11.24
▁zabit	-11.2403
▁smut	-11.2412
▁elektronický	-11.2416
▁kontaktu	-11.2419
▁1500	-11.2419
▁čištění	-11.2422
▁obyčejný	-11.2425
VÍ	-11.2429
▁potvrdila	-11.2433
▁významně	-11.2433
▁historické	-11.2435
OST	-11.2441
bude	-11.2441
▁kritický	-11.2443
▁kmen	-11.2445
▁atomové	-11.2447
▁mís	-11.2454
21	-11.2458
▁předání	-11.246
▁důchod	-11.2461
cími	-11.2461
▁dcer	-11.2463
dni	-11.2469
jdu	-11.247
▁konečn	-11.2473
HA	-11.2482
▁ráz	-11.2482
stupovat	-11.2483
dají	-11.2485
▁provozovatel	-11.2485
znamenat	-11.2489
▁jugoslávsk	-11.2491
▁rozv	-11.2491
▁kostel	-11.2492
▁hromadné	-11.2493
▁jednotné	-11.2494
▁chud	-11.2494
▁kolektiv	-11.25
NC	-11.2503
prázdn	-11.2514
▁smrtí	-11.2514
dvacet	-11.2516
▁následujícím	-11.252
▁jih	-11.2528
dejme	-11.2529
▁stanovené	-11.2537
▁Staré	-11.2537
▁klesl	-11.2538
▁mandát	-11.2544
▁výprav	-11.2544
▁Pražsk	-11.2546
▁arabský	-11.2546
UJE	-11.2549
▁týmů	-11.2552
45	-11.2552
▁cenové	-11.2553
▁staveb	-11.2555
hradit	-11.2557
▁zemědělců	-11.2559
▁index	-11.2561
▁závad	-11.2562
▁Kazachstán	-11.2563
lčí	-11.2563
ografie	-11.2564
▁pouští	-11.2564
▁Svaz	-11.2565
▁kolech	-11.2565
▁(2	-11.2566
▁jednotlivým	-11.2568
▁otevřený	-11.2568
▁používal	-11.2569
▁týkají	-11.2569
▁Husov	-11.257
▁intenzit	-11.2571
▁Čtyři	-11.2572
pisuje	-11.2572
▁předpis	-11.2572
▁rakovin	-11.2572
▁nejlepšího	-11.2572
▁jejími	-11.2575
▁spodní	-11.2582
ong	-11.2583
krývají	-11.2587
dpověď	-11.2589
▁odpovídají	-11.2589
řádně	-11.2589
vát	-11.259
▁blíží	-11.2593
▁zpětn	-11.2594
▁medaili	-11.2594
▁moravské	-11.2594
▁oddělen	-11.2598
▁ráda	-11.2599
oma	-11.2599
hem	-11.26
▁mluvil	-11.2603
▁prst	-11.2603
▁ceník	-11.2606
▁publikován	-11.2607
▁nádor	-11.2608
dělat	-11.2608
▁Dokon	-11.261
▁očí	-11.261
▁komunismu	-11.2611
▁hrálo	-11.2619
hý	-11.2622
▁cit	-11.2623
▁výkonnost	-11.2624
▁norma	-11.2625
▁sportovním	-11.2626
▁Závěr	-11.2628
CO	-11.2629
▁vývojem	-11.2629
bývající	-11.2632
▁vzniklé	-11.2634
olicejní	-11.2635
▁Klepn	-11.2636
▁dlouhodobě	-11.2637
▁zoufal	-11.2637
▁konzerv	-11.2638
▁mobilní	-11.2638
peptid	-11.2638
▁Doufám	-11.2638
▁Výsledek	-11.2638
▁Wembley	-11.2638
▁anonymní	-11.2638
▁cizinců	-11.2638
▁definovat	-11.2638
▁dětmi	-11.2638
▁evidenci	-11.2638
▁humanitární	-11.2638
▁intenzivně	-11.2638
▁komfort	-11.2638
▁království	-11.2638
▁lhůty	-11.2638
▁nabídnut	-11.2638
▁neúspěch	-11.2638
▁otázkách	-11.2638
▁připomenout	-11.2638
▁revoluce	-11.2638
▁sankce	-11.2638
▁sleduje	-11.2638
▁sportovci	-11.2638
▁uhličitého	-11.2638
▁umístit	-11.2638
▁upozorňují	-11.2638
▁veřejnou	-11.2638
▁zajistil	-11.2638
▁zdravotně	-11.2638
▁zvyšovat	-11.2638
▁Komora	-11.2638
▁LDS	-11.2638
▁Mostaru	-11.2638
▁Názor	-11.2638
▁Poborského	-11.2638
▁Výjimk	-11.2638
▁komisí	-11.2638
▁nepatří	-11.2638
▁potravy	-11.2638
▁skener	-11.2638
▁srpnu	-11.2638
▁série	-11.2638
▁řekněme	-11.2638
pomáhal	-11.2638
▁MHz	-11.2638
▁pátý	-11.2638
▁užitečné	-11.2638
skočit	-11.2638
▁pozemků	-11.2638
▁stačit	-11.2638
▁týdnu	-11.2638
▁Ústí	-11.2638
▁projednávání	-11.2638
▁Prahu	-11.2638
▁vyhověl	-11.2638
▁tvůrčí	-11.2638
▁zážitek	-11.2638
▁obránce	-11.2638
▁chemie	-11.2638
▁shluk	-11.2638
▁letišti	-11.2638
▁minimum	-11.2638
▁nebrání	-11.2638
▁modernizaci	-11.2638
▁turisté	-11.2638
▁opačný	-11.2638
▁Bohemia	-11.2638
▁vykonávat	-11.2638
▁počáteční	-11.2638
▁zaslal	-11.2638
▁kostým	-11.2638
▁remíz	-11.2638
▁Filip	-11.2638
▁realizaci	-11.2638
▁karet	-11.2638
▁proběhla	-11.2638
▁HGF	-11.2638
vážet	-11.2638
▁1948	-11.2638
▁román	-11.2638
▁převzetí	-11.2638
▁emise	-11.2639
▁diskusí	-11.2639
▁dovoluje	-11.2639
▁přesné	-11.2639
▁léčení	-11.2639
▁dvojnásobek	-11.2639
▁experimentální	-11.2639
▁cítit	-11.2639
▁tmav	-11.2639
▁atmosféru	-11.2639
▁Spolu	-11.264
▁Chang	-11.264
▁výrobku	-11.264
beton	-11.264
▁půjčky	-11.264
▁videa	-11.264
▁ošetření	-11.2641
▁budování	-11.2641
▁přestane	-11.2641
▁ČZ	-11.2641
▁čist	-11.2641
▁Ukázal	-11.2642
▁očima	-11.2642
IP	-11.2642
▁rozdělit	-11.2642
▁oblib	-11.2642
▁tabulku	-11.2643
▁prosím	-11.2643
▁potřebovat	-11.2643
▁venku	-11.2644
▁nahoru	-11.2644
▁nechci	-11.2646
7%	-11.2646
▁Chorvat	-11.2646
sté	-11.2648
▁podruhé	-11.2649
▁čelní	-11.2649
▁Pojišťovna	-11.2651
▁ušetří	-11.2651
▁centrem	-11.2652
▁ostrovů	-11.2654
▁stěžují	-11.2654
▁stanov	-11.2655
▁prvek	-11.2656
▁policisty	-11.2656
▁běže	-11.2656
▁věřím	-11.2656
▁vybere	-11.2657
▁diplomatické	-11.2659
dělování	-11.2659
▁opravu	-11.266
▁odráž	-11.266
▁podobnost	-11.2661
▁vycházet	-11.2662
▁přišly	-11.2663
▁Důvodem	-11.2664
▁prostorách	-11.2665
▁odmítnut	-11.2666
▁národnostní	-11.2669
▁kontrolou	-11.267
▁užitku	-11.2672
▁odměny	-11.2673
▁prodejně	-11.2674
▁stížnosti	-11.2675
▁problematiku	-11.2675
▁technikou	-11.2675
▁akciov	-11.2679
▁Smlouva	-11.2681
▁semináře	-11.2681
▁architektury	-11.2683
▁novela	-11.2683
▁změnách	-11.2684
▁podoby	-11.2684
▁způsobit	-11.2685
▁Olomouce	-11.2685
vádějí	-11.2686
▁prů	-11.2686
▁volit	-11.2686
▁zrušen	-11.2686
▁sehnat	-11.2688
▁voliči	-11.269
▁biologick	-11.269
▁Film	-11.2691
▁reklamní	-11.2691
▁opravě	-11.2693
▁vydělal	-11.2694
▁vlastníkem	-11.2695
▁plní	-11.2697
enc	-11.2697
▁125	-11.2697
▁dělníků	-11.27
▁vzdal	-11.2701
▁chladu	-11.2704
▁Seznam	-11.2708
▁ledový	-11.271
▁požadavkům	-11.2712
šp	-11.2713
▁různ	-11.2715
▁krav	-11.2719
▁posil	-11.272
▁černo	-11.2722
▁rozpadu	-11.2722
▁vstupuje	-11.2725
ávání	-11.2726
▁izraelský	-11.273
▁Švédsku	-11.273
▁novinářům	-11.273
▁pracujících	-11.273
▁rozhovory	-11.273
▁SD	-11.273
íček	-11.2731
▁stromy	-11.2735
▁Lab	-11.2735
▁udělali	-11.2738
▁hovořili	-11.2739
▁výjimečn	-11.2739
▁odstup	-11.274
▁nevíme	-11.2743
▁rostliny	-11.2746
▁Mac	-11.2746
▁kruhy	-11.2747
▁úmyslu	-11.2748
▁chybu	-11.2749
▁ústavů	-11.2749
▁Lig	-11.275
▁Egypt	-11.2751
▁Tým	-11.2751
▁potenciálu	-11.2752
▁Nobelov	-11.2754
▁As	-11.2755
▁stříbrné	-11.2756
▁mistry	-11.2759
▁lize	-11.276
▁IV	-11.2761
US	-11.2762
▁tempo	-11.2763
▁rozhodlo	-11.2765
▁ostravské	-11.2765
▁zněl	-11.2766
▁procesů	-11.2767
▁předběžn	-11.2767
▁závěrečný	-11.2769
▁klubem	-11.277
▁Kup	-11.2773
▁naprosté	-11.2775
▁podrob	-11.2777
▁rodné	-11.278
pracovat	-11.2781
▁26.	-11.2785
▁výkladu	-11.2787
▁šestnácti	-11.2787
▁kart	-11.2789
▁deníku	-11.2789
mořsk	-11.279
izované	-11.2791
▁případný	-11.2792
▁domluv	-11.2792
▁skvělé	-11.2794
▁šíří	-11.2796
▁světu	-11.2796
▁plochu	-11.2796
▁Izraelsk	-11.2797
▁proviz	-11.2797
▁geny	-11.2798
48	-11.2801
▁Počítá	-11.2803
▁činila	-11.2807
▁vycházel	-11.2808
▁140	-11.2809
▁podoba	-11.2811
▁27.	-11.2816
▁obranné	-11.2816
▁Kdybych	-11.282
▁technik	-11.2821
▁jednoznačný	-11.2824
▁soupeřů	-11.2824
▁pat	-11.2825
▁komora	-11.2828
▁obdiv	-11.2828
▁položil	-11.2828
▁telefony	-11.2833
▁fotograf	-11.2835
▁papíry	-11.2839
▁kovy	-11.284
▁dle	-11.2843
▁věta	-11.2845
ker	-11.2851
▁hostů	-11.2851
▁43	-11.2851
▁Dal	-11.2854
▁24.	-11.2854
▁Řekl	-11.2862
išť	-11.2862
▁pocity	-11.2865
▁krajin	-11.2866
víme	-11.2869
▁nutný	-11.287
▁okraj	-11.2882
▁hlasu	-11.2882
▁budoucího	-11.2884
poloviční	-11.2889
▁Večer	-11.2889
▁těle	-11.2889
▁52	-11.2897
▁vydá	-11.2897
▁tvůrce	-11.2898
▁subjekt	-11.2899
cem	-11.29
sloužil	-11.2901
sídl	-11.2907
▁vel	-11.2913
SP	-11.2915
▁podnikatelům	-11.2917
▁naléhav	-11.293
procentní	-11.2931
▁obává	-11.2932
tických	-11.2932
▁Text	-11.2932
▁vyhráli	-11.2936
▁prodá	-11.294
▁efekty	-11.2942
iček	-11.2944
▁Výš	-11.2949
▁bohatý	-11.295
tito	-11.2952
rel	-11.2953
▁běžn	-11.2957
▁pozornosti	-11.296
rej	-11.296
▁procenty	-11.2961
áček	-11.2963
▁Západ	-11.2967
▁Turist	-11.2974
▁obviněn	-11.2974
▁Japonsko	-11.2979
▁Odbor	-11.298
▁soupeři	-11.298
▁mez	-11.2986
▁zákoně	-11.2987
▁popsán	-11.2996
▁nález	-11.2999
▁konzervativní	-11.3009
▁postupů	-11.3011
tická	-11.3011
▁zveřejněn	-11.3019
ohledně	-11.3023
▁Světov	-11.3023
bylo	-11.3025
▁zřízen	-11.3029
▁Všeobecn	-11.3034
▁odmítla	-11.3035
▁zákonu	-11.3037
projevilo	-11.3038
▁následuj	-11.3038
▁Mat	-11.3039
▁stolu	-11.3039
LED	-11.304
▁duch	-11.3044
▁fa	-11.3054
▁chirurg	-11.3057
▁výhodn	-11.3057
▁placen	-11.3059
▁dvojic	-11.306
▁Argentin	-11.3063
▁domácnost	-11.3067
▁stálé	-11.3068
▁děd	-11.3073
▁císař	-11.3074
▁nezná	-11.3077
▁sloužil	-11.3078
▁Zda	-11.3078
▁přízniv	-11.3079
▁zajištěn	-11.3085
▁požadavků	-11.3086
pouštějí	-11.3087
ávali	-11.3087
▁aparát	-11.3089
▁veletrh	-11.3089
▁veřejný	-11.309
▁šampionát	-11.3091
▁potrestán	-11.3094
▁účinnost	-11.3096
▁cigaret	-11.3097
▁napadl	-11.3097
▁rozbor	-11.3098
▁bílkovin	-11.3098
věří	-11.3099
▁vyžadují	-11.3103
▁tank	-11.3108
▁spolupracovník	-11.3111
▁prováze	-11.3113
▁červen	-11.3113
▁jednorázov	-11.3115
prostřed	-11.3115
▁strategický	-11.3116
těsn	-11.3117
▁poznal	-11.312
▁Rakušan	-11.3133
▁Angličan	-11.3134
▁Projekt	-11.3135
▁Jihlav	-11.3136
▁Důvod	-11.3136
tát	-11.3138
alternativ	-11.3141
ht	-11.3142
▁zpomal	-11.3142
▁nejvyšších	-11.3142
▁orchestr	-11.3146
▁výpočet	-11.3149
kají	-11.3149
DU	-11.3149
kování	-11.3156
▁prud	-11.3159
charakterizuj	-11.316
▁ženský	-11.3164
íků	-11.3164
▁Weizs	-11.3164
zrcadl	-11.3164
▁Benešov	-11.3164
▁Dvořák	-11.3164
▁Jednotliv	-11.3164
▁Lubomír	-11.3164
▁Náměst	-11.3164
▁cizinci	-11.3164
▁cizině	-11.3164
▁deklarace	-11.3164
▁informovat	-11.3164
▁kmitočt	-11.3164
▁komunisté	-11.3164
▁lékáren	-11.3164
▁lístky	-11.3164
▁medailí	-11.3164
▁minerální	-11.3164
▁ministerstev	-11.3164
▁nemožné	-11.3164
▁nevznik	-11.3164
▁nečekaně	-11.3164
▁opozici	-11.3164
▁oživení	-11.3164
▁redakci	-11.3164
▁restituční	-11.3164
▁skript	-11.3164
▁spánku	-11.3164
▁stadia	-11.3164
▁stoupenc	-11.3164
▁struktuře	-11.3164
▁svatební	-11.3164
▁tabulátor	-11.3164
▁tiskárna	-11.3164
▁uspokojení	-11.3164
▁výkyvy	-11.3164
▁zlepšil	-11.3164
▁zlepšit	-11.3164
▁zúčastní	-11.3164
▁řemesl	-11.3164
▁letadlo	-11.3164
▁nahrazen	-11.3164
▁válkou	-11.3164
▁penalt	-11.3164
▁preventivn	-11.3164
▁doplnit	-11.3164
▁ovládat	-11.3164
▁potrvá	-11.3164
▁slalom	-11.3164
▁účinný	-11.3164
▁pozemky	-11.3164
rozhodoval	-11.3164
▁zahájí	-11.3164
▁čáry	-11.3164
▁jídlo	-11.3164
▁porušil	-11.3164
▁jedinci	-11.3164
▁licence	-11.3164
▁Antonín	-11.3164
▁jedinečn	-11.3164
▁Trans	-11.3164
▁užívat	-11.3164
▁umístil	-11.3164
▁nestalo	-11.3164
▁vyrábějí	-11.3164
▁Něco	-11.3164
▁nejsilnější	-11.3164
pálil	-11.3164
▁ČSAV	-11.3164
▁nebudu	-11.3164
▁návštěvníci	-11.3164
▁kůži	-11.3164
▁Mazdy	-11.3164
▁žánr	-11.3164
▁USD	-11.3164
▁odvozen	-11.3164
▁tisíciletí	-11.3164
▁městečk	-11.3164
▁Maastrichtu	-11.3164
▁hornin	-11.3164
▁Schneider	-11.3165
▁koncentrací	-11.3165
▁dopředu	-11.3165
polí	-11.3165
▁lodi	-11.3165
▁léčba	-11.3165
▁otřes	-11.3165
▁vyloučit	-11.3165
krytí	-11.3165
▁vracejí	-11.3165
▁setkat	-11.3166
drželi	-11.3166
▁Krkonoších	-11.3166
▁úkor	-11.3166
▁jádra	-11.3166
▁Juli	-11.3166
lákat	-11.3167
▁mikroorganismů	-11.3167
▁kancléř	-11.3168
▁Nesmí	-11.3168
▁obrace	-11.3168
▁základnu	-11.3168
▁chybějící	-11.3169
▁náročnější	-11.3169
▁vykazuje	-11.3169
▁zkoušky	-11.3169
▁odškodnění	-11.3169
AG	-11.317
▁závazků	-11.3171
▁vydělat	-11.3171
▁SNS	-11.3172
bydlí	-11.3172
▁odmítnout	-11.3173
padal	-11.3173
izaci	-11.3173
▁přeháňky	-11.3173
▁posouzení	-11.3173
▁opakovat	-11.3174
▁víno	-11.3174
▁stručn	-11.3174
▁ČS	-11.3174
▁protokol	-11.3174
▁rozhodnuto	-11.3174
▁absurdní	-11.3175
▁hlavě	-11.3176
▁nemění	-11.3177
▁záložník	-11.3178
▁vidění	-11.3179
▁Chorvatsko	-11.318
▁středně	-11.318
▁Miloše	-11.318
▁linek	-11.318
▁Situace	-11.318
instalovat	-11.318
▁vyšetřovací	-11.3181
▁měřítku	-11.3183
▁střelec	-11.3183
▁mírou	-11.3183
▁ukládat	-11.3184
▁mém	-11.3184
▁varoval	-11.3185
▁popsat	-11.3186
▁Polsku	-11.3186
▁řetěz	-11.3188
▁vztahuje	-11.3188
▁letoun	-11.3189
▁rusk	-11.3189
▁Kap	-11.319
▁řádek	-11.3191
▁městská	-11.3191
▁myslíte	-11.3191
▁kartě	-11.3192
▁spokojenosti	-11.3193
▁soukrom	-11.3193
▁odvolal	-11.3194
▁rozhodujícím	-11.3195
pád	-11.3197
čila	-11.3198
▁Slovinska	-11.32
kládání	-11.3201
▁zájezdy	-11.3201
▁různá	-11.3202
kova	-11.3203
▁kádru	-11.3203
▁boku	-11.3203
▁kdybychom	-11.3203
▁zadání	-11.3203
▁vybral	-11.3204
▁jakkoli	-11.3204
▁tuzemských	-11.3205
isty	-11.3206
▁matematiky	-11.3206
▁údržbu	-11.3207
▁hovoru	-11.3208
▁profil	-11.3209
▁genů	-11.3209
▁islámské	-11.3211
▁počítají	-11.3213
▁rána	-11.3213
▁Bójů	-11.3215
▁stačilo	-11.3217
▁Star	-11.3219
▁partnerem	-11.322
▁fyziku	-11.3222
▁nalezení	-11.3222
▁terénu	-11.3223
▁vyplývající	-11.3223
▁kanálu	-11.3227
▁hit	-11.323
▁subjekty	-11.323
▁Váš	-11.3231
novu	-11.3232
▁soch	-11.3232
14	-11.3233
▁hranicích	-11.3234
staral	-11.3235
▁ruchu	-11.3236
▁Zemanov	-11.3236
pravit	-11.324
pír	-11.324
▁zlata	-11.3242
▁teoretické	-11.3242
▁Zd	-11.3244
▁přítele	-11.3244
▁jeskyn	-11.3244
užit	-11.3246
▁Věr	-11.3249
▁pracovním	-11.3249
▁Japonska	-11.3249
▁schémat	-11.325
▁řidiči	-11.325
tažením	-11.3253
letěl	-11.3254
▁hromadn	-11.3255
EK	-11.3255
▁dresu	-11.3256
▁pevně	-11.3257
▁volba	-11.326
▁účastníky	-11.3262
▁hrd	-11.3262
▁panel	-11.3263
▁délku	-11.3264
▁technick	-11.3265
▁typick	-11.3266
slovensk	-11.3267
éra	-11.3268
▁hormon	-11.3268
▁okresech	-11.3269
vající	-11.327
▁kostela	-11.327
▁určeno	-11.3271
yplývá	-11.3272
▁Doba	-11.3272
ota	-11.3273
strašně	-11.3274
▁hospodářský	-11.3275
▁testů	-11.3275
▁Dán	-11.3278
▁stávají	-11.3281
ini	-11.3281
zanedbateln	-11.3284
6.	-11.3286
▁znají	-11.3286
stával	-11.3288
hne	-11.3289
▁pouh	-11.329
▁variantu	-11.3291
▁obsazen	-11.3294
▁bodem	-11.3295
ph	-11.3297
▁autobus	-11.3297
▁informovali	-11.3299
▁iniciativa	-11.3302
▁standardu	-11.3303
▁výnosu	-11.3304
pozn	-11.3306
▁les	-11.3307
vedou	-11.3308
▁stěn	-11.331
▁dopisy	-11.3311
▁Kolek	-11.3313
▁hlava	-11.3315
AC	-11.3317
jištěn	-11.3322
zích	-11.3324
▁bytí	-11.3324
▁zůstaly	-11.3325
▁členské	-11.3325
▁trojic	-11.3327
▁hrubé	-11.3328
▁přenesen	-11.3329
▁regul	-11.333
stane	-11.333
▁servisu	-11.3334
dová	-11.3335
▁knihu	-11.3336
▁postižení	-11.3337
▁srovnatelné	-11.3344
▁linka	-11.3345
,7	-11.3346
▁chladn	-11.3346
anti	-11.3353
▁číslem	-11.3353
▁91	-11.3354
▁přinesla	-11.3355
tickou	-11.3356
▁přesvědčeni	-11.3356
▁ran	-11.3356
jedná	-11.3357
▁manžela	-11.3359
▁metodu	-11.336
▁bit	-11.3361
íš	-11.3368
hrají	-11.3369
▁Řek	-11.3369
▁úzké	-11.3369
▁časopise	-11.3372
▁válečné	-11.3373
▁radu	-11.3373
ectví	-11.3377
▁režiséra	-11.3377
▁stromů	-11.3382
▁ryby	-11.3384
▁tiskový	-11.3388
▁domnívám	-11.3393
▁způsobila	-11.3394
▁vníma	-11.3395
▁velkém	-11.3398
způsobují	-11.3399
likvid	-11.3405
▁rozumné	-11.3406
▁cílů	-11.3408
▁momentáln	-11.3408
▁jezdil	-11.3409
ČNÍ	-11.3411
▁kaly	-11.3413
▁drahá	-11.3413
lech	-11.343
▁ovladač	-11.3432
hlédl	-11.3435
drží	-11.344
dělal	-11.3441
trž	-11.3446
slat	-11.345
bírat	-11.345
▁dřevěný	-11.3451
pomínají	-11.3454
▁jakého	-11.3457
▁opor	-11.3459
▁magnet	-11.346
▁uši	-11.346
▁firmami	-11.3461
▁spotřebu	-11.3465
▁sešli	-11.3466
BA	-11.3466
▁manažera	-11.3466
▁útvar	-11.3466
▁konflikt	-11.3468
▁Boj	-11.3472
▁platu	-11.3472
mus	-11.3472
▁FIFA	-11.3475
▁speciálně	-11.3477
▁kurzor	-11.3479
žije	-11.348
▁přeprav	-11.349
▁počátk	-11.3493
▁příště	-11.3493
▁bohaté	-11.3497
▁příznivé	-11.35
▁životnost	-11.3502
▁ostrov	-11.3506
▁Jeli	-11.3506
▁zabýval	-11.3509
tika	-11.3512
▁Test	-11.3512
▁kapitálový	-11.3517
▁samotný	-11.352
▁bytě	-11.3521
hoře	-11.3522
▁stiskn	-11.3523
▁platil	-11.3526
▁chlad	-11.3528
ED	-11.353
▁42	-11.3531
▁srovnatelný	-11.3531
ÁT	-11.3532
ánek	-11.3535
▁využije	-11.3537
76	-11.3538
▁technologický	-11.3539
bojí	-11.3546
▁Král	-11.3548
dával	-11.3549
tovat	-11.3551
▁region	-11.3555
áků	-11.356
▁zobraz	-11.3563
▁řekli	-11.3567
▁poločase	-11.3567
▁stati	-11.3581
▁lidový	-11.3582
▁92	-11.3582
dávky	-11.3587
▁výtvarn	-11.3587
▁chovat	-11.359
▁některého	-11.3592
lidov	-11.3599
▁paliv	-11.36
vých	-11.3601
▁architekt	-11.3603
měl	-11.3607
▁vesnic	-11.3613
ČSSD	-11.3613
ČE	-11.3616
▁masov	-11.3618
▁poměrů	-11.3623
především	-11.3626
▁Atlant	-11.3628
▁SI	-11.3629
poslední	-11.363
▁zavedl	-11.3631
▁Označ	-11.3639
▁chodu	-11.3643
▁Telecom	-11.3643
▁věnuj	-11.3645
▁velko	-11.3647
▁rozhlas	-11.365
▁očekával	-11.3651
▁29.	-11.3651
▁doplň	-11.3651
▁stali	-11.3652
▁Slovan	-11.3654
▁podnět	-11.3655
▁zákoník	-11.3655
▁úkon	-11.3656
▁reklama	-11.3656
loží	-11.366
ers	-11.366
▁pochopil	-11.3663
▁pravém	-11.3665
▁nabídne	-11.3665
▁kyselin	-11.3668
▁bývalém	-11.3669
▁Sokol	-11.367
▁uskutečnil	-11.3672
▁vezme	-11.3673
jednala	-11.3673
▁Cup	-11.3675
dání	-11.3678
▁Znám	-11.3685
▁absolvoval	-11.3686
posled	-11.3686
etické	-11.3688
▁pokračují	-11.3689
▁oblačno	-11.369
▁Chomutov	-11.3691
▁chalup	-11.3691
▁umožňují	-11.3692
▁zkouš	-11.3692
▁účet	-11.3695
ight	-11.37
▁diagram	-11.3701
▁enzym	-11.3702
znamená	-11.3702
▁Republik	-11.3704
pomeňme	-11.3707
▁kontrol	-11.3707
hodnotit	-11.3708
jížděl	-11.371
▁překvapil	-11.371
▁Kol	-11.3711
▁provozovat	-11.3712
oba	-11.3712
▁násiln	-11.3715
▁vkus	-11.3716
▁roh	-11.3717
▁slyší	-11.3718
iletá	-11.3719
▁zjistí	-11.3719
▁Nejčastěj	-11.3719
▁zasvěcen	-11.3719
▁Podívej	-11.372
atlantick	-11.372
▁Bezpečnost	-11.372
▁Evropou	-11.372
▁Jupiter	-11.372
▁Letošní	-11.372
▁Moderní	-11.372
▁Naštěstí	-11.372
▁Olszewsk	-11.372
▁Stehlík	-11.372
▁Ukrajina	-11.372
▁burzy	-11.372
▁energií	-11.372
▁imunitní	-11.372
▁kandidovat	-11.372
▁krátkodobé	-11.372
▁laboratorní	-11.372
▁leccos	-11.372
▁mrtvé	-11.372
▁náleží	-11.372
▁následovat	-11.372
▁odlišné	-11.372
▁opozicí	-11.372
▁ozónu	-11.372
▁podotkl	-11.372
▁poskytne	-11.372
▁premiéře	-11.372
▁překážky	-11.372
▁restitucí	-11.372
▁seriózní	-11.372
▁stability	-11.372
▁televizor	-11.372
▁totalitní	-11.372
▁těžší	-11.372
▁viceprezident	-11.372
▁vzdělávání	-11.372
▁výkres	-11.372
▁výslovně	-11.372
▁zachránil	-11.372
▁znamení	-11.372
▁závislá	-11.372
▁získají	-11.372
▁Úspěšn	-11.372
▁úspěšnost	-11.372
▁Dukly	-11.372
▁Mandler	-11.372
▁Město	-11.372
▁Obvodní	-11.372
▁herečka	-11.372
▁položku	-11.372
▁vyžádá	-11.372
▁zemědělci	-11.372
▁Island	-11.372
▁abeced	-11.372
▁dostatečné	-11.372
▁nutná	-11.372
▁příroda	-11.372
▁živnostenský	-11.372
▁chápán	-11.372
▁MIDI	-11.372
▁naučit	-11.372
▁profese	-11.372
▁Vojenské	-11.372
▁výlučn	-11.372
▁Hapal	-11.372
▁charitativní	-11.372
▁kubismu	-11.372
▁vystupoval	-11.372
▁sovětský	-11.372
▁diváci	-11.372
▁převažuj	-11.372
▁ČSAD	-11.372
▁druzí	-11.372
▁koncentraci	-11.372
▁přečetl	-11.372
▁vyjít	-11.372
▁Sedm	-11.372
▁Softwar	-11.372
▁chápe	-11.372
▁nesměl	-11.372
háněl	-11.372
▁česky	-11.3721
▁filtr	-11.3721
▁cítil	-11.3721
▁kopané	-11.3721
▁loď	-11.3721
▁studené	-11.3721
▁obdrží	-11.3721
▁realizovat	-11.3721
▁úder	-11.3721
▁balení	-11.3722
▁Berger	-11.3722
▁kámen	-11.3722
▁duši	-11.3722
▁Obyvatel	-11.3722
▁zvyklí	-11.3722
▁rozumět	-11.3722
▁síni	-11.3722
▁Soutěž	-11.3722
▁trůn	-11.3723
▁publikace	-11.3723
▁Potvrdil	-11.3723
▁utekl	-11.3723
▁dostupný	-11.3724
▁sbírky	-11.3724
▁simul	-11.3724
▁vzorků	-11.3724
▁prázdninách	-11.3724
▁písma	-11.3724
▁Švýcarska	-11.3725
▁proměnliv	-11.3725
účtování	-11.3725
▁biologie	-11.3725
▁expozice	-11.3725
vrátit	-11.3725
▁zanikl	-11.3725
▁zdůvodnil	-11.3727
▁vznikne	-11.3729
▁náhodně	-11.3729
▁Krist	-11.3729
▁přihlásil	-11.3729
▁odjel	-11.373
▁výměník	-11.3731
ER	-11.3731
▁branku	-11.3731
▁vysílání	-11.3733
▁porušování	-11.3733
▁připravují	-11.3733
▁Alma	-11.3733
▁tendenci	-11.3733
▁1950	-11.3735
FS	-11.3735
▁Rumunsko	-11.3736
▁plot	-11.3737
▁FC	-11.3737
▁levné	-11.3738
▁kompletní	-11.3738
▁vlk	-11.3738
▁politikou	-11.3739
▁drobných	-11.3739
▁Maďarska	-11.3739
▁sídla	-11.3739
▁výrobou	-11.3739
▁armádní	-11.374
▁pravomocí	-11.374
▁odjezd	-11.3741
▁udává	-11.3741
nechávají	-11.3742
▁osobám	-11.3742
▁socialismu	-11.3743
▁Kole	-11.3744
▁přerušení	-11.3744
▁alternativní	-11.3745
▁prodejna	-11.3746
▁stěží	-11.3747
▁zasáhnout	-11.3748
▁foto	-11.3748
▁Politick	-11.3748
▁řádky	-11.3749
▁vyrovnání	-11.3749
▁drav	-11.375
čené	-11.3751
▁sídlí	-11.3751
▁izraelské	-11.3751
▁MOV	-11.3752
▁necelé	-11.3754
▁Příklad	-11.3755
▁nasazení	-11.3755
▁Alp	-11.3756
lic	-11.3756
▁zbytku	-11.3756
▁výměny	-11.3756
▁infekce	-11.3756
▁potřebujete	-11.3756
▁příslušníky	-11.3756
▁léto	-11.3756
67	-11.3757
▁živnost	-11.3758
▁scénu	-11.3758
▁astronom	-11.3758
▁psaní	-11.3759
0.000	-11.376
▁56	-11.3761
▁Vložit	-11.3762
▁zajímá	-11.3762
wi	-11.3763
▁zajímavá	-11.3763
▁Baník	-11.3764
▁jmenoval	-11.3764
▁dohodli	-11.3765
▁Tvrdí	-11.3765
▁rodině	-11.3765
▁uplatňují	-11.3767
▁sudetský	-11.3767
▁řez	-11.3767
▁dorazil	-11.3769
▁nemocného	-11.3769
▁tvorba	-11.377
▁kraje	-11.377
▁střet	-11.377
▁pokryt	-11.377
soudit	-11.3771
▁aneb	-11.3772
krátko	-11.3772
▁ToolBooku	-11.3773
▁hrub	-11.3774
▁odborů	-11.3775
▁ověřen	-11.3775
▁kláštera	-11.3775
▁provozování	-11.3776
▁hradě	-11.3778
▁Žena	-11.3779
jednali	-11.378
▁En	-11.378
▁neznámé	-11.3781
▁výhodou	-11.3781
▁analýza	-11.3781
▁slavného	-11.3782
skop	-11.3782
▁obvinil	-11.3783
▁získávání	-11.3783
▁přip	-11.3792
▁rozhlasu	-11.3794
▁spojených	-11.3794
▁Koup	-11.3796
▁příkazem	-11.3796
▁Výzkum	-11.3796
▁vraždy	-11.3796
▁Buď	-11.3797
▁zvukových	-11.3799
▁mořské	-11.3799
▁veletrhu	-11.3799
▁grafiky	-11.38
▁anglického	-11.3804
▁Víme	-11.3804
▁uzavřené	-11.3804
▁prezidentovi	-11.3805
▁výchovy	-11.3806
▁očích	-11.381
▁Optic	-11.3811
▁nešťastn	-11.3811
▁vyrovnaný	-11.3812
nz	-11.3812
▁poradil	-11.3815
▁poskytnutí	-11.3815
▁dokonalé	-11.3816
▁váh	-11.3816
tlačit	-11.3817
▁zbývá	-11.382
▁Neu	-11.3821
▁ruch	-11.3822
▁hladiny	-11.3823
▁opustil	-11.3824
▁zásahy	-11.3824
padnout	-11.3825
▁sdělit	-11.3825
▁pivovarů	-11.3826
▁zařazeny	-11.3827
▁Lá	-11.3827
▁70.	-11.383
▁uživatelům	-11.3831
▁Ostravsk	-11.3831
▁požádali	-11.3832
▁přímý	-11.3833
▁platnosti	-11.3835
▁vzkaz	-11.3842
▁obsadili	-11.3844
17	-11.3845
▁stromu	-11.3845
▁Izraelem	-11.3846
▁osobu	-11.3847
▁hradí	-11.3849
sáhl	-11.3854
řev	-11.3855
▁nakupovat	-11.3858
▁takzvané	-11.3859
▁širok	-11.386
koupí	-11.386
▁kruhu	-11.3861
▁radní	-11.3862
▁zásoby	-11.3863
▁jemu	-11.3867
▁úrok	-11.3867
▁naproti	-11.3868
▁Novém	-11.3869
▁vyjadřují	-11.3874
▁Husa	-11.3875
▁Bro	-11.3875
▁předčasné	-11.3876
▁opačném	-11.3882
35	-11.3883
▁rozšířen	-11.3885
vezm	-11.3888
▁mozkové	-11.3896
▁přístupem	-11.3896
▁OLE	-11.3897
▁listin	-11.3899
▁zadržen	-11.3899
▁proměnil	-11.3901
▁dopise	-11.3902
▁východu	-11.3903
▁semen	-11.3906
▁zdravý	-11.3908
▁gólu	-11.3909
▁pilot	-11.391
▁vyvolá	-11.3913
▁plánované	-11.3914
▁Die	-11.3914
▁obyčejné	-11.3914
▁ryz	-11.3919
▁komunistický	-11.3919
▁zvítězila	-11.3919
▁cel	-11.392
▁dobro	-11.392
▁převeden	-11.3922
▁bojoval	-11.3924
▁genu	-11.3925
stavení	-11.3926
vodí	-11.3929
▁hloubk	-11.3931
▁Carl	-11.3932
▁narazí	-11.3934
tice	-11.3936
▁nezískal	-11.3936
▁veden	-11.3941
▁soukromým	-11.3944
▁Dag	-11.3945
▁ostr	-11.3947
▁Chart	-11.395
▁jdou	-11.395
▁dodala	-11.3951
▁částice	-11.3952
▁závěry	-11.3954
▁čekání	-11.3957
▁nazýva	-11.3962
▁kritické	-11.3962
▁pohotovost	-11.3965
▁připravila	-11.3965
cal	-11.3965
▁klimatické	-11.3966
▁obsluh	-11.3967
▁snížila	-11.3967
▁kapitoly	-11.397
▁autory	-11.397
22	-11.3979
▁majitelem	-11.3983
▁softwarový	-11.3984
▁domova	-11.3985
mění	-11.3985
▁skončily	-11.3993
▁kdež	-11.3994
▁předpokládal	-11.3995
učili	-11.3997
▁Čechy	-11.3999
▁vklad	-11.4006
▁očekávané	-11.4006
▁talent	-11.4006
▁propag	-11.4008
▁bezpečnostních	-11.4009
řez	-11.4011
▁odbornost	-11.4015
▁Jean	-11.402
▁190	-11.4025
▁omezené	-11.403
čkách	-11.4038
▁cc	-11.4042
▁Ře	-11.4042
▁vítězk	-11.4042
▁známa	-11.405
▁genetick	-11.4054
▁plic	-11.4056
▁Kan	-11.4057
▁zájm	-11.4057
▁Horní	-11.4058
▁mladík	-11.406
▁obran	-11.4062
▁hrůz	-11.4063
▁zdokonal	-11.4063
▁etický	-11.4067
▁takzvaný	-11.4071
▁důkladně	-11.4083
▁podpoře	-11.4086
▁náboženské	-11.4087
389	-11.4089
▁samé	-11.4089
ěné	-11.4091
▁štít	-11.4093
bírají	-11.4097
▁bolesti	-11.4099
▁osmé	-11.4099
▁speciálních	-11.41
palestinsk	-11.4101
▁daří	-11.4102
▁říkám	-11.4103
ivost	-11.4108
▁dohodnut	-11.4109
▁komentáře	-11.411
▁Don	-11.4113
▁dole	-11.4113
▁poledne	-11.4114
ash	-11.4114
▁sluch	-11.4119
▁Vesmír	-11.4121
nin	-11.4124
psat	-11.4127
kých	-11.4127
▁rozum	-11.4128
▁oblíbený	-11.4129
▁osmnáct	-11.4131
ících	-11.4135
▁zaměstnancům	-11.414
▁110	-11.4142
▁hlás	-11.4142
▁chorvatský	-11.4143
▁prach	-11.4147
▁vazeb	-11.4148
izovat	-11.4148
ézt	-11.4155
▁vlastníků	-11.4156
▁pád	-11.4157
řek	-11.4162
▁chyba	-11.4163
tivnější	-11.4164
▁věřit	-11.4164
▁středním	-11.4165
třeba	-11.4165
▁americkým	-11.4165
▁profesionál	-11.417
▁KON	-11.4174
lární	-11.418
uf	-11.4184
nových	-11.4186
▁poslancům	-11.4187
▁dávn	-11.419
▁obrazovk	-11.4192
▁letecký	-11.4194
▁hork	-11.4196
▁tvor	-11.4197
▁stovk	-11.4199
▁prohlásila	-11.4205
▁povolen	-11.4205
▁příjemný	-11.4205
ess	-11.4205
▁souvislost	-11.4207
▁náměstk	-11.4208
líbil	-11.4208
▁nabízen	-11.4208
vázal	-11.4209
▁běžným	-11.421
▁An	-11.421
▁disciplín	-11.4214
povídal	-11.4214
▁72	-11.422
▁popř	-11.4222
90	-11.4225
▁jezer	-11.4225
▁volejbal	-11.4226
▁Stran	-11.4226
▁nepřátel	-11.4227
▁slovu	-11.4227
▁Pozor	-11.4228
▁rizikový	-11.4228
▁kamion	-11.4229
▁kolegů	-11.4229
▁muzeu	-11.4231
▁pru	-11.4231
nili	-11.4232
▁vesmír	-11.4234
▁přístav	-11.4235
▁zvětš	-11.4236
▁ja	-11.4237
▁koncern	-11.4239
RS	-11.4239
▁Stan	-11.424
▁vteřin	-11.4243
▁pokutu	-11.4243
▁leasing	-11.4243
▁spořiteln	-11.4243
▁pojistn	-11.4243
▁závěrečné	-11.4244
jo	-11.4247
▁zaplatil	-11.4248
▁prokurátor	-11.425
▁zpěvák	-11.4252
ŽE	-11.4255
▁pachatele	-11.4255
▁uměle	-11.4256
▁uzná	-11.4258
▁dialog	-11.4258
▁dělník	-11.4259
▁biskup	-11.426
▁mládež	-11.426
▁podepsán	-11.4267
▁potvrzen	-11.4268
▁jater	-11.4269
▁společným	-11.427
▁pokladn	-11.4271
▁časový	-11.4272
▁předkládá	-11.4279
▁Mnichov	-11.428
▁Švýcar	-11.428
záběr	-11.4282
▁překvapen	-11.4284
▁vyrovnané	-11.4285
KDU	-11.4287
▁modem	-11.4291
▁počítačem	-11.4292
▁srozumiteln	-11.4296
▁zlé	-11.4297
▁obsáhl	-11.43
vyjádřen	-11.43
kromě	-11.4301
německou	-11.4301
▁přibyl	-11.4303
mýšlí	-11.4304
▁krystal	-11.4304
▁Krkonoš	-11.4306
▁minutu	-11.4306
▁junio	-11.4307
▁uhlí	-11.4307
ředstavitelé	-11.4308
doporučují	-11.4308
▁1981	-11.4308
▁Běloruska	-11.4308
▁Eduard	-11.4308
▁Městě	-11.4308
▁Poštovní	-11.4308
▁Rozhovor	-11.4308
▁Svorada	-11.4308
▁Uvažuje	-11.4308
▁Výběr	-11.4308
▁Vědci	-11.4308
▁bázi	-11.4308
▁displej	-11.4308
▁ekvivalent	-11.4308
▁instance	-11.4308
▁inzerát	-11.4308
▁konfiguraci	-11.4308
▁kosmický	-11.4308
▁mechanismy	-11.4308
▁ministerstvem	-11.4308
▁mužstvu	-11.4308
▁nejlevnější	-11.4308
▁nejvhodnější	-11.4308
▁ovlivňova	-11.4308
▁označují	-11.4308
▁očekávají	-11.4308
▁pohromadě	-11.4308
▁potvrdit	-11.4308
▁pouštní	-11.4308
▁pracovišti	-11.4308
▁protagonist	-11.4308
▁pátrá	-11.4308
▁překonat	-11.4308
▁složku	-11.4308
▁sluchátka	-11.4308
▁stabilitu	-11.4308
▁svědků	-11.4308
▁vyjadřova	-11.4308
▁výsledcích	-11.4308
▁zachránit	-11.4308
▁zaměstnává	-11.4308
▁zbraň	-11.4308
▁závazek	-11.4308
▁závislé	-11.4308
opakovaně	-11.4308
▁doprovázen	-11.4308
▁komentoval	-11.4308
▁podmínkami	-11.4308
▁prvotní	-11.4308
▁sazby	-11.4308
▁vazbě	-11.4308
režie	-11.4308
▁dráhu	-11.4308
▁jedinec	-11.4308
▁odvahu	-11.4308
▁sérii	-11.4308
▁vyjednávání	-11.4308
▁lidstva	-11.4308
▁otravy	-11.4308
▁profesí	-11.4308
▁sladk	-11.4308
▁uplatnil	-11.4308
▁Gross	-11.4308
▁Reuter	-11.4308
▁prohlašuje	-11.4308
▁Radovan	-11.4308
▁kolaps	-11.4308
▁partie	-11.4308
▁postačí	-11.4308
▁Pořadatel	-11.4308
▁počty	-11.4308
▁vpravo	-11.4308
▁Pentium	-11.4308
▁kombinací	-11.4308
▁finance	-11.4308
▁rozvržení	-11.4308
▁obezit	-11.4308
▁doplnil	-11.4308
▁smečka	-11.4308
▁cvičení	-11.4308
▁jarní	-11.4308
▁zaměřuje	-11.4308
▁léčbě	-11.4308
▁ohlas	-11.4308
▁sníží	-11.4308
▁sportovce	-11.4308
▁zmenšen	-11.4308
▁generaci	-11.4308
▁Ford	-11.4308
▁ekonomickou	-11.4308
▁Vilém	-11.4308
▁filozofii	-11.4308
▁dvor	-11.4308
▁výhrady	-11.4308
▁Baker	-11.4308
▁nedostatkem	-11.4309
▁Španělsko	-11.4309
▁derby	-11.4309
▁spoření	-11.4309
▁běží	-11.4309
▁konverz	-11.4309
▁výměr	-11.4309
▁1998	-11.4309
▁SNR	-11.4309
▁nezvykl	-11.4309
▁studii	-11.4309
▁Hráč	-11.4309
▁pravdy	-11.4309
▁správnou	-11.4309
▁afér	-11.431
▁tunel	-11.431
▁pravice	-11.431
▁čelit	-11.431
▁jednotlivců	-11.431
▁členění	-11.431
▁Winter	-11.4311
▁děkan	-11.4311
▁trase	-11.4311
▁památky	-11.4311
▁článků	-11.4311
▁ISO	-11.4312
▁kampaň	-11.4312
▁nákladech	-11.4312
▁sbírek	-11.4312
KDS	-11.4312
▁lodí	-11.4312
▁zvýhodněn	-11.4313
▁švýcarské	-11.4313
▁strojírenství	-11.4313
▁zastupitelstvo	-11.4313
▁tvrdit	-11.4313
▁dálkové	-11.4314
▁celky	-11.4314
▁poplatků	-11.4314
▁salon	-11.4314
▁vyhleda	-11.4314
▁protivník	-11.4314
▁ušetřit	-11.4315
▁zeleni	-11.4315
▁přijímat	-11.4315
nešní	-11.4315
▁základny	-11.4316
▁vydrží	-11.4316
▁vzdělávací	-11.4316
▁hluboký	-11.4316
▁2:1	-11.4316
▁pití	-11.4317
▁plus	-11.4317
▁Polskem	-11.4317
▁organismů	-11.4317
▁průvodce	-11.4318
▁tenkrát	-11.4318
▁oteplení	-11.4318
▁Provoz	-11.4319
▁ideologick	-11.4319
▁ojediněle	-11.4319
▁pomáhat	-11.432
▁okresu	-11.432
▁nazval	-11.432
▁objektiv	-11.4321
▁nepřijatelné	-11.4321
▁alternativy	-11.4321
▁Kolín	-11.4321
▁domku	-11.4321
▁pozorovatelů	-11.4322
▁prosazuje	-11.4322
▁branky	-11.4323
▁scéně	-11.4323
▁námět	-11.4323
▁vybrán	-11.4323
▁sedmé	-11.4325
▁kliniky	-11.4326
▁přísně	-11.4326
▁silami	-11.4326
▁Palác	-11.4326
▁pětinu	-11.4328
▁záměrně	-11.4328
▁pobočk	-11.4328
graf	-11.4328
▁anketě	-11.4329
▁skupinách	-11.4329
▁družstevní	-11.433
▁zárukou	-11.4331
▁odluk	-11.4331
▁pozdní	-11.4332
▁obchodech	-11.4333
▁mrtvých	-11.4333
▁vyznačen	-11.4333
▁hranicí	-11.4334
▁skoku	-11.4334
▁obří	-11.4335
▁vidíte	-11.4335
▁znamenala	-11.4335
▁tělesn	-11.4337
▁Air	-11.4337
▁koordinac	-11.4337
▁zažil	-11.4337
▁povahu	-11.4338
▁přibývá	-11.4338
▁skutečnou	-11.4338
▁ledové	-11.4341
pouštět	-11.4342
▁domácností	-11.4342
▁Severoatlantick	-11.4343
▁komunismus	-11.4343
▁stranách	-11.4344
▁termo	-11.4345
▁výzkumné	-11.4345
▁špičkov	-11.4346
▁etapy	-11.4346
▁odcházejí	-11.4346
▁problematiky	-11.4346
▁publikací	-11.4347
▁desítká	-11.4347
stihnout	-11.4347
▁jazyků	-11.4347
▁NT	-11.4348
▁slavné	-11.4351
▁využívající	-11.4352
▁Nejsem	-11.4353
▁prodejce	-11.4354
píší	-11.4356
▁odměnu	-11.4356
▁nadšen	-11.4357
▁pes	-11.4358
▁reálná	-11.4358
▁přibylo	-11.4359
▁Moc	-11.4359
▁těsné	-11.4361
▁Žádný	-11.4361
▁pochybnosti	-11.4361
▁neviděl	-11.4361
▁Ger	-11.4361
▁milión	-11.4362
▁zkratk	-11.4364
▁Thomas	-11.4364
▁77	-11.4365
▁západu	-11.4365
sazení	-11.4365
▁hromada	-11.4367
▁opravit	-11.4368
▁stínu	-11.437
▁podávání	-11.437
▁dnem	-11.4371
▁nábožensk	-11.4371
▁vaku	-11.4372
▁dialogové	-11.4373
▁cukru	-11.4374
▁rodinou	-11.4375
elektrick	-11.4375
▁vhodných	-11.4376
▁jednotný	-11.4377
▁odpady	-11.4382
▁slabé	-11.4382
▁samostatnost	-11.4384
▁historického	-11.4386
▁slevy	-11.4387
▁konfliktu	-11.4388
▁Rozhodl	-11.4389
▁maličkost	-11.4389
▁polského	-11.439
nově	-11.439
▁(5	-11.439
▁osmnácti	-11.4391
▁prochází	-11.4392
▁jmenování	-11.4392
▁správě	-11.4393
▁1991.	-11.4395
▁prázdniny	-11.4395
▁skleníkový	-11.4395
▁perspektivní	-11.4397
▁Kazachstánu	-11.4397
▁otevřenou	-11.4398
▁azyl	-11.4399
▁měnov	-11.44
▁odehrál	-11.4401
▁začínal	-11.4405
▁zařazení	-11.4409
▁předloh	-11.4411
▁Sport	-11.4416
▁Sol	-11.4416
▁spolehlivě	-11.4417
tiky	-11.4422
▁mezer	-11.4422
▁Voj	-11.4422
▁Přibyl	-11.4423
▁časopis	-11.4427
▁pružn	-11.4428
▁Spo	-11.4431
▁kapacitu	-11.4431
▁zajímavých	-11.4431
▁suroviny	-11.4433
▁britských	-11.4434
▁mostu	-11.4434
▁zájemcům	-11.4434
▁hub	-11.4434
▁vybaveny	-11.4435
▁hospodářských	-11.4436
▁smyslem	-11.4437
▁oprávnění	-11.4438
program	-11.4438
▁hokejové	-11.4438
▁dlužníka	-11.444
▁stavy	-11.4442
▁záznamu	-11.4442
▁tepelné	-11.4444
▁zahájena	-11.4447
▁překvapením	-11.445
▁půd	-11.4451
▁závodníků	-11.4453
▁levný	-11.4453
cz	-11.4455
▁vzniklo	-11.4456
▁slavný	-11.4457
▁Pen	-11.4464
▁případem	-11.4465
▁novináře	-11.4466
▁automobilu	-11.4472
97	-11.4472
▁historik	-11.4473
▁VE	-11.4473
▁vzdálen	-11.4475
ovského	-11.4478
▁odehráv	-11.4479
▁zbyl	-11.448
▁vynesl	-11.448
▁účelu	-11.4481
▁určitým	-11.4486
▁pravý	-11.4487
▁pozval	-11.4487
▁podpisu	-11.4488
běhne	-11.4488
▁Med	-11.4488
▁potraviny	-11.4493
▁pokračovala	-11.4496
▁vznikal	-11.4497
▁vidím	-11.4501
▁cenami	-11.4501
▁technologické	-11.4506
line	-11.4506
▁procentní	-11.4507
stoupit	-11.4507
znal	-11.4508
▁samozřejm	-11.4508
▁vyšším	-11.4509
▁vrátili	-11.4513
▁součásti	-11.4515
▁Syn	-11.4516
IE	-11.4518
pera	-11.4522
kého	-11.4524
týdenní	-11.4527
IA	-11.4527
▁manažery	-11.4528
93	-11.4529
▁kandidáta	-11.4531
čn	-11.4534
jov	-11.4536
▁sedmnácti	-11.4539
skému	-11.454
▁vlna	-11.454
▁hlasováním	-11.4541
▁místním	-11.4546
▁daného	-11.4549
▁najdou	-11.4549
▁převrat	-11.4551
▁cenné	-11.4552
▁Japonsk	-11.4555
▁polský	-11.4556
▁vývojový	-11.4557
▁vědec	-11.4558
▁Vod	-11.4558
ung	-11.4559
▁240	-11.4559
▁vizi	-11.4561
▁Brněnsk	-11.4565
▁mask	-11.4567
▁textů	-11.4569
▁tituly	-11.4573
▁poškozen	-11.4578
▁atomov	-11.458
reál	-11.4581
▁základu	-11.4586
obdržela	-11.4589
▁jakéhokoli	-11.459
▁podnikateli	-11.4591
▁devatenáct	-11.4595
▁naučil	-11.46
▁Geo	-11.4603
▁nizozemsk	-11.4604
▁přesvědč	-11.4605
áty	-11.4607
dělení	-11.4609
plynul	-11.4609
▁palác	-11.461
▁světem	-11.4614
hladov	-11.4616
▁povrchov	-11.4616
▁1)	-11.462
leva	-11.462
▁výživ	-11.4622
▁Kur	-11.4622
▁buňk	-11.4623
▁Plán	-11.4625
▁čtvrtin	-11.4625
▁nabízený	-11.4626
▁povrchové	-11.4627
kraji	-11.4633
▁poloviční	-11.4633
▁Norsk	-11.4634
LOV	-11.4641
▁kanál	-11.465
57	-11.465
▁zápasem	-11.4653
▁spojeno	-11.4658
▁neštěstí	-11.4659
▁třetin	-11.466
▁olympiád	-11.466
▁činy	-11.4665
▁fotbalist	-11.467
▁zvrat	-11.467
▁známou	-11.4672
▁prováděn	-11.4676
▁čínské	-11.4676
▁zařízením	-11.4679
▁nadměrn	-11.4682
▁zakladatel	-11.4692
platné	-11.4695
▁jejímu	-11.4696
▁samospráv	-11.4701
▁průběžn	-11.4702
▁aktivac	-11.4702
▁neobvyklé	-11.4708
▁Nemá	-11.4714
ručně	-11.4717
87	-11.4718
▁pěkný	-11.4722
▁světl	-11.4725
▁Obsah	-11.4726
▁úsek	-11.4731
▁Závod	-11.4732
▁hvězda	-11.4738
▁Novotn	-11.4739
▁koalic	-11.474
▁Sen	-11.474
▁přidělen	-11.474
▁historick	-11.4746
gan	-11.4747
▁stranické	-11.4747
▁přesvědčil	-11.4749
▁přirozeným	-11.4749
▁míče	-11.4752
NSK	-11.4759
▁automat	-11.476
▁žlut	-11.4762
▁vyplněn	-11.4766
▁Čtyř	-11.4766
▁fakult	-11.4767
▁nepříjemný	-11.4767
▁zvolený	-11.4771
ičku	-11.4777
▁mm	-11.4785
▁nud	-11.4786
ring	-11.4786
▁úvod	-11.4787
▁hrozn	-11.4789
▁žádným	-11.4793
▁Velký	-11.4797
▁občanům	-11.4799
střelil	-11.4801
▁navržen	-11.4801
▁výtečn	-11.4804
▁bosen	-11.4804
13	-11.4806
▁symbolick	-11.4811
▁Občansk	-11.4814
▁dostaly	-11.4819
▁Ročn	-11.4819
▁inspektor	-11.4821
wan	-11.4823
▁parametr	-11.4826
▁Ter	-11.4827
▁hezk	-11.4828
▁občansk	-11.4828
okres	-11.483
▁pořadatelů	-11.4837
▁spojit	-11.4839
▁národním	-11.4839
▁hráčům	-11.4842
▁nesmysl	-11.4843
▁Histori	-11.4845
atřicet	-11.4846
▁uvědom	-11.4847
sovětsk	-11.4847
mentálně	-11.4849
stroj	-11.4849
▁bojovn	-11.485
▁čte	-11.4852
▁volič	-11.4852
▁EuroTel	-11.4856
▁dveří	-11.4856
▁kategorií	-11.4858
▁Mlad	-11.4859
uskutečnila	-11.4859
hraniční	-11.4863
▁krev	-11.4865
▁tiskov	-11.4865
▁krásn	-11.4866
kář	-11.4867
▁záloh	-11.4869
▁Ostravar	-11.4869
▁sláv	-11.4874
▁dobrého	-11.4876
▁Žid	-11.4878
▁triumf	-11.4879
▁vystupuj	-11.4882
▁hmotnost	-11.4882
▁využívají	-11.4886
▁dřev	-11.4888
▁krut	-11.489
▁Mil	-11.4892
▁vánoc	-11.4894
▁finančním	-11.4894
▁uvolněn	-11.4895
kání	-11.4895
▁Lac	-11.4897
▁Trh	-11.4897
vodně	-11.4898
▁dávat	-11.49
bíhají	-11.49
jevit	-11.4903
▁vyřazen	-11.4906
▁obnovit	-11.4911
▁ukončen	-11.4911
CK	-11.4913
▁dívá	-11.4914
konalo	-11.4915
▁centimetr	-11.4916
ert	-11.4917
▁smrteln	-11.4917
▁dramat	-11.4917
hodinové	-11.4919
▁Thajsk	-11.4919
▁podporují	-11.4927
▁krále	-11.4927
hlédne	-11.4929
praví	-11.4931
MF	-11.4931
▁risk	-11.4931
▁Vždy	-11.4932
▁účinně	-11.4932
▁Tchaj	-11.4933
Cagiva	-11.4933
▁Barcelony	-11.4933
▁Budinský	-11.4933
▁Dudajev	-11.4933
▁Liverpool	-11.4933
▁Lobkowicz	-11.4933
▁Moskvy	-11.4933
▁Opět	-11.4933
▁Schumacher	-11.4933
▁Stráský	-11.4933
▁TNF	-11.4933
▁Větší	-11.4933
▁angličtiny	-11.4933
▁atribut	-11.4933
▁databázový	-11.4933
▁dosaženo	-11.4933
▁dětství	-11.4933
▁efektivnosti	-11.4933
▁epidemie	-11.4933
▁evoluce	-11.4933
▁intenzivní	-11.4933
▁jménu	-11.4933
▁konkurs	-11.4933
▁kritizoval	-11.4933
▁lhůtě	-11.4933
▁lůžek	-11.4933
▁nabízel	-11.4933
▁nabízet	-11.4933
▁nelíbí	-11.4933
▁nesmějí	-11.4933
▁pohledávky	-11.4933
▁polštář	-11.4933
▁pozůstatk	-11.4933
▁počínání	-11.4933
▁pronájmu	-11.4933
▁redakční	-11.4933
▁ropovod	-11.4933
▁rozšiřování	-11.4933
▁seznámil	-11.4933
▁skrývá	-11.4933
▁spekulace	-11.4933
▁spekulací	-11.4933
▁svědectví	-11.4933
▁tlačítek	-11.4933
▁trápí	-11.4933
▁vztazích	-11.4933
▁zdůrazňuje	-11.4933
▁ÚSES	-11.4933
▁Apple	-11.4933
▁Honecker	-11.4933
▁Luboš	-11.4933
▁PŘED	-11.4933
▁Vánoční	-11.4933
▁bydliště	-11.4933
▁extremist	-11.4933
▁kosmické	-11.4933
▁mrtvol	-11.4933
▁nekončí	-11.4933
▁poskytovan	-11.4933
▁prodavač	-11.4933
▁profesní	-11.4933
▁výdělečn	-11.4933
▁výzvu	-11.4933
▁Haagu	-11.4933
▁plakát	-11.4933
▁přiznat	-11.4933
▁uváděl	-11.4933
▁Vánoce	-11.4933
▁pojmy	-11.4933
▁Easy	-11.4933
▁demisi	-11.4933
▁pokouší	-11.4933
▁spektrum	-11.4933
▁pryč	-11.4933
▁koupě	-11.4933
▁komplikace	-11.4933
▁levicov	-11.4933
týkat	-11.4933
▁Kyjev	-11.4933
▁mutace	-11.4933
▁nevadí	-11.4933
▁praxí	-11.4933
▁bezespor	-11.4933
▁Myslíte	-11.4933
▁snižují	-11.4933
▁zastupování	-11.4933
týkal	-11.4933
▁něčím	-11.4933
▁nejmladší	-11.4933
▁eventuáln	-11.4933
▁vyrobil	-11.4933
▁inteligentní	-11.4933
▁Neznám	-11.4933
▁ledovce	-11.4933
▁usiloval	-11.4933
2:0	-11.4933
▁bydlet	-11.4933
▁Group	-11.4933
▁reprezentuje	-11.4933
▁zastupitelství	-11.4933
▁pohlaví	-11.4933
▁mezisklad	-11.4933
▁bát	-11.4933
▁teplé	-11.4933
▁ocas	-11.4933
▁slyšel	-11.4933
▁neodpovídá	-11.4933
▁interpretace	-11.4933
▁levněji	-11.4933
pravdě	-11.4933
▁komunikací	-11.4934
▁strážníci	-11.4934
▁stolní	-11.4934
▁součin	-11.4934
▁ČSTK	-11.4934
▁veterán	-11.4934
▁někam	-11.4934
▁nezajímá	-11.4934
míří	-11.4934
▁Dukla	-11.4934
▁léčby	-11.4934
▁vyčleněn	-11.4934
▁norem	-11.4934
▁Olg	-11.4934
▁sousedství	-11.4934
▁myslet	-11.4934
▁stoprocentní	-11.4934
▁námitky	-11.4934
▁HDP	-11.4934
▁střechy	-11.4935
▁Thun	-11.4935
▁sumy	-11.4935
KDH	-11.4935
▁určí	-11.4935
▁kabin	-11.4935
tahuje	-11.4935
▁Prohlásil	-11.4935
kontinentální	-11.4935
▁úředníci	-11.4936
▁pozitivně	-11.4936
▁dílčí	-11.4936
▁450	-11.4936
▁prudké	-11.4936
▁kinematografie	-11.4937
▁teplý	-11.4937
▁přestávce	-11.4937
Finsko	-11.4937
▁Neměl	-11.4938
▁novinkou	-11.4938
rozuměl	-11.4938
▁Nemůže	-11.4938
▁10%	-11.4938
▁zkoušku	-11.4938
▁datum	-11.4938
▁švýcarský	-11.4938
▁NOV	-11.4939
▁hluk	-11.4939
▁Grafová	-11.4939
▁prodejců	-11.4939
▁omezování	-11.4939
▁Libor	-11.494
▁selekčn	-11.494
sáhnout	-11.494
▁překr	-11.494
▁účelům	-11.494
▁sídlo	-11.494
▁hektarů	-11.4941
prv	-11.4941
▁přenést	-11.4942
▁rozměrů	-11.4942
▁vykázal	-11.4943
▁Tatra	-11.4943
▁Původní	-11.4943
▁posuzování	-11.4944
▁Postupně	-11.4944
▁Izraele	-11.4945
▁dějinách	-11.4945
▁socialistické	-11.4945
▁poškodil	-11.4945
▁odhaduje	-11.4946
ikonu	-11.4946
▁ohrozit	-11.4946
▁uznává	-11.4947
▁sestra	-11.4949
▁špičkových	-11.495
▁filozofické	-11.495
▁trik	-11.495
▁učební	-11.495
▁disponuje	-11.4952
▁Zpočátku	-11.4952
▁Pardubice	-11.4952
▁hygienické	-11.4953
▁považoval	-11.4953
▁úsměvem	-11.4954
▁povinné	-11.4955
▁Římě	-11.4957
spěje	-11.4957
▁předpokládají	-11.4958
▁svazek	-11.4959
▁Určitě	-11.4959
▁Zkus	-11.496
▁badatelé	-11.496
▁motocyklů	-11.496
▁drát	-11.4962
▁gest	-11.4963
▁LID	-11.4963
▁Londýna	-11.4964
▁zvířete	-11.4964
▁minulou	-11.4964
▁dálnice	-11.4964
ejít	-11.4965
▁klientel	-11.4966
▁invalidní	-11.4966
▁ostrově	-11.4967
▁prázdné	-11.4968
▁vyplácení	-11.4968
▁zvon	-11.4968
▁herci	-11.4969
▁přírodním	-11.4969
▁kritiky	-11.497
▁využíván	-11.4972
▁provede	-11.4972
▁vlivu	-11.4972
atřicetilet	-11.4973
▁zakázal	-11.4974
▁kompresi	-11.4975
▁spuštění	-11.4977
▁posádky	-11.4977
▁berou	-11.4978
▁zrodil	-11.498
▁bíl	-11.4981
▁Listin	-11.4981
▁vyhlášky	-11.4982
▁sněmovna	-11.4982
▁převodu	-11.4984
▁přistoupil	-11.4984
▁dáno	-11.4984
▁Kremlu	-11.4984
▁azbestu	-11.4984
rová	-11.4984
▁sporů	-11.4985
▁schránky	-11.4986
▁klepnutím	-11.4987
▁iniciativy	-11.4987
▁bazénu	-11.4989
▁zakázku	-11.4989
▁sond	-11.4989
▁Paříže	-11.499
▁OK	-11.4991
tové	-11.4992
▁Těm	-11.4993
▁zásobník	-11.4994
▁akcionáři	-11.4994
▁výuky	-11.4995
▁uložen	-11.4995
▁Pravda	-11.4995
▁pořádně	-11.4997
jmenovaný	-11.4998
▁učitelé	-11.4998
▁fotbalisty	-11.4999
▁problémech	-11.4999
▁nevhodné	-11.5
▁povrchem	-11.5
▁vteřiny	-11.5003
▁doplnění	-11.5004
▁Benda	-11.5004
▁doprovodu	-11.5007
▁vidíme	-11.501
▁olympiádu	-11.501
▁nahradí	-11.501
▁Nizozemska	-11.501
▁šíř	-11.5011
▁ekonomickým	-11.5011
▁dialogu	-11.5013
▁zvané	-11.5013
▁tunelu	-11.5013
▁pomocník	-11.5014
ázev	-11.5016
▁vytvořený	-11.5019
36	-11.502
tratil	-11.5021
▁okamžité	-11.5021
▁složitost	-11.5021
▁paktu	-11.5022
▁mzdové	-11.5022
▁přežil	-11.5023
▁závažn	-11.5024
▁odpadu	-11.5024
▁zapsán	-11.5026
▁příkladu	-11.5026
▁List	-11.5027
▁volném	-11.5027
▁Výrobc	-11.5029
▁poplatníků	-11.503
▁slevu	-11.503
▁dech	-11.5031
▁geografick	-11.5031
▁vlastník	-11.5032
▁Sex	-11.5032
▁předmětu	-11.5034
▁údaji	-11.5035
▁procesory	-11.5038
vládne	-11.5038
▁předešl	-11.5039
▁jízdu	-11.5039
▁plzeňské	-11.504
▁stanovil	-11.504
Vesmír	-11.504
▁náměstka	-11.5041
▁prodávají	-11.5042
▁systémech	-11.5042
▁používané	-11.5043
▁nazvaný	-11.5044
▁Nova	-11.5044
▁silnici	-11.5045
▁etnick	-11.5045
▁MU	-11.5046
▁hostin	-11.5049
▁zaujím	-11.5051
slouží	-11.5051
▁dolaru	-11.5052
▁choroby	-11.5052
▁vrah	-11.5055
▁otázkami	-11.5057
▁sortimentu	-11.5058
▁postupuje	-11.5058
▁útvarů	-11.506
▁tváře	-11.506
▁vyhrazen	-11.5061
čnost	-11.5061
▁monopolní	-11.5066
▁pacienty	-11.5068
▁jednotn	-11.5072
▁podstat	-11.5076
▁230	-11.5077
▁zbožím	-11.5077
▁zemřelo	-11.5078
mět	-11.5078
▁užití	-11.5078
▁Ivo	-11.508
čov	-11.508
přestává	-11.5081
▁omezeným	-11.5081
přineslo	-11.5081
bov	-11.5083
nická	-11.5084
▁RAM	-11.5085
▁Tito	-11.5089
▁leteck	-11.509
▁zvolí	-11.5091
▁Kro	-11.5096
▁Radnic	-11.5097
počtu	-11.5098
▁vysílač	-11.5099
▁ukázaly	-11.5102
▁zvol	-11.5103
▁koná	-11.5105
▁hodí	-11.5106
▁kouř	-11.5107
▁vzali	-11.5108
▁geolog	-11.5108
Pro	-11.5109
▁Har	-11.511
USA	-11.5112
▁lese	-11.5113
▁odběratele	-11.5114
▁soutěžích	-11.5116
▁Web	-11.5117
škodí	-11.5119
▁nákladné	-11.5119
jeden	-11.5121
▁největšího	-11.5127
▁porazili	-11.5131
▁zbytečný	-11.5134
▁zůstali	-11.5135
SKO	-11.5139
▁ing	-11.5145
▁oprávněné	-11.5146
▁doufám	-11.5148
▁Dole	-11.5153
▁slovenského	-11.5153
▁vyrovná	-11.5155
▁dokázala	-11.5155
▁národa	-11.5155
▁právním	-11.5156
▁Tisk	-11.516
▁příkazu	-11.5163
▁ptát	-11.5167
EP	-11.5168
▁neobyčejn	-11.517
▁tvůrc	-11.5172
jistá	-11.5172
▁zastávk	-11.5179
▁převyšuj	-11.518
taž	-11.5183
▁Přím	-11.5189
▁příklady	-11.5189
▁Václavské	-11.5195
▁matematické	-11.5196
▁Američanů	-11.5196
▁činitel	-11.5197
▁lev	-11.5199
▁řídit	-11.5199
▁vyvážen	-11.52
▁dramatické	-11.5201
tvořily	-11.5202
▁místopředsedy	-11.5203
sin	-11.5204
▁deviz	-11.5205
▁vložené	-11.5206
▁tradičních	-11.5207
▁útoků	-11.5208
UD	-11.5209
▁tkání	-11.521
▁slavn	-11.5214
▁186	-11.5214
▁dávk	-11.5215
▁automobilové	-11.5217
▁hory	-11.5221
▁6,	-11.5224
▁korunu	-11.5224
kreslen	-11.5226
▁obav	-11.5228
▁nepod	-11.5231
▁rozdílné	-11.5235
▁způsobí	-11.5239
▁nebýval	-11.5239
krás	-11.524
ovaném	-11.5241
▁stálý	-11.5241
▁varianta	-11.5245
pec	-11.5245
kově	-11.5247
▁souhlasil	-11.5251
ván	-11.5258
▁vlastníka	-11.526
▁příjemně	-11.5261
▁stimul	-11.5267
▁prokázán	-11.5271
▁řízen	-11.5272
▁rozumí	-11.5273
▁Švéd	-11.528
▁Hal	-11.5283
udit	-11.5293
hrnul	-11.5298
▁milost	-11.5298
▁Spíš	-11.5298
▁Tan	-11.5306
▁nedoved	-11.5309
▁rekordní	-11.5309
rážky	-11.5312
▁demokrat	-11.5313
▁evoluční	-11.5313
▁skutečným	-11.5316
izovan	-11.5316
▁nejlepšími	-11.5316
96	-11.5321
▁resort	-11.5322
▁světle	-11.5323
▁vlast	-11.5328
korun	-11.5331
DO	-11.5332
natý	-11.5333
▁pomohla	-11.5333
dražil	-11.5335
stavovat	-11.5341
svědčil	-11.5342
nar	-11.5347
dáte	-11.5348
▁soustav	-11.5353
▁malém	-11.5358
▁radi	-11.5361
▁vhodný	-11.5366
▁síťové	-11.5366
▁Způsob	-11.5372
▁aspekt	-11.5375
▁doufá	-11.5375
▁hodině	-11.5388
▁uvědomil	-11.5392
▁Obchod	-11.5393
▁Žádn	-11.5397
▁použitím	-11.5398
lová	-11.5399
vědčí	-11.5404
▁opačné	-11.5406
obyčejně	-11.5409
svědčuje	-11.541
psání	-11.5411
živí	-11.5415
▁párů	-11.5416
▁vyjadřuj	-11.5417
▁výuk	-11.5419
alba	-11.5423
▁postoupil	-11.543
▁projevují	-11.5433
ÁNÍ	-11.5435
▁politickým	-11.5435
▁továrn	-11.5436
SM	-11.5437
▁nepříjemn	-11.5439
▁Ir	-11.5444
▁zálož	-11.5444
▁doprovod	-11.5454
▁položen	-11.5459
▁strav	-11.5463
hodné	-11.5467
▁kontrast	-11.5467
podivu	-11.5471
jan	-11.5471
▁bytový	-11.5473
▁Vysok	-11.5474
▁Vznikl	-11.5474
▁široký	-11.5475
JE	-11.5476
▁Morav	-11.5483
▁Či	-11.5484
▁přírodovědeck	-11.5491
▁van	-11.5494
▁vyvinul	-11.5497
▁konstatova	-11.5499
▁uživatelské	-11.55
▁cítím	-11.5501
▁znalost	-11.5502
▁vzrostl	-11.5505
▁ženské	-11.5505
trhl	-11.5507
▁hnízd	-11.5509
▁totožn	-11.551
mann	-11.5512
čítat	-11.5513
evropský	-11.5513
▁William	-11.5514
▁zjednoduš	-11.5516
▁pocházejí	-11.5516
▁Čtvrt	-11.5517
▁jede	-11.5517
▁laboratoř	-11.5519
▁klobouk	-11.552
▁ideál	-11.5521
▁násilí	-11.5521
cházející	-11.5523
▁Word	-11.5524
▁čtvereční	-11.5524
▁cukr	-11.5525
▁tratí	-11.5525
▁terén	-11.5525
▁Lan	-11.5528
bez	-11.5529
▁Kraj	-11.5529
morav	-11.553
▁cement	-11.553
UM	-11.5531
▁připomínk	-11.5533
▁vyhlídk	-11.5533
▁rytíř	-11.5535
▁dohad	-11.5535
▁jakoukoli	-11.5538
▁autorit	-11.5539
hlížel	-11.5542
▁dán	-11.5542
▁závislost	-11.5542
▁uplatňuj	-11.5543
▁použije	-11.5548
▁minima	-11.555
▁Svobodn	-11.5551
členný	-11.5555
▁infekc	-11.5555
▁Dět	-11.5556
▁zaplacen	-11.5557
bezpeč	-11.5558
pojit	-11.556
▁výhodný	-11.556
▁Každé	-11.5562
rovnání	-11.5563
▁uplatňova	-11.5564
▁hospod	-11.5566
▁označován	-11.5568
▁pozván	-11.5569
čkem	-11.557
▁fenomén	-11.5571
okr	-11.5571
▁stálo	-11.5575
▁Určit	-11.5575
▁měřit	-11.5579
▁penzi	-11.5581
▁reaktor	-11.5582
▁sediment	-11.5582
štění	-11.5583
▁Šv	-11.5584
▁dodá	-11.5589
▁komunik	-11.5593
ňují	-11.5593
▁61	-11.5597
▁Jenom	-11.5598
hodinový	-11.5598
▁KSČ	-11.5598
▁plošný	-11.5599
JPEG	-11.5599
▁1983	-11.5599
▁Austrálie	-11.5599
▁Ludvík	-11.5599
▁Pistol	-11.5599
▁Saúdsk	-11.5599
▁Vešker	-11.5599
▁WWW	-11.5599
▁bankovnictví	-11.5599
▁definice	-11.5599
▁deklaraci	-11.5599
▁důležitější	-11.5599
▁federaci	-11.5599
▁fungování	-11.5599
▁hardwarov	-11.5599
▁infarkt	-11.5599
▁interiér	-11.5599
▁jednodušší	-11.5599
▁konfigurace	-11.5599
▁konkurovat	-11.5599
▁kvót	-11.5599
▁literatuře	-11.5599
▁marketingu	-11.5599
▁nenávist	-11.5599
▁neškodn	-11.5599
▁nukleární	-11.5599
▁odpovědět	-11.5599
▁pojišťovnou	-11.5599
▁populaci	-11.5599
▁problematice	-11.5599
▁prozradil	-11.5599
▁předpovědi	-11.5599
▁přerozdělování	-11.5599
▁referát	-11.5599
▁rekreaci	-11.5599
▁rubrice	-11.5599
▁symplektick	-11.5599
▁tiskáren	-11.5599
▁tolerance	-11.5599
▁trénovat	-11.5599
▁vypráví	-11.5599
▁vyžadovat	-11.5599
▁východoevropský	-11.5599
▁zapomenout	-11.5599
▁zaručit	-11.5599
▁zodpovězen	-11.5599
▁zákulisí	-11.5599
▁Četrans	-11.5599
▁špatnou	-11.5599
▁Mitterrand	-11.5599
▁Návrat	-11.5599
▁Právo	-11.5599
▁kampaně	-11.5599
▁mikrofon	-11.5599
▁povolební	-11.5599
▁předvánoční	-11.5599
▁vláken	-11.5599
▁vyslovit	-11.5599
▁vzbudil	-11.5599
▁účinné	-11.5599
přízeň	-11.5599
▁Ctrl	-11.5599
▁Oldřich	-11.5599
▁archiv	-11.5599
▁makléř	-11.5599
▁otazník	-11.5599
▁praktik	-11.5599
▁reagují	-11.5599
▁stráví	-11.5599
▁Francií	-11.5599
▁ujistil	-11.5599
▁Kurzy	-11.56
▁zastupuje	-11.56
▁Michel	-11.56
▁vybojoval	-11.56
▁značku	-11.56
▁ustavující	-11.56
▁nabídek	-11.56
▁elementární	-11.56
▁taxonomie	-11.56
▁přípustn	-11.56
▁rozdělí	-11.56
▁multi	-11.56
▁úložiště	-11.56
▁vrstva	-11.56
▁desek	-11.56
▁ovládací	-11.56
▁Pivovar	-11.56
▁popředí	-11.56
▁uplatňován	-11.56
▁rozvíjet	-11.56
▁bezpečně	-11.56
▁oboustrann	-11.56
▁rozsáhlejší	-11.56
▁obchodovat	-11.56
▁lázní	-11.56
▁střídají	-11.56
▁realizace	-11.56
▁učiní	-11.56
▁FBIS	-11.56
▁poušti	-11.56
▁zánět	-11.56
▁Moravia	-11.56
▁firmách	-11.56
▁poptávku	-11.56
▁Soulu	-11.56
▁fází	-11.56
▁zabránil	-11.56
▁komunikační	-11.56
▁mediální	-11.56
▁Setkání	-11.56
▁nepřesnost	-11.56
▁češtiny	-11.56
ford	-11.56
▁léčbu	-11.56
▁komunit	-11.56
▁konsensus	-11.56
▁dotaci	-11.56
▁šipk	-11.56
▁bankrot	-11.5601
▁holub	-11.5601
▁spotřeba	-11.5601
▁Značn	-11.5601
▁robot	-11.5601
▁sníh	-11.5601
▁Nechci	-11.5601
▁fakticky	-11.5601
▁trasy	-11.5601
▁1976	-11.5601
▁nominaci	-11.5601
▁toxické	-11.5601
▁faul	-11.5602
▁Cítí	-11.5602
▁kameny	-11.5602
▁touží	-11.5602
▁ČSD	-11.5602
▁59	-11.5602
▁distribuční	-11.5602
▁publikaci	-11.5602
▁pestr	-11.5602
▁vyprávěl	-11.5602
▁plaz	-11.5602
▁Vzá	-11.5603
▁podobnou	-11.5603
symetri	-11.5603
▁líčí	-11.5603
▁všední	-11.5604
chybějí	-11.5604
▁bál	-11.5604
▁vystavuje	-11.5605
▁dvoudenní	-11.5605
▁produkcí	-11.5605
▁mezistátní	-11.5605
▁volající	-11.5605
▁nepamatuj	-11.5605
▁Data	-11.5606
▁Maďarskem	-11.5606
▁vynutil	-11.5606
▁Informace	-11.5606
▁novotvary	-11.5606
▁faktorem	-11.5607
▁hepatocytů	-11.5607
▁stád	-11.5607
▁umělci	-11.5608
▁vysloužil	-11.5608
▁zajišťující	-11.5608
▁kardinál	-11.5608
▁seskupení	-11.5608
▁desetkrát	-11.5609
▁hospodaří	-11.5609
▁cestách	-11.561
▁zimy	-11.561
▁spektra	-11.561
▁nestátní	-11.561
▁palubě	-11.561
▁obchodník	-11.561
▁Kladně	-11.561
▁vlasy	-11.561
▁tendence	-11.5611
▁výšky	-11.5611
▁významnější	-11.5611
▁ředitelství	-11.5611
▁předloží	-11.5611
▁vydávat	-11.5612
▁dýcha	-11.5612
▁odsoudil	-11.5612
▁vyhodnocení	-11.5613
▁připraví	-11.5614
▁altruismus	-11.5615
▁vysílací	-11.5616
vydržel	-11.5617
▁zúčastněný	-11.5617
▁konání	-11.5617
▁ekonomikou	-11.5618
▁zelený	-11.5618
▁přijatelná	-11.5619
▁virus	-11.5619
▁nouze	-11.562
▁jistotou	-11.562
▁zvířecí	-11.562
znamenají	-11.562
▁zajímavost	-11.562
▁cokoli	-11.5621
▁badatel	-11.5621
▁jednotlivce	-11.5621
▁komentátor	-11.5621
▁zatížení	-11.5621
▁pokrýt	-11.5622
▁zkušen	-11.5622
▁pořádek	-11.5623
▁hudbu	-11.5623
▁nástupce	-11.5624
ousek	-11.5625
▁prokázat	-11.5625
▁dosáhne	-11.5625
▁elektrod	-11.5625
▁evropskou	-11.5626
▁pozoruhodné	-11.5627
▁vyhrát	-11.5628
▁pozorovatelé	-11.5628
▁modelování	-11.5628
▁analýze	-11.5629
▁zeď	-11.5629
▁Číně	-11.5629
▁řetězce	-11.563
▁řádku	-11.563
ativní	-11.563
▁startovat	-11.5631
▁oceánické	-11.5632
▁pásmu	-11.5632
▁zjednodušen	-11.5632
sloučenin	-11.5632
▁vědce	-11.5633
▁sumu	-11.5634
▁porod	-11.5634
▁ekonomiku	-11.5634
▁autobusem	-11.5635
▁předkol	-11.5635
▁přesností	-11.5635
▁Šlo	-11.5635
▁uchazeč	-11.5636
▁různě	-11.5636
▁Kolumbi	-11.5636
▁pomst	-11.5636
▁dodavatelů	-11.5637
▁soukromí	-11.5637
▁krajině	-11.5637
▁Hel	-11.5638
▁dřevěné	-11.5639
ební	-11.5639
▁Olympi	-11.5641
izování	-11.5642
▁mlhy	-11.5642
▁pevnin	-11.5642
▁vyřazení	-11.5643
▁ránu	-11.5643
kontroluje	-11.5644
▁uvítal	-11.5644
▁zmínil	-11.5644
▁Nedo	-11.5644
▁bránil	-11.5645
▁kurzů	-11.5645
ovitých	-11.5646
▁podepsání	-11.5646
▁Domnívám	-11.5646
▁směřující	-11.5647
▁nuly	-11.5647
▁středoevropské	-11.5649
▁technickou	-11.5649
▁dopisů	-11.565
▁Vstup	-11.5651
▁hormonů	-11.5652
▁návštěvníky	-11.5652
ismem	-11.5653
▁nedokáže	-11.5653
▁Chebu	-11.5654
▁motorem	-11.5655
▁středověku	-11.5657
▁Eli	-11.5657
▁předák	-11.5658
▁vyloučeno	-11.5658
▁zastává	-11.5659
▁odstoupil	-11.5659
▁Alžběta	-11.5659
▁Bratinka	-11.5659
▁kalendářní	-11.5659
▁úhradu	-11.566
LET	-11.5661
▁diváky	-11.5661
▁dodávat	-11.5662
▁slavnosti	-11.5662
▁válečný	-11.5662
▁úzk	-11.5663
dražit	-11.5665
▁účinků	-11.5666
▁větru	-11.5667
▁Lidový	-11.5667
▁rozpočtový	-11.5668
▁zvykem	-11.5668
▁přispívají	-11.5669
▁sestaven	-11.5669
▁telefonů	-11.567
▁kanály	-11.567
▁Vaš	-11.567
▁pokladny	-11.5674
▁disciplíny	-11.5674
ALI	-11.5676
▁listiny	-11.568
▁dospělých	-11.5684
▁psa	-11.5684
▁citeln	-11.5686
▁přístavu	-11.5686
dána	-11.5686
▁stoupla	-11.5687
▁Francouzský	-11.5688
▁diplomatický	-11.5688
▁odvezl	-11.5691
▁vybrali	-11.5691
▁autobusové	-11.5691
▁zabezpeč	-11.5692
▁nositel	-11.5692
▁Anna	-11.5693
▁útvaru	-11.5693
▁dluhy	-11.5694
▁Historick	-11.5694
▁hosté	-11.5695
▁aparátu	-11.5696
▁táhn	-11.5697
▁následné	-11.5699
▁Alan	-11.57
náze	-11.5701
jíždí	-11.5701
▁návratnost	-11.5702
▁vzrostla	-11.5703
▁opakuje	-11.5704
▁vyloučení	-11.5704
▁městem	-11.5705
▁nevěděli	-11.5707
▁vědecky	-11.5707
▁aplikacemi	-11.5708
▁etapa	-11.5708
▁pořádání	-11.5709
▁délky	-11.5711
▁mak	-11.5713
▁černého	-11.5713
átory	-11.5713
▁samotného	-11.5715
rý	-11.5715
▁dozvěděli	-11.5715
▁katastrofy	-11.5717
▁nastane	-11.5718
▁katalogu	-11.5718
▁šťastný	-11.5719
obr	-11.572
▁filmař	-11.5721
▁vyhledá	-11.5721
▁Možnosti	-11.5722
▁sbír	-11.5722
▁řešil	-11.5723
▁zvolení	-11.5725
▁ostrova	-11.5725
díval	-11.5726
▁ověřit	-11.5727
poškozené	-11.5728
▁titulem	-11.573
ohled	-11.573
▁postaví	-11.5732
▁možnostech	-11.5732
▁Hilla	-11.5732
bytová	-11.5732
▁Fakt	-11.5732
▁odstupné	-11.5733
▁svěřil	-11.5734
▁úspěšných	-11.5734
▁přísné	-11.5736
▁nahoře	-11.5736
▁klesla	-11.5737
▁dramatick	-11.5737
▁investici	-11.5741
▁tématu	-11.5741
▁vysokým	-11.5742
▁druhých	-11.5742
▁zločiny	-11.5743
▁hladinu	-11.5744
munist	-11.5745
▁nejbližším	-11.5746
▁sub	-11.5746
▁nazvané	-11.5746
▁chaty	-11.5747
▁Park	-11.5747
▁nemáte	-11.5748
▁proteinu	-11.5749
▁statistick	-11.5749
▁liga	-11.5749
▁nezávislosti	-11.5749
▁Muži	-11.575
▁rock	-11.5751
▁obchodníky	-11.5753
▁zoologick	-11.5754
▁ledu	-11.5755
sit	-11.5755
ALE	-11.5756
▁horké	-11.5756
▁pohybů	-11.5756
▁objevilo	-11.5757
▁rezervy	-11.5757
▁uzavřený	-11.5761
álka	-11.5761
▁tréninku	-11.5763
▁kulturu	-11.5764
▁zaměstnavateli	-11.5765
hodná	-11.5766
▁odklad	-11.5766
pracovala	-11.5767
▁kurzy	-11.5771
▁dovnitř	-11.5773
▁představila	-11.5774
▁Min	-11.5775
▁editoru	-11.578
lizace	-11.5782
▁náboženský	-11.5783
▁dobrém	-11.5785
▁nepřímo	-11.5785
▁Janov	-11.5786
panuje	-11.5787
▁udělala	-11.5788
Gar	-11.579
▁nechtěli	-11.5791
loha	-11.5796
▁kanceláři	-11.5797
▁slovensk	-11.5799
▁góly	-11.58
▁odporu	-11.58
▁radí	-11.5801
▁založili	-11.5802
▁přítel	-11.5803
▁Dne	-11.5808
▁kursu	-11.5809
▁vítězem	-11.5812
rně	-11.5813
▁požádala	-11.5813
▁trávi	-11.5815
▁volání	-11.5817
trpěl	-11.5818
▁podzimu	-11.5818
děláme	-11.5822
▁dopadl	-11.5822
▁středo	-11.5824
hořel	-11.5824
čnosti	-11.5827
▁krásný	-11.5835
atrně	-11.5836
▁dotazy	-11.5836
▁zápasech	-11.5844
▁Americké	-11.5848
psaný	-11.5851
▁nedělním	-11.5854
▁Ul	-11.5855
▁AC	-11.5857
▁umělý	-11.5858
▁známy	-11.5858
víz	-11.5859
omín	-11.5859
▁Perské	-11.586
▁vlastníky	-11.5861
▁jasný	-11.5863
▁nabídla	-11.5865
▁zub	-11.5865
pokládat	-11.5868
▁dotazu	-11.5872
hradil	-11.5873
▁Černé	-11.5876
▁generálním	-11.5878
▁samém	-11.5882
kupuje	-11.5883
příště	-11.5883
▁osobním	-11.5885
▁dokonalý	-11.5888
▁Prof	-11.5891
míněn	-11.5894
▁kapacita	-11.5895
▁královské	-11.59
ovská	-11.5901
▁nacházejí	-11.5905
▁ucho	-11.5905
▁majetkové	-11.5905
méno	-11.5906
▁fyzik	-11.5906
▁českému	-11.5906
▁českými	-11.5906
večer	-11.5907
▁nařídil	-11.5909
▁bitv	-11.5914
▁logik	-11.5916
▁Sam	-11.5922
čištění	-11.5923
▁Jejím	-11.5923
▁vrcholové	-11.5924
▁prostý	-11.5926
▁upravené	-11.5927
▁krátkém	-11.5928
▁cizím	-11.5933
▁vložil	-11.5935
uad	-11.5936
▁disky	-11.5936
který	-11.594
▁přiměřen	-11.594
▁knihovn	-11.5941
▁časy	-11.5941
▁Šp	-11.5941
▁poradenské	-11.5948
▁stres	-11.5948
počítat	-11.5951
▁představa	-11.5957
1%	-11.5958
▁šetřit	-11.5962
▁Casimir	-11.5968
▁vyroben	-11.5969
izraelsk	-11.5971
▁dosáhli	-11.5971
▁obecný	-11.5972
▁uvolni	-11.5972
▁obcích	-11.5974
ovku	-11.5976
četné	-11.5982
obec	-11.5982
pravicov	-11.5982
▁nedělá	-11.5982
▁jakosti	-11.5983
▁vytvořené	-11.5993
▁veliká	-11.5994
▁měnil	-11.6001
▁Ren	-11.6003
jela	-11.6005
▁moderního	-11.601
▁pravým	-11.601
▁Borise	-11.6013
▁starších	-11.6013
▁nacházel	-11.6017
▁uzavře	-11.6023
▁maso	-11.6023
▁vypracoval	-11.6023
▁budoucím	-11.6031
▁kapitol	-11.6031
bíral	-11.6037
▁předků	-11.6038
▁Žen	-11.6039
zkoumat	-11.6046
▁omyl	-11.6048
▁osobou	-11.6052
▁4000	-11.6056
▁překonal	-11.6056
▁nabízené	-11.6056
▁prodával	-11.6059
▁velitele	-11.606
sadili	-11.6066
▁mužem	-11.6067
▁stín	-11.6067
▁dostával	-11.6072
▁Bab	-11.6074
▁Výstav	-11.6074
▁jednáním	-11.6076
▁Mladiče	-11.6076
▁chyt	-11.6084
▁Hans	-11.6086
▁svalov	-11.6096
▁sobotním	-11.6098
ura	-11.6104
▁94	-11.6104
▁slušný	-11.6105
▁socialist	-11.6107
▁Hodn	-11.6107
▁Druh	-11.6109
▁prah	-11.6109
tržení	-11.6114
káže	-11.6125
▁divák	-11.6125
pomíná	-11.6126
▁podrobně	-11.6126
▁vrácen	-11.6127
nej	-11.6128
▁udělen	-11.6132
▁Jir	-11.6133
ocel	-11.6139
▁zmizel	-11.6145
▁Bud	-11.6148
▁Zelen	-11.6157
▁odebíra	-11.6159
vaná	-11.6163
▁Děl	-11.6163
▁obrovsk	-11.6165
▁řešen	-11.6166
jednává	-11.6167
▁sovět	-11.617
▁spolehliv	-11.617
▁zlat	-11.617
drobnější	-11.617
▁výplat	-11.617
▁zloděj	-11.6172
▁strašn	-11.6172
▁ovlivnil	-11.6178
▁Daně	-11.6179
▁splněn	-11.6179
▁poražen	-11.6182
konaly	-11.6185
▁Hill	-11.6186
▁Ken	-11.6188
ůbec	-11.619
▁radio	-11.6191
cc	-11.6192
1972	-11.6196
▁hrozb	-11.6197
▁racionální	-11.6198
▁bra	-11.6199
▁vězni	-11.6199
eckém	-11.62
▁poplatník	-11.6203
▁charakterizova	-11.6205
▁Las	-11.6207
▁kapel	-11.6207
▁Podpor	-11.6209
▁zveřejnil	-11.6211
▁pozic	-11.6211
▁Alb	-11.6212
▁problémům	-11.6212
▁Tureck	-11.6214
▁nemovitost	-11.6216
▁pane	-11.6217
muslimské	-11.6222
▁ZÁ	-11.6226
▁žádného	-11.6227
▁Bob	-11.6228
▁spustí	-11.6233
poskytla	-11.6235
▁chaos	-11.6238
▁něčem	-11.6238
▁Skutečn	-11.6241
▁myš	-11.6243
▁poslání	-11.6244
▁ovládá	-11.6244
střílel	-11.6244
▁interval	-11.6245
▁chrání	-11.6245
▁spravedlnost	-11.6246
▁způsobeno	-11.6251
▁televizním	-11.6257
▁poskytován	-11.6258
povídat	-11.6258
▁Kos	-11.6258
▁verzí	-11.6258
▁principů	-11.6258
▁architektur	-11.6259
▁53	-11.6259
vlas	-11.626
gramů	-11.626
▁zklamán	-11.6261
bitový	-11.6261
▁kosti	-11.6262
▁propojen	-11.6263
▁Sarajev	-11.6265
▁tržb	-11.6267
▁zatčen	-11.6268
▁naplněn	-11.6269
▁optim	-11.6271
stižen	-11.6272
▁rovnost	-11.6273
▁nemocné	-11.6273
▁honorář	-11.6274
▁bilanc	-11.6275
▁Víc	-11.6278
▁bývalým	-11.6278
▁Míst	-11.628
▁doporučen	-11.6284
▁zvyšují	-11.6285
▁připravenost	-11.6285
▁TV	-11.6287
▁odvet	-11.6289
▁Dohod	-11.6289
▁občanský	-11.629
▁fundamentalist	-11.6292
nutil	-11.6294
▁kompost	-11.6295
hrával	-11.6296
▁kilogram	-11.6297
ografické	-11.6297
▁Mistr	-11.6302
▁průvod	-11.6302
▁teplá	-11.6304
▁mechanick	-11.6308
plyn	-11.6309
árek	-11.6309
▁sexu	-11.631
▁učit	-11.6311
malý	-11.6311
▁vycházejí	-11.6313
▁lacin	-11.6313
▁Dlouho	-11.6313
▁velvyslanec	-11.6314
▁Akademie	-11.6314
▁Digital	-11.6314
▁emitent	-11.6314
▁inzulín	-11.6314
▁katalyzátor	-11.6314
▁komodit	-11.6314
▁novorozen	-11.6314
▁přísluší	-11.6314
▁trénuj	-11.6314
▁Albertville	-11.6314
▁Bratislavy	-11.6314
▁Delphi	-11.6314
▁Dokument	-11.6314
▁General	-11.6314
▁Hospodářsk	-11.6314
▁Netanjahu	-11.6314
▁Němce	-11.6314
▁Princip	-11.6314
▁Pálffy	-11.6314
▁Reichel	-11.6314
▁SPIRIT	-11.6314
▁TWA	-11.6314
▁Teplice	-11.6314
▁Vynikající	-11.6314
▁brožur	-11.6314
▁databáze	-11.6314
▁databázi	-11.6314
▁dveřmi	-11.6314
▁havárii	-11.6314
▁informuje	-11.6314
▁injekc	-11.6314
▁kanalizací	-11.6314
▁komedie	-11.6314
▁komisař	-11.6314
▁kompetencí	-11.6314
▁lehký	-11.6314
▁lidstvo	-11.6314
▁milisekund	-11.6314
▁nechybí	-11.6314
▁nesrovnateln	-11.6314
▁nosorožců	-11.6314
▁obyvatelstvo	-11.6314
▁odpolední	-11.6314
▁olomoucké	-11.6314
▁omezit	-11.6314
▁podezřelý	-11.6314
▁pohodlné	-11.6314
▁pojišťoven	-11.6314
▁pojišťovně	-11.6314
▁portfeje	-11.6314
▁pořizovací	-11.6314
▁poštovní	-11.6314
▁pátku	-11.6314
▁přeplněn	-11.6314
▁raketoplán	-11.6314
▁sféře	-11.6314
▁splátek	-11.6314
▁stadiu	-11.6314
▁tekutin	-11.6314
▁těhotenství	-11.6314
▁vrtulník	-11.6314
▁vyčerpán	-11.6314
▁zahájit	-11.6314
▁zakázek	-11.6314
▁zaručuje	-11.6314
▁zdůraznit	-11.6314
▁zneužívání	-11.6314
▁zopakoval	-11.6314
▁zpracovává	-11.6314
▁záruční	-11.6314
▁účinnou	-11.6314
▁Černomyrdin	-11.6314
▁Československý	-11.6314
▁SGI	-11.6314
▁chystají	-11.6314
▁holding	-11.6314
▁odstavec	-11.6314
▁severozápad	-11.6314
▁smířit	-11.6314
▁stěžuje	-11.6314
▁svrchované	-11.6314
▁železné	-11.6314
▁kultuře	-11.6314
▁Automatick	-11.6314
▁James	-11.6314
▁Kadlec	-11.6314
▁Zajímal	-11.6314
▁loupež	-11.6314
▁netrpěliv	-11.6314
▁podepsat	-11.6314
▁Holandsk	-11.6314
▁dávek	-11.6314
▁nejblíže	-11.6314
▁nikomu	-11.6314
▁někomu	-11.6314
▁odhalit	-11.6314
▁prováděl	-11.6314
▁přetížen	-11.6314
▁Prahou	-11.6314
▁Mlýn	-11.6314
▁poznámky	-11.6314
▁mutací	-11.6314
LSNS	-11.6314
▁umírněn	-11.6314
▁Fuchs	-11.6314
▁PŘI	-11.6314
▁hokejistů	-11.6314
▁něčeho	-11.6314
▁vybudoval	-11.6314
▁Zpráv	-11.6314
▁Bohuslav	-11.6314
▁FMV	-11.6314
▁Louis	-11.6314
▁legendární	-11.6314
▁Front	-11.6314
▁ceremoniál	-11.6314
▁formálně	-11.6314
▁mocenské	-11.6314
▁dědeček	-11.6314
▁nedaleké	-11.6314
▁fotografií	-11.6314
▁implantát	-11.6314
▁lákav	-11.6314
▁Účastníci	-11.6314
▁Opava	-11.6314
▁kapsy	-11.6314
▁chleba	-11.6314
▁Samotn	-11.6314
▁stromeček	-11.6314
hrádk	-11.6314
▁usedl	-11.6314
▁Kouba	-11.6314
▁diktátor	-11.6314
▁nazvat	-11.6314
hánějí	-11.6314
▁paměť	-11.6314
▁registrační	-11.6314
▁zmizí	-11.6314
▁vyhořelé	-11.6314
▁jízdenk	-11.6314
▁nejsme	-11.6314
▁podporoval	-11.6314
▁Hledá	-11.6314
▁adaptace	-11.6314
▁štědr	-11.6314
▁nepodaří	-11.6315
▁pojmu	-11.6315
▁kopií	-11.6315
▁oblouk	-11.6315
▁stimulaci	-11.6315
▁transport	-11.6315
▁1979	-11.6315
▁Zápas	-11.6315
▁písmo	-11.6315
▁ležel	-11.6315
▁málokdo	-11.6315
▁účinnější	-11.6315
▁Ježek	-11.6315
▁Španělsku	-11.6315
▁Následující	-11.6315
▁vejce	-11.6315
▁nikam	-11.6315
▁nájezd	-11.6315
▁jinam	-11.6315
▁ultra	-11.6315
▁protestant	-11.6315
▁odezv	-11.6315
▁zády	-11.6316
▁1970	-11.6316
▁nikde	-11.6316
▁umělců	-11.6316
▁pískov	-11.6316
vážil	-11.6316
▁hraček	-11.6316
▁Suková	-11.6316
▁zranil	-11.6316
▁bohatší	-11.6316
▁posílit	-11.6316
▁Jaw	-11.6317
▁kouření	-11.6317
▁psy	-11.6317
▁stanovisku	-11.6317
▁Januš	-11.6317
▁KGB	-11.6317
▁Přenos	-11.6317
▁třídenní	-11.6317
▁starat	-11.6317
▁Obavy	-11.6317
▁dovednost	-11.6317
▁vyzkoušet	-11.6317
▁koncept	-11.6317
▁trhů	-11.6317
▁Kováč	-11.6317
▁topení	-11.6317
▁vyhledávání	-11.6317
▁sněmu	-11.6318
▁Stef	-11.6318
▁lékařství	-11.6318
▁odnětí	-11.6318
▁železnice	-11.6318
vracení	-11.6318
▁inteligence	-11.6318
▁Jágr	-11.6319
▁koncepčn	-11.6319
▁manželkou	-11.6319
▁deště	-11.6319
▁Dostál	-11.6319
▁Boha	-11.6319
▁palet	-11.632
▁Snah	-11.632
▁případném	-11.632
▁přenáší	-11.632
▁zelené	-11.6321
▁výsad	-11.6321
▁způsobilosti	-11.6321
▁vracel	-11.6321
▁okně	-11.6321
▁články	-11.6321
▁deska	-11.6321
▁řadič	-11.6321
▁neznají	-11.6321
přát	-11.6322
▁kolegové	-11.6322
▁překonání	-11.6322
▁šesté	-11.6322
▁příloh	-11.6322
▁vyprš	-11.6322
staly	-11.6322
▁sloves	-11.6322
▁Indián	-11.6323
▁pozorovatel	-11.6323
▁odstoupení	-11.6324
▁ordinace	-11.6324
▁jasná	-11.6324
extrémně	-11.6324
▁oběhové	-11.6325
▁zkoumání	-11.6325
▁terč	-11.6325
▁protín	-11.6326
▁srovnateln	-11.6326
▁vyrazil	-11.6326
▁konstantní	-11.6326
▁organismy	-11.6326
▁spolupracuje	-11.6326
▁dostání	-11.6327
▁kříže	-11.6328
▁602	-11.6328
▁lahví	-11.6328
▁radikálně	-11.6329
▁novinky	-11.633
▁ČESK	-11.633
▁oběť	-11.633
▁France	-11.633
▁koncov	-11.633
▁sešla	-11.6331
▁rozměry	-11.6331
▁rozsáhlou	-11.6332
▁říční	-11.6332
▁křesťanské	-11.6332
▁šancí	-11.6332
▁Dvou	-11.6333
▁zařadit	-11.6333
▁závazku	-11.6334
▁nehraje	-11.6334
▁plánuje	-11.6334
▁Čína	-11.6334
▁výměně	-11.6334
▁nedají	-11.6335
formulovat	-11.6335
▁sloučení	-11.6335
▁příznaky	-11.6336
▁odletěl	-11.6336
NU	-11.6336
▁půlnoci	-11.6337
▁regionů	-11.6337
▁známky	-11.6337
▁dobrovolně	-11.6337
▁nechut	-11.6337
▁stížností	-11.6338
▁stáj	-11.6339
▁Student	-11.6339
▁představovat	-11.634
▁odhalení	-11.634
▁cla	-11.6341
▁dodržovat	-11.6342
▁výměnou	-11.6342
▁teroristický	-11.6343
▁ropy	-11.6343
ding	-11.6343
▁skoky	-11.6343
▁Open	-11.6344
▁pitné	-11.6344
▁Místopředsed	-11.6345
point	-11.6346
▁skrz	-11.6347
▁činitelé	-11.6347
▁teoreticky	-11.6347
▁neuvažuje	-11.6348
▁Dovol	-11.6348
▁hudba	-11.6348
▁Mnichově	-11.6348
▁funkcionářů	-11.6349
▁ponechal	-11.6349
▁Clintonová	-11.6349
▁vlhkost	-11.6349
▁záchranu	-11.635
▁dopravou	-11.635
▁bodech	-11.635
▁basketbalist	-11.6351
▁svatého	-11.6352
▁Karlov	-11.6352
▁stručně	-11.6353
▁honoráře	-11.6353
▁republikánsk	-11.6354
▁ukazatel	-11.6355
▁kolena	-11.6356
▁pětatřicet	-11.6357
▁věcech	-11.6357
▁pojmem	-11.6358
▁předpokladů	-11.6358
▁prodejen	-11.6358
▁směsi	-11.6359
▁vídeňské	-11.6359
▁vnímá	-11.636
▁Chorvatsku	-11.636
▁mřížky	-11.636
▁vlastnostmi	-11.636
▁dostanete	-11.636
▁Střední	-11.6361
▁rakouských	-11.6362
▁znakem	-11.6362
▁provádění	-11.6363
▁vzdálený	-11.6363
čková	-11.6365
▁zdálo	-11.6365
▁soukromá	-11.6365
▁psací	-11.6365
▁lokality	-11.6365
▁působnost	-11.6366
▁pout	-11.6366
▁pleti	-11.6366
▁zklamání	-11.6367
▁neshody	-11.6367
▁Bonnu	-11.6367
▁porážky	-11.6367
▁etapu	-11.6368
▁sochař	-11.6369
▁zájezdů	-11.6369
▁zpožděním	-11.6369
▁zakládání	-11.637
▁kůry	-11.637
▁drsn	-11.637
▁tématem	-11.6371
▁nervové	-11.6372
▁obdobím	-11.6374
▁Červen	-11.6375
▁publikum	-11.6375
eně	-11.6377
▁náhradník	-11.6377
▁hrací	-11.6378
▁podob	-11.6378
▁větě	-11.6378
smluvně	-11.6378
čínsk	-11.6379
▁teplotou	-11.638
▁buněčné	-11.6381
▁Výborný	-11.6381
▁kostr	-11.6381
▁jednorázové	-11.6382
▁kostele	-11.6383
▁doprav	-11.6384
▁dovedl	-11.6385
▁uloženy	-11.6385
▁symbolem	-11.6389
▁popsal	-11.639
zemědělská	-11.6391
▁thajské	-11.6391
▁činitelů	-11.6393
▁spořitelny	-11.6394
▁Adam	-11.6394
▁organismus	-11.6394
▁lidskou	-11.6395
▁Strany	-11.6395
▁finálové	-11.6395
▁paláci	-11.6395
▁čtverečních	-11.6396
▁většinový	-11.6398
▁popel	-11.6399
▁kyseliny	-11.64
▁programech	-11.6401
▁Západní	-11.6401
▁srbské	-11.6401
▁hormony	-11.6401
▁nepříznivý	-11.6403
▁pochopili	-11.6403
▁umožnilo	-11.6403
▁modré	-11.6407
▁gólem	-11.6407
▁POD	-11.6408
▁náhrada	-11.6409
▁přestupu	-11.641
▁faktur	-11.641
▁kolegům	-11.6411
▁narozen	-11.6411
▁vynález	-11.6412
▁Kanady	-11.6413
▁rohu	-11.6413
▁had	-11.6414
▁autobusu	-11.6414
▁spuštěn	-11.6416
▁Brod	-11.6416
▁zmizela	-11.6417
▁zajišťoval	-11.6418
▁ceníku	-11.6428
▁startem	-11.643
▁použito	-11.643
▁dluhu	-11.6431
▁kdybych	-11.6432
▁kontaktů	-11.6434
▁okolnosti	-11.6435
▁hezké	-11.6435
▁výměna	-11.6437
▁Jelcinovi	-11.6437
▁navázal	-11.6438
▁nemůžete	-11.6439
▁Řím	-11.6439
▁animac	-11.6441
▁diskety	-11.6444
▁skladby	-11.6444
▁ostré	-11.6445
▁teplotu	-11.6447
vlastn	-11.6451
▁Vysoké	-11.6451
▁částech	-11.6451
▁schopný	-11.6454
▁záznamy	-11.6458
▁boty	-11.6458
▁oslavil	-11.6459
▁Firmy	-11.6464
▁kancelářské	-11.6464
▁pokusili	-11.6464
▁Západoevropsk	-11.6465
▁klientům	-11.6465
▁odhadů	-11.6467
▁hrobu	-11.6468
▁čerstvé	-11.6469
▁nastává	-11.6469
▁mimořádného	-11.6471
▁útoky	-11.6472
▁kamenné	-11.6474
▁měnící	-11.6474
▁novinka	-11.6475
▁svazk	-11.6476
platila	-11.6479
▁Bulharsk	-11.648
▁peče	-11.648
▁Mars	-11.648
běhnout	-11.6483
▁hrdina	-11.6485
▁kult	-11.6485
▁vyřešil	-11.649
▁vkládání	-11.6493
▁Mont	-11.6494
▁dohodnuté	-11.6494
ladit	-11.6496
▁trendy	-11.6499
▁počítal	-11.65
šan	-11.6507
▁návrhář	-11.6508
▁Map	-11.6508
▁olympijském	-11.6508
socialistický	-11.6511
žívají	-11.6511
▁zúčastnili	-11.6512
konkurenceschopn	-11.6514
▁poločas	-11.6515
▁kulturním	-11.6518
▁účastí	-11.652
anů	-11.6525
▁způsobilo	-11.6526
děluje	-11.6528
▁investory	-11.6529
▁slab	-11.653
▁projevů	-11.6532
▁dobrým	-11.6533
▁připravili	-11.6535
▁kapaliny	-11.6537
▁desetiletích	-11.6539
▁třídu	-11.6542
▁hmotné	-11.6543
▁lékařského	-11.6545
▁nároku	-11.6546
▁odp	-11.6547
▁Vir	-11.6547
▁dopisu	-11.6548
▁Začátk	-11.655
vojí	-11.6551
▁zničen	-11.6551
▁čar	-11.6553
▁ČT	-11.6555
▁listopad	-11.6556
▁Obsahuj	-11.6557
▁objektem	-11.6559
▁manželů	-11.6564
▁předností	-11.6568
▁Národního	-11.6572
▁Koš	-11.6574
kolej	-11.6575
terak	-11.6576
lít	-11.6583
▁vhodným	-11.6584
dávání	-11.6586
▁čtyřlet	-11.6586
▁tyči	-11.6587
▁akciový	-11.659
▁odvod	-11.6598
což	-11.6601
▁Nemám	-11.6603
▁známého	-11.6606
▁atletické	-11.6607
▁chybou	-11.6608
▁potvrdily	-11.6608
▁podnikem	-11.6609
slyš	-11.661
▁Gorbačova	-11.661
▁zobrazen	-11.6612
▁nástrojem	-11.6612
500	-11.6613
▁zasáhl	-11.6614
▁jakýkoli	-11.6616
▁poloh	-11.6616
delov	-11.6617
daná	-11.6617
ložený	-11.6618
▁provedené	-11.6619
▁pevn	-11.662
ND	-11.6621
▁divákům	-11.6621
▁úrokové	-11.6624
▁studentům	-11.6625
▁dáma	-11.6625
kdy	-11.6627
kladem	-11.6629
▁slavnost	-11.663
▁uvolnil	-11.6632
▁Dob	-11.6644
ničím	-11.6647
tkání	-11.6649
placení	-11.6649
▁úvěru	-11.665
imochodem	-11.6654
▁neprav	-11.6654
▁trestu	-11.6655
▁ministry	-11.6658
▁přechodné	-11.6659
▁chladné	-11.6661
▁Výkon	-11.6662
▁bezmocn	-11.6666
▁zodpovědn	-11.6666
▁léč	-11.6669
končit	-11.667
▁vypadl	-11.6671
▁specifický	-11.6674
členné	-11.6679
tex	-11.6681
▁lékařům	-11.6683
vým	-11.6684
▁majiteli	-11.6689
▁189	-11.6693
▁čestné	-11.6697
▁centrál	-11.6698
▁snížením	-11.6699
▁váhy	-11.6699
▁poctiv	-11.6701
▁chemick	-11.6703
rodil	-11.6707
▁nekonečn	-11.6709
▁spí	-11.6711
▁životem	-11.6714
ČS	-11.6716
▁vstoupí	-11.6716
▁stavem	-11.6716
střih	-11.6718
▁sním	-11.6718
▁náhrad	-11.6719
▁červený	-11.6725
▁brzd	-11.6726
▁tenisový	-11.6735
ckým	-11.6738
nucen	-11.6741
▁iniciativ	-11.6741
rovnávání	-11.6742
▁Bub	-11.6743
▁starým	-11.6752
▁Slov	-11.6756
▁přesnost	-11.6758
▁závazný	-11.6758
▁výtvarný	-11.676
▁3,	-11.6766
▁1:	-11.6768
▁vymez	-11.677
▁prezidentské	-11.6771
▁Mor	-11.6774
▁Evropan	-11.6774
▁sociálním	-11.6775
léhá	-11.6776
▁nasazen	-11.6786
růstá	-11.6795
▁tepeln	-11.6796
▁pětadvacet	-11.6797
dvacetiletý	-11.6798
▁meziroční	-11.6798
▁známost	-11.68
nesla	-11.6801
▁měkký	-11.6802
▁vůdc	-11.6804
▁panu	-11.6804
▁Dynam	-11.6809
▁očekávaný	-11.6811
▁Zájemc	-11.6813
▁1300	-11.6817
▁zvukový	-11.6821
svit	-11.6826
vládnout	-11.6827
can	-11.6831
▁pouhým	-11.6833
luje	-11.6833
▁kolečk	-11.6838
sát	-11.6839
95	-11.6839
▁bezplatn	-11.6849
soudí	-11.685
▁chodil	-11.6857
které	-11.6857
hradí	-11.6858
▁Nebude	-11.6859
lle	-11.6859
78	-11.6861
žití	-11.6866
▁pouč	-11.6868
▁cenový	-11.6871
▁kated	-11.6871
▁JAK	-11.6878
▁trn	-11.6882
▁vítězstvím	-11.6884
▁čtvrti	-11.6884
▁úrokový	-11.6887
rovné	-11.689
▁Char	-11.6892
▁Lys	-11.6893
▁Spart	-11.6894
▁Škod	-11.6897
▁plánovaný	-11.6898
▁dovážen	-11.6903
BU	-11.6904
▁pozorně	-11.6906
ámek	-11.6908
▁adapt	-11.6909
knout	-11.6912
▁akcionáře	-11.6912
1992	-11.6915
▁fotbale	-11.6916
▁mateřsk	-11.6916
▁minul	-11.6918
▁skutečn	-11.6919
▁popisu	-11.6919
▁ptá	-11.6921
▁zisky	-11.6925
histor	-11.6929
▁statistický	-11.6931
▁We	-11.6932
▁žlutý	-11.6932
▁hrubý	-11.6932
▁neomezen	-11.6935
ÁN	-11.6936
▁detail	-11.6938
▁západ	-11.694
▁optimismu	-11.6944
▁maxim	-11.6946
▁severním	-11.6948
▁Nebe	-11.695
▁reálném	-11.6953
▁lékařem	-11.6953
▁hustot	-11.6953
▁průhledn	-11.6955
▁výdaj	-11.6958
▁poslech	-11.6965
▁Opti	-11.6968
▁příznivý	-11.697
▁motorový	-11.697
▁9000	-11.697
47	-11.6975
▁autorov	-11.6975
nických	-11.6976
tvoří	-11.6977
▁piv	-11.6978
▁odhadu	-11.6979
▁úlev	-11.6979
▁tramvaj	-11.6981
▁stoupl	-11.6982
▁penězi	-11.6984
▁otevřeno	-11.6985
blok	-11.6987
rah	-11.6988
▁aktivně	-11.6988
▁zlatý	-11.6989
▁dosahují	-11.6997
▁požadovan	-11.7
▁Bój	-11.7002
kazuje	-11.7002
▁Ekonomick	-11.7006
▁tribunál	-11.7006
ety	-11.7006
▁nálad	-11.7006
▁atentát	-11.7007
▁nízký	-11.7007
▁náprav	-11.7007
▁ToolBook	-11.7008
▁Senát	-11.7009
▁náročn	-11.7012
▁orientac	-11.7015
▁neexistují	-11.7016
▁schránk	-11.7018
▁penzion	-11.702
plácet	-11.702
▁mrav	-11.7022
▁Ann	-11.7024
▁patent	-11.7027
▁nepřítel	-11.7028
ticky	-11.7032
rušit	-11.7033
▁pochybnost	-11.7033
▁speciali	-11.7035
92	-11.7036
▁kytar	-11.7036
▁Zásad	-11.7039
▁interak	-11.704
▁nádob	-11.7041
▁soustředěn	-11.7041
▁vytvářen	-11.7048
▁formulář	-11.7048
▁meteorolog	-11.7051
čátek	-11.7053
▁rozprav	-11.7054
▁anket	-11.7056
▁kořen	-11.7056
▁totemismu	-11.7057
úpln	-11.7058
▁osvobozen	-11.706
▁osvět	-11.7061
▁archív	-11.7065
▁právnick	-11.7065
nápověd	-11.7066
▁interpret	-11.7069
ěsíční	-11.7069
radioaktivní	-11.707
▁odstín	-11.7073
▁senát	-11.7074
▁muzik	-11.7077
▁prospěšn	-11.708
▁Budějovic	-11.7081
▁vztek	-11.7083
restrukturalizac	-11.7083
vyskytuje	-11.7083
ŠTÍ	-11.7083
▁Australan	-11.7083
▁Chvalovský	-11.7083
▁Dlouhý	-11.7083
▁Frýdku	-11.7083
▁Gretzky	-11.7083
▁Hercegovin	-11.7083
▁Holbrooke	-11.7083
▁Klient	-11.7083
▁Kravčuk	-11.7083
▁Margaret	-11.7083
▁Marseille	-11.7083
▁MicroStation	-11.7083
▁Oxfordu	-11.7083
▁Očekává	-11.7083
▁Parlament	-11.7083
▁Plzně	-11.7083
▁Pospíšil	-11.7083
▁Rangers	-11.7083
▁Sládka	-11.7083
▁Varšav	-11.7083
▁Zeitung	-11.7083
▁analytik	-11.7083
▁antropogenní	-11.7083
▁cyklů	-11.7083
▁definován	-11.7083
▁delegací	-11.7083
▁diktatur	-11.7083
▁disident	-11.7083
▁dodávku	-11.7083
▁dominantní	-11.7083
▁domnívat	-11.7083
▁doporučit	-11.7083
▁elektrárna	-11.7083
▁epizod	-11.7083
▁fanoušci	-11.7083
▁fázové	-11.7083
▁havárie	-11.7083
▁hypoték	-11.7083
▁hájit	-11.7083
▁hřbet	-11.7083
▁instalační	-11.7083
▁izolační	-11.7083
▁kariéry	-11.7083
▁knihkupectví	-11.7083
▁křesla	-11.7083
▁legální	-11.7083
▁libovolné	-11.7083
▁lukrativní	-11.7083
▁lístku	-11.7083
▁manažeři	-11.7083
▁média	-11.7083
▁navštívit	-11.7083
▁nejčastější	-11.7083
▁nervozit	-11.7083
▁náznak	-11.7083
▁odcházel	-11.7083
▁perfektní	-11.7083
▁podrážděn	-11.7083
▁poliklinik	-11.7083
▁portrét	-11.7083
▁poselství	-11.7083
▁posuzoval	-11.7083
▁prezentován	-11.7083
▁připomínal	-11.7083
▁reprezentovat	-11.7083
▁roztříštěn	-11.7083
▁službách	-11.7083
▁stránkách	-11.7083
[...]
