<unk>	0
<s>	0
</s>	0
<doc>	0
</doc>	0
<head>	0
</head>	0
<phr>	0
</phr>	0
▁	-1.75611
,	-3.35206
.	-3.49503
▁a	-4.42916
▁v	-4.4797
a	-4.51049
▁se	-4.58563
u	-4.59321
m	-4.67639
▁na	-4.68682
i	-4.82937
y	-4.84674
ch	-4.94401
▁je	-5.11643
ho	-5.28629
▁"	-5.30262
▁s	-5.30283
▁z	-5.30601
▁že	-5.36843
o	-5.43618
e	-5.48726
á	-5.52349
▁do	-5.58301
▁o	-5.59173
s	-5.63348
ou	-5.6363
í	-5.66687
em	-5.74059
é	-5.74256
▁pro	-5.76153
▁za	-5.76781
ě	-5.79327
t	-5.86517
▁po	-5.88085
▁-	-5.88621
ů	-5.92674
▁k	-5.96224
ž	-6.00981
to	-6.03436
▁V	-6.05456
▁to	-6.07128
▁ve	-6.0993
▁(	-6.10348
mi	-6.16779
▁by	-6.20299
▁i	-6.21331
ý	-6.29076
▁ale	-6.30635
>	-6.3212
▁od	-6.35917
z	-6.38518
▁si	-6.39639
ní	-6.42384
▁při	-6.47466
▁jsou	-6.49663
▁jako	-6.51363
▁které	-6.54868
ých	-6.54986
l	-6.56592
v	-6.56834
▁ne	-6.58357
p	-6.58532
d	-6.59231
ně	-6.60024
)	-6.61003
▁však	-6.62609
▁S	-6.66172
▁:	-6.6625
▁tak	-6.67138
r	-6.71343
me	-6.72087
▁který	-6.74193
te	-6.74624
k	-6.75145
ce	-6.76756
▁vy	-6.79462
x	-6.80033
▁nebo	-6.82411
▁Po	-6.83202
▁jeho	-6.83221
▁bude	-6.84182
ka	-6.85967
?	-6.86674
na	-6.89761
▁jen	-6.90475
▁A	-6.91269
▁před	-6.96341
▁než	-6.98465
li	-6.98641
▁má	-6.99007
la	-7.01581
né	-7.01991
▁Na	-7.02033
ku	-7.03049
ové	-7.03628
▁už	-7.04153
b	-7.05618
▁aby	-7.06801
ná	-7.0846
▁byl	-7.08498
▁Z	-7.08626
č	-7.08743
ého	-7.09112
▁jak	-7.09912
▁jejich	-7.10476
▁jsem	-7.11806
▁být	-7.12031
▁až	-7.13186
mu	-7.15524
▁která	-7.16516
▁také	-7.17204
ech	-7.17234
ci	-7.17462
ky	-7.1941
▁jsme	-7.20483
▁Je	-7.21184
▁podle	-7.2155
▁<	-7.21623
n	-7.2197
▁ze	-7.23608
▁O	-7.25506
š	-7.25794
▁P	-7.27233
le	-7.27542
lo	-7.28553
it	-7.30387
▁co	-7.30863
▁není	-7.33794
▁K	-7.33853
j	-7.34914
▁mezi	-7.35729
ovat	-7.36079
st	-7.36962
uje	-7.37113
▁bylo	-7.37472
▁ani	-7.38285
▁své	-7.38686
▁či	-7.38801
▁pře	-7.3945
▁ještě	-7.39887
▁již	-7.40988
▁když	-7.41952
že	-7.42002
ek	-7.42174
▁může	-7.42733
▁byla	-7.45092
▁let	-7.45569
c	-7.45633
▁toho	-7.47027
h	-7.472
cí	-7.47323
nou	-7.47393
ni	-7.47445
ová	-7.48183
ým	-7.48236
kud	-7.49016
▁korun	-7.49059
/	-7.50438
ře	-7.53222
).	-7.53595
▁pak	-7.53844
▁pod	-7.56615
▁další	-7.56763
▁kteří	-7.57589
en	-7.57855
al	-7.57858
▁kde	-7.57972
▁tím	-7.58678
f	-7.59363
▁bez	-7.59582
▁To	-7.60238
in	-7.61649
▁více	-7.61806
▁té	-7.62228
ný	-7.62235
ze	-7.63646
▁tedy	-7.6389
▁Ne	-7.64003
▁první	-7.64132
▁roku	-7.64135
ň	-7.67753
no	-7.67826
po	-7.6815
▁nich	-7.68793
ování	-7.68871
jí	-7.6941
g	-7.69452
ří	-7.695
ách	-7.69743
),	-7.70281
il	-7.7276
▁mají	-7.73375
▁M	-7.74055
▁tu	-7.75089
ne	-7.7588
▁Za	-7.76312
ost	-7.76444
▁U	-7.77165
ových	-7.77285
ra	-7.7742
ské	-7.7742
-	-7.78105
▁kdy	-7.78178
▁roce	-7.78249
ují	-7.7832
▁pouze	-7.78525
▁musí	-7.78771
ta	-7.79345
▁roz	-7.7952
▁proti	-7.79935
vá	-7.80137
▁tom	-7.80312
▁I	-7.81434
▁tomu	-7.81907
on	-7.82854
ům	-7.82938
▁ke	-7.83525
▁proto	-7.84168
ných	-7.85004
ovi	-7.85197
▁budou	-7.85343
▁J	-7.86056
lu	-7.86183
▁třeba	-7.86813
▁Do	-7.86995
ru	-7.87028
▁protože	-7.87661
▁li	-7.8769
ři	-7.87762
▁totiž	-7.88392
▁nad	-7.88811
▁Pro	-7.89201
▁nás	-7.90023
ko	-7.90026
ti	-7.90096
pl	-7.90324
▁D	-7.9079
▁lze	-7.90818
▁H	-7.91514
ro	-7.93565
▁její	-7.93954
▁asi	-7.94206
cích	-7.9422
▁přes	-7.94997
ov	-7.95177
▁byly	-7.95522
▁měl	-7.9565
▁poslední	-7.95793
▁velmi	-7.95854
▁zatím	-7.96425
▁řekl	-7.96842
ř	-7.98136
▁vlastní	-7.98605
vě	-8.00021
da	-8.0101
▁včera	-8.01143
kou	-8.01179
el	-8.0161
je	-8.03227
ny	-8.03839
▁Při	-8.04104
va	-8.04139
co	-8.04878
▁všech	-8.05288
▁ty	-8.05809
▁dnes	-8.06065
▁firmy	-8.06544
▁dva	-8.07442
▁ob	-8.08201
▁Podl	-8.08227
če	-8.08674
▁především	-8.08873
▁G	-8.09331
ví	-8.09456
ly	-8.09726
▁tisíc	-8.09959
or	-8.10352
▁případě	-8.11355
osti	-8.11811
ový	-8.11985
▁Ve	-8.11992
▁'	-8.12236
at	-8.12286
děl	-8.12765
er	-8.12854
▁například	-8.12998
nu	-8.13062
ém	-8.13511
ty	-8.13619
či	-8.14036
▁nám	-8.14565
▁nej	-8.15193
čí	-8.15399
▁rok	-8.1559
lí	-8.15804
▁době	-8.15963
▁nyní	-8.16212
▁T	-8.1643
▁tři	-8.16863
▁mít	-8.17033
ba	-8.17519
lá	-8.18165
se	-8.19003
▁procent	-8.19452
▁dvou	-8.1946
M	-8.19636
▁ji	-8.20214
tě	-8.20267
oval	-8.20715
ného	-8.20929
vý	-8.21024
▁jim	-8.2115
▁lidí	-8.2119
D	-8.21233
▁společnosti	-8.21393
▁B	-8.21549
▁práce	-8.21593
ovou	-8.21655
▁zda	-8.21768
▁mohou	-8.21872
S	-8.21899
▁stále	-8.22144
▁jeden	-8.22279
ri	-8.22414
ma	-8.22509
de	-8.22682
▁těchto	-8.22807
▁ovšem	-8.22937
▁všechny	-8.23201
tu	-8.23266
právě	-8.24256
▁Co	-8.24342
tr	-8.24535
vol	-8.25098
▁několik	-8.25476
▁kterou	-8.27316
▁což	-8.27779
ami	-8.28209
ská	-8.28309
...	-8.28384
vi	-8.28608
▁něm	-8.28763
ší	-8.29333
▁tento	-8.301
T	-8.30166
ově	-8.30196
3	-8.31285
ích	-8.31313
▁Ale	-8.32348
▁možné	-8.32389
kr	-8.32416
▁jednání	-8.32471
ými	-8.32926
▁České	-8.33486
K	-8.33841
an	-8.34232
▁Jak	-8.34276
▁dalších	-8.34429
ry	-8.34676
cela	-8.34726
▁nové	-8.34739
ha	-8.35543
tá	-8.36277
▁L	-8.36538
ský	-8.36577
re	-8.3666
▁R	-8.36672
si	-8.36777
▁měla	-8.36897
▁jde	-8.36944
▁ČR	-8.3696
▁kdo	-8.37092
▁Od	-8.37377
du	-8.37495
▁Praze	-8.37734
ním	-8.37782
B	-8.3802
▁zejména	-8.38321
▁základní	-8.38402
ového	-8.3852
ků	-8.38613
téměř	-8.38627
▁naše	-8.39045
▁zařízení	-8.39094
▁svou	-8.39304
hr	-8.39604
za	-8.40725
▁Proto	-8.41085
spo	-8.41158
▁strany	-8.41296
ám	-8.41884
nost	-8.42333
▁naši	-8.42516
▁C	-8.42648
▁možnost	-8.42801
▁prostředí	-8.43115
P	-8.4344
ních	-8.43674
▁letech	-8.4388
▁sice	-8.44082
hl	-8.4424
ských	-8.44248
us	-8.4439
R	-8.4452
ující	-8.44673
▁F	-8.44682
▁dvě	-8.44774
▁Kdy	-8.44808
2	-8.45065
▁svého	-8.4514
▁každý	-8.4574
▁větší	-8.46078
by	-8.46202
▁svých	-8.46224
I	-8.46701
▁nejen	-8.4742
5	-8.47563
L	-8.47587
dr	-8.47772
▁jiné	-8.48247
od	-8.48372
ným	-8.48397
▁místo	-8.49064
ova	-8.49241
▁část	-8.49251
ského	-8.49656
ká	-8.50127
▁světa	-8.50241
▁uvedl	-8.50248
ení	-8.50296
▁tomto	-8.50468
pr	-8.50719
V	-8.50751
▁de	-8.51045
▁Tak	-8.5154
▁druhé	-8.52841
lé	-8.52939
▁000	-8.5326
▁Ko	-8.53479
ží	-8.53975
ť	-8.54031
ve	-8.54101
ec	-8.54131
▁milionů	-8.54222
tí	-8.54373
▁stát	-8.54591
▁systém	-8.54698
nější	-8.54994
▁1	-8.55008
▁zde	-8.55037
ji	-8.55184
▁nic	-8.55251
▁něco	-8.55457
▁vlády	-8.5553
tra	-8.55572
A	-8.55635
▁svým	-8.55753
ím	-8.56382
▁mu	-8.5676
še	-8.57026
▁čas	-8.57052
▁stejně	-8.57054
▁10	-8.57067
1	-8.57319
▁říká	-8.57329
C	-8.57576
ští	-8.57673
bu	-8.57938
▁některé	-8.58538
▁kolem	-8.58583
▁země	-8.5874
▁ceny	-8.59103
7	-8.59234
kem	-8.59464
is	-8.59546
▁zákona	-8.60005
▁zboží	-8.60223
N	-8.60295
ar	-8.60736
▁tam	-8.6088
▁2	-8.60912
et	-8.61016
▁mě	-8.61359
▁zákon	-8.61929
▁oblasti	-8.62099
▁Š	-8.6217
val	-8.62524
▁dobře	-8.62634
▁příliš	-8.62781
ši	-8.62859
▁patří	-8.62871
▁Vy	-8.62902
▁finanční	-8.63342
▁svůj	-8.6354
▁dosud	-8.63546
▁pracovní	-8.63791
▁některých	-8.63966
▁práci	-8.6422
ické	-8.64455
▁3	-8.64559
▁firma	-8.6456
▁zemí	-8.64612
w	-8.64767
ální	-8.64861
▁byli	-8.65088
ter	-8.65132
6	-8.65156
▁vůbec	-8.65646
▁ú	-8.65676
▁opět	-8.65924
▁několika	-8.66233
4	-8.66737
▁sociální	-8.66817
▁vždy	-8.67126
▁období	-8.67333
E	-8.67719
▁Jan	-8.67746
0	-8.67757
9	-8.67867
os	-8.67899
▁neboť	-8.68165
vr	-8.68901
pa	-8.68923
▁neu	-8.68951
▁ten	-8.70518
ob	-8.70751
ace	-8.71096
▁%	-8.71478
▁střední	-8.71482
▁nejsou	-8.71645
▁E	-8.71788
▁svět	-8.71858
▁často	-8.71926
dí	-8.72208
▁vyšší	-8.72237
▁jež	-8.72518
ají	-8.72614
▁nemá	-8.72798
▁nepo	-8.73166
▁systému	-8.73225
lou	-8.73378
ců	-8.73751
ované	-8.73837
▁dokonce	-8.73869
▁program	-8.74017
ili	-8.74052
▁jste	-8.74255
▁přímo	-8.74371
▁hodin	-8.7473
ur	-8.74855
▁USA	-8.74862
dy	-8.75066
▁měli	-8.7538
▁společnost	-8.75385
▁sám	-8.7554
lit	-8.75929
▁den	-8.76038
▁Kč	-8.76157
▁Js	-8.76351
Z	-8.76523
▁lidé	-8.76545
ční	-8.76578
▁celé	-8.76731
▁N	-8.7693
▁části	-8.77161
ější	-8.77299
▁obchodní	-8.7743
▁nebude	-8.77499
během	-8.77738
▁doby	-8.77784
aci	-8.77846
zí	-8.78032
pe	-8.78056
▁rovněž	-8.78087
nosti	-8.78171
▁níž	-8.78317
▁pět	-8.7851
br	-8.7862
▁informace	-8.7887
▁trhu	-8.78938
ila	-8.79079
▁prezident	-8.79203
▁sebe	-8.79224
vod	-8.79469
▁nimi	-8.7963
▁První	-8.79667
▁počet	-8.79703
▁čtyři	-8.79849
vůli	-8.80116
stav	-8.80388
včetně	-8.80465
str	-8.80531
zřejmě	-8.80698
▁půl	-8.80734
▁vše	-8.80827
▁situace	-8.80862
▁takže	-8.80977
▁Ty	-8.81097
ovali	-8.81378
pra	-8.814
▁zahraničí	-8.8167
▁státní	-8.81788
▁nevy	-8.81871
▁19	-8.82231
ační	-8.82324
▁mohl	-8.82394
let	-8.82448
▁jedn	-8.83263
00	-8.83692
tato	-8.83835
▁méně	-8.83938
▁W	-8.84291
▁např	-8.84321
▁ministr	-8.84359
▁Evropy	-8.84551
▁peníze	-8.84551
▁řešení	-8.846
ot	-8.85069
▁5	-8.85389
▁Zatím	-8.8541
▁víc	-8.85414
▁mnoho	-8.8554
▁něj	-8.85856
skou	-8.86114
▁chce	-8.86142
ste	-8.8619
ací	-8.8628
▁vám	-8.86293
▁jednotlivý	-8.86448
▁způsobem	-8.86481
▁snad	-8.86507
▁největší	-8.86523
ovací	-8.86564
▁znamená	-8.86627
hu	-8.86631
▁takové	-8.86778
▁nez	-8.86887
▁ředitel	-8.87188
▁člověk	-8.87274
▁spíše	-8.87488
▁republiky	-8.87498
▁české	-8.87639
ol	-8.87999
pat	-8.8801
▁velký	-8.88113
▁sto	-8.88276
▁navíc	-8.88817
▁rozhodnutí	-8.8883
▁přitom	-8.88852
▁dále	-8.88901
▁dobu	-8.88934
▁rozdíl	-8.89048
fi	-8.89054
ad	-8.89349
Á	-8.89548
mat	-8.89564
▁vlastně	-8.89718
▁šest	-8.89892
▁problémy	-8.89941
O	-8.90071
▁jednoho	-8.90126
ing	-8.90301
▁naopak	-8.90576
▁Před	-8.90775
▁množství	-8.9102
▁stav	-8.91079
%	-8.91338
8	-8.91458
ovým	-8.91715
▁tří	-8.91762
▁nes	-8.91901
▁naší	-8.91912
▁zájem	-8.92594
rt	-8.9264
▁letošní	-8.92719
ga	-8.92763
▁města	-8.92844
▁skutečně	-8.92867
▁život	-8.93091
F	-8.931
▁1992	-8.93159
ú	-8.93173
▁20	-8.933
op	-8.93313
▁straně	-8.93519
▁většinou	-8.93728
▁znovu	-8.93734
▁řízení	-8.93756
▁zahraniční	-8.94027
▁nedo	-8.94184
▁zhruba	-8.94246
▁životní	-8.95081
▁vláda	-8.95099
es	-8.951
U	-8.95155
▁Petr	-8.95238
▁jej	-8.95298
▁mimo	-8.95352
▁současné	-8.95373
klad	-8.95472
ik	-8.95547
vat	-8.95732
▁re	-8.958
man	-8.95982
▁území	-8.96043
▁platí	-8.96281
▁jiných	-8.96491
▁soud	-8.96503
▁Jiří	-8.96513
čka	-8.96737
▁nelze	-8.9702
▁pan	-8.97055
▁zase	-8.97125
▁celý	-8.97278
▁1.	-8.97452
H	-8.97515
▁Re	-8.97688
▁bych	-8.97715
▁začal	-8.97815
▁velké	-8.97938
ant	-8.97955
sta	-8.9799
ud	-8.98185
▁pří	-8.98259
▁Tr	-8.98419
▁letos	-8.98504
▁smlouvy	-8.98893
▁tzv	-8.98916
▁dolarů	-8.98946
▁4	-8.99482
sp	-8.9956
án	-8.99633
ice	-8.99739
▁osob	-9.00109
▁Ta	-9.00151
▁jedné	-9.00248
▁Te	-9.00443
▁neza	-9.00506
▁pomocí	-9.00571
▁lepší	-9.00841
▁roky	-9.01293
▁činnosti	-9.01584
jší	-9.01707
▁Se	-9.0174
▁trh	-9.01742
▁prohlásil	-9.01885
ovala	-9.02031
▁problém	-9.02643
nov	-9.02724
▁Přesto	-9.02934
ič	-9.02993
▁vás	-9.03172
▁jednou	-9.03246
▁dlouho	-9.03298
▁dost	-9.03511
▁světě	-9.03746
ání	-9.03765
vo	-9.03793
▁různých	-9.03858
▁spolu	-9.04038
▁hlavní	-9.0433
▁později	-9.04342
ův	-9.04365
ev	-9.0459
zn	-9.04631
▁Ch	-9.04631
ven	-9.04728
▁státu	-9.04988
pis	-9.05083
▁nemůže	-9.05253
bě	-9.0538
▁30	-9.05427
▁můžete	-9.05455
té	-9.05611
hled	-9.0568
ck	-9.05743
▁vedení	-9.05805
▁ČSFR	-9.05879
ul	-9.06101
▁pěti	-9.06219
▁programu	-9.06245
▁Ma	-9.0644
▁člověka	-9.06692
▁moc	-9.06787
▁Evropě	-9.06918
rad	-9.07236
▁podniku	-9.07327
▁skupiny	-9.07385
▁století	-9.07448
▁Václav	-9.07877
▁služby	-9.07967
ního	-9.08027
▁věci	-9.08036
▁bývalé	-9.08037
▁Má	-9.08075
▁obě	-9.08212
▁málo	-9.08525
▁deset	-9.08626
▁domácí	-9.08726
▁jaké	-9.08752
sti	-9.08856
▁činnost	-9.08955
▁funkce	-9.0903
▁jinak	-9.09032
▁prý	-9.09086
▁mělo	-9.09449
kové	-9.09589
ník	-9.09631
▁kole	-9.09709
▁zároveň	-9.09744
cen	-9.099
▁jedna	-9.0999
há	-9.09994
▁situaci	-9.10101
▁obou	-9.10543
vy	-9.10616
▁dnešní	-9.10644
▁dobré	-9.10655
do	-9.10697
gr	-9.10722
nik	-9.1075
▁chyb	-9.10994
ák	-9.1101
▁možná	-9.11185
▁snímku	-9.11186
▁jedno	-9.11361
▁náklady	-9.11392
▁návrh	-9.11532
▁stojí	-9.11707
▁100	-9.1189
▁přesto	-9.11961
kon	-9.12297
▁prvním	-9.12511
▁místní	-9.12535
▁CD	-9.12624
▁cenu	-9.12835
▁Le	-9.12838
▁máme	-9.13087
▁nových	-9.13167
▁tvrdí	-9.13224
▁měly	-9.13252
▁mohli	-9.13361
▁děti	-9.13389
▁1993	-9.13391
▁vedoucí	-9.1348
▁firem	-9.1356
▁text	-9.13613
:	-9.14497
▁získat	-9.14509
▁Praha	-9.1451
stup	-9.1455
▁Ro	-9.14634
▁způsob	-9.14936
▁nejlepší	-9.15225
▁států	-9.15284
bou	-9.15465
▁toto	-9.15523
▁Byl	-9.15569
▁majetku	-9.15642
▁nakonec	-9.15643
▁těch	-9.1573
sk	-9.15733
▁všechno	-9.15783
ali	-9.15844
▁15	-9.15991
nout	-9.16214
▁nikdy	-9.16217
▁podnik	-9.16377
▁postup	-9.16585
▁právní	-9.16951
▁výši	-9.17095
ství	-9.17215
id	-9.17249
▁premiér	-9.17287
per	-9.17326
▁podniků	-9.17374
ému	-9.17387
▁St	-9.1757
Í	-9.17571
▁konce	-9.17662
▁svém	-9.17835
▁lety	-9.17929
▁pár	-9.17977
nt	-9.17996
žen	-9.18064
▁místě	-9.18317
▁Mar	-9.18317
▁proč	-9.1838
▁vliv	-9.18568
men	-9.18624
▁dříve	-9.1864
▁vody	-9.18707
▁dne	-9.18817
▁možnosti	-9.19069
▁třetí	-9.19118
▁americké	-9.1914
▁nového	-9.19208
sku	-9.19228
▁Bo	-9.1924
▁dál	-9.19309
be	-9.19565
▁Prahy	-9.19713
▁sobotu	-9.19777
šlo	-9.19908
krát	-9.20102
▁stavu	-9.20145
▁nebyl	-9.20215
▁nutné	-9.20308
pro	-9.20388
▁kdyby	-9.20399
▁mezinárodní	-9.20709
▁Pa	-9.21018
▁bychom	-9.21336
▁předseda	-9.21455
▁týden	-9.21455
kl	-9.21542
▁já	-9.21558
▁parlamentu	-9.21564
▁minut	-9.21609
nit	-9.21741
ném	-9.21801
▁osm	-9.2217
▁stran	-9.22231
▁přece	-9.22235
ct	-9.22331
▁Tento	-9.22345
▁zemi	-9.22612
▁ministerstva	-9.22725
▁pohled	-9.22742
ilo	-9.22793
▁nepři	-9.229
▁Ten	-9.22947
ován	-9.23364
▁Tato	-9.2365
▁menší	-9.23859
▁obraz	-9.23936
▁informací	-9.23956
▁všichni	-9.23956
▁policie	-9.23956
▁organizace	-9.23956
▁prostor	-9.23972
▁samozřejmě	-9.24019
▁potom	-9.24022
▁zdravotní	-9.24062
▁Není	-9.24182
▁Další	-9.24275
▁poté	-9.24323
▁Ob	-9.24448
▁rychle	-9.24545
▁nikdo	-9.24579
▁můžeme	-9.24729
gen	-9.24807
▁přístup	-9.24825
ském	-9.24883
▁cen	-9.24952
▁nový	-9.25045
▁malé	-9.25094
▁hlavně	-9.25211
jde	-9.25286
▁poměrně	-9.25336
▁druhý	-9.25389
▁cena	-9.25475
▁českých	-9.25658
ář	-9.25789
▁Kromě	-9.25831
▁podíl	-9.2594
ovaných	-9.26016
▁dodal	-9.26121
▁věcí	-9.26166
nutí	-9.2617
▁prezidenta	-9.26325
▁něho	-9.2645
trochu	-9.26464
▁sdružení	-9.26483
dle	-9.26487
▁dvěma	-9.26546
ran	-9.26588
▁pa	-9.26871
nebo	-9.27151
▁50	-9.27249
▁Ú	-9.27478
▁8	-9.27508
ig	-9.2752
ner	-9.27577
dl	-9.27678
▁SSSR	-9.27742
▁sobě	-9.27748
▁efekt	-9.2776
▁Jana	-9.27827
▁25	-9.28135
šel	-9.28362
▁čtyř	-9.28383
▁prohlášení	-9.28387
▁Mezi	-9.28395
▁di	-9.28458
▁200	-9.28607
bychom	-9.28622
▁Jako	-9.28749
▁škol	-9.28797
nými	-9.28825
▁podmínky	-9.29036
▁komise	-9.29037
▁Jestli	-9.29037
▁někdy	-9.29038
CH	-9.29054
▁vývoj	-9.29064
▁žádné	-9.29104
jich	-9.29325
▁bo	-9.29475
tře	-9.2957
as	-9.29702
ón	-9.29778
▁základě	-9.29933
▁večer	-9.29933
▁6	-9.30078
▁kon	-9.3026
▁výroby	-9.30348
▁zemích	-9.3042
▁západní	-9.30487
▁Evropské	-9.30555
up	-9.30628
▁došlo	-9.3077
▁plat	-9.30815
▁význam	-9.30864
▁kromě	-9.30899
▁většina	-9.3101
▁čím	-9.31268
▁mnoh	-9.31357
čin	-9.31733
plat	-9.31766
▁místa	-9.31903
▁ostatní	-9.31956
▁hned	-9.32357
▁určité	-9.32445
vedl	-9.32541
▁šesti	-9.32795
▁mnoha	-9.32831
▁fakt	-9.32832
olog	-9.32908
dním	-9.32951
prve	-9.3302
▁peněz	-9.33024
▁tvoří	-9.33028
▁výrazně	-9.33068
▁nejvyšší	-9.33117
ver	-9.33127
▁stal	-9.33266
ště	-9.33323
kov	-9.33392
▁života	-9.33399
mohlo	-9.33499
▁miliard	-9.33597
▁tehdy	-9.33704
▁rozpočtu	-9.33708
▁Ba	-9.3377
▁jich	-9.33866
▁jistě	-9.33979
▁malý	-9.33983
▁názor	-9.33992
nice	-9.34
▁hry	-9.34081
▁objekt	-9.34263
▁sedm	-9.34271
rů	-9.34363
▁vysoké	-9.34389
fr	-9.34391
▁1991	-9.34671
▁východní	-9.34713
▁členů	-9.34925
▁kam	-9.35064
▁dosavadní	-9.35078
▁teď	-9.35093
▁vítězství	-9.35121
proti	-9.3514
▁provoz	-9.35193
▁ex	-9.35299
▁milionu	-9.35369
▁nebylo	-9.35613
hy	-9.35727
and	-9.35767
▁prosince	-9.35773
▁poprvé	-9.35777
▁prostředky	-9.35778
▁akce	-9.35816
koli	-9.35917
▁úřad	-9.36158
▁unie	-9.36477
▁12	-9.36559
rn	-9.3681
▁nějak	-9.36913
▁žádný	-9.36931
čky	-9.3715
▁opatření	-9.37176
▁spolupráci	-9.37176
▁výsledky	-9.37176
ber	-9.37187
▁teprve	-9.37198
▁času	-9.37302
▁11	-9.37332
▁zdá	-9.37387
▁16	-9.37659
▁40	-9.37916
mohla	-9.37916
▁stejné	-9.37925
RA	-9.38036
▁politické	-9.38085
ily	-9.38091
▁jenž	-9.38207
▁13	-9.38466
rod	-9.38479
▁1994	-9.386
▁prakticky	-9.3865
▁Pře	-9.38693
▁dat	-9.38713
▁vnitřní	-9.3876
▁autor	-9.38776
▁ODS	-9.388
dob	-9.39148
▁trenér	-9.39225
ovém	-9.39269
▁hlediska	-9.39319
▁prostřednictví	-9.3932
▁utkání	-9.39385
sko	-9.39526
rán	-9.3957
▁deseti	-9.39699
ických	-9.39773
▁republice	-9.40044
▁velice	-9.40049
▁procenta	-9.40089
▁ministra	-9.40246
▁zisk	-9.40251
del	-9.40254
▁projekt	-9.40282
▁celou	-9.40324
▁někdo	-9.40775
▁daně	-9.40872
▁dostal	-9.41008
▁znám	-9.41137
iště	-9.4138
hle	-9.41432
▁dispozici	-9.41512
▁nižší	-9.41522
bl	-9.41557
▁Jen	-9.4156
íme	-9.41618
ač	-9.41653
▁souvislosti	-9.41745
ovaný	-9.41751
díky	-9.41762
slov	-9.41769
▁Mo	-9.41805
▁sil	-9.41939
kol	-9.41991
▁typu	-9.42236
▁1990	-9.4225
▁řadu	-9.4233
▁telefon	-9.42355
▁řád	-9.42407
▁La	-9.42565
hal	-9.42615
▁Kr	-9.42634
▁kterým	-9.42803
kách	-9.42839
▁jí	-9.42844
▁obyvatel	-9.42913
▁změny	-9.42917
form	-9.42993
▁rámci	-9.43
ovy	-9.43024
▁osobní	-9.43051
▁ledna	-9.43074
▁Lu	-9.43118
▁jejím	-9.43142
▁nena	-9.43184
sky	-9.4319
ící	-9.43277
▁prostě	-9.43315
▁mo	-9.43504
ic	-9.43563
lek	-9.43682
▁nejméně	-9.43764
▁původní	-9.43783
▁podařilo	-9.43847
▁mne	-9.43857
▁budeme	-9.43919
▁bod	-9.43951
ována	-9.4403
▁Nej	-9.44098
▁sebou	-9.44396
▁roli	-9.44579
▁loni	-9.44591
▁všem	-9.4463
J	-9.44689
▁představ	-9.44716
pol	-9.4472
▁doma	-9.44798
▁Ka	-9.4487
▁státy	-9.44923
▁různé	-9.4493
▁čs	-9.45156
vin	-9.45219
iny	-9.45238
▁Například	-9.45269
▁podnikání	-9.45303
van	-9.45506
plav	-9.4571
▁Pr	-9.45947
▁pomoc	-9.45973
▁minulý	-9.46042
▁opravdu	-9.46057
▁výše	-9.4609
▁tolik	-9.46148
▁Jde	-9.46178
▁dá	-9.46318
ina	-9.46344
▁právo	-9.46449
▁výkon	-9.46528
▁Ti	-9.46539
▁miliónů	-9.46813
▁smlouvu	-9.46813
▁snaží	-9.46815
▁nedávno	-9.46868
▁náš	-9.46948
raz	-9.46985
▁Ná	-9.47057
ať	-9.47091
▁služeb	-9.47171
ická	-9.47191
kla	-9.47208
nem	-9.47243
ej	-9.47393
▁18	-9.47517
▁funkci	-9.47596
▁Dnes	-9.47637
▁zvýšení	-9.47766
pokoj	-9.47906
▁Roz	-9.47923
ir	-9.48141
▁přednost	-9.48222
ment	-9.48293
▁věc	-9.48301
▁okolí	-9.48385
nes	-9.48398
viz	-9.48408
▁slova	-9.48413
▁Kdo	-9.48489
▁Klaus	-9.48573
▁měsíců	-9.48573
▁9	-9.48707
▁středu	-9.48781
tek	-9.48878
▁získal	-9.49068
vní	-9.49084
▁chování	-9.49085
▁koaliční	-9.49176
▁ministerstvo	-9.49176
▁chtějí	-9.49176
▁zvláštní	-9.49187
dávají	-9.49216
▁pojištění	-9.49327
▁dnech	-9.49352
▁růst	-9.4944
▁sta	-9.49523
▁her	-9.49653
ající	-9.49684
▁jiného	-9.49893
▁Windows	-9.49976
▁národní	-9.50041
bar	-9.50079
▁Al	-9.50112
▁metrů	-9.50117
Š	-9.50164
▁postupně	-9.50166
ková	-9.50228
▁úřadu	-9.50228
zen	-9.50315
var	-9.50332
▁zahraničních	-9.50429
▁kom	-9.50431
G	-9.50443
▁hráčů	-9.50579
bal	-9.50584
iz	-9.50626
▁rady	-9.50631
▁zpět	-9.50782
▁společenství	-9.50828
▁případ	-9.5085
▁hlas	-9.51076
▁24	-9.51226
▁7	-9.51294
zo	-9.51312
▁bývalý	-9.51367
▁pokus	-9.51402
▁svazu	-9.51538
itel	-9.51602
nul	-9.51906
čet	-9.51982
ským	-9.51999
▁republik	-9.52178
▁Pak	-9.52195
▁my	-9.52279
▁neo	-9.5229
▁práv	-9.52308
▁2.	-9.52413
▁nemusí	-9.52415
▁číslo	-9.52447
hn	-9.5245
čení	-9.52529
▁slov	-9.52616
ér	-9.52667
▁Zá	-9.52707
▁Zde	-9.5278
▁pracovníků	-9.52846
▁základ	-9.52946
▁podobně	-9.53061
▁podporu	-9.53154
nos	-9.53174
▁poslanců	-9.53241
▁ročně	-9.53244
▁klubu	-9.53247
▁zástupce	-9.53255
▁míst	-9.53301
▁konkrétní	-9.53348
▁nadále	-9.5337
▁tržní	-9.53395
mysl	-9.53458
NÍ	-9.53504
▁Bude	-9.53517
ed	-9.53657
▁počtu	-9.53761
ostí	-9.53859
gu	-9.54106
ložit	-9.54177
len	-9.54201
▁připraven	-9.54204
▁Ho	-9.54597
vou	-9.54803
▁Většin	-9.54915
▁nabídky	-9.54915
▁hospodářství	-9.54915
▁lépe	-9.54923
▁14	-9.54946
ovány	-9.54951
▁každ	-9.54952
▁hodně	-9.54994
▁týmu	-9.55047
▁MS	-9.55077
▁nepro	-9.55094
▁podniky	-9.55245
▁sami	-9.55283
aj	-9.55344
▁generální	-9.55349
bor	-9.55422
mluv	-9.55545
▁muž	-9.55556
▁ta	-9.55567
▁přesně	-9.55602
▁umožňuje	-9.55762
▁podstatně	-9.55814
▁jenom	-9.55858
▁svaz	-9.56144
▁titul	-9.56182
▁problémů	-9.56225
▁vů	-9.56312
▁Ani	-9.56315
▁olympijské	-9.56397
▁fondu	-9.56564
▁vede	-9.56613
▁považuje	-9.56617
▁začíná	-9.56618
vil	-9.56691
▁musíme	-9.56693
▁případech	-9.56701
▁říci	-9.56706
▁potvrdil	-9.56733
šť	-9.56738
▁novou	-9.56783
cký	-9.56831
▁městě	-9.56862
▁De	-9.56969
fo	-9.57021
▁občanů	-9.57204
▁přibližn	-9.57225
▁banky	-9.57339
▁obvykle	-9.57479
▁disk	-9.57486
▁sítě	-9.57487
▁pomoci	-9.57509
ovalo	-9.57526
▁neod	-9.5754
▁oddělení	-9.57568
▁českého	-9.57655
▁řada	-9.57659
kami	-9.57692
▁možností	-9.57713
les	-9.57771
stoupil	-9.57796
▁Pod	-9.57842
▁vedle	-9.57875
ovaly	-9.58076
▁dopis	-9.58126
▁nebyla	-9.58219
nění	-9.58342
▁otázku	-9.58349
▁výrobků	-9.58349
▁Č	-9.58353
▁politiky	-9.58475
lin	-9.58554
ický	-9.58556
▁ode	-9.58646
▁průběhu	-9.58674
▁úspěch	-9.58759
▁ryb	-9.58867
Dr	-9.5904
▁účast	-9.59063
▁tým	-9.59165
▁změn	-9.59212
▁nabízí	-9.59226
▁skupin	-9.59239
▁nemají	-9.59323
▁miliardy	-9.59364
▁ulici	-9.59375
▁kterém	-9.59376
▁zdrojů	-9.595
▁výbor	-9.59603
▁Ze	-9.59741
▁moci	-9.59794
▁výzkum	-9.5981
▁skutečnost	-9.59849
kor	-9.60017
▁krok	-9.60034
▁takto	-9.60056
▁otázka	-9.60111
▁otázky	-9.60111
▁úrovni	-9.60111
▁chvíli	-9.60111
▁celkem	-9.60115
▁Česká	-9.60126
slav	-9.60199
▁uvádí	-9.60224
▁ba	-9.6029
▁celkové	-9.60405
▁moderní	-9.60424
ického	-9.60494
znal	-9.6067
▁17	-9.60753
▁pražské	-9.60783
▁Už	-9.60806
▁mistrovství	-9.61004
▁vod	-9.61094
▁jednom	-9.61227
▁postavení	-9.61248
▁cestu	-9.61266
átor	-9.61291
▁film	-9.61333
▁model	-9.61431
▁názoru	-9.61434
▁byt	-9.61438
▁objektů	-9.61449
▁dohody	-9.6146
EN	-9.61553
▁schopn	-9.61579
▁energie	-9.61905
▁dětí	-9.61905
▁zaměstnanců	-9.61905
▁NATO	-9.61907
ak	-9.6199
▁textu	-9.6206
▁pozornost	-9.62171
▁počítače	-9.62477
▁22	-9.62565
▁strana	-9.62637
▁společností	-9.6274
▁chtěl	-9.62778
uji	-9.62783
▁finále	-9.62814
▁kterých	-9.62924
▁představuje	-9.63006
▁měsíce	-9.63027
▁takový	-9.63028
▁provozu	-9.63044
▁listopadu	-9.63071
▁působí	-9.63154
▁setkání	-9.63154
ké	-9.63161
▁vybavení	-9.63199
▁Ha	-9.63228
▁budoucí	-9.63232
▁obsah	-9.63297
▁každé	-9.63468
▁sama	-9.63492
▁Vý	-9.63517
nc	-9.63604
▁nikoli	-9.63604
▁hrát	-9.63622
pen	-9.63649
ujeme	-9.63687
▁prostředků	-9.63734
▁Země	-9.63747
▁cizí	-9.63767
▁čtvrtek	-9.63773
▁světové	-9.63795
▁Ještě	-9.63833
▁skupina	-9.63834
▁musel	-9.63844
▁Tím	-9.63845
▁současně	-9.63949
▁Da	-9.63994
▁obchodního	-9.64029
▁řadě	-9.64042
he	-9.6407
▁příští	-9.64083
tur	-9.64091
▁ti	-9.64116
▁parlament	-9.64263
rát	-9.64378
▁platit	-9.64596
▁výrobky	-9.64657
▁Navíc	-9.64657
▁Nyní	-9.64661
▁OSN	-9.64669
ster	-9.64681
▁produkce	-9.64682
tím	-9.64836
▁atd	-9.64849
▁obchodu	-9.64925
▁vztah	-9.64941
▁neděli	-9.65009
▁oba	-9.65067
▁volební	-9.65073
nic	-9.6524
ge	-9.6525
▁druhém	-9.65329
▁skutečnosti	-9.65503
▁Josef	-9.65592
▁federální	-9.65592
▁zasedání	-9.65598
▁dobrý	-9.6565
▁muset	-9.65689
▁zdroje	-9.65709
▁rozvoj	-9.65714
ček	-9.65716
▁kvalitní	-9.65856
▁Br	-9.65858
▁Dr	-9.65895
št	-9.66003
nil	-9.66015
atel	-9.66018
▁hlavním	-9.66177
nk	-9.66258
▁čeká	-9.66272
ené	-9.66321
▁led	-9.66369
ovaná	-9.66396
rak	-9.66481
▁prezentace	-9.66535
▁srovnání	-9.66536
▁speciální	-9.66544
▁Sa	-9.6657
▁začátku	-9.66589
dra	-9.66608
▁výboru	-9.66673
▁kterého	-9.66699
▁vládní	-9.66747
▁jiný	-9.66803
▁součástí	-9.66909
▁přiče	-9.66912
cím	-9.66939
▁mluvčí	-9.66975
▁akcií	-9.67007
▁použití	-9.6702
▁bank	-9.67035
th	-9.67039
▁hodnoty	-9.67101
▁zápas	-9.67136
mer	-9.67212
▁start	-9.67412
▁nepře	-9.67435
▁teorie	-9.67487
▁buď	-9.67491
▁privatizace	-9.67492
▁1989	-9.67492
▁apod	-9.67508
rop	-9.67524
▁ním	-9.67536
▁jasné	-9.67639
▁školy	-9.67694
ele	-9.67722
▁vzor	-9.67746
álně	-9.67782
Ž	-9.67796
▁ME	-9.67878
ó	-9.67908
▁poně	-9.67994
▁plně	-9.68036
▁společné	-9.68072
▁vítěz	-9.6811
▁21	-9.68114
ď	-9.68276
▁manžel	-9.68296
▁těm	-9.68301
▁vyhrál	-9.68301
pil	-9.68526
▁šéf	-9.68613
▁domů	-9.68649
eta	-9.68694
nský	-9.68782
▁dopravy	-9.68805
▁jednotlivé	-9.68847
▁objektu	-9.6891
fe	-9.68917
▁ekonomické	-9.68917
▁kolik	-9.68962
▁našem	-9.68964
lem	-9.69142
▁možno	-9.69341
▁hra	-9.69357
▁Li	-9.69398
▁veřejné	-9.6942
▁zdravotnictví	-9.6942
▁umění	-9.69421
▁Někter	-9.69422
▁zvolen	-9.69458
▁Ivan	-9.69486
▁Jelcin	-9.69532
AN	-9.69582
▁závěr	-9.69603
▁následující	-9.69673
▁papír	-9.69806
mar	-9.69913
▁telefonní	-9.69947
▁Čí	-9.69972
▁údaje	-9.70084
▁Bylo	-9.70175
go	-9.70187
kli	-9.7039
▁gól	-9.704
▁nebezpečí	-9.70401
▁podobě	-9.70402
▁Pavel	-9.70408
inu	-9.70452
▁rozhodující	-9.70453
▁Podobn	-9.70461
▁ostatních	-9.70469
▁vznikl	-9.70539
▁investice	-9.70632
▁státního	-9.70703
ovými	-9.70735
▁práva	-9.70738
▁celého	-9.7074
▁noci	-9.70806
▁kultury	-9.70825
jící	-9.7088
▁akci	-9.70896
pt	-9.71014
▁poměr	-9.7102
▁spojení	-9.71057
ca	-9.71107
▁60	-9.71249
▁oprav	-9.71326
▁vstup	-9.71364
voz	-9.71382
▁stál	-9.71413
▁dalším	-9.71456
řitom	-9.71496
▁společně	-9.71499
▁rád	-9.71648
▁zájmu	-9.71708
▁snadno	-9.71711
▁soutěže	-9.71713
▁vzájemn	-9.71739
▁smrti	-9.7178
▁politických	-9.71871
▁Proč	-9.71917
▁spojen	-9.71917
▁prodej	-9.71977
např	-9.72132
nici	-9.72242
nské	-9.72293
▁projev	-9.72358
▁televizní	-9.7239
▁jméno	-9.72392
▁Miloš	-9.72393
▁Toto	-9.72399
jem	-9.72431
▁klub	-9.72456
Č	-9.7246
▁tisíce	-9.72498
▁In	-9.72512
potřeb	-9.7262
tor	-9.72701
šli	-9.72776
rob	-9.72824
▁70	-9.72828
bud	-9.72922
oč	-9.72954
▁Čech	-9.7301
vláště	-9.73115
vání	-9.7315
un	-9.73281
▁určen	-9.73358
nese	-9.73363
▁snímek	-9.73402
▁Stejn	-9.73417
▁hnutí	-9.73417
▁zdraví	-9.73428
▁žen	-9.73462
▁český	-9.73467
▁lidi	-9.73491
▁Tu	-9.73505
chází	-9.73546
ska	-9.73559
▁předem	-9.73619
▁důvodů	-9.73622
▁nejvíce	-9.73628
▁počítač	-9.73679
▁vytvoření	-9.73684
▁list	-9.73814
▁trvá	-9.73814
ovo	-9.73988
▁plné	-9.74071
▁trest	-9.74141
ben	-9.74284
cké	-9.74292
ard	-9.74313
mír	-9.74329
▁Jaroslav	-9.74421
▁vzhledem	-9.7448
▁mil	-9.74487
vu	-9.74512
000	-9.74548
nd	-9.74572
íky	-9.74613
▁velkou	-9.74683
▁Ku	-9.74751
▁manažer	-9.74851
py	-9.74919
▁mužů	-9.74927
▁jisté	-9.74953
▁dává	-9.75097
▁hráči	-9.75106
▁Český	-9.75155
píše	-9.75383
▁Já	-9.75424
▁plyn	-9.75439
▁těžko	-9.75453
▁okolo	-9.75456
▁podobný	-9.75469
▁pocit	-9.75511
níci	-9.75536
▁daleko	-9.75609
▁soudu	-9.75614
▁nákup	-9.75665
▁odmítl	-9.75678
nek	-9.7573
však	-9.75749
tem	-9.75796
▁typ	-9.75843
▁dr	-9.75852
▁pracovat	-9.75863
▁světový	-9.76026
▁spíš	-9.76077
svoji	-9.76349
▁Ru	-9.76449
▁náměstí	-9.76493
▁delší	-9.765
▁někteří	-9.76501
▁zástupci	-9.76503
▁září	-9.76515
▁rukou	-9.76534
▁zaměstnání	-9.76534
▁kilometrů	-9.76574
▁obsahuje	-9.7658
▁hodiny	-9.76587
▁oboru	-9.76915
▁přijat	-9.76974
▁Be	-9.76981
▁Izrael	-9.77019
▁celkov	-9.77046
▁věku	-9.77122
▁koncem	-9.77143
▁řad	-9.77229
▁smysl	-9.77238
ík	-9.7731
▁kulturní	-9.7737
▁mohly	-9.77471
stal	-9.77499
OV	-9.77536
▁výsledek	-9.77546
▁cestovní	-9.77546
ěte	-9.77575
▁majitel	-9.77582
▁automobil	-9.77726
▁motor	-9.77732
▁přišel	-9.77802
▁druhů	-9.77844
psal	-9.77924
▁pořád	-9.77954
▁zkušenosti	-9.78012
měř	-9.78061
▁Pří	-9.78078
▁Kčs	-9.78542
▁odhad	-9.78543
▁nejbližší	-9.7861
▁aplikace	-9.7861
▁existuje	-9.7861
▁podmínek	-9.7861
▁nebudou	-9.78611
▁zůstává	-9.78611
▁Může	-9.78611
tky	-9.7862
▁dnů	-9.78633
▁přechod	-9.78672
▁koalice	-9.78723
▁olympijský	-9.78747
▁objekty	-9.7877
čku	-9.78797
▁Rad	-9.78886
▁hospodářské	-9.78915
30	-9.79078
koliv	-9.79087
▁stavební	-9.79179
▁Jedno	-9.79252
▁každého	-9.79314
▁nějaké	-9.79321
▁měst	-9.79327
▁fond	-9.7958
▁smyslu	-9.79639
▁závod	-9.79662
▁příprav	-9.79668
▁úroveň	-9.79685
▁starší	-9.79689
▁tady	-9.79731
▁termín	-9.79745
▁vyz	-9.79833
▁případně	-9.79867
▁dosáhl	-9.79904
▁minulosti	-9.79969
19	-9.79974
ností	-9.80071
▁Nové	-9.80181
▁plán	-9.80261
▁běžné	-9.80467
mž	-9.80563
jev	-9.80652
▁rychlost	-9.80664
▁poslanci	-9.80772
▁pátek	-9.80772
▁praxi	-9.80773
pravidla	-9.80783
▁jediný	-9.80813
kul	-9.80912
▁určitě	-9.80949
▁lékař	-9.80965
CE	-9.80986
▁Každý	-9.81001
▁příklad	-9.81027
▁Brně	-9.81029
▁Pan	-9.81089
▁Bez	-9.8114
zv	-9.81222
sil	-9.81302
▁mám	-9.81377
▁skončil	-9.81419
▁loňské	-9.81515
tel	-9.8156
ici	-9.81606
brán	-9.81607
▁obchod	-9.81671
▁tun	-9.81695
▁dotaz	-9.81701
ika	-9.8172
▁lékaře	-9.81844
puštěn	-9.81871
▁důležité	-9.81871
▁vidět	-9.81871
▁šanci	-9.81872
▁příkaz	-9.81872
▁prvního	-9.81968
▁konci	-9.82003
▁druh	-9.82062
▁kvality	-9.82128
dává	-9.82505
rat	-9.82577
nci	-9.82797
▁oblast	-9.82871
▁Přes	-9.8291
▁výrobce	-9.82982
▁síly	-9.82994
▁volbách	-9.83007
▁stačí	-9.83037
▁července	-9.83049
por	-9.8305
▁odpovídá	-9.83071
ané	-9.83095
▁dny	-9.83125
▁léta	-9.83141
šek	-9.83158
▁nikoliv	-9.83163
▁změnit	-9.83218
▁nárok	-9.83321
▁podnikatel	-9.8333
▁pís	-9.83463
▁Německa	-9.83549
ovaného	-9.83562
▁knihy	-9.83602
▁tr	-9.8365
port	-9.83673
kovi	-9.83691
▁členy	-9.83702
▁doba	-9.83812
▁zemřel	-9.84107
raději	-9.84128
▁Jeden	-9.84141
dit	-9.84201
▁nemoc	-9.84216
▁podstatě	-9.84244
třech	-9.84276
▁nákladů	-9.84355
ložil	-9.8436
▁hvězd	-9.84438
▁zranění	-9.84482
▁vývoje	-9.84661
ROM	-9.84665
alo	-9.84666
tů	-9.8485
▁vět	-9.84925
▁tisku	-9.84979
▁proces	-9.85051
tvo	-9.85143
▁Ministerstv	-9.85242
▁oprávněn	-9.85242
▁technologie	-9.85242
▁výrobu	-9.85242
▁tepla	-9.85244
▁úplně	-9.85265
▁Že	-9.85345
▁představitelé	-9.85347
▁investiční	-9.85358
▁techniky	-9.85416
▁rozšíření	-9.85485
▁koncert	-9.85504
▁host	-9.85559
▁druhou	-9.85619
▁činí	-9.85631
▁23	-9.85682
▁post	-9.85707
jat	-9.85785
▁podobné	-9.85876
LA	-9.85928
▁Bu	-9.85954
▁Již	-9.85993
▁živ	-9.8602
vé	-9.86117
▁voleb	-9.86178
▁Nový	-9.86337
▁vyh	-9.86351
půjč	-9.86398
ala	-9.86514
fer	-9.86519
ok	-9.86533
▁míry	-9.86549
▁podnikatele	-9.86573
▁celá	-9.86621
áři	-9.86698
▁bývá	-9.86725
▁pu	-9.86728
SK	-9.86766
šti	-9.86776
▁výrobní	-9.86826
▁volby	-9.86833
ang	-9.86839
▁zprávy	-9.8687
šit	-9.86904
padl	-9.86918
her	-9.86926
nů	-9.86979
▁polovin	-9.86982
ton	-9.87096
▁vyp	-9.87157
▁domu	-9.87159
▁novin	-9.87224
lík	-9.87296
▁ruské	-9.87333
▁vytvořit	-9.87554
▁boj	-9.87606
íte	-9.87607
▁dvakrát	-9.87616
skoro	-9.8764
▁jízd	-9.87647
▁podnikatelů	-9.87655
▁pre	-9.87733
▁výběr	-9.87746
▁80	-9.87767
isté	-9.87809
▁Kar	-9.87809
tal	-9.87838
vede	-9.87858
▁chcete	-9.8789
▁kap	-9.87942
▁popis	-9.87965
▁spor	-9.8798
ujících	-9.87998
pad	-9.87998
▁dal	-9.88005
▁sportovní	-9.88005
nka	-9.88021
▁spoj	-9.88053
▁vlastnosti	-9.8806
tah	-9.88124
▁pracuje	-9.88128
▁dvacet	-9.88128
▁Ber	-9.88166
▁bytů	-9.88284
10	-9.88328
son	-9.88424
▁chod	-9.8847
▁návrhu	-9.88558
jdou	-9.88668
▁věd	-9.88707
▁motiv	-9.88713
▁financí	-9.88731
▁též	-9.88735
▁konečně	-9.88812
▁Kdyby	-9.88814
značně	-9.88926
▁každém	-9.88948
óz	-9.88999
čil	-9.89259
▁SR	-9.89278
▁vrátil	-9.89288
▁An	-9.89296
▁Ra	-9.89304
ární	-9.89316
jet	-9.89321
zem	-9.8933
dění	-9.89336
ává	-9.89389
▁Její	-9.89399
▁počítá	-9.89451
lék	-9.89579
ismus	-9.89581
▁dělat	-9.89598
ST	-9.89692
▁seznam	-9.89697
▁jít	-9.89796
▁fotbalové	-9.89845
▁prv	-9.89907
▁přátel	-9.89919
▁federace	-9.89921
▁firmě	-9.89921
▁použít	-9.89921
▁výsledků	-9.89921
▁současnosti	-9.89949
zhledem	-9.89954
▁dvaceti	-9.89956
AR	-9.89983
▁evropských	-9.89986
▁Všechny	-9.89993
▁zpracování	-9.90043
▁Zeman	-9.90098
▁hranice	-9.90156
stává	-9.90228
▁obrany	-9.90323
▁hráč	-9.90354
šení	-9.90355
▁průmyslu	-9.90364
▁pole	-9.90425
▁Německu	-9.90476
▁bodů	-9.90534
▁bezpečnostní	-9.90563
šil	-9.90708
▁vojenské	-9.90783
řad	-9.90961
ena	-9.91075
▁pás	-9.91082
▁Společenství	-9.91126
▁Vladimír	-9.91126
▁Právě	-9.91126
▁zbraní	-9.91128
▁nejlépe	-9.91128
▁pravděpodobně	-9.91135
vnitř	-9.91146
▁dostat	-9.91149
▁Běh	-9.91161
▁původně	-9.91194
▁osmi	-9.91205
star	-9.9126
▁Měl	-9.91286
cího	-9.91335
▁ředitele	-9.91346
▁objeví	-9.91383
▁nová	-9.9148
icky	-9.91646
ška	-9.91658
elný	-9.9169
▁Firma	-9.91731
▁amerických	-9.91755
▁ochran	-9.91763
▁cílem	-9.91777
▁přírodní	-9.91825
ten	-9.91852
▁export	-9.9186
▁osoby	-9.91879
▁disku	-9.9194
hla	-9.92047
▁slovo	-9.92186
der	-9.92218
nce	-9.92343
▁dlouhé	-9.92346
▁předpokládá	-9.92346
rád	-9.92353
▁patrně	-9.92356
▁člen	-9.92374
▁udělat	-9.92392
▁důvod	-9.92393
▁dostane	-9.92406
ký	-9.92436
▁dokáže	-9.92462
▁sněmovny	-9.92576
▁jaký	-9.9264
EL	-9.92642
▁pokles	-9.92663
zení	-9.92698
▁vhodné	-9.92757
▁hor	-9.92798
▁roční	-9.92805
▁volné	-9.92865
din	-9.92892
W	-9.92989
▁Star	-9.93017
▁ženy	-9.93107
▁prostoru	-9.93132
▁zůstal	-9.9326
▁vys	-9.93384
▁kurz	-9.93416
▁NA	-9.93431
mor	-9.93464
ler	-9.93484
tní	-9.93511
▁informační	-9.9358
▁hovoří	-9.9358
▁čísla	-9.9358
▁brzy	-9.93581
▁způsobil	-9.93607
▁pravda	-9.93614
▁jazyk	-9.93646
▁úvěr	-9.93654
▁těmi	-9.93676
▁využití	-9.93726
▁růstu	-9.93917
▁metod	-9.93927
ováním	-9.93998
▁zisku	-9.94079
▁lidský	-9.9408
▁stud	-9.94099
▁gen	-9.94108
▁občan	-9.9422
pel	-9.94302
ismu	-9.94342
▁národ	-9.94345
▁rokem	-9.9435
▁veřejnosti	-9.9436
▁ústavu	-9.94366
▁severní	-9.94389
uto	-9.94588
▁záznam	-9.94733
dávat	-9.94781
jezd	-9.94791
▁většinu	-9.9483
▁jinde	-9.94831
▁péče	-9.94831
▁začne	-9.94859
▁nemohou	-9.94865
▁dovolenou	-9.94901
▁místopředsed	-9.9492
▁Ke	-9.94938
▁tenis	-9.94939
▁vědět	-9.94978
▁vládě	-9.95007
▁objevil	-9.95042
nky	-9.95286
▁denně	-9.95301
▁čele	-9.95304
▁témat	-9.95354
ickou	-9.95378
▁takovou	-9.95575
▁Cen	-9.95588
tivní	-9.95641
▁národního	-9.95646
▁vodní	-9.95682
ij	-9.95701
▁data	-9.95752
▁vědecké	-9.95772
▁prací	-9.95841
▁stanoven	-9.96036
▁čem	-9.96046
▁stala	-9.96071
IN	-9.96087
▁pokračovat	-9.96096
▁pozadí	-9.96097
▁látky	-9.96102
▁kruh	-9.9612
▁nechce	-9.96181
▁sluneční	-9.96211
▁2000	-9.96226
▁500	-9.96228
net	-9.96241
▁New	-9.96276
▁snížení	-9.96329
měr	-9.96446
dal	-9.96522
▁veřejnost	-9.96575
▁Ž	-9.96684
▁potřebné	-9.9681
▁prav	-9.9685
▁podrob	-9.97003
▁aktivit	-9.9704
dával	-9.97047
▁kolo	-9.97062
▁stalo	-9.97177
ide	-9.97181
▁procesu	-9.97236
ejte	-9.97291
▁rada	-9.97371
▁důležitý	-9.97378
▁UEFA	-9.97378
▁demokracie	-9.97378
▁oficiální	-9.97378
▁označil	-9.97378
▁televizi	-9.97378
▁naprosto	-9.97378
▁Spojený	-9.97379
▁kurs	-9.97383
▁Havel	-9.97384
▁nijak	-9.97387
▁hodnocení	-9.97419
▁okamžitě	-9.97437
ren	-9.97453
▁ukazuje	-9.97479
▁300	-9.97484
▁Hrad	-9.9759
▁míru	-9.97605
vz	-9.97616
▁zabývá	-9.97659
▁povrch	-9.97708
▁nebyly	-9.97799
est	-9.97823
ění	-9.97868
▁bezpečnosti	-9.9788
▁cesty	-9.97965
▁současn	-9.98168
▁pozor	-9.98194
▁vzniku	-9.98315
▁dát	-9.98507
rovná	-9.9855
nictví	-9.98553
ovu	-9.98632
hi	-9.98653
▁majetek	-9.98677
▁řečeno	-9.98677
▁počasí	-9.98679
▁téma	-9.98697
procesor	-9.98703
▁ČSSD	-9.98742
▁členové	-9.98771
▁body	-9.9883
▁potřeby	-9.98854
▁auto	-9.9893
▁stanice	-9.98956
ováno	-9.99055
▁kanceláře	-9.99088
▁sklad	-9.99244
▁vládu	-9.99284
▁jednot	-9.99289
▁respekt	-9.9937
ita	-9.99413
dů	-9.99479
▁lékaři	-9.99634
▁odborné	-9.99709
▁35	-9.99735
▁řady	-9.99814
▁28	-9.99897
▁hodnot	-9.99952
▁onemocnění	-9.99993
▁požadavky	-9.99993
▁příjmy	-9.99993
▁rozhodně	-9.99993
▁názvem	-9.99993
▁nějaký	-10
▁učitel	-10.0007
▁dosáhnout	-10.0008
▁lidem	-10.0009
▁Martin	-10.0021
▁systémů	-10.0023
▁střel	-10.0024
HO	-10.0026
KA	-10.0031
▁Slovensku	-10.0036
▁dospěl	-10.0037
ion	-10.0039
▁standard	-10.0043
ll	-10.0044
ávat	-10.0045
letý	-10.0045
▁ekonomiky	-10.0045
▁dodává	-10.0046
▁variant	-10.0053
rovna	-10.0053
▁zákony	-10.0055
▁počátku	-10.0056
▁zas	-10.007
vad	-10.0071
▁ploch	-10.0077
stál	-10.0088
▁postoj	-10.0088
▁čtvrt	-10.0106
▁potravin	-10.0117
cházet	-10.012
dní	-10.0123
▁odbor	-10.0129
pit	-10.0129
▁konference	-10.0133
▁televize	-10.0133
▁vánoční	-10.0133
▁ligy	-10.0133
▁policejní	-10.0133
▁hlavního	-10.0133
nec	-10.0134
dat	-10.0134
▁funkcí	-10.0136
▁slib	-10.0157
▁Státní	-10.0158
▁jednak	-10.0165
▁mechaniky	-10.0174
▁dokument	-10.0175
50	-10.0178
▁celém	-10.0179
▁soubor	-10.0184
▁Hor	-10.0184
▁třicet	-10.0191
zní	-10.0206
▁společného	-10.0208
▁vybaven	-10.0211
▁získá	-10.0214
ření	-10.0216
▁přístupu	-10.0217
▁prodeje	-10.0225
ený	-10.0225
leté	-10.0225
▁ES	-10.0228
▁prost	-10.025
▁jakým	-10.0254
▁soutěž	-10.0256
▁(1	-10.0264
▁zásah	-10.0268
▁Prezident	-10.0268
▁poskytuje	-10.0268
▁připravil	-10.0268
▁Československu	-10.0268
▁zločin	-10.0268
▁vnitra	-10.0268
▁velká	-10.0268
den	-10.0271
věřil	-10.0282
▁Společnost	-10.0296
▁díl	-10.0298
▁škody	-10.0301
▁PowerPoint	-10.0302
SE	-10.0311
▁rychlostí	-10.0311
▁nechal	-10.0312
▁parlamentní	-10.0313
▁druhá	-10.0317
▁hotel	-10.0318
▁Aby	-10.0319
▁řekla	-10.0321
počítá	-10.0322
▁zvyk	-10.0326
žení	-10.0327
▁aktiv	-10.0332
▁Velké	-10.0342
▁90	-10.0343
▁obcí	-10.0349
▁trestní	-10.0354
brž	-10.0355
▁přenos	-10.0362
▁obrat	-10.0366
▁Ar	-10.0367
▁radost	-10.0368
▁souboru	-10.0371
▁struktur	-10.0372
▁druhého	-10.0373
staví	-10.038
plnění	-10.0392
dla	-10.0392
▁druhu	-10.0393
▁měsíc	-10.0394
vádí	-10.0394
▁lékařů	-10.0398
▁bran	-10.0401
▁kláves	-10.0405
▁zemědělství	-10.0405
▁servis	-10.0405
▁látek	-10.0406
▁teplot	-10.0406
▁ohledu	-10.0406
▁měsících	-10.0407
▁najít	-10.0408
▁desítky	-10.0408
▁závěru	-10.041
▁Čechách	-10.0411
▁Atlantě	-10.0412
▁zaplatí	-10.0424
▁zákoníku	-10.043
▁povinnost	-10.043
▁vydání	-10.0433
▁Cel	-10.0434
▁vývoz	-10.044
▁rozhodl	-10.0445
▁jinou	-10.0446
▁hladin	-10.0446
lep	-10.045
▁město	-10.0461
▁planet	-10.0464
TA	-10.0472
▁správy	-10.0473
▁účel	-10.0484
▁dopravní	-10.0486
méně	-10.0486
▁stroj	-10.049
pustí	-10.0493
▁odpad	-10.0493
▁roze	-10.0495
▁síť	-10.0495
▁takového	-10.05
▁zákonů	-10.0506
▁Američan	-10.0511
▁výběru	-10.0525
▁napsal	-10.0529
kový	-10.0529
kovou	-10.053
taj	-10.0538
▁hudební	-10.0544
▁schopen	-10.0544
▁tradiční	-10.0544
▁těžký	-10.0544
▁ustanovení	-10.0544
▁výrobců	-10.0544
▁Francie	-10.0544
▁Národní	-10.0544
▁nabídku	-10.0544
▁snímků	-10.0544
▁pořadatel	-10.0544
▁evropské	-10.0548
▁uplatnění	-10.0551
▁společný	-10.0557
▁těles	-10.0567
▁vznik	-10.057
▁oznámil	-10.0572
před	-10.0574
▁ráno	-10.0575
▁pohyb	-10.0577
▁přijde	-10.0578
▁státech	-10.058
▁hráče	-10.0595
▁dalšího	-10.0599
▁prů	-10.0601
▁Jin	-10.0603
▁výnos	-10.0605
▁minulé	-10.0616
▁nově	-10.0623
▁použit	-10.0625
▁řeč	-10.0626
▁přesvědčen	-10.0627
▁začali	-10.0639
▁Ca	-10.0641
▁zásob	-10.065
▁NE	-10.0653
nému	-10.0658
ivé	-10.0665
▁polo	-10.0671
pak	-10.0674
▁1,	-10.0678
▁domov	-10.068
▁těžké	-10.0684
▁využít	-10.0684
▁přijetí	-10.0685
▁působení	-10.0685
▁odměn	-10.0685
▁řešit	-10.0686
▁školství	-10.0687
▁rozpočet	-10.0687
▁hodlá	-10.0687
ned	-10.0688
▁ceně	-10.0689
▁samo	-10.069
▁tentokrát	-10.069
▁nim	-10.069
▁převážně	-10.0694
▁kal	-10.0695
▁zajistit	-10.0696
▁důsled	-10.0703
nické	-10.0707
▁výměn	-10.0708
▁pořadí	-10.0711
▁Takže	-10.0713
▁družstev	-10.0714
▁příjem	-10.0718
▁vztahu	-10.0721
▁částky	-10.0722
▁vysokou	-10.0722
▁změna	-10.0724
▁vyplývá	-10.0729
▁útok	-10.073
▁okamžiku	-10.0735
blíž	-10.0739
bývá	-10.0745
▁jiná	-10.0746
▁slovenské	-10.0747
▁blok	-10.0748
▁údajn	-10.0749
ani	-10.0752
▁knih	-10.0755
sed	-10.0757
ast	-10.0758
ško	-10.0758
▁rozum	-10.0759
kám	-10.0759
mj	-10.0764
▁rezerv	-10.0766
▁%.	-10.0766
vají	-10.0773
▁chybí	-10.0776
bře	-10.0783
▁27	-10.0783
dali	-10.0791
kládá	-10.0801
▁potřebuje	-10.0805
▁chtěli	-10.081
vel	-10.082
▁jednat	-10.0821
▁nesmí	-10.0825
rou	-10.0827
▁nejrůznější	-10.0827
▁bohužel	-10.0827
▁spolupráce	-10.0827
▁družstva	-10.0827
dostatečně	-10.0827
▁Mezinárodní	-10.0828
řídil	-10.0829
▁kandidát	-10.0829
▁seznamu	-10.0836
▁povolení	-10.0837
▁místech	-10.0841
▁moře	-10.0846
▁názory	-10.085
▁směrem	-10.0853
▁cestou	-10.0857
▁údajů	-10.0857
▁Ni	-10.0857
dané	-10.086
▁mimořádn	-10.086
LI	-10.0871
▁vz	-10.0875
▁nejde	-10.0879
▁kop	-10.0887
▁molekul	-10.0892
▁zdroj	-10.0909
OH	-10.0913
ovský	-10.0932
ňuje	-10.0936
ír	-10.0942
▁myslím	-10.0944
▁posl	-10.0947
▁máte	-10.0948
▁soukromé	-10.0953
ive	-10.0961
▁hromad	-10.0966
▁jestli	-10.0967
▁pondělí	-10.0972
▁prezentaci	-10.0972
▁vyslovil	-10.0972
▁mistr	-10.0976
▁teplo	-10.0976
zu	-10.0977
▁měsíční	-10.0979
▁pravidelně	-10.0984
ckých	-10.0987
▁předtím	-10.0988
▁kola	-10.0989
▁armády	-10.0991
hodný	-10.0993
▁výzkumu	-10.0993
▁smluvní	-10.0996
ke	-10.0997
▁materiál	-10.1017
číst	-10.1018
▁zákaz	-10.103
vali	-10.1032
řka	-10.1047
▁známé	-10.1051
▁kancelář	-10.1054
▁systémy	-10.1055
▁případů	-10.1063
řídit	-10.1063
▁Du	-10.1067
▁vědy	-10.1073
60	-10.1074
▁žádn	-10.1079
▁uvedla	-10.1081
▁tisk	-10.1087
▁vztahy	-10.1097
zoval	-10.1097
▁odbyt	-10.1103
▁Han	-10.111
▁mechanika	-10.111
▁neměl	-10.1111
▁pravé	-10.1118
▁HIV	-10.1119
▁Poslední	-10.1119
▁konferenci	-10.1119
▁podmínkách	-10.1119
▁příjmů	-10.1119
▁úrovně	-10.1119
▁června	-10.1119
▁spoust	-10.112
▁radnice	-10.1121
▁Mlad	-10.1121
▁Pavl	-10.1123
▁Zákon	-10.1124
▁opak	-10.1128
▁výjimkou	-10.1128
▁rad	-10.1128
▁LN	-10.1132
▁podpis	-10.1135
lení	-10.1136
▁dané	-10.1138
▁změnu	-10.1142
▁daňové	-10.1144
jak	-10.1145
▁politiku	-10.1147
▁dvanáct	-10.1148
▁taková	-10.1152
▁autobus	-10.1154
▁částku	-10.1165
fu	-10.1167
▁strom	-10.1167
▁Bar	-10.1168
▁zásad	-10.1173
nského	-10.1175
▁Če	-10.1181
▁přízniv	-10.1187
▁velikost	-10.1188
▁Di	-10.119
▁Bra	-10.1193
dělal	-10.1194
▁vysoký	-10.1196
▁politický	-10.1197
▁My	-10.1197
▁rodiny	-10.1197
▁němu	-10.1206
▁obr	-10.1215
▁sedmi	-10.1226
padá	-10.1226
▁tiskové	-10.1227
▁konkurence	-10.1231
▁očekává	-10.1235
▁Každ	-10.1237
▁str	-10.1238
▁součást	-10.1238
ňování	-10.124
▁sv	-10.1241
▁vln	-10.1243
▁rodin	-10.1248
▁porad	-10.1252
▁museli	-10.1253
▁Jedna	-10.1256
▁směru	-10.1265
▁sestav	-10.1265
stran	-10.1267
▁Největší	-10.1269
▁Současn	-10.1269
▁většině	-10.1269
▁kapitol	-10.1269
▁války	-10.1269
▁účetnictví	-10.1269
▁aliance	-10.1269
▁tvrzení	-10.127
drží	-10.1273
▁centra	-10.1274
násob	-10.1279
rozměr	-10.1279
AD	-10.128
▁Naše	-10.128
▁jednoznačně	-10.1294
▁PO	-10.1301
▁zvířat	-10.1307
▁slab	-10.1314
▁sever	-10.1316
▁pra	-10.1317
▁tvář	-10.1318
▁ostr	-10.132
▁skupině	-10.1321
klo	-10.1324
▁míč	-10.1326
▁padesát	-10.1327
byl	-10.1331
▁daň	-10.1343
lat	-10.1349
utí	-10.1353
ovské	-10.1354
▁styl	-10.1361
▁aktivity	-10.137
▁Rusko	-10.1371
▁400	-10.138
▁ODA	-10.1381
▁Kon	-10.1381
▁hodnotu	-10.1385
rit	-10.139
KO	-10.139
ER	-10.1391
▁poslanec	-10.1396
▁polovinu	-10.1401
▁Vše	-10.1403
▁vidí	-10.1404
stoupí	-10.141
▁většiny	-10.142
▁Evropa	-10.142
▁politice	-10.142
▁vždycky	-10.142
▁začít	-10.1421
▁Lib	-10.1424
▁leží	-10.1427
▁třemi	-10.1429
▁Jenže	-10.1433
▁pořádku	-10.1434
▁Václava	-10.1435
▁nemocnice	-10.1436
▁individuální	-10.1437
20	-10.1439
▁uvedené	-10.1441
rab	-10.1446
▁Německo	-10.145
▁3.	-10.1453
▁hlasování	-10.1454
▁pracovníci	-10.1455
kryt	-10.1458
nové	-10.1459
▁Dva	-10.1459
▁předsedy	-10.1464
▁test	-10.1467
▁univerzity	-10.1468
▁mění	-10.1472
osud	-10.1473
▁Fr	-10.1482
▁Kub	-10.1486
▁diváků	-10.1488
vedou	-10.1488
▁přehled	-10.1489
▁budoucnosti	-10.1489
▁stejn	-10.1489
▁studentů	-10.151
▁jím	-10.1516
▁slouží	-10.1519
▁životě	-10.1524
▁stane	-10.1525
▁Gr	-10.1527
▁záměr	-10.1532
▁partner	-10.1535
▁hrál	-10.1537
▁adres	-10.1546
tovat	-10.155
▁staré	-10.1552
res	-10.1556
▁demokratick	-10.1565
▁nutno	-10.1566
▁AIDS	-10.1574
▁Británie	-10.1574
▁vzdělání	-10.1574
▁srpna	-10.1574
▁obyvatelstva	-10.1574
▁Možná	-10.1579
▁konec	-10.158
▁čase	-10.1581
▁Vždyť	-10.1581
▁paní	-10.1586
75	-10.159
▁německé	-10.1595
▁chlad	-10.1597
▁trval	-10.1601
▁soudní	-10.1613
▁lidské	-10.1615
▁Škoda	-10.1617
▁miliony	-10.1625
▁hlasů	-10.1625
▁důsledku	-10.163
DO	-10.163
▁posun	-10.1631
▁pán	-10.1633
držel	-10.1635
▁známo	-10.1637
▁složení	-10.1641
▁týká	-10.1648
▁žije	-10.165
▁mnohé	-10.1653
▁zásadní	-10.1655
RE	-10.1658
▁aktivní	-10.1663
▁demokratické	-10.1669
▁předchozí	-10.1674
ároveň	-10.1677
▁běžný	-10.1679
▁používá	-10.1679
▁takových	-10.1682
kat	-10.1687
▁Bi	-10.1695
▁princip	-10.1703
▁PRO	-10.1704
▁státních	-10.1708
▁souhlas	-10.1714
▁založen	-10.1716
▁akt	-10.1717
▁koupit	-10.1719
áci	-10.172
▁vaše	-10.1729
▁očekávat	-10.173
▁připravuje	-10.173
▁tajemství	-10.173
▁silniční	-10.173
▁čísle	-10.173
▁buněk	-10.173
▁název	-10.1731
▁Západ	-10.1731
▁verze	-10.1733
směs	-10.1733
EM	-10.1734
▁odpor	-10.174
▁jejího	-10.174
▁zdalek	-10.1741
▁uspořádání	-10.1741
▁průměru	-10.1741
▁zařazen	-10.1748
▁úřady	-10.1751
▁piva	-10.1752
dem	-10.1759
▁poznání	-10.1763
stoupit	-10.177
▁John	-10.1776
▁příčin	-10.1777
ívají	-10.1777
▁kvalitu	-10.1777
▁chceme	-10.1777
▁výkonu	-10.1778
běžně	-10.1778
▁příštím	-10.1781
▁hmot	-10.1787
▁pobyt	-10.1789
▁dochází	-10.1789
eny	-10.1791
▁dní	-10.1797
▁počítačů	-10.1801
▁americký	-10.181
▁jiným	-10.1822
▁povinnosti	-10.1824
▁jaká	-10.1824
▁pokut	-10.1826
metr	-10.183
▁150	-10.1831
▁banka	-10.1834
▁Me	-10.1837
▁určitý	-10.1842
níků	-10.1844
▁zajímavé	-10.1849
▁syn	-10.1857
myšlen	-10.1862
▁Ši	-10.1865
CI	-10.1865
▁Ri	-10.1866
▁zápase	-10.1873
▁technické	-10.1878
▁cit	-10.1884
▁devět	-10.1886
▁režisér	-10.1889
▁zřejmé	-10.1889
▁občas	-10.1889
▁zůstat	-10.1889
▁přírody	-10.1889
▁pachatel	-10.1889
▁privatizaci	-10.189
▁trend	-10.189
▁marek	-10.1891
▁článku	-10.1891
▁sdělil	-10.1892
▁Karel	-10.1894
▁projektu	-10.1898
▁okresní	-10.19
bil	-10.19
▁pozitivní	-10.1902
▁muži	-10.1905
▁vyžaduje	-10.1911
▁premiéra	-10.1911
▁vánoce	-10.1915
▁jaderné	-10.1917
▁stroje	-10.1918
▁odborníků	-10.1918
▁částí	-10.192
▁agentury	-10.1922
▁Asi	-10.1922
rok	-10.1923
▁Tři	-10.1924
▁úvahu	-10.1926
▁dohod	-10.1933
▁sovětské	-10.1939
▁ústav	-10.1954
▁správ	-10.1956
▁hlavních	-10.1956
hlav	-10.1961
▁vyjádřil	-10.1971
▁relativn	-10.1971
▁příštího	-10.1978
▁vytvořen	-10.1982
▁jaderný	-10.1988
▁zákazník	-10.1993
eb	-10.2004
85	-10.2014
sáhl	-10.2017
▁poz	-10.2021
▁96	-10.2023
▁výraz	-10.2034
▁úkol	-10.2035
ených	-10.2037
▁Miroslav	-10.205
▁jména	-10.205
▁organizací	-10.205
▁zahájil	-10.205
▁věnovat	-10.205
▁válce	-10.205
▁historii	-10.205
▁následn	-10.205
▁rozhlas	-10.205
▁Myslím	-10.2053
▁roste	-10.2054
▁vaší	-10.2063
▁změně	-10.2068
▁programy	-10.2069
▁vrchol	-10.2077
▁přeprav	-10.2078
řek	-10.2078
▁politika	-10.2083
▁Nová	-10.2087
▁vývoji	-10.2087
▁div	-10.2088
▁liší	-10.2088
▁Oba	-10.2094
▁sport	-10.2099
tají	-10.21
▁východ	-10.2106
▁proveden	-10.2107
ger	-10.2116
▁Ot	-10.2117
budete	-10.2121
▁požádal	-10.2123
padal	-10.2126
▁soutěži	-10.2127
dvacet	-10.2127
vát	-10.2128
OR	-10.2132
▁úspor	-10.2134
▁kontakt	-10.2135
sad	-10.2141
▁režimu	-10.2142
ávají	-10.2145
dělit	-10.2146
▁republika	-10.2153
▁jediné	-10.2164
trh	-10.2166
▁druhy	-10.2167
▁cesta	-10.2167
▁nedá	-10.2169
▁uveden	-10.2171
▁tlačítko	-10.2171
ickým	-10.2171
▁hotelu	-10.2172
▁svobod	-10.2177
tud	-10.2178
▁pracovník	-10.2181
▁hraje	-10.2186
▁neví	-10.2189
IS	-10.219
▁4.	-10.2192
izovat	-10.2203
▁rekord	-10.2205
▁26	-10.221
ěkteří	-10.2213
▁1995	-10.2214
▁Někd	-10.2214
▁jednoduché	-10.2214
▁nabízejí	-10.2214
▁považován	-10.2214
▁Základní	-10.2214
▁snížil	-10.2214
▁špatné	-10.2214
▁zůstane	-10.2214
▁hormon	-10.2214
▁tajemník	-10.2215
▁zimní	-10.2216
▁úřadů	-10.2217
▁smlouva	-10.2226
▁programů	-10.2227
padají	-10.2233
něk	-10.2234
▁abych	-10.2235
▁porazil	-10.2236
slovensk	-10.2238
▁Stál	-10.224
▁příslušné	-10.2242
▁déle	-10.2242
▁pravidel	-10.2244
/2	-10.2247
NÁ	-10.2247
▁doktor	-10.2249
▁Mám	-10.2251
aly	-10.2254
ance	-10.2258
▁hranici	-10.2261
NI	-10.2268
kázal	-10.2275
▁Hol	-10.2277
▁signál	-10.2278
▁typů	-10.2279
▁užit	-10.228
▁tráv	-10.2283
cházejí	-10.2285
▁aut	-10.229
▁veškeré	-10.2306
▁zákazníků	-10.2314
tit	-10.2314
▁skutečné	-10.2316
MU	-10.2316
▁normální	-10.2318
▁pacientů	-10.232
▁chud	-10.2332
▁programové	-10.2333
▁kanál	-10.2337
pir	-10.2337
vané	-10.2338
pustit	-10.2343
▁stranu	-10.2346
▁typy	-10.2348
▁budu	-10.2356
▁Hlavní	-10.2356
pře	-10.2358
▁reprezentant	-10.2359
rem	-10.2362
ěji	-10.2363
držet	-10.2363
ckého	-10.2379
▁globální	-10.2381
▁sponzor	-10.2381
▁řidič	-10.2381
▁úterý	-10.2381
▁iniciativ	-10.2381
▁Lidé	-10.2381
▁kapalin	-10.2381
▁včas	-10.2381
▁někdejší	-10.2382
▁šance	-10.2382
▁Letos	-10.2382
JE	-10.2385
▁lednu	-10.2386
rd	-10.2387
▁jestliže	-10.2388
▁končí	-10.239
▁existují	-10.2391
▁postih	-10.2396
▁muže	-10.2399
praví	-10.2402
▁ruce	-10.2403
▁bytu	-10.2404
▁nerv	-10.2404
loží	-10.2408
▁barev	-10.2415
▁stejný	-10.2419
▁malá	-10.242
▁hledání	-10.2424
▁dům	-10.2429
▁někter	-10.2431
▁kapacit	-10.2432
TI	-10.2433
▁oblastí	-10.2434
▁značné	-10.2437
▁Sb	-10.2437
▁profesionální	-10.2443
▁dob	-10.2446
▁získala	-10.2447
věřit	-10.245
▁fotbal	-10.2457
▁dělá	-10.2458
▁spokojen	-10.2466
▁váš	-10.2467
▁kapitálu	-10.2473
stávají	-10.2473
▁podnikatelské	-10.2473
ES	-10.2483
▁symbol	-10.2489
▁problémem	-10.2491
▁Česko	-10.2493
▁svému	-10.2494
▁soukrom	-10.2496
OS	-10.2505
▁Františ	-10.2507
▁dokázal	-10.2508
▁krajin	-10.251
klep	-10.2526
▁používat	-10.255
▁trénink	-10.255
▁Federální	-10.255
▁útvar	-10.255
▁verzi	-10.255
▁potíže	-10.255
▁mzdy	-10.255
▁najednou	-10.2551
▁členství	-10.2552
▁vystoupení	-10.2552
▁výklad	-10.2553
▁tabulky	-10.2554
▁úmysl	-10.2554
▁Zdá	-10.2554
▁nejdříve	-10.2555
▁studie	-10.2556
▁shromáždění	-10.2556
▁novým	-10.2558
▁včerejší	-10.2559
▁zvlášť	-10.2559
čně	-10.256
▁vrátit	-10.256
▁Sv	-10.2565
▁par	-10.2565
▁lékařské	-10.2567
▁patnáct	-10.2567
▁odpověď	-10.2572
▁škole	-10.2573
▁třetím	-10.2574
ovanou	-10.2574
▁Chce	-10.2577
▁rozdělení	-10.2582
▁vznikla	-10.2583
▁děje	-10.2589
▁investor	-10.2598
váží	-10.2599
▁liber	-10.26
▁délk	-10.2609
▁Nebo	-10.2612
▁vnější	-10.2622
▁OS	-10.2624
▁akcí	-10.2625
▁deník	-10.2628
▁centru	-10.2628
▁označení	-10.263
▁nemohl	-10.2631
▁vztahů	-10.2637
▁zprávu	-10.2642
set	-10.2643
par	-10.2648
▁akcie	-10.265
▁těsně	-10.2652
▁časem	-10.266
rot	-10.2665
inter	-10.2666
▁případné	-10.2669
▁dávno	-10.2671
MA	-10.268
▁počítači	-10.2686
ovaným	-10.2688
▁nezbytn	-10.269
prostřed	-10.2693
vala	-10.2695
▁MB	-10.27
lib	-10.2702
▁riziko	-10.2704
▁Francouz	-10.271
▁mikro	-10.2717
▁katalog	-10.2723
▁prospěch	-10.2723
▁umožnil	-10.2723
▁výrobci	-10.2723
▁Československa	-10.2723
▁domnívá	-10.2723
▁rozhodne	-10.2723
▁paragraf	-10.2723
▁hospodaření	-10.2723
▁Nicméně	-10.2723
▁zaměstnanci	-10.2724
přes	-10.2732
▁spočívá	-10.2733
san	-10.2735
▁soukromých	-10.2738
▁pohybu	-10.2751
▁odpovídající	-10.2752
▁ostrov	-10.2753
▁pozici	-10.2753
▁odpadů	-10.2756
▁záznamník	-10.2758
DE	-10.2759
▁umí	-10.2759
wa	-10.2765
ozi	-10.2774
▁soudí	-10.2774
kar	-10.2775
▁silné	-10.2779
▁pop	-10.2782
též	-10.2782
▁zaměstnavatel	-10.2788
▁schopnost	-10.279
▁počítat	-10.2794
▁objem	-10.2801
ju	-10.2809
▁12.	-10.2812
vést	-10.2814
▁podepsal	-10.2816
▁ruský	-10.2817
▁analýz	-10.2819
řez	-10.2821
▁rod	-10.2822
kan	-10.2823
▁týdne	-10.2825
▁pracoval	-10.2828
lid	-10.2828
▁podzim	-10.283
▁posledním	-10.2831
▁platnost	-10.2835
▁Velk	-10.2843
▁dar	-10.2858
▁britské	-10.286
ral	-10.2864
▁pojistné	-10.2865
áni	-10.2867
kají	-10.2873
níku	-10.2887
▁díla	-10.2888
níky	-10.2888
razit	-10.2891
▁rozvoje	-10.2892
razí	-10.2893
áno	-10.2895
▁Fo	-10.2897
▁odvětví	-10.2898
▁firmu	-10.2898
▁hrozí	-10.2898
▁mozku	-10.2898
▁Tomáš	-10.2898
▁hovor	-10.2899
▁získali	-10.2899
▁Pohár	-10.2899
onu	-10.29
▁hledat	-10.29
▁poměru	-10.2902
▁Čern	-10.2902
▁horší	-10.2902
▁Dále	-10.2902
▁DNA	-10.2902
▁prvků	-10.2903
▁dluh	-10.2908
▁mnozí	-10.2909
nesou	-10.2911
▁půdě	-10.2918
▁per	-10.2921
▁letošním	-10.2936
RO	-10.2942
▁Ci	-10.2943
▁uzavření	-10.2944
▁žena	-10.2946
tion	-10.2947
pul	-10.2948
▁ukázal	-10.2949
▁vědomí	-10.2951
RU	-10.2954
▁příbuzn	-10.2968
▁region	-10.2973
boj	-10.2974
pustil	-10.2983
▁změnil	-10.2986
▁dovoz	-10.2992
▁poháru	-10.2992
ickém	-10.2996
▁budoucnost	-10.2996
neme	-10.3002
cení	-10.3003
▁teploty	-10.3004
stické	-10.301
▁protest	-10.301
▁metody	-10.3011
▁údaj	-10.3018
řízení	-10.3019
denní	-10.3022
▁uložen	-10.3023
▁zemědělské	-10.3023
▁cest	-10.3023
DA	-10.3025
▁Fa	-10.3027
▁snah	-10.3043
brat	-10.3047
▁ochranu	-10.3047
▁čtenář	-10.3055
▁19.	-10.306
▁účasti	-10.3061
front	-10.3063
ble	-10.3072
znamenat	-10.3077
▁aplikací	-10.3077
▁upozornil	-10.3077
▁výrobě	-10.3077
▁zdůraznil	-10.3077
▁Československo	-10.3077
▁Existuj	-10.3077
▁natolik	-10.3077
▁výroba	-10.3077
▁rodiče	-10.3077
▁tudíž	-10.3077
▁podpory	-10.3077
▁bankovní	-10.3077
▁nechtěl	-10.3077
▁reprezentace	-10.3077
jedině	-10.3078
▁problematik	-10.3079
▁křiv	-10.3083
▁limit	-10.3084
▁vytváření	-10.3086
▁částečně	-10.3086
▁Rus	-10.3088
padlo	-10.3105
▁vlastností	-10.3111
lín	-10.3111
▁centrální	-10.3114
▁Poté	-10.3117
▁zavedení	-10.3119
▁zpráva	-10.3125
▁pacient	-10.3131
40	-10.3135
▁karty	-10.3138
▁účastníků	-10.314
▁Ex	-10.3142
graf	-10.3143
▁záležitost	-10.3146
▁měnit	-10.3146
▁Švédsk	-10.3147
▁dílo	-10.3147
šp	-10.3153
kových	-10.3154
▁režim	-10.3156
bere	-10.3174
dostala	-10.318
kům	-10.3181
▁mé	-10.3181
NA	-10.3197
▁pohledu	-10.3198
▁Musí	-10.3199
▁dalšími	-10.3202
mark	-10.3204
ale	-10.3206
▁významné	-10.3207
▁umístěn	-10.321
bel	-10.3218
▁hospodářsk	-10.3226
▁zmíněné	-10.3226
▁úst	-10.3227
▁důvodu	-10.3227
hraje	-10.3229
▁Pe	-10.3231
▁kultur	-10.3241
ologie	-10.3245
LE	-10.3249
▁neexistuje	-10.3259
▁připojištění	-10.3259
▁rozhodčí	-10.3259
▁paměti	-10.3259
▁pomalu	-10.3259
▁vyloučen	-10.3259
▁kvalifikaci	-10.3259
▁Americk	-10.3259
▁super	-10.3261
▁odpoledne	-10.3261
▁česká	-10.3263
▁připomíná	-10.3265
žijí	-10.3267
▁organismu	-10.3269
▁oblastech	-10.3272
▁Nad	-10.3273
▁svědčí	-10.3274
▁Hus	-10.3274
▁nynější	-10.3277
▁voda	-10.3277
▁reklam	-10.3279
▁Vol	-10.3291
land	-10.3294
dají	-10.33
▁výš	-10.3301
▁materiálů	-10.3302
▁forma	-10.3309
▁občanské	-10.3312
▁směr	-10.3313
▁budov	-10.3314
▁Slovenska	-10.3314
▁ztráty	-10.332
jedno	-10.3322
▁Ústav	-10.3326
▁zkušenost	-10.333
bývají	-10.3331
▁potřeba	-10.3335
▁graf	-10.3345
pětí	-10.336
har	-10.3361
▁loňském	-10.3364
▁brněnské	-10.3366
▁přinesl	-10.3368
▁chat	-10.3374
▁obrazu	-10.3375
AL	-10.3378
▁zahájení	-10.3378
▁vzájemné	-10.3379
▁dohodu	-10.338
▁zraněn	-10.3382
▁poloviny	-10.3384
▁kapitál	-10.3386
▁pochyb	-10.3387
▁odboru	-10.3393
▁nejvíc	-10.3402
▁Gorbačov	-10.3406
▁metr	-10.3414
out	-10.3419
ins	-10.3421
▁roh	-10.3425
▁rádi	-10.3429
▁děj	-10.3429
▁památ	-10.343
▁vzal	-10.344
▁rozliš	-10.3443
▁Itálie	-10.3444
▁Ovšem	-10.3444
▁Program	-10.3444
▁konflikt	-10.3444
▁úspěšně	-10.3444
▁minimální	-10.3444
▁neustále	-10.3444
▁stránce	-10.3444
▁rychlé	-10.3444
hlédnout	-10.3444
▁praxe	-10.3444
▁záchran	-10.3444
▁chorob	-10.3444
▁desetiletí	-10.3444
▁regionální	-10.3446
▁vyjádření	-10.3446
▁nicméně	-10.3446
▁desítek	-10.3447
▁Ministr	-10.345
▁proud	-10.345
▁přístroje	-10.3451
▁zdejší	-10.3451
▁Ital	-10.3452
▁Ostravě	-10.3454
▁vybrat	-10.3457
ór	-10.3458
▁slev	-10.3462
▁dodnes	-10.3463
▁Tam	-10.3474
▁činitel	-10.3475
lů	-10.3476
▁určitou	-10.348
▁ročník	-10.3481
jen	-10.3483
▁hod	-10.3483
▁musím	-10.3487
▁rozhovoru	-10.3497
ony	-10.35
▁výhradn	-10.35
▁autorů	-10.3506
▁obecně	-10.3509
▁soustavy	-10.3512
bral	-10.3513
▁vlastnost	-10.3518
▁Fin	-10.3541
▁důkaz	-10.3552
ičky	-10.3557
▁omezen	-10.356
▁standardní	-10.3569
NO	-10.357
▁slavn	-10.3577
bili	-10.3577
▁formul	-10.358
▁hotov	-10.358
▁Sta	-10.3581
▁vývozu	-10.3582
▁reálné	-10.3583
▁přesun	-10.3584
▁čin	-10.3588
▁takovém	-10.3591
čních	-10.3618
▁závodu	-10.3621
▁KSČM	-10.3624
izace	-10.3631
▁Všichni	-10.3632
▁jednoduchý	-10.3632
▁náměstek	-10.3632
▁poptávky	-10.3632
▁profesor	-10.3632
▁zvítězil	-10.3632
▁zúčastnil	-10.3632
▁špatně	-10.3632
▁Naopak	-10.3632
▁jediná	-10.3633
▁poslance	-10.3633
▁Snad	-10.3633
▁odborníci	-10.3633
▁zaměstnance	-10.3634
▁kostel	-10.3634
▁video	-10.3635
▁měření	-10.3636
▁jednotliv	-10.3636
▁problému	-10.3636
▁potřebují	-10.3637
▁okna	-10.3637
▁nabídl	-10.3637
▁koncentrace	-10.3638
▁zkouš	-10.3638
▁určit	-10.3642
▁čtení	-10.3644
▁atlet	-10.3649
▁Fran	-10.3651
kyně	-10.3652
▁přestup	-10.3654
▁ústavní	-10.3654
▁totem	-10.3658
▁italské	-10.3659
▁II	-10.366
▁produktů	-10.3663
▁vychází	-10.3669
▁záležitostí	-10.3669
ekonomický	-10.3669
rp	-10.3674
ab	-10.3675
▁stovky	-10.3675
▁zpráv	-10.3676
ence	-10.3684
▁automaticky	-10.3685
▁čekají	-10.3688
ička	-10.3688
▁zrušení	-10.3689
▁vzduchu	-10.3692
▁letní	-10.3698
▁soupeře	-10.3702
▁rozsahu	-10.3708
▁fin	-10.3708
▁řádu	-10.371
sty	-10.3719
▁pohár	-10.3723
▁filmu	-10.3736
▁neměli	-10.3736
▁nástroj	-10.3738
▁představují	-10.3743
▁lidsk	-10.3747
▁odst	-10.375
▁mně	-10.3756
▁činností	-10.3759
ama	-10.3763
odpovědn	-10.3768
▁svá	-10.3773
dis	-10.3773
pek	-10.3775
▁vlastním	-10.3777
▁29	-10.3778
▁daní	-10.3782
ier	-10.3789
▁hodnota	-10.3822
▁katastrof	-10.3823
▁investovat	-10.3825
▁Ředitel	-10.3825
▁upraven	-10.3825
▁mladé	-10.3825
▁historie	-10.3825
▁turistů	-10.3825
▁zbraně	-10.3825
bavit	-10.3825
▁bydlení	-10.3825
▁věnoval	-10.3825
▁pojetí	-10.3825
▁zákonem	-10.3826
▁nechat	-10.3828
▁lidmi	-10.3829
▁krátce	-10.3831
▁oslav	-10.3835
nova	-10.3836
▁pohybuje	-10.3837
▁dodávky	-10.3838
▁pozice	-10.3845
čel	-10.3847
kář	-10.3847
izaci	-10.3852
▁úspěchu	-10.3854
▁voličů	-10.3855
▁šampionátu	-10.3862
▁námi	-10.3863
hav	-10.3865
▁domě	-10.3865
▁domácím	-10.3866
bin	-10.3866
▁Soud	-10.387
▁tlak	-10.388
▁soutěží	-10.3882
▁Evropsk	-10.3883
▁omezení	-10.3885
▁dostává	-10.3888
▁No	-10.3892
▁postav	-10.3893
dom	-10.3894
▁pouhý	-10.3895
▁Kla	-10.3895
art	-10.3902
▁návrhy	-10.3912
měl	-10.3927
díl	-10.3928
sadil	-10.3929
▁provedení	-10.3933
▁17.	-10.3935
▁student	-10.394
▁výchov	-10.394
▁dopad	-10.3943
lze	-10.3944
mile	-10.3946
▁osud	-10.3958
▁materiálu	-10.396
▁jakou	-10.3965
▁obviněn	-10.3967
▁rychlosti	-10.3969
▁čisté	-10.3974
▁investic	-10.3974
▁jinými	-10.3978
▁obecní	-10.3978
▁Ano	-10.3979
▁současný	-10.3981
▁dodavatel	-10.3981
▁nájemné	-10.3982
▁nejdůležitější	-10.3983
▁různým	-10.3984
▁pla	-10.3989
hem	-10.3992
antní	-10.3995
oři	-10.3995
oma	-10.3997
▁vědeck	-10.4004
▁anglické	-10.4008
trž	-10.4013
▁Především	-10.4021
▁elektrárny	-10.4021
▁minimálně	-10.4021
▁měsíčně	-10.4021
▁umožní	-10.4021
▁úspěšné	-10.4021
▁Richard	-10.4021
▁Spojené	-10.4021
▁snížit	-10.4021
▁úsilí	-10.4021
▁zvýšit	-10.4021
▁snímky	-10.4021
▁míře	-10.4022
▁tvorbu	-10.4022
▁Nov	-10.4022
▁setkal	-10.4022
▁doslova	-10.4022
▁poškození	-10.4022
▁kritik	-10.4022
▁Češi	-10.4023
▁pravdu	-10.4025
▁nucen	-10.4025
▁zvýšil	-10.4026
▁myší	-10.4028
▁celek	-10.4029
ávání	-10.4033
▁správně	-10.4038
jíž	-10.4038
▁zobrazení	-10.4041
▁policistů	-10.4043
pád	-10.4047
▁okolností	-10.4047
▁sobotní	-10.4051
čili	-10.4052
▁objev	-10.4054
▁zlom	-10.4055
▁cestě	-10.4055
ivost	-10.4057
▁600	-10.4061
▁rozvod	-10.4066
▁samotné	-10.4069
▁žádném	-10.4069
▁žádná	-10.4075
▁černé	-10.4078
▁mistrů	-10.4079
▁cítí	-10.4086
▁domácích	-10.4092
▁červen	-10.41
jal	-10.4101
ista	-10.4101
▁festivalu	-10.4106
▁třídy	-10.4107
og	-10.4109
▁nejlepším	-10.4112
▁Kor	-10.4114
▁vzniká	-10.4115
48	-10.4121
▁konstatoval	-10.4121
▁klid	-10.4122
▁centrum	-10.413
snad	-10.4133
▁technick	-10.4135
▁zjistil	-10.414
▁dějin	-10.4141
▁nemoci	-10.4161
▁tříd	-10.4162
▁udělal	-10.4163
▁denní	-10.4167
▁PowerPointu	-10.417
▁střed	-10.4176
▁oper	-10.4177
▁Or	-10.4177
▁povrchu	-10.4177
entní	-10.4183
▁poklesu	-10.4186
▁lev	-10.4187
▁dítě	-10.4197
▁Kol	-10.4205
▁nástup	-10.4207
▁vést	-10.421
▁polovina	-10.4211
IT	-10.4213
▁mal	-10.4219
▁zpravodaj	-10.422
▁existence	-10.4221
▁konkurenční	-10.4221
▁matematik	-10.4221
▁pojišťovny	-10.4221
▁rozhodování	-10.4221
▁ČNR	-10.4221
▁širší	-10.4221
▁Samozřejmě	-10.4221
▁divadla	-10.4221
▁editor	-10.4221
▁úspěšný	-10.4221
▁půjde	-10.4221
▁výskyt	-10.4221
▁sdělení	-10.4221
▁městské	-10.4221
▁nabídka	-10.4221
▁map	-10.4222
▁obsadil	-10.4224
▁strach	-10.4225
▁úraz	-10.4226
▁společenské	-10.4228
▁Muž	-10.423
▁představení	-10.4231
▁myšlení	-10.4232
▁nezávislých	-10.4236
▁nastoupil	-10.4238
▁znát	-10.4239
▁technický	-10.4241
▁výdaje	-10.4248
,5	-10.4252
▁skupinu	-10.4252
▁úvodní	-10.4262
ovského	-10.4268
▁Proti	-10.427
▁armáda	-10.4272
▁půdy	-10.4279
▁podnikatelé	-10.4279
▁Her	-10.4286
▁anti	-10.429
▁nebyli	-10.4291
▁klade	-10.4295
▁úpravy	-10.4299
čné	-10.431
▁vysokých	-10.4319
jasn	-10.432
▁generál	-10.432
▁zákazníky	-10.4321
▁ochot	-10.4329
volat	-10.433
áků	-10.4331
▁cm	-10.4332
dol	-10.4333
▁smrt	-10.4335
padne	-10.4337
▁výstav	-10.4341
▁zaměřen	-10.4341
ičtí	-10.4351
áním	-10.4351
▁výhod	-10.436
▁hodinu	-10.4361
cc	-10.4371
něte	-10.4372
▁celní	-10.4377
▁Slovensko	-10.438
▁lov	-10.4388
▁prodejní	-10.4398
▁odpadní	-10.4401
▁chemické	-10.4404
▁maximáln	-10.441
▁úprav	-10.441
ros	-10.4421
▁Němci	-10.4425
▁církve	-10.4425
▁surovin	-10.4425
▁týdny	-10.4425
▁usnesení	-10.4425
▁odmítá	-10.4425
▁nízké	-10.4425
▁kolegy	-10.4425
▁uměl	-10.4425
▁zapotřebí	-10.4425
▁přišla	-10.4425
▁vražd	-10.4425
▁1988	-10.4426
▁privatizační	-10.4426
▁FS	-10.4426
▁Teď	-10.4427
▁pas	-10.4428
kombin	-10.4428
▁létě	-10.4428
▁Inter	-10.4429
▁pořad	-10.4432
▁StB	-10.4433
zemní	-10.4436
▁bezpečnost	-10.4443
▁výuk	-10.4447
▁předpoklad	-10.4449
▁vůle	-10.4449
kupní	-10.4452
kraji	-10.4453
▁žijící	-10.4458
▁přímé	-10.446
▁oni	-10.4463
▁náklad	-10.4464
▁Bur	-10.4465
▁postaven	-10.4467
TO	-10.4467
▁jižní	-10.4468
▁mladých	-10.4469
▁nep	-10.447
▁příslušný	-10.447
▁porušení	-10.4471
▁myslí	-10.4472
letěl	-10.4473
▁Per	-10.4474
▁zájmy	-10.4476
▁rozporu	-10.4479
▁fyzik	-10.448
▁představitelů	-10.4484
▁důsledky	-10.4484
▁založil	-10.4484
rez	-10.4488
▁německých	-10.4494
▁německého	-10.4495
▁mluví	-10.4499
▁Internetu	-10.45
▁lidského	-10.4503
▁Kde	-10.4504
dání	-10.4504
▁daňový	-10.4505
▁automobilů	-10.4509
nějších	-10.4511
▁původu	-10.4512
▁uspořáda	-10.4519
ick	-10.4521
kládání	-10.4524
▁velikosti	-10.4537
sídl	-10.4538
inak	-10.4553
▁nehod	-10.456
▁obce	-10.4561
80	-10.4573
▁částka	-10.4577
▁účastní	-10.459
▁rozhodla	-10.4592
▁neznám	-10.4596
▁formát	-10.4609
▁hře	-10.4611
▁Sovětské	-10.4612
▁barevné	-10.4627
▁správné	-10.4628
▁18.	-10.4629
bytek	-10.463
▁uvedený	-10.4633
▁Egypt	-10.4633
▁Moskvě	-10.4633
▁firmou	-10.4633
▁pokračoval	-10.4633
▁technologií	-10.4633
▁vynikající	-10.4633
▁zvyšuje	-10.4633
▁populace	-10.4633
▁třináct	-10.4633
▁Třetí	-10.4633
▁dovolené	-10.4633
▁spisovatel	-10.4633
▁štěstí	-10.4633
▁ihned	-10.4633
▁Francii	-10.4633
▁Předseda	-10.4633
▁Pomuku	-10.4633
▁reprezentační	-10.4634
▁mužstva	-10.4634
▁Bush	-10.4634
▁funkční	-10.4634
▁tábor	-10.4634
vzdor	-10.4634
ČSL	-10.4635
▁spotřební	-10.4635
▁představy	-10.4636
▁mluvit	-10.4636
▁Boris	-10.4637
▁Milan	-10.4637
▁šok	-10.4641
▁obětí	-10.4642
▁Místo	-10.4643
▁Více	-10.4649
▁úmrtnosti	-10.4649
▁volb	-10.465
hodil	-10.465
▁20.	-10.4651
▁Avšak	-10.4654
▁podklad	-10.4657
kož	-10.4662
▁těla	-10.4664
▁zastoupení	-10.4664
▁přichází	-10.4665
▁nemocnici	-10.4669
ller	-10.4673
▁ano	-10.4677
▁Druhý	-10.4686
▁obavy	-10.4689
▁všeho	-10.4696
▁lesní	-10.4701
▁řeči	-10.4703
▁prodává	-10.4703
▁Mi	-10.4704
▁kol	-10.4707
▁Jižní	-10.4709
▁Val	-10.471
▁dětské	-10.4713
hlásí	-10.4714
▁krátké	-10.4725
▁hru	-10.4728
áme	-10.4728
▁příležitost	-10.473
KU	-10.473
▁kód	-10.4743
▁molekuly	-10.4749
▁studiu	-10.4752
▁ročníku	-10.4764
▁detail	-10.4766
▁vážně	-10.4766
▁turnaj	-10.4768
▁Par	-10.478
▁Sam	-10.478
▁uvědom	-10.4787
tvrdil	-10.4796
ša	-10.4799
▁příštích	-10.4799
▁doprav	-10.48
▁pražsk	-10.4802
ůj	-10.4808
▁realit	-10.4808
▁Man	-10.481
▁snaha	-10.4816
▁jedná	-10.4816
▁33	-10.4818
▁pražském	-10.482
▁kroky	-10.4822
▁The	-10.4825
▁nebezpečn	-10.4826
▁váh	-10.4829
dor	-10.4832
▁byty	-10.4838
išť	-10.4838
cem	-10.4841
▁konkurenci	-10.4846
▁nakladatelství	-10.4846
▁sledovat	-10.4846
▁tehdejší	-10.4846
▁transformace	-10.4846
▁výsledkem	-10.4846
▁zlepšení	-10.4846
▁úmrtí	-10.4846
▁negativní	-10.4846
▁budoucnu	-10.4846
▁příjmu	-10.4846
▁zabránit	-10.4846
▁civilní	-10.4846
▁Vláda	-10.4846
▁cukr	-10.4846
▁souvisí	-10.4846
▁Slavie	-10.4846
▁jedinou	-10.4846
▁Wales	-10.4847
▁Kanad	-10.4848
▁operace	-10.4848
▁Euro	-10.4848
▁střet	-10.4848
▁PCB	-10.4848
▁postižen	-10.4849
hradí	-10.4849
▁financování	-10.4849
▁dlužník	-10.485
▁rozhodnout	-10.4853
▁postupu	-10.4855
▁Vedle	-10.4856
▁náhod	-10.4858
▁škola	-10.4861
▁formou	-10.4864
VA	-10.4872
▁výhodné	-10.4872
han	-10.4873
▁jezdí	-10.4873
▁zaplatit	-10.4874
▁osmdesát	-10.4874
▁vyzval	-10.4878
▁charakter	-10.4879
jmenován	-10.4883
▁UK	-10.4885
▁přijal	-10.4885
▁zbytečné	-10.4886
▁překvapení	-10.4886
▁celkový	-10.4895
▁prodat	-10.49
▁povinností	-10.4901
▁řídí	-10.491
▁českým	-10.4913
▁největším	-10.4916
▁starých	-10.4921
působil	-10.4923
▁vyspělý	-10.4924
▁německý	-10.4926
▁příležitosti	-10.4928
▁3000	-10.4938
árně	-10.4945
▁produktu	-10.4947
▁napětí	-10.4957
▁partnery	-10.4957
valy	-10.4961
▁set	-10.497
▁novém	-10.4971
▁účely	-10.4974
▁dojde	-10.4976
▁velkým	-10.4981
▁jakých	-10.4985
▁dostih	-10.4986
▁soustav	-10.4987
ria	-10.499
▁Obě	-10.499
▁noviny	-10.4993
▁školní	-10.4995
▁západ	-10.4995
▁pracovníky	-10.4999
▁hlad	-10.5
▁nákladní	-10.5002
▁obec	-10.5003
▁úrok	-10.5005
▁neměla	-10.5009
ejména	-10.5011
fyzikální	-10.502
kin	-10.5024
hel	-10.5024
▁historické	-10.5026
▁zápasy	-10.5026
klád	-10.5034
ona	-10.5039
dařilo	-10.5039
TE	-10.504
▁jasně	-10.504
▁probíh	-10.5046
▁vydal	-10.5049
sloužil	-10.5051
▁32	-10.5053
▁vlád	-10.5053
▁turnaje	-10.5059
ouze	-10.506
▁způsoben	-10.506
▁pravidla	-10.5061
▁pomohl	-10.5062
▁propag	-10.5062
▁někde	-10.5063
▁Ostatně	-10.5063
▁Plzeň	-10.5063
▁Sdružení	-10.5063
▁služba	-10.5063
▁záleží	-10.5063
▁červnu	-10.5063
▁rekreační	-10.5063
▁přiznání	-10.5063
▁porovnání	-10.5063
▁krize	-10.5064
▁navrhl	-10.5064
▁bit	-10.5064
▁výrok	-10.5065
▁sítí	-10.5065
▁prázdnin	-10.5066
▁místnosti	-10.5067
▁Ačkoli	-10.5069
jel	-10.507
▁obrázek	-10.5072
▁požár	-10.5073
ňují	-10.5076
▁přináší	-10.5078
▁zápasu	-10.5078
▁jednotky	-10.5079
ujte	-10.508
▁placení	-10.5083
▁udržet	-10.5086
▁začátkem	-10.5087
▁klíč	-10.5088
▁El	-10.5088
▁dostali	-10.509
hrát	-10.5091
▁starý	-10.5096
▁zobraz	-10.5096
▁lesy	-10.51
psané	-10.51
▁znalosti	-10.5103
▁účetní	-10.5107
▁Washingtonu	-10.511
▁hodnotě	-10.5115
▁Moravy	-10.512
▁prodávat	-10.5121
▁hran	-10.5121
▁strojů	-10.5123
▁historický	-10.5124
▁tamní	-10.5127
razil	-10.5128
▁nemáme	-10.5139
roj	-10.5146
▁věk	-10.5148
▁býval	-10.5156
íček	-10.5158
ějším	-10.5162
jedná	-10.5165
▁Nez	-10.517
und	-10.5172
okr	-10.5174
▁Firm	-10.5174
▁195	-10.5176
▁zahrad	-10.5177
▁trenéra	-10.5183
▁hokej	-10.5185
▁nezávislost	-10.5188
▁Ruska	-10.5189
kládají	-10.5193
▁vědecký	-10.5194
ŘE	-10.5195
▁perspektiv	-10.5196
tickou	-10.5198
▁všemi	-10.5198
▁pražského	-10.5199
▁uzavřel	-10.521
stavit	-10.521
▁Rusk	-10.5226
▁klient	-10.5227
▁vědom	-10.5229
▁nese	-10.523
▁schválen	-10.5233
▁důchod	-10.5234
rej	-10.5237
▁partnerů	-10.5242
vir	-10.5252
▁Št	-10.5253
EC	-10.5254
▁vedením	-10.5255
▁modelů	-10.5256
▁120	-10.5269
▁PC	-10.5271
▁místy	-10.5277
▁něž	-10.5277
▁Bratislavě	-10.5286
▁kompromis	-10.5286
▁odpověděl	-10.5286
▁otázce	-10.5286
▁týdnů	-10.5286
▁uskuteční	-10.5286
▁Návrh	-10.5286
▁nabídnout	-10.5286
▁Nakonec	-10.5286
▁péči	-10.5286
▁podpora	-10.5286
▁žalob	-10.5286
▁dovolit	-10.5286
▁server	-10.5286
▁nepodařilo	-10.5287
▁kategorie	-10.5287
▁okno	-10.5288
▁nedostatek	-10.5289
▁připravit	-10.5292
kazuje	-10.5294
▁Brno	-10.5297
mého	-10.5297
▁americk	-10.5298
▁prvky	-10.53
povídá	-10.5302
▁návštěvě	-10.5303
▁Podnik	-10.5304
▁stará	-10.5304
▁past	-10.5304
iletý	-10.5307
ologické	-10.5311
▁tajné	-10.5312
▁jaterní	-10.5314
▁dialog	-10.5314
▁zjistit	-10.5315
▁domácnosti	-10.5319
▁slovy	-10.532
Ř	-10.5325
▁přiznal	-10.5325
▁provést	-10.5327
▁tvrd	-10.5327
▁Ad	-10.5329
▁malou	-10.5332
zb	-10.5335
▁kontrolu	-10.5336
▁nezaměstnanosti	-10.5338
▁sluš	-10.5338
▁buňky	-10.5339
▁získání	-10.5339
rst	-10.5342
▁případu	-10.5343
▁osobně	-10.5349
tak	-10.5351
pálen	-10.5352
▁vojenský	-10.5357
▁stanici	-10.5359
▁hledá	-10.5364
▁spotřebitel	-10.5365
▁Evropský	-10.5372
▁koruny	-10.5373
▁vložen	-10.5378
▁operační	-10.5385
gan	-10.5386
▁událost	-10.5396
ete	-10.5401
▁víkend	-10.541
▁druhým	-10.5411
istů	-10.5421
▁prohrál	-10.5431
oje	-10.5435
elné	-10.5435
▁stejném	-10.5437
▁přeměn	-10.5448
▁partnera	-10.5449
▁0,	-10.5457
▁filmů	-10.5463
▁hrají	-10.5464
▁metoda	-10.5466
▁dřív	-10.5467
▁devíti	-10.5467
▁přítomn	-10.5467
třel	-10.5477
musela	-10.5482
15	-10.5482
▁ekonomik	-10.5487
sát	-10.5491
▁fan	-10.5495
▁začalo	-10.5495
vádějí	-10.5495
▁prodal	-10.5496
hovořil	-10.5499
▁oficiálně	-10.5502
▁případy	-10.5508
▁fa	-10.5508
▁existenci	-10.5513
▁funguje	-10.5513
▁otevření	-10.5513
▁otázek	-10.5513
▁pojišťovna	-10.5513
▁rozhodovat	-10.5513
▁Slunce	-10.5513
▁advokát	-10.5513
▁ostatně	-10.5513
▁vytvoří	-10.5513
▁lokalit	-10.5513
▁situací	-10.5513
▁Znamen	-10.5513
▁letadla	-10.5513
▁zůstávají	-10.5513
▁dlouhodobé	-10.5513
▁stáří	-10.5513
▁žádá	-10.5513
▁molekulární	-10.5514
▁operaci	-10.5515
▁aktuální	-10.5515
▁pochod	-10.5515
▁oči	-10.5515
▁přání	-10.5515
▁vyšetřování	-10.5516
▁SRN	-10.5516
▁Obecn	-10.5518
▁skutečný	-10.5518
▁protein	-10.5518
▁vystudoval	-10.552
▁zájemců	-10.5522
▁hrad	-10.5522
bíd	-10.5523
▁změní	-10.5524
▁fakultě	-10.5524
▁ekonom	-10.5527
▁formě	-10.5529
▁vypadá	-10.5532
▁spojené	-10.5536
▁západních	-10.5537
▁sezóně	-10.5537
▁přicházejí	-10.5537
▁vyberte	-10.5539
▁Brna	-10.554
telné	-10.5542
▁fakulty	-10.5542
▁státním	-10.5545
▁potřeboval	-10.5546
éměř	-10.5555
▁dobrou	-10.5556
ány	-10.5558
▁církev	-10.556
▁komory	-10.5561
▁zjištění	-10.5561
▁vstupu	-10.5563
muž	-10.5574
▁členem	-10.5574
▁nájemného	-10.5575
▁16.	-10.5575
vítá	-10.5575
▁složen	-10.5578
▁cíle	-10.5582
▁návštěvníků	-10.5583
▁pozná	-10.5584
▁nástroje	-10.5585
▁přísn	-10.5588
pír	-10.5589
▁tvar	-10.5601
▁proměn	-10.5604
▁ministrů	-10.5606
▁Bre	-10.561
▁soupeř	-10.5612
▁obyvatelé	-10.5613
čan	-10.5616
▁víkendu	-10.5616
MO	-10.5617
▁produkt	-10.5617
▁čeho	-10.5618
▁most	-10.5619
prázdn	-10.5627
▁jedenáct	-10.563
lis	-10.5632
▁docela	-10.5632
▁postižené	-10.5639
▁struktury	-10.5645
vající	-10.5647
▁red	-10.5651
▁označen	-10.5652
▁průměrn	-10.5652
▁pobytu	-10.5662
▁brankář	-10.5665
▁odpovědnost	-10.5666
▁začaly	-10.5667
stu	-10.5669
▁modelu	-10.5673
▁pivovar	-10.5674
▁nutnost	-10.5675
rní	-10.5683
platí	-10.5685
při	-10.5685
▁Německ	-10.569
▁církevní	-10.5697
▁klubů	-10.57
▁rozdíly	-10.5704
ána	-10.5709
▁přístroj	-10.5709
▁prodeji	-10.5712
▁věří	-10.5714
▁významný	-10.5714
▁takovým	-10.5723
vykl	-10.5725
▁zjištěn	-10.5728
▁vojensk	-10.5738
▁Anglie	-10.5745
▁Nejvyšší	-10.5745
▁disciplín	-10.5745
▁institucí	-10.5745
▁laboratoř	-10.5745
▁mladší	-10.5745
▁nejčastěji	-10.5745
▁příspěvek	-10.5745
▁software	-10.5745
▁přispěl	-10.5745
▁nestačí	-10.5745
▁rodičů	-10.5745
▁organizační	-10.5745
▁pochopitelně	-10.5745
▁přinejmenším	-10.5746
▁souboj	-10.5746
▁vlastnictví	-10.5746
▁Polici	-10.5746
▁přijít	-10.5746
▁dráhy	-10.5746
▁kart	-10.5747
▁tvorby	-10.5747
▁podobu	-10.5747
▁zabezpečení	-10.5747
▁výplat	-10.5748
▁vědců	-10.5749
▁poruch	-10.5749
▁vrátí	-10.5749
▁Stačí	-10.5749
▁poznatky	-10.5751
stru	-10.5758
ine	-10.5758
▁policisté	-10.576
▁Bosně	-10.576
▁přijmout	-10.576
▁Králové	-10.5761
▁vozů	-10.5761
▁ekonomických	-10.5762
▁uznání	-10.5762
▁obsahu	-10.5763
▁nemusel	-10.5764
▁předpisů	-10.5767
▁stop	-10.5767
▁levnější	-10.577
▁hodinách	-10.5776
▁předsedou	-10.5777
▁smut	-10.578
▁částic	-10.5782
▁dohoda	-10.5783
▁léky	-10.5783
▁vytváří	-10.5784
▁čekal	-10.5784
▁George	-10.5787
SA	-10.5789
▁majitele	-10.5791
▁obrazovky	-10.5795
▁45	-10.5795
▁zad	-10.5796
▁neroz	-10.5797
bod	-10.5801
▁Olomouci	-10.5804
▁komplexní	-10.5808
▁ideální	-10.5808
náší	-10.5808
▁volně	-10.5811
▁prostory	-10.5812
▁starosti	-10.5817
▁nepod	-10.582
nová	-10.5821
▁ztrát	-10.5821
staral	-10.5823
▁hus	-10.5832
▁prac	-10.5833
▁fyziky	-10.5835
cker	-10.5835
▁uvažuje	-10.5842
▁nezávisl	-10.5843
▁českou	-10.5847
▁nápad	-10.5849
áček	-10.585
▁věděl	-10.585
▁obran	-10.5852
▁dodat	-10.5854
▁On	-10.5857
kova	-10.586
▁55	-10.5861
▁olympiád	-10.5871
▁dvoj	-10.588
▁zápasů	-10.588
▁festival	-10.5881
▁sekund	-10.5881
▁jistot	-10.5882
ložení	-10.5884
▁plochy	-10.5885
ejme	-10.5887
,6	-10.5887
mot	-10.5889
▁pacienta	-10.5891
▁českém	-10.5893
nedávn	-10.5905
▁vydává	-10.5905
▁65	-10.5919
age	-10.5924
▁náhradní	-10.5928
ráže	-10.5928
ODS	-10.5928
▁auta	-10.5929
▁zvýšen	-10.5933
▁ministrem	-10.5933
dostanou	-10.594
▁vzrostl	-10.594
ruší	-10.5943
▁jiném	-10.5945
▁Stát	-10.5955
12	-10.5962
▁podal	-10.5964
▁uzavře	-10.598
lka	-10.5981
▁Anglii	-10.5983
▁Jaromír	-10.5983
▁Microsoft	-10.5983
▁NHL	-10.5983
▁francouzské	-10.5983
▁jménem	-10.5983
▁medaile	-10.5983
▁navzájem	-10.5983
▁odpovědi	-10.5983
▁sortiment	-10.5983
▁uzavřít	-10.5983
▁veřejně	-10.5983
▁využívat	-10.5983
▁článek	-10.5983
▁Major	-10.5983
▁mužstvo	-10.5983
▁asociace	-10.5983
▁duchovní	-10.5983
▁poskytují	-10.5984
▁dětem	-10.5984
▁chvíle	-10.5984
▁ČEZ	-10.5984
▁bolest	-10.5984
▁požadavek	-10.5984
▁zástupců	-10.5984
▁San	-10.5984
▁zemské	-10.5984
pas	-10.5985
▁zhorš	-10.5985
▁měřítk	-10.5985
▁Chtěl	-10.5985
▁okolní	-10.5986
▁hrob	-10.599
▁Slav	-10.599
▁zabývat	-10.599
▁dres	-10.5993
▁výpočetní	-10.5994
▁třikrát	-10.5995
▁Prav	-10.5996
▁venkov	-10.5998
▁milion	-10.5998
▁disket	-10.6
▁stisk	-10.6009
▁Paul	-10.6012
šky	-10.6012
▁původ	-10.6013
86	-10.6014
▁ulice	-10.6016
▁výstavby	-10.6028
▁stanoví	-10.6029
▁chodí	-10.603
▁týkající	-10.6031
▁CO	-10.6032
kládat	-10.6037
▁Dvě	-10.6041
volání	-10.6041
▁sloup	-10.6042
▁rodinné	-10.6043
šly	-10.6045
▁pokusil	-10.6049
▁umístění	-10.6049
▁osobnosti	-10.6049
▁Dobr	-10.605
▁praktické	-10.6056
ěřitel	-10.6057
▁používání	-10.6062
ica	-10.6063
▁Takové	-10.6063
▁250	-10.6065
▁Mal	-10.6065
▁čtvrté	-10.6067
▁stanovení	-10.607
ovky	-10.6076
▁Profitu	-10.6077
▁vklad	-10.6078
▁bot	-10.6078
▁fondů	-10.6086
▁samé	-10.609
▁Jedin	-10.6093
▁obsahující	-10.6099
▁sousední	-10.6101
průměr	-10.6102
▁minulém	-10.6103
▁žádost	-10.611
LO	-10.6111
▁významu	-10.6113
▁samostatné	-10.6114
▁česko	-10.6118
▁třiceti	-10.612
yl	-10.612
▁zato	-10.6121
hání	-10.6121
▁nech	-10.6123
▁průzkum	-10.6124
▁argument	-10.6147
▁trhy	-10.6154
▁ztratil	-10.6155
ticky	-10.6165
▁obratu	-10.6165
▁mistra	-10.6166
pust	-10.6172
pana	-10.6178
spal	-10.6178
▁dvanácti	-10.618
▁ekologické	-10.6181
▁rozdělen	-10.6182
▁uživatelů	-10.6186
▁prezidentem	-10.6186
▁min	-10.6202
▁hospodářský	-10.6207
71	-10.6211
▁značný	-10.6215
▁počítačové	-10.6222
MI	-10.6225
▁stimul	-10.6226
▁trans	-10.6227
▁Důležit	-10.6227
▁dlouhý	-10.6227
▁generace	-10.6227
▁ministři	-10.6227
▁považuji	-10.6227
▁souladu	-10.6227
▁údržb	-10.6227
▁vyhlášk	-10.6227
▁vysoká	-10.6227
▁Polska	-10.6227
▁organizaci	-10.6227
▁obrátil	-10.6228
▁Michal	-10.6228
▁obecné	-10.6228
▁chtít	-10.6228
▁vlajk	-10.6228
▁dobrovoln	-10.6228
▁doping	-10.6229
▁studia	-10.6229
▁nejspíš	-10.623
▁územní	-10.623
▁skončila	-10.623
▁omyl	-10.623
▁dolar	-10.623
▁nedělní	-10.6231
▁neznamená	-10.6238
▁vyplatí	-10.624
▁Ří	-10.6242
▁ukazují	-10.6245
▁lesů	-10.6247
▁odborných	-10.6247
běhu	-10.6247
▁související	-10.6247
▁předložil	-10.6248
ZE	-10.6249
▁vědě	-10.6251
▁Zlín	-10.6252
skočil	-10.6254
▁Možnost	-10.6256
ON	-10.6256
ola	-10.6257
▁podstat	-10.626
▁nástrojů	-10.6262
▁vystoupil	-10.6263
▁získáva	-10.6263
▁společensk	-10.6265
▁vyhrála	-10.6265
bla	-10.6268
AV	-10.6272
▁kdysi	-10.6273
▁zajištění	-10.6273
▁ačkoli	-10.6274
▁styk	-10.6274
▁prst	-10.6275
▁noční	-10.6276
af	-10.6276
▁široké	-10.6279
▁silně	-10.628
▁Karlovy	-10.6282
▁občané	-10.629
▁obchodním	-10.6293
▁časopisu	-10.6297
▁možných	-10.6299
▁Obchodní	-10.6299
▁nedávné	-10.6299
▁nemělo	-10.6301
▁silnic	-10.6301
▁panelu	-10.6302
▁uživatel	-10.6303
tav	-10.6314
▁vydá	-10.6318
▁skončilo	-10.6327
▁sekundu	-10.6334
▁způsobu	-10.6335
▁Slovenské	-10.634
vest	-10.6341
▁Lin	-10.6343
reform	-10.6348
▁ústavy	-10.635
▁schopnosti	-10.635
▁hork	-10.6354
▁scén	-10.6363
▁fotograf	-10.6364
▁dosah	-10.6366
▁univerzit	-10.6366
▁Poslaneck	-10.6368
▁regionu	-10.6369
▁průmyslový	-10.6373
▁dostalo	-10.638
▁pohybují	-10.6382
ovce	-10.6387
▁ochrany	-10.639
▁vystaven	-10.6395
▁čist	-10.6397
▁zákazníka	-10.6399
tát	-10.6405
▁možný	-10.6406
▁politického	-10.6407
▁Bor	-10.6408
▁mnohd	-10.6411
▁přenosu	-10.6412
▁souvislost	-10.6413
Sc	-10.6423
▁mini	-10.6426
▁opravy	-10.6427
▁mimořádné	-10.6434
kazují	-10.6437
▁zahájen	-10.644
▁zpěv	-10.6442
▁míní	-10.6446
▁chladn	-10.6448
▁cenný	-10.6448
čila	-10.6448
▁pojištěn	-10.6448
▁pracují	-10.6455
▁10.	-10.6455
skými	-10.6461
jmout	-10.6462
▁přechodu	-10.6465
▁hospod	-10.6465
11	-10.6468
▁nebe	-10.6468
bran	-10.6471
▁náhrad	-10.6476
▁dobou	-10.6477
▁atmosféře	-10.6477
▁delegace	-10.6477
▁dozvěděl	-10.6477
▁inflace	-10.6477
▁poptávka	-10.6477
▁službu	-10.6477
▁francouzský	-10.6477
▁mandát	-10.6477
▁nejnovější	-10.6477
▁považují	-10.6477
▁přírodě	-10.6477
▁všude	-10.6477
▁vysokoškol	-10.6477
▁Viktor	-10.6477
▁penzijní	-10.6477
▁doprovod	-10.6477
▁zábav	-10.6477
▁dám	-10.6477
▁Popper	-10.6477
▁politická	-10.6478
▁vyšetřovatel	-10.6478
▁čísel	-10.6478
▁dohodnut	-10.6478
▁devadesát	-10.6478
▁citliv	-10.6478
▁květnu	-10.6479
▁podaří	-10.6479
▁stanovisko	-10.6479
▁velitel	-10.6479
▁staro	-10.6479
▁výstup	-10.648
▁mínění	-10.6481
▁brát	-10.6482
▁vysvětlit	-10.6482
▁vrací	-10.6482
▁dokonale	-10.6482
▁dřívější	-10.6482
▁vysvětlení	-10.6483
▁kvalita	-10.6484
▁myši	-10.6484
▁zlato	-10.6487
▁Nejvíce	-10.6488
▁řeší	-10.6488
▁stupně	-10.6488
▁Čas	-10.6488
72	-10.6491
▁nechá	-10.6491
▁obvod	-10.6494
▁vědci	-10.6494
▁prosadit	-10.6494
▁léků	-10.6496
▁Chceme	-10.6496
▁plný	-10.6499
▁projekty	-10.65
▁kamer	-10.6501
▁podílel	-10.6502
▁grafik	-10.6505
▁nedostal	-10.6505
▁Kolik	-10.6505
▁vysvětlil	-10.6506
▁představit	-10.6507
▁hodnotí	-10.6508
▁dosahuje	-10.6509
jedou	-10.6512
▁slovenských	-10.6513
▁čemu	-10.6514
hnal	-10.6518
platit	-10.6518
rám	-10.6522
koupit	-10.6523
▁znaků	-10.6523
▁Novák	-10.6523
▁ST	-10.6526
▁zkušeností	-10.6526
ovněž	-10.6527
▁titulu	-10.6527
▁park	-10.6531
rna	-10.6533
▁ukázalo	-10.6541
▁trvale	-10.6541
▁zbytek	-10.6542
▁přípravě	-10.655
▁SP	-10.6551
▁Představ	-10.6552
▁orgánů	-10.6553
▁nesouhlasí	-10.6553
▁km	-10.6555
vodí	-10.6561
▁mechanik	-10.6567
▁odchodu	-10.6568
▁třídě	-10.657
IL	-10.6572
▁oceán	-10.6572
▁místem	-10.6579
▁dojem	-10.6579
▁RN	-10.658
▁závodě	-10.6583
▁0	-10.6587
▁800	-10.6588
kupovat	-10.6589
▁role	-10.6589
děk	-10.6591
▁rostlin	-10.6594
šování	-10.6595
▁Čs	-10.6598
počet	-10.66
▁mimořádný	-10.6604
▁doklad	-10.6605
skal	-10.6614
▁stanic	-10.6614
▁materiály	-10.6616
▁povinn	-10.6619
OU	-10.6621
▁rizik	-10.6623
▁větším	-10.6625
▁kanceláří	-10.6627
▁vodou	-10.6629
▁rozsah	-10.6632
rah	-10.6635
pravděpodobností	-10.6643
▁Ostrava	-10.6645
▁koho	-10.6646
▁výstava	-10.6648
▁herec	-10.665
ativní	-10.6652
▁Paříž	-10.6655
▁obor	-10.6665
ocel	-10.6665
ováni	-10.6669
▁viděl	-10.667
▁jimi	-10.6672
▁přev	-10.6673
▁směn	-10.6676
▁sval	-10.6682
▁nalezen	-10.6688
nést	-10.6701
▁cenou	-10.6704
▁čtenáře	-10.6707
▁přední	-10.6707
▁36	-10.6707
izovan	-10.6719
▁názorů	-10.6719
▁skladb	-10.672
▁bi	-10.6725
áhy	-10.6726
▁Dán	-10.6726
▁bytové	-10.6727
volal	-10.6728
obec	-10.6733
▁přírodověd	-10.6734
hlížet	-10.6734
▁Výsledk	-10.6734
▁Zajímav	-10.6734
▁atraktivní	-10.6734
▁blízké	-10.6734
▁milióny	-10.6734
▁montáž	-10.6734
▁rozhraní	-10.6734
▁složky	-10.6734
▁telekomunikační	-10.6734
▁tiskárny	-10.6734
▁dlouhá	-10.6734
▁používají	-10.6734
▁chráněn	-10.6734
▁externí	-10.6734
▁koncepce	-10.6734
▁vysoce	-10.6734
▁nabídce	-10.6734
▁závisí	-10.6734
▁naděje	-10.6734
▁barvy	-10.6734
▁muzea	-10.6735
▁učinil	-10.6735
▁rozšířit	-10.6735
▁žebříčku	-10.6736
▁osobních	-10.6737
▁předpokládat	-10.6737
▁unii	-10.6738
▁vysvětluje	-10.6739
▁naději	-10.674
▁Chyb	-10.6741
▁Irsk	-10.6744
▁kont	-10.6744
▁umožňující	-10.6753
▁kraj	-10.6754
▁můj	-10.6755
▁Stran	-10.6759
▁uvést	-10.676
▁Nikdo	-10.6764
orku	-10.6766
▁kniha	-10.6766
▁čtyřech	-10.6766
▁grafické	-10.6768
▁troj	-10.6768
izované	-10.6769
▁dvojice	-10.6769
▁stín	-10.6771
▁Autor	-10.6775
psat	-10.6775
▁totéž	-10.6775
ukce	-10.6777
tematick	-10.6778
▁Sparty	-10.6779
elů	-10.6781
tání	-10.6792
▁noc	-10.6793
▁Dom	-10.6794
▁nemůžeme	-10.6798
▁návštěvu	-10.6802
▁ZA	-10.6807
▁agentura	-10.6809
▁akciové	-10.681
▁pevné	-10.6814
▁šat	-10.6817
▁fotbalistů	-10.682
▁návrat	-10.682
projevuje	-10.6821
Ú	-10.6822
▁čtyřmi	-10.6823
▁stěn	-10.6832
ug	-10.6834
▁Tur	-10.6836
prodej	-10.684
▁způsoby	-10.6841
▁drah	-10.6844
▁podstatné	-10.6844
▁budovy	-10.6847
▁studium	-10.685
▁podání	-10.6853
▁představu	-10.6853
áš	-10.6857
pracovat	-10.6865
▁sam	-10.6866
▁Den	-10.6866
▁britský	-10.6868
▁jakékoli	-10.6876
čovat	-10.6879
▁představil	-10.6881
stane	-10.6882
▁potřebný	-10.6883
▁SE	-10.6885
▁finančn	-10.6886
▁divák	-10.6887
▁světového	-10.6896
▁zaměstnavatele	-10.6898
▁Profit	-10.6899
▁stranou	-10.6904
▁polské	-10.6905
▁dán	-10.6909
▁Pal	-10.6913
▁nároky	-10.692
▁Nizozemsk	-10.6923
těl	-10.6924
▁Hra	-10.6924
▁nebezpečné	-10.6926
▁komplex	-10.693
▁Moh	-10.6938
▁patřil	-10.6939
▁klientů	-10.6942
▁kup	-10.6951
▁mysli	-10.6955
▁registr	-10.6955
▁geolog	-10.6961
▁listu	-10.6961
▁okolnost	-10.6963
▁Cena	-10.6972
▁dálnic	-10.6973
▁(2	-10.6978
▁nachází	-10.6978
▁celku	-10.6983
▁experiment	-10.6984
▁zajímavý	-10.6986
▁tisíci	-10.699
běhl	-10.6995
favorit	-10.6997
▁Itálii	-10.6997
▁Miloslav	-10.6997
▁divadelní	-10.6997
▁inženýr	-10.6997
▁obligace	-10.6997
▁otevřené	-10.6997
▁peněžní	-10.6997
▁požaduje	-10.6997
▁snižování	-10.6997
▁výjimečn	-10.6997
▁úrovní	-10.6997
▁přirozený	-10.6997
▁zjistí	-10.6997
▁rychlý	-10.6997
▁odsouzen	-10.6997
▁povinen	-10.6997
▁absolvent	-10.6997
▁nevěděl	-10.6997
▁průkaz	-10.6997
▁menšin	-10.6997
▁podívat	-10.6997
▁Jugoslávii	-10.6997
▁najevo	-10.6998
▁zavře	-10.7
žije	-10.7
▁Peter	-10.7
▁říct	-10.7001
▁Střed	-10.7001
▁orgán	-10.7002
▁vybírat	-10.7003
▁skončení	-10.7004
▁vojáků	-10.7004
tický	-10.7006
▁nesmírn	-10.7008
▁strav	-10.7009
ráží	-10.701
▁fax	-10.7011
▁agent	-10.7011
KDU	-10.7012
▁stanov	-10.7013
▁systémem	-10.7016
▁pivo	-10.7016
▁konstru	-10.7016
▁koupí	-10.7017
▁Moravě	-10.7024
▁kusů	-10.7024
▁hlavu	-10.7026
▁pokyn	-10.7028
▁povolání	-10.7029
▁některým	-10.7029
▁cyklus	-10.7029
▁předmětem	-10.703
▁japonské	-10.703
▁dohodl	-10.7032
▁Počet	-10.7033
▁podnikové	-10.7035
▁odvolání	-10.7036
gel	-10.7055
▁Pre	-10.7067
▁důvodem	-10.7069
▁dílem	-10.7069
logický	-10.7073
▁úvěrů	-10.7078
učili	-10.7078
▁příspěvk	-10.7082
kládal	-10.709
AC	-10.7096
▁výstavy	-10.7101
▁starosta	-10.7108
▁kartu	-10.7115
▁fotbalový	-10.7115
▁filmový	-10.7117
▁předmět	-10.7119
ňovat	-10.7123
▁Dalším	-10.7129
▁Nebyl	-10.7138
▁podřízen	-10.7141
▁vlny	-10.7142
▁Kovo	-10.7143
▁spol	-10.715
▁předložen	-10.716
procentní	-10.7161
▁neznámý	-10.7162
▁profesionál	-10.7166
▁Změn	-10.7166
▁klepn	-10.7166
držení	-10.7167
▁národů	-10.7167
▁pražský	-10.7169
isty	-10.7177
▁Ruské	-10.7177
▁informoval	-10.7185
▁Lékař	-10.7186
▁okraj	-10.7189
▁přípravy	-10.7194
▁nájemní	-10.7204
▁optim	-10.7205
AM	-10.7208
▁trestný	-10.7211
▁zaveden	-10.7214
▁schválil	-10.7217
úpln	-10.7221
▁objektiv	-10.7223
▁obsazen	-10.7225
hlásil	-10.7229
▁jistý	-10.7229
▁znak	-10.723
▁rovin	-10.724
▁zajištěn	-10.724
▁klasick	-10.7243
▁starost	-10.7244
▁Např	-10.7251
▁bodu	-10.7257
▁průběh	-10.7259
týdenní	-10.726
▁nákupu	-10.7263
▁volný	-10.7265
▁Řad	-10.7265
ecká	-10.7267
▁Kazachstán	-10.7267
▁Oznámil	-10.7267
▁Problém	-10.7267
▁Univerzit	-10.7267
▁bariér	-10.7267
▁existovat	-10.7267
▁informaci	-10.7267
▁obtížné	-10.7267
▁poskytovat	-10.7267
▁prezentací	-10.7267
▁svědomí	-10.7267
▁vyjádřit	-10.7267
▁vytvářet	-10.7267
▁ztrácí	-10.7267
▁Několik	-10.7267
▁komerční	-10.7267
▁ubytování	-10.7267
▁února	-10.7267
▁československé	-10.7267
▁veletrh	-10.7267
záběr	-10.7267
▁zmizel	-10.7267
▁pěst	-10.7267
▁průmysl	-10.7268
nášejí	-10.7268
▁komunikace	-10.7268
▁optimální	-10.7269
▁vybraný	-10.7269
▁náskok	-10.727
▁Bójové	-10.727
▁prováděn	-10.727
střelil	-10.7271
▁zdánlivě	-10.7271
▁zítra	-10.7271
▁továrn	-10.7272
▁bezplatn	-10.7274
▁zvolil	-10.7276
▁hrách	-10.7276
▁rychleji	-10.7276
▁sále	-10.7276
▁31.	-10.7279
ujícího	-10.728
▁češt	-10.7283
▁kupující	-10.7284
▁jednotek	-10.7284
nozí	-10.7285
▁střediska	-10.7288
▁závodech	-10.7288
▁hlavy	-10.7291
▁tradice	-10.7292
▁zaznamenal	-10.7294
▁objevuje	-10.7295
▁ústřední	-10.7297
▁nadace	-10.73
▁hrdin	-10.7301
▁slavnostní	-10.7301
nických	-10.7303
▁podvod	-10.7304
▁teplota	-10.7304
▁vesnici	-10.7305
▁politiků	-10.7309
▁předpisy	-10.731
▁všeobecné	-10.7316
▁fyzické	-10.7319
▁boji	-10.7321
▁dohodě	-10.7322
▁brání	-10.7323
▁koupil	-10.7323
najdete	-10.7324
věří	-10.7324
▁vysloven	-10.7327
▁jasno	-10.733
▁dostávají	-10.7331
▁schopna	-10.7333
▁plánu	-10.7334
mět	-10.7336
▁Ste	-10.7336
▁půd	-10.7339
▁předsed	-10.7339
▁cíl	-10.7341
▁kontroly	-10.7341
▁obvinění	-10.7342
▁vzdálenosti	-10.7342
▁Svoboda	-10.7343
▁souborů	-10.7344
▁narodil	-10.7346
▁kalů	-10.7346
rum	-10.7358
ston	-10.7361
▁hledají	-10.7362
▁vznikají	-10.7363
▁udělá	-10.7367
ČS	-10.737
▁Vlastní	-10.7373
▁návratu	-10.7375
▁tvrdé	-10.738
▁chyt	-10.738
▁odběratel	-10.7381
lob	-10.7382
▁horní	-10.7385
▁Sun	-10.7386
▁rizika	-10.7387
▁účt	-10.7388
▁Lá	-10.7393
▁prach	-10.7399
▁uplynul	-10.741
▁větr	-10.7411
▁zvuk	-10.7427
▁ostatními	-10.7428
▁signálu	-10.7437
▁připoj	-10.7441
▁správu	-10.7442
▁Internet	-10.7443
▁důvody	-10.7446
▁bloku	-10.7447
končit	-10.745
▁uchazeč	-10.7459
▁vyrovná	-10.7461
▁čtyřicet	-10.7464
▁závodů	-10.7473
počátku	-10.7476
▁konečné	-10.7481
tická	-10.7483
▁porážk	-10.7492
▁Mark	-10.7495
případě	-10.7499
ess	-10.75
▁společn	-10.7506
▁boje	-10.7514
41	-10.7515
▁správný	-10.7515
31	-10.7521
LU	-10.7522
▁kus	-10.7528
▁distribu	-10.7536
▁jakém	-10.7538
▁mohu	-10.7541
kovat	-10.7542
▁ClipArt	-10.7545
▁demokracii	-10.7545
▁fanoušků	-10.7545
▁jednoduše	-10.7545
▁lustrační	-10.7545
▁navštívil	-10.7545
▁nepochybn	-10.7545
▁nádraží	-10.7545
▁obligací	-10.7545
▁opoziční	-10.7545
▁otevřel	-10.7545
▁otázkou	-10.7545
▁ovzduší	-10.7545
▁pracoviště	-10.7545
▁prokurátor	-10.7545
▁vyrábí	-10.7545
▁železniční	-10.7545
poloviční	-10.7545
▁pobřeží	-10.7545
▁častěji	-10.7545
▁Pracovní	-10.7545
▁příchod	-10.7545
stěhoval	-10.7545
▁odstranit	-10.7545
▁knize	-10.7545
▁modul	-10.7545
▁záření	-10.7545
▁věnován	-10.7546
▁Nejs	-10.7546
▁obnoven	-10.7546
▁Tehd	-10.7546
▁státě	-10.7546
▁blízkosti	-10.7546
▁vážné	-10.7546
▁poradensk	-10.7547
▁dohodnout	-10.7547
▁raket	-10.7547
▁Motor	-10.7548
▁scénář	-10.7548
▁říkal	-10.7548
▁sbír	-10.7549
▁oblečení	-10.7549
▁přínos	-10.7549
▁písmen	-10.755
▁pečlivě	-10.755
▁bomb	-10.7551
▁sluch	-10.7553
▁Rád	-10.7553
▁několikrát	-10.7553
▁chyběl	-10.7553
▁využívá	-10.7554
▁pramen	-10.7557
▁Pět	-10.7558
▁vyvolal	-10.756
▁pomůže	-10.7564
▁ovládání	-10.7564
myslet	-10.7566
▁velkého	-10.7567
▁mírové	-10.7569
▁komunistické	-10.757
▁kvalitě	-10.7571
▁uprostřed	-10.7574
▁připadá	-10.7575
▁klimatický	-10.7576
ill	-10.7577
▁spis	-10.7578
hodnotit	-10.7581
▁společník	-10.7584
▁dopravě	-10.7586
▁novináři	-10.7589
▁žít	-10.7592
▁Kraj	-10.7594
ité	-10.7594
soci	-10.7597
▁působit	-10.7599
▁určené	-10.76
▁Taková	-10.7604
▁Pražské	-10.7604
▁Tad	-10.7604
▁výpravy	-10.7607
▁mezinárodních	-10.761
▁chemický	-10.761
▁nejlepších	-10.7623
▁žil	-10.7626
▁znaky	-10.763
▁Rakousku	-10.7632
▁viděli	-10.7634
hladov	-10.7639
▁blíží	-10.7642
race	-10.7642
▁1000	-10.7646
▁tajný	-10.7648
čtí	-10.7654
▁Vznik	-10.7654
44	-10.7655
▁Indi	-10.7656
▁Mat	-10.7663
▁sportu	-10.7666
▁obrazů	-10.7668
rušení	-10.7676
▁převzal	-10.7682
▁zvukov	-10.7686
▁různ	-10.7689
▁doprava	-10.7693
▁Rusku	-10.7694
bezpeč	-10.7694
▁určitých	-10.7696
▁souhlasí	-10.7697
▁Er	-10.7703
▁dají	-10.7703
▁právník	-10.7704
počíta	-10.7706
▁měsíci	-10.7711
▁Let	-10.7712
oji	-10.7721
▁jmen	-10.7726
▁úvěry	-10.7727
▁okamžik	-10.7729
▁odchod	-10.773
ohledem	-10.7732
býval	-10.7734
▁automatick	-10.7735
▁aminokyselin	-10.7747
▁fondy	-10.7755
▁samostatný	-10.776
▁fyzick	-10.7766
pozn	-10.7773
kázat	-10.7775
▁císař	-10.7776
▁vytvořil	-10.7778
▁začínají	-10.7779
▁Ben	-10.7786
histor	-10.7787
▁rodinný	-10.7789
▁vstupné	-10.7792
řazen	-10.7793
VI	-10.78
▁patnácti	-10.7802
▁34	-10.7811
▁termínu	-10.7815
tisk	-10.7822
▁mírně	-10.7823
ičtější	-10.783
▁špičk	-10.783
▁Americe	-10.7831
▁dopoledne	-10.7831
▁doporučuje	-10.7831
▁ministerstvu	-10.7831
▁nejrychleji	-10.7831
▁partneři	-10.7831
▁považovat	-10.7831
▁rekonstrukci	-10.7831
▁rozhoduje	-10.7831
▁spravedliv	-10.7831
▁strategie	-10.7831
▁dveře	-10.7831
▁kompres	-10.7831
▁reakce	-10.7831
▁dubna	-10.7831
▁vyrábět	-10.7831
▁Havla	-10.7831
▁Trenér	-10.7831
▁majetkov	-10.7831
▁sledoval	-10.7831
▁sloužit	-10.7831
▁taneční	-10.7831
▁policii	-10.7831
▁srdce	-10.7831
nášet	-10.7831
▁politickou	-10.7831
▁jaře	-10.7831
▁humor	-10.7831
▁areálu	-10.7831
▁Klub	-10.7832
čištění	-10.7832
▁vězení	-10.7833
▁penze	-10.7833
▁vzít	-10.7834
▁psát	-10.7834
koupil	-10.7834
▁rozlišení	-10.7834
▁čekat	-10.7835
▁krve	-10.7835
▁výlet	-10.7836
▁klesl	-10.7836
▁dotací	-10.7837
▁poskytnout	-10.7837
▁trvat	-10.7837
▁Konečn	-10.7837
▁zachovat	-10.7838
▁dřev	-10.7845
▁úhrad	-10.7846
▁pokládá	-10.7846
▁stavby	-10.7848
▁obsahovat	-10.7851
▁ukončení	-10.7852
▁testu	-10.7854
▁stati	-10.7855
▁vydat	-10.7859
▁provádět	-10.7862
▁elektrické	-10.7862
▁vlast	-10.7864
▁Cha	-10.7866
▁dítěte	-10.7869
▁sovětských	-10.787
▁narození	-10.787
▁zastavit	-10.7874
▁Mnoho	-10.7874
▁událostí	-10.7876
▁přišli	-10.7876
▁cestující	-10.7879
▁postavit	-10.7879
▁připojení	-10.7881
▁teoretick	-10.7883
▁Eva	-10.7884
▁zjevn	-10.7885
▁techniku	-10.7888
▁5.	-10.789
▁vším	-10.7894
▁Zájem	-10.7895
▁objektivní	-10.7897
▁schválení	-10.7899
▁určený	-10.79
▁kabinetu	-10.7907
▁hluboko	-10.791
▁sezón	-10.791
▁orgány	-10.7918
▁příkladem	-10.7918
▁managementu	-10.7919
▁cosi	-10.7923
▁posil	-10.7925
▁vašeho	-10.7926
▁Musím	-10.7927
▁CS	-10.7932
▁večerní	-10.7932
▁Celkov	-10.7933
▁události	-10.7934
▁produkty	-10.7938
cal	-10.7939
▁výhody	-10.7941
▁drobn	-10.7941
užit	-10.7943
▁maximální	-10.7947
▁zjistili	-10.7948
▁hranic	-10.7948
▁čistý	-10.7952
▁novel	-10.7953
▁obci	-10.7959
▁přesvědčení	-10.7967
▁sociálního	-10.7969
▁kontakty	-10.7972
▁bohat	-10.7975
▁samostatně	-10.7975
ňující	-10.7977
▁principy	-10.7979
▁sídle	-10.798
ební	-10.7996
skému	-10.7997
▁rozhodli	-10.8001
▁potřebu	-10.8002
▁soubory	-10.8003
▁vyhlásil	-10.8009
▁15.	-10.801
▁stejným	-10.8011
▁občany	-10.8012
▁plno	-10.8013
ng	-10.8013
plňuje	-10.8017
▁Met	-10.8017
▁Vlast	-10.8018
▁modern	-10.8021
▁souhlasu	-10.8021
▁monitor	-10.8021
▁vodu	-10.8032
▁Malé	-10.8032
▁severu	-10.8034
CD	-10.8035
▁zmíněný	-10.804
▁útoku	-10.804
▁černo	-10.804
▁Lon	-10.804
▁příslušn	-10.8042
▁stává	-10.8042
▁rodina	-10.8045
▁čt	-10.8052
▁Bud	-10.8054
▁přestáv	-10.8055
▁dopravu	-10.8055
▁průmyslové	-10.8056
asi	-10.8057
▁kluby	-10.8063
▁oznámila	-10.8064
▁kmen	-10.8067
▁los	-10.808
▁Mnoh	-10.8081
▁rozšířen	-10.8085
▁cyklu	-10.8089
▁odkaz	-10.809
▁rostou	-10.8091
▁placen	-10.8092
vádět	-10.8093
▁Clinton	-10.8096
▁člena	-10.8097
stával	-10.8098
▁kontrol	-10.8099
▁skvěl	-10.8102
legislativ	-10.8113
part	-10.8118
▁praktický	-10.8119
▁hlasy	-10.8119
▁blízko	-10.8124
zapomněl	-10.8125
▁Stanislav	-10.8125
▁geometrie	-10.8125
▁miliónu	-10.8125
▁opozice	-10.8125
▁producent	-10.8125
▁snižuje	-10.8125
▁vstříc	-10.8125
▁výsledku	-10.8125
▁zahrnuje	-10.8125
▁zahynul	-10.8125
▁zásluh	-10.8125
▁závazn	-10.8125
▁účinky	-10.8125
▁března	-10.8125
▁rozmezí	-10.8125
▁aparát	-10.8125
▁funkcionář	-10.8125
▁páté	-10.8125
▁sotva	-10.8125
▁využil	-10.8125
▁zvýší	-10.8125
▁kupónov	-10.8125
▁středověk	-10.8125
▁čtvrtletí	-10.8125
▁klesá	-10.8125
▁necelý	-10.8125
▁nositel	-10.8125
▁rakouské	-10.8125
▁morální	-10.8126
▁knihovn	-10.8126
▁poskytl	-10.8126
▁pověst	-10.8126
▁Fond	-10.8127
▁činit	-10.8128
▁téhož	-10.8129
▁útočník	-10.8129
▁dělí	-10.813
▁nesmysl	-10.813
▁Šest	-10.813
▁diskusi	-10.8132
▁návod	-10.8136
▁únik	-10.8139
TU	-10.8142
▁zajišťuje	-10.8142
▁vybral	-10.8145
25	-10.8146
ismem	-10.8146
▁školách	-10.8147
drželi	-10.8154
▁příběh	-10.8155
▁sjezd	-10.8155
▁projevil	-10.8156
▁věnuje	-10.8157
▁poradce	-10.8158
▁formátu	-10.816
▁krajan	-10.8162
▁zachování	-10.8162
▁přestal	-10.8163
▁pravomoci	-10.8163
bírá	-10.8165
▁spolehliv	-10.8165
▁kovů	-10.8167
skutk	-10.8167
▁stráž	-10.8168
mála	-10.8169
▁vzpomíná	-10.8171
IP	-10.8173
zdrav	-10.8177
▁formy	-10.818
▁prokázal	-10.8183
▁Spo	-10.8189
▁představiteli	-10.8191
▁příčinou	-10.8194
▁Bla	-10.8195
▁provádí	-10.8195
▁prodá	-10.8195
zákon	-10.8195
▁duchu	-10.8195
příliš	-10.82
▁resp	-10.8202
lip	-10.8204
▁6.	-10.8208
čnost	-10.8215
▁král	-10.822
▁Rada	-10.822
▁průměrné	-10.8223
▁Zemi	-10.8223
▁soust	-10.8225
▁pražských	-10.8226
▁vstoupil	-10.8228
zaměstnan	-10.8234
▁zásadně	-10.8236
▁formu	-10.8239
▁postupy	-10.8241
▁urychlen	-10.8247
▁padesáti	-10.8248
▁vlně	-10.8249
▁účtu	-10.8251
▁kandidátů	-10.8255
▁ozbrojený	-10.8264
▁obrovské	-10.8269
▁volbu	-10.8271
▁běžn	-10.8284
▁Svět	-10.8291
elná	-10.8291
▁slep	-10.8294
▁ostře	-10.8294
▁žlut	-10.8298
▁Michael	-10.8315
leč	-10.8319
ářské	-10.8322
▁stán	-10.8324
▁výbuch	-10.8325
▁úsek	-10.8326
padla	-10.8328
▁zná	-10.8336
,4	-10.8339
▁personál	-10.8342
▁obchody	-10.8343
▁Občanské	-10.8344
▁minulost	-10.8348
▁osoba	-10.8348
tle	-10.8348
▁následujících	-10.8349
▁Jelcinov	-10.8349
edení	-10.8351
▁daném	-10.8356
▁snaz	-10.8356
▁obsahují	-10.8357
▁46	-10.8358
▁Klause	-10.8358
▁Karl	-10.8367
▁barevný	-10.8374
▁nabízen	-10.8377
▁1992.	-10.8385
▁vzdálenost	-10.8386
▁odešl	-10.8386
▁modely	-10.8392
▁loňský	-10.8397
▁ona	-10.8405
▁uvaž	-10.8407
Vesmír	-10.841
▁jediným	-10.8417
▁Slov	-10.8419
▁poznat	-10.842
ezi	-10.842
▁reakci	-10.8422
▁architekt	-10.8422
▁Španěl	-10.8425
▁implant	-10.8427
▁radi	-10.8427
▁interak	-10.8428
▁otevřený	-10.8428
▁Otázka	-10.8428
▁definitivně	-10.8428
▁digitální	-10.8428
▁divadlo	-10.8428
▁důvěru	-10.8428
▁gigant	-10.8428
▁hřišti	-10.8428
▁jednorázov	-10.8428
▁kyslíku	-10.8428
▁navrhuje	-10.8428
▁označit	-10.8428
▁pokračování	-10.8428
▁prognóz	-10.8428
▁předvolební	-10.8428
▁sekretář	-10.8428
▁softwarov	-10.8428
▁transformaci	-10.8428
▁výročí	-10.8428
▁vězňů	-10.8428
▁zemědělců	-10.8428
▁používal	-10.8428
▁sexuální	-10.8428
▁zvyšování	-10.8428
▁prosinci	-10.8428
▁vozidel	-10.8428
▁vyskytují	-10.8428
▁Třeba	-10.8428
▁náměstk	-10.8428
▁prozatím	-10.8428
▁Československé	-10.8428
▁října	-10.8428
▁opačné	-10.8428
▁vazby	-10.8428
▁Býval	-10.8428
▁vteřin	-10.8428
▁poplatky	-10.8428
▁počtem	-10.8428
▁statistik	-10.8428
▁rozsáhlé	-10.8428
▁Práce	-10.8428
▁rakovin	-10.8428
▁nikoho	-10.8428
▁Východ	-10.8429
▁svoje	-10.8429
▁zastavil	-10.843
▁myšlenky	-10.843
▁hluboké	-10.8431
▁ceník	-10.8432
▁sedmdesát	-10.8432
▁Člen	-10.8433
▁Hill	-10.8435
ečná	-10.8435
látka	-10.8436
stupovat	-10.8437
▁Cest	-10.8438
▁začátek	-10.8441
▁papíru	-10.8442
▁poradit	-10.8442
▁výdajů	-10.8443
▁neplatí	-10.8447
▁En	-10.8448
poví	-10.8448
▁rozšířil	-10.8449
příště	-10.845
vedli	-10.8453
▁Char	-10.8453
▁mechanismus	-10.8454
▁oběti	-10.8454
▁pojme	-10.8456
▁tunel	-10.8458
▁rostoucí	-10.8463
ens	-10.8464
▁Morav	-10.8465
▁zrušit	-10.8467
▁třetiny	-10.8467
▁představitele	-10.847
zemědělských	-10.8472
nášel	-10.8473
▁bratr	-10.8475
ME	-10.8476
▁příležitostí	-10.8479
▁Uvedl	-10.8481
▁čtrnáct	-10.8485
▁Hr	-10.8485
▁Hlavním	-10.8486
▁východě	-10.8486
▁tuzemsku	-10.8487
▁schopností	-10.8493
▁38	-10.8494
▁nastavení	-10.8495
▁chtěla	-10.8496
▁kapel	-10.8498
▁Ře	-10.85
vrácení	-10.8508
▁přítomnosti	-10.8511
▁sezóny	-10.8512
▁fotbalist	-10.8516
▁živé	-10.8518
▁Jaké	-10.8519
▁majitelé	-10.8523
▁dílů	-10.8526
▁vědí	-10.8527
▁Rakouska	-10.8532
▁stručn	-10.8532
▁zůstalo	-10.8538
▁Ros	-10.8541
▁výkonný	-10.8546
▁objevují	-10.8549
▁kvantov	-10.8551
▁reklamy	-10.8561
▁věda	-10.8562
▁výborů	-10.8563
▁záležitosti	-10.8566
daných	-10.8567
▁písemn	-10.8568
▁vlasti	-10.857
▁chyby	-10.8573
▁krajiny	-10.8575
▁svobody	-10.8575
▁staveb	-10.8579
▁Mag	-10.8581
▁výkonné	-10.8583
▁pokuty	-10.8584
▁postavil	-10.8598
▁jih	-10.8605
íci	-10.8609
▁7.	-10.8611
▁Či	-10.8614
▁činil	-10.8615
,8	-10.8615
▁Jaká	-10.8618
logicky	-10.8622
lidov	-10.8622
▁výrobních	-10.8622
rent	-10.8624
▁znění	-10.8626
▁vysvětl	-10.8628
▁primátor	-10.8628
▁diplomat	-10.8629
▁smí	-10.8635
▁nastal	-10.8636
▁Pomoc	-10.8637
▁stylu	-10.864
▁listin	-10.8645
▁Mil	-10.8645
▁známý	-10.8647
▁Vlk	-10.865
íka	-10.8664
▁filmové	-10.8664
▁důraz	-10.8666
▁čtenářů	-10.8668
▁14.	-10.8672
▁koncertu	-10.8676
▁Kam	-10.8679
▁zdravotního	-10.8686
▁zveřejněn	-10.8695
cová	-10.8699
▁prof	-10.8701
▁Výbor	-10.8706
▁Mont	-10.8708
▁Němec	-10.8716
▁ostatním	-10.8718
▁přítomnost	-10.8719
▁existující	-10.8721
povídají	-10.8723
end	-10.8724
89	-10.8726
tických	-10.8726
čené	-10.8729
▁pravděpodobnost	-10.8734
▁Angličan	-10.874
▁Argentin	-10.874
▁Evropu	-10.874
▁Mechanik	-10.874
▁Mečiar	-10.874
▁Němců	-10.874
▁Premiér	-10.874
▁Staroměstské	-10.874
▁Systém	-10.874
▁Vývoj	-10.874
▁absolutní	-10.874
▁definitivní	-10.874
▁kilobajtů	-10.874
▁paradox	-10.874
▁podezření	-10.874
▁potvrzuje	-10.874
▁připomněl	-10.874
▁sjednocení	-10.874
▁smlouvě	-10.874
▁teorií	-10.874
▁režii	-10.874
▁tabulce	-10.874
▁tvořit	-10.874
▁účinek	-10.874
▁aspekt	-10.874
▁lehce	-10.874
▁schůze	-10.874
▁zdarma	-10.874
▁zrušil	-10.874
▁ukončil	-10.874
▁nález	-10.8741
▁pokrok	-10.8741
▁membrán	-10.8741
▁špatný	-10.8741
▁Jihlav	-10.8741
▁zastupitelstva	-10.8741
▁tramvaj	-10.8741
▁spotřeby	-10.8742
▁střetnutí	-10.8742
▁hustot	-10.8742
▁pověřen	-10.8742
▁vyřešen	-10.8742
▁podepsán	-10.8742
▁GSM	-10.8743
▁nádor	-10.8743
▁nedokázal	-10.8743
▁("	-10.8743
▁vězni	-10.8744
▁bránit	-10.8744
▁celků	-10.8744
▁nejenom	-10.8745
▁našel	-10.8745
▁produkci	-10.8746
▁Cíle	-10.8747
▁výkony	-10.8747
tratil	-10.8747
▁ovoce	-10.8748
▁životním	-10.8748
▁Jaký	-10.8748
▁diskuse	-10.8748
▁pochopil	-10.8749
▁přístav	-10.875
▁dosáhla	-10.8751
▁Dodal	-10.8752
▁kódování	-10.8752
týká	-10.8754
▁Řeck	-10.8754
▁kamion	-10.8755
▁běh	-10.8755
▁vyvíj	-10.8755
▁dětský	-10.8756
▁dostatek	-10.8757
▁balík	-10.8757
▁Druhá	-10.8758
▁vaši	-10.8758
▁kyselin	-10.8761
VÍ	-10.8762
▁státem	-10.8762
▁vyvolává	-10.8765
▁Úřadu	-10.8768
▁nájemník	-10.8768
▁Jednání	-10.8769
▁systematick	-10.8769
▁tuzemské	-10.8769
▁zájm	-10.877
istický	-10.877
▁soused	-10.8772
▁anglický	-10.8773
▁klasický	-10.8774
▁dolní	-10.8775
▁předložit	-10.8777
▁akademie	-10.8777
▁pokladn	-10.8777
▁závislosti	-10.8778
▁nahradil	-10.8783
▁veřejných	-10.8783
▁překlad	-10.8783
▁Světové	-10.8784
▁temp	-10.8785
▁zahraničním	-10.8787
▁výstavě	-10.8789
▁přímý	-10.879
▁léč	-10.8791
▁fakultu	-10.8792
▁menších	-10.8793
▁náhodou	-10.8795
ňoval	-10.8797
▁užívání	-10.8798
▁Karadžič	-10.8799
▁zvěře	-10.8799
faktor	-10.88
▁strážník	-10.8801
▁klidně	-10.8808
jímá	-10.8811
táhne	-10.8813
▁obav	-10.8819
▁nezávislé	-10.8821
jedna	-10.8822
▁Severní	-10.8824
▁KB	-10.8827
▁vyžádal	-10.8827
▁Sparta	-10.8831
jako	-10.8833
▁karta	-10.8834
5%	-10.8834
▁Šv	-10.8835
▁obrovský	-10.8841
bírají	-10.8841
▁škodu	-10.8842
pořád	-10.8845
▁reálný	-10.8849
▁zdravé	-10.8851
▁startu	-10.8852
▁kontrolní	-10.8855
17	-10.8855
ctví	-10.8856
▁regul	-10.8857
▁zdravotnické	-10.8858
stupují	-10.886
▁poznal	-10.8863
▁odborn	-10.8865
▁základem	-10.8868
▁exportu	-10.887
▁týdnech	-10.8872
▁koní	-10.8882
▁podobného	-10.8884
▁náročn	-10.8886
▁trenérem	-10.8887
▁ukázk	-10.889
▁odraz	-10.8902
▁příčiny	-10.8902
▁zajímav	-10.8912
▁poloh	-10.8918
OLE	-10.8932
▁potřebn	-10.8935
ánek	-10.8936
▁městský	-10.8937
▁Olomouc	-10.8939
▁pohyboval	-10.8939
enou	-10.8949
▁principu	-10.895
▁škod	-10.8951
▁Ústavní	-10.8951
▁vzduch	-10.8961
▁firemní	-10.8963
▁koně	-10.8977
▁silný	-10.8984
▁Mir	-10.8985
▁bezprostředn	-10.8992
▁budova	-10.8999
▁11.	-10.9
počítat	-10.9007
▁závodní	-10.9009
nových	-10.9009
▁jiní	-10.9013
▁zabýval	-10.9015
▁šíř	-10.9019
▁seminář	-10.902
▁třetího	-10.9022
▁bio	-10.9028
▁sporu	-10.9031
▁důstojn	-10.9034
▁tvořen	-10.9036
▁Úřad	-10.9037
▁hal	-10.9044
jeli	-10.9053
▁klasické	-10.9057
▁subjekt	-10.9062
▁recept	-10.9063
ačtyřicet	-10.9063
▁Bruselu	-10.9063
▁ToolBook	-10.9063
▁demonstra	-10.9063
▁dohromady	-10.9063
▁dražší	-10.9063
▁dynamick	-10.9063
▁nejnižší	-10.9063
▁přispět	-10.9063
▁sportovců	-10.9063
▁uskutečnit	-10.9063
▁volejbal	-10.9063
▁Člověk	-10.9063
▁Poslanc	-10.9063
▁chystá	-10.9063
▁nemohu	-10.9063
▁podporovat	-10.9063
▁snažit	-10.9063
▁index	-10.9063
▁krizi	-10.9063
▁medaili	-10.9063
▁vyřešit	-10.9063
▁bílkovin	-10.9063
▁každoročn	-10.9063
▁vybudovat	-10.9063
▁vypadat	-10.9063
▁Mnichov	-10.9063
▁uvidí	-10.9063
▁Vysok	-10.9063
▁srážek	-10.9063
▁skončí	-10.9063
▁Osobn	-10.9063
▁turisty	-10.9063
▁doufá	-10.9063
▁mlýn	-10.9063
▁spořiteln	-10.9063
▁kolegů	-10.9064
▁sněhu	-10.9064
sáhne	-10.9064
▁tvorbě	-10.9064
▁zhodnocení	-10.9064
▁dobrá	-10.9064
▁obilí	-10.9065
▁mld	-10.9065
▁pouští	-10.9066
▁sběr	-10.9067
▁síti	-10.9067
▁dcer	-10.9067
▁vedlejší	-10.9068
vázal	-10.9068
▁risk	-10.9069
▁těší	-10.907
▁čestn	-10.907
▁přesvědčit	-10.907
▁porozumění	-10.907
▁pokračuje	-10.907
▁dešti	-10.9071
▁Odbor	-10.9071
▁spodní	-10.9072
▁atmosféry	-10.9072
spraš	-10.9073
▁hůře	-10.9073
▁deviz	-10.9074
▁penzion	-10.9075
▁zbytečně	-10.9075
▁úkon	-10.9076
▁vyřazen	-10.9077
▁chlap	-10.9078
▁umělecké	-10.9079
▁všeobecně	-10.9081
čela	-10.9082
▁Hradci	-10.9083
▁připojit	-10.9083
jan	-10.9083
▁členský	-10.9083
▁přinést	-10.9084
▁magnet	-10.9085
▁vesnice	-10.9087
noví	-10.9087
LOV	-10.9088
▁Krát	-10.9088
▁tělo	-10.9091
▁ruky	-10.9091
▁poznamenal	-10.9092
▁Cup	-10.9093
▁najde	-10.9094
▁rovině	-10.91
70	-10.9103
▁spolupracovníků	-10.9105
▁Senátu	-10.9106
▁130	-10.9108
▁Jelcina	-10.911
▁pohádk	-10.9112
▁mírn	-10.9114
ker	-10.9115
▁obsazení	-10.9115
▁prosadil	-10.9117
▁stávající	-10.9118
▁silnice	-10.9123
▁moment	-10.9132
▁dala	-10.9134
▁Američané	-10.914
▁189	-10.9142
▁Novotný	-10.9143
▁opustit	-10.9153
nutně	-10.9154
▁personální	-10.9155
▁zájemce	-10.9156
▁čtyřiceti	-10.9158
▁kapitálové	-10.9159
▁počítačový	-10.9159
▁volných	-10.916
▁kolektivní	-10.9169
▁Chorvatska	-10.917
▁grafický	-10.9172
▁palác	-10.9173
▁potenciál	-10.9175
▁zájmů	-10.9175
▁Rakousk	-10.9181
hraniční	-10.9181
▁dovozu	-10.9181
▁požadované	-10.9183
▁postoje	-10.9184
▁mlh	-10.9187
▁průměrný	-10.9188
ačnou	-10.9188
▁časové	-10.9195
▁nadšen	-10.9196
▁poli	-10.9197
▁vyrovnan	-10.9204
▁levé	-10.9205
rgi	-10.9205
▁získan	-10.9207
▁Karla	-10.9209
▁analýzy	-10.9211
▁nevím	-10.9213
▁důchodu	-10.9214
slyš	-10.9215
▁vedla	-10.9216
▁samozřejm	-10.9219
HA	-10.9222
▁Rozhod	-10.9225
lčí	-10.9225
▁Kohl	-10.9231
▁dalo	-10.9237
▁autobusy	-10.9239
▁tlaku	-10.9243
▁mnou	-10.9244
▁přivedl	-10.9254
▁kvalit	-10.9255
▁drobné	-10.9256
▁objemu	-10.9257
▁odborník	-10.9267
▁grafu	-10.9279
▁Dá	-10.9287
▁kolektiv	-10.9288
pin	-10.9291
▁management	-10.9293
▁osobnost	-10.9295
▁nepříjemné	-10.9296
▁Žen	-10.9299
88	-10.9303
znamenal	-10.9307
▁trestné	-10.931
dent	-10.9313
▁Sever	-10.9316
▁buňk	-10.9318
▁obal	-10.9319
▁mladý	-10.9324
ložený	-10.933
▁konve	-10.9347
hý	-10.9348
▁projektů	-10.9349
▁svobodné	-10.9351
řídí	-10.9353
▁1,5	-10.9355
▁zvíře	-10.9356
▁předběžn	-10.9366
lap	-10.9368
▁ideál	-10.937
▁bytost	-10.9378
ěsíční	-10.938
▁občansk	-10.9381
▁tiskov	-10.9381
ingu	-10.9383
nvestiční	-10.9384
▁Nic	-10.9385
▁Auto	-10.9387
▁speciali	-10.9395
▁vlákn	-10.9396
▁textový	-10.9396
▁legend	-10.9396
ografie	-10.9396
▁Mluvčí	-10.9396
▁Rudolf	-10.9396
▁dosažení	-10.9396
▁intenzit	-10.9396
▁jednoduchá	-10.9396
▁metropoli	-10.9396
▁nechtějí	-10.9396
▁nejpozději	-10.9396
▁obsažen	-10.9396
▁otevřena	-10.9396
▁pochopení	-10.9396
▁teorii	-10.9396
▁tradičně	-10.9396
▁výpověď	-10.9396
plácet	-10.9396
▁hrozb	-10.9396
▁neutrální	-10.9396
▁únoru	-10.9396
▁jmění	-10.9396
▁Moskva	-10.9396
▁reakcí	-10.9396
▁Peníze	-10.9396
▁složitější	-10.9396
▁očekával	-10.9396
▁Divadl	-10.9396
▁likvidace	-10.9396
táhnout	-10.9397
▁hezk	-10.9397
▁břehu	-10.9397
▁restauraci	-10.9397
▁nevýhod	-10.9397
▁Zástupc	-10.9397
▁Rozdíl	-10.9398
▁Obdobn	-10.9398
▁úlev	-10.9398
▁dotace	-10.9398
▁dojít	-10.9399
cvič	-10.9399
▁elektráren	-10.9399
▁operací	-10.94
▁kabel	-10.9401
▁dělají	-10.9401
▁kategorii	-10.9401
▁výhodnější	-10.9402
▁vtip	-10.9403
▁Slovan	-10.9403
▁panel	-10.9405
▁vzácn	-10.9406
▁utrpěl	-10.9406
▁projednáva	-10.9409
▁mezd	-10.9409
visí	-10.9411
▁podporuje	-10.9412
▁reformy	-10.9415
polí	-10.9415
▁množ	-10.9416
▁rozpad	-10.9418
▁udržení	-10.9418
▁oblačnost	-10.9421
▁sněmovně	-10.9421
▁městech	-10.9422
▁Dokon	-10.9422
▁konečný	-10.9423
▁stíhání	-10.9427
nili	-10.9432
▁Takový	-10.9433
▁zabezpeč	-10.9433
▁výrazný	-10.9434
▁časopisů	-10.9435
▁přijdou	-10.9441
▁vešker	-10.9445
▁žádostí	-10.9446
▁Nemá	-10.9447
▁vína	-10.9448
nete	-10.9452
▁vlk	-10.9453
PI	-10.9456
▁Tour	-10.9459
▁bílé	-10.9468
▁vzpomínk	-10.947
▁důsledk	-10.9471
příč	-10.9475
▁odborníky	-10.9479
▁mluvil	-10.9481
▁realitní	-10.9485
▁vlak	-10.9486
▁využívání	-10.9486
▁přijel	-10.949
▁mechanick	-10.9491
▁mladí	-10.9492
▁pochází	-10.9494
▁OD	-10.9496
BA	-10.9502
▁Paříži	-10.9502
▁značn	-10.9506
▁žádosti	-10.9509
▁hledal	-10.9511
▁nepr	-10.9512
▁sezónu	-10.9516
▁šedesát	-10.9529
▁uložení	-10.954
mus	-10.9552
▁škoda	-10.9553
▁nastavit	-10.9554
▁Mon	-10.9554
▁nemohli	-10.9557
▁založení	-10.9564
▁Svat	-10.9566
▁hmoty	-10.9568
▁Olymp	-10.9572
▁domy	-10.9573
▁provedl	-10.9577
▁tank	-10.9581
▁mluvčího	-10.9582
eček	-10.9584
dáme	-10.9593
▁letecké	-10.9599
▁zákazníkům	-10.96
▁skla	-10.9602
▁svobodu	-10.9605
▁obvodní	-10.9607
▁provozní	-10.9607
▁ukázala	-10.9612
▁tich	-10.9616
▁reprezentantů	-10.9617
rodil	-10.9617
▁monopol	-10.9619
▁pochybnost	-10.962
▁muse	-10.962
▁záměru	-10.9624
▁struktura	-10.9625
▁Chorvatsk	-10.9626
▁dokumentu	-10.9627
hodnou	-10.9632
▁časopise	-10.9639
▁neboli	-10.9643
tkání	-10.9644
▁lékařsk	-10.9649
ectví	-10.9653
▁Šp	-10.9656
▁ztráta	-10.9657
▁Plat	-10.9658
▁psycholog	-10.9659
▁snažil	-10.966
▁nezaměstnanost	-10.966
▁syna	-10.9666
▁čtrnácti	-10.9677
dová	-10.9682
oučástí	-10.9685
▁grafick	-10.9692
▁narozen	-10.9694
▁odstup	-10.9695
dpověď	-10.9696
▁ohrožen	-10.9698
▁Kur	-10.9701
▁řídící	-10.9707
▁posíl	-10.9709
▁týmy	-10.971
▁kilometr	-10.9714
▁dodá	-10.9716
▁nedostat	-10.9725
▁výkonnost	-10.9726
▁zvětš	-10.9729
▁každému	-10.9732
▁Graf	-10.9736
▁zvýšené	-10.9739
▁dvojic	-10.9741
▁Afriky	-10.9741
▁Ameriky	-10.9741
▁Bohužel	-10.9741
▁Ladislav	-10.9741
▁Nedávn	-10.9741
▁Plzni	-10.9741
▁SCSI	-10.9741
▁Telecom	-10.9741
▁devatenáct	-10.9741
▁energii	-10.9741
▁instituce	-10.9741
▁investování	-10.9741
▁konkrétně	-10.9741
▁nizozemsk	-10.9741
▁strojírensk	-10.9741
▁výrobek	-10.9741
▁čtvrtfinále	-10.9741
▁gymnázi	-10.9741
▁hloubk	-10.9741
▁hudby	-10.9741
▁nejvýznamnější	-10.9741
▁podpořil	-10.9741
▁přirozené	-10.9741
▁čtvereční	-10.9741
▁lokální	-10.9741
▁ohrožuj	-10.9741
▁kapitán	-10.9741
▁Policisté	-10.9741
▁chránit	-10.9741
▁mládí	-10.9741
▁požadují	-10.9741
▁rámeček	-10.9741
▁názvu	-10.9741
▁koncepci	-10.9741
▁pobočk	-10.9741
▁David	-10.9741
▁trzích	-10.9741
▁nejúspěšnější	-10.9741
▁léčebn	-10.9741
▁nalézt	-10.9741
▁Všeobecn	-10.9741
máhají	-10.9741
▁Včera	-10.9741
▁schránk	-10.9741
▁odstavce	-10.9741
▁okénk	-10.9741
▁dražb	-10.9742
▁použil	-10.9742
▁vybrané	-10.9742
▁závad	-10.9742
▁zaujal	-10.9742
▁zimě	-10.9742
▁ekonomicky	-10.9742
▁Chip	-10.9742
▁stabilní	-10.9742
▁věnovan	-10.9743
ight	-10.9743
▁obrázky	-10.9745
▁nadcházející	-10.9745
▁Tentokrát	-10.9747
▁Nevím	-10.9748
▁koncern	-10.9748
stihnout	-10.9748
beton	-10.9748
▁pochopit	-10.9749
▁lamp	-10.9749
znamená	-10.975
▁stačil	-10.975
hodné	-10.9751
▁síla	-10.9751
▁faktorů	-10.9752
▁ekologick	-10.9753
▁kategorií	-10.9753
▁hlavou	-10.9755
▁plod	-10.9756
plyn	-10.9757
▁49	-10.9757
▁opravdov	-10.9761
▁konat	-10.9763
▁bojovat	-10.9763
vnějších	-10.9763
▁chodit	-10.9763
▁právnické	-10.9764
▁vyvoláva	-10.9766
▁světovou	-10.9767
▁Londýně	-10.9768
▁tón	-10.9768
▁relac	-10.9772
▁parametrů	-10.9772
▁umělecký	-10.9773
'	-10.9773
▁posílen	-10.9775
▁originální	-10.9775
▁kritérií	-10.9776
▁tradici	-10.9777
▁připojen	-10.9779
▁spravedlnosti	-10.978
▁Děti	-10.9783
mann	-10.9785
▁způsobuje	-10.9786
▁přítel	-10.979
▁zbývající	-10.9791
ED	-10.9792
▁Kap	-10.9795
▁pozorovatel	-10.9795
▁šéfa	-10.9796
▁slíbil	-10.9797
▁třetinu	-10.9799
▁činu	-10.9799
▁schůzky	-10.9799
jednat	-10.98
▁uživatele	-10.9801
▁vesmíru	-10.9801
▁zájemci	-10.9802
▁úvahy	-10.9806
▁nezbytné	-10.9808
najdeme	-10.981
▁uznal	-10.9812
▁nemocných	-10.9812
▁úkolem	-10.9813
▁biologické	-10.9814
▁okruhu	-10.982
leb	-10.9826
▁Lidové	-10.9828
▁povede	-10.9829
▁Lit	-10.9833
▁drahé	-10.9834
▁blíže	-10.9835
nický	-10.9838
▁paliva	-10.9839
▁vyvolá	-10.9841
CP	-10.9843
▁starosty	-10.9845
▁rozhovor	-10.9848
▁Stav	-10.985
▁scény	-10.9854
▁Mohl	-10.9861
▁úroky	-10.987
bíhají	-10.9872
▁Alb	-10.9875
▁podnikatelský	-10.9876
▁turistický	-10.9878
▁dokumentů	-10.9883
▁zaměření	-10.9886
▁způsobené	-10.9887
▁úkolů	-10.989
▁bosenský	-10.9891
▁pouhé	-10.9891
▁výkonem	-10.9891
▁platy	-10.9894
▁uvedení	-10.9896
▁opustil	-10.9904
▁hradu	-10.9908
národních	-10.9908
▁objevit	-10.9911
▁Mas	-10.9911
▁manipul	-10.9912
far	-10.9917
tiky	-10.9918
▁podat	-10.9923
cestoval	-10.9925
▁klidu	-10.9925
▁čtvrtý	-10.9926
▁udržel	-10.9928
▁čtvrtin	-10.9931
▁zásady	-10.9931
▁Zahraničn	-10.9935
▁realiz	-10.9935
▁širok	-10.9946
čern	-10.9949
▁představí	-10.9956
▁180	-10.9968
▁pravý	-10.9975
▁poukaz	-10.9978
▁paláce	-10.9979
▁poklesl	-10.9979
▁odkud	-10.9983
enství	-10.9983
▁Bend	-10.9985
▁nesouhlas	-10.999
skok	-10.9994
▁listopad	-10.9996
berg	-10.9999
▁sklon	-10.9999
ících	-11.0001
kolik	-11.0002
▁zahraničními	-11.0003
▁koupi	-11.0008
▁vývojové	-11.0013
krás	-11.0015
▁zakázk	-11.0018
▁vzdálen	-11.0018
▁výprav	-11.0019
▁ochotn	-11.0021
▁koš	-11.0022
▁dalšímu	-11.0026
sion	-11.0032
▁Ter	-11.0034
▁stovk	-11.0037
▁odložen	-11.0039
▁Die	-11.004
čková	-11.0041
▁zastoupen	-11.0055
▁vzp	-11.0056
▁filmy	-11.0057
▁časopis	-11.0061
▁zůstala	-11.0063
▁dramat	-11.0064
▁akademi	-11.0066
▁51	-11.0074
bojí	-11.0078
▁jednoznačn	-11.0078
myslí	-11.0083
▁založené	-11.0092
▁Karlov	-11.0093
▁šestnáct	-11.0094
kování	-11.0097
nápověd	-11.0098
▁1996	-11.0098
▁Alexandr	-11.0098
▁Barceloně	-11.0098
▁Británii	-11.0098
▁Bělehrad	-11.0098
▁Nejlepší	-11.0098
▁Portugalsk	-11.0098
▁chorvatské	-11.0098
▁fázi	-11.0098
▁honorář	-11.0098
▁instalaci	-11.0098
▁multimediální	-11.0098
▁následek	-11.0098
▁podmínkou	-11.0098
▁populární	-11.0098
▁požádat	-11.0098
▁pravidlo	-11.0098
▁publikován	-11.0098
▁tlačítka	-11.0098
▁tlačítkem	-11.0098
▁týdně	-11.0098
▁umožnit	-11.0098
▁bazén	-11.0098
▁březnu	-11.0098
▁cigaret	-11.0098
▁normy	-11.0098
▁pomáhá	-11.0098
▁azbest	-11.0098
▁vrstvy	-11.0098
▁Organiza	-11.0098
▁déšť	-11.0098
▁kratší	-11.0098
▁konzul	-11.0098
▁ploše	-11.0098
▁Srbsk	-11.0098
▁naléhav	-11.0098
▁chalup	-11.0098
▁zklamán	-11.0098
spěje	-11.0098
▁těžce	-11.0098
▁Robert	-11.0098
▁divize	-11.0098
▁doposud	-11.0098
▁kanadsk	-11.0098
▁sociálně	-11.0098
▁Věřím	-11.0098
▁zajímat	-11.0098
▁likvidaci	-11.0098
▁Soubor	-11.0098
▁Část	-11.0098
▁příslušníci	-11.0099
▁značky	-11.0099
▁rytm	-11.0099
▁někoho	-11.0099
▁chemick	-11.0099
▁pololetí	-11.0099
▁ocitl	-11.0099
▁barvu	-11.0099
▁1987	-11.0099
▁pozdější	-11.0099
▁stoupl	-11.0099
▁prodávající	-11.01
▁komisi	-11.01
▁kvalifikace	-11.01
▁Případ	-11.01
▁IFOR	-11.01
▁nutný	-11.01
▁debat	-11.01
▁Hodnot	-11.01
▁ekonomice	-11.01
▁klimatu	-11.0101
▁historik	-11.0102
▁drog	-11.0104
▁zeleni	-11.0106
▁uvažovat	-11.0106
▁parku	-11.0106
▁děd	-11.0107
▁Generální	-11.0107
▁prud	-11.0109
▁právnických	-11.0109
▁tvrdý	-11.011
▁fyzický	-11.0111
▁desky	-11.0111
▁červenci	-11.0112
▁horách	-11.0114
▁pevný	-11.0115
▁odpovídal	-11.0116
▁rozbor	-11.0116
▁Novotná	-11.0122
▁pozorování	-11.0122
▁ukázat	-11.0122
líbil	-11.0123
▁výstavbě	-11.0125
▁společném	-11.0125
▁absolvoval	-11.0126
▁vydělá	-11.0127
▁vzorky	-11.0128
▁potvrzení	-11.0128
▁letiště	-11.0129
▁myšlenka	-11.013
▁ukáže	-11.013
žití	-11.0131
▁provozovatel	-11.0132
▁umělé	-11.0132
▁cenách	-11.0133
▁Často	-11.0135
▁vánoc	-11.0135
▁Znám	-11.014
mínil	-11.0142
▁ohrožení	-11.0143
▁parametry	-11.0144
▁vozy	-11.015
▁Atlanty	-11.015
▁adresu	-11.0151
▁mezinárodním	-11.0151
▁muzeum	-11.0156
▁zjednoduš	-11.0156
▁úvodu	-11.0158
▁obvyklé	-11.0161
▁%)	-11.0166
▁Slovensk	-11.0167
▁nahradit	-11.0167
▁JU	-11.0168
▁vyšel	-11.0169
▁Svazu	-11.0172
▁řeky	-11.0173
▁přírodovědecké	-11.0175
▁sektoru	-11.0176
▁určitém	-11.0176
▁plet	-11.0177
lezl	-11.0179
▁očekávání	-11.0179
cházející	-11.0182
▁třetina	-11.0187
ung	-11.0188
▁účelem	-11.0188
▁Vít	-11.0195
▁99	-11.0198
cími	-11.0199
▁plynů	-11.0199
▁průmyslov	-11.02
▁neznámé	-11.0201
▁Mik	-11.0203
▁představitel	-11.0207
▁příspěvky	-11.0207
▁dvojí	-11.0208
večer	-11.0208
▁jediného	-11.0213
▁obrovsk	-11.0214
▁pojem	-11.0214
▁zaplatil	-11.0224
▁srážky	-11.0224
▁potenciální	-11.0226
ézt	-11.0227
▁napsat	-11.0233
dejme	-11.0233
▁obchodů	-11.0234
▁skryt	-11.0234
Švýcarsk	-11.0244
▁nedokáž	-11.0244
▁nedovol	-11.0245
dnes	-11.0248
▁studenti	-11.0249
▁stupni	-11.025
▁průzkumu	-11.0252
▁styku	-11.0254
▁ztrátu	-11.0257
▁plynu	-11.0258
▁cíli	-11.0262
▁postupné	-11.0272
▁spokojeni	-11.0273
ODA	-11.0292
čátkem	-11.0296
▁Velm	-11.0299
▁čerstv	-11.0308
měrně	-11.031
▁školu	-11.0311
▁varianty	-11.0317
▁sub	-11.0318
▁bíl	-11.0323
▁propad	-11.0325
▁podílu	-11.0329
▁elektron	-11.0332
stavovat	-11.0335
▁změnila	-11.0336
studoval	-11.0339
pustili	-11.0339
▁desít	-11.0339
▁Celk	-11.0341
▁nějakým	-11.0346
▁záruk	-11.0351
▁pořádá	-11.0351
▁příjemné	-11.0353
yplývá	-11.0355
vesel	-11.0356
▁ochotni	-11.0358
▁britsk	-11.0358
▁výrazné	-11.0359
▁masov	-11.036
▁vymezen	-11.0361
▁založena	-11.0361
▁hlubo	-11.0362
▁specializované	-11.0362
▁Výstav	-11.0363
▁alkohol	-11.0365
▁hrála	-11.0365
▁ono	-11.0371
▁případný	-11.0373
▁Podnikatel	-11.0375
▁Správ	-11.0376
▁důchodové	-11.038
▁návštěvník	-11.0381
IA	-11.0381
▁vzdá	-11.0383
▁Společn	-11.039
▁poškoz	-11.0393
▁ekonomika	-11.0396
bylo	-11.0396
▁působící	-11.0404
▁pouště	-11.0408
▁zjednodušen	-11.0409
▁Martina	-11.041
ďte	-11.0415
.12.	-11.0418
▁Skutečn	-11.042
▁kontrola	-11.0424
▁Nikd	-11.0426
IC	-11.0429
▁společenský	-11.0432
▁figur	-11.0434
▁americkém	-11.0439
▁vedoucího	-11.044
▁úzk	-11.0443
▁španělské	-11.0444
▁řetěz	-11.0457
jíždějí	-11.0457
▁interpret	-11.0458
▁vítěze	-11.0458
▁doplň	-11.0463
povídal	-11.0464
ávali	-11.0465
▁1997	-11.0469
▁Ukrajiny	-11.0469
▁Zvláštní	-11.0469
▁akcionářů	-11.0469
▁církví	-11.0469
▁galerie	-11.0469
▁hřiště	-11.0469
▁náboženství	-11.0469
▁orchestr	-11.0469
▁ovladač	-11.0469
▁ovlivňuje	-11.0469
▁posádk	-11.0469
▁potrestán	-11.0469
▁prosazovat	-11.0469
▁páteční	-11.0469
▁upozorňuje	-11.0469
▁zpracováva	-11.0469
▁Chomutov	-11.0469
▁Koaliční	-11.0469
▁deficit	-11.0469
▁dveří	-11.0469
▁naznačil	-11.0469
▁priorit	-11.0469
▁šetření	-11.0469
▁IBM	-11.0469
▁bronz	-11.0469
▁držitel	-11.0469
▁příznak	-11.0469
▁určuje	-11.0469
▁Původně	-11.0469
▁burze	-11.0469
▁nepřátel	-11.0469
▁enzym	-11.0469
▁oxidu	-11.0469
▁patrné	-11.0469
▁produktivit	-11.0469
▁vrstev	-11.0469
připravovan	-11.0469
▁usilovat	-11.0469
▁proslul	-11.0469
▁podporou	-11.0469
▁podnicích	-11.0469
▁potíží	-11.0469
▁fáze	-11.0469
▁pronájem	-11.0469
▁Formát	-11.0469
▁nedaleko	-11.0469
▁sdělovací	-11.0469
▁kritické	-11.0469
▁příliv	-11.0469
▁filozofie	-11.0469
▁Word	-11.0469
▁královn	-11.0469
▁vzestup	-11.0469
▁Tureck	-11.0469
▁naposledy	-11.0469
▁lyžař	-11.0469
▁zámku	-11.0469
vázat	-11.0469
▁svátky	-11.047
▁myšlenkou	-11.047
▁integraci	-11.047
▁hutní	-11.047
▁středoevropsk	-11.047
▁srdeční	-11.047
▁násilí	-11.0471
▁obrázků	-11.0471
▁těžb	-11.0471
střih	-11.0471
▁hostitel	-11.0471
▁myšlenku	-11.0472
▁šíření	-11.0472
▁odhadnout	-11.0472
▁manželství	-11.0473
▁duše	-11.0473
▁Týr	-11.0473
▁Kreml	-11.0473
▁sílu	-11.0474
▁nehodlá	-11.0474
▁uhlí	-11.0474
▁vážný	-11.0474
▁tratí	-11.0475
▁slabší	-11.0475
▁přežití	-11.0475
▁obnovu	-11.0475
▁prováze	-11.0476
▁nízko	-11.0476
▁dlouhodobě	-11.0477
▁znamenalo	-11.0477
▁podnět	-11.0477
▁stanovit	-11.0479
▁testování	-11.048
hodlají	-11.0481
▁sledování	-11.0481
▁historick	-11.0482
▁zdanění	-11.0482
▁zákazníci	-11.0485
▁nájem	-11.0486
▁doporučení	-11.0487
▁posoudit	-11.0488
▁Komis	-11.0488
▁olej	-11.0492
▁sklo	-11.0492
▁profil	-11.0493
▁soustředění	-11.0493
▁silnější	-11.05
▁Labem	-11.0501
▁příslušníků	-11.0508
▁foto	-11.0511
▁jádro	-11.0512
▁přístrojů	-11.0512
▁poslání	-11.0513
▁moravsk	-11.0513
▁úředníků	-11.0516
▁Nejde	-11.052
▁tvrdě	-11.052
▁jezer	-11.0524
▁následky	-11.0525
lské	-11.0525
▁přinese	-11.0528
▁úlohu	-11.053
▁mez	-11.0531
▁vládou	-11.0532
▁přehlídky	-11.0534
▁začínající	-11.0536
kryl	-11.0537
▁experti	-11.0554
dělování	-11.0556
▁Jac	-11.0558
letí	-11.056
▁válka	-11.0562
▁soudce	-11.0563
▁zápisu	-11.0565
řád	-11.0569
▁elektro	-11.0573
▁Naši	-11.0574
▁Nizozem	-11.0575
▁vymez	-11.0588
▁Platí	-11.059
▁zachoval	-11.0593
pisuje	-11.0594
▁světlo	-11.0594
▁výbuchu	-11.0597
nder	-11.0597
▁kvalifik	-11.0601
ČE	-11.0604
▁technického	-11.0608
▁nasazení	-11.0609
▁technika	-11.061
▁týmem	-11.0612
▁italský	-11.0616
▁předpoklady	-11.0616
▁sbor	-11.0621
▁hotelů	-11.0625
▁komor	-11.0625
▁jistotu	-11.0633
▁snahy	-11.0639
▁ziskem	-11.0642
části	-11.0642
▁lidové	-11.0642
▁Mel	-11.0642
▁Mc	-11.0648
▁ikon	-11.0654
▁kvalifikovan	-11.0654
▁výstavu	-11.066
▁Byli	-11.0664
▁agentur	-11.0666
▁Britsk	-11.0674
▁slovník	-11.0676
nechává	-11.0678
▁měnové	-11.0683
▁papírů	-11.0683
▁Lab	-11.069
▁náročné	-11.0694
▁překr	-11.0699
▁fotbalu	-11.07
▁reagoval	-11.0703
korun	-11.0708
▁zajímavost	-11.0708
▁vrcholu	-11.0709
▁osobě	-11.0713
▁přenosov	-11.0716
kupuje	-11.072
▁All	-11.072
▁díly	-11.0722
▁předvedl	-11.0723
vice	-11.0724
▁Malý	-11.0726
soudil	-11.0727
▁trvalo	-11.0731
▁výběrové	-11.0731
čkách	-11.0734
▁Har	-11.0735
▁zákazu	-11.0736
▁spory	-11.0737
▁kulturních	-11.0737
▁Výhod	-11.0737
daly	-11.0746
▁zaměstnanec	-11.0747
EK	-11.0751
▁vysoko	-11.0751
▁kabinet	-11.0752
mořsk	-11.0755
▁chová	-11.0759
▁Jedn	-11.076
▁zabývají	-11.076
▁Dan	-11.0765
▁Vítěz	-11.0765
▁rozpor	-11.0766
▁veden	-11.0768
▁poskytnut	-11.0772
▁srážk	-11.0773
▁centrál	-11.0774
▁obrazovk	-11.0776
jištěn	-11.0776
▁snížen	-11.0783
▁většího	-11.0784
▁návštěv	-11.0786
▁pes	-11.0795
▁telefonu	-11.0795
▁66	-11.0799
bíral	-11.0802
▁malého	-11.0803
těsn	-11.0805
▁programem	-11.0809
▁Win	-11.0809
▁trati	-11.0811
▁okrese	-11.0811
▁krátký	-11.0815
skop	-11.0826
▁vzhled	-11.0826
▁připraveni	-11.0836
▁typické	-11.0836
▁komunik	-11.0846
▁daný	-11.0847
▁specifik	-11.0847
ŘÍ	-11.0847
▁Les	-11.0848
▁Nejdřív	-11.0853
▁Rakušan	-11.0853
▁Thajsk	-11.0853
▁Vedoucí	-11.0853
▁Výzkum	-11.0853
▁dodatečně	-11.0853
▁důležitá	-11.0853
▁fotoaparát	-11.0853
▁franků	-11.0853
▁inspekce	-11.0853
▁instalace	-11.0853
▁majetkem	-11.0853
▁nezměnil	-11.0853
▁pohledávek	-11.0853
▁redakce	-11.0853
▁upozornit	-11.0853
▁vyšetření	-11.0853
▁Republik	-11.0853
▁Temelín	-11.0853
▁Bejbl	-11.0853
▁certifikát	-11.0853
▁konstrukce	-11.0853
▁nejmenší	-11.0853
▁stupňů	-11.0853
▁zakladatel	-11.0853
▁zoufal	-11.0853
▁ordinac	-11.0853
▁pojmů	-11.0853
▁Průměrn	-11.0853
▁zkratk	-11.0853
▁vyvinul	-11.0853
▁stovek	-11.0853
▁DPH	-11.0853
▁dvojnásobn	-11.0853
▁vojsk	-11.0853
▁přežít	-11.0853
▁Bílé	-11.0853
▁jedince	-11.0854
▁sehrál	-11.0854
▁Sokol	-11.0854
▁ozdob	-11.0854
▁chápat	-11.0854
▁Asociac	-11.0854
▁audio	-11.0854
▁Řešení	-11.0854
▁vyroben	-11.0854
▁Prostě	-11.0854
▁restaurace	-11.0854
▁1984	-11.0854
▁uváděn	-11.0854
▁sněhov	-11.0855
▁1968	-11.0855
▁platební	-11.0855
▁kvalifikační	-11.0855
▁formální	-11.0855
▁vázán	-11.0855
▁něčem	-11.0856
▁1986	-11.0856
ČNÍ	-11.0856
▁poznatků	-11.0856
▁zatížen	-11.0857
▁modem	-11.0857
▁spolupracovat	-11.0857
▁německá	-11.0857
▁III	-11.0858
▁složité	-11.0858
▁nohy	-11.0858
▁volbami	-11.0858
▁3,5	-11.0859
▁května	-11.086
▁Cheb	-11.086
nin	-11.086
▁rychlejší	-11.0861
nutit	-11.0861
▁ČZ	-11.0861
▁rozložení	-11.0862
▁zlaté	-11.0862
▁žáků	-11.0863
▁marně	-11.0863
▁Bill	-11.0863
▁pružn	-11.0864
▁podzemní	-11.0864
▁Sovětský	-11.0864
▁nápis	-11.0865
▁DEM	-11.0865
▁procento	-11.0866
▁Tedy	-11.0867
▁upravit	-11.0867
▁legislativní	-11.0869
▁odstranění	-11.0869
▁nájemce	-11.0869
▁doplněn	-11.0869
▁užitek	-11.087
▁Potom	-11.0871
▁sláv	-11.0872
▁Belgie	-11.0874
▁bilance	-11.0876
▁vyvolat	-11.0877
▁oznámení	-11.0878
lární	-11.0885
▁Jedná	-11.0891
▁určena	-11.0894
▁Nejen	-11.0894
▁měny	-11.0894
▁hrubého	-11.0896
▁elektřiny	-11.0896
▁manželka	-11.0897
▁ruku	-11.0897
▁týdeník	-11.0899
▁osobností	-11.0899
▁vedlo	-11.09
izační	-11.09
▁vstupní	-11.09
cházelo	-11.0903
▁jevů	-11.0904
SKO	-11.0905
tisícov	-11.0906
▁poslanecké	-11.0908
▁kříž	-11.0911
▁Německem	-11.0911
▁Lux	-11.0914
▁vzdálené	-11.0915
▁tvor	-11.0917
▁Japonsku	-11.0917
▁demokratů	-11.0918
▁cel	-11.0926
atrně	-11.0927
▁tarif	-11.0929
▁koalici	-11.0929
▁linky	-11.0931
▁návštěvy	-11.0934
bývající	-11.0934
▁desetin	-11.0935
stva	-11.0935
CA	-11.0943
▁bezprostřední	-11.0944
▁oborů	-11.0945
▁výstavbu	-11.0945
▁republiku	-11.0948
▁samotný	-11.0949
vyšších	-11.095
▁spotřebu	-11.0951
▁mírový	-11.0953
▁Františk	-11.0953
▁polohy	-11.0954
▁neshod	-11.0954
íků	-11.0957
▁stejná	-11.0958
▁úz	-11.0963
▁výběrem	-11.0965
▁nekonečn	-11.0965
▁specializovan	-11.0966
▁Výstava	-11.0971
ámek	-11.0978
▁fotbalových	-11.0983
▁Svobod	-11.0989
▁monitoru	-11.0991
▁charakterizova	-11.0991
▁vůdce	-11.0993
▁primátora	-11.0994
▁provede	-11.1
▁půdu	-11.1
▁700	-11.1004
jov	-11.1005
▁orgánu	-11.1005
tisknout	-11.1006
▁evropského	-11.1008
▁teplá	-11.1009
▁vložit	-11.101
▁skutečností	-11.1012
▁oceánu	-11.1012
lizace	-11.1012
▁obvodu	-11.1014
▁skupinou	-11.1019
hodnost	-11.1031
psaný	-11.1032
▁ostrovy	-11.1035
▁kapacity	-11.1041
svědčil	-11.1045
▁evropsk	-11.1045
PS	-11.1046
iletá	-11.1048
▁červené	-11.1051
▁rusk	-11.1054
▁pozván	-11.1056
IST	-11.1061
usi	-11.1061
▁ozbrojen	-11.1066
konala	-11.1071
▁Obča	-11.1075
▁šedesáti	-11.1079
ues	-11.1079
▁Brit	-11.1081
▁uvedeno	-11.1084
▁platný	-11.1089
▁dokumenty	-11.1089
▁vzrůst	-11.1092
▁připustil	-11.1095
▁Jediný	-11.1097
▁sportovních	-11.1098
▁zdravotnický	-11.1098
▁vysla	-11.1104
▁Zda	-11.1108
▁současném	-11.1113
▁turistick	-11.1119
▁metru	-11.1122
▁Škod	-11.1126
▁pru	-11.1126
káže	-11.1127
67	-11.1131
měnit	-11.1132
▁hvězdy	-11.1134
ÁT	-11.1138
▁původním	-11.1139
▁samot	-11.1142
▁plány	-11.1144
▁Sol	-11.1147
▁Norsk	-11.1148
▁zápis	-11.1152
▁paliv	-11.1153
▁mořský	-11.1153
FS	-11.1155
▁Rady	-11.1157
78	-11.1159
léhá	-11.1166
poslední	-11.1166
▁stížnost	-11.1171
řádně	-11.1174
▁zájezd	-11.1174
▁svěřen	-11.1176
▁podstatný	-11.1178
▁zdi	-11.1181
▁Vod	-11.1184
▁listy	-11.1185
▁stole	-11.1195
▁rozvoji	-11.1197
kého	-11.1199
hruba	-11.1201
▁učí	-11.1208
▁vybírá	-11.1211
▁filozof	-11.1212
▁Londýn	-11.1222
místě	-11.1227
▁motocykl	-11.1227
▁základy	-11.124
▁zálož	-11.1242
jistit	-11.1242
▁zřetel	-11.1244
14	-11.1245
▁privatiz	-11.1247
▁komplikov	-11.1253
▁EuroTel	-11.1253
▁Kalvoda	-11.1253
▁brambor	-11.1253
▁domnívají	-11.1253
▁energetik	-11.1253
▁firmám	-11.1253
▁hovořit	-11.1253
▁komponent	-11.1253
▁naštěstí	-11.1253
▁ovlivňují	-11.1253
▁označuje	-11.1253
▁posuzovat	-11.1253
▁publiku	-11.1253
▁spoluhráč	-11.1253
▁Okresní	-11.1253
▁Sociální	-11.1253
▁dubnu	-11.1253
▁nežádoucí	-11.1253
▁převzít	-11.1253
▁radikální	-11.1253
▁uplatnit	-11.1253
▁vyhlídk	-11.1253
▁zázemí	-11.1253
▁odlišný	-11.1253
▁Poborský	-11.1253
▁souhrn	-11.1253
▁kamarád	-11.1253
▁Domácí	-11.1253
▁efektivní	-11.1253
▁redaktor	-11.1253
▁Českomoravsk	-11.1253
▁nevědí	-11.1253
▁připomínk	-11.1253
▁viditeln	-11.1253
▁zásilk	-11.1253
▁celostátní	-11.1253
▁záloh	-11.1253
▁Musel	-11.1253
▁učinit	-11.1253
▁osvobození	-11.1253
▁pokoušel	-11.1253
▁nejrychlejší	-11.1253
▁nestačil	-11.1253
▁sněžení	-11.1253
▁navržen	-11.1254
▁Šéf	-11.1254
▁forem	-11.1254
▁slyšet	-11.1254
▁prodlení	-11.1254
▁vracet	-11.1254
▁ztracen	-11.1254
▁dlouhodobý	-11.1254
▁samospráv	-11.1254
▁rysy	-11.1254
▁stránek	-11.1254
▁škál	-11.1254
▁Slavii	-11.1254
▁podílejí	-11.1255
▁obrazovce	-11.1255
▁Objekt	-11.1255
▁přál	-11.1255
žádají	-11.1256
▁Grand	-11.1256
▁studií	-11.1256
▁občanství	-11.1257
▁ÚV	-11.1259
▁Vesel	-11.1259
▁obrázku	-11.1259
▁přizpůsobit	-11.1259
▁dohad	-11.1261
▁včerejším	-11.1262
lepnutím	-11.1262
▁64	-11.1262
▁Roman	-11.1264
▁pracovnice	-11.1265
▁Všechno	-11.1267
▁Číny	-11.1267
▁rejstříku	-11.1268
▁velko	-11.1268
▁vezme	-11.1269
▁dobách	-11.1271
▁NOV	-11.1272
▁demokraté	-11.1274
▁prodloužení	-11.1274
▁Druhou	-11.1274
▁stavbu	-11.1275
▁podnikat	-11.1275
▁regulace	-11.1279
▁převoz	-11.128
▁trvalé	-11.128
▁Dohod	-11.1282
▁fronty	-11.1285
▁znalostí	-11.1285
▁vzniknou	-11.1289
▁Wimbledonu	-11.1289
US	-11.1293
▁summitu	-11.1294
▁písemně	-11.1294
▁orientaci	-11.1295
rážky	-11.1295
▁každodenní	-11.1296
▁Pen	-11.1296
▁Zelen	-11.1297
▁nemovitosti	-11.1299
▁dávk	-11.1303
▁zbrojní	-11.1304
▁výjimky	-11.1305
▁olympijsk	-11.1306
▁zpěvák	-11.131
▁ukládání	-11.1312
vlastn	-11.1315
tika	-11.1316
▁klima	-11.1317
▁ztrátou	-11.1317
▁předmětů	-11.1319
▁Fotbal	-11.1323
▁kritéria	-11.1326
zanedbateln	-11.1332
▁Pražského	-11.1335
▁obchodníci	-11.1339
▁celkovém	-11.134
▁Nor	-11.1341
▁tvaru	-11.1342
▁Ger	-11.1343
▁módní	-11.1343
iček	-11.1345
▁snažili	-11.1349
▁živnost	-11.135
▁resortu	-11.1352
▁jednalo	-11.1353
▁teplotě	-11.1354
▁světla	-11.1355
▁doplňk	-11.1357
▁smích	-11.1358
▁uvede	-11.1359
▁plyne	-11.136
▁sboru	-11.1366
▁Test	-11.1367
▁vnímá	-11.137
▁vůz	-11.1371
▁KON	-11.1372
▁předměty	-11.1375
▁překvapil	-11.1376
▁úplné	-11.1378
▁zrušen	-11.1379
36	-11.1383
▁připravena	-11.1384
▁odehráv	-11.1385
▁minuty	-11.1386
▁německém	-11.1386
▁vyhlášen	-11.1388
▁sjezdu	-11.1397
▁hit	-11.1403
▁Michaela	-11.1405
▁zvuku	-11.1405
▁sestavení	-11.1408
▁obdobné	-11.141
▁návštěva	-11.1416
▁poslal	-11.142
▁mapy	-11.142
▁náhradu	-11.142
splnění	-11.1421
▁důkazy	-11.1428
▁známých	-11.143
▁domluv	-11.1441
kově	-11.1441
▁předchozích	-11.1445
▁bojů	-11.1446
▁přijatelné	-11.1447
▁charakteru	-11.145
▁některý	-11.1454
▁úspory	-11.1455
▁tepeln	-11.1455
▁úkoly	-11.1457
jmenovaný	-11.1464
▁Sovětském	-11.1468
▁hráli	-11.147
▁zvukové	-11.1473
DI	-11.1479
▁kandidáty	-11.1483
▁Boj	-11.1484
▁maďarský	-11.1485
OVÁ	-11.1486
▁špičkové	-11.1486
▁Ostravar	-11.1489
▁odbory	-11.1489
▁planety	-11.1491
:3	-11.1497
ork	-11.1502
▁přiměřen	-11.1503
▁chci	-11.1507
▁konto	-11.1509
▁zvěř	-11.1517
▁divu	-11.1519
stávat	-11.1531
▁plát	-11.1532
▁evropském	-11.1538
▁tip	-11.1544
▁obyvatele	-11.1544
▁koalic	-11.1545
▁uměle	-11.1546
▁známe	-11.1549
▁investorů	-11.1552
novými	-11.1554
▁věty	-11.1559
▁sněmovn	-11.1559
▁předal	-11.1562
▁vstoupit	-11.1564
▁Bro	-11.1566
▁magistrát	-11.1566
▁mód	-11.1578
▁period	-11.1579
▁metra	-11.1588
▁řízen	-11.1592
▁osvět	-11.1602
▁Pražský	-11.1606
▁účastník	-11.162
▁mládež	-11.1627
▁podílí	-11.1629
▁výkonů	-11.1629
rušit	-11.1633
▁mechanismu	-11.1634
▁velkém	-11.1634
▁Čechů	-11.164
▁oleje	-11.1649
▁komunisti	-11.165
šetřit	-11.1652
▁Bank	-11.1658
jdu	-11.1669
▁pracovníka	-11.167
▁statut	-11.167
▁rud	-11.167
▁triumf	-11.167
mýšlí	-11.167
rehabilit	-11.167
▁Alžbět	-11.167
▁CADKON	-11.167
▁Finanční	-11.167
▁Intergraph	-11.167
▁Lebeď	-11.167
▁Pithart	-11.167
▁Srbů	-11.167
▁Vídni	-11.167
▁Zjuganov	-11.167
▁asistent	-11.167
▁bližší	-11.167
▁církvi	-11.167
▁dědictví	-11.167
▁fenomén	-11.167
▁konferencí	-11.167
▁leasing	-11.167
▁nejstarší	-11.167
▁nepřetržit	-11.167
▁neschopnost	-11.167
▁nábytku	-11.167
▁odmítají	-11.167
▁odpovědí	-11.167
▁ovlivněn	-11.167
▁reagovat	-11.167
▁schůzi	-11.167
▁softwaru	-11.167
▁strategii	-11.167
▁technologii	-11.167
▁ukazatel	-11.167
▁uzavírá	-11.167
▁vytvářejí	-11.167
▁zpoždění	-11.167
▁zpátky	-11.167
▁zálivu	-11.167
▁žádoucí	-11.167
▁Nejčastěj	-11.167
▁atentát	-11.167
▁jazz	-11.167
▁komunální	-11.167
▁nárůst	-11.167
▁otevírá	-11.167
▁říjnu	-11.167
▁dovednost	-11.167
▁vyznačuj	-11.167
▁nezaměstnaných	-11.167
▁Bratink	-11.167
▁Mazda	-11.167
▁Mencl	-11.167
▁splatnosti	-11.167
▁nízká	-11.167
▁vyvinut	-11.167
blok	-11.167
▁zpomal	-11.167
▁Polsko	-11.167
▁podpoře	-11.167
▁dokáží	-11.167
▁mřížk	-11.167
▁navrhnout	-11.167
▁zůstanou	-11.167
▁splnit	-11.167
▁multi	-11.167
▁náprav	-11.167
▁zazněl	-11.167
▁diagram	-11.167
▁kombinaci	-11.167
▁maximum	-11.1671
▁stůl	-11.1671
▁zvolit	-11.1671
▁Praktick	-11.1671
▁přednášk	-11.1671
▁Mimo	-11.1671
▁rozsáhlý	-11.1671
▁Andre	-11.1671
▁Charles	-11.1671
▁zařadil	-11.1671
▁Nabídk	-11.1672
▁trpí	-11.1672
▁délce	-11.1672
▁komunikaci	-11.1672
▁zahrnut	-11.1672
▁vrchní	-11.1672
▁ligové	-11.1672
▁Sedm	-11.1672
▁ponechat	-11.1672
▁kondom	-11.1672
kryje	-11.1673
jíždí	-11.1674
▁nastat	-11.1674
▁okresů	-11.1674
biologie	-11.1674
▁podmíněn	-11.1675
▁šestnácti	-11.1675
▁Bonn	-11.1675
▁kreslení	-11.1675
▁nakažen	-11.1676
▁simul	-11.1676
▁Technick	-11.1676
▁nejvýše	-11.1676
charakterizuj	-11.1676
▁interval	-11.1677
ptal	-11.1677
▁otec	-11.1677
▁bance	-11.1678
▁vyrovnal	-11.1678
oprvé	-11.1679
▁skládá	-11.1679
▁Stručně	-11.1679
▁jmenuje	-11.1679
▁integr	-11.1681
▁živočichů	-11.1681
▁blesk	-11.1684
▁nedal	-11.1684
▁kilogramů	-11.1686
▁odejít	-11.1686
▁prvé	-11.1687
chytit	-11.1687
▁obchodování	-11.1688
omín	-11.1689
▁pohybovat	-11.169
▁respektovat	-11.1691
▁mrav	-11.1693
▁resort	-11.1693
▁dočasně	-11.1693
▁Data	-11.1694
losování	-11.1694
▁Brazílie	-11.1696
▁postižených	-11.1699
▁předcházel	-11.1702
▁energetické	-11.1704
▁květin	-11.1704
▁jistou	-11.1706
▁trik	-11.1708
▁pádu	-11.1708
▁potřebujeme	-11.1708
▁dokončení	-11.171
▁poskytování	-11.171
▁přijímá	-11.1711
▁Mír	-11.1713
▁padesátých	-11.1714
▁termo	-11.1716
▁zastavení	-11.172
▁vkladů	-11.1721
hřeb	-11.1723
▁vyhlášení	-11.1724
▁zaplacení	-11.1726
▁nepříjemn	-11.1727
▁kontrole	-11.1731
▁jezdil	-11.1731
OST	-11.1731
▁fotbalov	-11.1732
▁účinnosti	-11.1735
▁Chci	-11.1736
▁Postup	-11.1739
▁vozidla	-11.174
▁Kniha	-11.174
▁obtížně	-11.1743
▁kongresu	-11.1743
▁typický	-11.1745
riti	-11.1745
schválila	-11.1748
stroj	-11.175
▁Vstup	-11.1753
▁schématu	-11.1753
být	-11.1755
▁ZÁ	-11.1756
▁uložit	-11.176
▁katolické	-11.176
▁objeven	-11.1765
▁zakázky	-11.1765
▁celo	-11.1773
vládne	-11.1777
▁plic	-11.1782
▁míra	-11.1786
▁probíhal	-11.1787
▁specifické	-11.1789
▁listů	-11.179
▁vaku	-11.1794
íčko	-11.1805
▁titulů	-11.1806
▁pevn	-11.181
▁lidu	-11.1811
▁valné	-11.1812
▁hale	-11.1813
▁nápady	-11.1814
▁Siln	-11.1815
etické	-11.1816
▁brankáře	-11.1818
▁projeví	-11.1818
98	-11.1823
lci	-11.1824
▁vámi	-11.1829
▁jevy	-11.1834
▁maz	-11.1835
▁Jistě	-11.1838
▁niž	-11.1843
▁jasný	-11.1844
▁sousedů	-11.1847
▁růstem	-11.1848
▁čínské	-11.1849
▁představoval	-11.1852
svědčení	-11.1854
▁textové	-11.1855
bíhá	-11.1859
▁vzá	-11.1861
▁52	-11.1861
▁čtenáři	-11.1864
vodně	-11.1866
▁oblíben	-11.1868
▁statistické	-11.187
Ile	-11.1871
▁typick	-11.1876
▁dokázali	-11.1876
stupující	-11.1877
▁reprezentanti	-11.1878
▁Olympi	-11.1878
▁šla	-11.1881
▁jedenácti	-11.1883
▁předpokladu	-11.1884
▁zabývající	-11.1885
hodit	-11.1888
▁350	-11.1889
▁určení	-11.189
▁nazýva	-11.1891
▁přijala	-11.1894
▁uplynulý	-11.1894
▁tváří	-11.1894
▁stejných	-11.1897
▁testy	-11.1898
trhl	-11.19
▁služební	-11.1903
▁neměly	-11.1903
▁schéma	-11.1904
▁přidal	-11.1908
▁zvýšila	-11.1914
kání	-11.1914
hne	-11.1915
▁autora	-11.1915
▁společných	-11.1917
▁symbolick	-11.1918
▁spotřebitele	-11.1922
pochyby	-11.1922
▁úvah	-11.1922
▁hotely	-11.1923
21	-11.1929
▁klíče	-11.1936
levo	-11.1936
▁nemocný	-11.1938
▁soli	-11.1939
▁objevily	-11.1946
▁osudu	-11.1946
▁loňsk	-11.1949
PT	-11.1949
OP	-11.195
IG	-11.1952
▁expert	-11.1958
▁vznikající	-11.1958
▁rodinu	-11.196
▁jist	-11.1965
▁zeměmi	-11.1967
▁Johna	-11.1977
▁zvlád	-11.1978
▁sedmnáct	-11.1978
▁hrd	-11.1983
▁pravidelné	-11.1989
▁chodb	-11.199
▁zvířata	-11.1991
▁přijateln	-11.1993
stavení	-11.1994
▁mís	-11.1994
▁obdobn	-11.1999
▁Ján	-11.2
▁IV	-11.2
▁190	-11.2006
▁odmítli	-11.2008
▁katolick	-11.2011
▁vládních	-11.2015
▁vysíla	-11.2019
▁dividend	-11.2024
třída	-11.2025
▁novinářů	-11.2031
▁požadovaný	-11.2044
▁získává	-11.2047
▁obsluh	-11.2048
▁jazyka	-11.2051
▁vědu	-11.2058
▁předchozím	-11.2059
▁pedagog	-11.2069
▁zkušen	-11.2074
▁dramatick	-11.2076
▁Zemana	-11.2076
▁Invest	-11.2077
▁astronom	-11.208
▁hráčem	-11.2084
▁pracující	-11.2084
▁našli	-11.2088
pomíná	-11.2089
▁expozi	-11.2093
▁produk	-11.2095
▁pokusy	-11.2098
škodliv	-11.2098
následuj	-11.2099
▁nižších	-11.21
▁říkají	-11.21
▁pozdě	-11.2102
▁působ	-11.2102
▁Pozor	-11.2104
Gar	-11.2104
▁Bratislava	-11.2105
▁Casimir	-11.2105
▁Demokratick	-11.2105
▁Ostatní	-11.2105
▁Počítač	-11.2105
▁Tigrid	-11.2105
▁cizince	-11.2105
▁dodržování	-11.2105
▁galerii	-11.2105
▁hlubší	-11.2105
▁hypotéz	-11.2105
▁kompetence	-11.2105
▁konstatuje	-11.2105
▁literární	-11.2105
▁metropole	-11.2105
▁nejmodernější	-11.2105
▁nominální	-11.2105
▁otevřít	-11.2105
▁podpořit	-11.2105
▁polojasno	-11.2105
▁požadovat	-11.2105
▁prohlídk	-11.2105
▁představenstva	-11.2105
▁přitažliv	-11.2105
▁semifinále	-11.2105
▁složek	-11.2105
▁strategií	-11.2105
▁udržuje	-11.2105
▁vojáci	-11.2105
▁výsledn	-11.2105
▁wimbledonsk	-11.2105
▁zveřejnil	-11.2105
▁šablon	-11.2105
▁žadatel	-11.2105
dostatečnou	-11.2105
▁Africe	-11.2105
▁Kolumb	-11.2105
▁Nedvěd	-11.2105
▁byznys	-11.2105
▁charakteristik	-11.2105
▁generací	-11.2105
▁nejznámější	-11.2105
▁požadoval	-11.2105
▁vyhovuje	-11.2105
střílel	-11.2105
▁Majitel	-11.2105
▁kodex	-11.2105
▁stránky	-11.2105
▁Dříve	-11.2105
▁údolí	-11.2105
▁patřičn	-11.2105
▁vystřídal	-11.2105
▁divadle	-11.2105
▁čtvrteční	-11.2105
▁položky	-11.2105
▁logické	-11.2105
▁nevidí	-11.2105
▁nízký	-11.2105
▁počínaj	-11.2105
▁rytíř	-11.2105
▁Městsk	-11.2105
▁doporučil	-11.2105
▁poplatek	-11.2105
▁vyrovnat	-11.2105
▁účinku	-11.2105
▁podobná	-11.2105
▁stoupá	-11.2105
chlazení	-11.2105
▁Jugoslávie	-11.2105
▁NDR	-11.2105
▁Prodej	-11.2105
▁Komerčn	-11.2105
▁štáb	-11.2105
▁nejhorší	-11.2105
▁splnil	-11.2105
povídat	-11.2105
▁Rychl	-11.2105
▁potravinářské	-11.2105
▁fotografie	-11.2105
▁nátlak	-11.2105
▁počkat	-11.2106
▁Maďarsku	-11.2106
▁přijme	-11.2106
▁rakouský	-11.2106
▁korekc	-11.2106
▁reaktor	-11.2106
▁ničem	-11.2106
▁nápoj	-11.2106
▁zaručen	-11.2106
▁ekonomická	-11.2106
▁návrhů	-11.2106
▁bohatství	-11.2106
▁Začal	-11.2107
▁malíř	-11.2107
▁Marie	-11.2107
▁radnici	-11.2107
▁verzí	-11.2108
▁vstupenk	-11.2108
▁vloni	-11.2108
▁barva	-11.2108
▁vyhnout	-11.2109
▁neděle	-11.2109
▁Uveden	-11.2109
▁jezdit	-11.2109
▁lodi	-11.211
▁dozor	-11.211
▁divok	-11.2111
▁odhalen	-11.2111
▁Ruml	-11.2111
▁duch	-11.2114
▁psychiatr	-11.2115
▁nedostatku	-11.2116
▁cement	-11.2117
▁peset	-11.2117
▁předcházející	-11.2117
▁okresy	-11.2117
▁obřad	-11.2117
▁změnám	-11.2118
může	-11.2118
▁oborech	-11.2119
▁podílet	-11.2119
▁uvědomit	-11.2119
▁prodejny	-11.212
▁odvet	-11.2121
▁bojovn	-11.2121
SO	-11.2123
▁novinách	-11.2123
▁centimetrů	-11.2124
ujme	-11.2125
▁zlatý	-11.2125
▁překvapivě	-11.2126
▁nemovitostí	-11.2126
▁přelom	-11.2127
▁armádě	-11.2127
▁řekne	-11.2127
▁astronomi	-11.213
▁Žid	-11.2131
▁ukládá	-11.2134
▁tabulka	-11.2135
▁zvaný	-11.2135
▁složitý	-11.2137
▁uvádějí	-11.2139
▁seriálu	-11.2139
celku	-11.214
▁krut	-11.214
▁plánování	-11.2141
▁prožil	-11.2146
▁ocenění	-11.2146
padesát	-11.2149
▁mládeže	-11.2149
▁referendum	-11.215
▁oddíl	-11.2152
▁správce	-11.2153
▁kvalitou	-11.2153
▁fotbalisté	-11.2153
▁Dopravní	-11.2154
▁zkušební	-11.2155
▁tvarů	-11.2157
▁Excelu	-11.2158
munist	-11.2158
▁skalní	-11.2158
▁propojení	-11.2159
▁přidat	-11.2159
▁Budou	-11.2161
▁trenérů	-11.2163
▁psa	-11.2165
▁hmotnosti	-11.2165
▁procesoru	-11.2165
Severoatlantické	-11.2168
▁závazky	-11.2168
stanou	-11.217
▁návštěvnost	-11.2175
▁šed	-11.2179
▁budově	-11.2182
▁vozu	-11.2188
▁císaře	-11.219
▁pokryt	-11.219
▁vyjde	-11.2192
▁optick	-11.2193
▁dodavatele	-11.2194
▁Prof	-11.2196
▁Potřebuje	-11.2198
▁5000	-11.2199
▁energetický	-11.22
▁zubní	-11.2203
▁stadiónu	-11.2205
▁obchodníků	-11.2205
▁materiálem	-11.2206
▁Spor	-11.2206
▁SV	-11.2207
▁lesa	-11.2209
▁magistrátu	-11.2214
▁Brod	-11.2217
▁dolů	-11.2218
▁stála	-11.2219
▁Kan	-11.2219
▁položil	-11.2222
ručí	-11.2223
▁novely	-11.2227
▁Dal	-11.2228
▁hrou	-11.2235
▁dosti	-11.2249
▁čínský	-11.2251
▁tvůrc	-11.2252
▁evropským	-11.2257
▁starého	-11.2261
▁zřízení	-11.2261
▁odpovědnosti	-11.2262
▁konečn	-11.2262
▁Voj	-11.2269
díval	-11.227
▁krokem	-11.2272
▁jugoslávské	-11.2273
▁kupon	-11.2275
▁básník	-11.2275
▁podzimní	-11.2277
▁platil	-11.2279
▁vytvořila	-11.2279
▁ekologický	-11.228
▁zvýšily	-11.2286
▁obecný	-11.2286
▁studenty	-11.2288
▁zdát	-11.2288
▁rozpočtové	-11.2292
▁menu	-11.2295
▁přírodního	-11.2295
▁narazil	-11.2302
DOS	-11.2303
▁strávil	-11.2304
▁zkresl	-11.2304
otisk	-11.2311
▁Host	-11.2311
▁černý	-11.2316
▁dav	-11.2318
▁průběžn	-11.2318
▁ranní	-11.2319
▁výhodu	-11.2325
příkladu	-11.2326
▁překvap	-11.2329
▁úpravu	-11.233
▁muselo	-11.233
▁klíčový	-11.2331
▁Volb	-11.2336
▁záměry	-11.2338
26	-11.2342
▁známá	-11.2352
▁zvon	-11.2352
plynul	-11.2352
▁sestavy	-11.2355
▁krále	-11.2356
▁ředitelem	-11.2357
▁zmíněn	-11.2367
▁Spart	-11.237
▁přesvědč	-11.238
lic	-11.239
▁43	-11.2399
▁objevili	-11.24
přijeli	-11.24
▁přesvědčiv	-11.2402
▁významným	-11.2405
schopné	-11.2405
▁snadné	-11.2407
▁přehledu	-11.2408
▁horské	-11.2418
hrává	-11.2419
wan	-11.242
ářství	-11.2421
▁procesy	-11.2422
▁výměnu	-11.2429
míněn	-11.2431
▁závody	-11.244
▁260	-11.2441
▁znalost	-11.2447
▁projevy	-11.2455
▁stadión	-11.2456
▁okruh	-11.2456
▁setká	-11.2459
▁výtvarné	-11.2465
SM	-11.2467
▁aktivitu	-11.2468
▁volí	-11.2472
▁přehlídk	-11.2479
▁plocha	-11.248
▁garant	-11.2481
▁měří	-11.2482
▁Mac	-11.2486
▁volebním	-11.2492
ENÍ	-11.2496
▁konkrétních	-11.25
▁Ann	-11.2501
▁úředník	-11.2501
▁výstavb	-11.2506
▁zub	-11.2507
▁Výrob	-11.2512
▁uzná	-11.2517
▁stíhán	-11.2517
SP	-11.252
▁převážn	-11.2529
▁velkoobchod	-11.2531
zývají	-11.2537
▁přesahuj	-11.2538
pořádat	-11.2538
▁uprchl	-11.2559
▁Manažer	-11.2559
▁obličej	-11.2559
FIFA	-11.2559
▁1982	-11.2559
▁Budějovic	-11.2559
▁Dienstbier	-11.2559
▁Dosavadní	-11.2559
▁Fischer	-11.2559
▁Kongres	-11.2559
▁Siemens	-11.2559
▁Skupina	-11.2559
▁Těžko	-11.2559
▁byrokrat	-11.2559
▁design	-11.2559
▁družstvo	-11.2559
▁družstvu	-11.2559
▁geometrii	-11.2559
▁inflaci	-11.2559
▁naznačuje	-11.2559
▁neuspěl	-11.2559
▁normálně	-11.2559
▁označován	-11.2559
▁regenerace	-11.2559
▁rekonstrukce	-11.2559
▁rozšiřuje	-11.2559
▁rámečku	-11.2559
▁seznámit	-11.2559
▁skupenství	-11.2559
▁službě	-11.2559
▁strategické	-11.2559
▁transformační	-11.2559
▁zajistí	-11.2559
▁zúčastnit	-11.2559
▁Štědrý	-11.2559
připravoval	-11.2559
▁Poldi	-11.2559
▁biskup	-11.2559
▁dodávek	-11.2559
▁přiznává	-11.2559
▁shodují	-11.2559
▁stránku	-11.2559
▁Červen	-11.2559
▁čistíren	-11.2559
▁neomezen	-11.2559
▁vstupenek	-11.2559
▁zákrok	-11.2559
▁Armád	-11.2559
▁Dušan	-11.2559
▁vládnoucí	-11.2559
▁informován	-11.2559
▁posléze	-11.2559
▁velvyslanectví	-11.2559
▁Náklady	-11.2559
▁usiluje	-11.2559
▁uznat	-11.2559
▁žádat	-11.2559
▁konstrukcí	-11.2559
▁nabídkou	-11.2559
▁skromn	-11.2559
▁vazeb	-11.2559
▁Bavor	-11.2559
▁zastánc	-11.2559
▁jindy	-11.2559
▁udržova	-11.2559
▁Manžel	-11.2559
▁vazba	-11.2559
▁Otevř	-11.256
▁Varech	-11.256
▁tribunál	-11.256
▁salát	-11.256
▁leckd	-11.256
▁hrůz	-11.256
▁spoléha	-11.256
▁senátní	-11.256
▁přejít	-11.256
▁Projekt	-11.256
▁nepotřebuje	-11.256
▁náhlé	-11.256
▁nabídne	-11.256
▁vystupuj	-11.256
▁duševní	-11.256
▁směřuje	-11.2561
▁rozmístěn	-11.2561
▁Rozhodnutí	-11.2561
▁Oprav	-11.2561
▁Slavia	-11.2561
krácen	-11.2561
▁chuť	-11.2561
▁integrace	-11.2561
▁chaos	-11.2561
▁nesporn	-11.2562
▁regulační	-11.2562
▁kated	-11.2562
▁nejsem	-11.2562
▁ohně	-11.2563
▁Bělohradský	-11.2563
střelen	-11.2563
▁Nadace	-11.2564
▁podrobnosti	-11.2566
allye	-11.2566
blížení	-11.2566
▁nezákonn	-11.2567
▁turné	-11.2568
ckner	-11.2568
▁věrn	-11.2568
▁Závod	-11.2568
▁tmav	-11.2569
▁kontrolovat	-11.2569
▁nedošlo	-11.257
▁neumí	-11.257
▁napaden	-11.2571
▁Milán	-11.2571
▁pozic	-11.2573
▁středisko	-11.2573
▁strop	-11.2573
▁památek	-11.2575
▁svatb	-11.2576
▁slunce	-11.2577
▁sedimentů	-11.2578
▁kdykoliv	-11.2578
▁atmosféra	-11.2578
Přerov	-11.2579
▁šedesátých	-11.2579
▁faktory	-11.258
▁souhlasit	-11.258
▁sedmdesátých	-11.2582
▁kůže	-11.2582
off	-11.2582
▁světeln	-11.2582
▁zaslouží	-11.2583
▁pravděpodobné	-11.2583
▁upozornění	-11.2584
▁Kolek	-11.2586
▁prodejem	-11.2586
▁pěkně	-11.2589
▁automat	-11.259
▁trvající	-11.259
▁středisku	-11.2591
▁zbytky	-11.2592
tažení	-11.2592
▁plná	-11.2602
▁37	-11.2603
▁Clintonov	-11.2604
objednáv	-11.2606
▁datové	-11.2606
▁matka	-11.2606
▁středo	-11.2607
▁Los	-11.2607
▁dostaneme	-11.2608
▁Váš	-11.261
▁značná	-11.2615
▁univerzitě	-11.2618
▁zatčen	-11.262
▁olympiádě	-11.262
▁uživatelé	-11.2621
▁dokázat	-11.2622
kurzor	-11.2623
▁Car	-11.2624
▁moři	-11.2625
▁zveřejnění	-11.2625
▁luxusní	-11.2626
▁Děl	-11.2627
▁počátk	-11.2627
▁závažný	-11.2632
▁sféry	-11.2633
▁násiln	-11.2636
▁interní	-11.2636
▁dotazník	-11.2636
▁literatury	-11.2637
▁závažné	-11.2637
▁armádu	-11.2638
▁švédské	-11.264
▁tlakem	-11.2642
▁dividendy	-11.2644
▁rozhovorů	-11.2645
pravují	-11.2647
▁mise	-11.2647
▁zničení	-11.2648
▁svěřenc	-11.265
▁zuby	-11.2651
▁nějakém	-11.2653
▁slibuje	-11.2654
▁spojit	-11.2656
▁postupovat	-11.2657
▁zásadě	-11.2657
▁záruky	-11.266
dělat	-11.2662
▁zodpovědnost	-11.2667
▁přizpůsob	-11.2667
▁spojů	-11.2667
DU	-11.2672
▁nešlo	-11.2676
▁podnikatelsk	-11.2677
▁způsobů	-11.2679
▁ducha	-11.268
▁mateřské	-11.2681
▁Asie	-11.2684
▁jednal	-11.2686
▁činů	-11.2689
▁alkoholu	-11.2689
▁městského	-11.2689
▁silným	-11.269
▁Bulharsk	-11.2695
▁Změny	-11.2698
▁Fotbalist	-11.2698
▁metodou	-11.2699
▁Své	-11.2699
▁Lékaři	-11.2699
▁popisuje	-11.2703
▁pojistného	-11.2704
potřebě	-11.2705
▁samy	-11.2706
▁obory	-11.2708
▁doklady	-11.271
▁fyzika	-11.271
▁argumenty	-11.2713
▁olympiády	-11.2717
▁výstavní	-11.2718
▁závěrečném	-11.272
▁příslušného	-11.272
například	-11.272
▁smluv	-11.2724
▁nutnosti	-11.2726
▁prohráli	-11.2727
▁klienty	-11.2728
▁stopy	-11.2728
▁fotbalista	-11.273
▁Čtyři	-11.2733
▁nastala	-11.2733
hodinové	-11.2736
▁úspěchem	-11.2736
▁příspěvku	-11.2739
▁Dub	-11.274
▁nebezpečný	-11.274
ejít	-11.2742
▁spojuje	-11.2747
▁daních	-11.2747
▁zní	-11.2755
▁brněnsk	-11.2756
▁Poslanec	-11.2764
▁pacienti	-11.277
▁republikou	-11.277
▁podepsali	-11.2777
▁Konce	-11.2779
který	-11.278
▁koordin	-11.2784
▁slovem	-11.2786
▁pout	-11.2791
▁Las	-11.2795
▁minutě	-11.2803
▁zahájením	-11.2805
▁Tisk	-11.2812
▁ekonomického	-11.2813
▁ČT	-11.2818
▁tělesné	-11.2823
▁Nemoh	-11.2826
▁získaný	-11.2826
biologick	-11.2828
▁výnosy	-11.2828
▁proudu	-11.2829
▁urychl	-11.284
▁mozkov	-11.2843
▁hydro	-11.2845
▁návrhem	-11.2846
▁Con	-11.2849
▁Rok	-11.2849
▁hračk	-11.289
▁důkladn	-11.2894
▁900	-11.2895
hrají	-11.2899
▁prestiž	-11.2901
▁důvěry	-11.2905
kreslen	-11.2908
▁vašem	-11.291
▁Vaše	-11.2919
▁jinému	-11.2921
▁klíčové	-11.2926
▁nemocnic	-11.293
▁nasazen	-11.2931
▁pěkn	-11.2932
▁Washington	-11.2933
NC	-11.2936
teče	-11.2939
▁kouř	-11.294
▁slun	-11.2941
▁takovému	-11.2943
▁sektor	-11.2944
▁pouč	-11.2945
▁Karadžiče	-11.2946
▁Tomu	-11.2947
▁zničen	-11.2947
▁Stal	-11.295
ářských	-11.2952
▁literatur	-11.2955
▁schůzk	-11.2955
▁kout	-11.2958
▁užívá	-11.2966
▁nemohla	-11.2969
▁známým	-11.2977
hodná	-11.2978
atmosfér	-11.2984
▁oceněn	-11.2992
▁náročný	-11.3001
▁podlehl	-11.3002
▁samostatn	-11.3002
tivnější	-11.3003
▁nepřízniv	-11.3014
▁Jir	-11.3015
šetří	-11.3018
▁ulic	-11.3023
▁manažerské	-11.3024
nejvýš	-11.3028
▁závodník	-11.3029
ifikace	-11.3032
▁organizáto	-11.3035
nutil	-11.3035
▁Zálež	-11.3035
▁Blízké	-11.3035
▁Gabčíkov	-11.3035
▁Jindřich	-11.3035
▁Kreslení	-11.3035
▁Předpokládá	-11.3035
▁aplikaci	-11.3035
▁důležitou	-11.3035
▁filharmoni	-11.3035
▁kanalizace	-11.3035
▁kariéru	-11.3035
▁komunistů	-11.3035
▁konkurent	-11.3035
▁neexistují	-11.3035
▁nepřítel	-11.3035
▁ovlivnit	-11.3035
▁podmínkám	-11.3035
▁popularit	-11.3035
▁přirozeně	-11.3035
▁referenda	-11.3035
▁snižovat	-11.3035
▁svědky	-11.3035
▁vynález	-11.3035
▁výpovědi	-11.3035
▁zneužití	-11.3035
▁zázrak	-11.3035
atlantick	-11.3035
▁Michail	-11.3035
▁lehké	-11.3035
▁předpokládal	-11.3035
▁ubytovací	-11.3035
▁fosilní	-11.3035
▁kontrakt	-11.3035
▁obrátit	-11.3035
▁paralel	-11.3035
▁pomůck	-11.3035
▁přivezl	-11.3035
▁rubrik	-11.3035
zřídka	-11.3035
▁stupeň	-11.3035
▁etapě	-11.3035
▁jedinců	-11.3035
▁zvyšují	-11.3035
▁nezmění	-11.3035
▁Atlantiku	-11.3035
▁klobouk	-11.3035
▁povahy	-11.3035
▁československý	-11.3035
▁přírodu	-11.3036
▁antropologie	-11.3036
▁válku	-11.3036
▁Dynam	-11.3036
▁Trans	-11.3036
▁talent	-11.3036
▁budoucna	-11.3036
imochodem	-11.3036
▁zbaven	-11.3036
▁češtině	-11.3036
▁týče	-11.3036
hlíží	-11.3036
▁administrativní	-11.3036
▁výtečn	-11.3036
▁přídav	-11.3036
▁Karpov	-11.3036
▁politicky	-11.3036
▁Boyle	-11.3036
▁zkrátka	-11.3036
▁smečky	-11.3036
▁Lendl	-11.3036
▁obzor	-11.3036
▁image	-11.3036
▁kombinace	-11.3036
▁mzda	-11.3036
▁chybět	-11.3036
▁vyšla	-11.3036
▁Španělska	-11.3036
▁vytížen	-11.3036
▁hokejisté	-11.3037
▁stavět	-11.3037
▁rumunsk	-11.3037
▁kritický	-11.3037
▁staletí	-11.3037
▁distributor	-11.3037
▁vyráběn	-11.3038
▁Středisk	-11.3038
▁poražen	-11.3038
▁nálad	-11.3038
▁Zdeňk	-11.3038
▁dostupné	-11.3038
▁rozprav	-11.3038
▁dívat	-11.3039
▁Říman	-11.3039
▁popř	-11.3039
▁prapor	-11.3039
▁arabské	-11.3039
krývají	-11.3039
▁nohou	-11.3039
▁Intel	-11.3039
▁Optima	-11.3039
▁1980	-11.3039
▁ocenil	-11.3039
▁psů	-11.304
▁nezbývá	-11.304
▁příjezd	-11.304
▁liberální	-11.3041
▁plnit	-11.3041
▁Minul	-11.3041
▁převah	-11.3041
▁příznivců	-11.3041
▁solidní	-11.3041
▁jídla	-11.3042
▁2,5	-11.3042
▁Maďarsko	-11.3042
▁setkáváme	-11.3042
▁JAK	-11.3043
následoval	-11.3043
▁Spolu	-11.3043
▁ligový	-11.3044
▁Říká	-11.3044
▁Příští	-11.3044
kcionáři	-11.3045
▁Peck	-11.3046
▁arabský	-11.3046
▁znečištění	-11.3047
rovnávací	-11.3048
▁oken	-11.3048
▁Pokus	-11.3048
bydlí	-11.3048
abilní	-11.3048
važoval	-11.3049
▁Form	-11.3049
▁Konec	-11.3049
▁varování	-11.3051
▁vyměnit	-11.3051
▁ráj	-11.3051
▁Škol	-11.3052
▁sáze	-11.3052
▁nápln	-11.3053
▁ohni	-11.3053
▁osnov	-11.3053
▁převést	-11.3053
▁tabu	-11.3054
▁matky	-11.3054
▁induk	-11.3055
sadit	-11.3055
▁dokončen	-11.3056
▁vítr	-11.3056
▁uzavřena	-11.3056
kazil	-11.3056
▁výraznější	-11.3056
▁EU	-11.3056
▁vojáky	-11.3057
▁Krist	-11.3058
▁stád	-11.3058
▁kroků	-11.3059
zřetelně	-11.3063
▁Vesmíru	-11.3064
▁uznávan	-11.3066
▁vybudování	-11.3067
▁pohřeb	-11.3069
▁uvolnění	-11.307
▁zvládnout	-11.3071
▁polární	-11.3073
▁podoba	-11.3074
▁stavba	-11.3075
▁hlasovat	-11.3075
▁vystoupí	-11.3076
▁kurt	-11.3077
▁genetick	-11.3078
▁vzdal	-11.3082
▁vyprš	-11.3082
přesněji	-11.3084
▁Belgii	-11.3086
▁Označ	-11.3086
konců	-11.3087
▁expertů	-11.3088
▁kořeny	-11.3089
▁tržby	-11.309
CO	-11.309
▁současným	-11.3091
▁knížky	-11.3093
▁částkou	-11.3093
▁zachován	-11.3099
▁starostí	-11.31
▁Slovák	-11.3102
▁průměrně	-11.3107
▁Hel	-11.3107
▁registrac	-11.3109
▁kontinentu	-11.311
▁had	-11.3114
▁Med	-11.3118
▁extrémní	-11.3121
▁slyší	-11.3121
▁komet	-11.3122
▁volbou	-11.3123
▁úprava	-11.3126
68	-11.3128
▁kluk	-11.3129
danou	-11.3131
▁jakými	-11.3131
▁Aleš	-11.3137
jadern	-11.3137
▁vedly	-11.3137
▁majitelů	-11.3143
▁kapacitou	-11.3143
▁učení	-11.3144
álka	-11.3146
▁krevní	-11.3148
pracuje	-11.3148
▁náležit	-11.3149
▁Mor	-11.315
pomínají	-11.315
▁významně	-11.3152
niknout	-11.3155
AG	-11.3157
▁elektrický	-11.3159
dél	-11.316
▁svalov	-11.3164
▁subjektů	-11.3164
okres	-11.3168
▁zobrazen	-11.3169
▁kanálů	-11.3169
▁bon	-11.317
▁prestižní	-11.3172
▁Ekonomick	-11.3173
▁obchodě	-11.3175
can	-11.3176
▁čistě	-11.3179
▁vytvořili	-11.3179
▁Voda	-11.318
▁obhájce	-11.318
▁německým	-11.3182
▁propadl	-11.3183
▁veškerý	-11.3184
▁uchazečů	-11.3186
▁1500	-11.3188
▁nemocí	-11.3189
▁krav	-11.319
žívání	-11.3197
▁komentář	-11.3198
▁úseku	-11.3202
▁krvi	-11.3205
▁tvary	-11.3206
▁Prac	-11.3207
93	-11.321
▁adapt	-11.3213
umět	-11.3216
▁detailní	-11.3221
▁přijali	-11.3222
▁turnaji	-11.3223
▁vzpomín	-11.3231
řejmě	-11.3231
▁elektronické	-11.3232
▁převlád	-11.3234
▁mechaniku	-11.3235
▁právem	-11.3235
dvacetiletý	-11.3235
▁dějiny	-11.3235
▁archeolog	-11.3236
vláda	-11.3242
▁play	-11.3243
bund	-11.3244
▁krajní	-11.3245
▁Věr	-11.3246
▁Žádn	-11.3248
▁krásné	-11.3248
▁tenisové	-11.3256
▁ztratila	-11.3263
▁nezná	-11.3276
NS	-11.3276
▁relativní	-11.3278
▁maďarské	-11.3282
▁italsk	-11.3283
▁vydala	-11.329
▁okraji	-11.3292
UJE	-11.3296
▁technologický	-11.3301
místo	-11.3302
tvrdí	-11.3305
▁vítězů	-11.3325
▁odběratelů	-11.3326
▁obyčejný	-11.333
▁manažerů	-11.3335
▁ráz	-11.3339
▁mak	-11.3344
▁zabit	-11.3344
▁jugoslávsk	-11.3345
45	-11.3354
▁biolog	-11.3357
členné	-11.3362
▁automobilový	-11.3371
▁Min	-11.3373
▁elektronický	-11.3373
▁kuponov	-11.3386
▁125	-11.3386
▁krátk	-11.3389
▁hotové	-11.3396
▁Pražsk	-11.3404
▁uspořádal	-11.3407
▁zadní	-11.3408
RS	-11.3418
▁organick	-11.342
likvid	-11.343
▁vodě	-11.3433
▁týkají	-11.3435
▁Svaz	-11.3436
tivně	-11.3447
▁totemismu	-11.3448
▁smrtí	-11.3455
▁sfér	-11.3455
▁předání	-11.3458
▁japon	-11.3462
▁atomové	-11.3466
▁Fil	-11.3466
▁záznamové	-11.3471
▁Chorvat	-11.3473
▁terorist	-11.3477
▁odpovídají	-11.3478
▁řešen	-11.3482
hradit	-11.3488
▁oddělen	-11.3488
▁komunismu	-11.3499
▁svobodný	-11.3499
▁zřízen	-11.35
▁předpis	-11.3505
▁Masarykov	-11.3513
▁brzd	-11.3515
▁norma	-11.3516
▁náhle	-11.3521
▁Závěr	-11.3523
22	-11.3524
▁identifik	-11.3526
▁Bosn	-11.3528
olicejní	-11.3533
▁Plán	-11.3533
▁obdiv	-11.3535
▁konzerv	-11.3535
▁Bohemia	-11.3535
▁uskutečň	-11.3535
neštěstí	-11.3535
peptid	-11.3535
▁Boleslav	-11.3535
▁Doufám	-11.3535
▁HGF	-11.3535
▁Pojišťovna	-11.3535
▁PŘED	-11.3535
▁Výsledek	-11.3535
▁Wembley	-11.3535
▁anonymní	-11.3535
▁cizinců	-11.3535
▁definovat	-11.3535
▁dvojnásobek	-11.3535
▁dětmi	-11.3535
▁evidenci	-11.3535
▁humanitární	-11.3535
▁intenzivně	-11.3535
▁komfort	-11.3535
▁kriminál	-11.3535
▁království	-11.3535
▁lhůty	-11.3535
▁nabídnut	-11.3535
▁neúspěch	-11.3535
▁otázkách	-11.3535
▁ošetření	-11.3535
▁počáteční	-11.3535
▁připomenout	-11.3535
▁revoluce	-11.3535
▁strategický	-11.3535
▁tvůrčí	-11.3535
▁týdnu	-11.3535
▁uhličitého	-11.3535
▁upozorňují	-11.3535
▁užitečné	-11.3535
▁veřejnou	-11.3535
▁výrobku	-11.3535
▁zajistil	-11.3535
▁zdravotně	-11.3535
▁zloděj	-11.3535
▁zvyšovat	-11.3535
▁zážitek	-11.3535
▁Poborského	-11.3535
▁Strakoni	-11.3535
▁ostravské	-11.3535
▁sankce	-11.3535
▁sportovci	-11.3535
▁řekněme	-11.3535
▁Havlov	-11.3535
▁LDS	-11.3535
▁Výjimk	-11.3535
▁umístit	-11.3535
▁skener	-11.3535
▁souprav	-11.3535
▁série	-11.3535
▁Mostaru	-11.3535
▁pátý	-11.3535
▁sleduje	-11.3535
▁Nobelov	-11.3535
▁krystal	-11.3535
▁mobilní	-11.3535
▁naprosté	-11.3535
▁opačný	-11.3535
▁srpnu	-11.3535
pomáhal	-11.3535
▁potravy	-11.3535
▁projednávání	-11.3535
▁zhoubn	-11.3535
▁MHz	-11.3535
▁komisí	-11.3535
▁nepatří	-11.3535
▁centrem	-11.3536
▁kompost	-11.3536
▁Názor	-11.3536
▁odevzda	-11.3536
▁stačit	-11.3536
skočit	-11.3536
▁Komora	-11.3536
▁chemie	-11.3536
▁pozemků	-11.3536
▁stěžují	-11.3536
▁národnostní	-11.3536
▁minimum	-11.3536
▁rozvinut	-11.3536
▁letišti	-11.3536
▁sehnat	-11.3536
▁veličin	-11.3536
▁Ústí	-11.3536
▁konzervativní	-11.3536
▁Počítá	-11.3536
▁Úprav	-11.3536
▁Prahu	-11.3536
▁shluk	-11.3536
▁obnovit	-11.3536
▁vyhověl	-11.3536
▁obránce	-11.3536
▁turisté	-11.3536
▁modernizaci	-11.3536
▁promítá	-11.3536
▁nebrání	-11.3536
▁kostým	-11.3536
▁proběhla	-11.3536
▁remíz	-11.3536
▁Filip	-11.3536
▁román	-11.3536
▁vykonávat	-11.3537
▁karet	-11.3537
▁podobnost	-11.3537
vážet	-11.3537
▁azyl	-11.3537
▁emise	-11.3538
▁pilot	-11.3538
▁realizaci	-11.3538
▁převzetí	-11.3538
▁zaslal	-11.3538
▁podoby	-11.3538
▁diskusí	-11.3538
▁moudr	-11.3538
▁cítit	-11.3539
bývalo	-11.3539
▁experimentální	-11.3539
ford	-11.3539
▁1948	-11.354
▁chrání	-11.354
▁Mistr	-11.354
▁dovoluje	-11.354
▁videa	-11.3541
▁potřebovat	-11.3541
▁léčení	-11.3541
▁Chang	-11.3541
▁půjčky	-11.3541
▁vylepš	-11.3542
▁dárk	-11.3543
▁budování	-11.3543
▁očima	-11.3544
▁odmítnut	-11.3545
▁Klepn	-11.3545
▁nádob	-11.3546
▁volit	-11.3547
▁bát	-11.3548
určují	-11.3548
▁rozdělit	-11.3549
▁tabulku	-11.3549
▁přestane	-11.3549
▁dovolí	-11.3549
▁podruhé	-11.3549
▁Vzá	-11.3549
▁Ukázal	-11.3549
▁Stan	-11.355
▁obává	-11.3551
▁nahoru	-11.3552
▁formulář	-11.3553
▁oblib	-11.3554
▁ušetří	-11.3554
▁atmosféru	-11.3554
slovní	-11.3554
▁prosím	-11.3556
pravit	-11.3557
rychlostní	-11.3557
▁hromadné	-11.3558
▁nechci	-11.3559
▁venku	-11.3559
▁Karlový	-11.356
▁zodpovědn	-11.3561
▁kolekc	-11.3564
▁jednotné	-11.3565
▁přerušen	-11.3566
▁hovořili	-11.3567
▁užitku	-11.3567
▁Důvodem	-11.3567
▁španělsk	-11.3568
▁přišly	-11.3569
▁vkus	-11.3571
▁vybere	-11.3572
▁technikou	-11.3572
▁láh	-11.3575
▁prostorách	-11.3576
▁prvek	-11.3578
▁vydělal	-11.358
▁Seznam	-11.3583
▁vycházet	-11.3585
▁pták	-11.3585
▁změnách	-11.3586
▁týmů	-11.3588
▁Smlouva	-11.3588
▁čelní	-11.359
▁architektury	-11.3592
▁vlastníkem	-11.3592
▁popsat	-11.3594
▁kontrolou	-11.36
▁pohotovost	-11.3601
▁semináře	-11.3603
▁Olomouce	-11.3603
▁diplomatické	-11.3608
▁prodejně	-11.3612
▁policisty	-11.3613
▁voliči	-11.3614
▁dělníků	-11.3615
▁ostrovů	-11.3615
▁způsobit	-11.3619
▁běže	-11.3624
▁plní	-11.3627
▁požadavkům	-11.3627
▁pracujících	-11.3629
▁stížnosti	-11.3639
▁technik	-11.3642
▁nevíme	-11.3642
▁Film	-11.3646
▁zadání	-11.3648
▁svazové	-11.3649
▁novinářům	-11.3651
▁rozhovory	-11.3652
▁vyhledá	-11.3653
▁izraelský	-11.3655
cestovat	-11.3656
▁POD	-11.3657
▁moravské	-11.3666
▁Koup	-11.3668
▁závěrečný	-11.367
▁klinick	-11.3675
erie	-11.368
jížděl	-11.3681
▁uvolnil	-11.3685
▁rozpadu	-11.3688
▁vstupuje	-11.369
▁bezpečně	-11.3691
▁rostliny	-11.3692
▁chirurg	-11.3693
▁potenciálu	-11.3697
▁opravě	-11.3699
▁rozhodlo	-11.3702
▁Tým	-11.3707
▁klubem	-11.3707
▁vzniklé	-11.3709
ohra	-11.3714
▁činila	-11.3729
▁novela	-11.3733
▁Večer	-11.3735
čkem	-11.3738
▁cenové	-11.3739
▁ucho	-11.3741
▁procesů	-11.3743
▁šťastn	-11.3744
oporu	-11.3746
▁udělali	-11.3746
hrával	-11.3747
▁ústavů	-11.3748
MF	-11.3757
▁komora	-11.3759
▁věřím	-11.3762
▁používan	-11.3764
▁140	-11.3766
▁lize	-11.3769
▁vycházel	-11.3772
▁úrokov	-11.3772
▁reklamní	-11.3774
▁Podstatn	-11.3777
▁tempo	-11.3777
▁soupeřů	-11.3778
▁proviz	-11.3782
▁stranick	-11.3782
▁horský	-11.3785
▁42	-11.3786
76	-11.3798
▁příslušnost	-11.3804
▁Japonsko	-11.3813
▁not	-11.3816
ždyť	-11.3822
sazování	-11.3844
▁obranné	-11.3856
▁kovy	-11.3856
▁Kup	-11.386
▁Lig	-11.3866
pouštějí	-11.3866
▁Barn	-11.3875
▁Hal	-11.3879
izraelsk	-11.3884
▁tvůrce	-11.3885
▁policist	-11.3887
zie	-11.3891
▁zved	-11.3892
▁Řekl	-11.3892
morav	-11.3893
▁popsán	-11.3895
▁tuzemsk	-11.3898
▁šíří	-11.3902
▁kapr	-11.3908
svit	-11.3909
▁volič	-11.391
▁Turist	-11.3916
mohou	-11.3918
ohledně	-11.392
▁soupeři	-11.392
▁nejedn	-11.3928
demokratick	-11.3937
▁domácnost	-11.3945
ong	-11.3945
▁slabý	-11.3952
▁stříbrné	-11.3952
▁využit	-11.3957
▁šampionát	-11.396
atřicet	-11.3964
▁požadavků	-11.3966
▁vyžadují	-11.3969
▁věčn	-11.3975
▁těle	-11.3976
▁zemědělsk	-11.3977
▁účinnost	-11.398
▁zněl	-11.3981
▁následk	-11.3981
▁56	-11.3983
▁jakkoli	-11.3985
▁veřejný	-11.3989
▁spolupracovník	-11.3993
projevilo	-11.3999
▁integrovan	-11.4
▁psycho	-11.4003
▁jednoznačný	-11.4007
▁aneb	-11.4007
▁lázeňsk	-11.4026
alternativ	-11.4027
▁Důvod	-11.4028
0.000	-11.4029
▁povolen	-11.4031
▁výpočet	-11.4039
▁stanovené	-11.4049
▁Maďar	-11.4052
▁navazuj	-11.4054
▁přísně	-11.4058
pomeňme	-11.4058
▁Elektr	-11.4061
▁Weizs	-11.4062
sekretariát	-11.4062
zrcadl	-11.4062
▁Antonín	-11.4062
▁Bayern	-11.4062
▁Benešov	-11.4062
▁Dvořák	-11.4062
▁Jednotliv	-11.4062
▁Lubomír	-11.4062
▁Náměst	-11.4062
▁Sarajev	-11.4062
▁Schneider	-11.4062
▁bratislavsk	-11.4062
▁cizinci	-11.4062
▁cizině	-11.4062
▁deklarace	-11.4062
▁informovat	-11.4062
▁institut	-11.4062
▁kancléř	-11.4062
▁kmitočt	-11.4062
▁komunisté	-11.4062
▁lékáren	-11.4062
▁medailí	-11.4062
▁ministerstev	-11.4062
▁nejsilnější	-11.4062
▁nemožné	-11.4062
▁nečekaně	-11.4062
▁opozici	-11.4062
▁oslaben	-11.4062
▁oživení	-11.4062
▁portfoli	-11.4062
▁posouzení	-11.4062
▁princezn	-11.4062
▁přeháňky	-11.4062
▁redakci	-11.4062
▁restituční	-11.4062
▁skript	-11.4062
▁spánku	-11.4062
▁struktuře	-11.4062
▁tabulátor	-11.4062
▁tiskárna	-11.4062
▁univerzáln	-11.4062
▁uspokojení	-11.4062
▁vyloučit	-11.4062
▁zúčastní	-11.4062
▁altruist	-11.4062
▁archív	-11.4062
▁nevznik	-11.4062
▁přidružen	-11.4062
▁stadia	-11.4062
▁výkyvy	-11.4062
▁zlepšit	-11.4062
instalovat	-11.4062
šetřil	-11.4062
▁minerální	-11.4062
▁stoupenc	-11.4062
▁svatební	-11.4062
▁zlepšil	-11.4062
▁Libanon	-11.4062
▁Mazdy	-11.4062
▁lístky	-11.4062
▁nahrazen	-11.4062
▁řemesl	-11.4062
▁preventivn	-11.4062
▁válkou	-11.4062
▁letadlo	-11.4062
▁porušil	-11.4062
▁ČSAV	-11.4062
▁kádru	-11.4062
▁ohrom	-11.4062
▁slalom	-11.4062
▁neuvažuj	-11.4062
▁doplnit	-11.4062
▁čáry	-11.4062
hlédl	-11.4062
▁ovládat	-11.4062
▁Polsku	-11.4062
▁zahájí	-11.4062
rozhodoval	-11.4062
▁Něco	-11.4062
▁licence	-11.4062
▁pozemky	-11.4062
▁jídlo	-11.4062
▁jedinci	-11.4062
▁jedinečn	-11.4062
▁penalt	-11.4062
▁vyrábějí	-11.4062
▁potrvá	-11.4062
▁odškodnění	-11.4062
▁účinný	-11.4062
▁tisíciletí	-11.4062
▁Odhad	-11.4062
▁dealer	-11.4062
▁užívat	-11.4062
štejn	-11.4062
▁umístil	-11.4062
▁veliká	-11.4062
pálil	-11.4062
▁nestalo	-11.4062
▁USD	-11.4062
▁Maastrichtu	-11.4062
▁kůži	-11.4063
▁návštěvníci	-11.4063
▁nebudu	-11.4063
▁žánr	-11.4063
▁novinář	-11.4063
▁hlášen	-11.4063
▁odvozen	-11.4063
▁Holub	-11.4063
▁Hlas	-11.4063
▁nemění	-11.4063
▁městečk	-11.4063
▁vracejí	-11.4063
▁dopředu	-11.4063
▁hornin	-11.4063
▁koncentrací	-11.4064
▁přečte	-11.4064
▁Krkonoších	-11.4064
▁setkat	-11.4064
▁Zásad	-11.4065
▁restaurací	-11.4065
▁dřevěný	-11.4065
▁východisk	-11.4065
přát	-11.4065
▁otřes	-11.4065
▁zakončen	-11.4066
▁zlata	-11.4066
▁dešťov	-11.4066
▁masa	-11.4066
▁ruchu	-11.4066
▁léčba	-11.4067
▁mikroorganismů	-11.4067
▁zasvěcen	-11.4067
▁Juli	-11.4067
▁řešil	-11.4068
▁jádra	-11.4068
▁chybějící	-11.4068
víz	-11.4069
▁odstín	-11.407
▁Nesmí	-11.407
▁přenesen	-11.4071
▁odmítnout	-11.4071
▁spokojenosti	-11.4072
▁realizovat	-11.4072
NSK	-11.4072
lákat	-11.4073
▁úkor	-11.4074
▁městská	-11.4075
▁absurdní	-11.4075
▁náročnější	-11.4075
▁rozhodnuto	-11.4075
▁stres	-11.4075
▁obrace	-11.4076
▁vydělat	-11.4076
▁tuzemských	-11.4077
▁záložník	-11.4077
▁Situace	-11.4079
▁SNS	-11.4079
▁základnu	-11.4082
▁postupů	-11.4083
▁hlavě	-11.4083
▁zkoušky	-11.4084
▁vidění	-11.4084
chůd	-11.4085
▁opakovat	-11.4086
▁uzávěr	-11.4086
▁vyšetřovací	-11.4087
▁bohatý	-11.4091
▁drát	-11.4091
▁kytarist	-11.4091
▁vykazuje	-11.4092
▁hostů	-11.4092
▁oceňuj	-11.4093
▁protokol	-11.4094
▁Byt	-11.4095
▁střelec	-11.4095
▁letoun	-11.4096
▁mírou	-11.4096
▁převeden	-11.4096
▁myslíte	-11.4097
▁kdybychom	-11.4098
▁linek	-11.4098
▁středně	-11.4099
▁počítají	-11.4099
▁víno	-11.4101
▁ukládat	-11.4102
▁právnick	-11.4102
▁odvolal	-11.4102
▁skvělé	-11.4105
▁Pel	-11.4108
▁řádek	-11.4108
▁závazků	-11.4109
▁vztahuje	-11.4113
ALI	-11.4114
▁Bójů	-11.4127
▁Hodn	-11.4127
▁potka	-11.4129
▁varoval	-11.4129
▁stačilo	-11.4131
▁hranicích	-11.4132
▁Chorvatsko	-11.4132
▁kartě	-11.4136
▁rodné	-11.4137
▁islámské	-11.4137
▁boku	-11.4139
▁různá	-11.414
▁pocházejí	-11.4144
▁terénu	-11.4144
▁vyplývající	-11.4149
▁družic	-11.4151
▁otce	-11.4154
▁SN	-11.4156
▁Japonska	-11.4158
▁nalezení	-11.4159
▁Kamp	-11.4162
▁Doba	-11.4164
▁nespokojenost	-11.4164
ÁNÍ	-11.4165
▁okresech	-11.4165
▁Husov	-11.4169
▁zájezdy	-11.4169
▁Slovinska	-11.417
tažením	-11.4174
▁partnerem	-11.4179
▁soch	-11.4181
▁účastníky	-11.4188
šený	-11.419
strašně	-11.4191
▁subjekty	-11.4195
▁politik	-11.4197
▁pevně	-11.4204
▁schémat	-11.4204
LED	-11.4205
▁genů	-11.4213
▁rána	-11.4215
▁reáln	-11.4222
nická	-11.4222
▁informovali	-11.4226
méno	-11.4229
▁91	-11.4241
▁jeskyn	-11.4243
▁př	-11.4244
▁členské	-11.4246
▁Světov	-11.4251
▁živý	-11.4263
▁hrubé	-11.4267
▁kvalitativn	-11.4271
bírat	-11.428
▁cílov	-11.4283
▁postižení	-11.4287
▁srovnatelné	-11.4297
▁testů	-11.4302
▁prezidentský	-11.4303
▁Král	-11.4307
▁magi	-11.4309
▁výtvarn	-11.4318
▁kapitálový	-11.4322
▁hlava	-11.4323
knout	-11.4324
OT	-11.4335
způsobují	-11.4367
▁válečné	-11.437
NU	-11.4373
▁cílů	-11.4379
▁Tip	-11.439
▁uskutečnil	-11.4402
7%	-11.441
▁křesťan	-11.4415
▁linka	-11.4417
▁lacin	-11.4433
▁srovnatelný	-11.4441
▁stromů	-11.4443
▁speciálně	-11.4452
krátko	-11.4465
▁poločase	-11.4471
▁závazk	-11.4487
▁všeobecn	-11.4487
jednán	-11.4494
▁stálé	-11.4504
▁Slovinsk	-11.4504
▁Atlant	-11.4506
▁odráž	-11.4509
▁teoretické	-11.4515
▁rozumné	-11.4516
▁účet	-11.4517
▁drahá	-11.452
▁zákoník	-11.453
▁úzké	-11.4536
▁Severoatlantick	-11.4537
▁Tenis	-11.4541
▁adresář	-11.4542
sáhnout	-11.4546
▁obdobný	-11.4546
▁přispíva	-11.4547
87	-11.4548
▁Potřeb	-11.4549
▁přítele	-11.4549
ázev	-11.4549
posled	-11.4561
▁Ostrav	-11.4561
▁komplet	-11.4562
▁věnuj	-11.4563
čínsk	-11.4565
▁trojic	-11.4569
▁pokračují	-11.4572
▁Rumunsk	-11.4573
▁umožňují	-11.4576
▁oblačno	-11.4576
▁Zemanov	-11.458
▁Dag	-11.4583
vrátit	-11.4584
jišťuje	-11.4585
koupí	-11.4585
▁dočasn	-11.4586
ČSSD	-11.4589
▁odjel	-11.4592
▁využije	-11.4595
především	-11.46
ring	-11.461
▁vníma	-11.4612
▁osmnácti	-11.4615
▁klasifik	-11.4615
ografii	-11.4616
▁Bezpečnost	-11.4617
▁Bierhoff	-11.4617
▁Evropou	-11.4617
▁Jupiter	-11.4617
▁Karadžic	-11.4617
▁Letošní	-11.4617
▁Litvínov	-11.4617
▁Madrid	-11.4617
▁Naštěstí	-11.4617
▁Olszewsk	-11.4617
▁Sněmovn	-11.4617
▁Softwar	-11.4617
▁burzy	-11.4617
▁celosvětov	-11.4617
▁chorvatský	-11.4617
▁dirigent	-11.4617
▁energií	-11.4617
▁imunitní	-11.4617
▁incident	-11.4617
▁kandidovat	-11.4617
▁kontext	-11.4617
▁krátkodobé	-11.4617
▁laboratorní	-11.4617
▁leccos	-11.4617
▁londýn	-11.4617
▁neexistoval	-11.4617
▁následovat	-11.4617
▁opozicí	-11.4617
▁poskytne	-11.4617
▁premiéře	-11.4617
▁prezervativ	-11.4617
▁prokuratur	-11.4617
▁překážky	-11.4617
▁restitucí	-11.4617
▁seriózní	-11.4617
▁stability	-11.4617
▁televizor	-11.4617
▁totalitní	-11.4617
▁viceprezident	-11.4617
▁vzdělávání	-11.4617
▁výkres	-11.4617
▁zakázán	-11.4617
▁zdůvodnil	-11.4617
▁záleže	-11.4617
▁závislá	-11.4617
▁Úspěšn	-11.4617
▁úspěšnost	-11.4617
▁Čtvrt	-11.4617
škráb	-11.4617
▁Jackson	-11.4617
▁Město	-11.4617
▁Stehlík	-11.4617
▁Ukrajina	-11.4617
▁arcibiskup	-11.4617
▁dostatečné	-11.4617
▁nahrávk	-11.4617
▁nešťastn	-11.4617
▁odlišné	-11.4617
▁ozónu	-11.4617
▁podotkl	-11.4617
▁preferenc	-11.4617
▁socialismu	-11.4617
▁tendenci	-11.4617
▁učebnic	-11.4617
▁výrobou	-11.4617
▁výslovně	-11.4617
▁získají	-11.4617
▁Moderní	-11.4617
▁Podívej	-11.4617
▁kapitul	-11.4617
▁náleží	-11.4617
▁Pražan	-11.4617
▁filtr	-11.4617
▁mrtvé	-11.4617
▁porušování	-11.4617
▁těžší	-11.4617
▁zachránil	-11.4617
▁znamení	-11.4617
▁Kopřiv	-11.4617
▁vyměnil	-11.4617
▁vyžádá	-11.4617
▁zemědělci	-11.4617
▁Mandler	-11.4617
▁laserov	-11.4617
burgu	-11.4617
▁Dukly	-11.4617
▁MIDI	-11.4617
▁abeced	-11.4617
▁herečka	-11.4617
▁Island	-11.4617
▁chápán	-11.4617
▁živnostenský	-11.4617
▁Obvodní	-11.4617
▁položku	-11.4617
▁profese	-11.4617
▁hrozil	-11.4617
▁nutná	-11.4617
▁příroda	-11.4617
▁naučit	-11.4617
▁ČSAD	-11.4617
▁Atleti	-11.4617
▁charitativní	-11.4617
▁druzí	-11.4617
▁Vojenské	-11.4618
▁zajímal	-11.4618
▁výlučn	-11.4618
▁Dlouho	-11.4618
▁necelé	-11.4618
▁stěží	-11.4618
▁Hapal	-11.4618
▁kubismu	-11.4618
▁Maďarska	-11.4618
▁uplatňova	-11.4618
▁převažuj	-11.4618
▁Akci	-11.4618
▁vystupoval	-11.4618
▁mýtu	-11.4618
▁frakc	-11.4618
▁proměnliv	-11.4619
▁zvrat	-11.4619
▁diváci	-11.4619
▁vyjít	-11.4619
▁koncentraci	-11.4619
▁přečetl	-11.4619
sudek	-11.4619
▁provozovat	-11.4619
▁Berger	-11.4619
▁Soutěž	-11.4619
▁osmnáct	-11.462
▁utajen	-11.462
▁kopané	-11.462
▁kresb	-11.462
▁Obyvatel	-11.462
▁Syn	-11.4621
▁obvinil	-11.4621
▁studené	-11.4621
▁kláštera	-11.4621
▁tvorba	-11.4622
▁česky	-11.4622
▁nesměl	-11.4622
▁cítil	-11.4622
▁rozumět	-11.4623
háněl	-11.4623
píší	-11.4623
▁loď	-11.4624
▁Příklad	-11.4624
▁balení	-11.4625
natý	-11.4625
▁duši	-11.4626
▁kámen	-11.4626
▁úder	-11.4627
▁publikace	-11.4627
▁sovětský	-11.4628
▁síni	-11.4628
▁1950	-11.4628
▁přidělen	-11.4629
▁Politick	-11.4629
▁obsáhl	-11.463
▁očích	-11.463
▁potvrzují	-11.463
▁bohaté	-11.463
týž	-11.463
▁prázdninách	-11.463
▁zvyklí	-11.463
▁obdrží	-11.463
▁nemocného	-11.4631
▁vzorků	-11.4631
▁utekl	-11.4632
▁expozice	-11.4633
▁plot	-11.4633
▁sbírky	-11.4633
poškozené	-11.4634
▁ČESK	-11.4634
▁dostupný	-11.4635
▁vznikne	-11.4635
▁trůn	-11.4635
▁písma	-11.4636
▁připravují	-11.4637
ůstek	-11.4637
▁vysílání	-11.4637
▁alternativní	-11.4639
▁chápe	-11.464
▁zanikl	-11.4641
▁Masaryk	-11.4643
▁Alma	-11.4643
účtování	-11.4645
▁slavného	-11.4646
▁drobných	-11.4646
▁Potvrdil	-11.4647
▁Švýcarska	-11.4647
▁osobám	-11.4649
▁přihlásil	-11.465
▁zasáhnout	-11.4651
nechávají	-11.4651
▁vyrovnání	-11.4652
třeba	-11.4653
▁překvapiv	-11.4653
▁náhodně	-11.4654
▁zvukových	-11.4656
▁politikou	-11.4656
▁dobro	-11.4656
▁měnil	-11.4657
dávky	-11.4658
▁infekce	-11.4658
▁kompletní	-11.4659
▁branku	-11.4659
ografické	-11.466
▁FC	-11.4661
▁Rumunsko	-11.4662
▁příslušníky	-11.4663
▁předsednictv	-11.4663
▁mistrovsk	-11.4664
tržení	-11.4664
▁potřebujete	-11.4666
▁čaj	-11.4666
▁důstojník	-11.4668
▁zbytku	-11.4669
▁uplatňují	-11.4669
▁sídla	-11.4672
▁psaní	-11.4673
▁izraelské	-11.4674
▁prezidentovi	-11.4676
▁zajímá	-11.4677
▁MOV	-11.4679
▁řádky	-11.4679
▁prodejna	-11.468
▁přerušení	-11.4683
ňovací	-11.4683
▁pravomocí	-11.4684
lezsk	-11.4685
▁výměník	-11.4686
▁Nejsem	-11.4686
▁77	-11.4688
▁částečn	-11.469
▁zajímavá	-11.469
▁pětadvacet	-11.4694
dána	-11.4694
▁hradě	-11.4696
▁momentáln	-11.4697
▁léto	-11.47
▁odjezd	-11.47
▁spojených	-11.4705
▁sídlí	-11.4707
▁udává	-11.4711
▁sudetský	-11.4711
▁kraje	-11.4711
▁získávání	-11.4712
▁jmenoval	-11.4715
▁Řek	-11.4717
▁Tvrdí	-11.4718
▁dorazil	-11.4719
▁výhodou	-11.4719
ŽE	-11.4721
hořel	-11.4726
▁provozování	-11.4728
▁drav	-11.473
▁levné	-11.4731
▁uzavřené	-11.4732
▁zpracovat	-11.4732
▁armádní	-11.4732
▁Optic	-11.4733
▁stříbrn	-11.4734
▁rodině	-11.4735
▁poskytnutí	-11.4737
▁tiskový	-11.474
▁ověřen	-11.4743
▁dokonalé	-11.4743
▁životnost	-11.4746
▁soukromým	-11.4747
▁měnov	-11.4748
▁Baník	-11.4751
▁Geo	-11.4751
▁OK	-11.476
▁mořské	-11.476
▁přesvědčil	-11.4761
▁zdokonal	-11.4764
▁touh	-11.4764
▁Alp	-11.4765
▁nálož	-11.4768
ash	-11.4769
ařské	-11.4769
▁Buď	-11.4773
▁slovenský	-11.4786
▁nezískal	-11.4789
jednala	-11.4791
▁pivovarů	-11.4795
▁vyjadřují	-11.4795
▁pouh	-11.4797
▁tečk	-11.4798
▁230	-11.48
▁dosahují	-11.4801
▁Víme	-11.4806
▁zadržen	-11.4807
▁takzvané	-11.4809
ogenní	-11.4811
▁svobodn	-11.4815
▁odborů	-11.4816
▁čte	-11.4824
▁nábožensk	-11.4836
soudit	-11.4838
bytová	-11.4842
▁mozkové	-11.4849
▁Sport	-11.4858
VÁ	-11.4862
▁Jean	-11.4873
▁poměrů	-11.4876
padnout	-11.4877
▁faktur	-11.4879
▁Obsah	-11.488
placení	-11.4884
▁Občansk	-11.4884
▁obyčejné	-11.4886
▁lidový	-11.4891
▁předčasné	-11.4893
▁výživ	-11.4896
▁zdravý	-11.4898
tlačit	-11.4903
▁proměnil	-11.4906
▁plánované	-11.4917
▁poradil	-11.4923
▁hlás	-11.4925
▁Švýcar	-11.4937
▁vesnic	-11.4954
▁čekání	-11.4955
▁link	-11.4956
▁klimatické	-11.4957
▁etický	-11.4959
OJ	-11.4962
▁počítačov	-11.4968
vezm	-11.4969
▁příbuzné	-11.4969
▁vyrovnaný	-11.4972
▁takzvaný	-11.4976
▁dávn	-11.4988
▁zavedl	-11.499
▁vycházejí	-11.4995
▁radní	-11.4997
▁očekávané	-11.5001
▁Carl	-11.5004
▁komentáře	-11.5007
▁vzkaz	-11.5012
izování	-11.5012
▁závažn	-11.5013
palestinsk	-11.5013
pozoruhodn	-11.5022
▁poledne	-11.5027
▁dospělé	-11.5035
tvořily	-11.5035
▁mladík	-11.5039
▁186	-11.5045
▁úměrn	-11.5049
▁letecký	-11.5061
▁tradic	-11.5069
▁chodil	-11.5071
jednali	-11.5073
▁Zákaz	-11.5076
▁vlastníků	-11.5076
▁hrub	-11.5084
▁radio	-11.5087
▁Ostravsk	-11.5095
▁bojoval	-11.51
▁kongres	-11.5102
▁vesmír	-11.5103
▁ponech	-11.5104
▁muzeu	-11.5112
▁vědec	-11.5124
pali	-11.513
▁pojistn	-11.5131
▁překvapen	-11.5133
▁jater	-11.5133
389	-11.5143
▁potvrzen	-11.5158
▁dělník	-11.5165
▁vykoná	-11.5168
▁omezené	-11.5174
▁Staré	-11.5175
▁náboženské	-11.5177
▁květ	-11.518
trpěl	-11.5188
▁srozumiteln	-11.5193
německou	-11.5197
vyjádřen	-11.5197
▁ztráce	-11.5201
▁klášte	-11.5201
▁Krkonoš	-11.5203
nešní	-11.5204
▁junio	-11.5204
▁Jugosláv	-11.5205
svobozen	-11.5205
doporučují	-11.5206
egyptsk	-11.5206
▁1981	-11.5206
▁Běloruska	-11.5206
▁Eduard	-11.5206
▁Jihoafrick	-11.5206
▁Manchester	-11.5206
▁Městě	-11.5206
▁Niederl	-11.5206
▁Pentium	-11.5206
▁Polskem	-11.5206
▁Pořadatel	-11.5206
▁Poštovní	-11.5206
▁Pravděpodobn	-11.5206
▁Rozhovor	-11.5206
▁Svorada	-11.5206
▁asteroid	-11.5206
▁displej	-11.5206
▁doprovázen	-11.5206
▁ekvivalent	-11.5206
▁generaci	-11.5206
▁gramotnost	-11.5206
▁hřbitov	-11.5206
▁instance	-11.5206
▁inzerát	-11.5206
▁konfiguraci	-11.5206
▁kooperac	-11.5206
▁mechanismy	-11.5206
▁ministerstvem	-11.5206
▁mrtvých	-11.5206
▁mužstvu	-11.5206
▁nejlevnější	-11.5206
▁nejvhodnější	-11.5206
▁nepřijatelné	-11.5206
▁nesprávn	-11.5206
▁organismů	-11.5206
▁ovlivňova	-11.5206
▁označují	-11.5206
▁pohromadě	-11.5206
▁potvrdit	-11.5206
▁pracovišti	-11.5206
▁prohlašuje	-11.5206
▁protagonist	-11.5206
▁rozvržení	-11.5206
▁sluchátka	-11.5206
▁stabilitu	-11.5206
▁strojírenství	-11.5206
▁svědků	-11.5206
▁ubytovn	-11.5206
▁uskutečněn	-11.5206
▁vyvrchol	-11.5206
▁výsledcích	-11.5206
▁zachránit	-11.5206
▁zaměstnává	-11.5206
▁zvýhodněn	-11.5206
▁závazek	-11.5206
▁závislé	-11.5206
▁Balkán	-11.5206
▁Mozart	-11.5206
▁Uvažuje	-11.5206
▁Vědci	-11.5206
▁bázi	-11.5206
▁kampaň	-11.5206
▁odehrál	-11.5206
▁podmínkami	-11.5206
▁prokázán	-11.5206
▁složku	-11.5206
▁vyjadřova	-11.5206
▁vzdělávací	-11.5206
▁zastávk	-11.5206
▁zbraň	-11.5206
▁Kepler	-11.5206
▁Thomas	-11.5206
▁Výběr	-11.5206
▁kliniky	-11.5206
▁komentoval	-11.5206
▁očekávají	-11.5206
▁překonat	-11.5206
přihlášk	-11.5206
▁pouštní	-11.5206
▁pátrá	-11.5206
▁sazby	-11.5206
▁kosmický	-11.5206
▁vyjednávání	-11.5206
▁Právní	-11.5206
▁kontrast	-11.5206
▁obtíže	-11.5206
▁vyřešil	-11.5206
▁dráhu	-11.5206
▁hmyz	-11.5206
▁jedinec	-11.5206
▁podléha	-11.5206
▁poplatků	-11.5206
▁vazbě	-11.5206
omputer	-11.5206
opakovaně	-11.5206
režie	-11.5206
▁profesí	-11.5206
▁sérii	-11.5206
▁odvahu	-11.5206
▁prvotní	-11.5206
▁přijímat	-11.5206
▁zahrnují	-11.5206
▁lidstva	-11.5206
▁neviděl	-11.5206
▁ojediněle	-11.5206
▁otravy	-11.5206
▁čistírn	-11.5206
▁Gross	-11.5206
▁povahu	-11.5206
KDS	-11.5206
▁partie	-11.5206
hlížel	-11.5206
▁uplatnil	-11.5206
▁kolaps	-11.5206
▁Reuter	-11.5206
▁Smith	-11.5206
▁sladk	-11.5206
▁absenc	-11.5206
▁jarní	-11.5206
▁postačí	-11.5206
▁zastupitelstvo	-11.5206
▁2:1	-11.5206
hlédnutí	-11.5206
▁Radovan	-11.5206
▁vpravo	-11.5206
▁obezit	-11.5206
▁patent	-11.5206
▁velkolep	-11.5206
obdržela	-11.5206
▁Kučer	-11.5206
▁kombinací	-11.5206
▁cvičení	-11.5206
▁počty	-11.5206
▁etapy	-11.5206
▁dimenz	-11.5206
▁doplnil	-11.5206
▁liberalizac	-11.5206
▁sportovce	-11.5206
▁smečka	-11.5206
▁filozofii	-11.5206
▁ohlas	-11.5207
▁Vilém	-11.5207
▁finance	-11.5207
▁oteplení	-11.5207
▁ekonomickou	-11.5207
▁Kvalit	-11.5207
▁konverz	-11.5207
ohrozil	-11.5207
▁lůžk	-11.5207
▁převrat	-11.5207
▁Španělsko	-11.5207
▁Baker	-11.5207
▁Ford	-11.5207
▁výhrady	-11.5207
▁afér	-11.5207
▁zaměřuje	-11.5207
▁sníží	-11.5207
▁spoření	-11.5207
▁dvor	-11.5207
▁derby	-11.5208
▁koncentr	-11.5208
▁léčbě	-11.5208
▁1998	-11.5208
▁Krás	-11.5208
▁hluboký	-11.5208
▁SNR	-11.5208
▁děkan	-11.5208
▁členění	-11.5208
▁zmenšen	-11.5209
▁Hráč	-11.5209
▁studii	-11.5209
pravdě	-11.5209
▁nedostatkem	-11.5209
▁výměr	-11.5209
▁nezvykl	-11.5209
▁WAV	-11.5209
▁článků	-11.521
▁Přírod	-11.5211
▁jednotlivců	-11.5211
ředstavitelé	-11.5211
▁běží	-11.5212
▁ISO	-11.5213
▁vynesl	-11.5213
jednává	-11.5213
▁pravice	-11.5213
▁pravdy	-11.5214
▁předloh	-11.5214
▁švýcarské	-11.5214
▁začínal	-11.5214
▁Winter	-11.5214
▁vyzván	-11.5214
▁dozví	-11.5215
▁pestr	-11.5215
▁mezer	-11.5215
▁trase	-11.5216
eportáž	-11.5217
▁tureck	-11.5217
▁zvláštnost	-11.5218
▁celky	-11.5218
▁čelit	-11.5218
▁sbírek	-11.5219
vypořádá	-11.5219
▁závěrečné	-11.5219
▁dálkové	-11.5219
▁salon	-11.522
▁usilují	-11.522
▁prosazuje	-11.522
▁alternativy	-11.5221
▁vyplni	-11.5222
▁průvodce	-11.5222
▁plus	-11.5223
▁udělen	-11.5223
▁podávání	-11.5223
▁tenkrát	-11.5224
▁tvrdit	-11.5224
▁protivník	-11.5225
▁jakéhokoli	-11.5227
▁okresu	-11.5228
▁správnou	-11.5228
▁lodí	-11.5228
▁Provoz	-11.5229
▁nákladech	-11.5229
▁anketě	-11.523
▁základny	-11.523
▁památky	-11.5231
▁ušetřit	-11.5231
▁pomáhat	-11.5232
▁vyhleda	-11.5232
▁námět	-11.5233
▁pití	-11.5235
▁dýcha	-11.5235
▁skutečnou	-11.5236
▁euro	-11.5236
▁porost	-11.5237
▁ideologick	-11.5238
▁silami	-11.5239
▁skupinách	-11.524
▁znamenala	-11.5241
▁domku	-11.5243
▁branky	-11.5243
▁Kolín	-11.5244
▁jmenování	-11.5245
▁domácností	-11.5246
árek	-11.5246
▁přibyl	-11.5248
▁nazval	-11.5248
▁komunismus	-11.5249
▁obchodech	-11.5251
▁skoku	-11.5251
▁pozorovatelů	-11.5252
▁rozlož	-11.5252
▁pětinu	-11.5253
▁reálná	-11.5253
hlédne	-11.5254
▁štít	-11.5254
▁vidíte	-11.5254
▁NT	-11.5255
▁vyznačen	-11.5255
▁hranicí	-11.5255
▁pozdní	-11.5256
▁vydrží	-11.5256
dále	-11.5257
▁myln	-11.5258
▁stranách	-11.5259
TER	-11.526
▁spolehlivě	-11.5261
▁záměrně	-11.5261
▁zkrac	-11.5264
▁pomník	-11.5264
▁zárukou	-11.5266
▁Palác	-11.5268
běhne	-11.5268
▁přibývá	-11.527
▁využívající	-11.5272
▁obuv	-11.5273
▁zažil	-11.5275
▁odluk	-11.5276
▁přibylo	-11.5277
▁vybrán	-11.5277
print	-11.5279
▁scéně	-11.5282
▁prodejce	-11.5282
▁Žádný	-11.5286
reál	-11.529
▁pozval	-11.5292
dáte	-11.5293
kromě	-11.5298
▁Air	-11.5298
▁maličkost	-11.5298
▁těsné	-11.5299
JÍ	-11.5303
▁opravit	-11.5304
▁polský	-11.5305
▁Horní	-11.5306
SOU	-11.5309
▁jednotný	-11.531
program	-11.5311
rozuměj	-11.5314
▁publikací	-11.5315
▁opon	-11.5319
▁armád	-11.5326
▁jednotka	-11.5344
sazení	-11.5353
▁Přibyl	-11.5355
elektrick	-11.5356
▁atomov	-11.5363
▁Lan	-11.537
chrom	-11.5375
▁samostatnost	-11.5378
▁sedmnácti	-11.5381
▁důkladně	-11.5384
▁závodníků	-11.5386
▁desítká	-11.5394
▁odbornost	-11.5394
▁ledové	-11.54
pouštět	-11.5405
ktické	-11.5407
▁předkládá	-11.5413
▁Osm	-11.5413
▁novináře	-11.5429
▁Chart	-11.5436
▁přehrad	-11.5436
▁neobvykl	-11.5447
▁perspektivní	-11.5451
▁vznikal	-11.5451
▁dvaadvacet	-11.5456
▁odcházejí	-11.5463
▁Nedo	-11.5464
▁stabiliz	-11.5465
OSTI	-11.5473
ikonu	-11.5475
▁geo	-11.5475
▁technologické	-11.5476
▁hokejové	-11.548
▁skleníkový	-11.5488
▁měřit	-11.5489
▁třetin	-11.5493
obrazit	-11.5507
▁povrchové	-11.5516
▁dialogové	-11.5518
▁tepelné	-11.5524
▁koordinac	-11.5525
▁příznivé	-11.5534
▁oblíbený	-11.5537
▁skleník	-11.5538
▁spolupracují	-11.5543
▁bosen	-11.5564
▁Hub	-11.5565
HP	-11.5568
ručně	-11.5583
▁hub	-11.5583
▁Čtyř	-11.559
▁450	-11.5594
▁statistick	-11.5601
▁fakult	-11.5616
▁240	-11.5616
mentálně	-11.562
▁maxim	-11.562
▁úvod	-11.563
▁Novotn	-11.5635
▁nadměrn	-11.5651
▁světle	-11.5652
▁kritéri	-11.5653
▁hrozn	-11.566
hrání	-11.5664
▁pravomoc	-11.5675
▁Moc	-11.5678
▁vozov	-11.5689
konalo	-11.569
▁krev	-11.5691
▁parametr	-11.5693
▁družstevní	-11.5695
▁Vaš	-11.5696
UN	-11.5698
▁Histori	-11.5699
▁výjimk	-11.5713
▁úloh	-11.5729
▁61	-11.5732
DP	-11.5737
BU	-11.5738
▁využívají	-11.5761
▁ústřed	-11.5762
pojit	-11.5766
ukční	-11.5766
▁poctiv	-11.5768
▁Velký	-11.5771
▁Brněnsk	-11.5773
▁ukončen	-11.5784
▁uvolněn	-11.5785
▁ovládá	-11.5787
▁Japonsk	-11.5796
▁cenné	-11.5796
uskutečnila	-11.5801
▁centimetr	-11.5803
eckém	-11.5806
funk	-11.5814
▁algoritm	-11.5817
▁podporují	-11.5818
▁smrteln	-11.5819
▁šíři	-11.582
▁dívá	-11.582
podivu	-11.5826
▁účinně	-11.5829
▁Vždy	-11.583
Cagiva	-11.5831
▁Apple	-11.5831
▁Barcelony	-11.5831
▁Dudajev	-11.5831
▁Harrachov	-11.5831
▁Honecker	-11.5831
▁Konkrétn	-11.5831
▁Liverpool	-11.5831
▁Lobkowicz	-11.5831
▁Moskvy	-11.5831
▁Měsíc	-11.5831
▁Původní	-11.5831
▁Stráský	-11.5831
▁angličtiny	-11.5831
▁atribut	-11.5831
▁cizinec	-11.5831
▁dosaženo	-11.5831
▁dětství	-11.5831
▁efektivnosti	-11.5831
▁epidemie	-11.5831
▁eventuáln	-11.5831
▁evoluce	-11.5831
▁exhibic	-11.5831
▁expanz	-11.5831
▁extremist	-11.5831
▁hollywoodsk	-11.5831
▁intenzivní	-11.5831
▁jménu	-11.5831
▁kinematografie	-11.5831
▁komplikace	-11.5831
▁kriminalist	-11.5831
▁kritizoval	-11.5831
▁lhůtě	-11.5831
▁metabolick	-11.5831
▁mláďat	-11.5831
▁nabízel	-11.5831
▁nabízet	-11.5831
▁nelíbí	-11.5831
▁nesmějí	-11.5831
▁notebook	-11.5831
▁ohrozit	-11.5831
▁pohledávky	-11.5831
▁polštář	-11.5831
▁pozůstatk	-11.5831
▁počínání	-11.5831
▁pronájmu	-11.5831
▁pódiu	-11.5831
▁rozšiřování	-11.5831
▁separatist	-11.5831
▁skrývá	-11.5831
▁spekulace	-11.5831
▁spekulací	-11.5831
▁svědectví	-11.5831
▁tlačítek	-11.5831
▁trápí	-11.5831
▁vyčleněn	-11.5831
▁vztazích	-11.5831
▁výdělečn	-11.5831
▁zdůrazňuje	-11.5831
▁ÚSES	-11.5831
▁úředníci	-11.5831
generační	-11.5831
hrávač	-11.5831
kontaminac	-11.5831
▁Budinský	-11.5831
▁Frankfurt	-11.5831
▁Luboš	-11.5831
▁Mráz	-11.5831
▁Opět	-11.5831
▁Schumacher	-11.5831
▁TNF	-11.5831
▁Větší	-11.5831
▁databázový	-11.5831
▁hnízd	-11.5831
▁konkurs	-11.5831
▁levněji	-11.5831
▁lůžek	-11.5831
▁nazývá	-11.5831
▁omezování	-11.5831
▁poloostrov	-11.5831
▁předpokládají	-11.5831
▁redakční	-11.5831
▁seznámil	-11.5831
▁zmáčkn	-11.5831
▁znepokojen	-11.5831
▁Čarnogursk	-11.5831
▁bezespor	-11.5831
▁bydliště	-11.5831
▁ropovod	-11.5831
▁stadion	-11.5831
Oscar	-11.5831
▁rozmnož	-11.5831
▁poskytovan	-11.5831
▁profesní	-11.5831
▁Vánoční	-11.5831
▁nekončí	-11.5831
▁učební	-11.5831
▁výzvu	-11.5831
▁Haagu	-11.5831
▁nerozumí	-11.5831
▁prodavač	-11.5831
kompenz	-11.5831
▁Tchaj	-11.5831
▁kosmické	-11.5831
▁mrtvol	-11.5831
▁přiznat	-11.5831
▁matematické	-11.5831
▁terminologi	-11.5831
KDH	-11.5831
▁převyšuj	-11.5831
▁Vánoce	-11.5831
▁sdružuj	-11.5831
▁skandál	-11.5831
▁belgick	-11.5831
▁pojmy	-11.5831
▁recenze	-11.5831
▁nazvaný	-11.5831
▁odlišuj	-11.5831
▁spektrum	-11.5831
▁plakát	-11.5831
▁pronajat	-11.5831
▁demisi	-11.5831
▁Easy	-11.5831
▁minulou	-11.5831
▁uváděl	-11.5831
▁pokouší	-11.5831
▁praxí	-11.5831
▁nejmladší	-11.5831
▁pryč	-11.5831
▁Myslíte	-11.5831
▁mezisklad	-11.5831
týkat	-11.5831
▁koupě	-11.5831
▁nevadí	-11.5831
major	-11.5831
▁mutace	-11.5831
▁Kyjev	-11.5831
▁napodob	-11.5831
▁hygienické	-11.5831
▁inteligentní	-11.5831
▁vyvážen	-11.5831
▁dokonč	-11.5831
kročit	-11.5831
▁levicov	-11.5831
▁zastupování	-11.5831
týkal	-11.5831
▁reprezentuje	-11.5831
▁něčím	-11.5831
▁snižují	-11.5831
▁Římě	-11.5831
▁Neznám	-11.5831
▁PŘI	-11.5831
▁pohlaví	-11.5831
▁veterán	-11.5832
▁usiloval	-11.5832
▁bydlet	-11.5832
▁inkas	-11.5832
▁zastupitelství	-11.5832
▁rovnost	-11.5832
▁strážníci	-11.5832
2:0	-11.5832
▁ocas	-11.5832
▁výtisk	-11.5832
▁Group	-11.5832
▁ČSTK	-11.5832
▁ledovce	-11.5832
▁vyrobil	-11.5832
▁teplé	-11.5833
▁spuštění	-11.5833
▁neodpovídá	-11.5833
▁slyšel	-11.5833
▁součin	-11.5833
▁sousedství	-11.5833
▁námitky	-11.5833
▁průhledn	-11.5833
▁nezajímá	-11.5833
▁střechy	-11.5833
▁vápenc	-11.5833
▁grant	-11.5833
▁komunikací	-11.5834
▁interpretace	-11.5834
▁pyšn	-11.5834
▁někam	-11.5834
STAV	-11.5834
▁stoprocentní	-11.5834
▁norem	-11.5834
▁Dukla	-11.5834
▁HDP	-11.5835
▁běžc	-11.5835
▁léčby	-11.5835
▁sumy	-11.5835
▁stolní	-11.5835
▁Olg	-11.5835
▁Thun	-11.5836
▁Nájem	-11.5836
▁pamatuje	-11.5837
▁složitost	-11.5837
▁hmotnost	-11.5837
▁kníže	-11.5837
▁kabin	-11.5837
▁Nemůže	-11.5838
▁pozitivně	-11.5838
kontinentální	-11.5839
▁Prohlásil	-11.584
▁prudké	-11.584
▁datum	-11.584
▁určí	-11.584
▁ptát	-11.5841
▁Grafová	-11.5841
▁švýcarský	-11.5842
▁Solid	-11.5842
bajt	-11.5842
▁přežil	-11.5842
▁prodejců	-11.5842
▁Lys	-11.5843
▁posuzování	-11.5843
▁teplý	-11.5843
▁hektarů	-11.5844
Finsko	-11.5845
▁poškodil	-11.5845
▁zapsán	-11.5845
míří	-11.5845
▁jmenovat	-11.5846
▁geografick	-11.5846
▁dějinách	-11.5847
▁přenést	-11.5847
▁dílčí	-11.5848
▁Neměl	-11.5848
▁disponuje	-11.5848
▁minima	-11.5849
▁selekčn	-11.5849
▁makro	-11.585
▁novinkou	-11.585
▁mohutn	-11.585
▁Libor	-11.5851
▁Zpočátku	-11.5851
▁účelům	-11.5851
▁Postupně	-11.5852
▁špičkových	-11.5853
▁hluk	-11.5854
tahuje	-11.5854
▁sídlo	-11.5855
▁Web	-11.5855
▁předešl	-11.5855
▁úsměvem	-11.5856
▁přestávce	-11.5856
▁Tatra	-11.5859
▁naučil	-11.586
▁10%	-11.586
▁Určitě	-11.586
▁zkoušku	-11.5862
rozuměl	-11.5863
▁badatelé	-11.5863
▁Polák	-11.5863
▁Výš	-11.5863
▁59	-11.5863
▁uznává	-11.5868
▁považoval	-11.587
▁odhaduje	-11.587
▁rozměrů	-11.5871
▁zvířete	-11.5871
▁Vodičk	-11.5873
▁sestra	-11.5873
▁socialistické	-11.5873
vlas	-11.5873
▁zvolí	-11.5874
▁motocyklů	-11.5874
▁Pardubice	-11.5875
▁vyplácení	-11.5876
▁svazek	-11.5877
▁LID	-11.5879
57	-11.5879
▁vykázal	-11.588
▁inspektor	-11.588
▁Rozhodn	-11.5883
▁vidíme	-11.5885
▁List	-11.5885
▁příjemný	-11.5886
platila	-11.5888
▁plaz	-11.5889
▁lese	-11.589
▁invalidní	-11.589
▁berou	-11.5892
▁neobvyklé	-11.5893
▁Zkus	-11.5893
▁filozofické	-11.5894
▁rizikový	-11.5896
▁Listin	-11.5897
▁starožitnost	-11.5899
▁klientel	-11.5903
▁herci	-11.5904
atřicetilet	-11.5906
▁Těm	-11.591
▁gest	-11.5913
▁omezeným	-11.5913
▁nevhodné	-11.5919
▁vyhrazen	-11.5921
▁prázdné	-11.5923
▁organ	-11.5926
▁pěkný	-11.5927
▁nepříjemný	-11.5937
▁Japon	-11.5939
▁pomocník	-11.5941
▁poplatníků	-11.595
▁čar	-11.5955
▁výzkumné	-11.5956
▁zlikvidov	-11.5957
▁vývojový	-11.596
TON	-11.596
▁hád	-11.5962
vinil	-11.5964
▁vzrost	-11.5966
▁levný	-11.5984
▁zaujím	-11.5985
▁autorit	-11.5988
▁sond	-11.5989
▁zásobník	-11.5991
sunut	-11.5996
▁zhodnoc	-11.6002
▁vývojář	-11.6009
hrnul	-11.6015
psání	-11.6033
▁demokrat	-11.6033
slouží	-11.6034
rovnávání	-11.6036
▁vizi	-11.6045
▁monopolní	-11.6059
▁okamžité	-11.6059
▁nebýval	-11.6061
▁Ivo	-11.6063
▁řecké	-11.6064
UD	-11.6066
škodí	-11.607
počtu	-11.607
vládní	-11.6077
1992	-11.6082
▁ilustrac	-11.6085
▁položen	-11.6087
USA	-11.6089
▁plynáren	-11.609
▁trojnásobn	-11.6095
▁neobyčejn	-11.6097
▁výhodn	-11.6108
▁jakoukoli	-11.6109
▁elektrod	-11.6115
▁badatel	-11.6116
které	-11.612
▁Žád	-11.6123
jeden	-11.6128
jistá	-11.6128
▁Rozhodl	-11.6132
▁mzdové	-11.6138
▁stanovil	-11.614
pracování	-11.6144
▁nákladné	-11.6145
▁povinné	-11.6145
▁hostin	-11.6146
▁konstatova	-11.6155
▁Králov	-11.6168
▁mzdov	-11.6182
▁etnick	-11.6187
▁plzeňské	-11.6205
▁peče	-11.621
▁používané	-11.6215
▁okamžit	-11.6227
▁Švéd	-11.6235
▁evoluční	-11.6236
▁postupuje	-11.6253
▁uklid	-11.6256
▁rock	-11.6259
▁mask	-11.6265
▁krásn	-11.6265
růstá	-11.627
▁sovět	-11.6283
▁94	-11.6285
▁vyjadřuj	-11.6287
obyčejně	-11.629
▁stranické	-11.6291
▁využíván	-11.6295
▁nepřinesl	-11.6299
▁Obchod	-11.63
▁nud	-11.6304
▁William	-11.6307
▁uvolni	-11.6317
▁automobilové	-11.6324
▁příznačn	-11.6332
▁ledový	-11.6337
▁uvědomil	-11.6343
vědčí	-11.6347
nikat	-11.6353
▁publika	-11.6354
▁přírodovědeck	-11.6354
ALE	-11.6359
▁táhn	-11.636
▁Opti	-11.6374
▁dramatické	-11.6376
▁Tvrd	-11.6377
▁kontinent	-11.6384
▁vozidl	-11.6385
▁leteck	-11.639
▁Knih	-11.6391
▁terén	-11.6393
serv	-11.6395
sovětsk	-11.6401
▁milost	-11.6402
▁souhlasil	-11.6408
dražil	-11.641
▁závislost	-11.6416
čítat	-11.6417
▁knížk	-11.6418
▁totožn	-11.6418
▁zkušebn	-11.642
▁nadějn	-11.6422
▁zbytečný	-11.6422
▁Míst	-11.6425
tabulk	-11.6428
▁akciov	-11.6435
▁neprav	-11.6436
▁uplatňuj	-11.6437
▁Dět	-11.6443
▁zaplacen	-11.6445
▁infekc	-11.6448
▁Brazíli	-11.6455
členný	-11.6456
▁naplněn	-11.6462
▁dvacát	-11.6463
▁Určit	-11.6466
máhat	-11.6468
▁Způsob	-11.6469
▁sediment	-11.647
▁penzi	-11.6474
hodinový	-11.6476
spektr	-11.6478
▁šlecht	-11.6483
▁vysílač	-11.6489
▁rovnová	-11.6489
chybějí	-11.6491
reprezenta	-11.6492
▁KSČ	-11.6494
▁Účast	-11.6497
ntelektuál	-11.6497
JPEG	-11.6497
sloučenin	-11.6497
▁Austrálie	-11.6497
▁Domnívám	-11.6497
▁FBIS	-11.6497
▁Ludvík	-11.6497
▁Mitterrand	-11.6497
▁Oldřich	-11.6497
▁Pivovar	-11.6497
▁Saúdsk	-11.6497
▁Vešker	-11.6497
▁WWW	-11.6497
▁bankovnictví	-11.6497
▁deklaraci	-11.6497
▁domorodc	-11.6497
▁důležitější	-11.6497
▁elementární	-11.6497
▁federaci	-11.6497
▁firmách	-11.6497
▁fungování	-11.6497
▁hardwarov	-11.6497
▁interiér	-11.6497
▁jednodušší	-11.6497
▁komentátor	-11.6497
▁konfigurace	-11.6497
▁konkurovat	-11.6497
▁literatuře	-11.6497
▁marketingu	-11.6497
▁mediální	-11.6497
▁nominaci	-11.6497
▁novotvary	-11.6497
▁nukleární	-11.6497
▁odpovědět	-11.6497
▁pneumatik	-11.6497
▁pojišťovnou	-11.6497
▁poptávku	-11.6497
▁problematice	-11.6497
▁pseudo	-11.6497
▁předpovědi	-11.6497
▁předvánoční	-11.6497
▁přerozdělování	-11.6497
▁racionální	-11.6497
▁referát	-11.6497
▁rekreaci	-11.6497
▁rozvíjejí	-11.6497
▁rozčleněn	-11.6497
▁rubrice	-11.6497
▁seskupení	-11.6497
▁stěžovat	-11.6497
▁symplektick	-11.6497
▁trénovat	-11.6497
▁vláken	-11.6497
▁vypráví	-11.6497
▁vyžadovat	-11.6497
▁zapomenout	-11.6497
▁zaručit	-11.6497
▁zavražděn	-11.6497
▁zodpovězen	-11.6497
▁zákulisí	-11.6497
▁úložiště	-11.6497
▁Četrans	-11.6497
▁1983	-11.6497
▁Hamburk	-11.6497
▁Harvard	-11.6497
▁Maďarskem	-11.6497
▁Návrat	-11.6497
▁Pistol	-11.6497
▁Vídeň	-11.6497
▁definice	-11.6497
▁infarkt	-11.6497
▁kosmonaut	-11.6497
▁kvót	-11.6497
▁nacionalism	-11.6497
▁nenávist	-11.6497
▁palubě	-11.6497
▁plošný	-11.6497
▁prozradil	-11.6497
▁přihlášen	-11.6497
▁rozsáhlejší	-11.6497
▁rozvíjet	-11.6497
▁tiskáren	-11.6497
▁tolerance	-11.6497
▁východoevropský	-11.6497
▁červnov	-11.6497
▁špatnou	-11.6497
▁kardinál	-11.6497
▁osaměl	-11.6497
▁populaci	-11.6497
▁procedur	-11.6497
▁rozsudk	-11.6497
▁tendence	-11.6497
▁analytick	-11.6497
▁infikova	-11.6497
▁kampaně	-11.6497
▁otazník	-11.6497
▁archiv	-11.6497
▁neškodn	-11.6497
▁odvezl	-11.6497
▁Právo	-11.6497
▁cementárn	-11.6497
▁makléř	-11.6497
▁účinků	-11.6497
▁milimetr	-11.6497
▁povolební	-11.6497
▁vzbudil	-11.6497
▁zjišťova	-11.6497
▁Veřejn	-11.6497
▁funkčnost	-11.6497
▁pozměň	-11.6497
▁uvítal	-11.6497
▁Kladně	-11.6497
▁fází	-11.6497
▁mikrofon	-11.6497
znamenají	-11.6497
▁placentál	-11.6497
▁reagují	-11.6497
▁vyslovit	-11.6497
▁praktik	-11.6497
▁Ctrl	-11.6497
▁Francií	-11.6497
▁stráví	-11.6497
▁komunit	-11.6497
▁účinné	-11.6497
přízeň	-11.6497
▁Michel	-11.6497
▁taxonomie	-11.6497
▁ujistil	-11.6497
▁domníval	-11.6497
▁finalist	-11.6497
▁hospodaří	-11.6497
▁Irák	-11.6497
▁nabídek	-11.6497
▁logik	-11.6497
▁amatér	-11.6497
▁podobnou	-11.6497
▁zastupuje	-11.6497
▁Kurzy	-11.6497
▁povstal	-11.6497
▁biochemi	-11.6498
▁značku	-11.6498
▁ustavující	-11.6498
▁vybojoval	-11.6498
▁aridní	-11.6498
▁popředí	-11.6498
▁pól	-11.6498
▁přehnan	-11.6498
▁Marián	-11.6498
▁plastik	-11.6498
▁dřevěné	-11.6498
▁tragick	-11.6498
▁Prokop	-11.6498
▁desek	-11.6498
▁brazilsk	-11.6498
▁přípustn	-11.6498
▁vystavuje	-11.6498
▁vrstva	-11.6498
▁narkom	-11.6498
▁fixac	-11.6498
▁ovládací	-11.6498
▁směřující	-11.6498
▁nazvané	-11.6498
šňů	-11.6498
▁zánět	-11.6498
▁ČSD	-11.6498
▁trasy	-11.6498
▁rozdělí	-11.6498
zkoumat	-11.6498
▁Jenom	-11.6499
▁Informace	-11.6499
▁konsensus	-11.6499
▁učiní	-11.6499
▁architektonick	-11.6499
▁Super	-11.6499
▁oboustrann	-11.6499
ality	-11.6499
▁uplatňován	-11.6499
svědčuje	-11.6499
▁Proces	-11.6499
▁poušti	-11.6499
▁jednostrann	-11.6499
▁virus	-11.6499
▁Moravia	-11.6499
▁střídají	-11.6499
▁1976	-11.6499
▁češtiny	-11.6499
▁Soulu	-11.6499
▁Setkání	-11.65
▁komunikační	-11.65
▁profesi	-11.65
▁robot	-11.65
▁lázní	-11.65
▁bankrot	-11.65
▁holub	-11.65
▁Nechci	-11.65
▁dotaci	-11.6501
▁realizace	-11.6501
▁Cítí	-11.6501
▁zimy	-11.6501
▁zabránil	-11.6501
▁Značn	-11.6501
▁nepřesnost	-11.6501
▁léčbu	-11.6501
▁volající	-11.6501
▁zničil	-11.6502
▁spotřeba	-11.6502
▁kameny	-11.6502
▁fakticky	-11.6502
▁obstará	-11.6503
▁mezistátní	-11.6503
▁sníh	-11.6503
▁šipk	-11.6503
▁použije	-11.6504
▁rekordman	-11.6504
yplynulo	-11.6504
▁toxické	-11.6504
evropský	-11.6504
▁nepamatuj	-11.6505
▁publikaci	-11.6505
▁Začátk	-11.6506
▁touží	-11.6506
▁vyprávěl	-11.6506
▁faul	-11.6506
▁hepatocytů	-11.6507
▁všední	-11.6507
▁dvoudenní	-11.6508
▁zajišťující	-11.651
▁faktorem	-11.651
▁nestátní	-11.6511
▁PŘÍ	-11.6511
▁desetkrát	-11.6511
▁Hleda	-11.6511
▁vlasy	-11.6513
▁vyhodnocení	-11.6513
rábě	-11.6513
▁konání	-11.6514
▁produkcí	-11.6514
▁ředitelství	-11.6515
1972	-11.6515
▁vynutil	-11.6515
▁líčí	-11.6515
▁obchodovat	-11.6515
▁distribuční	-11.6516
▁uheln	-11.6516
▁cestách	-11.6516
▁spektra	-11.6517
▁altruismus	-11.6519
▁řetězce	-11.6519
▁bál	-11.6519
▁významnější	-11.652
▁přesností	-11.6521
▁pokrýt	-11.6523
▁Prag	-11.6523
▁umělci	-11.6524
▁výšky	-11.6529
▁rekordní	-11.6529
▁Lidový	-11.6529
▁odsoudil	-11.653
azeta	-11.6532
▁hrazen	-11.6533
▁zvířecí	-11.6536
▁vysloužil	-11.6537
▁předloží	-11.6538
▁pořádek	-11.654
▁jednotlivce	-11.654
▁vyhrát	-11.6541
▁jazykov	-11.6544
▁Václavské	-11.6547
▁zelený	-11.6548
▁Francouzský	-11.6549
▁pásmu	-11.6549
▁výtvarník	-11.6551
▁pozoruhodné	-11.6552
▁pedagogick	-11.6553
▁poškozený	-11.6556
▁sumu	-11.6556
▁Lac	-11.6558
▁nouze	-11.6558
▁modelování	-11.656
▁nástupce	-11.6561
▁vypracoval	-11.6563
▁pevnin	-11.6564
symetri	-11.6564
ousek	-11.657
▁Výrobc	-11.6573
▁krádež	-11.6581
256	-11.6582
▁přispívají	-11.6582
▁vysílací	-11.6585
▁předsedkyn	-11.659
▁pomst	-11.6593
▁rozpočtový	-11.6598
▁nulov	-11.6599
▁nabízený	-11.6612
▁kalendářní	-11.6613
dražit	-11.6614
kontroluje	-11.6615
▁zoologick	-11.6615
▁výhodný	-11.662
▁Významn	-11.6629
▁Fakt	-11.6633
▁válečný	-11.6639
▁Historick	-11.664
▁optimismu	-11.6645
▁protějš	-11.6647
▁široký	-11.6647
▁nepřímo	-11.6648
▁filmař	-11.665
▁diplomatický	-11.6651
▁oceánické	-11.6656
▁zúčastněný	-11.6657
▁autobusové	-11.6659
▁uzavřený	-11.6664
▁opakuje	-11.6666
▁Kamen	-11.6669
přestává	-11.667
▁bránil	-11.667
▁pořádání	-11.6671
▁plen	-11.6673
▁sestaven	-11.669
▁návratnost	-11.6691
▁slavný	-11.67
▁lekto	-11.6705
děláme	-11.6725
ND	-11.6733
▁krásný	-11.6736
▁síťové	-11.6742
▁citeln	-11.6744
nsen	-11.6746
▁maso	-11.677
▁Alan	-11.6779
▁Podpor	-11.6805
▁dokonalý	-11.6805
ovité	-11.6817
▁socialist	-11.6819
▁ukáz	-11.6826
konaly	-11.6826
▁pořádají	-11.6831
▁4000	-11.6848
hradil	-11.6851
▁lebk	-11.6851
▁nacházel	-11.6854
přineslo	-11.6869
▁modifik	-11.6877
pravicov	-11.6881
▁nedělá	-11.6881
LET	-11.6886
▁definovan	-11.6887
▁odstupné	-11.6894
operační	-11.6896
účel	-11.6904
produkt	-11.6911
1991	-11.6912
živí	-11.6915
▁šťastný	-11.6918
▁osazen	-11.6921
▁62	-11.6927
▁ryz	-11.6935
▁muslimsk	-11.6935
panuje	-11.6946
▁Vznikl	-11.6947
▁královské	-11.6963
▁náboženský	-11.6969
▁Výkon	-11.6972
▁výhra	-11.6991
pokládat	-11.6991
NG	-11.702
▁vrácen	-11.7021
▁ovlivnil	-11.703
▁Druh	-11.7035
▁strašn	-11.7038
▁Radnic	-11.7038
magnetické	-11.7041
▁jakýkoli	-11.7043
▁Osl	-11.7048
▁splněn	-11.7055
▁regulac	-11.7056
istického	-11.7061
▁poplatník	-11.7077
▁slušný	-11.709
▁nemovitost	-11.7094
ůbec	-11.7095
avky	-11.7103
84	-11.711
▁Jih	-11.7115
▁propojen	-11.7122
▁spravedlnost	-11.713
▁bytový	-11.713
▁elektřin	-11.7131
▁srovnateln	-11.7134
▁poskytován	-11.7142
▁architektur	-11.7143
▁Perské	-11.7148
pracovala	-11.715
gramů	-11.7156
▁Pardubic	-11.7161
▁bilanc	-11.717
▁učit	-11.7172
▁Víc	-11.7175
▁doporučen	-11.7175
▁fundamentalist	-11.7179
▁produkuj	-11.7182
▁kilogram	-11.7184
ontrol	-11.7193
vydržel	-11.7194
▁stanovis	-11.7196
▁průvod	-11.72
▁psy	-11.7201
▁tržb	-11.7206
glaciál	-11.7211
▁SPIRIT	-11.7211
▁Zdravotn	-11.7211
▁raketoplán	-11.7211
▁severozápad	-11.7211
▁velvyslanec	-11.7211
▁vyčerpán	-11.7211
▁zázračn	-11.7211
ýpovědní	-11.7211
▁Akademie	-11.7211
▁Albertville	-11.7211
▁Bratislavy	-11.7211
▁Delphi	-11.7211
▁Digital	-11.7211
▁General	-11.7211
▁Hospodářsk	-11.7211
▁Kuvajt	-11.7211
▁Muslim	-11.7211
▁Netanjahu	-11.7211
▁Princip	-11.7211
▁Pálffy	-11.7211
▁Reichel	-11.7211
▁TWA	-11.7211
▁Vynikající	-11.7211
▁bezmocn	-11.7211
▁brožur	-11.7211
▁bulharsk	-11.7211
▁buněčné	-11.7211
▁ceremoniál	-11.7211
▁databáze	-11.7211
▁databázi	-11.7211
▁delegát	-11.7211
▁diktátor	-11.7211
▁drůbež	-11.7211
▁dveřmi	-11.7211
▁finálové	-11.7211
▁havárii	-11.7211
▁holding	-11.7211
▁inzulín	-11.7211
▁kanalizací	-11.7211
▁katalyzátor	-11.7211
▁kazašsk	-11.7211
▁komedie	-11.7211
▁kompetencí	-11.7211
▁konstantní	-11.7211
▁lidstvo	-11.7211
▁milisekund	-11.7211
▁nechybí	-11.7211
▁nosorožců	-11.7211
▁novorozen	-11.7211
▁ofsajd	-11.7211
▁olomoucké	-11.7211
▁organismy	-11.7211
▁paměť	-11.7211
▁paradigma	-11.7211
▁pojišťoven	-11.7211
▁pojišťovně	-11.7211
▁portfeje	-11.7211
▁pořizovací	-11.7211
▁poštovní	-11.7211
▁prospěšn	-11.7211
▁pátku	-11.7211
▁přísluší	-11.7211
▁radikálně	-11.7211
▁splátek	-11.7211
▁stěžuje	-11.7211
▁telekomunikací	-11.7211
▁těhotenství	-11.7211
▁vlhkost	-11.7211
▁vrtulník	-11.7211
▁vyzkoušel	-11.7211
▁vídeňské	-11.7211
▁zahájit	-11.7211
▁zajišťoval	-11.7211
▁zakázek	-11.7211
▁zaručuje	-11.7211
▁zdůraznit	-11.7211
▁zneužívání	-11.7211
▁zpracovává	-11.7211
▁záruční	-11.7211
▁Černomyrdin	-11.7211
▁železnice	-11.7211
▁1979	-11.7211
▁Němce	-11.7211
▁Teplice	-11.7211
▁emitent	-11.7211
▁injekc	-11.7211
▁komisař	-11.7211
▁odpolední	-11.7211
▁omezit	-11.7211
▁podezřelý	-11.7211
▁pohodlné	-11.7211
▁poválečn	-11.7211
▁překonání	-11.7211
▁sféře	-11.7211
▁tekutin	-11.7211
▁thajské	-11.7211
▁zopakoval	-11.7211
▁účinnou	-11.7211
▁FMV	-11.7211
▁KGB	-11.7211
▁Student	-11.7211
▁lehký	-11.7211
▁málokdo	-11.7211
▁nesrovnateln	-11.7211
▁prodluž	-11.7211
▁stadiu	-11.7211
▁Československý	-11.7211
▁Dokument	-11.7212
▁SGI	-11.7212
▁komodit	-11.7212
▁lahví	-11.7212
▁obyvatelstvo	-11.7212
▁PET	-11.7212
▁informuje	-11.7212
▁smířit	-11.7212
▁trénuj	-11.7212
▁vyústi	-11.7212
▁kolegové	-11.7212
▁kultuře	-11.7212
▁Zajímal	-11.7212
▁Západoevropsk	-11.7212
▁nejblíže	-11.7212
▁odstavec	-11.7212
▁rozsáhlou	-11.7212
▁udržován	-11.7212
▁James	-11.7212
▁chystají	-11.7212
▁podepsat	-11.7212
▁polymer	-11.7212
▁přeplněn	-11.7212
▁sloučení	-11.7212
▁svrchované	-11.7212
▁dávek	-11.7212
▁netrpěliv	-11.7212
▁umírněn	-11.7212
▁nikomu	-11.7212
▁někomu	-11.7212
▁srbské	-11.7212
▁Automatick	-11.7212
▁železné	-11.7212
▁Prahou	-11.7212
▁vzdělan	-11.7212
▁loupež	-11.7212
▁nepodaří	-11.7212
▁Holandsk	-11.7212
▁odhalit	-11.7212
▁tvořiv	-11.7212
▁poznámky	-11.7212
▁Kadlec	-11.7212
▁Mlýn	-11.7212
▁mutací	-11.7212
▁podporoval	-11.7212
▁Louis	-11.7212
▁dědeček	-11.7212
▁Fuchs	-11.7212
▁oběhové	-11.7212
▁Zpráv	-11.7212
běhnout	-11.7212
▁nedaleké	-11.7212
▁něčeho	-11.7212
▁prováděl	-11.7212
▁přetížen	-11.7212
▁úchyt	-11.7212
▁chleba	-11.7212
▁odvážn	-11.7212
▁stereo	-11.7212
▁šancí	-11.7212
▁Účastníci	-11.7212
▁Bohuslav	-11.7212
▁modré	-11.7212
▁mocenské	-11.7212
▁fotografií	-11.7212
▁vybudoval	-11.7212
opouštěl	-11.7212
▁hokejistů	-11.7212
▁stromeček	-11.7212
▁formálně	-11.7213
▁příloh	-11.7213
▁legendární	-11.7213
▁Suková	-11.7213
▁Front	-11.7213
▁Týden	-11.7213
▁Život	-11.7213
▁Opava	-11.7213
▁kamenné	-11.7213
▁účinnější	-11.7213
▁kopií	-11.7213
hánějí	-11.7213
▁kamión	-11.7213
▁Kouba	-11.7213
▁nejsme	-11.7213
▁dovážen	-11.7213
▁transport	-11.7213
▁Bartoš	-11.7213
▁vyhořelé	-11.7213
▁implantát	-11.7213
▁kapsy	-11.7213
▁Následující	-11.7213
▁hlučn	-11.7213
▁lehko	-11.7213
▁Ježek	-11.7214
▁pojmu	-11.7214
▁usedl	-11.7214
▁lákav	-11.7214
▁zmizí	-11.7214
▁Samotn	-11.7214
▁Zápas	-11.7214
▁kořen	-11.7214
▁Španělsku	-11.7214
▁adaptace	-11.7214
▁písmo	-11.7214
▁nazvat	-11.7214
▁princ	-11.7215
hrádk	-11.7215
▁výsad	-11.7215
▁Zvýšen	-11.7215
▁neuron	-11.7215
▁metan	-11.7215
▁jinam	-11.7215
▁1970	-11.7215
▁nikam	-11.7215
▁skladatel	-11.7215
▁vejce	-11.7216
▁jízdenk	-11.7216
▁zády	-11.7216
▁registrační	-11.7216
▁nereáln	-11.7216
▁Hledá	-11.7216
▁neznají	-11.7216
▁štědr	-11.7216
▁stimulaci	-11.7216
▁hraček	-11.7217
▁rovný	-11.7217
▁topení	-11.7217
▁únosn	-11.7217
▁ležel	-11.7217
▁protestant	-11.7217
▁ultra	-11.7217
LSNS	-11.7217
▁třídenní	-11.7217
▁nosič	-11.7217
▁vyhledávání	-11.7217
▁Obavy	-11.7217
▁Jaw	-11.7218
▁oblouk	-11.7218
▁vyzkoušet	-11.7218
▁umělců	-11.7218
▁Klasick	-11.7218
▁nikde	-11.7218
▁zranil	-11.7218
▁bohatší	-11.7218
▁pískov	-11.7219
▁lékařství	-11.7219
▁republikánsk	-11.7219
ničím	-11.7219
▁Přenos	-11.7219
▁Jágr	-11.722
rovné	-11.722
▁kouření	-11.722
▁sněmu	-11.722
▁Januš	-11.722
▁nájezd	-11.722
▁články	-11.722
▁odezv	-11.7221
▁stanovisku	-11.7221
▁Obraz	-11.7221
▁potká	-11.7221
vracení	-11.7221
▁inteligence	-11.7222
vážil	-11.7222
▁starat	-11.7222
▁koncept	-11.7223
▁odnětí	-11.7223
▁odstoupení	-11.7223
▁kras	-11.7224
▁Kováč	-11.7225
▁koncepčn	-11.7225
▁Místopředsed	-11.7226
▁zkoumání	-11.7226
▁posílit	-11.7227
▁Stef	-11.7227
▁odnesl	-11.7227
▁sloves	-11.7228
▁nádrž	-11.7228
▁řadič	-11.7229
▁vracel	-11.7229
▁Bohu	-11.723
▁602	-11.723
▁způsobilosti	-11.723
▁dostání	-11.7231
▁sešla	-11.7231
▁Horák	-11.7231
▁přenáší	-11.7232
▁Dostál	-11.7234
▁Esc	-11.7234
▁okně	-11.7236
▁zelené	-11.7236
▁spolupracuje	-11.7237
▁jasná	-11.7238
▁manželkou	-11.7239
▁deště	-11.724
▁oběť	-11.724
▁palet	-11.7241
▁deska	-11.7241
▁Snah	-11.7243
▁Boha	-11.7244
▁překonal	-11.7248
▁pětatřicet	-11.7249
▁Dvou	-11.7252
▁skoky	-11.7257
▁křesťanské	-11.726
▁protín	-11.7263
značení	-11.7263
▁basketbalist	-11.7263
▁neplatn	-11.7264
▁technic	-11.7269
▁sochař	-11.7269
▁Indián	-11.7271
▁koncov	-11.7271
extrémně	-11.7272
▁terč	-11.7278
Edit	-11.7279
▁Hut	-11.7282
bitový	-11.7284
▁ponechal	-11.7287
tvrze	-11.7288
▁říční	-11.729
▁nechut	-11.7292
▁většinový	-11.7293
tažené	-11.7295
▁prodejen	-11.7295
▁teroristický	-11.7296
▁Výborný	-11.7297
formulovat	-11.7307
▁Park	-11.7313
Komensk	-11.7316
MW	-11.7321
▁stáj	-11.7322
▁zmiňuj	-11.7324
smluvně	-11.7334
▁Adam	-11.734
▁psací	-11.7343
point	-11.7346
▁kostr	-11.7347
▁drsn	-11.7348
▁nedoved	-11.735
▁skutečn	-11.7355
▁vyrůst	-11.7364
▁doplňují	-11.7371
▁skrz	-11.7374
▁vyplacen	-11.7378
schová	-11.7385
konkurenceschopn	-11.7396
▁stiskn	-11.7396
▁vyplněn	-11.7397
▁Běl	-11.7397
▁poločas	-11.7404
▁důvěryhodn	-11.7413
▁měnící	-11.7438
▁proměnn	-11.7441
▁působnost	-11.7441
zemědělská	-11.745
malý	-11.745
hraj	-11.7465
▁vrcholové	-11.7467
▁tělesn	-11.7475
muslimské	-11.7496
ICK	-11.75
▁meziroční	-11.7524
▁špičkov	-11.7528
▁plzeňsk	-11.7535
▁animac	-11.7542
▁návrhář	-11.755
▁oslavil	-11.7561
▁vyplatil	-11.7564
socialistický	-11.757
▁počítal	-11.7588
▁Izraelsk	-11.7588
▁specifický	-11.7597
rovnal	-11.7617
▁kancelářské	-11.7624
uživatelské	-11.7638
▁prah	-11.7643
▁připravenost	-11.7643
vládnout	-11.7648
▁1300	-11.7665
▁uzavřeno	-11.7673
▁dechov	-11.7677
mlouva	-11.7687
▁vyspěl	-11.7695
▁měkký	-11.7696
▁očekávaný	-11.7697
▁vápn	-11.7707
▁výtvarný	-11.7709
▁kult	-11.7711
▁anglick	-11.7712
▁vůdc	-11.7712
▁Nebude	-11.7713
▁Chemi	-11.776
▁individu	-11.7763
poskytla	-11.7773
▁mateřsk	-11.7774
▁Ročn	-11.7776
▁čtyřlet	-11.7777
▁vytvořený	-11.7782
stižen	-11.7784
▁poprav	-11.7786
▁mušk	-11.779
▁požadovan	-11.7801
hlídce	-11.7801
▁hrubý	-11.7803
▁ekolog	-11.7808
státní	-11.7811
soudí	-11.7818
▁9000	-11.7826
▁samotn	-11.7848
▁piv	-11.7855
▁Belgi	-11.7857
▁vypracován	-11.7857
▁výdaj	-11.7863
▁meteorolog	-11.787
▁Bój	-11.7878
▁Senát	-11.7878
▁náhradník	-11.7885
ILA	-11.789
▁každodenn	-11.7898
▁statistický	-11.7899
▁orientac	-11.7899
▁odebíra	-11.7922
▁soustředěn	-11.793
▁bitv	-11.7937
▁vytvářen	-11.7938
▁kytar	-11.794
▁Vietnam	-11.794
čátek	-11.7948
▁poruše	-11.7948
▁anket	-11.7951
radioaktivní	-11.7968
ladil	-11.7969
průchod	-11.7978
▁administra	-11.798
▁muzik	-11.798
▁Bedřich	-11.7981
deutsche	-11.7981
korespond	-11.7981
navrhovatel	-11.7981
restrukturalizac	-11.7981
soustřeďuje	-11.7981
▁Australan	-11.7981
▁Bukureš	-11.7981
▁Chvalovský	-11.7981
▁Dlouhý	-11.7981
▁Frýdku	-11.7981
▁Giovanni	-11.7981
▁Gretzky	-11.7981
▁Hercegovin	-11.7981
▁Holbrooke	-11.7981
▁Hovořil	-11.7981
▁Kravčuk	-11.7981
▁Margaret	-11.7981
▁Marseille	-11.7981
▁MicroStation	-11.7981
▁Navrátil	-11.7981
▁OpenScript	-11.7981
▁Oxfordu	-11.7981
▁Očekává	-11.7981
▁Padesát	-11.7981
▁Památk	-11.7981
▁Parlament	-11.7981
▁Plzně	-11.7981
▁Pospíšil	-11.7981
▁Překvap	-11.7981
▁Rangers	-11.7981
▁Silvestr	-11.7981
▁Sládka	-11.7981
▁Stockholm	-11.7981
▁Varšav	-11.7981
▁Zeitung	-11.7981
▁bezšňůrov	-11.7981
▁biosfér	-11.7981
▁biotechnologi	-11.7981
▁cyklů	-11.7981
▁delegací	-11.7981
▁diktatur	-11.7981
▁diskrimin	-11.7981
▁dominantní	-11.7981
▁doporučit	-11.7981
▁elektrárna	-11.7981
▁epizod	-11.7981
▁fanoušci	-11.7981
▁handicap	-11.7981
▁havárie	-11.7981
▁horizontu	-11.7981
▁hřbet	-11.7981
▁instalační	-11.7981
▁investoři	-11.7981
▁jihovýchodní	-11.7981
▁kariéry	-11.7981
▁karlovarsk	-11.7981
▁knihkupectví	-11.7981
▁libovolné	-11.7981
▁lukrativní	-11.7981
▁manažeři	-11.7981
▁medvěd	-11.7981
▁navštívit	-11.7981
▁nejčastější	-11.7981
▁návaznost	-11.7981
▁odcházel	-11.7981
▁perfektní	-11.7981
▁podmínku	-11.7981
▁podrážděn	-11.7981
▁portrét	-11.7981
▁poselství	-11.7981
▁povzbuz	-11.7981
▁prezentován	-11.7981
▁prvoligov	-11.7981
▁připomínal	-11.7981
▁příchozí	-11.7981
▁půvab	-11.7981
▁reprezentovat	-11.7981
▁revoluci	-11.7981
▁rovnoběž	-11.7981
▁rovnoměrn	-11.7981
▁roztříštěn	-11.7981
▁schvalování	-11.7981
▁službách	-11.7981
▁stránkách	-11.7981
▁substantiv	-11.7981
▁tiskárnu	-11.7981
▁trolejbus	-11.7981
▁turistiky	-11.7981
▁třicátých	-11.7981
▁uspokojit	-11.7981
▁utrpení	-11.7981
▁ušlechtil	-11.7981
▁veterinární	-11.7981
▁výcvik	-11.7981
▁zákonodárn	-11.7981
▁závislý	-11.7981
vyskytuje	-11.7981
ŠTÍ	-11.7981
▁Hendrix	-11.7981
▁Klient	-11.7981
▁Kralup	-11.7981
▁analytik	-11.7981
▁antropogenní	-11.7981
▁definován	-11.7981
▁disident	-11.7981
▁domnívat	-11.7981
▁hypoték	-11.7981
▁izolační	-11.7981
▁konvertibilit	-11.7981
▁křesla	-11.7981
▁média	-11.7981
▁nepůjde	-11.7981
▁osamostatn	-11.7981
▁poliklinik	-11.7981
▁posuzoval	-11.7981
▁středisek	-11.7981
▁tělovýchov	-11.7981
▁upravuje	-11.7981
▁všelijak	-11.7981
▁zlepšování	-11.7981
▁zvážit	-11.7981
▁západoevropský	-11.7981
▁zásuvk	-11.7981
▁útlum	-11.7981
▁čtvrtletně	-11.7981
▁Štěpán	-11.7981
▁Stráž	-11.7981
▁Záhřebu	-11.7981
▁iniciátor	-11.7981
▁legální	-11.7981
▁nevyhnul	-11.7981
▁odhodlán	-11.7981
▁zapomenut	-11.7981
▁začátečn	-11.7981
▁Kontakt	-11.7981
▁Kultur	-11.7981
▁Solidarit	-11.7981
▁dodávku	-11.7981
▁evidentn	-11.7981
▁hájit	-11.7981
▁náznak	-11.7981
▁pařížsk	-11.7981
▁výchozí	-11.7981
pište	-11.7981
▁Sportovní	-11.7981
▁fázové	-11.7981
▁lístku	-11.7981
▁ministerský	-11.7981
▁neskončil	-11.7981
▁studijní	-11.7981
▁vizuální	-11.7981
▁politici	-11.7981
▁převezme	-11.7981
▁srovnávat	-11.7981
▁chápou	-11.7981
▁vhodnější	-11.7981
▁nervozit	-11.7981
▁romantick	-11.7981
▁tabák	-11.7981
▁vůdčí	-11.7981
▁delikt	-11.7981
▁hesla	-11.7981
▁intelektuální	-11.7981
▁nebytový	-11.7981
▁recese	-11.7981
▁sváteční	-11.7981
▁vyrobit	-11.7981
▁shodli	-11.7981
▁barokní	-11.7981
▁úklid	-11.7981
▁certifikace	-11.7981
▁licenci	-11.7981
▁názvy	-11.7981
▁položek	-11.7981
▁rovnou	-11.7981
▁sazba	-11.7981
▁afrických	-11.7981
▁monarchi	-11.7981
▁židovské	-11.7981
▁vybuchl	-11.7981
▁zachycuj	-11.7981
▁látku	-11.7981
▁fašismu	-11.7981
▁přijede	-11.7981
▁stránka	-11.7981
▁netuší	-11.7981
▁prověrk	-11.7981
▁dovezen	-11.7981
▁vyřeší	-11.7981
▁vypovězen	-11.7981
▁dráze	-11.7981
▁Snímek	-11.7981
▁konektor	-11.7981
▁krizí	-11.7981
▁provází	-11.7981
▁Pechar	-11.7981
▁Žije	-11.7981
▁Belgičan	-11.7981
▁trošk	-11.7981
▁Soros	-11.7981
▁hloup	-11.7981
▁Příprav	-11.7981
▁ideologie	-11.7981
▁zátěž	-11.7981
▁mrzí	-11.7981
▁smíšený	-11.7981
▁poezie	-11.7981
▁motýl	-11.7981
ručením	-11.7981
▁klasik	-11.7981
▁zkrácení	-11.7981
▁mléko	-11.7981
▁laskav	-11.7981
▁setkávají	-11.7981
▁obrátí	-11.7981
▁Diana	-11.7981
▁letadel	-11.7982
▁Francis	-11.7982
▁Albert	-11.7982
▁záchod	-11.7982
▁obklop	-11.7982
▁pohodlně	-11.7982
▁úročen	-11.7982
▁útul	-11.7982
▁odcizi	-11.7982
▁Nynější	-11.7982
▁biologii	-11.7982
▁emisí	-11.7982
▁nezdá	-11.7982
▁podporovan	-11.7982
▁Pravidl	-11.7982
▁čtyřnásobn	-11.7982
▁rámec	-11.7982
▁opatrně	-11.7982
▁juniorů	-11.7982
▁nepochopil	-11.7982
▁akutní	-11.7982
▁postranní	-11.7982
▁iluze	-11.7982
▁šperk	-11.7982
▁prostředkem	-11.7982
▁reprezentaci	-11.7982
▁nedokonč	-11.7982
▁odrůd	-11.7982
▁nalezli	-11.7982
▁mléka	-11.7982
▁zdražení	-11.7983
▁Údaj	-11.7983
mínka	-11.7983
▁hyper	-11.7983
▁nepočítal	-11.7983
▁linie	-11.7983
▁objednávky	-11.7983
▁zaměstnanosti	-11.7983
▁krabic	-11.7983
▁rozpočtů	-11.7984
▁dárek	-11.7984
▁Obvykl	-11.7984
▁určován	-11.7984
▁Zlatý	-11.7984
▁Boston	-11.7984
▁přizpůsobení	-11.7984
▁podceňova	-11.7985
▁spolkové	-11.7985
▁Uhersk	-11.7985
▁zpravodajství	-11.7985
▁láska	-11.7985
▁Nováček	-11.7985
▁výjezd	-11.7985
▁útěk	-11.7985
▁hladovku	-11.7985
chovávat	-11.7985
▁říkat	-11.7985
▁ekologie	-11.7986
▁vyvíjet	-11.7986
▁aukcí	-11.7986
tlačil	-11.7986
▁vztek	-11.7986
▁odolnost	-11.7986
▁biologických	-11.7986
▁udělil	-11.7987
▁Lenn	-11.7987
▁deregulac	-11.7987
▁skokan	-11.7987
▁důchodců	-11.7987
▁výmluv	-11.7987
▁Hrál	-11.7987
▁Atén	-11.7988
▁poučení	-11.7988
▁vyhnul	-11.7988
jevit	-11.7988
▁Trnav	-11.7988
[...]
