<unk>	0
<s>	0
</s>	0
<doc>	0
</doc>	0
<head>	0
</head>	0
<phr>	0
</phr>	0
▁	-1.7857
,	-3.42725
.	-3.56454
u	-4.39063
a	-4.45113
▁a	-4.5073
▁v	-4.53337
m	-4.60491
▁se	-4.65535
y	-4.6989
i	-4.70514
▁na	-4.73034
ch	-4.94379
▁je	-5.18946
▁s	-5.25153
▁z	-5.25943
o	-5.31603
ho	-5.32727
á	-5.36344
▁"	-5.37939
e	-5.38633
s	-5.40522
▁že	-5.44445
í	-5.45481
t	-5.57685
▁do	-5.58714
▁o	-5.6234
ou	-5.67869
é	-5.67925
ě	-5.69511
ů	-5.70026
em	-5.70107
▁za	-5.72297
▁po	-5.72622
▁pro	-5.75726
ž	-5.84867
▁-	-5.9621
▁k	-5.98318
to	-6.0005
z	-6.02893
▁V	-6.04973
▁to	-6.13315
▁ve	-6.16566
ní	-6.17516
▁(	-6.18439
mi	-6.18796
d	-6.19049
p	-6.20731
ý	-6.21194
l	-6.25253
▁od	-6.25492
v	-6.28473
▁by	-6.28614
ně	-6.32698
k	-6.32836
▁i	-6.34254
r	-6.37614
▁ale	-6.38334
▁při	-6.38686
▁S	-6.39277
>	-6.39798
ce	-6.45524
▁ne	-6.4562
▁vy	-6.48039
▁si	-6.48283
ých	-6.52498
b	-6.53027
na	-6.54081
▁jsou	-6.5734
▁jako	-6.59045
li	-6.61996
▁které	-6.62435
te	-6.64025
ka	-6.6641
me	-6.6732
)	-6.68352
▁však	-6.7026
la	-6.70723
ku	-6.7249
ná	-6.7273
▁:	-6.74368
▁tak	-6.74615
ci	-6.75967
x	-6.76229
né	-6.76857
č	-6.7834
le	-6.78746
▁Po	-6.813
▁který	-6.81871
▁před	-6.84305
n	-6.85371
▁A	-6.86451
lo	-6.88429
▁nebo	-6.88462
it	-6.90209
st	-6.90581
ové	-6.90711
▁jeho	-6.90818
▁bude	-6.91754
š	-6.94004
?	-6.94352
ky	-6.94755
▁jen	-6.9843
j	-6.99065
h	-6.99856
▁Z	-7.00117
c	-7.00232
ého	-7.0235
▁Na	-7.03728
uje	-7.04355
mu	-7.05065
▁než	-7.06255
▁má	-7.06736
ovat	-7.10866
▁už	-7.11396
ni	-7.14318
▁O	-7.14522
▁aby	-7.14676
▁jak	-7.15737
ech	-7.15776
▁byl	-7.17075
▁pře	-7.17388
ek	-7.17634
▁jejich	-7.18148
en	-7.18604
ří	-7.18706
▁P	-7.1889
▁jsem	-7.19484
nou	-7.19576
▁být	-7.19697
g	-7.20652
▁až	-7.21663
▁Je	-7.22411
in	-7.23429
f	-7.23459
▁která	-7.24194
vá	-7.24274
ře	-7.24384
▁také	-7.24917
al	-7.25841
▁K	-7.25853
ze	-7.26931
že	-7.27445
▁podle	-7.27579
no	-7.28044
▁jsme	-7.28161
▁<	-7.293
cí	-7.30453
ová	-7.3084
ta	-7.32692
po	-7.33218
▁ze	-7.34706
▁co	-7.38434
ti	-7.38483
ný	-7.39071
ra	-7.3957
il	-7.39726
ým	-7.40756
jí	-7.41242
▁mezi	-7.41259
▁není	-7.41694
▁bylo	-7.44895
ne	-7.4497
▁ani	-7.45299
▁let	-7.45804
▁své	-7.46351
ko	-7.46632
ování	-7.46925
▁či	-7.4759
▁ještě	-7.47597
ru	-7.47766
▁již	-7.48432
▁Ne	-7.49448
ro	-7.49491
▁když	-7.49671
lu	-7.50559
▁může	-7.50702
vě	-7.50833
▁pod	-7.51113
▁korun	-7.5203
ř	-7.52498
▁byla	-7.52992
ské	-7.53188
kud	-7.54003
pl	-7.54229
▁toho	-7.54682
ách	-7.55685
/	-7.56159
▁roz	-7.57009
on	-7.577
ových	-7.57966
ných	-7.58582
▁M	-7.59057
ují	-7.59608
ň	-7.59913
).	-7.59995
▁To	-7.61237
va	-7.61697
▁pak	-7.61761
ov	-7.62212
čí	-7.62425
▁další	-7.63301
ny	-7.63315
▁bez	-7.63855
▁kteří	-7.65267
▁kde	-7.65719
če	-7.66375
▁tím	-7.66599
ři	-7.67045
ost	-7.6706
el	-7.67633
da	-7.6855
ma	-7.6868
▁U	-7.68804
▁více	-7.69028
▁H	-7.7052
vý	-7.70781
kou	-7.71171
▁Do	-7.71229
▁J	-7.71324
▁tedy	-7.71572
ům	-7.71613
▁ob	-7.71716
or	-7.71717
▁té	-7.71776
▁první	-7.71874
▁roku	-7.71961
▁D	-7.72384
ba	-7.72388
lá	-7.75169
▁I	-7.7571
at	-7.75849
),	-7.76105
▁nich	-7.76554
tu	-7.77878
▁Za	-7.78162
S	-7.78676
děl	-7.79053
ovi	-7.79482
ví	-7.7991
▁kdy	-7.80111
▁mají	-7.81142
▁Pro	-7.83115
▁proti	-7.83296
je	-7.84001
D	-7.85585
vol	-7.85749
er	-7.85775
▁roce	-7.85946
▁pouze	-7.86207
-	-7.86372
▁musí	-7.86381
tr	-7.86456
▁tu	-7.86492
nu	-7.86726
ly	-7.8742
cích	-7.87533
▁tom	-7.88385
lí	-7.88835
▁proto	-7.89201
▁ke	-7.89549
▁tomu	-7.89891
se	-7.90178
▁B	-7.90246
ri	-7.90284
▁nad	-7.9031
vi	-7.90576
hr	-7.91279
re	-7.92508
kr	-7.92759
▁budou	-7.92967
tě	-7.93002
▁nej	-7.9348
▁třeba	-7.94017
▁G	-7.94374
ním	-7.94937
de	-7.95224
▁li	-7.95241
▁protože	-7.95349
▁totiž	-7.9607
ného	-7.96753
▁nás	-7.9715
či	-7.97164
ém	-7.97613
▁přes	-7.97703
ový	-7.97838
▁lze	-7.98457
oval	-7.98561
M	-7.99437
▁asi	-7.99864
ší	-7.99998
▁vlastní	-8.00005
ha	-8.00336
by	-8.0067
▁F	-8.0076
ty	-8.00919
ků	-8.01389
▁Při	-8.02138
▁její	-8.02574
▁poslední	-8.02754
▁T	-8.03125
ká	-8.03223
P	-8.03331
osti	-8.0334
▁velmi	-8.03534
▁byly	-8.03554
nost	-8.03999
▁měl	-8.04003
▁L	-8.04114
▁zatím	-8.04115
5	-8.04423
▁řekl	-8.04465
co	-8.04831
6	-8.0508
du	-8.05694
an	-8.06033
še	-8.06236
ově	-8.06568
ry	-8.0699
T	-8.07708
od	-8.07804
bu	-8.08716
▁včera	-8.08821
▁tisíc	-8.09298
▁ú	-8.09676
2	-8.09916
ních	-8.10172
▁ji	-8.10439
is	-8.11968
▁dnes	-8.12907
▁všech	-8.12956
▁Ko	-8.13177
ží	-8.13369
ovou	-8.13494
ská	-8.13885
▁dva	-8.14181
▁firmy	-8.14221
4	-8.1532
N	-8.15448
dí	-8.16275
ace	-8.16506
▁především	-8.1653
za	-8.16631
▁ty	-8.17231
si	-8.17378
▁Jak	-8.17444
ového	-8.17478
ami	-8.17479
ců	-8.18112
3	-8.18258
▁nám	-8.18353
ích	-8.18726
tra	-8.18838
▁případě	-8.18998
▁Ve	-8.19638
us	-8.19747
▁'	-8.19879
ši	-8.20167
ve	-8.20409
▁například	-8.20649
ský	-8.2098
tá	-8.21006
▁dvou	-8.21085
▁procent	-8.21596
▁mít	-8.22197
▁Co	-8.22219
▁jim	-8.22511
ení	-8.22552
▁Podl	-8.22839
▁rok	-8.22845
K	-8.22899
R	-8.22901
dr	-8.23097
ských	-8.23249
▁C	-8.2339
hl	-8.23471
▁tři	-8.23747
▁době	-8.23823
▁nyní	-8.23922
nější	-8.24403
pr	-8.24462
B	-8.24771
právě	-8.26386
▁de	-8.26777
spo	-8.26826
kem	-8.26996
V	-8.27602
ným	-8.27927
▁Š	-8.28315
ar	-8.28427
▁mohou	-8.28829
▁lidí	-8.28908
C	-8.291
▁společnosti	-8.29132
▁jeden	-8.29223
▁práce	-8.2927
7	-8.29497
pra	-8.2963
ální	-8.29646
ím	-8.29795
▁stále	-8.29878
▁zda	-8.29924
kon	-8.30462
▁těchto	-8.30488
▁ovšem	-8.30614
I	-8.3078
▁všechny	-8.30898
ec	-8.31379
ám	-8.31782
pe	-8.31828
ické	-8.32603
et	-8.32781
▁19	-8.32788
tí	-8.3279
▁několik	-8.33079
▁Ale	-8.33717
1	-8.34159
ými	-8.3416
pa	-8.34453
▁něm	-8.34632
...	-8.34775
ol	-8.34971
ského	-8.34978
▁kterou	-8.34994
lé	-8.35322
▁což	-8.35582
9	-8.36039
▁mě	-8.36231
▁větší	-8.36666
ující	-8.37168
nosti	-8.37549
▁tento	-8.37793
aci	-8.38705
▁nez	-8.38887
▁re	-8.39207
vod	-8.39726
▁možné	-8.40067
▁jednání	-8.4013
val	-8.40578
ť	-8.40685
ční	-8.4084
▁W	-8.41078
w	-8.41115
▁České	-8.41273
0	-8.41282
▁stát	-8.41823
▁R	-8.41867
ila	-8.41901
fi	-8.41941
▁dalších	-8.4213
▁Od	-8.42283
ter	-8.425
vr	-8.4274
ili	-8.42831
cela	-8.42878
▁nové	-8.43171
ova	-8.43509
ob	-8.43611
L	-8.43698
▁pří	-8.43715
zí	-8.44281
dy	-8.4436
▁ČR	-8.44646
sti	-8.44679
▁měla	-8.44753
▁naše	-8.44804
▁kdo	-8.44839
stav	-8.44866
lou	-8.44899
str	-8.44916
ot	-8.45061
▁Praze	-8.45412
▁zejména	-8.46003
ští	-8.46092
ur	-8.46266
téměř	-8.46358
os	-8.46573
▁základní	-8.46663
▁jde	-8.46708
▁zařízení	-8.46801
vo	-8.46961
▁svou	-8.47057
lit	-8.47429
O	-8.47663
▁10	-8.48267
▁Vy	-8.48475
br	-8.48637
8	-8.48677
▁E	-8.48696
▁Proto	-8.48837
▁strany	-8.49096
▁část	-8.49268
vy	-8.49819
▁3	-8.49852
man	-8.5007
▁možnost	-8.50307
hu	-8.50652
▁naši	-8.50655
▁prostředí	-8.50803
ing	-8.50852
U	-8.5114
ji	-8.51205
▁letech	-8.51583
▁sice	-8.52251
▁dvě	-8.52487
▁Kdy	-8.52507
▁svého	-8.52769
bě	-8.53008
▁každý	-8.53429
▁svých	-8.53907
▁svět	-8.54073
▁jiné	-8.54158
pat	-8.54469
A	-8.54603
▁kon	-8.54928
E	-8.54952
▁nejen	-8.55175
pis	-8.55596
ání	-8.55604
ované	-8.55766
▁Ch	-8.56307
▁nepo	-8.56728
▁místo	-8.56758
▁země	-8.5681
Á	-8.56866
▁zákon	-8.57087
es	-8.57087
▁obchodní	-8.57252
klad	-8.5729
▁uvedl	-8.57842
let	-8.57863
op	-8.58149
▁tomto	-8.58167
ají	-8.58172
▁světa	-8.58237
vat	-8.58335
vedl	-8.59065
mat	-8.59215
▁neu	-8.59224
ič	-8.59366
Z	-8.59544
▁Tak	-8.59664
▁mu	-8.59766
ační	-8.59998
▁druhé	-8.60113
ven	-8.60173
ček	-8.60386
ant	-8.60783
sp	-8.61269
▁čas	-8.61405
▁zde	-8.61765
▁milionů	-8.61909
nout	-8.61934
▁000	-8.61955
▁nevy	-8.62045
▁systém	-8.62292
ovali	-8.6296
▁sociální	-8.63096
▁něco	-8.6315
▁vlády	-8.63303
▁svým	-8.63455
ací	-8.63542
▁N	-8.63625
▁nic	-8.63778
ú	-8.64759
▁stejně	-8.64786
▁říká	-8.65031
há	-8.65175
ga	-8.65614
nov	-8.6562
sta	-8.66254
▁kolem	-8.66332
▁některé	-8.66338
▁ceny	-8.6708
00	-8.67388
▁zboží	-8.67889
▁zákona	-8.67893
▁tam	-8.68102
nit	-8.68364
▁Jan	-8.68661
nik	-8.68845
▁pracovní	-8.68979
▁1	-8.69229
▁Bo	-8.69232
▁opět	-8.69539
▁oblasti	-8.69808
▁2	-8.70007
F	-8.7011
▁Te	-8.70155
▁dobře	-8.70342
▁příliš	-8.70392
▁patří	-8.70558
stup	-8.70724
té	-8.70765
gr	-8.70909
▁několika	-8.70931
▁program	-8.70989
▁finanční	-8.71036
▁svůj	-8.71218
▁dosud	-8.71227
▁%	-8.71399
▁nes	-8.71544
▁některých	-8.71596
ního	-8.71634
▁způsob	-8.71707
▁práci	-8.71898
án	-8.72204
▁firma	-8.72237
▁zemí	-8.72325
▁Se	-8.72442
as	-8.72871
ste	-8.72943
sk	-8.73106
▁prezident	-8.7314
ali	-8.7314
▁vůbec	-8.73268
▁4	-8.73496
▁byli	-8.73739
▁nedo	-8.73932
▁osob	-8.73985
▁vždy	-8.74482
men	-8.74622
sku	-8.74706
▁období	-8.75011
▁5	-8.75177
skou	-8.75365
▁ten	-8.75658
zn	-8.75721
▁státní	-8.75862
▁neboť	-8.75863
žen	-8.76085
ství	-8.76226
ovací	-8.76337
▁zájem	-8.76398
▁zahraniční	-8.77181
▁pět	-8.77393
▁velký	-8.77504
▁sto	-8.7757
▁Ma	-8.78064
▁hodin	-8.7865
ější	-8.78732
ovala	-8.78751
▁6	-8.7884
ad	-8.79235
ice	-8.79276
▁nejsou	-8.79324
ovým	-8.79401
▁často	-8.79623
▁sebe	-8.79708
▁střední	-8.79733
▁Ta	-8.79747
▁vyšší	-8.79781
do	-8.80097
rad	-8.80311
čka	-8.80355
▁velké	-8.80429
▁nemá	-8.80509
▁půl	-8.81077
▁systému	-8.81172
▁20	-8.81211
kl	-8.81494
rt	-8.81536
▁dokonce	-8.81547
▁USA	-8.81557
ul	-8.8169
▁jež	-8.81788
▁jste	-8.8194
▁jedn	-8.82103
▁vše	-8.82262
▁přímo	-8.82315
ník	-8.82576
%	-8.8269
▁Ty	-8.82816
▁společnost	-8.82882
rů	-8.83225
▁čtyři	-8.83396
▁měli	-8.83408
▁sám	-8.8352
mluv	-8.83597
ik	-8.83741
▁stav	-8.83825
▁pa	-8.83921
▁Kč	-8.83957
▁Re	-8.84049
▁lidé	-8.84232
▁ředitel	-8.84337
▁celé	-8.84391
▁části	-8.84583
▁neza	-8.84632
▁Ro	-8.84634
ev	-8.84816
▁Js	-8.84829
▁postup	-8.85133
▁doby	-8.85155
▁nebude	-8.85173
form	-8.8523
během	-8.853
▁den	-8.85444
kov	-8.8574
▁rovněž	-8.85766
▁snad	-8.85934
▁Před	-8.85965
hled	-8.86008
cen	-8.86039
ber	-8.86063
▁níž	-8.86416
dní	-8.86516
▁informace	-8.86547
▁1992	-8.86756
▁trhu	-8.86811
▁Mo	-8.87118
▁vám	-8.87162
▁První	-8.87348
▁počet	-8.87383
▁nimi	-8.87396
vůli	-8.87844
▁mnoho	-8.87856
včetně	-8.88145
▁tří	-8.88159
zřejmě	-8.884
▁situace	-8.8854
▁život	-8.88605
kové	-8.88637
▁soud	-8.88689
▁takže	-8.88729
sko	-8.88873
ck	-8.89118
▁mohl	-8.8912
▁zahraničí	-8.89348
▁životní	-8.89768
:	-8.89846
ed	-8.90095
ském	-8.90104
tato	-8.90416
▁ex	-8.90812
▁návrh	-8.90899
álně	-8.90901
per	-8.90941
▁méně	-8.91454
ran	-8.91517
▁např	-8.91671
▁ministr	-8.91876
rod	-8.91962
▁současné	-8.92035
čin	-8.92104
▁Evropy	-8.92228
▁peníze	-8.92229
▁Pa	-8.92231
▁jedna	-8.92247
▁řešení	-8.9229
▁obchod	-8.92481
▁takové	-8.92814
▁víc	-8.93082
▁Zatím	-8.9309
▁St	-8.93313
jší	-8.93333
▁něj	-8.93607
▁největší	-8.94161
▁podíl	-8.94205
▁chce	-8.94227
▁způsobem	-8.94332
ud	-8.9485
▁člověk	-8.94884
hy	-8.95108
▁spolu	-8.95123
▁Tr	-8.95182
▁spíše	-8.95214
▁české	-8.95396
▁dále	-8.9544
▁republiky	-8.95471
▁význam	-8.95877
▁rozdíl	-8.96031
nes	-8.9623
▁mezinárodní	-8.96278
▁navíc	-8.96496
▁přitom	-8.96541
▁rozhodnutí	-8.96569
▁jednotlivý	-8.96916
H	-8.96952
▁dobu	-8.97141
▁znamená	-8.97163
ném	-8.97179
▁vlastně	-8.97434
▁šest	-8.97581
ák	-8.97672
▁problémy	-8.9775
▁jednoho	-8.97805
▁mimo	-8.9784
krát	-8.97856
up	-8.97878
▁Ob	-8.98166
▁naopak	-8.98253
nění	-8.98257
▁znovu	-8.98263
▁plán	-8.98274
nice	-8.98279
▁15	-8.98291
vní	-8.98545
▁množství	-8.98698
▁Č	-8.98786
▁dost	-8.99129
▁chyb	-8.99283
olog	-8.99475
▁Le	-8.99475
rán	-8.9959
▁di	-8.99751
▁provoz	-8.99802
▁Pří	-9.00084
bou	-9.00176
dob	-9.00233
▁naší	-9.00311
▁letošní	-9.00361
jde	-9.00383
▁skutečně	-9.00611
▁města	-9.00682
▁Petr	-9.00751
▁výkon	-9.00821
ště	-9.00871
nt	-9.01237
▁straně	-9.01265
▁většinou	-9.01405
gen	-9.01642
pro	-9.0171
▁zhruba	-9.01928
ář	-9.02012
▁Ka	-9.02166
▁jaké	-9.02266
itel	-9.02286
▁1.	-9.02545
▁základ	-9.02567
▁dlouho	-9.02771
▁Vý	-9.02897
níci	-9.02987
▁prodej	-9.03003
▁pan	-9.03256
hal	-9.03337
šlo	-9.03403
▁Pod	-9.03448
▁vláda	-9.0361
les	-9.03668
▁řízení	-9.03669
▁území	-9.0372
jezd	-9.03738
ón	-9.03878
▁jej	-9.04074
▁text	-9.04075
id	-9.04096
▁nejlepší	-9.04171
▁Jiří	-9.04192
▁jiných	-9.04219
▁platí	-9.04284
čení	-9.04369
▁minut	-9.04672
▁celý	-9.04673
▁nelze	-9.04703
Í	-9.05049
ován	-9.05069
▁zase	-9.05198
▁začal	-9.05214
▁bych	-9.0552
dle	-9.05533
sky	-9.05804
mysl	-9.0582
▁letos	-9.06216
ner	-9.06264
▁smlouvy	-9.06571
▁tzv	-9.06613
▁dolarů	-9.06637
▁Al	-9.06839
íme	-9.06919
▁bo	-9.06957
▁vedoucí	-9.07103
▁cen	-9.07161
▁Li	-9.07316
ovaných	-9.07399
▁problém	-9.07602
▁pěti	-9.07615
▁Václav	-9.0783
▁jedné	-9.07999
šel	-9.08029
▁deset	-9.08319
▁pomocí	-9.08333
▁trh	-9.08418
▁lepší	-9.08521
▁představ	-9.08859
▁Byl	-9.09208
▁roky	-9.09313
▁činnosti	-9.09365
▁obě	-9.09472
▁prohlásil	-9.09617
▁třetí	-9.09713
vede	-9.0988
ilo	-9.09925
iště	-9.09956
nými	-9.10359
▁znám	-9.10493
G	-9.10534
▁Přesto	-9.10619
kol	-9.10622
ač	-9.10955
▁Další	-9.11009
▁moc	-9.11095
▁vás	-9.11186
▁jednou	-9.1122
fr	-9.11229
▁málo	-9.11292
kla	-9.11378
nil	-9.11407
koli	-9.11463
▁různých	-9.11551
▁světě	-9.11599
ir	-9.1194
▁7	-9.11987
▁později	-9.1202
▁americké	-9.12073
▁hlavní	-9.12182
var	-9.1228
▁Má	-9.12295
▁konce	-9.12306
▁Ná	-9.12358
▁plyn	-9.12895
▁nemůže	-9.12943
▁můžete	-9.1321
lin	-9.13319
▁30	-9.13409
▁trenér	-9.13423
▁vedení	-9.13428
▁státu	-9.13464
he	-9.13489
▁zdravotní	-9.13556
▁ČSFR	-9.13556
▁menší	-9.13565
nese	-9.13651
be	-9.13682
ST	-9.13693
bl	-9.13936
ému	-9.13997
voz	-9.1422
ických	-9.143
▁programu	-9.14417
▁člověka	-9.14451
▁já	-9.14462
▁bývalé	-9.14494
▁Evropě	-9.14595
▁mo	-9.146
▁jedno	-9.14735
▁století	-9.15119
▁podniku	-9.15223
▁řád	-9.1528
▁věd	-9.15317
▁tým	-9.15325
▁skupiny	-9.15351
vin	-9.15398
rob	-9.15415
▁Lu	-9.15643
▁služby	-9.15645
tek	-9.15758
▁věci	-9.15859
rát	-9.15938
▁Pře	-9.15992
iz	-9.16137
▁autor	-9.16196
ig	-9.16202
▁hlas	-9.16251
▁nemoc	-9.16276
▁činnost	-9.16461
▁domácí	-9.16541
▁funkce	-9.16709
▁jinak	-9.16711
▁prý	-9.16794
RA	-9.16824
▁vývoj	-9.16859
ův	-9.16933
▁Ú	-9.16952
por	-9.17006
▁plat	-9.17062
▁dál	-9.17094
▁16	-9.17323
▁La	-9.17341
▁mělo	-9.1743
▁zároveň	-9.17434
iny	-9.17622
▁kole	-9.17656
▁situaci	-9.17778
▁Nej	-9.17967
▁nových	-9.17986
▁škol	-9.18089
▁dnešní	-9.18323
▁dobré	-9.1834
pol	-9.18415
▁list	-9.18661
ického	-9.18731
▁obou	-9.18862
▁připraven	-9.18862
▁možná	-9.18863
▁snímku	-9.18865
▁malé	-9.18964
bor	-9.19267
▁náklady	-9.19271
▁prostor	-9.19476
ající	-9.19477
▁stojí	-9.19484
tní	-9.19584
▁fakt	-9.196
▁CD	-9.19607
potřeb	-9.19636
▁100	-9.19716
▁přesto	-9.19722
▁ostatní	-9.20127
tur	-9.2017
▁prvním	-9.2029
ď	-9.2033
▁titul	-9.20516
▁místní	-9.20605
▁stran	-9.20653
▁republik	-9.20679
▁Ten	-9.20764
dra	-9.20789
▁máme	-9.20877
▁firem	-9.20917
plat	-9.20963
raz	-9.20994
▁tvrdí	-9.21027
▁Rad	-9.21063
▁1993	-9.21066
▁děti	-9.21067
▁kom	-9.21069
▁nepři	-9.21088
▁mohli	-9.21185
▁cenu	-9.21221
rn	-9.21269
▁podnik	-9.21295
nutí	-9.21378
▁měly	-9.21399
▁hor	-9.21547
del	-9.21737
▁In	-9.21812
▁11	-9.22061
NÍ	-9.22109
▁získat	-9.22187
▁Praha	-9.22187
ovém	-9.2229
▁9	-9.22393
▁prav	-9.22766
▁led	-9.22801
▁Ba	-9.22945
bychom	-9.23094
▁určité	-9.23122
▁států	-9.23294
▁majetku	-9.2332
▁dokument	-9.2332
▁nakonec	-9.23321
kor	-9.23395
▁slov	-9.2348
▁těch	-9.2352
▁toto	-9.2352
▁všechno	-9.23528
čky	-9.23759
ární	-9.23897
▁nikdy	-9.23898
▁čtyř	-9.2422
▁Da	-9.24267
ct	-9.24397
kách	-9.24533
lek	-9.2454
▁právní	-9.24714
ic	-9.24813
▁premiér	-9.24879
gu	-9.2488
▁Mar	-9.24913
▁výši	-9.24942
čet	-9.25008
ována	-9.25097
▁Br	-9.25117
▁podniků	-9.25146
▁25	-9.25244
ér	-9.25371
▁papír	-9.25636
▁pár	-9.25692
▁svém	-9.25694
tře	-9.25702
atel	-9.25725
▁dat	-9.25985
dit	-9.26007
▁14	-9.26008
ej	-9.26178
▁neo	-9.26246
▁vliv	-9.26282
▁Ho	-9.26303
stoupil	-9.26315
▁dříve	-9.26339
▁obyvatel	-9.26452
ovaný	-9.265
▁osm	-9.26561
▁dne	-9.26618
▁lety	-9.26827
ment	-9.26828
▁vody	-9.2686
▁nového	-9.26875
▁možnosti	-9.26974
ložit	-9.26985
kul	-9.26989
▁místě	-9.2699
ak	-9.27099
zen	-9.27131
ily	-9.27179
▁proč	-9.27203
▁projekt	-9.27231
▁sobotu	-9.2739
▁Prahy	-9.2739
dl	-9.27409
▁zdá	-9.27442
▁nebyl	-9.2764
▁bod	-9.27812
jem	-9.27815
▁nutné	-9.27986
▁kdyby	-9.28124
ver	-9.28196
▁kam	-9.28272
▁vyh	-9.28294
dů	-9.2838
▁odbor	-9.28402
nul	-9.28469
▁stavu	-9.28561
▁týden	-9.28663
aj	-9.28718
vil	-9.28866
nem	-9.28932
viz	-9.28943
fo	-9.28992
ící	-9.2928
ang	-9.29383
▁parlamentu	-9.29388
▁předseda	-9.29452
ené	-9.29802
▁zisk	-9.29929
▁ode	-9.30005
▁Tento	-9.30055
▁12	-9.30087
▁ministerstva	-9.30402
▁pohled	-9.30415
▁zemi	-9.30475
▁přece	-9.30513
▁svaz	-9.3053
nos	-9.30592
ska	-9.30694
▁bychom	-9.30755
▁vítěz	-9.31001
▁Zá	-9.31144
▁De	-9.31231
▁obraz	-9.31337
▁Tato	-9.31444
▁telefon	-9.31482
▁informací	-9.31633
▁organizace	-9.31633
▁policie	-9.31633
▁všichni	-9.31633
▁svobod	-9.31671
▁akce	-9.31708
▁samozřejmě	-9.31711
▁potom	-9.31727
vu	-9.31912
byl	-9.31949
ó	-9.32082
CH	-9.3218
▁rychle	-9.32219
▁vů	-9.32231
▁model	-9.32259
▁nikdo	-9.32259
▁poté	-9.3228
▁přístup	-9.32308
▁Není	-9.32384
▁můžeme	-9.32447
pt	-9.32588
▁nový	-9.32767
▁Klaus	-9.32896
▁hlavně	-9.32899
▁poměrně	-9.33013
slov	-9.33014
ele	-9.33022
▁druhý	-9.33027
nebo	-9.33146
▁původní	-9.33308
▁českých	-9.33346
▁skupin	-9.33476
▁Kromě	-9.33508
▁nižší	-9.33508
ge	-9.33822
tvo	-9.33848
▁dodal	-9.33906
▁věcí	-9.33949
▁vyp	-9.33959
▁výrazně	-9.33966
měř	-9.33986
stal	-9.34026
▁sdružení	-9.34141
trochu	-9.34142
▁dvěma	-9.34266
ké	-9.34291
J	-9.34313
▁prezidenta	-9.34382
ským	-9.34435
▁cena	-9.34443
ková	-9.34457
▁něho	-9.34539
▁50	-9.34562
šť	-9.34576
tů	-9.34588
ický	-9.34685
▁krok	-9.34701
ovány	-9.34811
▁Di	-9.35268
▁člen	-9.35296
vou	-9.35406
▁SSSR	-9.35419
čil	-9.35421
fe	-9.35422
▁sobě	-9.35431
▁efekt	-9.3546
mír	-9.35497
▁vod	-9.35573
▁dr	-9.35676
▁Kr	-9.35701
▁Jana	-9.35776
pokoj	-9.35856
znal	-9.35858
▁klub	-9.35933
▁Ti	-9.36023
▁prohlášení	-9.36064
▁Mezi	-9.36077
býval	-9.3624
bar	-9.36289
nské	-9.36366
▁sta	-9.36369
▁200	-9.36423
▁výhod	-9.36669
▁podmínky	-9.36714
▁komise	-9.36714
▁Jestli	-9.36715
▁někdy	-9.36716
prve	-9.36763
jedná	-9.36772
▁Pr	-9.36816
▁žádné	-9.36857
ností	-9.37079
cké	-9.3708
▁Jako	-9.37135
kami	-9.3736
ovy	-9.37515
▁pís	-9.37586
dním	-9.3765
▁13	-9.37651
▁večer	-9.37821
▁základě	-9.37845
jich	-9.37941
▁služeb	-9.38025
▁výroby	-9.38025
▁zemích	-9.38105
▁určen	-9.382
▁západní	-9.3824
átor	-9.3834
▁mnoh	-9.38371
▁Evropské	-9.38381
tor	-9.38448
ovalo	-9.38488
▁kromě	-9.38511
▁došlo	-9.38568
▁vz	-9.38609
and	-9.38673
▁8	-9.38684
▁většina	-9.38687
▁deseti	-9.38811
ovaly	-9.38958
▁An	-9.39178
▁projev	-9.3922
ická	-9.39245
▁podporu	-9.39371
lem	-9.39384
Č	-9.39466
▁růst	-9.39494
▁čím	-9.39592
▁schopn	-9.39606
▁místa	-9.39712
ření	-9.39769
hle	-9.39916
▁hned	-9.4004
der	-9.4043
ici	-9.40454
▁hra	-9.40499
▁šesti	-9.40551
▁mnoha	-9.40575
▁peněz	-9.40701
▁tvoří	-9.40715
▁výstav	-9.408
▁nejvyšší	-9.40815
▁rodin	-9.40828
▁miliard	-9.41149
▁názor	-9.41232
▁jich	-9.41296
▁tehdy	-9.41381
▁života	-9.41383
▁jistě	-9.4139
▁rozpočtu	-9.41391
▁pomoc	-9.41419
zo	-9.41483
▁uměl	-9.41506
▁objekt	-9.41515
▁pokus	-9.4152
▁start	-9.41761
▁sedm	-9.4177
bal	-9.41922
▁dal	-9.41941
▁vysoké	-9.42066
▁malý	-9.42122
▁hry	-9.42126
graf	-9.42242
▁vstup	-9.4227
▁1991	-9.42291
Š	-9.42347
tem	-9.42382
▁východní	-9.42542
▁nějak	-9.42593
▁nepro	-9.42644
nd	-9.42736
res	-9.42755
▁dosavadní	-9.42756
▁vítězství	-9.42773
▁teď	-9.42784
mohlo	-9.42785
▁práv	-9.42849
ina	-9.42911
▁nena	-9.42943
mer	-9.42948
ané	-9.42997
bud	-9.43013
▁milionu	-9.43112
▁členů	-9.43157
▁her	-9.43313
▁nebylo	-9.43329
van	-9.43367
proti	-9.43394
▁správ	-9.43395
▁40	-9.43412
▁úřad	-9.43423
▁manžel	-9.43435
▁založen	-9.4344
▁prosince	-9.4345
▁poprvé	-9.43456
▁prostředky	-9.43461
▁úkol	-9.43501
mohla	-9.43615
▁sil	-9.4371
inter	-9.43746
nka	-9.43953
▁neod	-9.44
▁chtěl	-9.44011
▁spor	-9.44087
▁konkrétní	-9.44149
▁unie	-9.44159
go	-9.44215
▁film	-9.44286
▁18	-9.44301
Ž	-9.44373
ika	-9.44375
št	-9.44467
▁žádný	-9.44632
▁vys	-9.44646
čku	-9.44687
▁test	-9.44696
hn	-9.44801
▁spolupráci	-9.44854
▁výsledky	-9.44854
▁opatření	-9.44854
▁zůstal	-9.44856
▁teprve	-9.44878
▁rozvoj	-9.45022
▁boj	-9.45029
▁zas	-9.45455
▁času	-9.45564
slav	-9.45567
rat	-9.45571
▁politické	-9.4578
▁Ku	-9.45881
▁spoj	-9.46066
ca	-9.46087
rak	-9.46172
kládá	-9.46192
▁ODS	-9.46268
▁1994	-9.46277
▁prakticky	-9.46335
▁vnitřní	-9.46407
▁Ar	-9.46537
▁jenž	-9.4654
plav	-9.46588
ster	-9.46594
měr	-9.4676
▁skutečnost	-9.4691
▁hlediska	-9.46996
▁manažer	-9.46996
▁prostřednictví	-9.46997
tky	-9.47009
▁utkání	-9.47062
▁stejné	-9.47113
▁střed	-9.47156
len	-9.47451
▁šéf	-9.47457
▁stál	-9.47494
počíta	-9.47576
▁pořád	-9.47592
vání	-9.47611
▁republice	-9.47721
pravidla	-9.47721
▁velice	-9.47731
▁celou	-9.478
nici	-9.47803
ujeme	-9.4799
lék	-9.47998
ard	-9.48027
▁ministra	-9.48044
▁dostal	-9.48202
▁procenta	-9.48217
▁stal	-9.48281
port	-9.48319
▁celkové	-9.48321
▁někdo	-9.48453
▁změn	-9.48481
▁daně	-9.48641
▁úspěch	-9.48684
vali	-9.48711
cký	-9.48911
▁souhlas	-9.48933
▁Ž	-9.48991
▁muž	-9.49006
▁auto	-9.49029
▁nepře	-9.49061
▁dispozici	-9.49186
▁následující	-9.49187
▁oprav	-9.49204
▁jejím	-9.49321
▁souvislosti	-9.49454
▁Ha	-9.49553
díky	-9.4972
▁stud	-9.4975
nc	-9.49776
OV	-9.49825
▁Jelcin	-9.49851
▁kontrol	-9.4989
▁24	-9.49898
▁prv	-9.49898
▁1990	-9.49927
▁mluvčí	-9.49943
nk	-9.4998
▁Jen	-9.50063
▁typu	-9.5013
▁post	-9.50151
▁pu	-9.50243
ostí	-9.50245
ovaná	-9.50314
▁sestav	-9.50342
▁řadu	-9.50344
50	-9.50516
▁kterým	-9.5055
cím	-9.50644
▁dá	-9.5065
▁záměr	-9.50676
▁rámci	-9.50683
▁nákup	-9.50784
zv	-9.50797
▁změny	-9.50846
▁ledna	-9.50861
▁prostě	-9.51038
▁Pak	-9.51088
nský	-9.51423
▁osobní	-9.51425
▁nejméně	-9.51445
par	-9.51464
▁musel	-9.51505
▁podařilo	-9.51542
▁budeme	-9.51685
trž	-9.51923
▁mne	-9.51955
šti	-9.52146
▁společné	-9.52301
ává	-9.52345
▁roli	-9.52351
▁sebou	-9.52353
▁vět	-9.52356
▁loni	-9.52367
▁jednot	-9.5245
py	-9.5247
▁všem	-9.52484
brán	-9.52627
alo	-9.52674
▁míst	-9.52716
koliv	-9.52836
▁živ	-9.52861
▁různé	-9.52892
▁proces	-9.52916
▁Například	-9.52946
▁podnikání	-9.52995
bývá	-9.53015
hla	-9.53322
▁čs	-9.53334
▁státy	-9.53389
denní	-9.53409
▁Roz	-9.53441
▁bank	-9.53501
den	-9.53579
▁doma	-9.53675
▁princip	-9.5368
▁minulý	-9.5372
▁opravdu	-9.53752
▁tolik	-9.53864
▁Jde	-9.53944
▁výše	-9.53981
óz	-9.53985
▁Cen	-9.54003
▁výzkum	-9.54031
▁my	-9.54179
ala	-9.54192
▁tenis	-9.54229
ať	-9.5423
▁právo	-9.54263
▁fond	-9.54301
▁Du	-9.54361
▁volební	-9.54403
chází	-9.5443
vést	-9.54438
▁miliónů	-9.54491
▁smlouvu	-9.54491
▁funkci	-9.54493
▁snaží	-9.54495
▁nedávno	-9.54541
icky	-9.54651
▁lev	-9.54695
ten	-9.54724
▁kap	-9.54744
▁náš	-9.54761
▁účast	-9.54835
nci	-9.54859
nek	-9.55048
▁vládní	-9.5512
▁zákaz	-9.55233
▁termín	-9.55272
▁Dnes	-9.55365
▁disk	-9.55457
▁zvýšení	-9.55482
lení	-9.55587
žení	-9.55683
▁rozhodl	-9.55684
dal	-9.557
ký	-9.55751
▁získal	-9.55765
vají	-9.55968
▁okolí	-9.56065
▁věc	-9.56105
▁Kdo	-9.56227
▁měsíců	-9.56293
oč	-9.56317
▁Dr	-9.56682
▁ministerstvo	-9.56853
▁zvláštní	-9.56853
▁koaliční	-9.56853
▁chtějí	-9.56853
▁slova	-9.56886
nic	-9.569
▁případ	-9.56967
▁chování	-9.56968
▁dnech	-9.57033
▁pojištění	-9.57038
AN	-9.57094
▁léč	-9.57193
▁novin	-9.5726
▁chod	-9.57376
▁středu	-9.57406
▁objevil	-9.57414
uji	-9.57428
▁ztrát	-9.57559
▁bývalý	-9.57599
▁jiného	-9.57601
▁gen	-9.57645
▁Windows	-9.57653
▁hvězd	-9.57653
▁jediný	-9.57666
▁Zeman	-9.57678
▁přednost	-9.5768
dávají	-9.57833
▁ekonomické	-9.5786
▁národní	-9.57895
▁dopis	-9.57905
lep	-9.57907
▁dosáhl	-9.5792
▁metrů	-9.57958
ík	-9.58013
▁postupně	-9.58021
un	-9.58142
▁úřadu	-9.58145
▁hotel	-9.58158
nec	-9.5826
▁hráčů	-9.58353
▁zahraničních	-9.58454
▁zpět	-9.5846
zní	-9.58498
▁společenství	-9.58514
▁uveden	-9.58523
▁byt	-9.58615
▁rady	-9.58656
▁padesát	-9.58753
šli	-9.58856
▁vztah	-9.59027
dění	-9.59046
▁vede	-9.5906
rop	-9.59064
pit	-9.59073
000	-9.59163
zení	-9.59166
vz	-9.59183
▁Čech	-9.59261
▁podobně	-9.59274
dává	-9.59277
ismu	-9.59425
SK	-9.59481
▁2.	-9.59512
▁vzor	-9.59545
dat	-9.59647
▁čeká	-9.59807
stává	-9.59853
▁svazu	-9.5994
jící	-9.59966
tím	-9.5998
ňuje	-9.60001
din	-9.60024
▁nemusí	-9.60093
▁číslo	-9.60139
19	-9.60537
▁Mi	-9.60553
▁Zde	-9.60662
▁oba	-9.60684
▁pracovníků	-9.60709
EN	-9.6077
tal	-9.60776
▁div	-9.60903
▁Be	-9.60913
▁poslanců	-9.60919
▁přibližn	-9.60919
▁zástupce	-9.60919
▁nadále	-9.60921
▁ročně	-9.60928
▁občan	-9.61022
▁kulturní	-9.6109
▁tržní	-9.61191
▁host	-9.61336
▁Bude	-9.61375
▁MS	-9.61467
▁evropské	-9.61508
čně	-9.61557
držel	-9.61574
▁Čí	-9.61621
pad	-9.61639
stran	-9.61653
▁klubu	-9.6166
▁odmítl	-9.61752
▁koncert	-9.61785
▁syn	-9.61838
ovými	-9.61961
ismus	-9.62011
kovi	-9.62074
▁dalším	-9.62145
▁každ	-9.62353
▁vznikl	-9.62371
▁poměr	-9.62406
elný	-9.62441
▁Že	-9.62452
kli	-9.62534
▁zásad	-9.62558
▁účel	-9.6256
▁Já	-9.62568
▁Většin	-9.62592
▁jazyk	-9.62592
▁výrobní	-9.62593
▁nabídky	-9.62593
▁hospodářství	-9.62593
▁lépe	-9.62607
▁podobné	-9.62609
ned	-9.62643
▁hodně	-9.62723
▁Bu	-9.62728
padl	-9.62795
pen	-9.62819
▁střel	-9.62908
ovo	-9.62932
▁závod	-9.62972
ško	-9.62976
čel	-9.62995
ickou	-9.63043
▁podniky	-9.63127
▁pre	-9.63177
▁generální	-9.63209
ok	-9.63276
▁počtu	-9.63296
▁spojen	-9.6335
▁umožňuje	-9.6344
puštěn	-9.63448
SE	-9.63458
▁podstatně	-9.63491
▁jenom	-9.63569
▁přijat	-9.63618
▁přesně	-9.63719
▁týmu	-9.6372
▁mil	-9.63815
▁sami	-9.63921
ren	-9.64013
▁problémů	-9.64102
fer	-9.64151
▁22	-9.64219
▁olympijské	-9.64224
▁považuje	-9.64294
▁začíná	-9.64297
▁hrál	-9.64337
▁případech	-9.64382
▁musíme	-9.64429
▁potvrdil	-9.64482
▁říci	-9.64523
▁novou	-9.64548
▁městě	-9.6463
ovaného	-9.64671
▁úvěr	-9.64718
▁Už	-9.64743
▁fondu	-9.64787
▁trval	-9.64876
áři	-9.6495
▁Če	-9.6499
▁Ani	-9.65012
▁jmen	-9.6504
▁sport	-9.6505
▁počítač	-9.6515
▁obvykle	-9.65157
▁sítě	-9.65171
▁majitel	-9.6524
▁oddělení	-9.65263
▁občanů	-9.65265
íky	-9.65292
▁českého	-9.65309
▁banky	-9.65325
kryt	-9.65347
tah	-9.65373
▁budov	-9.65377
inu	-9.65421
▁pomoci	-9.65433
▁kop	-9.65455
dla	-9.65482
ben	-9.65514
▁sever	-9.65518
▁řada	-9.65574
▁možností	-9.65641
ěte	-9.65646
▁vedle	-9.6577
ide	-9.65847
▁nebyla	-9.65998
dom	-9.66017
▁otázku	-9.66026
▁výrobků	-9.66026
ke	-9.66032
ger	-9.66037
▁uzavře	-9.66039
půjč	-9.66052
▁měst	-9.66058
íte	-9.66201
▁politiky	-9.66322
▁17	-9.6634
▁průběhu	-9.66422
son	-9.66494
pas	-9.66592
rit	-9.66645
▁polo	-9.66652
▁nějaké	-9.6686
▁nabízí	-9.66903
▁vrchol	-9.66903
jat	-9.6692
▁export	-9.66921
▁výbor	-9.66992
▁ryb	-9.67032
▁nemají	-9.67042
▁ulici	-9.6716
eb	-9.67192
▁miliardy	-9.67204
▁zdrojů	-9.67225
sídl	-9.67265
▁tr	-9.67287
▁60	-9.67443
▁kterém	-9.67469
▁Ze	-9.67755
řad	-9.67777
▁otázka	-9.67788
▁otázky	-9.67788
▁úrovni	-9.67788
▁celkem	-9.67788
▁autobus	-9.67789
▁reprezentant	-9.67789
▁chvíli	-9.67789
▁moci	-9.67803
▁Česká	-9.6782
▁výběr	-9.67837
tivní	-9.6785
▁takto	-9.67882
▁uvádí	-9.67922
▁Gr	-9.68057
Dr	-9.68154
▁stejn	-9.68208
▁vyz	-9.68259
▁moderní	-9.6829
▁pražské	-9.68466
sad	-9.68483
nické	-9.6856
▁mistrovství	-9.68681
▁předchozí	-9.68684
▁tvar	-9.68806
▁postavení	-9.68909
▁vznik	-9.68952
▁jednom	-9.6897
pil	-9.6897
▁potřebuje	-9.69055
▁stejný	-9.6907
▁každém	-9.69083
▁automobil	-9.69153
▁dohody	-9.69202
▁objektů	-9.69223
ložil	-9.69236
vé	-9.69282
▁každé	-9.69319
▁názoru	-9.69405
aly	-9.69521
ance	-9.69525
jak	-9.69552
▁energie	-9.69582
▁dětí	-9.69582
▁sportovní	-9.69583
▁zaměstnanců	-9.69584
▁NATO	-9.69585
▁výměn	-9.69646
sil	-9.69787
▁cestu	-9.69834
▁Ber	-9.69862
▁Sa	-9.6988
▁pozornost	-9.69935
ění	-9.70069
měnit	-9.70157
tel	-9.70208
▁lékař	-9.7039
W	-9.70414
▁obor	-9.70461
▁odhad	-9.70487
▁finále	-9.70492
▁textu	-9.70512
▁společností	-9.70609
▁počítače	-9.70638
▁kterých	-9.70645
▁soubor	-9.70659
▁obsah	-9.70682
▁prů	-9.7071
▁měsíce	-9.70715
▁listopadu	-9.70805
▁představuje	-9.70827
▁působí	-9.70928
▁vybavení	-9.70961
▁takový	-9.7101
▁trest	-9.71023
▁setkání	-9.7107
▁strana	-9.71084
lů	-9.71152
šek	-9.7116
▁Ru	-9.71184
▁budoucí	-9.71245
▁nikoli	-9.7125
▁parlament	-9.71283
▁Izrael	-9.71408
▁prostředků	-9.71414
▁Země	-9.7143
▁čtvrtek	-9.71481
▁cizí	-9.7149
▁21	-9.71491
▁Ještě	-9.71558
nů	-9.7156
klo	-9.71579
▁Tím	-9.71588
▁sama	-9.71616
▁současně	-9.71651
▁díl	-9.71659
▁světové	-9.71743
▁příští	-9.71773
▁řadě	-9.71806
CE	-9.71852
LA	-9.71898
hlav	-9.71993
▁ME	-9.72039
▁obchodního	-9.72067
▁kolik	-9.72172
▁výrobky	-9.72334
▁Navíc	-9.72335
▁Nyní	-9.72342
▁OSN	-9.72354
▁produkce	-9.72397
▁skupina	-9.7244
▁atd	-9.72742
▁neděli	-9.7275
▁druhém	-9.72847
rád	-9.72924
OR	-9.73072
▁nemohl	-9.73152
▁platit	-9.73164
▁pohyb	-9.73236
▁Josef	-9.73269
▁federální	-9.73269
▁reklam	-9.7327
▁zasedání	-9.7328
▁zdroje	-9.73282
▁těles	-9.73283
▁motor	-9.73299
▁dobrý	-9.73357
rem	-9.73401
▁muset	-9.73408
▁provozu	-9.73409
▁popis	-9.73448
▁skutečnosti	-9.73509
▁akci	-9.73514
▁hrát	-9.73536
▁hlavním	-9.73585
kar	-9.73628
▁řad	-9.73744
▁kal	-9.73787
part	-9.73795
▁porad	-9.73822
▁kvalitní	-9.7392
▁kterého	-9.73981
▁fa	-9.74137
▁oznámil	-9.74212
▁prezentace	-9.74212
▁speciální	-9.74212
▁začátku	-9.74212
▁kapacit	-9.74213
▁srovnání	-9.74214
▁spokojen	-9.74216
kat	-9.74236
▁tlak	-9.74293
▁poz	-9.74295
▁zápas	-9.74392
▁nep	-9.74442
▁jiný	-9.74526
▁výboru	-9.74589
lík	-9.74627
▁součástí	-9.74648
▁akcií	-9.74812
cházejí	-9.74835
eta	-9.74907
▁hodnoty	-9.74911
hi	-9.74918
▁použití	-9.74925
nictví	-9.75057
▁blok	-9.75112
LE	-9.75136
šil	-9.75151
▁teorie	-9.75165
▁přízniv	-9.75165
▁přírodní	-9.75166
▁buď	-9.75174
▁1989	-9.75175
▁privatizace	-9.75175
▁apod	-9.75208
pustil	-9.75218
▁strom	-9.7523
▁útok	-9.75262
▁Star	-9.75319
isté	-9.75397
▁přiče	-9.75403
▁jasné	-9.75438
▁Hor	-9.75463
vykl	-9.75466
lat	-9.75528
třech	-9.7554
ton	-9.75564
▁konci	-9.75638
stál	-9.75696
▁škod	-9.75783
▁školy	-9.75832
ujících	-9.75841
▁vyhrál	-9.75912
▁plně	-9.75943
▁Jedno	-9.76084
▁těm	-9.76168
ena	-9.76188
▁ba	-9.76211
ivé	-9.76326
▁metod	-9.76408
▁ostrov	-9.76414
▁dostane	-9.76431
▁domů	-9.7644
ij	-9.76486
▁samo	-9.76565
nky	-9.76584
30	-9.76623
▁závěr	-9.76778
▁jednotlivé	-9.76815
zu	-9.76832
▁dopravy	-9.76839
▁našem	-9.76842
▁objektu	-9.76902
est	-9.76952
star	-9.76972
▁možno	-9.76973
▁obchodu	-9.77069
▁Někter	-9.77097
▁veřejné	-9.77097
▁zdravotnictví	-9.77097
▁variant	-9.77097
▁umění	-9.771
▁Martin	-9.77108
▁bran	-9.77151
▁struktur	-9.77162
▁zvolen	-9.77177
▁Ivan	-9.77187
ejte	-9.77239
▁PO	-9.77309
▁pla	-9.7746
jev	-9.7753
▁Kar	-9.7755
díl	-9.77639
▁student	-9.77829
▁údaje	-9.77851
th	-9.77886
▁čtvrt	-9.77956
tisk	-9.77965
▁rozhodující	-9.78078
▁gól	-9.78078
▁nebezpečí	-9.78078
▁respekt	-9.78078
▁Bylo	-9.78081
▁podobě	-9.78082
▁Pavel	-9.78089
▁Ca	-9.7811
▁ploch	-9.78155
▁technik	-9.7816
▁Podobn	-9.78201
drží	-9.78325
▁investice	-9.78336
▁celého	-9.78351
vané	-9.7836
▁ostatních	-9.78373
ška	-9.78392
▁opak	-9.78486
▁státního	-9.78561
▁telefonní	-9.7858
▁nějaký	-9.78593
▁kultury	-9.7862
ených	-9.78621
ickým	-9.78628
▁noci	-9.78649
níků	-9.78696
▁práva	-9.78754
nému	-9.78846
vláště	-9.7891
stické	-9.78953
▁spojení	-9.79026
násob	-9.79141
▁rozum	-9.79142
▁Bar	-9.79175
▁společně	-9.79232
▁vzájemn	-9.79234
▁volb	-9.79242
▁aktivit	-9.79314
▁typ	-9.79408
píše	-9.79421
▁soutěže	-9.79426
▁zájmu	-9.79455
▁politických	-9.79549
▁snadno	-9.79597
▁smrti	-9.79694
▁poně	-9.79747
▁metr	-9.79781
▁záznam	-9.79794
▁Proč	-9.79885
▁nová	-9.80032
IN	-9.80034
▁jméno	-9.80068
▁televizní	-9.80068
▁Miloš	-9.80074
antní	-9.8016
▁Toto	-9.80299
vát	-9.80329
např	-9.80394
procesor	-9.80459
zem	-9.80552
▁tisíce	-9.80599
věří	-9.8063
řitom	-9.80844
gan	-9.80904
▁jaký	-9.80988
▁předpoklad	-9.81078
▁John	-9.81078
▁snímek	-9.81081
svoji	-9.81092
▁hnutí	-9.81106
▁Stejn	-9.8112
ňování	-9.81131
▁zdraví	-9.81135
▁lidi	-9.81243
▁orgán	-9.81247
▁vidí	-9.81256
▁nejvíce	-9.81331
▁důvodů	-9.81357
lid	-9.81483
▁vytvoření	-9.81503
▁český	-9.81607
▁styl	-9.81648
ováno	-9.81693
rovna	-9.8202
▁Jaroslav	-9.82098
▁motiv	-9.82099
▁náročn	-9.82099
psal	-9.82115
▁vzhledem	-9.8212
▁jisté	-9.8213
▁trvá	-9.82139
▁pás	-9.82166
▁dané	-9.82312
▁plné	-9.82324
rou	-9.82401
▁stanoven	-9.82575
razil	-9.82622
▁předem	-9.82734
▁mužů	-9.82755
▁sezón	-9.82794
šení	-9.828
▁velkou	-9.82894
▁hráči	-9.82924
▁povrch	-9.82936
jdou	-9.83105
▁signál	-9.83129
▁zvýšil	-9.83129
▁těžko	-9.8313
▁planet	-9.83136
▁okolo	-9.83138
her	-9.83146
▁23	-9.83159
▁podobný	-9.83169
mar	-9.8317
▁pocit	-9.83258
kázal	-9.83274
▁rád	-9.83296
▁daleko	-9.83363
▁teplot	-9.8339
▁data	-9.83486
▁Český	-9.83646
▁spíš	-9.83709
▁slib	-9.83752
plnění	-9.8378
dání	-9.83809
▁Tu	-9.83843
▁celkov	-9.84014
však	-9.84018
▁hru	-9.84117
▁70	-9.84151
▁náměstí	-9.84171
▁zástupci	-9.84171
▁kontakt	-9.84171
▁přátel	-9.84179
▁někteří	-9.84182
▁delší	-9.84182
▁soudu	-9.84205
▁září	-9.84216
▁zaměstnání	-9.84221
▁rukou	-9.84254
▁kilometrů	-9.84272
▁obsahuje	-9.84289
▁Pan	-9.84422
▁pokut	-9.84443
▁stanov	-9.84542
jet	-9.84578
▁hodiny	-9.84703
▁Bez	-9.8475
pír	-9.84853
ros	-9.84898
▁dovoz	-9.84944
▁příčin	-9.84963
▁věku	-9.85022
▁obr	-9.85066
▁koncem	-9.85221
▁výsledek	-9.85223
cházet	-9.85224
▁cestovní	-9.85224
▁uživatel	-9.85262
▁tvář	-9.85286
▁smysl	-9.85294
▁cíl	-9.85325
▁mohly	-9.85486
▁kandidát	-9.85585
▁oboru	-9.85589
▁druhů	-9.85591
▁přišel	-9.85593
▁zkušenosti	-9.85752
▁hmot	-9.85763
ováním	-9.85801
▁ředitele	-9.85931
▁přechod	-9.8613
▁kart	-9.86173
▁tvrd	-9.86238
▁aplikace	-9.86287
▁existuje	-9.86287
▁nejbližší	-9.86287
▁patnáct	-9.86287
▁podmínek	-9.86287
▁nebudou	-9.86288
▁zůstává	-9.8629
▁Může	-9.8629
front	-9.86291
▁dnů	-9.8633
blíž	-9.86347
▁Kčs	-9.8647
▁způsobil	-9.86479
▁olympijský	-9.86507
▁NE	-9.86515
▁koalice	-9.86548
▁objekty	-9.86646
▁zvyk	-9.86694
▁hospodářské	-9.86782
▁každého	-9.86993
před	-9.87072
▁stavební	-9.87076
▁příprav	-9.8718
dají	-9.8727
▁adres	-9.87302
▁úroveň	-9.87362
▁dospěl	-9.87363
▁památ	-9.87363
▁starší	-9.87369
▁společný	-9.8737
▁výnos	-9.8738
▁pracovat	-9.87394
▁tady	-9.87415
▁Hlavní	-9.87518
▁úprav	-9.87532
▁smyslu	-9.87539
cího	-9.87561
▁případně	-9.87604
ER	-9.87642
▁minulosti	-9.87683
▁světový	-9.87853
▁příklad	-9.87888
RO	-9.87924
pul	-9.88055
▁materiál	-9.88057
prostřed	-9.88067
▁Přes	-9.88112
▁rychlost	-9.88144
▁mal	-9.88196
nského	-9.88205
▁neměl	-9.88213
▁běžné	-9.88261
mž	-9.88272
▁hrad	-9.88303
▁klíč	-9.88364
▁dává	-9.88391
▁fotbal	-9.88437
▁poslanci	-9.88449
▁pátek	-9.8845
▁praxi	-9.88451
▁Jeden	-9.88568
mor	-9.8859
▁určitě	-9.88646
▁Každý	-9.88691
race	-9.88725
▁Brně	-9.88736
▁jednotliv	-9.8881
EL	-9.88845
▁soukrom	-9.88862
leč	-9.88902
měl	-9.88973
▁skončil	-9.88973
▁německé	-9.89052
pek	-9.89093
▁kraj	-9.89213
▁druh	-9.89309
▁dotaz	-9.89377
▁sklad	-9.8938
čné	-9.89439
▁prodeje	-9.89485
▁prvního	-9.89502
áci	-9.89542
▁důležité	-9.89548
▁vidět	-9.89548
▁rekord	-9.89549
▁šanci	-9.8955
▁příkaz	-9.89552
pustit	-9.89629
▁přijal	-9.8967
▁Ni	-9.89679
mět	-9.89706
▁postižen	-9.898
▁podnikatel	-9.89805
ES	-9.8993
▁krajin	-9.89946
▁kvality	-9.90084
▁Nové	-9.90127
▁lékaře	-9.90159
ologie	-9.90235
▁mám	-9.90287
▁Ra	-9.90324
▁oblast	-9.90364
▁roční	-9.90474
rovná	-9.90501
cem	-9.9053
▁příslušn	-9.90556
▁výrobce	-9.90659
▁zvířat	-9.90659
▁uvědom	-9.9066
▁síly	-9.9068
psat	-9.90697
▁volbách	-9.90722
▁stačí	-9.9078
▁odpovídá	-9.90794
▁července	-9.90811
▁loňské	-9.90813
▁tun	-9.90813
▁léta	-9.9084
▁nárok	-9.9088
▁nikoliv	-9.90902
▁důchod	-9.90941
▁dny	-9.90984
LI	-9.91073
ler	-9.91098
▁knihy	-9.91379
▁hráče	-9.91385
▁změnit	-9.91481
KA	-9.91499
▁hráč	-9.91534
▁Německa	-9.91589
▁týdne	-9.91783
▁hromad	-9.91783
▁trans	-9.91786
▁zemřel	-9.91786
raději	-9.91815
jedna	-9.91824
▁jediné	-9.91843
ion	-9.91894
▁zákazníků	-9.91962
▁podstatě	-9.91977
set	-9.92089
AR	-9.92144
pře	-9.92153
▁členy	-9.92209
▁zranění	-9.92241
▁nákladů	-9.92277
ROM	-9.9245
▁záležitost	-9.9249
sáhl	-9.92761
▁Ministerstv	-9.92919
▁analýz	-9.92919
▁oprávněn	-9.92919
▁technologie	-9.92919
▁výrobu	-9.9292
▁tepla	-9.92923
stoupit	-9.92925
▁úplně	-9.92944
▁vrátil	-9.92944
tovat	-9.92977
▁dělat	-9.9299
▁osmi	-9.93022
▁objem	-9.93024
▁investiční	-9.93032
▁představitelé	-9.93033
▁doba	-9.93034
cení	-9.93059
▁voleb	-9.93062
▁zkouš	-9.93096
išť	-9.93131
▁přehled	-9.93147
▁rozšíření	-9.93214
▁tisku	-9.93221
TA	-9.93226
▁druhou	-9.93286
▁užit	-9.93378
▁park	-9.93452
▁starost	-9.93489
▁Již	-9.93534
▁vývoje	-9.93557
pád	-9.93578
bře	-9.93582
,5	-9.93806
▁předmět	-9.93839
▁techniky	-9.93973
▁příjem	-9.94047
▁jízd	-9.94069
▁družstev	-9.94069
▁příspěvk	-9.94069
▁zásob	-9.94069
▁nezbytn	-9.94069
▁síť	-9.94081
stoupí	-9.9409
▁staré	-9.9409
▁technické	-9.94096
▁Pe	-9.94139
▁polovin	-9.9427
▁podnikatele	-9.9429
▁dějin	-9.94301
▁celá	-9.94305
▁činí	-9.94306
▁míry	-9.94341
oma	-9.94351
▁35	-9.94516
▁omezen	-9.94523
▁liber	-9.94587
▁použit	-9.94625
▁zprávy	-9.94625
▁jakým	-9.94629
▁90	-9.94835
▁Nový	-9.94878
rd	-9.94884
▁klid	-9.94929
▁ukázal	-9.9497
▁bohat	-9.94972
značně	-9.95113
▁80	-9.95154
ený	-9.95157
▁volby	-9.9518
▁scén	-9.95201
▁pochyb	-9.95203
▁olympiád	-9.95232
▁vytvořit	-9.95232
▁úspor	-9.95236
▁drah	-9.9524
▁dvakrát	-9.95309
rp	-9.9532
TI	-9.95339
▁slab	-9.95422
skoro	-9.9545
NO	-9.95461
▁podnikatelů	-9.95467
▁pra	-9.95546
▁chcete	-9.9561
▁Vol	-9.95647
▁vlastnosti	-9.95817
▁Cel	-9.95901
▁národ	-9.9597
▁Kol	-9.96079
▁vaše	-9.9608
dělal	-9.96267
▁bytů	-9.96279
▁vývoz	-9.96376
▁financí	-9.96408
▁domu	-9.96448
▁500	-9.96483
▁konečně	-9.96497
▁Kdyby	-9.96541
kám	-9.9658
▁partner	-9.96583
▁též	-9.96631
▁posl	-9.96663
▁ruské	-9.96664
▁dvacet	-9.96717
▁počítá	-9.96759
und	-9.9677
kraji	-9.96835
▁Hrad	-9.96838
▁Kon	-9.9687
▁seznam	-9.969
▁soupeř	-9.96924
ona	-9.97041
▁Asi	-9.97183
▁staro	-9.97346
▁Její	-9.97359
▁jít	-9.97365
▁SR	-9.97374
▁pravidel	-9.97419
lka	-9.9757
▁návrhu	-9.9758
▁federace	-9.97599
▁firmě	-9.97599
▁výsledků	-9.97599
▁použít	-9.97599
▁Všechny	-9.97599
▁Kub	-9.97617
▁současnosti	-9.9763
zhledem	-9.97681
▁evropských	-9.97702
▁zpracování	-9.97713
▁dvaceti	-9.97767
kovou	-9.97789
▁roze	-9.97903
pak	-9.97925
▁ústav	-9.9796
▁včerejší	-9.97967
ávat	-9.97968
▁slavn	-9.97986
▁Spo	-9.98087
▁hranice	-9.98136
▁klient	-9.98137
▁průmyslu	-9.98146
▁doprav	-9.9819
ckých	-9.98232
▁obrany	-9.98275
áni	-9.9828
▁pokles	-9.98479
▁bezpečnostní	-9.98482
myšlen	-9.98491
jasn	-9.98502
▁červen	-9.98522
ávají	-9.98536
▁bodů	-9.98536
nce	-9.9856
vnitř	-9.98587
▁vojenské	-9.98644
▁Německu	-9.98644
▁snah	-9.98667
▁změnil	-9.98674
vad	-9.98802
▁Společenství	-9.98803
▁Vladimír	-9.98803
▁investor	-9.98803
▁Právě	-9.98804
▁nejlépe	-9.98806
▁zbraní	-9.98807
▁relativn	-9.98812
▁dostat	-9.98865
▁Běh	-9.98869
▁původně	-9.98894
▁pravděpodobně	-9.98903
▁fotbalové	-9.98995
▁Měl	-9.99082
▁rad	-9.99098
▁ochran	-9.99098
▁náklad	-9.99102
▁objeví	-9.99131
▁Hus	-9.99185
rozměr	-9.99187
▁míru	-9.99191
▁dokázal	-9.99248
dali	-9.99252
ozi	-9.99273
šit	-9.99429
▁amerických	-9.99436
▁Firma	-9.99445
▁fin	-9.99514
pel	-9.99558
řízení	-9.99568
▁důvod	-9.99639
tit	-9.99701
▁kancelář	-9.99715
▁str	-9.99722
▁cílem	-9.99736
áme	-9.99763
▁placen	-9.99763
▁žen	-9.99781
ovu	-9.99786
KO	-10.0001
▁dlouhé	-10.0002
▁předpokládá	-10.0002
▁udělat	-10.0002
▁dokáže	-10.0002
▁formát	-10.0003
▁patrně	-10.0004
▁(1	-10.0014
▁disku	-10.0017
bírá	-10.0022
▁Lib	-10.0026
▁sněmovny	-10.0029
lib	-10.0032
▁slovo	-10.0041
▁vhodné	-10.0053
ávání	-10.0062
kových	-10.0064
▁čin	-10.0071
▁pracuje	-10.0072
wa	-10.0078
▁osoby	-10.0079
▁hodnot	-10.0079
net	-10.0079
▁někter	-10.0081
bývají	-10.0087
▁kurz	-10.0102
▁Ke	-10.0122
▁armád	-10.0125
▁informační	-10.0126
▁hovoří	-10.0126
▁subjekt	-10.0126
▁čísla	-10.0126
▁brzy	-10.0126
▁využití	-10.0126
▁kanál	-10.0128
10	-10.013
ita	-10.0133
▁pravda	-10.0136
onu	-10.0154
▁prostoru	-10.0156
dělit	-10.0157
▁těmi	-10.0162
▁pozná	-10.0168
▁úrok	-10.0174
ovské	-10.0178
ovský	-10.0183
▁proud	-10.0185
bin	-10.0193
▁dát	-10.0197
▁čist	-10.0201
▁čtenář	-10.0204
▁veřejnosti	-10.0214
▁rokem	-10.0215
▁lidský	-10.0217
▁Japonsk	-10.0217
▁volné	-10.0218
nové	-10.0221
▁růstu	-10.0231
▁tisk	-10.024
▁nedostat	-10.0243
OS	-10.0248
▁Rusk	-10.0249
▁dovolenou	-10.0251
▁místopředsed	-10.0251
▁nemohou	-10.0251
▁většinu	-10.0251
▁rezerv	-10.0251
▁jinde	-10.0251
▁podzim	-10.0251
▁péče	-10.0251
▁oceán	-10.0252
▁ústavu	-10.0254
▁zisku	-10.0255
▁začne	-10.0255
▁ženy	-10.0259
▁témat	-10.0267
▁vědět	-10.027
▁vládě	-10.0282
▁molekul	-10.0284
obec	-10.029
HO	-10.029
rez	-10.0297
▁NA	-10.0308
▁severní	-10.0312
▁denně	-10.0315
▁pole	-10.0315
kan	-10.0324
▁obrat	-10.0329
▁národního	-10.033
ast	-10.033
▁takovou	-10.0332
OU	-10.0334
▁Chorvatsk	-10.0336
dávat	-10.0349
uto	-10.0349
▁čele	-10.0352
dával	-10.0366
▁poslanec	-10.0374
▁pokračovat	-10.0377
▁podepsal	-10.0377
▁pozadí	-10.0377
▁látky	-10.0379
ence	-10.038
▁uložen	-10.0381
▁vědecké	-10.0382
▁nechce	-10.0382
▁kruh	-10.0382
▁2000	-10.0386
▁sluneční	-10.039
▁mění	-10.0392
▁New	-10.0406
▁snížení	-10.0406
ll	-10.0406
▁stala	-10.0411
▁vytvořil	-10.0415
▁veřejnost	-10.0415
▁prací	-10.0419
▁podrob	-10.0429
▁vlast	-10.0433
▁1,	-10.0435
slovensk	-10.0436
▁pracovník	-10.045
rot	-10.0456
▁příslušné	-10.0457
▁potřebné	-10.0462
ckého	-10.0467
NA	-10.0475
▁čem	-10.0478
▁pojistné	-10.05
▁návštěv	-10.0503
▁neví	-10.0505
▁UEFA	-10.0506
▁demokracie	-10.0506
▁důležitý	-10.0506
▁hodnocení	-10.0506
▁oficiální	-10.0506
▁označil	-10.0506
▁televizi	-10.0506
▁naprosto	-10.0506
▁důkaz	-10.0506
▁Spojený	-10.0506
▁Havel	-10.0506
▁kurs	-10.0507
▁nijak	-10.0507
▁zaměřen	-10.0508
kládat	-10.051
▁stalo	-10.0515
▁současn	-10.0517
▁okamžitě	-10.0519
▁pacient	-10.052
▁ukazuje	-10.0523
▁300	-10.0528
▁ním	-10.0532
bývající	-10.0546
leté	-10.0547
▁Me	-10.056
▁zabývá	-10.0562
▁bezpečnosti	-10.0563
áno	-10.0563
▁28	-10.0565
▁pozor	-10.0574
▁bývá	-10.0575
▁nebyly	-10.0575
▁kolo	-10.0581
níku	-10.0583
▁výraz	-10.0583
▁procesu	-10.0585
stane	-10.0591
▁rada	-10.0592
▁vodní	-10.0595
▁cesty	-10.0595
▁fotbalist	-10.0608
přes	-10.0617
▁ČSSD	-10.0628
oje	-10.0633
▁majetek	-10.0635
▁počasí	-10.0635
▁šedesát	-10.0635
▁řečeno	-10.0635
vrátit	-10.0637
▁protest	-10.0637
▁novel	-10.0648
▁Sta	-10.065
▁členové	-10.0655
kový	-10.0662
▁stanice	-10.0668
▁potřeby	-10.0671
▁proměn	-10.0676
▁vzniku	-10.068
▁smí	-10.0687
▁kanceláře	-10.0691
▁téma	-10.0703
▁vytvořen	-10.0712
MU	-10.0715
▁body	-10.0719
izace	-10.0745
▁získá	-10.0749
▁vládu	-10.0754
ovce	-10.0761
▁lékaři	-10.0766
▁hokej	-10.0766
▁onemocnění	-10.0767
▁požadavky	-10.0767
▁příjmy	-10.0767
▁rozhodně	-10.0767
▁názvem	-10.0767
▁učitel	-10.0767
▁dokonč	-10.077
bere	-10.0772
slyš	-10.0775
▁standard	-10.078
▁Hol	-10.078
▁lidem	-10.0781
▁odborné	-10.0785
▁dosáhnout	-10.0785
ČS	-10.0786
▁řady	-10.0788
▁Slovensku	-10.0812
kům	-10.0819
▁systémů	-10.0822
▁zahájení	-10.0827
▁dodává	-10.0833
▁Dva	-10.0838
MA	-10.0848
jíž	-10.0852
▁ekonomiky	-10.0853
▁prost	-10.0859
▁výš	-10.0861
▁postoj	-10.0865
čních	-10.0867
sed	-10.087
OH	-10.087
oři	-10.0878
▁potravin	-10.0884
klep	-10.0887
▁rod	-10.0893
kají	-10.0895
▁teplo	-10.0896
▁hlavního	-10.0897
▁vlád	-10.0897
▁konference	-10.09
▁televize	-10.09
▁vánoční	-10.0901
▁policejní	-10.0901
▁ligy	-10.0901
▁funkcí	-10.0905
klád	-10.0909
▁nejde	-10.0913
ista	-10.0915
▁zákony	-10.0919
volat	-10.0919
▁Státní	-10.0936
▁třicet	-10.0943
CI	-10.0944
stavit	-10.0947
něk	-10.0949
▁celém	-10.095
rab	-10.0951
dané	-10.0962
▁Oba	-10.0963
▁jednak	-10.0964
▁Velk	-10.0966
▁vybaven	-10.0966
▁vztahu	-10.0971
loží	-10.0974
▁mechaniky	-10.0975
▁přenos	-10.0976
▁společného	-10.0993
NI	-10.0996
vel	-10.0996
▁Nov	-10.0997
kládání	-10.1003
▁jednat	-10.1005
▁soutěž	-10.101
taj	-10.1016
zoval	-10.1021
DO	-10.1031
dis	-10.1032
▁přístupu	-10.1032
▁Prezident	-10.1035
▁dodavatel	-10.1035
▁poskytuje	-10.1035
▁zásah	-10.1035
▁Československu	-10.1035
▁připravil	-10.1035
▁příbuzn	-10.1035
▁zločin	-10.1036
▁vnitra	-10.1036
▁velká	-10.1037
▁osud	-10.1037
▁kapitál	-10.1037
AV	-10.1038
▁mikro	-10.104
AD	-10.1045
tion	-10.1047
▁PowerPoint	-10.1048
Ř	-10.1048
▁map	-10.1056
▁nechal	-10.1058
▁Společnost	-10.1063
▁jakou	-10.1064
věřil	-10.1067
▁zub	-10.107
▁My	-10.107
▁zvuk	-10.1073
▁Nová	-10.1079
▁třetin	-10.1082
ickém	-10.1086
▁aktiv	-10.1089
▁rychlostí	-10.1089
▁odpad	-10.1093
▁druhá	-10.1094
▁tuzemsk	-10.1096
▁Per	-10.11
rna	-10.1101
izovat	-10.111
izaci	-10.1116
▁Vše	-10.1119
▁Aby	-10.1125
▁cest	-10.1128
60	-10.1128
▁dvoj	-10.1132
▁druhého	-10.1133
počítá	-10.1133
ša	-10.1134
▁Velké	-10.1138
▁měsíc	-10.1142
▁řekla	-10.1142
▁parlamentní	-10.1145
tický	-10.1157
▁radost	-10.1159
▁škody	-10.1163
▁Fran	-10.1164
▁hotov	-10.1165
ovaným	-10.1166
▁zobraz	-10.1172
▁Francouz	-10.1172
▁kláves	-10.1172
▁zemědělství	-10.1172
▁servis	-10.1172
▁Sovětské	-10.1172
▁spotřebitel	-10.1172
▁Belgi	-10.1173
▁zákoníku	-10.1173
▁ohledu	-10.1174
▁látek	-10.1174
▁měsících	-10.1176
▁najít	-10.1178
▁desítky	-10.1178
▁povinnost	-10.1181
▁Čechách	-10.1182
brž	-10.1187
▁druhu	-10.1189
▁Atlantě	-10.1194
▁zaplatí	-10.1194
ivost	-10.1203
▁lékařů	-10.1208
▁závěru	-10.121
osud	-10.1211
▁souboru	-10.1219
▁hladin	-10.1219
vádí	-10.122
▁vydání	-10.1223
ive	-10.1231
▁počátku	-10.1235
▁jinou	-10.1236
ble	-10.1239
▁myslí	-10.124
▁soused	-10.1246
staví	-10.1246
▁27	-10.1247
▁město	-10.1251
▁trestní	-10.1252
užit	-10.1254
ňovat	-10.127
▁Or	-10.1276
▁Američan	-10.1277
▁cit	-10.128
▁takového	-10.1281
řka	-10.1283
metr	-10.1286
odpovědn	-10.1288
▁Jin	-10.1289
48	-10.1289
▁napsal	-10.1297
▁důsled	-10.1302
prázdn	-10.1304
▁daní	-10.1308
▁hudební	-10.1311
▁schopen	-10.1311
▁tradiční	-10.1311
▁ustanovení	-10.1311
▁výrobců	-10.1311
▁těžký	-10.1311
▁Francie	-10.1311
▁Národní	-10.1311
▁nabídku	-10.1311
▁snímků	-10.1312
▁pořadatel	-10.1312
pustí	-10.1313
▁nápad	-10.1315
ičky	-10.1315
méně	-10.1319
▁uplatnění	-10.132
▁současný	-10.1323
▁Mal	-10.1337
▁zákonů	-10.134
▁správy	-10.1349
▁dalšího	-10.1353
40	-10.1355
▁dopravní	-10.1356
▁státech	-10.1356
▁ráno	-10.1358
znamená	-10.136
▁přijde	-10.1362
šp	-10.1363
▁výběru	-10.1363
▁způsoben	-10.1365
▁sbír	-10.1365
AL	-10.1368
ovanou	-10.1371
▁charakter	-10.1371
jímá	-10.1382
▁minulé	-10.1385
▁přesvědčen	-10.1388
▁odst	-10.1388
fu	-10.1389
▁ekonomik	-10.1393
▁hranic	-10.1394
▁obcí	-10.1397
▁žádost	-10.1409
hlásil	-10.141
NÁ	-10.1415
▁Fa	-10.1415
▁symbol	-10.1416
▁začali	-10.1438
▁těžké	-10.1452
▁využít	-10.1452
▁expert	-10.1452
▁přijetí	-10.1453
▁řešit	-10.1454
▁působení	-10.1454
▁odměn	-10.1454
▁Západ	-10.1454
▁rozpočet	-10.1455
▁školství	-10.1456
▁hodlá	-10.1457
▁tentokrát	-10.146
▁převážně	-10.1463
▁zajistit	-10.1464
▁nově	-10.1468
▁rozhovor	-10.1472
nějších	-10.1473
jen	-10.1476
▁řeč	-10.1478
vedou	-10.1485
▁Takže	-10.1485
▁nerv	-10.1488
▁domov	-10.1488
▁fyzik	-10.1491
▁pořadí	-10.1492
▁vyplývá	-10.1495
▁mimořádn	-10.1496
▁vysokou	-10.1498
▁částky	-10.1503
▁knih	-10.1505
▁okamžiku	-10.1514
▁přístroj	-10.1521
▁ES	-10.1536
▁slovenské	-10.1537
▁%.	-10.1539
▁účt	-10.1544
▁ceně	-10.1552
▁jiná	-10.1555
hodný	-10.156
art	-10.1561
jel	-10.1561
▁takovém	-10.1564
▁městské	-10.157
▁chybí	-10.1589
▁nim	-10.1589
▁smrt	-10.1589
▁nesmí	-10.1591
rám	-10.1594
▁bohužel	-10.1595
▁družstva	-10.1595
▁nejrůznější	-10.1595
▁spolupráce	-10.1595
dostatečně	-10.1595
ju	-10.1595
▁Mezinárodní	-10.1596
řídil	-10.1599
▁povolení	-10.1608
▁místech	-10.161
▁změna	-10.1613
▁seznamu	-10.1619
▁Sv	-10.162
▁směrem	-10.1622
▁udělal	-10.1623
▁moře	-10.1629
▁cestou	-10.1632
▁údajů	-10.1635
▁chtěli	-10.1636
▁chlad	-10.1639
▁názory	-10.1644
▁400	-10.1654
ička	-10.1658
▁poloh	-10.1665
▁nebezpečn	-10.1667
ick	-10.1672
dvacet	-10.1681
▁zdroj	-10.1685
▁Ře	-10.1693
▁demokratické	-10.1704
▁Fin	-10.1717
▁Německ	-10.1718
out	-10.1719
▁150	-10.1719
vala	-10.1729
▁dvanáct	-10.1732
ins	-10.1733
▁mistr	-10.1733
▁jestli	-10.1735
▁Bud	-10.1736
▁pondělí	-10.174
▁prezentaci	-10.174
▁průzkum	-10.174
▁výtvarn	-10.174
▁jistot	-10.174
▁devět	-10.174
▁vyslovil	-10.174
▁Paříž	-10.1741
▁smluvní	-10.1742
▁video	-10.1743
RU	-10.1744
▁měsíční	-10.1749
▁máte	-10.1751
▁uspořáda	-10.1753
bil	-10.1754
bran	-10.1758
nova	-10.1759
▁předtím	-10.176
▁pravidelně	-10.1762
▁myslím	-10.1793
▁kola	-10.1793
▁Fo	-10.1795
▁odpor	-10.1798
kyně	-10.181
rst	-10.1813
faktor	-10.1814
▁demokrat	-10.1819
▁žádn	-10.1821
▁výzkumu	-10.1827
▁turnaj	-10.1841
hem	-10.1843
▁případů	-10.1846
▁stroj	-10.1847
▁armády	-10.1847
řídit	-10.1854
IS	-10.1858
▁odbyt	-10.1867
číst	-10.1869
lín	-10.187
▁prac	-10.187
RE	-10.1871
áním	-10.1871
razí	-10.1882
▁uvedla	-10.1883
▁systémy	-10.1883
▁Poslední	-10.1887
▁konferenci	-10.1887
▁podmínkách	-10.1887
▁příjmů	-10.1887
▁úrovně	-10.1887
▁června	-10.1887
▁HIV	-10.1887
▁slouží	-10.1887
▁detail	-10.1887
▁spoust	-10.1888
▁radnice	-10.189
▁Mlad	-10.1891
▁Pavl	-10.1894
koupil	-10.1895
▁závěrečn	-10.1896
▁Zákon	-10.1898
▁rostlin	-10.1899
▁vztahy	-10.1905
▁výjimkou	-10.1908
▁Morav	-10.1912
tav	-10.1913
▁LN	-10.1914
▁podpis	-10.1916
▁půd	-10.1919
▁styk	-10.1926
▁nepod	-10.1939
▁velikost	-10.1945
▁svá	-10.1954
▁částku	-10.1954
▁politiku	-10.1955
▁daňové	-10.1956
▁taková	-10.1956
▁soukromé	-10.196
▁německý	-10.1964
▁vysoký	-10.1964
ama	-10.1964
▁politický	-10.1964
▁mechanika	-10.1967
▁změnu	-10.1985
▁očekává	-10.1992
▁akt	-10.1993
árně	-10.1994
▁součást	-10.1996
▁vědy	-10.2001
▁konkurence	-10.2003
▁němu	-10.2003
▁daň	-10.2003
▁Každ	-10.2004
▁vzdálen	-10.2006
▁Lab	-10.201
▁jím	-10.2015
har	-10.2015
▁váš	-10.2026
níky	-10.2028
▁optim	-10.2034
▁architekt	-10.2035
▁Největší	-10.2036
▁Současn	-10.2036
▁tvrzení	-10.2036
▁účetnictví	-10.2036
▁většině	-10.2036
vádějí	-10.2036
▁jedenáct	-10.2036
▁kapitol	-10.2036
▁války	-10.2036
▁aliance	-10.2037
▁brankář	-10.2037
▁čtyřicet	-10.2039
▁Bra	-10.2039
ěji	-10.2043
▁vydal	-10.2045
▁míč	-10.2046
▁centra	-10.2047
▁Par	-10.2047
▁směru	-10.205
▁sedmi	-10.2065
▁museli	-10.2072
boj	-10.2073
razit	-10.2074
▁Naše	-10.2075
▁jednoznačně	-10.2078
▁rodiny	-10.2087
stru	-10.2099
▁PRO	-10.2116
▁skupině	-10.2118
▁známé	-10.2118
istů	-10.2119
mark	-10.2121
yl	-10.2122
▁Nad	-10.2129
bili	-10.214
▁tiskové	-10.2141
▁26	-10.2145
og	-10.2147
▁vln	-10.2156
▁obvod	-10.2156
▁Jedna	-10.2162
▁aktivity	-10.2175
hel	-10.2179
▁Rusko	-10.2181
▁hodnotu	-10.2187
▁Evropa	-10.2188
▁Gorbačov	-10.2188
▁většiny	-10.2188
▁politice	-10.2188
▁vždycky	-10.2188
▁prohrál	-10.2188
▁záruk	-10.2188
▁schéma	-10.2188
▁začít	-10.219
▁obdobn	-10.2194
▁náhrad	-10.2197
ony	-10.2197
▁polovinu	-10.2198
▁třemi	-10.2198
▁východ	-10.2201
▁Jenže	-10.2202
padá	-10.2204
▁leží	-10.2205
▁nemocnice	-10.2206
▁individuální	-10.2208
▁odpovědnost	-10.2213
▁pořádku	-10.2215
DE	-10.2216
▁ODA	-10.2229
▁Německo	-10.2241
▁pracovníci	-10.2242
▁hlasování	-10.2244
20	-10.2247
▁námi	-10.2248
▁Václava	-10.225
▁nutno	-10.2252
produkt	-10.2254
▁změně	-10.2258
▁dělá	-10.226
▁diváků	-10.2263
▁budoucnosti	-10.2265
▁předsedy	-10.2267
žije	-10.2269
ovky	-10.2272
▁Han	-10.2274
▁univerzity	-10.2275
▁proveden	-10.2276
▁oslav	-10.2284
▁oči	-10.2287
dem	-10.2298
VA	-10.23
▁zvukov	-10.2316
▁životě	-10.2317
▁náhod	-10.2321
▁Kor	-10.2324
▁Bur	-10.2326
běžně	-10.2327
telné	-10.2336
▁AIDS	-10.2342
▁Británie	-10.2342
▁obyvatelstva	-10.2342
▁publika	-10.2342
▁vzdělání	-10.2342
▁srpna	-10.2342
▁Možná	-10.2342
▁super	-10.2345
▁průměrn	-10.2348
▁Vždyť	-10.2349
▁nástup	-10.2351
▁konec	-10.236
▁hod	-10.2361
▁známý	-10.2363
▁pravé	-10.2365
roj	-10.2368
▁čase	-10.238
▁studentů	-10.2381
čili	-10.2385
▁lidské	-10.239
IT	-10.239
▁miliony	-10.2401
▁Škoda	-10.2405
mj	-10.241
▁důsledku	-10.241
▁posun	-10.2414
iletý	-10.2416
kazuje	-10.242
bral	-10.2423
snad	-10.2424
líbil	-10.2426
▁uvedené	-10.2426
▁používá	-10.2429
pir	-10.2432
▁složení	-10.2432
▁nutnost	-10.2434
▁pán	-10.2437
▁mnohé	-10.2439
▁paní	-10.244
▁hlasů	-10.244
▁stop	-10.2441
ároveň	-10.2441
jmenován	-10.2443
▁3.	-10.2449
▁běžný	-10.2451
▁koupit	-10.2457
▁aktivní	-10.2465
▁ostr	-10.2465
▁takových	-10.2479
bla	-10.2489
▁jejího	-10.2491
▁volný	-10.2494
▁Španěl	-10.2497
▁katastrof	-10.2498
▁normální	-10.2498
▁tajemství	-10.2498
▁připravuje	-10.2498
▁očekávat	-10.2498
hovořil	-10.2498
▁silniční	-10.2498
▁čísle	-10.2498
▁piva	-10.2498
▁název	-10.2498
▁buněk	-10.2499
směs	-10.2502
▁verze	-10.2503
▁tráv	-10.2505
▁prázdnin	-10.2506
tvrdil	-10.2511
▁uspořádání	-10.2511
▁zdalek	-10.2514
▁průměru	-10.2515
▁zařazen	-10.2517
vající	-10.2517
ívají	-10.2525
ria	-10.2528
▁státních	-10.253
procentní	-10.253
▁zásadní	-10.2531
▁Rakousk	-10.2534
▁pobyt	-10.2537
▁úřady	-10.2547
▁chceme	-10.2548
▁ekonom	-10.255
▁příštím	-10.2556
▁dohod	-10.2557
ór	-10.2564
LO	-10.2566
▁údaj	-10.2574
▁soudní	-10.2574
▁dochází	-10.2575
▁údajn	-10.2577
▁poznání	-10.2578
ičtí	-10.2578
▁americký	-10.258
▁zákazník	-10.2586
řek	-10.2594
▁počítačů	-10.2594
▁jiným	-10.2599
▁kvalitu	-10.2601
▁povinnosti	-10.2604
▁určitý	-10.2613
▁zápase	-10.2639
atmosfér	-10.2641
▁demokratick	-10.2649
▁známo	-10.2654
▁režisér	-10.2657
▁zpravodaj	-10.2657
▁zřejmé	-10.2657
▁argument	-10.2657
▁dialog	-10.2657
▁zůstat	-10.2657
▁občas	-10.2657
▁pachatel	-10.2657
▁přírody	-10.2657
▁fotograf	-10.2657
▁trend	-10.2657
▁privatizaci	-10.2658
▁Úřad	-10.2659
▁marek	-10.2659
▁sdělil	-10.2663
▁Karel	-10.2665
▁článku	-10.267
▁realiz	-10.2671
letý	-10.2672
▁vyžaduje	-10.2677
▁Sam	-10.2681
▁banka	-10.2681
▁vánoce	-10.2686
▁jaderné	-10.2686
▁Mark	-10.2687
▁stroje	-10.269
▁Bi	-10.2692
▁agentury	-10.2695
rní	-10.2695
▁sam	-10.2696
▁okresní	-10.2701
▁zajímavé	-10.2701
▁vyjádřil	-10.2701
sty	-10.2701
▁premiéra	-10.2702
▁Tři	-10.2709
▁sovětské	-10.271
▁muži	-10.2713
▁velko	-10.2714
▁odborníků	-10.2723
ativní	-10.2724
▁hlavních	-10.2725
▁pozitivní	-10.2725
▁univerzit	-10.2726
▁formul	-10.2729
▁Ri	-10.2732
▁per	-10.2733
▁spol	-10.2735
▁příštího	-10.2742
▁částí	-10.2749
šly	-10.2754
▁výkonu	-10.2755
▁jaderný	-10.2755
▁úvahu	-10.2759
▁jaká	-10.2767
75	-10.2773
▁mini	-10.2775
▁projektu	-10.2777
▁Ostrava	-10.2778
▁Ste	-10.2781
▁týká	-10.2785
▁šíř	-10.28
▁významný	-10.2804
▁96	-10.2811
▁přísn	-10.2812
▁Miroslav	-10.2818
▁Myslím	-10.2818
▁jména	-10.2818
▁nemovitost	-10.2818
▁organizací	-10.2818
▁perspektiv	-10.2818
▁tlačítko	-10.2818
▁zahájil	-10.2818
▁čtrnáct	-10.2818
▁požádal	-10.2818
▁věnovat	-10.2818
▁historii	-10.2818
▁válce	-10.2818
▁rozhlas	-10.2818
▁následn	-10.2818
▁Rozhod	-10.2824
▁Inter	-10.2825
▁roste	-10.2826
▁Česko	-10.2828
▁obran	-10.2836
▁vaší	-10.2839
▁ztratil	-10.2847
▁konstru	-10.2854
85	-10.2861
▁liší	-10.2878
EM	-10.2887
▁politika	-10.2889
okres	-10.289
ON	-10.2895
▁bit	-10.2901
neme	-10.2901
▁nedá	-10.2906
ána	-10.2911
▁dar	-10.2912
▁Ot	-10.2919
▁soutěži	-10.292
▁přeprav	-10.2925
▁vývoji	-10.2929
▁režimu	-10.2929
▁programy	-10.2936
tickou	-10.2939
▁Karl	-10.2953
▁druhy	-10.2954
MI	-10.2954
▁mechanik	-10.2966
▁přestáv	-10.2966
ěkteří	-10.298
▁jednoduché	-10.2982
▁nabízejí	-10.2982
▁závažn	-10.2982
▁1995	-10.2982
▁Někd	-10.2982
▁považován	-10.2982
▁Základní	-10.2982
sloužil	-10.2982
▁snížil	-10.2982
▁špatné	-10.2982
▁zůstane	-10.2982
▁zvíře	-10.2982
▁tajemník	-10.2982
▁hormon	-10.2982
▁pivovar	-10.2983
celku	-10.2983
▁doktor	-10.2983
▁zimní	-10.2986
▁riziko	-10.2986
DA	-10.299
povídá	-10.2992
hrát	-10.2997
▁zad	-10.3004
▁úřadů	-10.3007
▁abych	-10.3008
▁smlouva	-10.301
▁přesun	-10.3016
▁kultur	-10.3023
▁déle	-10.3023
/2	-10.3029
▁doklad	-10.303
čan	-10.3036
JE	-10.3036
▁porazil	-10.3038
▁pevn	-10.3039
padal	-10.304
▁hraje	-10.3042
▁Stál	-10.3042
▁programů	-10.3049
▁cesta	-10.3051
▁barev	-10.3053
EC	-10.3054
▁Ex	-10.3063
▁typů	-10.3063
▁dopad	-10.3068
▁hotelu	-10.3068
jedno	-10.3074
cházející	-10.3078
▁hranici	-10.3091
▁postih	-10.3101
▁Františ	-10.3121
rej	-10.3123
tud	-10.3124
držet	-10.3128
▁žije	-10.3133
budete	-10.3135
▁chud	-10.3139
elné	-10.3142
▁pacientů	-10.3144
san	-10.3145
▁veškeré	-10.3145
▁typy	-10.3147
▁odborník	-10.3148
▁existují	-10.3148
▁globální	-10.3148
▁monitor	-10.3148
▁sponzor	-10.3148
▁závazk	-10.3148
▁řidič	-10.3149
▁úterý	-10.3149
▁výbuch	-10.3149
▁iniciativ	-10.3149
▁Lidé	-10.3149
▁kapalin	-10.3149
▁včas	-10.3149
▁někdejší	-10.315
kin	-10.315
▁Letos	-10.315
pracovat	-10.3152
▁šance	-10.3152
▁anti	-10.3154
▁republika	-10.3154
▁Ši	-10.3154
▁jestliže	-10.3157
▁lednu	-10.316
▁pořad	-10.3164
▁Fr	-10.3166
▁stane	-10.3169
padají	-10.3172
TO	-10.3174
▁psa	-10.3183
▁končí	-10.3183
pořád	-10.3192
▁ruce	-10.3195
▁Mám	-10.3195
▁hledání	-10.3208
▁oblastí	-10.3214
věřit	-10.3214
▁soudí	-10.323
▁získala	-10.323
▁malá	-10.3231
▁stranu	-10.3231
▁profesionální	-10.3234
▁muže	-10.3236
land	-10.3239
▁dům	-10.324
šky	-10.3241
▁skutečné	-10.3246
brat	-10.3247
▁značné	-10.3251
tická	-10.3261
▁problémem	-10.3267
ologické	-10.3271
▁podnikatelské	-10.3276
▁budu	-10.328
bel	-10.3295
▁novým	-10.3299
▁kapitálu	-10.33
▁Kam	-10.3301
ráže	-10.3304
▁fotbalový	-10.3305
▁speciali	-10.3315
bytek	-10.3316
▁Federální	-10.3318
▁nejdříve	-10.3318
▁používat	-10.3318
▁trénink	-10.3318
▁zvlášť	-10.3318
▁Lékař	-10.3318
▁útvar	-10.3318
▁verzi	-10.3318
▁potíže	-10.3318
▁pěkn	-10.3318
▁mzdy	-10.3318
▁najednou	-10.3319
▁členství	-10.3322
▁shromáždění	-10.3322
▁palác	-10.3323
▁výklad	-10.3324
▁vystoupení	-10.3324
▁Zdá	-10.3325
operační	-10.3326
▁bytu	-10.3327
stávají	-10.3328
▁studie	-10.3328
▁úmysl	-10.333
▁sluš	-10.3333
▁tabulky	-10.3333
▁odpověď	-10.334
▁úst	-10.3344
▁svému	-10.3347
▁rozdělení	-10.3357
tají	-10.336
▁děje	-10.3361
▁Změn	-10.3361
▁probíh	-10.3364
izované	-10.337
▁Nebo	-10.3377
▁experiment	-10.3378
▁centru	-10.3389
▁Chce	-10.3396
▁Her	-10.3401
elná	-10.3408
▁lékařské	-10.3408
▁mé	-10.3409
▁vznikla	-10.3411
▁označení	-10.3412
▁třetím	-10.342
▁dávno	-10.342
▁4.	-10.3425
▁zprávu	-10.343
zdrav	-10.343
▁délk	-10.343
váží	-10.343
▁programové	-10.3432
▁vztahů	-10.3434
▁akcí	-10.3436
▁akcie	-10.3437
entní	-10.344
▁Ci	-10.3443
▁Auto	-10.3446
▁časem	-10.3449
ložení	-10.345
▁dosah	-10.3454
praví	-10.3457
skok	-10.3457
▁deník	-10.3465
▁těsně	-10.3466
tabulk	-10.3475
▁Rus	-10.3476
▁No	-10.3486
▁Michael	-10.349
▁katalog	-10.349
▁primátor	-10.349
▁prospěch	-10.349
▁umožnil	-10.349
▁výrobci	-10.349
▁hospodaření	-10.349
▁paragraf	-10.349
▁rozhodne	-10.349
▁spočívá	-10.349
▁Československa	-10.349
▁domnívá	-10.349
▁císař	-10.3491
▁odpovídající	-10.3491
▁Nicméně	-10.3491
▁zaměstnanci	-10.3492
ČSL	-10.3493
trh	-10.3495
▁počítači	-10.3497
72	-10.35
ejít	-10.3502
chůd	-10.3506
▁nalezen	-10.3507
▁případné	-10.3509
▁sedmdesát	-10.3509
vir	-10.351
ňují	-10.3513
▁soukromých	-10.3514
▁MB	-10.3519
utí	-10.3522
▁pozici	-10.3526
rok	-10.353
▁odpadů	-10.3533
▁záznamník	-10.3538
▁sjezd	-10.3541
▁schopnost	-10.3543
▁aut	-10.3551
▁král	-10.3554
▁zaměstnavatel	-10.3559
▁sv	-10.3567
▁OS	-10.3581
lidov	-10.3591
▁předsed	-10.3592
▁posledním	-10.3606
▁písemn	-10.3612
▁pohybu	-10.3627
▁Pražské	-10.3629
▁silné	-10.363
▁12.	-10.3632
▁škole	-10.3635
▁vnější	-10.3639
▁pracoval	-10.364
kázat	-10.3645
▁britské	-10.3654
▁Hr	-10.3656
▁komunik	-10.366
▁odběratel	-10.3666
▁odvětví	-10.3666
▁uchazeč	-10.3666
▁firmu	-10.3666
▁ohrožen	-10.3666
▁hrozí	-10.3666
▁mozku	-10.3666
▁Tomáš	-10.3666
▁propag	-10.3666
▁Dále	-10.3667
▁hovor	-10.3668
▁Pohár	-10.3668
▁hledat	-10.367
▁DNA	-10.3673
běhl	-10.3674
▁kol	-10.3674
▁prvků	-10.3676
▁bezprostředn	-10.3677
▁mnozí	-10.3677
▁horší	-10.3677
▁Jedn	-10.3679
▁dluh	-10.368
též	-10.368
▁Čern	-10.3682
▁vyrovná	-10.3684
▁získali	-10.3691
▁Ří	-10.3694
▁půdě	-10.3707
nesou	-10.371
▁region	-10.3717
▁letošním	-10.3718
▁vědomí	-10.3731
▁Sb	-10.3733
▁poměru	-10.375
▁budoucnost	-10.3754
▁ruský	-10.3755
▁platnost	-10.3761
▁troj	-10.3773
▁díla	-10.3776
náší	-10.378
▁poháru	-10.3781
▁jiném	-10.3788
▁zemědělské	-10.3802
▁rozvoje	-10.3802
▁vědeck	-10.3809
valy	-10.3814
zaměstnan	-10.3817
▁umí	-10.3825
▁teploty	-10.3826
▁neroz	-10.3829
▁Char	-10.3834
▁uzavření	-10.3834
▁metody	-10.3835
znamenat	-10.3844
▁aplikací	-10.3844
▁problematik	-10.3844
▁upozornil	-10.3844
▁zdůraznil	-10.3844
▁Československo	-10.3844
▁Existuj	-10.3844
▁výrobě	-10.3844
▁natolik	-10.3844
▁informoval	-10.3844
▁výroba	-10.3844
▁rodiče	-10.3845
▁tudíž	-10.3845
▁nechtěl	-10.3845
▁podpory	-10.3845
▁bankovní	-10.3845
čištění	-10.3846
▁reprezentace	-10.3846
jedině	-10.3846
▁zmíněné	-10.3846
▁ochranu	-10.3847
koupí	-10.3853
▁limit	-10.3855
▁částečně	-10.3855
▁vytváření	-10.3856
bíd	-10.3861
▁křiv	-10.3864
▁účasti	-10.3871
▁Plat	-10.3873
▁obecně	-10.3881
▁vlastností	-10.3887
▁centrální	-10.3895
▁zavedení	-10.3897
hraje	-10.3901
▁režim	-10.3902
▁rizik	-10.3905
▁Poté	-10.3906
▁zpráva	-10.3913
skal	-10.3922
▁Švédsk	-10.3928
volal	-10.3932
▁hospodářsk	-10.3947
▁klima	-10.3951
MO	-10.3958
▁účastníků	-10.3959
▁umístěn	-10.3968
▁přinesl	-10.3969
hav	-10.3973
▁dílo	-10.3975
čila	-10.3977
třel	-10.3983
počátku	-10.399
▁ochotn	-10.3991
▁kont	-10.3996
▁karty	-10.4
▁dalšími	-10.4021
▁různ	-10.4025
▁neexistuje	-10.4026
▁odpoledne	-10.4026
▁připojištění	-10.4026
▁rozhodčí	-10.4026
▁organismu	-10.4026
▁paměti	-10.4026
▁stimul	-10.4026
▁pomalu	-10.4027
▁vyloučen	-10.4027
▁kvalifikaci	-10.4027
▁Americk	-10.4028
▁důvodu	-10.4028
▁pohledu	-10.4032
▁Milan	-10.4032
▁Musí	-10.4033
▁připomíná	-10.4033
▁česká	-10.4034
hřeb	-10.4038
▁oblastech	-10.404
SO	-10.4042
řez	-10.4045
▁svědčí	-10.4045
▁Ústav	-10.4045
žijí	-10.4046
▁povinn	-10.4049
▁pop	-10.4051
TE	-10.4059
▁technick	-10.4062
▁kvalit	-10.4063
▁nynější	-10.4065
inak	-10.4076
▁zkušenost	-10.408
▁Slovenska	-10.4085
padlo	-10.4086
▁olej	-10.4089
KU	-10.4089
dostala	-10.4091
▁lov	-10.4091
▁materiálů	-10.4096
ůj	-10.4111
▁směr	-10.4129
▁loňském	-10.4131
pětí	-10.4136
▁zraněn	-10.4137
▁potřeba	-10.4153
▁kup	-10.4155
▁The	-10.4161
▁brněnské	-10.4163
▁nejvíc	-10.4165
▁dohodu	-10.4171
▁poloviny	-10.4172
▁děj	-10.4176
▁radi	-10.418
▁vzájemné	-10.418
▁náhradní	-10.42
▁kód	-10.4203
nést	-10.4207
▁obrazu	-10.4211
alternativ	-10.4211
▁Itálie	-10.4211
▁Ministr	-10.4211
▁Ovšem	-10.4211
▁Program	-10.4211
▁konflikt	-10.4211
▁spolehliv	-10.4211
▁zveřejněn	-10.4211
▁úspěšně	-10.4211
▁výhradn	-10.4211
▁neustále	-10.4211
▁minimální	-10.4211
▁stránce	-10.4211
▁rychlé	-10.4211
▁rozliš	-10.4211
▁desetiletí	-10.4212
▁snažil	-10.4212
▁praxe	-10.4212
▁záchran	-10.4212
Vesmír	-10.4212
hlédnout	-10.4212
▁chorob	-10.4212
▁dodnes	-10.4212
▁vysíla	-10.4212
▁KSČM	-10.4212
▁pouhý	-10.4213
▁nicméně	-10.4214
▁regionální	-10.4214
▁paliv	-10.4214
▁vyjádření	-10.4215
▁úsek	-10.4215
▁desítek	-10.4218
stroj	-10.4218
▁rádi	-10.4219
▁zdejší	-10.422
ečná	-10.422
SA	-10.4221
▁významné	-10.4223
▁Ital	-10.4225
▁vybrat	-10.423
▁ztráty	-10.4234
▁Ostravě	-10.4234
▁činitel	-10.4237
▁Nejs	-10.424
▁určitou	-10.4247
munist	-10.425
▁chat	-10.4253
▁osobnost	-10.4255
▁slev	-10.4256
▁silnic	-10.4259
▁vlastnost	-10.4271
▁návrat	-10.4275
▁soustavy	-10.4291
▁ročník	-10.4303
ovského	-10.4305
▁roh	-10.4311
▁přístroje	-10.4311
▁musím	-10.4336
▁Car	-10.4343
▁určit	-10.4347
▁nastal	-10.4349
ller	-10.4358
tát	-10.4361
▁voda	-10.4361
▁Bre	-10.4364
▁autorů	-10.4368
▁forma	-10.4374
▁rozhovoru	-10.4374
▁registr	-10.4375
▁standardní	-10.4382
▁značn	-10.4385
▁žena	-10.4391
působit	-10.4392
▁zpráv	-10.4393
průměr	-10.4394
dor	-10.4395
▁Olymp	-10.44
▁Karadžič	-10.44
▁Všichni	-10.44
▁náměstek	-10.44
▁poptávky	-10.44
▁profesor	-10.44
▁zvítězil	-10.44
▁zúčastnil	-10.44
▁jednoduchý	-10.44
▁špatně	-10.44
▁teoretick	-10.44
▁Naopak	-10.44
▁skvěl	-10.4401
▁jediná	-10.4401
▁poslance	-10.4401
▁Snad	-10.4402
▁zaměstnance	-10.4403
▁čtení	-10.4403
▁kostel	-10.4403
▁odborníci	-10.4404
▁odboru	-10.4406
▁potřebují	-10.4407
▁koncentrace	-10.4407
▁nabídl	-10.4408
▁měření	-10.4409
▁vývozu	-10.4409
▁okna	-10.4409
▁Výstav	-10.441
▁produktů	-10.441
▁stráž	-10.441
▁atlet	-10.4412
▁Tam	-10.4412
▁29	-10.4418
▁statistick	-10.4424
▁drobn	-10.4426
▁vzal	-10.4428
ica	-10.4432
▁II	-10.4438
▁vychází	-10.4441
▁přestup	-10.4445
▁totem	-10.4446
▁italské	-10.4449
▁stovky	-10.4451
▁automaticky	-10.4463
▁zrušení	-10.4469
▁úvah	-10.447
▁pohár	-10.4471
▁záležitostí	-10.4472
▁vzduchu	-10.4473
ějším	-10.4474
▁Nez	-10.4478
▁závodu	-10.4486
ekonomický	-10.4489
stával	-10.4489
▁rozsahu	-10.4492
▁občanské	-10.45
▁problému	-10.4501
▁reálné	-10.4501
hání	-10.4506
▁nástroj	-10.4512
áků	-10.4514
IC	-10.4531
▁rozpad	-10.4533
▁lidsk	-10.454
▁zlom	-10.4556
▁činností	-10.4557
▁neměli	-10.456
▁čekají	-10.4582
▁domácím	-10.4583
▁Evropsk	-10.4584
▁zajímav	-10.4586
▁filozof	-10.4591
▁investovat	-10.4592
▁Ředitel	-10.4592
▁šestnáct	-10.4592
▁upraven	-10.4592
▁historie	-10.4592
▁mladé	-10.4592
▁resort	-10.4592
▁konzul	-10.4592
▁zakázk	-10.4593
▁turistů	-10.4593
▁zbraně	-10.4593
▁bydlení	-10.4593
povídají	-10.4593
bavit	-10.4593
▁věnoval	-10.4593
▁pojetí	-10.4593
▁zápis	-10.4594
▁nechat	-10.4594
▁lidmi	-10.46
▁ústavní	-10.4602
▁krátce	-10.4604
▁Val	-10.4608
▁dodávky	-10.461
▁pohybuje	-10.4615
▁pozice	-10.4617
▁19.	-10.462
▁čt	-10.4623
▁zákonem	-10.4627
▁vlastním	-10.4627
skými	-10.463
▁soutěží	-10.4633
▁filmu	-10.4634
▁ZA	-10.4636
▁šampionátu	-10.4638
▁češt	-10.4642
▁obecní	-10.4644
▁hodnota	-10.4646
▁domě	-10.4649
▁Soud	-10.4661
▁voličů	-10.4663
▁představují	-10.4663
▁řádu	-10.4668
sát	-10.467
▁17.	-10.467
▁směn	-10.4682
bezpeč	-10.4683
▁dostává	-10.4687
▁Olomouc	-10.4697
▁provedení	-10.4699
vítá	-10.47
▁omezení	-10.4712
kář	-10.4713
▁postav	-10.4723
▁využívá	-10.4723
▁objev	-10.4724
▁obviněn	-10.4725
▁úspěchu	-10.4726
▁výchov	-10.4728
▁činil	-10.4733
▁nejdůležitější	-10.4736
mořsk	-10.4736
▁investic	-10.4737
▁silný	-10.4739
70	-10.4742
▁podstat	-10.4751
▁nájemné	-10.4754
▁rychlosti	-10.4755
▁jinými	-10.4763
ŘE	-10.4769
▁posíl	-10.4782
▁distribu	-10.4787
▁úspěšné	-10.4788
▁Především	-10.4788
▁elektrárny	-10.4788
▁měsíčně	-10.4788
▁sobotní	-10.4788
▁umožní	-10.4788
▁Richard	-10.4788
▁snížit	-10.4788
▁minimálně	-10.4789
▁zvýšit	-10.4789
▁Spojené	-10.4789
▁úsilí	-10.4789
▁okruh	-10.4789
▁srovnateln	-10.4789
▁seminář	-10.4789
▁snímky	-10.4789
ejme	-10.4789
▁sektor	-10.479
▁setkal	-10.479
▁doslova	-10.479
▁míře	-10.479
▁kritik	-10.479
▁tvorbu	-10.4791
▁poškození	-10.4791
▁vešker	-10.4792
▁Kla	-10.4793
▁zobrazení	-10.4793
▁Češi	-10.4795
▁nucen	-10.4797
▁celek	-10.4798
▁myší	-10.4799
▁pravdu	-10.48
▁osmdesát	-10.4802
▁různým	-10.4813
▁materiálu	-10.4815
▁okolností	-10.4821
▁překr	-10.4826
▁rozvod	-10.4831
▁anglické	-10.4832
▁návrhy	-10.4832
▁potenciál	-10.4833
▁žádném	-10.4833
▁samotné	-10.4836
▁cestě	-10.4838
▁správně	-10.4838
▁policistů	-10.4841
sadil	-10.4844
▁černé	-10.4849
▁mně	-10.4852
▁žádná	-10.4852
dol	-10.4852
▁mistrů	-10.4858
▁domácích	-10.486
▁znát	-10.4866
▁černo	-10.4868
▁cítí	-10.4871
hradí	-10.488
pust	-10.4881
▁třídy	-10.4889
▁festivalu	-10.4892
▁zjistil	-10.4897
▁600	-10.4898
▁soupeře	-10.4901
▁centrum	-10.4905
▁moravsk	-10.491
▁195	-10.4911
▁konstatoval	-10.4917
▁neznám	-10.4922
▁koalic	-10.494
▁dodat	-10.4952
plynul	-10.4955
▁vzniká	-10.4957
▁Ano	-10.4963
▁dítě	-10.4963
▁PowerPointu	-10.497
▁Man	-10.498
▁prodá	-10.4981
děk	-10.4987
▁existence	-10.4988
▁konkurenční	-10.4988
▁matematik	-10.4988
▁pojišťovny	-10.4988
▁rozhodování	-10.4988
▁specifick	-10.4988
▁ČNR	-10.4988
▁Samozřejmě	-10.4988
▁schůzk	-10.4988
▁úspěšný	-10.4988
▁širší	-10.4988
▁divadla	-10.4989
▁editor	-10.4989
▁půjde	-10.4989
▁výskyt	-10.4989
▁sdělení	-10.4989
▁nabídka	-10.4989
▁úvodní	-10.4989
▁Vznik	-10.4989
▁Řad	-10.499
▁polovina	-10.4991
▁poklesu	-10.4993
▁obsadil	-10.4994
▁ano	-10.4994
▁strach	-10.4996
▁celní	-10.4996
▁nejlepším	-10.4997
▁regul	-10.4998
▁oper	-10.5
▁představení	-10.5001
▁úraz	-10.5001
▁Muž	-10.5003
▁nezávislých	-10.5004
▁myšlení	-10.5006
▁dobrovoln	-10.5007
▁temp	-10.5012
▁výdaje	-10.5016
kovat	-10.5016
▁společenské	-10.5019
▁povrchu	-10.5028
šování	-10.5033
▁ochot	-10.5034
▁krásn	-10.5039
▁generál	-10.5044
jal	-10.505
▁podnikatelé	-10.5051
mile	-10.506
▁obyčejn	-10.5077
▁Proti	-10.508
lze	-10.5085
▁vysokých	-10.5087
▁nebyli	-10.5095
▁nastoupil	-10.51
hladov	-10.5101
tických	-10.5105
▁zákazníky	-10.5108
▁půdy	-10.5114
kož	-10.5117
▁(2	-10.5118
▁Indi	-10.5122
▁Slovensko	-10.5127
▁nemoci	-10.5128
státní	-10.5129
▁vyhlášen	-10.5143
▁technický	-10.515
▁dob	-10.5152
▁bezpečnost	-10.516
▁úpravy	-10.5161
▁mysli	-10.5171
bod	-10.5182
▁skupinu	-10.5183
▁společn	-10.5185
▁chemické	-10.5191
▁Němci	-10.5193
▁alkohol	-10.5193
▁církve	-10.5193
▁nábožensk	-10.5193
▁přehlídk	-10.5193
▁týdny	-10.5193
▁usnesení	-10.5193
▁úředník	-10.5193
▁surovin	-10.5193
▁nízké	-10.5193
▁odmítá	-10.5193
▁kolegy	-10.5193
▁zapotřebí	-10.5193
▁vražd	-10.5193
▁přišla	-10.5193
▁privatizační	-10.5194
▁1988	-10.5194
▁zbytk	-10.5196
▁mód	-10.5196
▁létě	-10.5198
▁Teď	-10.5199
kombin	-10.52
▁sluch	-10.5202
lární	-10.5202
hradil	-10.5203
▁StB	-10.5206
▁přímé	-10.5218
hradit	-10.5218
ujte	-10.522
▁maximáln	-10.5226
▁žijící	-10.5227
hodil	-10.5227
soci	-10.5229
dent	-10.5236
▁mladých	-10.5237
▁výuk	-10.5239
▁postaven	-10.524
▁vůle	-10.5242
▁armáda	-10.525
▁zájmy	-10.5252
padne	-10.5256
▁představitelů	-10.5258
▁rozporu	-10.5259
▁porušení	-10.526
▁důsledky	-10.5261
▁lidského	-10.5269
▁hodinu	-10.527
▁založil	-10.5271
▁fakult	-10.5276
letěl	-10.5277
okr	-10.5278
▁Internetu	-10.5285
▁německého	-10.5286
kupní	-10.529
▁německých	-10.5293
han	-10.5294
▁tříd	-10.5298
▁původu	-10.53
▁čisté	-10.5303
▁pomohl	-10.5309
▁automobilů	-10.5309
▁klade	-10.5309
▁Kde	-10.5314
▁odpadní	-10.5315
▁velikosti	-10.5319
ováni	-10.5326
▁cm	-10.533
▁okraj	-10.5333
tak	-10.5348
▁nehod	-10.5351
▁dřív	-10.5352
▁fan	-10.5358
▁daňový	-10.5365
▁mluví	-10.5367
posled	-10.5368
▁letní	-10.538
▁poškoz	-10.5386
▁částka	-10.5388
▁Egypt	-10.5401
▁firmou	-10.5401
▁nabízen	-10.5401
▁pokračoval	-10.5401
▁spisovatel	-10.5401
▁technologick	-10.5401
▁technologií	-10.5401
▁zvyšuje	-10.5401
▁Druhý	-10.5401
▁Moskvě	-10.5401
▁Místo	-10.5401
▁mužstva	-10.5401
▁třináct	-10.5401
▁vynikající	-10.5401
▁dětské	-10.5401
▁populace	-10.5401
▁devíti	-10.5401
▁Třetí	-10.5401
▁dovolené	-10.5401
▁štěstí	-10.5401
KDU	-10.5401
▁ihned	-10.5401
▁Předseda	-10.5401
▁Francii	-10.5401
▁Pomuku	-10.5401
▁funkční	-10.5402
▁reprezentační	-10.5402
▁Bush	-10.5402
▁nasazen	-10.5402
▁tábor	-10.5403
▁33	-10.5403
vzdor	-10.5404
objednáv	-10.5404
▁Svaz	-10.5404
▁spotřební	-10.5405
▁18.	-10.5406
▁Boris	-10.5407
▁Více	-10.5407
▁bomb	-10.541
▁mluvit	-10.541
▁obětí	-10.5412
▁vyrovnan	-10.5416
▁šok	-10.5416
▁úmrtnosti	-10.5419
▁Avšak	-10.5423
▁stačil	-10.5434
spal	-10.5437
ticky	-10.5437
▁podklad	-10.5441
▁nemocnici	-10.5444
▁Pražsk	-10.5445
▁přichází	-10.5447
▁těla	-10.5448
▁zastoupení	-10.5448
▁barevné	-10.5456
▁prodejní	-10.5457
▁účastní	-10.5462
▁obavy	-10.5467
▁všeho	-10.5475
▁obce	-10.5477
▁příležitost	-10.5479
▁Dobr	-10.5495
▁řeči	-10.5496
zemní	-10.5501
▁prodává	-10.5502
▁rozhodla	-10.5502
▁Jižní	-10.5504
hlásí	-10.5504
psané	-10.5507
platit	-10.5512
▁studiu	-10.5515
nder	-10.5518
vodí	-10.5532
znamenal	-10.5536
izovan	-10.5538
▁realit	-10.5541
▁diplomat	-10.5548
80	-10.5549
▁tradic	-10.5553
▁molekuly	-10.5555
▁jednoznačn	-10.5556
▁lesní	-10.5564
▁ročníku	-10.5564
▁pražsk	-10.5567
▁příštích	-10.5567
▁představy	-10.5572
▁znalost	-10.558
▁setká	-10.5585
▁elektro	-10.5591
▁dostih	-10.5592
▁pražském	-10.5592
▁českým	-10.5597
▁krátké	-10.5598
istický	-10.5599
▁32	-10.56
▁hrají	-10.5602
▁dlužník	-10.5614
▁financování	-10.5614
▁konkurenci	-10.5614
▁magistrát	-10.5614
▁nakladatelství	-10.5614
▁sledovat	-10.5614
▁tehdejší	-10.5614
▁transformace	-10.5614
▁výsledkem	-10.5614
▁úmrtí	-10.5614
▁implant	-10.5614
▁mládež	-10.5614
▁zlepšení	-10.5614
▁rozhodnout	-10.5614
▁negativní	-10.5614
▁budoucnu	-10.5614
▁příjmu	-10.5614
▁katolick	-10.5614
▁zabránit	-10.5614
▁civilní	-10.5614
▁souvisí	-10.5614
▁Vláda	-10.5614
stěhoval	-10.5614
▁cukr	-10.5614
▁Slavie	-10.5614
▁jedinou	-10.5614
▁Kanad	-10.5615
▁PCB	-10.5616
▁mladí	-10.5617
▁překvapení	-10.5617
▁Euro	-10.5617
▁operace	-10.5617
▁Zájem	-10.5617
▁střet	-10.5617
▁Wales	-10.5618
mot	-10.5618
▁takzvan	-10.562
▁San	-10.5624
▁0,	-10.5626
▁Vedle	-10.5627
▁typick	-10.563
▁přítel	-10.5632
▁děd	-10.5633
kládají	-10.564
▁vážně	-10.5644
▁formou	-10.5646
▁produktu	-10.5647
▁zaplatit	-10.5648
týká	-10.566
▁výhodné	-10.5661
▁elektron	-10.5662
▁vyzval	-10.5662
▁UK	-10.5667
▁3000	-10.5681
▁postupu	-10.5682
▁povinností	-10.5682
▁celkový	-10.5687
▁snaha	-10.5689
▁starých	-10.569
▁jezdí	-10.5692
▁prodat	-10.5697
▁byty	-10.5701
▁největším	-10.5704
▁příležitosti	-10.5706
▁zbytečné	-10.5709
▁modern	-10.5709
▁kroky	-10.5709
▁napětí	-10.5721
pracuje	-10.573
▁správné	-10.5732
▁oni	-10.5733
▁západ	-10.5736
▁soustav	-10.5743
▁novém	-10.575
ston	-10.5759
▁komor	-10.5764
▁Lin	-10.5771
ejména	-10.5775
▁partnery	-10.5782
▁dojde	-10.5789
ráží	-10.5792
▁jakých	-10.5793
▁Atlant	-10.5797
▁škola	-10.58
dařilo	-10.5807
hodnotí	-10.5807
působil	-10.5811
▁zápasy	-10.5824
▁někde	-10.5831
▁Ostatně	-10.5831
▁Plzeň	-10.5831
▁Sdružení	-10.5831
▁astronom	-10.5831
▁obrázek	-10.5831
▁služba	-10.5831
▁záleží	-10.5831
▁červnu	-10.5831
▁rekreační	-10.5831
▁následk	-10.5831
▁přiznání	-10.5831
ičtější	-10.5831
▁účetní	-10.5831
▁porovnání	-10.5831
▁vesmír	-10.5831
▁krize	-10.5832
▁navrhl	-10.5832
▁historické	-10.5833
▁výrok	-10.5834
▁sítí	-10.5834
▁pracovníky	-10.5835
▁Výbor	-10.5836
▁místnosti	-10.5838
▁jižní	-10.5839
▁Ačkoli	-10.5839
▁úzk	-10.5841
fyzikální	-10.5848
▁neměla	-10.5849
▁účely	-10.5849
ismem	-10.5851
▁začátkem	-10.5852
▁Obě	-10.5852
▁požár	-10.5852
▁přináší	-10.5852
ZE	-10.5854
▁hře	-10.5858
▁udržet	-10.5858
▁jednotky	-10.5863
▁noviny	-10.5864
▁zahrad	-10.5864
▁Kraj	-10.5867
▁špičkov	-10.5869
▁pozorovatel	-10.5871
Švýcarsk	-10.5875
kova	-10.5878
▁jasně	-10.5886
Ú	-10.5887
▁Washingtonu	-10.5888
▁starý	-10.5888
▁prodávat	-10.5889
▁hodnotě	-10.5892
▁dostali	-10.5895
▁zápasu	-10.5898
▁Ben	-10.59
▁turnaje	-10.59
▁strojů	-10.5906
▁lesy	-10.5906
sion	-10.5909
▁nemáme	-10.5911
▁historický	-10.5911
▁vstupu	-10.5925
▁znalosti	-10.5925
▁Firm	-10.5936
▁hlad	-10.5939
▁nezávislost	-10.5953
▁pražského	-10.5963
▁Moravy	-10.5966
▁nákladní	-10.5972
▁třiceti	-10.5982
▁schválen	-10.5989
▁školní	-10.5995
běhu	-10.5999
▁vědom	-10.6001
▁všemi	-10.6005
ňující	-10.6014
▁americk	-10.603
▁past	-10.6036
▁Ruska	-10.6044
▁vyspělý	-10.6048
▁váh	-10.6053
▁Bratislavě	-10.6053
▁dividend	-10.6053
▁kompromis	-10.6053
▁monopol	-10.6053
▁odpověděl	-10.6053
▁otázce	-10.6053
▁rozpočtov	-10.6053
▁stadión	-10.6053
▁týdnů	-10.6053
▁uskuteční	-10.6053
▁Návrh	-10.6053
▁jaterní	-10.6053
▁nabídnout	-10.6053
▁Nakonec	-10.6053
▁stížnost	-10.6053
▁péči	-10.6053
▁žalob	-10.6054
▁podpora	-10.6054
▁Graf	-10.6054
▁patřil	-10.6054
▁interak	-10.6054
▁dovolit	-10.6054
▁server	-10.6054
▁kategorie	-10.6055
▁nepodařilo	-10.6055
nášejí	-10.6057
▁vedením	-10.6057
▁žlut	-10.6058
▁okno	-10.6059
▁Podnik	-10.6062
▁připravit	-10.6064
▁120	-10.6064
▁nedostatek	-10.6067
▁partnerů	-10.6073
▁Brno	-10.6081
▁stará	-10.6082
▁prvky	-10.6083
▁zjistit	-10.6085
▁tajné	-10.6088
▁vyvíj	-10.6089
▁dán	-10.609
▁místy	-10.6098
isty	-10.6099
▁sub	-10.6101
▁trenéra	-10.6112
▁nezaměstnanosti	-10.6112
▁návštěvě	-10.6112
▁přiznal	-10.6114
▁buňky	-10.6115
▁Bor	-10.6121
soudit	-10.6123
▁PC	-10.6125
▁získání	-10.6126
▁domácnosti	-10.6127
▁tamní	-10.6128
▁vědecký	-10.613
▁Novotn	-10.6132
▁malou	-10.6134
▁modelů	-10.6135
▁stanici	-10.6137
▁vojenský	-10.6144
▁provést	-10.6145
▁událost	-10.6145
▁hledá	-10.6149
ier	-10.6153
▁víkend	-10.6156
▁česko	-10.6157
▁příslušný	-10.6159
▁vložen	-10.6165
tkání	-10.6167
▁Evropský	-10.6168
▁osobně	-10.617
▁případu	-10.6176
▁něž	-10.6177
▁hlubo	-10.6184
▁stejném	-10.6185
▁okrese	-10.619
pálen	-10.6193
▁druhým	-10.6204
86	-10.6213
▁parametr	-10.6217
▁přítomn	-10.624
▁Er	-10.6243
▁slovy	-10.6248
▁doplň	-10.6252
▁církev	-10.6258
▁prodal	-10.6261
▁desít	-10.6263
ung	-10.6272
LU	-10.6277
▁partnera	-10.6279
▁existenci	-10.6281
▁funguje	-10.6281
▁křesťan	-10.6281
▁otevření	-10.6281
▁otázek	-10.6281
▁pojišťovna	-10.6281
▁rozhodovat	-10.6281
▁vyšetřování	-10.6281
▁advokát	-10.6281
▁poskytnut	-10.6281
▁Slunce	-10.6281
▁lokalit	-10.6281
▁ostatně	-10.6281
▁přání	-10.6281
▁vytvoří	-10.6281
▁situací	-10.6281
▁vyberte	-10.6281
▁legend	-10.6281
▁Znamen	-10.6281
▁islám	-10.6281
▁letadla	-10.6281
▁zůstávají	-10.6281
▁dlouhodobé	-10.6281
▁žádá	-10.6281
▁stáří	-10.6281
▁molekulární	-10.6282
▁aktuální	-10.6283
▁operaci	-10.6283
▁prud	-10.6284
▁pochod	-10.6285
▁SRN	-10.6286
pozoruhodn	-10.6287
▁míní	-10.6287
▁protein	-10.6288
▁začalo	-10.629
▁vystudoval	-10.6291
▁Obecn	-10.6291
▁širok	-10.6293
▁srážk	-10.6294
▁Slov	-10.6298
▁zájemců	-10.63
▁filmů	-10.6306
▁západních	-10.6306
▁vypadá	-10.6306
▁případy	-10.6314
▁formě	-10.6314
IL	-10.6316
OVÁ	-10.6317
▁fakultě	-10.6318
pozn	-10.632
▁oceněn	-10.6328
▁nástroje	-10.6338
▁zjištění	-10.6339
▁nájemného	-10.6341
▁potřeboval	-10.6344
▁tvor	-10.6344
▁Brna	-10.6345
▁bot	-10.6354
▁nevím	-10.6356
▁sezóně	-10.6356
▁návštěvníků	-10.6358
izační	-10.6366
▁dobrou	-10.6367
ruší	-10.6367
éměř	-10.6367
ujícího	-10.637
▁komory	-10.6378
těl	-10.638
▁změní	-10.6381
▁fakulty	-10.6381
▁složen	-10.6394
▁uvedený	-10.6395
▁označen	-10.6399
▁členem	-10.64
▁docela	-10.64
▁příběh	-10.6405
▁víkendu	-10.6407
▁trvale	-10.6407
▁spojené	-10.641
far	-10.6415
lis	-10.6416
ecká	-10.6416
ební	-10.6416
▁obyvatelé	-10.6417
▁odstup	-10.6417
▁ministrů	-10.642
mus	-10.6425
tání	-10.6435
▁čeho	-10.6443
▁vojensk	-10.645
▁takovým	-10.6451
▁přicházejí	-10.6453
▁metoda	-10.6459
▁pobytu	-10.6463
▁špičk	-10.6477
▁most	-10.648
▁zjištěn	-10.6488
nických	-10.6496
▁začaly	-10.6497
▁struktury	-10.6498
▁interpret	-10.6499
▁slun	-10.6501
ouze	-10.6507
▁produk	-10.6509
▁disciplín	-10.6513
▁laboratoř	-10.6513
▁literatur	-10.6513
▁Anglie	-10.6513
▁Nejvyšší	-10.6513
▁institucí	-10.6513
▁jugoslávsk	-10.6513
▁mladší	-10.6513
▁nejčastěji	-10.6513
▁organizační	-10.6513
▁přinejmenším	-10.6513
▁příspěvek	-10.6513
▁software	-10.6513
▁spravedlnost	-10.6513
▁přispěl	-10.6513
▁rodičů	-10.6513
▁nestačí	-10.6513
▁pochopitelně	-10.6513
▁účinnost	-10.6513
▁souboj	-10.6514
▁předpisů	-10.6514
▁Polici	-10.6514
▁vlastnictví	-10.6514
▁dráhy	-10.6514
platí	-10.6514
▁přijít	-10.6515
▁zabezpečení	-10.6515
▁úloh	-10.6516
▁Mat	-10.6516
▁podobu	-10.6516
▁tvorby	-10.6517
▁výplat	-10.6517
dostanou	-10.6518
▁poruch	-10.652
▁vrátí	-10.652
▁poznatky	-10.6521
▁Střed	-10.6522
▁Stačí	-10.6522
▁vědců	-10.6526
▁přijmout	-10.6529
▁Bosně	-10.6529
▁ekonomických	-10.653
▁zničen	-10.6536
▁cíle	-10.6536
▁církevní	-10.6537
▁Králové	-10.6538
▁rozdíly	-10.6541
▁nemusel	-10.6541
▁policisté	-10.6545
ěřitel	-10.6546
▁vozů	-10.6547
▁nezávisl	-10.6548
▁hodinách	-10.655
▁uznání	-10.6553
hodnou	-10.6557
▁George	-10.6557
cker	-10.6558
▁předsedou	-10.6561
▁smut	-10.6563
▁dohoda	-10.6567
▁levnější	-10.6567
▁obrazovky	-10.657
▁léky	-10.658
▁38	-10.658
▁tiskov	-10.6581
▁obsahu	-10.6585
▁klubů	-10.6595
▁komplexní	-10.66
▁ideální	-10.66
89	-10.66
těsn	-10.6613
▁Olomouci	-10.6623
▁skutečný	-10.6626
▁festival	-10.6627
▁sekund	-10.6627
▁českém	-10.6628
▁kontrolu	-10.6636
staral	-10.6637
▁uvažuje	-10.6648
▁českou	-10.6648
▁čekal	-10.6655
▁El	-10.666
▁Har	-10.6664
tivně	-10.6664
▁fyziky	-10.6666
▁modelu	-10.6668
▁zápasů	-10.6669
▁prostory	-10.6673
▁zvýšen	-10.6675
nedávn	-10.6676
▁Pal	-10.668
▁původ	-10.6686
age	-10.6689
▁milion	-10.6691
▁postižené	-10.6699
▁starosti	-10.6704
cc	-10.6706
▁ministrem	-10.6709
▁vydává	-10.671
může	-10.6716
▁Stát	-10.6719
▁novinářů	-10.6721
▁auta	-10.6723
▁pacienta	-10.673
▁pojme	-10.6732
▁plochy	-10.6735
ohra	-10.6743
▁prodeji	-10.6745
áček	-10.6745
▁vzrostl	-10.6749
▁francouzské	-10.6751
▁Anglii	-10.6751
▁Jaromír	-10.6751
▁Microsoft	-10.6751
▁NHL	-10.6751
▁duchovní	-10.6751
▁inteligen	-10.6751
▁jménem	-10.6751
▁medaile	-10.6751
▁navzájem	-10.6751
▁odpovědi	-10.6751
▁požadavek	-10.6751
▁sortiment	-10.6751
▁tvůrc	-10.6751
▁uzavřít	-10.6751
▁veřejně	-10.6751
▁využívat	-10.6751
▁zabývat	-10.6751
▁zástupců	-10.6751
▁článek	-10.6751
▁manipul	-10.6751
▁mužstvo	-10.6751
▁Major	-10.6751
▁asociace	-10.6751
▁měřítk	-10.6751
▁poskytují	-10.6751
▁řetěz	-10.6751
▁dětem	-10.6751
▁prestiž	-10.6751
▁dočasn	-10.6751
▁ČEZ	-10.6751
▁chvíle	-10.6751
▁sfér	-10.6752
VI	-10.6752
▁bolest	-10.6752
▁zhorš	-10.6753
ODS	-10.6755
▁Chtěl	-10.6755
▁věk	-10.6757
▁okolní	-10.6757
▁risk	-10.6759
▁Odbor	-10.6761
▁výstavby	-10.6763
▁venkov	-10.6764
▁vysvětlit	-10.6765
▁výpočetní	-10.6765
▁třikrát	-10.6766
▁hrob	-10.6767
▁Kap	-10.6767
▁věděl	-10.677
musela	-10.6771
▁Slav	-10.6771
▁disket	-10.6771
▁Prav	-10.6774
▁dres	-10.6775
▁volně	-10.6786
▁překvapiv	-10.6787
▁přeměn	-10.6792
▁majitele	-10.6797
15	-10.6798
▁týkající	-10.6802
▁ulice	-10.6808
▁Paul	-10.6812
▁sloup	-10.6812
volání	-10.6816
▁zemské	-10.6819
▁propad	-10.682
▁pracující	-10.6829
▁krátk	-10.6829
▁praktické	-10.6829
▁obecné	-10.683
▁umístění	-10.6831
▁částic	-10.6833
12	-10.6833
▁250	-10.6837
ezi	-10.684
▁Takové	-10.6845
▁používání	-10.6857
▁Jedin	-10.6862
soudil	-10.6862
▁Profitu	-10.6865
omín	-10.6867
▁minulém	-10.6868
logický	-10.6869
▁účastník	-10.687
▁Dvě	-10.6874
▁obsahující	-10.6874
▁osobnosti	-10.6881
▁stanovení	-10.6886
spraš	-10.689
▁stanoví	-10.6892
▁vydá	-10.6902
likvid	-10.6903
▁55	-10.6908
▁fondů	-10.6915
▁kritéri	-10.6919
▁uvaž	-10.6926
▁rozdělen	-10.694
histor	-10.6942
▁mistra	-10.6949
▁počítačové	-10.6953
▁pokusil	-10.6955
stupovat	-10.6956
▁hus	-10.6957
▁ekologické	-10.6959
▁výjimk	-10.696
▁chodí	-10.6962
▁společensk	-10.6963
▁hospod	-10.6978
míněn	-10.6981
EK	-10.6983
▁obratu	-10.6991
▁trhy	-10.6992
▁pracují	-10.6993
▁prezidentem	-10.6994
▁hospodářský	-10.6994
šetřit	-10.6995
▁Důležit	-10.6995
▁dlouhý	-10.6995
▁organizaci	-10.6995
▁považuji	-10.6995
▁souladu	-10.6995
▁související	-10.6995
▁údržb	-10.6995
▁expozi	-10.6995
▁generace	-10.6995
▁kongres	-10.6995
▁ministři	-10.6995
▁vyhlášk	-10.6995
▁vysoká	-10.6995
▁doporučen	-10.6995
▁Polska	-10.6995
▁Žádn	-10.6995
▁obrátil	-10.6995
▁Michal	-10.6996
šetří	-10.6996
▁chtít	-10.6996
▁motocykl	-10.6996
▁Čtyř	-10.6996
▁doping	-10.6996
▁vlajk	-10.6996
▁Možnost	-10.6997
▁vystaven	-10.6997
ŘÍ	-10.6997
▁samostatné	-10.6998
▁tepeln	-10.6998
▁nejspíš	-10.6998
▁studia	-10.6999
▁územní	-10.6999
▁omyl	-10.7
▁nedělní	-10.7003
TU	-10.7004
▁dvanácti	-10.7009
▁skončila	-10.7013
▁vyplatí	-10.7013
▁dolar	-10.7014
▁ukazují	-10.7016
▁odborných	-10.7016
71	-10.7017
kupovat	-10.702
▁red	-10.7022
▁neznamená	-10.7024
▁předložil	-10.7025
Sc	-10.7031
▁Zlín	-10.7035
▁lesů	-10.7036
▁nástrojů	-10.7039
▁nechá	-10.705
skočil	-10.705
▁vyhrála	-10.705
▁zajištění	-10.7051
▁hran	-10.7053
▁Představ	-10.7053
▁kdysi	-10.7055
nete	-10.7057
▁čtvrté	-10.7061
▁stiskn	-10.7063
▁vystoupil	-10.7066
▁možných	-10.7067
▁prst	-10.707
▁nedávné	-10.7071
▁silně	-10.7073
▁časopisu	-10.708
tažení	-10.7081
▁Obchodní	-10.7081
OLE	-10.7083
ukce	-10.7085
▁Karlovy	-10.7086
▁podal	-10.7086
▁panelu	-10.7087
ED	-10.7093
▁noční	-10.7093
▁občané	-10.7095
▁dodá	-10.7097
▁Alb	-10.7098
▁hluboko	-10.7099
íček	-10.7102
lezl	-10.7102
▁skončilo	-10.7107
▁nemělo	-10.7108
▁sousední	-10.7112
▁Konce	-10.7115
zie	-10.7116
▁Slovenské	-10.7117
▁sekundu	-10.7125
pravují	-10.7127
▁zahájen	-10.7131
▁schopnosti	-10.7137
▁ačkoli	-10.7155
▁značný	-10.716
vest	-10.7167
▁politického	-10.7168
▁regionu	-10.7169
učili	-10.7169
▁dostalo	-10.717
▁souvislost	-10.7172
▁možný	-10.7174
▁vědě	-10.7175
▁Poslaneck	-10.7177
▁zákazníka	-10.7181
▁ochrany	-10.7184
▁ústavy	-10.7185
vlas	-10.7187
▁nepříjemn	-10.72
▁Št	-10.7207
▁pojištěn	-10.7209
▁získáva	-10.7211
▁samé	-10.7213
▁některým	-10.7215
▁zpěv	-10.7215
reform	-10.7218
▁průmyslový	-10.7223
▁přenosu	-10.7224
článk	-10.7225
jmout	-10.7228
▁široké	-10.7233
kazují	-10.7236
▁dokonale	-10.7239
▁získává	-10.724
▁uživatelů	-10.7242
▁atmosféře	-10.7245
▁delegace	-10.7245
▁dozvěděl	-10.7245
▁elektřin	-10.7245
▁inflace	-10.7245
▁květnu	-10.7245
▁poptávka	-10.7245
▁službu	-10.7245
▁vysokoškol	-10.7245
▁Skutečn	-10.7245
▁francouzský	-10.7245
▁nejnovější	-10.7245
▁očekávan	-10.7245
▁sedmnáct	-10.7245
▁badatel	-10.7245
▁mandát	-10.7245
▁oblíben	-10.7245
▁považují	-10.7245
▁všude	-10.7245
▁Nejvíce	-10.7245
▁stanovisko	-10.7245
▁Viktor	-10.7245
▁přírodě	-10.7245
▁doprovod	-10.7245
▁soustředěn	-10.7245
▁penzijní	-10.7245
▁politická	-10.7245
▁prosadit	-10.7245
▁Popper	-10.7245
▁zábav	-10.7245
▁dohodnut	-10.7246
ovněž	-10.7246
▁čísel	-10.7246
▁devadesát	-10.7246
▁tvořen	-10.7246
▁vyšetřovatel	-10.7246
▁Podnikatel	-10.7246
▁citliv	-10.7247
▁vysloven	-10.7247
▁velitel	-10.7248
▁podaří	-10.7248
▁rytm	-10.725
▁slovenských	-10.725
▁dřívější	-10.7251
▁výstup	-10.7252
▁vysvětlení	-10.7253
▁vrací	-10.7253
▁mínění	-10.7254
▁uzavřel	-10.7256
▁myši	-10.7256
▁brát	-10.7257
▁grafik	-10.7259
▁zlato	-10.726
▁řeší	-10.7264
▁Chceme	-10.7265
▁stupně	-10.7268
▁bilanc	-10.7273
ME	-10.7273
▁mimořádné	-10.7273
▁čemu	-10.7277
▁léků	-10.7279
▁Čas	-10.728
▁kamer	-10.7282
▁vysvětlil	-10.7285
▁přechodu	-10.7286
▁nedostal	-10.7294
▁Kolik	-10.7296
▁podílel	-10.7296
▁dobou	-10.7296
▁Met	-10.7297
jedou	-10.7297
▁dosahuje	-10.7298
▁překvap	-10.7298
▁znaků	-10.7299
▁vědci	-10.7302
▁opravy	-10.7305
▁zkušeností	-10.7305
▁kvalita	-10.7307
▁představit	-10.7311
▁rodinné	-10.7315
▁pohybují	-10.7317
tematick	-10.7319
▁samostatn	-10.7321
▁přípravě	-10.7326
▁Postup	-10.7329
▁zbytek	-10.733
rgi	-10.7331
▁CS	-10.7334
▁nesouhlasí	-10.7338
lezsk	-10.7342
▁800	-10.7353
▁ukázalo	-10.7353
▁odchodu	-10.7356
koupit	-10.7357
▁místem	-10.7359
▁Dán	-10.736
▁stanic	-10.7371
▁mnohd	-10.7373
▁rozsah	-10.7378
▁projekty	-10.7381
▁třídě	-10.7387
▁závodě	-10.7389
▁mimořádný	-10.7393
▁policist	-10.7398
▁nebe	-10.7411
nický	-10.7411
▁dojem	-10.7412
▁dám	-10.7412
▁volič	-10.7426
▁role	-10.7432
▁viděl	-10.7441
▁vodou	-10.7452
počet	-10.7457
▁kanceláří	-10.7457
pravděpodobností	-10.7458
▁orgánů	-10.7458
▁občansk	-10.7459
11	-10.746
▁materiály	-10.7461
▁min	-10.7465
čtí	-10.7472
▁Novák	-10.7476
▁herec	-10.7477
oji	-10.7484
▁RN	-10.7492
▁koho	-10.7495
▁přírodověd	-10.7501
hlížet	-10.7502
▁Výsledk	-10.7502
▁Zajímav	-10.7502
▁atraktivní	-10.7502
▁blízké	-10.7502
▁centimetr	-10.7502
▁milióny	-10.7502
▁požadavků	-10.7502
▁rozšířit	-10.7502
▁telekomunikační	-10.7502
▁tiskárny	-10.7502
▁žebříčku	-10.7502
▁dlouhá	-10.7502
▁montáž	-10.7502
▁rozhraní	-10.7502
▁složky	-10.7502
▁Brazíli	-10.7502
▁používají	-10.7502
▁předpokládat	-10.7502
▁chráněn	-10.7502
▁koncepce	-10.7502
▁Důvod	-10.7502
▁zaplacen	-10.7502
▁závisí	-10.7502
▁externí	-10.7502
▁nabídce	-10.7502
▁naděje	-10.7502
▁vysoce	-10.7502
▁Sparty	-10.7502
▁muzea	-10.7503
▁vozidl	-10.7503
▁barvy	-10.7503
▁učinil	-10.7503
▁mozkov	-10.7505
orku	-10.7506
▁Knih	-10.7508
▁naději	-10.7509
▁unii	-10.7509
▁vysvětluje	-10.7509
▁osobních	-10.7516
▁Karlov	-10.7517
hnal	-10.7518
▁Čs	-10.7519
▁názorů	-10.7521
▁umožňující	-10.7521
▁Irsk	-10.7521
▁Chyb	-10.7523
▁můj	-10.7528
▁Nikdo	-10.7536
▁Nebyl	-10.7537
▁čtyřech	-10.7539
▁totéž	-10.7541
▁dvojice	-10.7542
pamatuj	-10.7549
▁čtenáře	-10.7551
▁grafické	-10.7554
▁kniha	-10.7555
▁Stran	-10.7562
▁stín	-10.7563
▁cenou	-10.7568
▁nemůžeme	-10.7569
▁uvést	-10.757
▁agentura	-10.7582
erie	-10.7588
AC	-10.7594
prodej	-10.76
▁čtyřmi	-10.7601
▁podstatné	-10.7601
▁akciové	-10.7604
▁Autor	-10.7609
pana	-10.7619
▁studium	-10.7626
rušení	-10.7633
▁Profit	-10.764
▁šat	-10.7641
▁finančn	-10.7641
ňoval	-10.7642
31	-10.7643
▁Svobod	-10.7647
▁britský	-10.765
▁divák	-10.7654
▁zaměstnavatele	-10.766
▁reáln	-10.7663
▁komplex	-10.7668
▁světového	-10.7668
wan	-10.7674
▁plný	-10.7675
▁bytové	-10.7678
▁stěn	-10.7685
▁stranou	-10.7691
projevuje	-10.7692
kládal	-10.7693
▁uzná	-10.7708
▁jakékoli	-10.7711
▁podání	-10.7714
▁nároky	-10.7717
▁fotbalistů	-10.7721
▁potřebný	-10.7723
▁okolnost	-10.7724
enství	-10.7726
▁Tur	-10.7728
▁Nizozemsk	-10.7728
▁návštěvu	-10.775
rah	-10.7753
▁polské	-10.7756
večer	-10.776
▁biolog	-10.7761
▁pivo	-10.7764
▁výstava	-10.7764
favorit	-10.7765
▁Itálii	-10.7765
▁divadelní	-10.7765
▁inženýr	-10.7765
▁komentář	-10.7765
▁obligace	-10.7765
▁orientac	-10.7765
▁otevřené	-10.7765
▁pedagog	-10.7765
▁peněžní	-10.7765
▁požaduje	-10.7765
▁snižování	-10.7765
▁vojáků	-10.7765
▁výjimečn	-10.7765
▁Miloslav	-10.7765
▁úrovní	-10.7765
▁přirozený	-10.7765
▁zjistí	-10.7765
▁rychlý	-10.7765
▁komplet	-10.7765
▁odsouzen	-10.7765
▁zkušebn	-10.7765
▁poskytován	-10.7765
▁skončení	-10.7765
▁povinen	-10.7765
▁absolvent	-10.7765
▁nevěděl	-10.7765
▁průkaz	-10.7765
▁kilogram	-10.7765
▁menšin	-10.7765
▁podívat	-10.7765
▁Jugoslávii	-10.7765
▁důkladn	-10.7765
▁odstraněn	-10.7766
▁každodenn	-10.7766
▁najevo	-10.7766
▁zaplatil	-10.7767
▁zavře	-10.777
▁geolog	-10.777
▁Peter	-10.777
▁jistý	-10.7771
▁říct	-10.7771
▁vybírat	-10.7773
ctví	-10.7774
▁plát	-10.7775
▁budovy	-10.7776
▁nesmírn	-10.7784
▁plno	-10.7786
▁agent	-10.7787
▁odvolání	-10.7787
▁Hra	-10.7788
▁strav	-10.779
▁fax	-10.7796
▁systémem	-10.7797
▁kusů	-10.7799
▁povolání	-10.7803
▁japonské	-10.7805
▁cyklus	-10.7805
▁vyhledá	-10.781
▁nachází	-10.7811
▁pořádá	-10.7813
▁skladb	-10.7815
▁pokyn	-10.7817
▁Počet	-10.7817
▁hlavu	-10.7826
▁Moravě	-10.7826
▁průmysl	-10.7839
árek	-10.784
▁důvodem	-10.784
místě	-10.7842
▁předmětem	-10.7844
▁noc	-10.786
▁Den	-10.7869
▁přizpůsob	-10.7871
▁politik	-10.7879
▁resp	-10.7881
▁dílem	-10.7886
▁dálnic	-10.7894
▁profesionál	-10.7896
▁hmotnost	-10.7899
▁Fotbal	-10.7902
▁úvěrů	-10.7902
hodné	-10.7904
rážky	-10.7908
▁Cena	-10.7913
▁nebezpečné	-10.7913
▁klientů	-10.7913
▁působ	-10.7915
▁31.	-10.7915
izraelsk	-10.7917
▁podřízen	-10.7919
▁dramatick	-10.7919
▁nájemní	-10.7926
▁schválil	-10.7929
▁podnikové	-10.7932
▁vlny	-10.7934
▁klasick	-10.7935
▁pražský	-10.794
važoval	-10.7956
ocel	-10.7962
▁neznámý	-10.7965
▁národů	-10.7968
▁objektiv	-10.7968
▁obsazen	-10.7984
▁zaveden	-10.799
držení	-10.7991
▁dohodl	-10.7991
tisícov	-10.7991
▁přípravy	-10.7995
▁zajištěn	-10.7998
▁představil	-10.8002
▁Kovo	-10.8006
▁Moh	-10.8008
▁rovin	-10.8009
▁Např	-10.8012
▁klepn	-10.8018
ěsíční	-10.8018
▁regulac	-10.8019
▁Pre	-10.8022
▁požadovan	-10.8034
▁Kazachstán	-10.8035
▁Oznámil	-10.8035
▁Univerzit	-10.8035
▁existovat	-10.8035
▁informaci	-10.8035
▁obtížné	-10.8035
▁prezentací	-10.8035
▁sediment	-10.8035
▁stříbrn	-10.8035
▁svědomí	-10.8035
▁vyjádřit	-10.8035
▁vytvářet	-10.8035
▁zdánlivě	-10.8035
▁ztrácí	-10.8035
▁Problém	-10.8035
▁bariér	-10.8035
▁poskytovat	-10.8035
▁prodloužen	-10.8035
▁Několik	-10.8035
▁komerční	-10.8035
▁komunismu	-10.8035
▁ubytování	-10.8035
▁československé	-10.8035
▁střediska	-10.8035
▁veletrh	-10.8035
▁února	-10.8035
▁Ruské	-10.8035
▁průběh	-10.8035
▁Slovinsk	-10.8035
▁propojen	-10.8035
▁zmizel	-10.8035
záběr	-10.8035
▁pěst	-10.8036
▁kvantov	-10.8036
▁vlákn	-10.8036
▁předpisy	-10.8036
▁junio	-10.8036
▁hrdin	-10.8037
najdete	-10.8039
▁optimální	-10.804
▁vybraný	-10.804
▁udělá	-10.804
▁komunikace	-10.804
▁náskok	-10.8041
▁uvolněn	-10.8041
▁prováděn	-10.8042
▁starosta	-10.8042
střelil	-10.8043
▁zmíněný	-10.8043
▁zítra	-10.8043
▁Bójové	-10.8044
▁bezplatn	-10.8044
▁rychleji	-10.8044
▁továrn	-10.8045
▁hrách	-10.8052
▁zvolil	-10.8053
▁sále	-10.8054
▁závodech	-10.8061
▁kupující	-10.8062
▁objevuje	-10.8068
▁Ostrav	-10.8069
▁znak	-10.8069
▁jednotek	-10.8069
▁klimatický	-10.8071
čovat	-10.8072
▁slavnostní	-10.8076
▁ústřední	-10.8076
▁kartu	-10.8077
▁vesnici	-10.8077
▁přesvědč	-10.8079
▁zaznamenal	-10.8079
▁atomov	-10.808
▁hlavy	-10.8082
▁Mnoho	-10.8083
úpln	-10.8085
44	-10.8086
poví	-10.8092
▁dohodě	-10.8094
▁novinář	-10.8094
nozí	-10.8095
▁předložen	-10.8097
▁nadace	-10.8097
▁Mik	-10.8098
oporu	-10.8098
▁podvod	-10.8099
▁všeobecné	-10.8099
▁dostávají	-10.81
▁Voj	-10.8105
▁narodil	-10.8111
▁fyzické	-10.8111
▁tradice	-10.8114
▁vznikají	-10.8121
▁brání	-10.8121
PS	-10.8123
▁vzdálenosti	-10.8123
▁výstavy	-10.8123
▁obvinění	-10.8124
▁politiků	-10.813
HA	-10.8131
▁pevné	-10.8139
▁uplynul	-10.814
▁ostatními	-10.8144
▁Svoboda	-10.8158
▁trestný	-10.816
▁hledají	-10.8165
▁Vlastní	-10.8165
▁souborů	-10.8169
▁jasno	-10.8171
▁připoj	-10.8174
áhy	-10.8174
▁filmový	-10.8176
▁kalů	-10.8181
▁mírové	-10.8184
▁psycholog	-10.8185
▁Internet	-10.8189
OP	-10.8211
▁rizika	-10.8211
▁chyt	-10.8214
▁návratu	-10.8218
sovětsk	-10.8219
▁automatick	-10.8221
▁domácnost	-10.8222
▁důvody	-10.8243
▁závodník	-10.8247
▁zajímavý	-10.8247
týdenní	-10.8251
▁konečné	-10.8259
ess	-10.826
▁34	-10.8264
sáhnout	-10.8275
▁teplota	-10.8282
▁boji	-10.8288
▁kontinent	-10.8299
▁privatiz	-10.8305
▁mohu	-10.8306
atrně	-10.8307
ačtyřicet	-10.8313
▁ClipArt	-10.8313
▁Krkonoš	-10.8313
▁demokracii	-10.8313
▁fanoušků	-10.8313
▁lustrační	-10.8313
▁navštívil	-10.8313
▁nepochybn	-10.8313
▁nádraží	-10.8313
▁obligací	-10.8313
▁otevřel	-10.8313
▁otázkou	-10.8313
▁ovzduší	-10.8313
▁pracoviště	-10.8313
▁prokurátor	-10.8313
▁vyrábí	-10.8313
▁železniční	-10.8313
▁jednoduše	-10.8313
▁opoziční	-10.8313
▁osmnáct	-10.8313
▁častěji	-10.8313
poloviční	-10.8313
▁pobřeží	-10.8313
▁Rumunsk	-10.8313
▁Pracovní	-10.8313
▁příchod	-10.8313
▁statut	-10.8313
▁odstranit	-10.8313
▁knize	-10.8314
▁modul	-10.8314
▁věnován	-10.8314
▁knížk	-10.8314
▁záření	-10.8314
▁obnoven	-10.8314
▁blízkosti	-10.8315
▁Tehd	-10.8315
▁pečlivě	-10.8315
▁vážné	-10.8316
▁dohodnout	-10.8316
▁raket	-10.8317
▁dělník	-10.8317
▁oblečení	-10.8317
▁poradensk	-10.8318
▁Motor	-10.8322
▁scénář	-10.8322
▁říkal	-10.8322
▁závodů	-10.8322
▁přínos	-10.8323
▁Rád	-10.8324
▁písmen	-10.8325
▁několikrát	-10.8326
nutil	-10.8326
▁chyběl	-10.8326
případě	-10.8327
myslet	-10.8332
▁Sun	-10.8333
▁pramen	-10.8334
krás	-10.8334
▁Pět	-10.8338
▁společník	-10.8338
▁komunistické	-10.8338
▁ovládání	-10.8339
▁vyvolal	-10.8343
▁připadá	-10.8345
▁přijímá	-10.8347
▁pomůže	-10.8353
▁kvalitě	-10.8364
▁kontroly	-10.8365
▁uprostřed	-10.8367
hodnotit	-10.8371
▁převzal	-10.8382
▁Taková	-10.8384
▁výpravy	-10.8385
▁dopravě	-10.8391
▁1000	-10.8408
▁novináři	-10.8409
▁žít	-10.8411
▁znaky	-10.8412
▁viděli	-10.8413
▁chemický	-10.8415
dél	-10.843
▁tajný	-10.8445
▁aminokyselin	-10.8448
▁Lon	-10.8462
▁magnet	-10.8462
▁určitých	-10.8465
▁blíží	-10.8465
ohledem	-10.8465
▁obrazů	-10.8469
▁fyzick	-10.8472
▁okamžik	-10.8474
▁odchod	-10.8476
▁Škod	-10.8482
▁přijel	-10.8489
▁měsíci	-10.8501
▁evropsk	-10.8502
41	-10.8509
US	-10.8513
▁adapt	-10.8515
▁určené	-10.8517
▁tvrdé	-10.8521
▁chladn	-10.8525
daných	-10.8529
▁cenný	-10.853
▁Rakousku	-10.8533
▁začínají	-10.8543
▁porážk	-10.8546
▁přerušen	-10.8551
řazen	-10.8562
BA	-10.8581
▁doprava	-10.8582
▁Musím	-10.8591
▁boje	-10.8593
▁koncentr	-10.8595
▁dopoledne	-10.8598
▁ministerstvu	-10.8598
▁nejrychleji	-10.8598
▁partneři	-10.8598
▁poskytnout	-10.8598
▁považovat	-10.8598
▁rekonstrukci	-10.8598
▁rozhoduje	-10.8598
▁spravedliv	-10.8598
▁strategie	-10.8598
▁vyrábět	-10.8598
▁Americe	-10.8598
▁areálu	-10.8598
▁doporučuje	-10.8598
▁kompres	-10.8598
▁mateřsk	-10.8598
▁neobvykl	-10.8598
▁klášte	-10.8598
▁reakce	-10.8598
▁dveře	-10.8598
▁policii	-10.8598
▁taneční	-10.8598
▁úhrad	-10.8598
▁dubna	-10.8598
▁Trenér	-10.8598
▁majetkov	-10.8599
▁Havla	-10.8599
▁sledoval	-10.8599
▁politickou	-10.8599
▁sloužit	-10.8599
▁srdce	-10.8599
▁muzik	-10.8599
▁jaře	-10.8599
nášet	-10.8599
▁Excel	-10.8599
▁humor	-10.8599
▁sovětských	-10.8601
▁Klub	-10.8601
:3	-10.8602
▁penze	-10.8603
▁vězení	-10.8603
ill	-10.8603
▁psát	-10.8604
▁rozlišení	-10.8604
krácen	-10.8604
▁vzít	-10.8604
▁krve	-10.8608
▁zachovat	-10.8609
▁výlet	-10.8609
▁dotací	-10.8609
spektr	-10.8609
▁Konečn	-10.861
škodliv	-10.8612
▁trvat	-10.8612
▁klesl	-10.8612
▁ukončení	-10.8624
▁obsahovat	-10.8625
▁elektrické	-10.8627
▁kořen	-10.8629
▁provádět	-10.863
▁stavby	-10.863
▁produkty	-10.8632
▁dřev	-10.8633
▁vyhlásil	-10.8633
▁Mont	-10.8636
▁foto	-10.8636
▁dítěte	-10.8644
▁narození	-10.8646
ářské	-10.865
▁horní	-10.8652
▁událostí	-10.8654
▁vydat	-10.8657
▁připojení	-10.866
▁přišli	-10.8661
▁cestující	-10.8668
▁správný	-10.867
▁zastavit	-10.8671
▁čekat	-10.8672
▁zjevn	-10.868
▁Eva	-10.8681
▁schválení	-10.8682
▁vším	-10.8683
▁postavit	-10.8686
▁objektivní	-10.8689
▁příkladem	-10.869
▁kabinetu	-10.8692
▁mírně	-10.8697
▁souhlasí	-10.8699
▁managementu	-10.8707
▁stati	-10.8707
▁cosi	-10.8715
▁události	-10.8715
CD	-10.8719
▁větr	-10.872
▁vašeho	-10.8722
▁pokládá	-10.8722
▁právník	-10.8726
▁zjistili	-10.8731
▁maximální	-10.8737
▁posil	-10.8739
▁kus	-10.8741
ánek	-10.8747
IP	-10.8764
▁pozitiv	-10.8767
▁přesvědčení	-10.8767
▁Vlast	-10.877
▁Celkov	-10.8796
▁samostatně	-10.8799
▁pravomoc	-10.8801
▁vlak	-10.8815
▁rozšířen	-10.8816
▁Clinton	-10.8831
▁Mnoh	-10.8844
▁cyklu	-10.8847
▁Mag	-10.8849
rent	-10.8851
▁rostou	-10.8855
vádět	-10.886
vládnout	-10.8866
▁poskytl	-10.8868
▁46	-10.8868
▁Med	-10.8871
legislativ	-10.8876
▁odkaz	-10.8877
▁Kur	-10.8881
▁průmyslové	-10.8882
▁blízko	-10.889
▁zásluh	-10.8893
▁Stanislav	-10.8893
▁Wimbledon	-10.8893
▁geometrie	-10.8893
▁inspekto	-10.8893
▁miliónu	-10.8893
▁nepřízniv	-10.8893
▁opozice	-10.8893
▁producent	-10.8893
▁referendu	-10.8893
▁vstříc	-10.8893
▁výsledku	-10.8893
▁zahrnuje	-10.8893
▁snižuje	-10.8893
zapomněl	-10.8893
▁závazn	-10.8893
▁účinky	-10.8893
▁března	-10.8893
▁zahynul	-10.8893
▁čtvrtletí	-10.8893
▁praktický	-10.8893
▁rozmezí	-10.8893
▁funkcionář	-10.8893
▁šťastn	-10.8893
▁aparát	-10.8893
▁páté	-10.8893
▁terorist	-10.8893
▁sotva	-10.8893
▁využil	-10.8893
▁kupónov	-10.8893
▁zvýší	-10.8893
▁středověk	-10.8893
▁klesá	-10.8893
▁obci	-10.8894
▁rakouské	-10.8894
▁nositel	-10.8894
▁necelý	-10.8894
▁samostatný	-10.8894
▁morální	-10.8894
▁terén	-10.8894
▁knihovn	-10.8894
▁duchu	-10.8895
▁Fond	-10.8896
▁pověst	-10.8897
▁útočník	-10.8897
▁téhož	-10.8897
▁diskusi	-10.8901
▁Šest	-10.8904
▁nesmysl	-10.8905
▁zajišťuje	-10.8911
lizace	-10.8915
▁návod	-10.8917
tivnější	-10.8919
▁Svět	-10.8924
▁školách	-10.8924
▁vybral	-10.8927
▁nedovol	-10.8928
▁věnuje	-10.8929
▁kmen	-10.8931
▁vstupné	-10.8933
▁únik	-10.8934
čková	-10.8934
nická	-10.8939
▁zachování	-10.8939
ložený	-10.894
▁vzpomíná	-10.8944
▁En	-10.8952
▁činit	-10.8953
▁provádí	-10.8963
▁Ros	-10.8965
▁přestal	-10.8965
▁130	-10.8967
▁představiteli	-10.8967
▁poradce	-10.8968
končit	-10.8972
▁kovů	-10.8974
DI	-10.8976
▁dělí	-10.8978
skutk	-10.8984
▁pravomoci	-10.8985
▁prokázal	-10.8986
zákon	-10.8986
▁příčinou	-10.8994
▁pražských	-10.8994
▁Zemi	-10.8996
▁večerní	-10.9001
▁krajan	-10.9005
▁vysvětl	-10.9009
▁formy	-10.901
▁soust	-10.9012
▁běžn	-10.9027
příliš	-10.9027
MF	-10.9028
▁urychlen	-10.9032
▁vlně	-10.9049
logicky	-10.9053
off	-10.9055
▁skutečn	-10.9057
▁potřebu	-10.9067
▁ozbrojený	-10.907
▁personál	-10.9076
▁los	-10.9076
▁obrovské	-10.9086
▁kandidátů	-10.9091
▁Malé	-10.9092
▁čistý	-10.9092
▁pes	-10.9103
▁minulost	-10.9105
▁ostře	-10.911
▁obsahují	-10.9126
▁pravděpodobn	-10.913
gel	-10.913
▁Občanské	-10.9134
▁projevil	-10.9142
▁zásadně	-10.9145
▁samozřejm	-10.9162
▁koordin	-10.917
▁žil	-10.9181
▁Bla	-10.9184
▁poznat	-10.9186
▁vzdálenost	-10.9189
▁reakci	-10.919
hlédn	-10.9195
▁jednorázov	-10.9196
▁Otázka	-10.9196
▁definitivně	-10.9196
▁digitální	-10.9196
▁důvěru	-10.9196
▁gigant	-10.9196
▁hřišti	-10.9196
▁kyslíku	-10.9196
▁navrhuje	-10.9196
▁otevřený	-10.9196
▁označit	-10.9196
▁pokračování	-10.9196
▁prognóz	-10.9196
▁rovnová	-10.9196
▁rozšířil	-10.9196
▁sekretář	-10.9196
▁softwarov	-10.9196
▁transformaci	-10.9196
▁vyjadřuj	-10.9196
▁vězňů	-10.9196
▁začátek	-10.9196
▁divadlo	-10.9196
▁infekc	-10.9196
▁předvolební	-10.9196
▁výročí	-10.9196
▁zemědělců	-10.9196
▁sexuální	-10.9196
▁zvyšování	-10.9196
▁používal	-10.9196
▁prozatím	-10.9196
▁vozidel	-10.9196
▁Československé	-10.9196
▁prosinci	-10.9196
▁dětský	-10.9196
▁náměstk	-10.9196
▁vyskytují	-10.9196
▁Třeba	-10.9196
▁využívají	-10.9196
▁vazby	-10.9196
▁října	-10.9196
▁Býval	-10.9196
▁ukázk	-10.9196
▁opačné	-10.9196
▁skleník	-10.9196
▁vteřin	-10.9196
▁poplatky	-10.9196
▁statistik	-10.9196
▁počtem	-10.9196
počtů	-10.9196
▁rozsáhlé	-10.9196
▁nastavení	-10.9196
▁Práce	-10.9196
▁nikoho	-10.9196
▁obvyklé	-10.9196
▁rakovin	-10.9196
▁Pomoc	-10.9197
▁Východ	-10.9197
▁Prostě	-10.9197
▁svoje	-10.9197
▁uplatňuj	-10.9197
▁Tvrd	-10.9197
▁hluboké	-10.9197
▁myšlenky	-10.92
▁přispíva	-10.92
▁zastavil	-10.9201
▁vybudován	-10.9203
▁Hill	-10.9207
▁Člen	-10.921
▁Tad	-10.9213
▁Cest	-10.9214
▁výdajů	-10.9214
látka	-10.9217
▁tunel	-10.9218
▁neplatí	-10.9219
▁Němec	-10.9227
▁mechanismus	-10.9228
▁představitele	-10.9229
▁poradit	-10.923
▁rostoucí	-10.9235
▁sídle	-10.9235
▁stručn	-10.9236
▁zrušit	-10.9239
▁oběti	-10.9241
zemědělských	-10.9243
▁formu	-10.9243
edení	-10.9246
▁Uvedl	-10.9247
blok	-10.925
▁loňský	-10.9251
příště	-10.9254
▁příležitostí	-10.9259
▁bratr	-10.926
▁stán	-10.926
VÍ	-10.9262
▁východě	-10.9265
▁Let	-10.927
▁vydělá	-10.9271
ďte	-10.9271
▁Mil	-10.9272
▁schopností	-10.9276
nášel	-10.9286
▁staveb	-10.9287
▁bio	-10.9287
▁přítomnosti	-10.9289
mála	-10.929
▁odešl	-10.9291
▁barevný	-10.9291
vrácení	-10.9296
plňuje	-10.9299
▁objevují	-10.9312
▁majitelé	-10.932
▁kapel	-10.9326
▁dramat	-10.933
▁opustil	-10.9343
▁výborů	-10.9357
▁průměrné	-10.9358
bírají	-10.9366
▁snaz	-10.9371
17	-10.9376
▁pravděpodobnost	-10.938
▁dílů	-10.938
▁postavil	-10.9395
▁třetiny	-10.9401
▁jih	-10.9426
▁rodinný	-10.9431
▁lékařsk	-10.9441
5%	-10.945
▁důraz	-10.9455
88	-10.9466
▁ceník	-10.9467
▁přítomnost	-10.9469
▁koupi	-10.9478
dáme	-10.9483
svědčil	-10.9491
▁zájm	-10.9492
▁Bój	-10.9498
▁Angličan	-10.9508
▁Argentin	-10.9508
▁Evropu	-10.9508
▁Mechanik	-10.9508
▁Mečiar	-10.9508
▁Němců	-10.9508
▁Premiér	-10.9508
▁Staroměstské	-10.9508
▁Systém	-10.9508
▁absolutní	-10.9508
▁definitivní	-10.9508
▁kilobajtů	-10.9508
▁podepsán	-10.9508
▁podezření	-10.9508
▁potvrzuje	-10.9508
▁připomněl	-10.9508
▁smlouvě	-10.9508
▁tabulce	-10.9508
▁teorií	-10.9508
▁vyžádal	-10.9508
▁zastupitelstva	-10.9508
▁Vývoj	-10.9508
▁kyselin	-10.9508
▁paradox	-10.9508
▁sjednocení	-10.9508
▁poločas	-10.9508
▁tvořit	-10.9508
▁účinek	-10.9508
▁GSM	-10.9508
▁komplikov	-10.9508
▁režii	-10.9508
máhat	-10.9508
▁pochopil	-10.9508
▁aspekt	-10.9508
▁schůze	-10.9508
▁pohádk	-10.9508
▁Druhá	-10.9508
▁zdarma	-10.9508
▁lehce	-10.9508
▁zrušil	-10.9508
▁celků	-10.9508
▁membrán	-10.9508
▁ukončil	-10.9508
▁čerstv	-10.9508
▁pokrok	-10.9509
▁nález	-10.9509
▁špatný	-10.9509
▁Jihlav	-10.9509
ografie	-10.9509
táhne	-10.9509
▁tramvaj	-10.9509
▁střetnutí	-10.951
▁existující	-10.951
▁hustot	-10.951
▁("	-10.9511
▁vyřešen	-10.9511
▁spotřeby	-10.9511
▁nádor	-10.9512
▁pověřen	-10.9513
▁nedokázal	-10.9513
▁neprav	-10.9513
▁nejenom	-10.9514
▁vězni	-10.9514
▁projednáva	-10.9515
▁bránit	-10.9515
▁Jednání	-10.9515
▁duše	-10.9518
▁termo	-10.9518
▁diskuse	-10.9518
▁Cíle	-10.952
▁ovoce	-10.952
▁189	-10.9522
▁kódování	-10.9524
▁produkci	-10.9524
▁balík	-10.9525
▁kamion	-10.9528
▁dostatek	-10.9529
tratil	-10.953
▁Dodal	-10.953
▁přístav	-10.9536
▁vyvolává	-10.9536
▁Řeck	-10.9539
▁systematick	-10.9541
▁Jelcinov	-10.9541
▁vaši	-10.9542
▁sláv	-10.9544
▁akademie	-10.9549
▁závislosti	-10.9551
▁veřejných	-10.9551
▁předložit	-10.9567
▁zvěře	-10.9567
▁čtenářů	-10.9568
▁dolní	-10.9569
▁klasický	-10.9573
▁náhodou	-10.9582
▁pokladn	-10.9586
▁užívání	-10.9588
▁živé	-10.9589
▁překlad	-10.9593
▁výkonný	-10.9602
▁přímý	-10.9607
▁určený	-10.9611
▁strážník	-10.9614
▁běh	-10.9615
▁obrovský	-10.9617
▁živnost	-10.9621
▁KB	-10.9624
▁anglický	-10.9625
▁Severní	-10.9626
▁zdravotnické	-10.9637
▁Světové	-10.964
▁nezávislé	-10.9646
▁počítačový	-10.9648
CA	-10.9649
PI	-10.9654
▁výstavě	-10.9667
▁nájemník	-10.9673
▁listin	-10.9676
LOV	-10.9683
▁zdravé	-10.9706
▁vzduch	-10.9706
▁filmové	-10.9718
▁klidně	-10.9725
ODA	-10.9731
▁moment	-10.9741
▁Vlk	-10.9741
▁integr	-10.9742
stupují	-10.9764
nsen	-10.9765
▁socialist	-10.9769
▁ulic	-10.978
▁ponech	-10.9784
▁Mel	-10.9793
ačnou	-10.9796
▁okamžit	-10.9797
▁analog	-10.9799
▁Ústavní	-10.9811
ontrol	-10.9816
▁důstojn	-10.9819
▁recept	-10.983
pomeňme	-10.9831
▁Bruselu	-10.9831
▁ToolBook	-10.9831
▁dohromady	-10.9831
▁nejnižší	-10.9831
▁pokračuje	-10.9831
▁přispět	-10.9831
▁spořiteln	-10.9831
▁uskutečnit	-10.9831
▁volejbal	-10.9831
▁Člověk	-10.9831
▁Určit	-10.9831
▁dražší	-10.9831
▁dynamick	-10.9831
▁každoročn	-10.9831
▁pokračují	-10.9831
▁snažit	-10.9831
▁sportovců	-10.9831
▁demonstra	-10.9831
▁nemohu	-10.9831
▁vyplývají	-10.9831
▁Poslanc	-10.9831
▁index	-10.9831
▁medaili	-10.9831
▁podporovat	-10.9831
▁vyřešit	-10.9831
▁Elektr	-10.9831
▁bílkovin	-10.9831
▁chystá	-10.9831
▁krizi	-10.9831
▁vybudovat	-10.9831
▁Mnichov	-10.9831
▁vypadat	-10.9831
sáhne	-10.9831
▁Histori	-10.9831
▁Vysok	-10.9831
▁uvidí	-10.9831
▁srážek	-10.9831
▁hůře	-10.9831
▁pohyboval	-10.9831
▁Osobn	-10.9831
▁turisty	-10.9831
▁Vítěz	-10.9831
▁doufá	-10.9831
▁mlýn	-10.9831
▁skončí	-10.9831
▁umělecké	-10.9831
▁přiměřen	-10.9832
▁kolegů	-10.9832
▁mzdov	-10.9832
▁sněhu	-10.9832
mítnut	-10.9832
▁zhodnocení	-10.9833
▁dobrá	-10.9833
▁tvorbě	-10.9834
▁obilí	-10.9834
▁mld	-10.9834
▁vedlejší	-10.9836
▁pouští	-10.9836
▁chlap	-10.9837
▁ráz	-10.9839
▁porozumění	-10.9839
▁sběr	-10.984
▁síti	-10.984
▁obav	-10.9842
▁dcer	-10.9842
▁penzion	-10.9843
▁těší	-10.9843
▁svalov	-10.9843
▁spodní	-10.9844
▁přesvědčit	-10.9846
▁dešti	-10.9847
vázal	-10.9847
▁Form	-10.9848
▁deviz	-10.9849
▁vyřazen	-10.985
▁všeobecně	-10.9851
▁čestn	-10.9851
biologick	-10.9855
▁vesnice	-10.9857
▁zbytečně	-10.9861
▁atmosféry	-10.9862
▁přinést	-10.9863
▁Hradci	-10.9863
▁připojit	-10.9864
▁loňsk	-10.9871
▁rovině	-10.9872
▁spolupracovníků	-10.9878
▁Krát	-10.9878
▁tělo	-10.988
▁Cup	-10.9883
▁poznamenal	-10.9883
▁úkon	-10.9884
▁klasické	-10.9885
▁prosadil	-10.9886
▁ruky	-10.9887
▁stávající	-10.9887
pomínají	-10.9888
▁obsazení	-10.9892
iletá	-10.9907
▁Američané	-10.9913
příč	-10.9917
▁firemní	-10.992
▁silnice	-10.992
▁grafický	-10.9922
▁nadšen	-10.9923
▁maďarsk	-10.9926
▁Stal	-10.993
▁postoje	-10.9936
třída	-10.9941
jan	-10.9947
cal	-10.9949
▁získan	-10.9952
▁zájmů	-10.9954
▁městský	-10.9958
▁personální	-10.996
▁mlh	-10.9976
▁kolektivní	-10.9977
▁platil	-10.9994
▁reagoval	-10.9996
▁kolektiv	-11.0015
nutně	-11.0028
▁management	-11.0039
▁muse	-11.0044
▁Novotný	-11.0048
ptal	-11.0049
▁závodní	-11.005
▁Sever	-11.0052
ÁT	-11.0064
▁buňk	-11.0075
▁panel	-11.0087
▁mladý	-11.0091
▁odraz	-11.0099
▁kontrolní	-11.0099
▁drobné	-11.0131
▁vedla	-11.014
▁Mir	-11.0144
▁Mluvčí	-11.0164
▁Pardubic	-11.0164
▁Rudolf	-11.0164
▁elektráren	-11.0164
▁intenzit	-11.0164
▁jednoduchá	-11.0164
▁metropoli	-11.0164
▁nechtějí	-11.0164
▁nejpozději	-11.0164
▁obsažen	-11.0164
▁otevřena	-11.0164
▁pochopení	-11.0164
▁výpověď	-11.0164
▁dosažení	-11.0164
▁neutrální	-11.0164
▁teorii	-11.0164
▁tradičně	-11.0164
▁očekával	-11.0164
táhnout	-11.0164
▁hrozb	-11.0164
plácet	-11.0164
▁jmění	-11.0164
▁únoru	-11.0164
▁vysílá	-11.0164
▁složitější	-11.0164
▁Peníze	-11.0164
▁Moskva	-11.0164
▁mechanick	-11.0164
▁reakcí	-11.0164
▁řídící	-11.0164
▁multi	-11.0165
▁mezd	-11.0165
▁likvidace	-11.0165
▁požadované	-11.0165
▁Divadl	-11.0165
nvestiční	-11.0165
▁anket	-11.0165
▁vzácn	-11.0165
▁břehu	-11.0165
▁Nic	-11.0165
▁nevýhod	-11.0165
▁restauraci	-11.0165
▁hezk	-11.0165
▁poplatník	-11.0166
▁Zástupc	-11.0166
▁Rozdíl	-11.0167
▁letecké	-11.0167
▁úlev	-11.0168
▁Obdobn	-11.0168
▁operací	-11.0169
▁dotace	-11.0169
▁dojít	-11.0169
▁kategorii	-11.0169
▁kabel	-11.017
hraniční	-11.017
cvič	-11.0172
▁dělají	-11.0172
▁Slovan	-11.0176
▁výhodnější	-11.0178
▁vtip	-11.0178
▁utrpěl	-11.0181
▁ideál	-11.0182
▁předběžn	-11.0184
▁reformy	-11.0185
▁Kohl	-11.0186
▁1,5	-11.0186
▁podporuje	-11.0186
▁udržení	-11.019
▁sněmovně	-11.0192
▁bytost	-11.0193
▁časové	-11.0194
▁konečný	-11.0194
▁kapitálové	-11.0195
visí	-11.0195
▁městech	-11.0196
ectví	-11.0202
▁stíhání	-11.0202
▁množ	-11.0203
▁oblačnost	-11.0204
▁vykoná	-11.0205
▁časopisů	-11.021
počtu	-11.0218
▁přijdou	-11.022
▁zabezpeč	-11.0221
▁účinně	-11.0222
▁nepříjemné	-11.0225
▁grafick	-11.0229
▁dobro	-11.0232
▁Dokon	-11.0239
vláda	-11.0251
▁vyvolá	-11.0253
▁Nemá	-11.0254
▁Tour	-11.0258
▁vína	-11.0265
▁stranick	-11.0266
▁bílé	-11.0267
▁žádostí	-11.0268
▁popř	-11.0269
▁Nor	-11.0271
▁Takový	-11.0277
▁využívání	-11.0277
národních	-11.0281
▁realitní	-11.0282
▁průměrný	-11.0298
dvacetiletý	-11.0299
▁trestné	-11.0305
▁Bank	-11.0307
▁výkonné	-11.0326
▁tank	-11.0326
▁vzpomínk	-11.0336
▁hledal	-11.0345
evropský	-11.0349
▁tuzemské	-11.0357
▁reálný	-11.0362
▁mluvil	-11.0376
▁výrazný	-11.0382
atřicet	-11.0385
▁Dan	-11.0388
▁časopise	-11.0411
▁soli	-11.0416
▁nezaměstnanost	-11.0418
▁ekologick	-11.0426
ČE	-11.0432
oučástí	-11.0448
▁narozen	-11.0452
dpověď	-11.0464
▁Zahraničn	-11.0469
▁kilometr	-11.0475
▁svobodné	-11.0487
▁zvětš	-11.0492
▁pochopit	-11.0507
▁Afriky	-11.0509
▁Ameriky	-11.0509
▁Bohužel	-11.0509
▁Ladislav	-11.0509
▁Nedávn	-11.0509
▁Plzni	-11.0509
▁SCSI	-11.0509
▁Telecom	-11.0509
▁devatenáct	-11.0509
▁energii	-11.0509
▁gymnázi	-11.0509
▁instituce	-11.0509
▁investování	-11.0509
▁konkrétně	-11.0509
▁nejúspěšnější	-11.0509
▁nizozemsk	-11.0509
▁plzeňsk	-11.0509
▁strojírensk	-11.0509
▁upozorněn	-11.0509
▁Účast	-11.0509
▁čtvrtfinále	-11.0509
▁nejvýznamnější	-11.0509
▁přirozené	-11.0509
▁rámeček	-11.0509
▁výrobek	-11.0509
▁čtvereční	-11.0509
▁hloubk	-11.0509
▁hudby	-11.0509
▁podpořil	-11.0509
▁Policisté	-11.0509
▁garant	-11.0509
▁lokální	-11.0509
▁požadují	-11.0509
▁předčasn	-11.0509
▁kapitán	-11.0509
▁ohrožuj	-11.0509
▁chránit	-11.0509
▁mládí	-11.0509
▁ztráce	-11.0509
▁názvu	-11.0509
▁pobočk	-11.0509
▁koncepci	-11.0509
▁nalézt	-11.0509
▁trzích	-11.0509
▁David	-11.0509
máhají	-11.0509
▁schránk	-11.0509
▁Všeobecn	-11.0509
▁Včera	-11.0509
▁odstavce	-11.0509
▁pouhé	-11.051
▁okénk	-11.051
▁závad	-11.051
▁léčebn	-11.051
▁umělecký	-11.051
▁zaujal	-11.051
▁zimě	-11.051
▁klasifik	-11.051
▁použil	-11.051
▁dražb	-11.051
▁Pozor	-11.051
▁ekonomicky	-11.051
▁vybrané	-11.051
▁stabilní	-11.0511
▁Chip	-11.0511
pouštějí	-11.0511
ight	-11.0512
▁obrázky	-11.0513
▁věnovan	-11.0514
najdeme	-11.0514
▁Tentokrát	-11.0516
beton	-11.0517
▁nadcházející	-11.0517
▁Britsk	-11.0518
▁koncern	-11.0519
▁sklon	-11.0519
hrává	-11.0519
▁Nevím	-11.052
▁kated	-11.0522
▁kategorií	-11.0523
▁zvýšené	-11.0527
▁opravdov	-11.0528
▁síla	-11.0529
▁hlavou	-11.0532
▁lamp	-11.0533
▁právnické	-11.0535
▁faktorů	-11.0535
JÍ	-11.0536
▁Londýně	-11.0539
▁navazuj	-11.0539
▁49	-11.054
▁plod	-11.0542
▁světovou	-11.0545
67	-11.0551
▁bojovat	-11.0551
▁připojen	-11.0553
▁chodit	-11.0555
▁originální	-11.0555
▁tón	-11.0558
▁dvojic	-11.056
vlastn	-11.0571
▁vlk	-11.0576
▁konat	-11.058
mlouva	-11.0585
▁textový	-11.0589
▁relac	-11.0592
IA	-11.0595
▁udržel	-11.0597
▁způsobuje	-11.0599
'	-11.06
▁Japon	-11.0603
▁51	-11.0604
▁parametrů	-11.0606
▁důsledk	-11.0612
▁kritérií	-11.0618
▁uznal	-11.0625
▁členský	-11.0628
▁vyvoláva	-11.0635
vnějších	-11.0644
▁biologické	-11.0648
▁blíže	-11.0649
▁obvodní	-11.0653
stihnout	-11.0675
▁turistický	-11.0676
▁nekonečn	-11.0689
▁bosenský	-11.0693
ařské	-11.0695
▁objevit	-11.0702
PT	-11.0715
CP	-11.0723
▁podnikatelský	-11.0725
▁Lidové	-11.0727
▁nesouhlas	-11.0735
▁listopad	-11.0742
▁180	-11.0745
cestoval	-11.0764
▁výprav	-11.0774
▁čtvrtin	-11.0783
čátkem	-11.0794
▁časopis	-11.0794
▁chemick	-11.0802
▁poukaz	-11.0805
▁stovk	-11.0809
▁zastoupen	-11.0813
▁řízen	-11.0829
▁akademi	-11.0829
▁zvlád	-11.0833
▁výkonnost	-11.0848
▁Šv	-11.0857
pravit	-11.0858
reprezenta	-11.0861
▁Alexandr	-11.0866
▁Barceloně	-11.0866
▁Británii	-11.0866
▁Bělehrad	-11.0866
▁IFOR	-11.0866
▁Nejlepší	-11.0866
▁Portugalsk	-11.0866
▁azbest	-11.0866
▁chorvatské	-11.0866
▁cigaret	-11.0866
▁honorář	-11.0866
▁instalaci	-11.0866
▁multimediální	-11.0866
▁následek	-11.0866
▁podmínkou	-11.0866
▁požádat	-11.0866
▁publikován	-11.0866
▁tlačítka	-11.0866
▁tlačítkem	-11.0866
▁týdně	-11.0866
▁umožnit	-11.0866
▁úsměv	-11.0866
palestinsk	-11.0866
▁1987	-11.0866
▁1996	-11.0866
▁fázi	-11.0866
▁pravidlo	-11.0866
ntelektuál	-11.0866
nápověd	-11.0866
▁Bohemia	-11.0866
▁březnu	-11.0866
▁normy	-11.0866
▁pomáhá	-11.0866
▁populární	-11.0866
▁Organiza	-11.0866
▁bazén	-11.0866
▁kratší	-11.0866
▁déšť	-11.0866
▁naléhav	-11.0866
▁pololetí	-11.0866
▁vrstvy	-11.0866
▁zklamán	-11.0866
▁ploše	-11.0866
▁příslušníci	-11.0866
▁chalup	-11.0866
▁těžce	-11.0866
▁vyplácen	-11.0866
spěje	-11.0866
▁Srbsk	-11.0866
▁doposud	-11.0866
▁kanadsk	-11.0866
▁norma	-11.0866
▁ukáže	-11.0866
▁provozovatel	-11.0866
▁Věřím	-11.0866
▁divize	-11.0866
▁Robert	-11.0866
▁zajímat	-11.0866
▁Soubor	-11.0866
▁sociálně	-11.0866
▁značky	-11.0867
▁úvodu	-11.0867
▁likvidaci	-11.0867
▁někoho	-11.0867
▁Část	-11.0867
▁Závěr	-11.0867
▁barvu	-11.0867
▁pozdější	-11.0867
▁ocitl	-11.0867
▁prodávající	-11.0868
▁stoupl	-11.0868
▁kvalifikace	-11.0869
▁Hodnot	-11.0869
▁komisi	-11.0869
certifik	-11.0869
▁nedokáž	-11.0869
▁čtvrtý	-11.087
▁ekonomice	-11.087
▁nutný	-11.087
▁historik	-11.0871
▁debat	-11.0871
▁Případ	-11.0872
ČNÍ	-11.0872
▁Jenom	-11.0872
▁zkušen	-11.0872
▁zeleni	-11.0874
▁klimatu	-11.0875
▁výstavbě	-11.0877
▁právnických	-11.0877
▁uvažovat	-11.0878
▁Generální	-11.0878
▁drog	-11.0879
řád	-11.088
abilní	-11.0881
▁Stav	-11.0882
▁posílen	-11.0883
▁odpovídal	-11.0885
▁99	-11.0887
▁zjednoduš	-11.0889
▁desky	-11.0892
▁pozorování	-11.0893
krýt	-11.0894
▁červenci	-11.0902
▁rozbor	-11.0902
▁horách	-11.0903
▁potvrzení	-11.0903
▁Často	-11.0904
mínil	-11.0906
▁Bend	-11.0909
▁ukázat	-11.0909
▁vzorky	-11.091
▁letiště	-11.0912
▁myšlenka	-11.0915
▁cenách	-11.092
rodil	-11.092
▁fyzický	-11.0925
▁JU	-11.0926
▁vánoc	-11.0928
▁Slovensk	-11.0931
▁Znám	-11.0933
▁obrovsk	-11.0934
▁masov	-11.0944
▁absolvoval	-11.0946
▁přírodovědecké	-11.0949
▁Mohl	-11.0951
▁poklesl	-11.0957
konala	-11.0968
▁představitel	-11.0969
pojit	-11.097
bíhají	-11.097
▁plet	-11.0973
▁očekávání	-11.0974
▁vozy	-11.0975
▁řeky	-11.0981
▁potřebn	-11.0986
etické	-11.1001
▁průmyslov	-11.1014
▁odložen	-11.1021
bíral	-11.1034
▁zbytečn	-11.1037
▁poledn	-11.1038
▁vývojové	-11.1041
▁britsk	-11.1054
čern	-11.1073
dejme	-11.1074
▁mírn	-11.1074
▁nejedn	-11.1076
krývají	-11.1078
▁konve	-11.1089
▁neznámé	-11.1097
▁bíl	-11.1099
▁stupni	-11.1117
ALI	-11.1121
▁Velm	-11.1125
psychologick	-11.1127
yplývá	-11.1133
▁52	-11.1133
.12.	-11.1136
▁psycho	-11.1142
▁specializované	-11.1147
▁nájem	-11.1152
▁potenciální	-11.1152
▁Správ	-11.1161
▁Společn	-11.1161
▁vymezen	-11.1169
▁pouště	-11.1169
▁historick	-11.1172
▁návštěvník	-11.1188
▁figur	-11.1188
▁Nikd	-11.119
▁působící	-11.1197
▁zjednodušen	-11.1213
čkách	-11.1214
jíždějí	-11.1222
riti	-11.1222
▁pouč	-11.1224
▁společenský	-11.1228
povídal	-11.1231
ézt	-11.1233
▁vyšetřova	-11.1235
▁antropolog	-11.1236
▁Chomutov	-11.1236
▁Původně	-11.1236
▁Zvláštní	-11.1236
▁církví	-11.1236
▁galerie	-11.1236
▁ovlivňuje	-11.1236
▁potrestán	-11.1236
▁priorit	-11.1236
▁produktivit	-11.1236
▁prosazovat	-11.1236
▁páteční	-11.1236
▁1997	-11.1236
▁Ukrajiny	-11.1236
▁akcionářů	-11.1236
▁deficit	-11.1236
▁nedaleko	-11.1236
▁náboženství	-11.1236
▁obsluh	-11.1236
▁orchestr	-11.1236
▁ovladač	-11.1236
▁posádk	-11.1236
▁srdeční	-11.1236
▁upozorňuje	-11.1236
▁zpracováva	-11.1236
▁Koaliční	-11.1236
▁naznačil	-11.1236
▁sledování	-11.1236
▁specifik	-11.1236
▁IBM	-11.1236
▁hřiště	-11.1236
▁šetření	-11.1236
▁držitel	-11.1236
▁nepřátel	-11.1236
▁určuje	-11.1236
▁bronz	-11.1236
▁dveří	-11.1236
▁oxidu	-11.1236
▁příznak	-11.1236
▁vrstev	-11.1236
▁burze	-11.1236
▁středoevropsk	-11.1236
▁vzrůst	-11.1236
▁enzym	-11.1236
▁usilovat	-11.1236
▁patrné	-11.1236
▁podnicích	-11.1236
▁podporou	-11.1236
připravovan	-11.1236
▁proslul	-11.1237
▁Tchaj	-11.1237
▁příslušníků	-11.1237
▁potíží	-11.1237
▁pronájem	-11.1237
▁fáze	-11.1237
▁Formát	-11.1237
▁Trans	-11.1237
▁sdělovací	-11.1237
▁kritické	-11.1237
▁Tureck	-11.1237
▁příliv	-11.1237
▁filozofie	-11.1237
▁vzestup	-11.1237
▁Word	-11.1237
▁Situac	-11.1237
▁královn	-11.1237
▁lyžař	-11.1237
▁zámku	-11.1238
▁naposledy	-11.1238
hodlají	-11.1238
vázat	-11.1239
▁obrázků	-11.1239
▁myšlenkou	-11.1239
▁svátky	-11.1239
▁integraci	-11.1239
cházelo	-11.1239
▁španělské	-11.1239
▁násilí	-11.124
▁modifik	-11.124
▁hutní	-11.1241
střih	-11.1241
▁těžb	-11.1241
▁hostitel	-11.1242
ford	-11.1242
▁myšlenku	-11.1243
▁válka	-11.1243
▁Kreml	-11.1244
▁odhadnout	-11.1244
▁nehodlá	-11.1244
▁přežití	-11.1244
▁Týr	-11.1245
▁manželství	-11.1245
▁uhlí	-11.1246
▁sílu	-11.1246
▁šíření	-11.1246
▁měnové	-11.1247
▁slabší	-11.1248
▁nevhodn	-11.1248
▁dlouhodobě	-11.1248
▁tratí	-11.1248
▁prováze	-11.1249
▁vážný	-11.125
▁profil	-11.125
▁znamenalo	-11.1251
▁podnět	-11.1251
▁obnovu	-11.1253
▁nízko	-11.1253
▁příjemné	-11.1258
▁výrazné	-11.1258
▁zdanění	-11.1261
▁Vít	-11.1266
▁testování	-11.1268
▁Komis	-11.1272
▁zdi	-11.1273
▁stanovit	-11.1275
▁silnější	-11.1283
▁zaměstnanec	-11.1283
▁Nizozem	-11.1288
▁jádro	-11.1291
▁mírový	-11.1301
▁poslání	-11.1305
▁začínající	-11.1309
vesel	-11.1314
▁Nejde	-11.1319
▁vymez	-11.1322
nechává	-11.1327
▁totožn	-11.1335
▁kvalifik	-11.1336
▁jezer	-11.1341
▁pevný	-11.1373
▁KON	-11.1373
▁Jac	-11.1382
kryl	-11.1387
▁zachoval	-11.1394
▁italský	-11.1395
▁vzdá	-11.1413
▁představoval	-11.1415
▁agentur	-11.1417
▁Lidov	-11.1417
▁slovník	-11.1447
▁Tisk	-11.1452
▁kvalifikovan	-11.1453
▁kouř	-11.1457
▁66	-11.1466
▁případný	-11.1474
▁tarif	-11.1479
části	-11.148
studoval	-11.1485
▁koš	-11.1493
▁kabinet	-11.1496
▁vysoko	-11.1497
ářství	-11.1499
▁centrál	-11.1511
SKO	-11.1513
▁důchodové	-11.1523
demokratick	-11.1525
▁obrazovk	-11.1532
▁rozpor	-11.1536
▁snížen	-11.1537
polí	-11.1543
▁zrušen	-11.1564
▁volit	-11.1567
▁lidové	-11.1567
jištěn	-11.1577
korun	-11.1583
▁Výhod	-11.1583
▁postupné	-11.1588
▁trati	-11.1592
kupuje	-11.1593
▁vzhled	-11.1599
▁hygienic	-11.1605
▁obtížně	-11.1615
▁zajímavost	-11.1617
▁konzerv	-11.1621
radioaktivní	-11.1621
▁Nejdřív	-11.1621
▁Průměrn	-11.1621
▁Rakušan	-11.1621
▁Republik	-11.1621
▁Vedoucí	-11.1621
▁důležitá	-11.1621
▁fotoaparát	-11.1621
▁inspekce	-11.1621
▁instalace	-11.1621
▁majetkem	-11.1621
▁nezměnil	-11.1621
▁oznámení	-11.1621
▁pohledávek	-11.1621
▁redakce	-11.1621
▁upozornit	-11.1621
▁vyšetření	-11.1621
▁1968	-11.1621
▁1984	-11.1621
▁Sovětský	-11.1621
▁Thajsk	-11.1621
▁Výzkum	-11.1621
▁dodatečně	-11.1621
▁franků	-11.1621
▁května	-11.1621
▁nejmenší	-11.1621
▁DPH	-11.1621
▁zoufal	-11.1621
▁Temelín	-11.1621
▁stupňů	-11.1621
▁Bejbl	-11.1621
▁hrubého	-11.1621
▁zakladatel	-11.1621
▁konstrukce	-11.1621
tvrzují	-11.1621
▁period	-11.1621
▁pojmů	-11.1621
▁certifikát	-11.1621
▁zkratk	-11.1621
▁ordinac	-11.1621
▁vyvinul	-11.1621
▁stovek	-11.1621
▁dvojnásobn	-11.1621
▁Bílé	-11.1622
▁jedince	-11.1622
▁teplá	-11.1622
▁vojsk	-11.1622
▁přežít	-11.1622
▁audio	-11.1622
▁sehrál	-11.1622
▁chápat	-11.1622
▁pružn	-11.1622
▁Sokol	-11.1622
▁ozdob	-11.1622
▁zkoumá	-11.1622
▁Asociac	-11.1622
▁Řešení	-11.1623
▁restaurace	-11.1623
▁kvalifikační	-11.1623
▁platební	-11.1623
▁vyroben	-11.1623
▁uváděn	-11.1624
▁sněhov	-11.1624
▁spolupracovat	-11.1624
▁Plán	-11.1625
▁německá	-11.1625
▁formální	-11.1625
▁poznatků	-11.1625
▁1986	-11.1625
▁něčem	-11.1626
▁III	-11.1626
▁modem	-11.1626
▁vázán	-11.1626
▁kuponov	-11.1627
▁zatížen	-11.1627
▁složité	-11.1628
▁rychlejší	-11.163
▁poslanecké	-11.163
pravicov	-11.1631
▁3,5	-11.1631
▁nohy	-11.1632
▁podzemní	-11.1632
losování	-11.1633
▁volbami	-11.1633
▁žáků	-11.1633
▁marně	-11.1634
▁rozložení	-11.1635
▁DEM	-11.1635
nutit	-11.1636
▁zlaté	-11.1637
▁Bill	-11.1638
▁ČZ	-11.1639
▁Cheb	-11.1639
▁legislativní	-11.1643
▁nájemce	-11.1644
▁Potom	-11.1644
▁upravit	-11.1645
▁nápis	-11.1649
▁Tedy	-11.1649
▁užitek	-11.1653
▁týdeník	-11.1656
▁linky	-11.1659
▁daný	-11.1673
▁přesvědčiv	-11.1673
▁Celk	-11.1683
▁svěřen	-11.1688
▁jevů	-11.1693
tisknout	-11.1697
▁samotný	-11.1702
▁věrn	-11.1703
▁ruku	-11.1716
▁specializovan	-11.1717
▁doplněn	-11.1725
hodná	-11.1747
▁neshod	-11.1754
žití	-11.1776
▁ozbrojen	-11.1783
▁tvrdý	-11.1788
▁700	-11.1791
morav	-11.1799
▁charakterizova	-11.1811
▁hydro	-11.1812
▁spotřebu	-11.1818
▁podstatný	-11.183
▁turistick	-11.1831
▁výběrové	-11.1849
vyšších	-11.1851
▁Jediný	-11.1877
▁pravý	-11.1878
▁zdravotnický	-11.188
▁přenosov	-11.1882
▁úrokov	-11.1885
▁Obča	-11.1916
▁rozhodnut	-11.1951
▁pozván	-11.1962
hruba	-11.1966
▁Norsk	-11.1967
▁olympijsk	-11.1971
▁Smlouv	-11.1974
▁Londýn	-11.1986
▁zřetel	-11.1993
rušit	-11.1995
trpěl	-11.2
▁zálož	-11.2008
psaný	-11.2009
žívání	-11.202
▁Vždy	-11.202
zanedbateln	-11.2021
▁EuroTel	-11.2021
▁Kalvoda	-11.2021
▁Okresní	-11.2021
▁Sociální	-11.2021
▁brambor	-11.2021
▁energetik	-11.2021
▁firmám	-11.2021
▁hovořit	-11.2021
▁kalendář	-11.2021
▁komponent	-11.2021
▁naštěstí	-11.2021
▁nejrychlejší	-11.2021
▁náležit	-11.2021
▁ovlivňují	-11.2021
▁označuje	-11.2021
▁posuzovat	-11.2021
▁pracovnice	-11.2021
▁publiku	-11.2021
▁převzít	-11.2021
▁redaktor	-11.2021
▁rejstříku	-11.2021
▁zdokonal	-11.2021
glaciál	-11.2021
▁Domácí	-11.2021
▁celostátní	-11.2021
▁nežádoucí	-11.2021
▁radikální	-11.2021
▁spoluhráč	-11.2021
▁velkoobchod	-11.2021
▁zbrojní	-11.2021
▁zázemí	-11.2021
▁domnívají	-11.2021
▁dubnu	-11.2021
▁připomínk	-11.2021
▁vyhlídk	-11.2021
▁uplatnit	-11.2021
▁vyžadují	-11.2021
▁Druhou	-11.2021
▁Poborský	-11.2021
▁přál	-11.2021
▁Českomoravsk	-11.2021
▁kamarád	-11.2021
▁odlišný	-11.2021
▁souhrn	-11.2021
▁efektivní	-11.2021
▁zásilk	-11.2021
▁Všechno	-11.2021
▁osvobození	-11.2021
▁pokoušel	-11.2021
▁viditeln	-11.2021
▁nevědí	-11.2021
▁záloh	-11.2021
▁Musel	-11.2021
▁Zákaz	-11.2021
▁učinit	-11.2021
▁fungují	-11.2021
▁nestačil	-11.2021
▁invalid	-11.2021
▁navržen	-11.2022
▁sněžení	-11.2022
▁Šéf	-11.2022
▁forem	-11.2022
▁prodlení	-11.2022
▁dlouhodobý	-11.2022
▁samospráv	-11.2022
▁stránek	-11.2022
▁slyšet	-11.2022
▁Slavii	-11.2022
▁ztracen	-11.2022
▁vracet	-11.2023
▁rysy	-11.2023
▁přijatelné	-11.2023
▁podílejí	-11.2023
▁škál	-11.2024
▁obrazovce	-11.2024
▁říkají	-11.2025
žádají	-11.2025
▁Grand	-11.2025
▁Objekt	-11.2025
biologie	-11.2025
▁studií	-11.2026
▁obrázku	-11.2027
▁občanství	-11.2029
▁Vesel	-11.203
lepnutím	-11.2031
léhá	-11.2034
▁vezme	-11.2036
▁dohad	-11.2037
▁přizpůsobit	-11.2037
jistit	-11.2039
novými	-11.2039
▁viděn	-11.2042
▁dobách	-11.2044
▁Číny	-11.2045
▁Roman	-11.2046
▁podnikat	-11.2049
ujme	-11.205
▁Dohod	-11.2067
▁zpěvák	-11.207
▁rud	-11.2085
▁Františk	-11.2089
▁Zelen	-11.209
▁ÚV	-11.2111
hodnost	-11.2111
▁dávk	-11.2116
▁desetin	-11.2123
IST	-11.2137
bojí	-11.2141
▁úplné	-11.2148
atřicetilet	-11.2167
▁Králov	-11.2182
▁mořský	-11.2188
členné	-11.2198
▁odehráv	-11.2201
▁vnímá	-11.2215
▁překvapil	-11.227
▁poslal	-11.229
plyn	-11.2303
▁sněmovn	-11.2311
dávky	-11.2314
▁krátký	-11.2319
▁osvět	-11.2324
▁Prac	-11.2369
▁mechanismu	-11.2392
▁zřízen	-11.2396
ifikace	-11.2424
▁komunisti	-11.2428
svědčení	-11.243
▁předcházel	-11.2434
▁administra	-11.2437
mýšlí	-11.2438
▁Alžbět	-11.2438
▁CADKON	-11.2438
▁Finanční	-11.2438
▁Intergraph	-11.2438
▁Lebeď	-11.2438
▁Pithart	-11.2438
▁Zjuganov	-11.2438
▁bližší	-11.2438
▁církvi	-11.2438
▁dědictví	-11.2438
▁fenomén	-11.2438
▁hektar	-11.2438
▁komunální	-11.2438
▁konferencí	-11.2438
▁lázeňsk	-11.2438
▁navrhnout	-11.2438
▁nepřetržit	-11.2438
▁nábytku	-11.2438
▁odmítají	-11.2438
▁odpovědí	-11.2438
▁ovlivněn	-11.2438
▁psychiatr	-11.2438
▁reagovat	-11.2438
▁schůzi	-11.2438
▁softwaru	-11.2438
▁strategii	-11.2438
▁technologii	-11.2438
▁triumf	-11.2438
▁ukazatel	-11.2438
▁uzavírá	-11.2438
▁vytvářejí	-11.2438
▁zpoždění	-11.2438
▁zpátky	-11.2438
▁zálivu	-11.2438
▁zůstanou	-11.2438
▁živočichů	-11.2438
▁žádoucí	-11.2438
rehabilit	-11.2438
▁Nejčastěj	-11.2438
▁Srbů	-11.2438
▁Vídni	-11.2438
▁altruismu	-11.2438
▁leasing	-11.2438
▁nejstarší	-11.2438
▁neschopnost	-11.2438
▁asistent	-11.2438
▁nárůst	-11.2438
▁otevírá	-11.2438
▁atentát	-11.2438
▁jazz	-11.2438
▁public	-11.2438
▁říjnu	-11.2438
▁dovednost	-11.2438
▁květin	-11.2438
▁nezaměstnaných	-11.2438
▁Bratink	-11.2438
▁Mencl	-11.2438
▁splatnosti	-11.2438
▁Mazda	-11.2438
▁vyvinut	-11.2438
zajišťují	-11.2438
▁zastavení	-11.2438
▁vyznačuj	-11.2438
▁podpoře	-11.2438
▁nízká	-11.2438
▁zpomal	-11.2438
▁Polsko	-11.2438
▁Praktick	-11.2438
sazování	-11.2438
▁dokáží	-11.2438
▁mřížk	-11.2438
▁platný	-11.2438
▁splnit	-11.2438
▁diagram	-11.2438
štejn	-11.2438
▁maximum	-11.2438
▁kombinaci	-11.2438
▁jistou	-11.2439
▁zazněl	-11.2439
▁stůl	-11.2439
▁náprav	-11.2439
▁přednášk	-11.2439
▁rozsáhlý	-11.244
▁zvolit	-11.244
▁Andre	-11.244
▁Nabídk	-11.244
▁brzd	-11.244
▁zařadil	-11.244
▁Mimo	-11.244
▁zahrnut	-11.244
▁vyrovnal	-11.2441
▁Charles	-11.2441
▁vrchní	-11.2441
▁trpí	-11.2441
▁délce	-11.2442
▁ligové	-11.2442
▁Zálež	-11.2443
▁Sedm	-11.2444
▁komunikaci	-11.2444
kryje	-11.2444
▁ponechat	-11.2444
▁nejvýše	-11.2445
▁kreslení	-11.2445
▁nastat	-11.2446
▁simul	-11.2446
stávat	-11.2447
jíždí	-11.2447
▁podmíněn	-11.2447
▁nakažen	-11.2448
▁kondom	-11.2449
▁Bonn	-11.245
▁Technick	-11.245
▁otec	-11.2452
oprvé	-11.2452
▁okresů	-11.2452
▁bance	-11.2455
▁interval	-11.2455
▁Následuj	-11.246
▁blesk	-11.2462
chytit	-11.2464
charakterizuj	-11.2472
▁energetické	-11.2474
▁mrav	-11.248
▁Mír	-11.2493
▁trik	-11.2507
▁vzniknou	-11.2542
ower	-11.2563
▁zvěř	-11.2565
▁fotbalov	-11.2567
▁nazýva	-11.2583
▁objeven	-11.2595
ářských	-11.2599
schválila	-11.2604
▁jezdil	-11.2619
▁obecný	-11.2623
▁probíhal	-11.2629
▁zkresl	-11.2634
být	-11.2637
IG	-11.2645
▁valné	-11.2667
kreslen	-11.267
vládne	-11.2689
padesát	-11.2711
▁plic	-11.2713
▁jasný	-11.2727
▁královsk	-11.2735
▁čínské	-11.2736
▁včerejš	-11.2737
▁maďarský	-11.2745
▁vznikající	-11.2749
▁uplynulý	-11.275
▁mís	-11.2766
▁Siln	-11.2769
íčko	-11.2789
▁Dal	-11.2819
stoupení	-11.2821
▁Invest	-11.2829
pomíná	-11.2855
▁doplňk	-11.2863
▁pozdě	-11.2869
prezentuje	-11.2872
▁vydavatel	-11.2872
▁Bratislava	-11.2872
▁Casimir	-11.2872
▁Demokratick	-11.2872
▁Jindřich	-11.2872
▁Tigrid	-11.2872
▁cizince	-11.2872
▁dodržování	-11.2872
▁galerii	-11.2872
▁hlubší	-11.2872
▁hypotéz	-11.2872
▁kompetence	-11.2872
▁konstatuje	-11.2872
▁metropole	-11.2872
▁mikroorganism	-11.2872
▁nejmodernější	-11.2872
▁nejznámější	-11.2872
▁nominální	-11.2872
▁otevřít	-11.2872
▁podpořit	-11.2872
▁požadovat	-11.2872
▁prohlídk	-11.2872
▁představenstva	-11.2872
▁přitažliv	-11.2872
▁reaktor	-11.2872
▁semifinále	-11.2872
▁strategií	-11.2872
▁udržuje	-11.2872
▁vojáci	-11.2872
▁výsledn	-11.2872
▁wimbledonsk	-11.2872
▁zveřejnil	-11.2872
▁zúčastněn	-11.2872
▁šablon	-11.2872
▁Nedvěd	-11.2872
▁Ostatní	-11.2872
▁Počítač	-11.2872
▁charakteristik	-11.2872
▁identifik	-11.2872
▁literární	-11.2872
dostatečnou	-11.2872
▁Africe	-11.2872
▁Majitel	-11.2872
▁NDR	-11.2872
▁básník	-11.2872
▁generací	-11.2872
▁polojasno	-11.2872
▁požadoval	-11.2872
▁složek	-11.2872
▁žadatel	-11.2872
▁byznys	-11.2872
▁Podstatn	-11.2872
▁kodex	-11.2872
▁vyhovuje	-11.2872
▁nátlak	-11.2872
▁stránky	-11.2872
▁strávil	-11.2872
střílel	-11.2872
▁Dříve	-11.2872
▁údolí	-11.2872
▁vystřídal	-11.2872
▁čtvrteční	-11.2873
▁divadle	-11.2873
▁patřičn	-11.2873
▁položky	-11.2873
▁rytíř	-11.2873
▁nevidí	-11.2873
▁nízký	-11.2873
▁Městsk	-11.2873
▁doporučil	-11.2873
▁logické	-11.2873
▁poplatek	-11.2873
▁vyrovnat	-11.2873
▁informovan	-11.2873
▁Jugoslávie	-11.2873
▁počínaj	-11.2873
▁stoupá	-11.2873
▁splnil	-11.2873
▁podobná	-11.2873
chlazení	-11.2873
▁Prodej	-11.2873
▁účinku	-11.2873
▁nejhorší	-11.2873
▁potravinářské	-11.2873
▁Komerčn	-11.2873
▁štáb	-11.2873
povídat	-11.2874
▁Rychl	-11.2874
▁Maďarsku	-11.2874
▁fotografie	-11.2874
▁přijme	-11.2874
▁počkat	-11.2874
▁rakouský	-11.2874
▁zaručen	-11.2875
▁ekonomická	-11.2875
▁ničem	-11.2875
▁korekc	-11.2875
▁Marie	-11.2876
▁nápoj	-11.2876
▁Začal	-11.2877
▁radnici	-11.2877
▁verzí	-11.2878
▁bohatství	-11.2879
▁malíř	-11.2879
▁barva	-11.2879
▁vstupenk	-11.2879
▁neděle	-11.288
▁dozor	-11.2881
▁Ruml	-11.2883
pochyby	-11.2884
▁lodi	-11.2884
▁teple	-11.2884
▁Uveden	-11.2886
▁odhalen	-11.2886
▁vyhnout	-11.2886
▁peset	-11.289
▁jezdit	-11.289
▁divok	-11.289
▁změnám	-11.2891
▁cement	-11.2894
▁obřad	-11.2896
▁řekne	-11.2897
▁odvet	-11.2904
▁zlatý	-11.2907
▁přelom	-11.2914
▁akciov	-11.2919
DOS	-11.292
▁složitý	-11.2922
▁Žid	-11.2923
▁zvaný	-11.2926
▁prožil	-11.2937
následuj	-11.2941
▁krut	-11.2946
stupující	-11.2958
▁energetický	-11.2966
▁skalní	-11.2973
▁Potřebuje	-11.2979
▁rusk	-11.2984
▁Děl	-11.2985
▁symbolick	-11.2985
▁čínský	-11.3015
▁obuv	-11.3036
▁ekologický	-11.3049
▁Vaše	-11.3049
▁optick	-11.305
jmenovaný	-11.3067
▁typický	-11.3073
▁černý	-11.308
který	-11.3082
Severoatlantické	-11.3105
hodinové	-11.3139
přijeli	-11.314
▁návštěvnost	-11.314
▁bojovn	-11.3144
▁průběžn	-11.3171
▁260	-11.3192
ogenní	-11.3206
▁konečn	-11.3222
▁zved	-11.3236
Gar	-11.3253
▁basketbal	-11.3263
hrával	-11.3264
▁stíhán	-11.3275
▁převážn	-11.3293
▁přesahuj	-11.332
▁Fischer	-11.3327
▁Manažer	-11.3327
▁organizáto	-11.3327
FIFA	-11.3327
▁Budějovic	-11.3327
▁Bulharsk	-11.3327
▁Dienstbier	-11.3327
▁Dosavadní	-11.3327
▁Kongres	-11.3327
▁Siemens	-11.3327
▁Skupina	-11.3327
▁Těžko	-11.3327
▁biskup	-11.3327
▁chirurg	-11.3327
▁design	-11.3327
▁družstvo	-11.3327
▁družstvu	-11.3327
▁geometrii	-11.3327
▁inflaci	-11.3327
▁naznačuje	-11.3327
▁neuspěl	-11.3327
▁normálně	-11.3327
▁obličej	-11.3327
▁označován	-11.3327
▁regenerace	-11.3327
▁rekonstrukce	-11.3327
▁rozšiřuje	-11.3327
▁rámečku	-11.3327
▁seznámit	-11.3327
▁skupenství	-11.3327
▁službě	-11.3327
▁strategické	-11.3327
▁transformační	-11.3327
▁zajistí	-11.3327
▁zúčastnit	-11.3327
▁Štědrý	-11.3327
▁1982	-11.3327
▁Návštěv	-11.3327
▁byrokrat	-11.3327
▁čistíren	-11.3327
▁disponuj	-11.3327
▁přiznává	-11.3327
▁výživ	-11.3327
připravoval	-11.3327
▁Poldi	-11.3327
▁dodávek	-11.3327
▁neomezen	-11.3327
▁posuzován	-11.3327
▁shodují	-11.3327
▁stránku	-11.3327
▁Červen	-11.3327
▁velvyslanectví	-11.3327
▁zákrok	-11.3327
▁vstupenek	-11.3327
▁uprchl	-11.3327
▁vládnoucí	-11.3327
▁středisko	-11.3327
▁posléze	-11.3327
▁nabídkou	-11.3327
▁informován	-11.3327
▁Dušan	-11.3327
▁usiluje	-11.3327
▁žádat	-11.3327
▁Armád	-11.3327
▁Náklady	-11.3327
▁uznat	-11.3327
▁konstrukcí	-11.3327
▁skromn	-11.3327
▁vazeb	-11.3327
▁vazba	-11.3327
▁Bavor	-11.3327
▁Manžel	-11.3327
▁udržova	-11.3327
▁zastánc	-11.3327
▁jindy	-11.3327
▁tribunál	-11.3327
▁Varech	-11.3327
▁Otevř	-11.3328
▁salát	-11.3328
▁leckd	-11.3328
▁spoléha	-11.3328
▁hrůz	-11.3328
▁Projekt	-11.3328
▁nabídne	-11.3328
▁přejít	-11.3328
▁náhlé	-11.3329
▁senátní	-11.3329
▁nepotřebuje	-11.3329
▁Slavia	-11.3329
allye	-11.3329
▁zodpovědnost	-11.3329
▁duševní	-11.3329
▁profesi	-11.333
▁směřuje	-11.333
▁rozmístěn	-11.333
▁chuť	-11.333
▁chaos	-11.333
▁Rozhodnutí	-11.333
▁trvající	-11.3331
▁integrace	-11.3331
▁Oprav	-11.3332
▁regulační	-11.3332
hrádk	-11.3332
▁nejsem	-11.3333
▁ohně	-11.3334
▁nesporn	-11.3334
střelen	-11.3335
▁podrobnosti	-11.3336
▁Váš	-11.3336
▁nezákonn	-11.3337
▁Nadace	-11.3337
▁vyspěl	-11.3338
blížení	-11.334
▁turné	-11.3345
▁Závod	-11.3345
▁napaden	-11.3346
▁Milán	-11.3346
▁strop	-11.3353
▁neumí	-11.3354
▁vyhodnocen	-11.3356
▁tmav	-11.3358
▁svatb	-11.3365
Přerov	-11.3372
pořádat	-11.3374
▁Ján	-11.338
▁dotazník	-11.341
▁švédské	-11.3411
zývají	-11.3415
▁pozic	-11.3419
kurzor	-11.3423
▁Clintonov	-11.3423
▁zatčen	-11.3446
▁brněnsk	-11.345
▁Poslanec	-11.3452
příkladu	-11.3455
schopné	-11.3458
▁zvon	-11.3467
▁vystupuj	-11.3472
trhl	-11.3517
například	-11.3548
rovné	-11.3553
▁Fotbalist	-11.3556
▁elektronický	-11.3558
▁Nemoh	-11.3571
▁urychl	-11.358
▁násiln	-11.3581
natý	-11.3588
▁světeln	-11.362
▁získaný	-11.3628
▁podnikatelsk	-11.3674
▁Washington	-11.3678
▁důvěry	-11.3693
▁Označ	-11.37
▁užívá	-11.371
▁nemocnic	-11.3712
▁svěřenc	-11.3725
▁Věr	-11.3741
▁počátk	-11.379
nejvýš	-11.3795
▁Gabčíkov	-11.3803
▁Blízké	-11.3803
▁Ekonomick	-11.3803
▁Kreslení	-11.3803
▁Optima	-11.3803
▁aplikaci	-11.3803
▁důležitou	-11.3803
▁filharmoni	-11.3803
▁kariéru	-11.3803
▁konkurent	-11.3803
▁neexistují	-11.3803
▁nepřítel	-11.3803
▁ovlivnit	-11.3803
▁podmínkám	-11.3803
▁popularit	-11.3803
▁přirozeně	-11.3803
▁referenda	-11.3803
▁vynález	-11.3803
▁vyráběn	-11.3803
▁výpovědi	-11.3803
▁zneužití	-11.3803
▁zázrak	-11.3803
▁Předpokládá	-11.3803
▁kanalizace	-11.3803
▁lehké	-11.3803
▁paralel	-11.3803
▁pomůck	-11.3803
▁předpokládal	-11.3803
▁snižovat	-11.3803
▁svědky	-11.3803
▁ubytovací	-11.3803
▁komunistů	-11.3803
▁setkáváme	-11.3803
▁fosilní	-11.3803
▁Michail	-11.3803
▁kontrakt	-11.3803
▁obrátit	-11.3803
▁stupeň	-11.3803
atlantick	-11.3803
▁etapě	-11.3803
▁přivezl	-11.3803
▁rubrik	-11.3803
zřídka	-11.3803
▁jedinců	-11.3803
▁klobouk	-11.3803
▁československý	-11.3803
▁zvyšují	-11.3803
▁nezmění	-11.3803
▁politicky	-11.3803
▁přídav	-11.3803
▁povahy	-11.3803
▁talent	-11.3803
▁Dynam	-11.3803
▁Atlantiku	-11.3803
imochodem	-11.3803
▁přírodu	-11.3804
▁válku	-11.3804
▁budoucna	-11.3804
▁organick	-11.3804
▁češtině	-11.3804
▁antropologie	-11.3804
▁týče	-11.3804
▁zbaven	-11.3804
▁staletí	-11.3804
▁smečky	-11.3804
hlíží	-11.3804
▁administrativní	-11.3804
▁Karpov	-11.3804
▁zkrátka	-11.3804
▁image	-11.3804
▁výtečn	-11.3804
▁Lendl	-11.3804
▁kombinace	-11.3804
▁chybět	-11.3805
▁Boyle	-11.3805
▁obzor	-11.3805
▁mzda	-11.3805
▁vyšla	-11.3805
průchod	-11.3805
▁rumunsk	-11.3805
▁hokejisté	-11.3805
▁stavět	-11.3805
▁vytížen	-11.3806
▁Zdeňk	-11.3806
▁Španělska	-11.3806
▁arabské	-11.3807
▁kritický	-11.3807
▁distributor	-11.3807
▁Středisk	-11.3807
▁induk	-11.3807
▁ocenil	-11.3808
▁dostupné	-11.3809
▁poražen	-11.3809
▁JAK	-11.3809
▁nálad	-11.3809
▁1980	-11.3809
▁převah	-11.3809
▁jídla	-11.3809
▁nohou	-11.381
▁Říman	-11.381
▁Maďarsko	-11.381
▁Minul	-11.381
▁Intel	-11.3811
▁dívat	-11.3811
▁solidní	-11.3811
▁rozprav	-11.3812
kcionáři	-11.3812
▁prapor	-11.3812
▁psů	-11.3813
▁zabit	-11.3817
▁arabský	-11.3818
▁Říká	-11.3819
bydlí	-11.382
▁Pokus	-11.3821
▁Peck	-11.3821
▁ligový	-11.3821
zkoušet	-11.3822
▁ohni	-11.3826
rovnávací	-11.3827
▁euro	-11.3827
▁oken	-11.3828
▁varování	-11.3829
▁hračk	-11.3829
▁osnov	-11.3829
▁sáze	-11.3832
▁ráj	-11.3834
následoval	-11.3836
▁adresář	-11.3836
ukční	-11.3837
▁Krist	-11.3841
▁nápln	-11.3844
kazil	-11.3845
▁stád	-11.3848
přesněji	-11.3857
zřetelně	-11.3864
▁klíčový	-11.3867
▁genetick	-11.3875
▁podoba	-11.3876
▁Slovák	-11.3879
▁uznávan	-11.3882
▁elektronické	-11.3884
▁zachován	-11.3885
▁vzdal	-11.3887
▁vyprš	-11.389
jadern	-11.3904
▁absolv	-11.3908
▁elektrický	-11.3911
escu	-11.3913
▁totemismu	-11.3952
řejmě	-11.3967
▁kluk	-11.3981
▁italsk	-11.3989
▁krav	-11.4062
UJE	-11.4072
▁Král	-11.4074
▁archeolog	-11.4085
tvrdí	-11.4134
místo	-11.4136
▁převlád	-11.4153
▁týkají	-11.4195
▁japon	-11.4213
▁řešen	-11.4241
▁oddělen	-11.4251
funk	-11.4285
▁zhodnoc	-11.4298
▁španělsk	-11.4299
olicejní	-11.43
▁obdiv	-11.4303
▁uskutečň	-11.4303
▁Doufám	-11.4303
▁Výsledek	-11.4303
▁Wembley	-11.4303
▁anonymní	-11.4303
▁cizinců	-11.4303
▁definovat	-11.4303
▁dvojnásobek	-11.4303
▁evidenci	-11.4303
▁humanitární	-11.4303
▁intenzivně	-11.4303
▁komfort	-11.4303
▁království	-11.4303
▁lhůty	-11.4303
▁nabídnut	-11.4303
▁neúspěch	-11.4303
▁otázkách	-11.4303
▁ošetření	-11.4303
▁podruhé	-11.4303
▁pohotovost	-11.4303
▁počáteční	-11.4303
▁převzetí	-11.4303
▁připomenout	-11.4303
▁revoluce	-11.4303
▁srozumiteln	-11.4303
▁strategický	-11.4303
▁tvůrčí	-11.4303
▁týdnu	-11.4303
▁uhličitého	-11.4303
▁upozorňují	-11.4303
▁veřejnou	-11.4303
▁zdravotně	-11.4303
▁zvyšovat	-11.4303
▁zážitek	-11.4303
peptid	-11.4303
▁Boleslav	-11.4303
▁HGF	-11.4303
▁PŘED	-11.4303
▁dětmi	-11.4303
▁kriminál	-11.4303
▁užitečné	-11.4303
▁výrobku	-11.4303
▁zajistil	-11.4303
▁řekněme	-11.4303
neštěstí	-11.4303
▁Výjimk	-11.4303
▁Zdravotn	-11.4303
▁projednávání	-11.4303
▁zloděj	-11.4303
▁Poborského	-11.4303
▁ostravské	-11.4303
▁sankce	-11.4303
▁sportovci	-11.4303
▁Havlov	-11.4303
▁LDS	-11.4303
▁Strakoni	-11.4303
▁série	-11.4303
▁Nobelov	-11.4303
▁umístit	-11.4303
▁skener	-11.4303
▁souprav	-11.4303
▁mobilní	-11.4303
▁pátý	-11.4303
▁srpnu	-11.4303
▁Mostaru	-11.4303
▁opačný	-11.4303
▁krystal	-11.4303
▁sleduje	-11.4303
pomáhal	-11.4303
▁MHz	-11.4303
▁odevzda	-11.4303
▁centrem	-11.4303
▁potravy	-11.4303
▁chemie	-11.4303
▁zhoubn	-11.4303
▁komisí	-11.4303
▁kompost	-11.4303
▁stěžují	-11.4303
▁nepatří	-11.4303
▁Komora	-11.4303
▁Názor	-11.4303
▁pozemků	-11.4303
▁rozvinut	-11.4303
▁stačit	-11.4303
▁minimum	-11.4303
▁národnostní	-11.4303
▁letišti	-11.4304
▁sehnat	-11.4304
skočit	-11.4304
▁konzervativní	-11.4304
▁Počítá	-11.4304
▁Prahu	-11.4304
▁veličin	-11.4304
záhad	-11.4304
▁Ústí	-11.4304
▁Filip	-11.4304
▁popsán	-11.4304
▁promítá	-11.4304
▁shluk	-11.4304
▁obránce	-11.4304
▁Úprav	-11.4304
▁kostým	-11.4304
▁turisté	-11.4304
▁modernizaci	-11.4304
▁vyhověl	-11.4304
▁obnovit	-11.4304
▁proběhla	-11.4304
▁nebrání	-11.4304
▁román	-11.4305
▁remíz	-11.4305
▁vykonávat	-11.4306
▁karet	-11.4306
vážet	-11.4306
▁emise	-11.4307
▁azyl	-11.4307
▁pilot	-11.4307
▁podobnost	-11.4307
▁diskusí	-11.4307
▁moudr	-11.4308
▁chrání	-11.4309
▁podoby	-11.4309
▁cítit	-11.4309
▁zaslal	-11.4311
▁realizaci	-11.4311
▁videa	-11.4312
▁dovoluje	-11.4312
rozuměj	-11.4314
▁Klepn	-11.4315
▁vylepš	-11.4315
▁dárk	-11.4315
▁bát	-11.4322
▁formulář	-11.4328
určují	-11.4329
▁útočn	-11.433
▁dovolí	-11.4331
rychlostní	-11.4332
▁Bosn	-11.4335
▁prosím	-11.4341
▁Masarykov	-11.4342
▁Seznam	-11.4355
▁kolekc	-11.4357
▁registrac	-11.4372
▁pták	-11.4374
0.000	-11.4382
▁vzpomín	-11.4384
důrazně	-11.4391
pouštět	-11.4396
▁Večer	-11.4452
▁diplomatické	-11.4462
▁věčn	-11.4468
▁Chorvat	-11.4471
bírat	-11.4487
cestovat	-11.4518
▁izraelský	-11.4528
▁samotn	-11.4531
▁klinick	-11.4533
▁Turist	-11.46
tvořily	-11.4672
▁zemědělsk	-11.4674
▁šampionát	-11.4705
ohledně	-11.4707
▁spolupracovník	-11.4752
▁veřejný	-11.4756
▁automobilový	-11.4784
svit	-11.4796
▁povolen	-11.48
▁výpočet	-11.48
▁Maďar	-11.4819
▁Weizs	-11.4829
sekretariát	-11.4829
zrcadl	-11.4829
▁Dvořák	-11.4829
▁Lubomír	-11.4829
▁Maastrichtu	-11.4829
▁Sarajev	-11.4829
▁Schneider	-11.4829
▁bratislavsk	-11.4829
▁cizinci	-11.4829
▁deklarace	-11.4829
▁evoluční	-11.4829
▁institut	-11.4829
▁kancléř	-11.4829
▁kmitočt	-11.4829
▁kytarist	-11.4829
▁lékáren	-11.4829
▁medailí	-11.4829
▁ministerstev	-11.4829
▁nemožné	-11.4829
▁opozici	-11.4829
▁oživení	-11.4829
▁portfoli	-11.4829
▁posouzení	-11.4829
▁přeháňky	-11.4829
▁redakci	-11.4829
▁restituční	-11.4829
▁skript	-11.4829
▁struktuře	-11.4829
▁tabulátor	-11.4829
▁tisíciletí	-11.4829
▁univerzáln	-11.4829
▁uspokojení	-11.4829
▁uzávěr	-11.4829
▁vyloučit	-11.4829
▁vyrábějí	-11.4829
▁zúčastní	-11.4829
▁Bayern	-11.4829
▁Benešov	-11.4829
▁Vinohrad	-11.4829
▁archív	-11.4829
▁cizině	-11.4829
▁informovat	-11.4829
▁komunisté	-11.4829
▁minerální	-11.4829
▁nečekaně	-11.4829
▁oslaben	-11.4829
▁spánku	-11.4829
▁tiskárna	-11.4829
▁Antonín	-11.4829
▁Jednotliv	-11.4829
▁Náměst	-11.4829
▁altruist	-11.4829
▁nejsilnější	-11.4829
▁nevznik	-11.4829
▁ohlášen	-11.4829
▁princezn	-11.4829
▁výkyvy	-11.4829
▁zlepšit	-11.4829
▁přidružen	-11.4829
▁stadia	-11.4829
▁svatební	-11.4829
▁zlepšil	-11.4829
▁krádež	-11.483
instalovat	-11.483
▁stoupenc	-11.483
šetřil	-11.483
▁Libanon	-11.483
▁lístky	-11.483
▁Mazdy	-11.483
▁nahrazen	-11.483
▁družic	-11.483
▁řemesl	-11.483
▁letadlo	-11.483
▁zasvěcen	-11.483
▁preventivn	-11.483
▁válkou	-11.483
▁porušil	-11.483
▁licence	-11.483
▁ohrom	-11.483
▁slalom	-11.483
▁Něco	-11.483
▁jídlo	-11.483
▁neuvažuj	-11.483
▁ovládat	-11.483
▁ČSAV	-11.483
hlédl	-11.483
▁čáry	-11.483
▁kádru	-11.483
▁vydělat	-11.483
▁doplnit	-11.483
▁zahájí	-11.483
rozhodoval	-11.483
▁Polsku	-11.483
▁jedinečn	-11.483
▁odškodnění	-11.483
▁penalt	-11.483
▁pozemky	-11.483
▁dealer	-11.483
▁jedinci	-11.483
▁Odhad	-11.483
▁využije	-11.483
▁užívat	-11.483
▁potrvá	-11.483
▁účinný	-11.483
▁veliká	-11.4831
▁umístil	-11.4831
▁USD	-11.4831
▁nestalo	-11.4831
šňů	-11.4831
▁kůži	-11.4831
▁hlášen	-11.4831
▁nebudu	-11.4831
pálil	-11.4831
▁žánr	-11.4831
▁městečk	-11.4832
ografii	-11.4832
▁nemění	-11.4832
▁dopředu	-11.4832
▁setkat	-11.4832
▁uklid	-11.4832
▁Hlas	-11.4832
▁odvozen	-11.4833
▁Holub	-11.4833
▁hornin	-11.4833
▁vracejí	-11.4833
▁dřevěný	-11.4833
▁přečte	-11.4834
▁restaurací	-11.4834
▁návštěvníci	-11.4835
▁otřes	-11.4835
▁koncentrací	-11.4836
▁chybějící	-11.4836
▁východisk	-11.4836
dražil	-11.4836
▁zlata	-11.4838
▁dešťov	-11.4838
▁ruchu	-11.4838
▁masa	-11.4838
přát	-11.4839
▁Juli	-11.484
▁Nesmí	-11.4842
▁zakončen	-11.4843
▁odstín	-11.4846
▁záložník	-11.4847
▁převeden	-11.4851
projevilo	-11.4853
▁přenesen	-11.4855
▁letoun	-11.4873
▁oceňuj	-11.489
▁právnick	-11.4908
▁počítají	-11.4961
▁integrovan	-11.4968
strašně	-11.4977
▁Hodn	-11.499
▁bezpečně	-11.5006
▁smrteln	-11.5067
▁uskutečnil	-11.5078
ždyť	-11.509
▁Severoatlantick	-11.5093
▁jeskyn	-11.5119
▁kvalitativn	-11.5132
▁Světov	-11.5133
▁všeobecn	-11.5221
▁Potřeb	-11.525
▁oblačno	-11.5319
edmdesát	-11.5324
▁Obsah	-11.533
▁věnuj	-11.5333
▁Masaryk	-11.5342
▁umožňují	-11.5342
jišťuje	-11.5351
▁magi	-11.5357
print	-11.5358
ografické	-11.5384
populárnější	-11.5385
▁Bezpečnost	-11.5385
▁Bierhoff	-11.5385
▁Evropou	-11.5385
▁Jupiter	-11.5385
▁Karadžic	-11.5385
▁Letošní	-11.5385
▁Litvínov	-11.5385
▁Naštěstí	-11.5385
▁Obyvatel	-11.5385
▁Olszewsk	-11.5385
▁Sněmovn	-11.5385
▁Softwar	-11.5385
▁burzy	-11.5385
▁celosvětov	-11.5385
▁charitativní	-11.5385
▁chorvatský	-11.5385
▁dirigent	-11.5385
▁energií	-11.5385
▁kandidovat	-11.5385
▁krátkodobé	-11.5385
▁laboratorní	-11.5385
▁leccos	-11.5385
▁londýn	-11.5385
▁nahrávk	-11.5385
▁neexistoval	-11.5385
▁nešťastn	-11.5385
▁následovat	-11.5385
▁opozicí	-11.5385
▁ovlivnil	-11.5385
▁premiéře	-11.5385
▁prezervativ	-11.5385
▁prokuratur	-11.5385
▁překážky	-11.5385
▁restitucí	-11.5385
▁stability	-11.5385
▁televizor	-11.5385
▁viceprezident	-11.5385
▁vzdělávání	-11.5385
▁zdůvodnil	-11.5385
▁závislá	-11.5385
▁Úspěšn	-11.5385
▁úspěšnost	-11.5385
Standard	-11.5385
ejzajímavější	-11.5385
▁Jackson	-11.5385
▁Křesťan	-11.5385
▁Soutěž	-11.5385
▁Stehlík	-11.5385
▁arcibiskup	-11.5385
▁incident	-11.5385
▁poskytne	-11.5385
▁preferenc	-11.5385
▁seriózní	-11.5385
▁sudetský	-11.5385
▁totalitní	-11.5385
▁vyměnil	-11.5385
▁zakázán	-11.5385
▁získají	-11.5385
▁Čtvrt	-11.5385
▁Kopřiv	-11.5385
▁Madrid	-11.5385
▁dostatečné	-11.5385
▁imunitní	-11.5385
▁kontext	-11.5385
▁odlišné	-11.5385
▁ozónu	-11.5385
▁podotkl	-11.5385
▁socialismu	-11.5385
▁tendenci	-11.5385
▁učebnic	-11.5385
▁výkres	-11.5385
▁výslovně	-11.5385
škráb	-11.5385
▁Město	-11.5385
▁Ukrajina	-11.5385
▁Podívej	-11.5385
▁záleže	-11.5385
▁Atleti	-11.5385
▁výrobou	-11.5385
▁zachránil	-11.5385
▁Moderní	-11.5385
▁Pražan	-11.5385
▁mrtvé	-11.5385
▁těžší	-11.5385
▁kapitul	-11.5385
▁porušování	-11.5385
▁herečka	-11.5385
▁náleží	-11.5385
▁znamení	-11.5385
▁abeced	-11.5385
▁Island	-11.5385
▁Mandler	-11.5385
▁filtr	-11.5385
▁laserov	-11.5385
▁vyžádá	-11.5385
▁zemědělci	-11.5385
burgu	-11.5385
▁MIDI	-11.5385
▁profese	-11.5385
tlačit	-11.5385
▁Dukly	-11.5385
▁chápán	-11.5385
▁živnostenský	-11.5385
▁zapsán	-11.5385
▁položku	-11.5385
▁naučit	-11.5385
▁nutná	-11.5385
▁ČSAD	-11.5385
▁Obvodní	-11.5385
▁hrozil	-11.5385
▁příroda	-11.5385
▁druzí	-11.5385
▁obvinil	-11.5386
▁Vojenské	-11.5386
▁Dlouho	-11.5386
▁zajímal	-11.5386
▁převažuj	-11.5386
▁necelé	-11.5386
▁stěží	-11.5386
▁Hapal	-11.5386
▁výlučn	-11.5386
▁rozumět	-11.5386
▁Maďarska	-11.5386
▁uplatňova	-11.5386
▁kubismu	-11.5387
▁mýtu	-11.5387
▁Akci	-11.5387
▁vystupoval	-11.5387
▁frakc	-11.5388
▁zvrat	-11.5388
sudek	-11.5388
ampión	-11.5388
▁utajen	-11.5389
▁přečetl	-11.5389
▁vyjít	-11.5389
členný	-11.5389
▁poctiv	-11.539
▁proměnliv	-11.539
▁kresb	-11.5393
▁úměrn	-11.5395
▁ČESK	-11.5396
▁cítil	-11.5396
háněl	-11.5401
píší	-11.5401
nechávají	-11.5405
▁důstojník	-11.5406
▁přidělen	-11.5407
▁pojistn	-11.5408
▁Politick	-11.5409
▁utekl	-11.5415
ČSSD	-11.5416
▁chápe	-11.5416
▁trůn	-11.5422
▁dostupný	-11.5423
poškozené	-11.5427
především	-11.5428
systém	-11.5428
▁Prag	-11.5428
ůstek	-11.5432
▁zanikl	-11.5435
▁mistrovsk	-11.544
účtování	-11.5454
▁předsednictv	-11.5458
▁zadržen	-11.547
▁pětadvacet	-11.5476
▁částečn	-11.5492
▁nezískal	-11.5543
▁momentáln	-11.5555
▁nálož	-11.5596
▁lacin	-11.5599
▁Občansk	-11.5625
▁ověřen	-11.563
archeologi	-11.5634
▁hlás	-11.5659
▁trojic	-11.5672
bytová	-11.571
pracování	-11.5778
způsobují	-11.5779
elektrick	-11.5784
▁Švýcar	-11.5854
vědčí	-11.5865
ázev	-11.5866
▁tečk	-11.5875
▁dávn	-11.589
vezm	-11.5896
▁potvrzen	-11.5912
▁začínal	-11.5926
▁vesnic	-11.5928
▁rostl	-11.5948
▁restaur	-11.5962
vyjádřen	-11.5963
německou	-11.5964
nešní	-11.5971
▁Jugosláv	-11.5972
svobozen	-11.5973
egyptsk	-11.5973
▁Běloruska	-11.5973
▁Jihoafrick	-11.5973
▁Manchester	-11.5973
▁Niederl	-11.5973
▁Pentium	-11.5973
▁Polskem	-11.5973
▁Poštovní	-11.5973
▁Pravděpodobn	-11.5973
▁Rozhovor	-11.5973
▁Svorada	-11.5973
▁Významn	-11.5973
▁asteroid	-11.5973
▁displej	-11.5973
▁doprovázen	-11.5973
▁gramotnost	-11.5973
▁konfiguraci	-11.5973
▁kooperac	-11.5973
▁mechanismy	-11.5973
▁ministerstvem	-11.5973
▁mrtvých	-11.5973
▁nejlevnější	-11.5973
▁nejvhodnější	-11.5973
▁nepřijatelné	-11.5973
▁nesprávn	-11.5973
▁organismů	-11.5973
▁oteplení	-11.5973
▁ovlivňova	-11.5973
▁podmínkami	-11.5973
▁pohromadě	-11.5973
▁potvrdit	-11.5973
▁pracovišti	-11.5973
▁prohlašuje	-11.5973
▁protagonist	-11.5973
▁sluchátka	-11.5973
▁spolupracují	-11.5973
▁stabilitu	-11.5973
▁strojírenství	-11.5973
▁svědků	-11.5973
▁ubytovn	-11.5973
▁uskutečněn	-11.5973
▁vyjadřova	-11.5973
▁vyvrchol	-11.5973
▁výhrady	-11.5973
▁výsledcích	-11.5973
▁zachránit	-11.5973
▁zaměstnává	-11.5973
▁zvláštnost	-11.5973
▁zvýhodněn	-11.5973
▁závazek	-11.5973
▁závislé	-11.5973
▁švýcarské	-11.5973
doporučují	-11.5973
▁1981	-11.5973
▁Eduard	-11.5973
▁Hrdličk	-11.5973
▁Městě	-11.5973
▁Pořadatel	-11.5973
▁ekvivalent	-11.5973
▁generaci	-11.5973
▁hřbitov	-11.5973
▁instance	-11.5973
▁kampaň	-11.5973
▁lidstva	-11.5973
▁mužstvu	-11.5973
▁označují	-11.5973
▁rozvržení	-11.5973
▁vyjednávání	-11.5973
▁vzdělávací	-11.5973
▁zastávk	-11.5973
▁zbraň	-11.5973
▁Kepler	-11.5973
▁Uvažuje	-11.5973
▁Vědci	-11.5973
▁inzerát	-11.5973
▁odehrál	-11.5973
▁redukci	-11.5973
▁složku	-11.5973
▁bázi	-11.5973
▁meteorolog	-11.5973
▁Thomas	-11.5973
▁prokázán	-11.5973
přihlášk	-11.5973
▁kliniky	-11.5973
▁profesí	-11.5973
▁pátrá	-11.5973
▁Balkán	-11.5973
▁komentoval	-11.5973
▁očekávají	-11.5973
▁sazby	-11.5973
▁uplatnil	-11.5973
▁Výběr	-11.5973
▁kosmický	-11.5973
▁obtíže	-11.5973
▁Právní	-11.5973
▁pouštní	-11.5973
▁kontrast	-11.5973
▁vazbě	-11.5973
▁čistírn	-11.5973
▁překonat	-11.5973
omputer	-11.5973
▁jedinec	-11.5973
▁podléha	-11.5973
▁poplatků	-11.5973
▁Baker	-11.5973
▁hmyz	-11.5973
▁sérii	-11.5973
▁SNR	-11.5973
▁dráhu	-11.5973
▁vyřešil	-11.5973
opakovaně	-11.5973
▁ojediněle	-11.5973
režie	-11.5973
▁přijímat	-11.5973
▁odvahu	-11.5973
▁prvotní	-11.5974
▁přehrad	-11.5974
▁zahrnují	-11.5974
▁neviděl	-11.5974
▁otravy	-11.5974
▁doplnil	-11.5974
▁Gross	-11.5974
▁Smith	-11.5974
▁kolaps	-11.5974
▁povahu	-11.5974
▁Reuter	-11.5974
KDS	-11.5974
▁partie	-11.5974
▁absenc	-11.5974
hlížel	-11.5974
▁2:1	-11.5974
▁nadějn	-11.5974
▁sladk	-11.5974
▁jarní	-11.5974
▁postačí	-11.5974
▁kombinací	-11.5974
▁cvičení	-11.5974
▁obezit	-11.5974
▁etapy	-11.5974
hlédnutí	-11.5975
▁patent	-11.5975
▁smečka	-11.5975
▁vpravo	-11.5975
▁Radovan	-11.5975
▁počty	-11.5975
▁liberalizac	-11.5975
pravdě	-11.5975
▁Vilém	-11.5975
▁Kučer	-11.5975
▁ohlas	-11.5975
obdržela	-11.5975
▁afér	-11.5975
▁dimenz	-11.5976
▁filozofii	-11.5976
▁konverz	-11.5976
▁Kvalit	-11.5977
▁zaměřuje	-11.5977
ohrozil	-11.5977
▁lůžk	-11.5977
▁Krás	-11.5977
▁děkan	-11.5978
běhne	-11.5978
▁dvor	-11.5978
▁zmenšen	-11.5978
▁Hráč	-11.598
ředstavitelé	-11.5983
▁nadměrn	-11.5986
▁předloh	-11.5992
▁tureck	-11.5992
▁retro	-11.5993
▁usilují	-11.5993
▁vzkaz	-11.5995
▁vynesl	-11.5995
▁jakéhokoli	-11.5997
▁salon	-11.5998
▁vyzván	-11.5998
eportáž	-11.6
▁protivník	-11.6005
▁udělen	-11.6007
▁mohutn	-11.6013
▁vyplni	-11.6016
▁ideologick	-11.6026
▁vyznačen	-11.6028
čínsk	-11.6039
▁zkrac	-11.6056
▁Palác	-11.6065
▁myln	-11.607
▁odluk	-11.6109
kromě	-11.6128
program	-11.6153
▁stabiliz	-11.6173
▁maxim	-11.6194
▁muslimsk	-11.6207
▁anglick	-11.6227
svědčuje	-11.6233
významn	-11.6242
▁dvaadvacet	-11.6248
▁bosen	-11.6275
▁Karlový	-11.6284
▁hrozn	-11.6404
▁splněn	-11.6457
▁ústřed	-11.6503
▁rozlož	-11.6509
▁Jih	-11.652
▁ovládá	-11.6539
▁ukončen	-11.6541
smdesát	-11.6553
▁algoritm	-11.658
podivu	-11.6593
Cagiva	-11.6598
▁Barcelony	-11.6598
▁Dudajev	-11.6598
▁Honecker	-11.6598
▁Konkrétn	-11.6598
▁Liverpool	-11.6598
▁Lobkowicz	-11.6598
▁Myslíte	-11.6598
▁Schumacher	-11.6598
▁Stráský	-11.6598
▁angličtiny	-11.6598
▁atribut	-11.6598
▁cizinec	-11.6598
▁dosaženo	-11.6598
▁dětství	-11.6598
▁efektivnosti	-11.6598
▁epidemie	-11.6598
▁eventuáln	-11.6598
▁exhibic	-11.6598
▁expanz	-11.6598
▁hollywoodsk	-11.6598
▁intenzivní	-11.6598
▁jménu	-11.6598
▁kinematografie	-11.6598
▁komplikace	-11.6598
▁konkurs	-11.6598
▁kriminalist	-11.6598
▁kritizoval	-11.6598
▁lhůtě	-11.6598
▁metabolick	-11.6598
▁mláďat	-11.6598
▁nabízel	-11.6598
▁nabízet	-11.6598
▁nejmladší	-11.6598
▁nelíbí	-11.6598
▁nesmějí	-11.6598
▁notebook	-11.6598
▁ohrozit	-11.6598
▁pohledávky	-11.6598
▁pozůstatk	-11.6598
▁pronájmu	-11.6598
▁pódiu	-11.6598
▁rozšiřování	-11.6598
▁skrývá	-11.6598
▁spekulace	-11.6598
▁spekulací	-11.6598
▁svědectví	-11.6598
▁tlačítek	-11.6598
▁vyčleněn	-11.6598
▁vztazích	-11.6598
▁výdělečn	-11.6598
▁zdůrazňuje	-11.6598
▁ÚSES	-11.6598
▁úředníci	-11.6598
▁Čarnogursk	-11.6598
▁Frankfurt	-11.6598
▁Luboš	-11.6598
▁Moskvy	-11.6598
▁Měsíc	-11.6598
▁Větší	-11.6598
▁databázový	-11.6598
▁evoluce	-11.6598
▁extremist	-11.6598
▁fundamentalist	-11.6598
▁poloostrov	-11.6598
▁polštář	-11.6598
▁počínání	-11.6598
▁redakční	-11.6598
▁separatist	-11.6598
▁seznámil	-11.6598
▁trápí	-11.6598
▁znepokojen	-11.6598
▁ČSTK	-11.6598
▁Harrachov	-11.6598
▁TNF	-11.6598
▁omezování	-11.6598
▁profesní	-11.6598
▁předpokládají	-11.6598
▁švýcarský	-11.6598
generační	-11.6598
▁Apple	-11.6598
▁bydliště	-11.6598
▁hnízd	-11.6598
▁levněji	-11.6598
▁nacházel	-11.6598
kontaminac	-11.6598
▁Budinský	-11.6598
▁Opět	-11.6598
▁nazývá	-11.6598
▁stadion	-11.6598
▁lůžek	-11.6598
▁ropovod	-11.6598
▁bezespor	-11.6598
▁ilustrac	-11.6598
▁HDP	-11.6598
▁plynáren	-11.6598
Oscar	-11.6598
▁Vánoční	-11.6598
▁prodavač	-11.6598
▁rozmnož	-11.6598
▁poskytovan	-11.6598
▁učební	-11.6598
▁Haagu	-11.6598
▁matematické	-11.6598
▁nerozumí	-11.6598
▁vyhrazen	-11.6598
▁kosmické	-11.6598
▁výzvu	-11.6598
▁mrtvol	-11.6598
▁šlecht	-11.6598
kompenz	-11.6598
▁terminologi	-11.6598
▁přiznat	-11.6598
KDH	-11.6598
▁Vánoce	-11.6598
▁skandál	-11.6598
▁nekončí	-11.6598
▁belgick	-11.6599
▁minulou	-11.6599
▁sdružuj	-11.6599
▁demisi	-11.6599
▁nazvaný	-11.6599
▁pojmy	-11.6599
▁pronajat	-11.6599
▁převyšuj	-11.6599
▁odlišuj	-11.6599
▁recenze	-11.6599
▁spektrum	-11.6599
▁Easy	-11.6599
▁praxí	-11.6599
▁mezisklad	-11.6599
▁plakát	-11.6599
▁pokouší	-11.6599
▁Kyjev	-11.6599
▁nevadí	-11.6599
▁pryč	-11.6599
▁uváděl	-11.6599
▁trojnásobn	-11.6599
▁koupě	-11.6599
šplha	-11.6599
týkat	-11.6599
▁stereo	-11.6599
▁napodob	-11.6599
▁mutace	-11.6599
major	-11.6599
▁vyplacen	-11.6599
▁žádal	-11.6599
▁zastupování	-11.66
▁Neznám	-11.66
▁snižují	-11.66
▁PŘI	-11.66
▁veterán	-11.66
týkal	-11.66
▁usiloval	-11.66
▁něčím	-11.66
kročit	-11.66
▁bydlet	-11.66
▁levicov	-11.66
▁vyvážen	-11.66
▁pohlaví	-11.6601
▁inkas	-11.6601
2:0	-11.6601
▁Vodičk	-11.6601
▁teplé	-11.6602
▁rovnost	-11.6602
▁Group	-11.6602
▁vyrůst	-11.6604
▁vyrobil	-11.6604
▁průhledn	-11.6604
▁vápenc	-11.6604
▁pyšn	-11.6605
▁vzrost	-11.6607
▁složitost	-11.6607
▁Olg	-11.6608
▁Thun	-11.6609
▁stolní	-11.6609
▁běžc	-11.661
jistá	-11.6617
▁ustaven	-11.6617
▁geografick	-11.6618
▁teplý	-11.6621
bajt	-11.6623
uskutečnila	-11.6629
kontinentální	-11.6629
Finsko	-11.6629
▁selekčn	-11.6631
▁předešl	-11.6633
▁Brněnsk	-11.6635
▁hluk	-11.6641
▁koordinac	-11.6653
▁Polák	-11.6655
rozuměl	-11.6667
pracovala	-11.6673
bílých	-11.6708
▁konstatova	-11.683
▁zlikvidov	-11.6841
1992	-11.6908
vládní	-11.6911
▁Švéd	-11.6951
▁neobyčejn	-11.6973
▁William	-11.6982
▁nepřinesl	-11.6989
sunut	-11.7005
▁Obchod	-11.7029
▁přírodovědeck	-11.711
▁poruše	-11.7132
▁závislost	-11.7173
▁Začátk	-11.7178
▁etnick	-11.7189
▁Způsob	-11.7215
▁dvacát	-11.7231
▁penzi	-11.724
chybějí	-11.7258
▁KSČ	-11.7262
obyčejně	-11.7262
JPEG	-11.7265
sloučenin	-11.7265
▁Austrálie	-11.7265
▁Domnívám	-11.7265
▁FBIS	-11.7265
▁Hamburk	-11.7265
▁Oldřich	-11.7265
▁Pivovar	-11.7265
▁Saúdsk	-11.7265
▁Vešker	-11.7265
▁Vídeň	-11.7265
▁WWW	-11.7265
▁bankovnictví	-11.7265
▁deklaraci	-11.7265
▁důležitější	-11.7265
▁elementární	-11.7265
▁federaci	-11.7265
▁firmách	-11.7265
▁fungování	-11.7265
▁hardwarov	-11.7265
▁infarkt	-11.7265
▁komentátor	-11.7265
▁konfigurace	-11.7265
▁konkurovat	-11.7265
▁krasobruslař	-11.7265
▁literatuře	-11.7265
▁makléř	-11.7265
▁marketingu	-11.7265
▁mediální	-11.7265
▁nacionalism	-11.7265
▁nominaci	-11.7265
▁novotvary	-11.7265
▁nukleární	-11.7265
▁odpovědět	-11.7265
▁pneumatik	-11.7265
▁pojišťovnou	-11.7265
▁poptávku	-11.7265
▁problematice	-11.7265
▁pseudo	-11.7265
▁předpovědi	-11.7265
▁předvánoční	-11.7265
▁přerozdělování	-11.7265
▁racionální	-11.7265
▁referát	-11.7265
▁rekreaci	-11.7265
▁rozsáhlejší	-11.7265
▁rozvíjejí	-11.7265
▁rubrice	-11.7265
▁symplektick	-11.7265
▁taxonomie	-11.7265
▁trénovat	-11.7265
▁vypráví	-11.7265
▁vyžadovat	-11.7265
▁východoevropský	-11.7265
▁zapomenout	-11.7265
▁zavražděn	-11.7265
▁zodpovězen	-11.7265
▁zákulisí	-11.7265
▁úložiště	-11.7265
▁Četrans	-11.7265
▁červnov	-11.7265
hlídce	-11.7265
▁Harvard	-11.7265
▁Informace	-11.7265
▁Ludvík	-11.7265
▁Mitterrand	-11.7265
▁definice	-11.7265
▁jednodušší	-11.7265
▁kosmonaut	-11.7265
▁nenávist	-11.7265
▁rozčleněn	-11.7265
▁seskupení	-11.7265
▁stěžovat	-11.7265
▁tolerance	-11.7265
▁zaručit	-11.7265
▁1983	-11.7265
▁Pistol	-11.7265
▁Stráž	-11.7265
▁kvót	-11.7265
▁médií	-11.7265
▁praktik	-11.7265
▁prozradil	-11.7265
▁přihlášen	-11.7265
▁rozvíjet	-11.7265
▁tiskáren	-11.7265
▁vláken	-11.7265
▁Maďarskem	-11.7265
▁domorodc	-11.7265
▁palubě	-11.7265
▁špatnou	-11.7265
▁1976	-11.7265
▁Návrat	-11.7265
▁funkčnost	-11.7265
▁interiér	-11.7265
▁osaměl	-11.7265
▁procedur	-11.7265
▁plošný	-11.7265
▁povolební	-11.7265
▁rozsudk	-11.7265
▁tendence	-11.7265
▁kampaně	-11.7265
▁populaci	-11.7265
▁infikova	-11.7265
▁milimetr	-11.7265
▁otazník	-11.7265
▁zjišťova	-11.7265
▁analytick	-11.7265
▁cementárn	-11.7265
▁archiv	-11.7265
▁pozměň	-11.7265
▁Právo	-11.7265
▁odvezl	-11.7265
▁neškodn	-11.7265
▁Kladně	-11.7265
▁Veřejn	-11.7265
▁mikrofon	-11.7265
▁účinků	-11.7265
▁uvítal	-11.7265
▁vzbudil	-11.7265
▁fází	-11.7265
▁vyslovit	-11.7265
▁stráví	-11.7265
znamenají	-11.7265
▁reagují	-11.7265
▁Francií	-11.7265
▁hospodaří	-11.7265
▁placentál	-11.7265
▁nabídek	-11.7265
▁Ctrl	-11.7265
▁vrstva	-11.7265
▁ujistil	-11.7265
▁domníval	-11.7265
přízeň	-11.7265
▁finalist	-11.7265
▁komunit	-11.7265
▁Irák	-11.7265
▁amatér	-11.7265
▁účinné	-11.7265
▁Michel	-11.7265
▁biochemi	-11.7265
▁podobnou	-11.7265
▁Kurzy	-11.7265
▁zastupuje	-11.7266
▁vybojoval	-11.7266
▁naplněn	-11.7266
▁povstal	-11.7266
▁chaotick	-11.7266
▁ustavující	-11.7266
▁dřevěné	-11.7266
▁Marián	-11.7266
▁osazen	-11.7266
▁zánět	-11.7266
▁přehnan	-11.7266
▁pól	-11.7266
▁ovládací	-11.7266
▁Prokop	-11.7266
▁aridní	-11.7267
▁plastik	-11.7267
▁směřující	-11.7267
▁tragick	-11.7267
▁vystavuje	-11.7267
▁přípustn	-11.7267
▁fixac	-11.7267
▁brazilsk	-11.7268
▁střídají	-11.7268
▁narkom	-11.7268
zkoumat	-11.7268
▁uplatňován	-11.7268
▁oboustrann	-11.7268
▁jednostrann	-11.7269
▁Uhersk	-11.727
▁architektonick	-11.727
▁Cítí	-11.7271
▁holub	-11.7271
▁zabránil	-11.7271
▁Fakt	-11.7271
▁rockov	-11.7272
▁nepřesnost	-11.7274
▁zničil	-11.7274
▁Značn	-11.7274
▁obstará	-11.7275
▁šipk	-11.7281
dražit	-11.7288
▁Aktiv	-11.7288
▁Hleda	-11.7297
▁uheln	-11.7306
▁příznačn	-11.7328
symetri	-11.7359
▁zelený	-11.7366
▁předsedkyn	-11.7425
▁zoologick	-11.7435
magnetické	-11.7438
▁protějš	-11.744
▁filmař	-11.7487
▁definovan	-11.7626
▁citeln	-11.7701
kontroluje	-11.7708
1991	-11.774
▁vrácen	-11.7742
ometrick	-11.7754
▁strašn	-11.7782
přineslo	-11.7859
panuje	-11.7919
gramů	-11.7923
▁překonal	-11.7925
▁velvyslanec	-11.7979
▁Delphi	-11.7979
▁bulharsk	-11.7979
▁diktátor	-11.7979
▁holding	-11.7979
▁ofsajd	-11.7979
▁olomoucké	-11.7979
▁paměť	-11.7979
▁paradigma	-11.7979
▁pojišťovně	-11.7979
▁prospěšn	-11.7979
▁raketoplán	-11.7979
▁zajišťoval	-11.7979
▁zázračn	-11.7979
LSNS	-11.7979
extrémně	-11.7979
ýpovědní	-11.7979
▁Akademie	-11.7979
▁Albertville	-11.7979
▁Bohuslav	-11.7979
▁Bratislavy	-11.7979
▁Digital	-11.7979
▁General	-11.7979
▁Hospodářsk	-11.7979
▁Kuvajt	-11.7979
▁Muslim	-11.7979
▁Místopředsed	-11.7979
▁Netanjahu	-11.7979
▁Princip	-11.7979
▁Pálffy	-11.7979
▁SPIRIT	-11.7979
▁TWA	-11.7979
▁bezmocn	-11.7979
▁brožur	-11.7979
▁ceremoniál	-11.7979
▁databáze	-11.7979
▁databázi	-11.7979
▁delegát	-11.7979
▁drůbež	-11.7979
▁dveřmi	-11.7979
▁havárii	-11.7979
▁inzulín	-11.7979
▁kanalizací	-11.7979
▁katalyzátor	-11.7979
▁komedie	-11.7979
▁kompetencí	-11.7979
▁milisekund	-11.7979
▁nechybí	-11.7979
▁nedaleké	-11.7979
▁nereáln	-11.7979
▁nosorožců	-11.7979
▁organismy	-11.7979
▁podezřelý	-11.7979
▁pojišťoven	-11.7979
▁portfeje	-11.7979
▁pořizovací	-11.7979
▁poštovní	-11.7979
▁přibližuj	-11.7979
▁přísluší	-11.7979
▁severozápad	-11.7979
▁splátek	-11.7979
▁stěžuje	-11.7979
▁telekomunikací	-11.7979
▁těhotenství	-11.7979
▁vlhkost	-11.7979
▁vrtulník	-11.7979
▁vyhořelé	-11.7979
▁vyzkoušel	-11.7979
▁vyčerpán	-11.7979
▁vídeňské	-11.7979
▁zahájit	-11.7979
▁zakázek	-11.7979
▁zaručuje	-11.7979
▁zdůraznit	-11.7979
▁zneužívání	-11.7979
▁zpracovává	-11.7979
▁záruční	-11.7979
▁Černomyrdin	-11.7979
▁železnice	-11.7979
▁Reichel	-11.7979
▁Teplice	-11.7979
▁Vynikající	-11.7979
▁buněčné	-11.7979
▁finálové	-11.7979
▁kazašsk	-11.7979
▁komisař	-11.7979
▁kultuře	-11.7979
▁lidstvo	-11.7979
▁novorozen	-11.7979
▁odpolední	-11.7979
▁pátku	-11.7979
▁radikálně	-11.7979
▁sféře	-11.7979
▁thajské	-11.7979
▁zopakoval	-11.7979
▁Život	-11.7979
▁1979	-11.7979
▁konstantní	-11.7979
▁pohodlné	-11.7979
▁Československý	-11.7979
▁KGB	-11.7979
▁Němce	-11.7979
▁emitent	-11.7979
▁omezit	-11.7979
▁prodluž	-11.7979
▁FMV	-11.7979
▁injekc	-11.7979
▁málokdo	-11.7979
▁stadiu	-11.7979
▁tekutin	-11.7979
▁Zpráv	-11.7979
▁nesrovnateln	-11.7979
▁překonání	-11.7979
▁účinnou	-11.7979
▁lehký	-11.7979
▁Dokument	-11.7979
▁PET	-11.7979
▁SGI	-11.7979
▁obyvatelstvo	-11.7979
▁Student	-11.7979
▁poválečn	-11.7979
▁lahví	-11.7979
▁kolegové	-11.7979
▁trénuj	-11.7979
▁informuje	-11.7979
▁nejblíže	-11.7979
▁rozsáhlou	-11.7979
▁James	-11.7979
▁komodit	-11.7979
▁Zajímal	-11.7979
▁smířit	-11.7979
▁Západoevropsk	-11.7979
▁odstavec	-11.7979
▁svrchované	-11.7979
▁udržován	-11.7979
▁chystají	-11.7979
▁dávek	-11.7979
▁vyústi	-11.7979
pravdivost	-11.7979
▁Prahou	-11.7979
▁polymer	-11.7979
▁netrpěliv	-11.7979
▁sloučení	-11.7979
▁podepsat	-11.7979
▁někomu	-11.7979
▁meziroční	-11.7979
▁nikomu	-11.7979
▁přeplněn	-11.7979
▁umírněn	-11.798
▁Holandsk	-11.798
▁železné	-11.798
▁srbské	-11.798
▁loupež	-11.798
▁vzdělan	-11.798
▁Automatick	-11.798
▁Kadlec	-11.798
▁mutací	-11.798
▁Mlýn	-11.798
▁tvořiv	-11.798
▁podporoval	-11.798
▁oběhové	-11.798
▁Fuchs	-11.798
▁přetížen	-11.798
běhnout	-11.798
▁úchyt	-11.798
▁mocenské	-11.7981
▁šancí	-11.7981
▁sochař	-11.7981
▁modré	-11.7981
▁Front	-11.7981
▁vybudoval	-11.7981
▁odvážn	-11.7981
opouštěl	-11.7981
▁Opava	-11.7981
▁Týden	-11.7982
▁Bartoš	-11.7982
▁kamenné	-11.7983
hánějí	-11.7983
▁vyplatil	-11.7983
▁příloh	-11.7983
▁lehko	-11.7983
▁metan	-11.7983
▁Samotn	-11.7984
▁hlučn	-11.7984
▁usedl	-11.7985
▁Zvýšen	-11.7985
▁lákav	-11.7986
▁princ	-11.7986
▁neuron	-11.7986
▁jízdenk	-11.7986
▁Klasick	-11.7989
▁neznají	-11.799
▁rovný	-11.7992
▁Hledá	-11.7992
▁ležel	-11.7992
▁oblouk	-11.7993
▁únosn	-11.7995
▁republikánsk	-11.7996
▁vázan	-11.8
vracení	-11.8003
▁koncepčn	-11.8004
▁nádrž	-11.8011
značení	-11.8029
▁koncov	-11.8034
poskytla	-11.8042
▁neplatn	-11.8075
▁basketbalist	-11.8082
formulovat	-11.8129
konkurenceschopn	-11.8144
▁důvěryhodn	-11.8149
▁zmiňuj	-11.8161
Komensk	-11.8211
zemědělská	-11.8268
▁individu	-11.8334
muslimské	-11.8448
▁animac	-11.8471
▁vyplněn	-11.8507
▁výdaj	-11.8656
působí	-11.8673
▁Vietnam	-11.8685
▁souvisl	-11.8691
▁vytvářen	-11.8696
cionálně	-11.8748
deutsche	-11.8748
navrhovatel	-11.8748
soustřeďuje	-11.8748
▁Australan	-11.8748
▁Chvalovský	-11.8748
▁Dlouhý	-11.8748
▁Giovanni	-11.8748
▁Gretzky	-11.8748
▁Hercegovin	-11.8748
▁Holbrooke	-11.8748
▁Kravčuk	-11.8748
▁Margaret	-11.8748
▁Marseille	-11.8748
▁MicroStation	-11.8748
▁Navrátil	-11.8748
▁OpenScript	-11.8748
▁Oxfordu	-11.8748
▁Padesát	-11.8748
▁Pospíšil	-11.8748
▁Překvap	-11.8748
▁Rangers	-11.8748
▁Silvestr	-11.8748
▁Sládka	-11.8748
▁Solidarit	-11.8748
▁Sportovní	-11.8748
▁Stockholm	-11.8748
▁Varšav	-11.8748
▁Zeitung	-11.8748
▁analytik	-11.8748
▁antropogenní	-11.8748
▁bezšňůrov	-11.8748
▁biosfér	-11.8748
▁biotechnologi	-11.8748
▁cyklů	-11.8748
▁delegací	-11.8748
▁deregulac	-11.8748
▁diktatur	-11.8748
▁disident	-11.8748
▁dominantní	-11.8748
▁doporučit	-11.8748
▁elektrárna	-11.8748
▁epizod	-11.8748
▁fanoušci	-11.8748
▁fyziologick	-11.8748
▁handicap	-11.8748
▁havárie	-11.8748
▁horizontu	-11.8748
▁hypoték	-11.8748
▁instalační	-11.8748
▁investoři	-11.8748
▁izolační	-11.8748
▁jihovýchodní	-11.8748
▁kariéry	-11.8748
▁karlovarsk	-11.8748
▁knihkupectví	-11.8748
▁konvertibilit	-11.8748
▁libovolné	-11.8748
▁lukrativní	-11.8748
▁manažeři	-11.8748
▁navštívit	-11.8748
▁nejčastější	-11.8748
▁odcházel	-11.8748
▁organizován	-11.8748
▁osamostatn	-11.8748
▁perfektní	-11.8748
▁podmínku	-11.8748
▁podrážděn	-11.8748
▁poliklinik	-11.8748
▁portrét	-11.8748
▁poselství	-11.8748
▁povzbuz	-11.8748
▁prezentován	-11.8748
▁přicházel	-11.8748
▁připomínal	-11.8748
▁příchozí	-11.8748
▁reprezentovat	-11.8748
▁revoluci	-11.8748
▁rovnoběž	-11.8748
▁rovnoměrn	-11.8748
▁roztříštěn	-11.8748
▁službách	-11.8748
▁substantiv	-11.8748
▁tiskárnu	-11.8748
▁trolejbus	-11.8748
▁turistiky	-11.8748
▁třicátých	-11.8748
▁utrpení	-11.8748
▁ušlechtil	-11.8748
▁veterinární	-11.8748
▁výcvik	-11.8748
▁zákonodárn	-11.8748
▁západoevropský	-11.8748
▁zásuvk	-11.8748
▁závislý	-11.8748
▁Štěpán	-11.8748
korespond	-11.8748
restrukturalizac	-11.8748
▁Bedřich	-11.8748
▁Frýdku	-11.8748
▁Hendrix	-11.8748
▁Hovořil	-11.8748
▁Parlament	-11.8748
▁Plzně	-11.8748
▁hřbet	-11.8748
▁média	-11.8748
▁prvoligov	-11.8748
▁půvab	-11.8748
▁schvalování	-11.8748
▁stránkách	-11.8748
▁upravuje	-11.8748
▁uspokojit	-11.8748
▁začátečn	-11.8748
Místku	-11.8748
vyskytuje	-11.8748
ŠTÍ	-11.8748
▁Kralup	-11.8748
▁Památk	-11.8748
▁definován	-11.8748
▁diskrimin	-11.8748
▁domnívat	-11.8748
▁křesla	-11.8748
▁medvěd	-11.8748
▁návaznost	-11.8748
▁posuzoval	-11.8748
▁tělovýchov	-11.8748
▁zapomenut	-11.8748
▁zlepšování	-11.8748
▁zvážit	-11.8748
▁Bukureš	-11.8748
▁Klient	-11.8748
▁Očekává	-11.8748
▁odhodlán	-11.8748
▁středisek	-11.8748
▁výchozí	-11.8748
▁všelijak	-11.8748
▁čtvrtletně	-11.8748
▁iniciátor	-11.8748
▁konektor	-11.8748
▁nepůjde	-11.8748
▁Kultur	-11.8748
▁Záhřebu	-11.8748
▁evidentn	-11.8748
▁legální	-11.8748
▁nevyhnul	-11.8748
▁Kontakt	-11.8748
▁fázové	-11.8748
▁útlum	-11.8748
▁dodávku	-11.8748
▁převezme	-11.8748
pište	-11.8749
▁hájit	-11.8749
▁náznak	-11.8749
▁srovnávat	-11.8749
▁tabák	-11.8749
▁vizuální	-11.8749
▁ministerský	-11.8749
▁pařížsk	-11.8749
▁studijní	-11.8749
▁lístku	-11.8749
▁politici	-11.8749
▁vhodnější	-11.8749
▁sazba	-11.8749
▁chápou	-11.8749
▁neskončil	-11.8749
▁sváteční	-11.8749
▁nervozit	-11.8749
▁delikt	-11.8749
▁shodli	-11.8749
▁barokní	-11.8749
▁vůdčí	-11.8749
▁hesla	-11.8749
▁nebytový	-11.8749
▁romantick	-11.8749
▁židovské	-11.8749
▁monarchi	-11.8749
▁licenci	-11.8749
▁úklid	-11.8749
▁rovnou	-11.8749
▁Vytvořen	-11.8749
▁stránka	-11.8749
▁dovezen	-11.8749
▁vybuchl	-11.8749
▁fašismu	-11.8749
▁prověrk	-11.8749
▁vypovězen	-11.8749
▁trošk	-11.8749
▁zátěž	-11.8749
▁motýl	-11.8749
▁zachycuj	-11.8749
▁klasik	-11.875
▁pohodlně	-11.875
▁Pravidl	-11.875
▁obklop	-11.875
▁Albert	-11.875
▁čtyřnásobn	-11.8751
▁Příprav	-11.8751
▁laskav	-11.8751
▁odcizi	-11.8751
▁podporovan	-11.8751
▁šperk	-11.8752
▁Údaj	-11.8752
▁krabic	-11.8752
▁úročen	-11.8752
▁dědičn	-11.8754
▁nedokonč	-11.8754
▁určován	-11.8755
▁podceňova	-11.8757
obtížnější	-11.876
▁nepočítal	-11.8762
▁pozemkov	-11.8763
▁smyslupln	-11.8764
▁vypsán	-11.8766
dokonalejší	-11.8767
▁obměn	-11.8778
▁principiáln	-11.8786
▁slovinsk	-11.8788
dvacátého	-11.8788
podstatnější	-11.8792
▁odebíra	-11.8795
interpretaci	-11.8796
▁kytic	-11.8818
▁nerozhodn	-11.8823
milionový	-11.8834
▁potravinářský	-11.8843
▁vápn	-11.8861
socialistický	-11.8901
divné	-11.8912
▁vypracován	-11.8935
▁garáž	-11.8935
světlení	-11.8949
mnohých	-11.8968
nekonečně	-11.9149
▁zpracoval	-11.9186
▁kolečk	-11.9249
▁stabilizovan	-11.9303
drobnější	-11.9326
nezávislý	-11.94
sledují	-11.9406
▁Georg	-11.942
švédsk	-11.9427
▁Hlavn	-11.9458
▁slavnostn	-11.9476
▁nedoved	-11.9489
yžaduje	-11.949
▁společenstv	-11.9523
▁uplatněn	-11.9525
oblečen	-11.9572
svědčit	-11.9574
endotoxin	-11.9582
▁Bruntál	-11.9582
▁EVROP	-11.9582
▁Hamilton	-11.9582
▁Komárk	-11.9582
▁Kratochvíl	-11.9582
▁Leopold	-11.9582
▁Přibliž	-11.9582
▁Suchopár	-11.9582
▁bosenskosrbsk	-11.9582
▁demokracií	-11.9582
▁indián	-11.9582
▁interview	-11.9582
▁kambodžsk	-11.9582
▁nezměněn	-11.9582
▁onemocněl	-11.9582
▁rentabilit	-11.9582
▁trinitron	-11.9582
emigrant	-11.9582
inflační	-11.9582
ymfocyty	-11.9582
▁Agassi	-11.9582
▁Grimaux	-11.9582
▁Institut	-11.9582
▁MPEG	-11.9582
▁Nazarbajev	-11.9582
▁Nejdůležitější	-11.9582
▁Palestinců	-11.9582
▁Plečnik	-11.9582
▁Podmínkou	-11.9582
▁Později	-11.9582
▁Příslušn	-11.9582
▁Umožňuje	-11.9582
▁Uživatel	-11.9582
▁VLÁD	-11.9582
▁Vladislav	-11.9582
▁Vltavy	-11.9582
▁Wernisch	-11.9582
▁absolutně	-11.9582
▁celoživotní	-11.9582
▁civilizace	-11.9582
▁financovat	-11.9582
▁fungovat	-11.9582
▁hierarchi	-11.9582
▁inscenace	-11.9582
▁jihozápad	-11.9582
▁kolísání	-11.9582
▁komplikuje	-11.9582
▁konfrontace	-11.9582
▁kontinuit	-11.9582
▁kopírování	-11.9582
▁lékárny	-11.9582
▁matematice	-11.9582
▁mikroskopick	-11.9582
▁nejjednodušší	-11.9582
▁neobejde	-11.9582
▁netradiční	-11.9582
▁nevrátí	-11.9582
▁novoroční	-11.9582
▁následovn	-11.9582
▁olympionik	-11.9582
▁opodstatněn	-11.9582
▁otázkám	-11.9582
▁ovlivňován	-11.9582
▁peněženk	-11.9582
▁pochlubit	-11.9582
▁pokaždé	-11.9582
▁posluchačů	-11.9582
▁preparát	-11.9582
▁prezentovat	-11.9582
▁problematické	-11.9582
▁předpokládané	-11.9582
▁přetrvávají	-11.9582
▁příslušenství	-11.9582
▁relikvi	-11.9582
▁restituce	-11.9582
▁revoluční	-11.9582
▁rámečky	-11.9582
▁schůzce	-11.9582
▁splátky	-11.9582
▁spolehnout	-11.9582
▁spolumajitel	-11.9582
▁státoprávní	-11.9582
▁středoškolsk	-11.9582
▁stříbra	-11.9582
▁televizí	-11.9582
▁usilovně	-11.9582
▁uskupení	-11.9582
▁velvyslance	-11.9582
▁videozáznam	-11.9582
▁virtuální	-11.9582
▁vytvářel	-11.9582
▁zdůrazňují	-11.9582
▁zpřístupněn	-11.9582
▁zveřejnit	-11.9582
▁Úspěch	-11.9582
▁Ústřední	-11.9582
▁štafet	-11.9582
▁živočišn	-11.9582
▁3:0	-11.9582
▁Amerika	-11.9582
▁Galerie	-11.9582
▁Kredba	-11.9582
▁besedy	-11.9582
▁celoročn	-11.9582
▁fanoušky	-11.9582
▁hnojiv	-11.9582
▁impuls	-11.9582
▁monument	-11.9582
▁můstku	-11.9582
▁navštěvuj	-11.9582
▁nepřál	-11.9582
▁nepřístup	-11.9582
▁neúměrn	-11.9582
▁paprsky	-11.9582
▁podvojné	-11.9582
▁posloužit	-11.9582
▁prosazoval	-11.9582
▁pěveck	-11.9582
▁připouští	-11.9582
▁užitečný	-11.9582
▁vytápěn	-11.9582
▁United	-11.9582
▁heslem	-11.9582
▁kritizuj	-11.9582
▁ledovců	-11.9582
▁navždy	-11.9582
▁omezuje	-11.9582
▁poskytoval	-11.9582
▁reaguje	-11.9582
▁kampani	-11.9582
▁pasivní	-11.9582
▁rezoluc	-11.9582
▁svrchovaný	-11.9582
▁Ženevě	-11.9582
▁Kovařík	-11.9582
▁nesplnil	-11.9582
▁různorod	-11.9582
▁majoritní	-11.9582
▁policií	-11.9582
▁senzor	-11.9582
▁nerentabiln	-11.9582
▁tělocvičn	-11.9582
▁rozvíjen	-11.9582
▁vězeň	-11.9582
▁zeptat	-11.9582
▁špatná	-11.9582
trénoval	-11.9582
▁Kambodž	-11.9582
▁Opavy	-11.9582
▁nenápadn	-11.9582
▁nalézá	-11.9582
▁směnitelnost	-11.9582
OECD	-11.9582
▁dálniční	-11.9582
▁licenční	-11.9582
▁Čtenář	-11.9582
▁dceřin	-11.9582
▁uprchlíků	-11.9582
▁zatykač	-11.9582
buněčný	-11.9582
▁Galás	-11.9582
▁paušál	-11.9582
stěhovat	-11.9582
▁nepřiměřen	-11.9582
▁stěžoval	-11.9582
▁vyjmut	-11.9582
▁sazeb	-11.9582
▁Chariton	-11.9582
ejdražší	-11.9582
hlížejí	-11.9582
▁nečekané	-11.9582
▁renomovan	-11.9582
vyplácí	-11.9582
▁nevyloučil	-11.9582
▁detektiv	-11.9582
▁striktn	-11.9582
▁rozhořč	-11.9582
▁ohranič	-11.9582
▁sérií	-11.9582
▁omezil	-11.9582
▁rozloučil	-11.9582
Science	-11.9582
▁lichenolog	-11.9582
CHOD	-11.9582
▁hájil	-11.9582
▁zajímají	-11.9582
ejtěžší	-11.9583
▁1:1	-11.9583
▁Basikov	-11.9583
▁osminásobn	-11.9583
konvenční	-11.9583
▁projekc	-11.9583
▁neočekáv	-11.9584
▁objednal	-11.9584
Soft	-11.9584
▁krvav	-11.9585
▁úpadk	-11.9585
▁kouzeln	-11.9586
▁Považuj	-11.9586
▁Rabac	-11.9587
▁Trestn	-11.9589
PRAV	-11.9589
▁lokaliz	-11.9589
▁potěšen	-11.9591
▁hlavičk	-11.9593
▁pečuj	-11.9595
▁Daňov	-11.9598
▁Černovic	-11.9598
▁tajemn	-11.9599
▁mravenc	-11.9601
▁syrov	-11.9608
ejlépe	-11.9617
pravděpodobnější	-11.9618
▁vyslán	-11.9622
▁podepíš	-11.9625
Liaz	-11.9626
▁Lidsk	-11.9629
▁vyučova	-11.9633
▁skřín	-11.9658
▁Obsahuj	-11.9666
▁obzvláš	-11.9721
nejdůležitějších	-11.9817
▁Stavebn	-11.9827
znamuje	-11.9861
hrozně	-11.9882
milionové	-11.9993
pravděpodobnosti	-12.0176
▁uspořádán	-12.0409
kategori	-12.043
▁zdravotnick	-12.0439
▁zaměstnán	-12.0445
uživatelské	-12.0467
▁pečliv	-12.0483
realistick	-12.0485
Vancouver	-12.0491
▁Beethoven	-12.0491
▁Einstein	-12.0491
▁Johannes	-12.0491
▁Mandlíkov	-12.0491
▁agresivit	-12.0491
▁bouřliv	-12.0491
▁cílevědom	-12.0491
▁falešné	-12.0491
▁jihokorejsk	-12.0491
▁lokomotiv	-12.0491
▁makroskopick	-12.0491
▁neoprávněné	-12.0491
▁předměstí	-12.0491
▁upozorňova	-12.0491
▁zdvojnásob	-12.0491
Gabriel	-12.0491
Netscape	-12.0491
avrančíková	-12.0491
emětřesení	-12.0491
mýšlejí	-12.0491
onfederace	-12.0491
organizoval	-12.0491
▁ATAPI	-12.0491
▁Allianz	-12.0491
▁Angeles	-12.0491
▁Astronom	-12.0491
▁Austrálii	-12.0491
▁Bangkoku	-12.0491
▁Basketbal	-12.0491
▁Corser	-12.0491
▁EGAP	-12.0491
▁Helmut	-12.0491
▁Hájek	-12.0491
▁Jozef	-12.0491
▁Kancelář	-12.0491
▁Lebedě	-12.0491
▁Lisabon	-12.0491
▁Litomyšl	-12.0491
▁Mexiku	-12.0491
▁Nejstarší	-12.0491
▁Pochopitelně	-12.0491
▁Privatizace	-12.0491
▁Shift	-12.0491
▁Skuhravý	-12.0491
▁Sládek	-12.0491
▁Stratton	-12.0491
▁Vyšetřovatel	-12.0491
▁Zdůraznil	-12.0491
▁abstraktní	-12.0491
▁angličtině	-12.0491
▁baktérie	-12.0491
▁baseball	-12.0491
▁diagnostick	-12.0491
▁efektivnější	-12.0491
▁epimerace	-12.0491
▁eukleidovsk	-12.0491
▁evidence	-12.0491
▁expedic	-12.0491
▁frekvence	-12.0491
▁frekvenci	-12.0491
▁humanitní	-12.0491
▁hypertext	-12.0491
▁hypoteční	-12.0491
▁instrument	-12.0491
▁izolace	-12.0491
▁izolaci	-12.0491
▁jazyce	-12.0491
▁jihoafrické	-12.0491
▁kompatibilní	-12.0491
▁konfekční	-12.0491
▁konkurencí	-12.0491
▁kormidelník	-12.0491
▁koupaliště	-12.0491
▁lhostejn	-12.0491
▁mechanismem	-12.0491
▁medicíny	-12.0491
▁mezimolekulární	-12.0491
▁mučedník	-12.0491
▁nacionalist	-12.0491
▁nehrozí	-12.0491
▁neobjevil	-12.0491
▁neoprávněně	-12.0491
▁netrouf	-12.0491
▁neuvěřitelné	-12.0491
▁občerstvení	-12.0491
▁olomoucký	-12.0491
▁orientované	-12.0491
▁osmifinále	-12.0491
▁paprsků	-12.0491
▁pardubick	-12.0491
▁perfektně	-12.0491
▁pomalejší	-12.0491
▁porcelán	-12.0491
▁potrubí	-12.0491
▁povědomí	-12.0491
▁pracovištích	-12.0491
▁prohlížeč	-12.0491
▁prokazateln	-12.0491
▁prosperity	-12.0491
▁prozkoumán	-12.0491
▁prémie	-12.0491
▁přemýšlet	-12.0491
▁přihlásit	-12.0491
▁přijímací	-12.0491
▁přispívá	-12.0491
▁reciproční	-12.0491
▁režijní	-12.0491
▁smlouvou	-12.0491
▁soustředit	-12.0491
▁stoupající	-12.0491
(	-12.7118
"	-12.9592
<	-13.9781
