<unk>	0
<s>	0
</s>	0
<doc>	0
</doc>	0
<head>	0
</head>	0
<phr>	0
</phr>	0
▁	-1.76087
,	-3.3612
.	-3.50412
▁a	-4.43973
▁v	-4.48786
a	-4.49713
u	-4.57568
▁se	-4.59408
m	-4.66039
▁na	-4.69318
i	-4.81359
y	-4.83546
ch	-4.94142
▁je	-5.123
▁s	-5.29156
ho	-5.29208
▁z	-5.30207
▁"	-5.31229
▁že	-5.37875
o	-5.42667
e	-5.47113
á	-5.49724
▁do	-5.58092
▁o	-5.59079
s	-5.607
ou	-5.642
í	-5.64805
em	-5.72568
é	-5.73079
ě	-5.75291
▁za	-5.7579
▁pro	-5.76157
t	-5.82852
▁po	-5.86602
▁-	-5.89575
ů	-5.90271
▁k	-5.95549
ž	-5.98657
to	-6.02613
▁V	-6.05696
▁to	-6.07801
▁ve	-6.10822
▁(	-6.11462
mi	-6.17809
▁by	-6.21284
▁i	-6.22678
ý	-6.2657
▁ale	-6.31643
z	-6.32214
>	-6.33088
▁od	-6.3438
ní	-6.38555
▁si	-6.40794
▁při	-6.45373
▁jsou	-6.5063
l	-6.50863
▁jako	-6.52325
v	-6.52708
p	-6.53719
ých	-6.54513
▁které	-6.55814
d	-6.56165
ně	-6.56769
▁ne	-6.58638
)	-6.61807
▁S	-6.63244
▁však	-6.63572
r	-6.66542
▁:	-6.67258
▁tak	-6.68092
k	-6.68094
te	-6.71022
me	-6.71683
ce	-6.71944
▁vy	-6.72816
▁který	-6.75152
x	-6.79924
▁Po	-6.83069
▁nebo	-6.83364
ka	-6.8405
▁jeho	-6.84191
▁bude	-6.85127
na	-6.87003
?	-6.87642
▁A	-6.90959
▁jen	-6.91462
li	-6.92815
▁před	-6.93886
la	-6.97531
b	-6.98918
▁než	-6.99444
né	-6.99795
▁má	-6.99985
ové	-7.01552
ku	-7.01881
▁Na	-7.02152
č	-7.03273
ná	-7.0476
▁už	-7.0489
ého	-7.06834
▁Z	-7.07622
▁aby	-7.07771
▁byl	-7.09659
ci	-7.10253
mu	-7.10579
▁jak	-7.10581
▁jejich	-7.11443
▁jsem	-7.12774
▁být	-7.12997
▁až	-7.14256
ky	-7.16383
ech	-7.1644
n	-7.16618
▁která	-7.17484
▁také	-7.18178
▁Je	-7.1993
le	-7.20716
▁jsme	-7.21451
lo	-7.22359
▁podle	-7.22521
▁<	-7.22591
š	-7.23467
it	-7.24163
▁ze	-7.24248
▁O	-7.24648
▁P	-7.27617
uje	-7.31106
j	-7.3113
▁K	-7.31331
▁co	-7.31843
ovat	-7.32132
st	-7.34076
▁není	-7.34779
▁pře	-7.35196
ek	-7.36788
▁mezi	-7.36899
h	-7.37855
že	-7.38674
▁bylo	-7.38817
▁ani	-7.39307
c	-7.39544
▁své	-7.39636
▁či	-7.39846
▁ještě	-7.40866
▁již	-7.41946
▁když	-7.42923
▁může	-7.43694
cí	-7.44942
nou	-7.45104
▁let	-7.45232
ým	-7.45626
▁byla	-7.46095
ni	-7.46557
ová	-7.47835
▁toho	-7.48
kud	-7.50005
▁korun	-7.50016
ře	-7.50186
/	-7.51404
f	-7.51874
en	-7.5225
al	-7.53519
).	-7.54515
▁pak	-7.54809
ze	-7.56187
no	-7.56465
▁pod	-7.57658
▁další	-7.57713
in	-7.5825
▁kteří	-7.58557
▁To	-7.58682
▁kde	-7.5895
ří	-7.59073
▁bez	-7.59363
▁tím	-7.59711
ný	-7.61466
▁Ne	-7.61491
▁více	-7.62778
▁té	-7.63462
po	-7.64436
▁tedy	-7.64858
ování	-7.64994
▁první	-7.65088
▁roku	-7.65114
g	-7.65673
ách	-7.65929
ň	-7.6701
il	-7.67853
jí	-7.69156
ra	-7.69748
▁nich	-7.69766
),	-7.71126
ské	-7.71251
ost	-7.7168
▁M	-7.72265
▁mají	-7.74354
ne	-7.74447
▁tu	-7.75221
▁Za	-7.75519
ových	-7.76298
ují	-7.76444
vá	-7.7687
▁roz	-7.7724
ta	-7.77749
on	-7.78024
▁U	-7.78049
▁kdy	-7.7915
-	-7.79164
▁roce	-7.79218
▁I	-7.79408
▁proti	-7.79479
▁pouze	-7.79493
▁musí	-7.79724
▁Do	-7.81026
ných	-7.81342
▁tom	-7.81381
lu	-7.81766
ům	-7.81824
pl	-7.8241
ovi	-7.82502
▁tomu	-7.82921
ko	-7.82959
▁ke	-7.8466
ti	-7.85063
▁proto	-7.85169
▁J	-7.85846
ro	-7.8594
▁budou	-7.86288
▁li	-7.86708
▁H	-7.87275
▁třeba	-7.87307
ř	-7.87579
ři	-7.87767
▁Pro	-7.88072
▁nad	-7.88162
ru	-7.8818
▁protože	-7.8863
cích	-7.88986
▁totiž	-7.8936
vě	-7.89446
▁D	-7.89697
ov	-7.90204
▁nás	-7.91014
▁lze	-7.91789
va	-7.94876
▁její	-7.94899
▁asi	-7.95209
▁přes	-7.96078
▁byly	-7.9652
▁měl	-7.96576
▁poslední	-7.96746
▁velmi	-7.96822
kou	-7.9716
▁zatím	-7.97395
če	-7.97736
▁řekl	-7.97798
el	-7.98923
▁vlastní	-7.99567
je	-8.00062
or	-8.00416
da	-8.00585
ny	-8.01267
▁Při	-8.01602
▁včera	-8.0211
▁ob	-8.05094
co	-8.05341
at	-8.05346
ví	-8.05405
▁všech	-8.06256
osti	-8.06501
děl	-8.06988
▁ty	-8.07022
▁dnes	-8.07038
▁firmy	-8.07512
čí	-8.07736
ly	-8.07853
▁dva	-8.08413
▁G	-8.09016
vý	-8.09018
▁Podl	-8.09521
ba	-8.0982
▁především	-8.09838
ový	-8.10793
▁tisíc	-8.10902
er	-8.11189
nu	-8.11644
▁nej	-8.1166
▁případě	-8.12319
ty	-8.12763
▁'	-8.13198
ém	-8.13292
ma	-8.13411
▁Ve	-8.13614
či	-8.13756
▁například	-8.13961
ného	-8.14441
D	-8.15121
lá	-8.15141
▁T	-8.15178
▁nám	-8.15537
lí	-8.16144
▁rok	-8.166
oval	-8.16794
▁době	-8.16962
▁nyní	-8.17182
ri	-8.17431
▁tři	-8.17832
▁mít	-8.18001
▁dvou	-8.1806
tr	-8.18094
de	-8.18248
tě	-8.19453
M	-8.19594
tu	-8.19662
se	-8.19852
▁B	-8.20239
▁ji	-8.20336
▁procent	-8.2038
ovou	-8.20602
ích	-8.22125
▁jim	-8.2213
▁lidí	-8.2216
▁společnosti	-8.22367
▁práce	-8.22561
S	-8.22581
▁jeden	-8.22693
▁zda	-8.22786
▁mohou	-8.22835
▁stále	-8.2315
▁těchto	-8.23775
▁ovšem	-8.23904
vol	-8.23954
▁všechny	-8.2417
▁Co	-8.2426
vi	-8.24676
an	-8.24678
5	-8.25207
právě	-8.25333
ší	-8.25735
ami	-8.25783
ha	-8.26005
▁několik	-8.2643
T	-8.26832
ově	-8.26952
ská	-8.27372
re	-8.28232
▁kterou	-8.28284
▁což	-8.28762
hr	-8.29043
...	-8.29184
▁něm	-8.29776
K	-8.30056
ými	-8.30569
▁L	-8.30732
ků	-8.30813
▁tento	-8.31069
kr	-8.317
du	-8.32178
3	-8.32395
tá	-8.32514
si	-8.32626
▁Ale	-8.33285
▁možné	-8.33357
▁jednání	-8.33441
ry	-8.33743
▁České	-8.34482
ového	-8.34493
ním	-8.34677
R	-8.34686
ský	-8.34846
▁Jak	-8.35222
▁dalších	-8.35403
ká	-8.35435
▁nové	-8.35684
cela	-8.35742
B	-8.36344
▁R	-8.36702
za	-8.36708
▁C	-8.36731
▁Od	-8.3709
ám	-8.37577
2	-8.37605
▁F	-8.3785
▁jde	-8.37877
▁měla	-8.37887
▁ČR	-8.37929
us	-8.38032
▁kdo	-8.38064
▁Praze	-8.38702
P	-8.38777
▁zejména	-8.39289
▁základní	-8.39377
téměř	-8.39595
▁větší	-8.39742
▁naše	-8.40042
▁zařízení	-8.40062
spo	-8.40159
▁svou	-8.40293
4	-8.40604
ních	-8.41096
od	-8.41151
nost	-8.41209
hl	-8.41643
ských	-8.41736
I	-8.41761
▁de	-8.41865
▁Proto	-8.42065
ť	-8.42094
▁strany	-8.42281
▁naši	-8.43491
ující	-8.43724
▁možnost	-8.43752
by	-8.43987
▁prostředí	-8.44083
▁letech	-8.44852
▁sice	-8.45115
pr	-8.45493
▁dvě	-8.45744
dr	-8.45753
▁Kdy	-8.45781
▁svého	-8.46104
ova	-8.46223
▁každý	-8.4671
ným	-8.46732
▁jiné	-8.4717
▁svých	-8.47193
še	-8.47444
ského	-8.47513
L	-8.48225
▁nejen	-8.48395
V	-8.49089
7	-8.49291
ení	-8.49407
bu	-8.49599
lé	-8.49627
▁místo	-8.50028
ec	-8.50039
ve	-8.50143
N	-8.50161
▁část	-8.50174
ží	-8.50662
tí	-8.50775
▁uvedl	-8.51233
▁světa	-8.51273
▁tomto	-8.5144
nější	-8.51479
▁Ko	-8.51739
et	-8.51949
▁Tak	-8.52557
ální	-8.52957
ji	-8.53018
A	-8.5324
▁druhé	-8.53768
▁zde	-8.54675
▁000	-8.54718
▁milionů	-8.5519
kem	-8.55191
▁stát	-8.55503
▁systém	-8.55627
ar	-8.55684
tra	-8.56014
is	-8.56151
▁nic	-8.56241
▁něco	-8.56426
▁vlády	-8.565
▁svým	-8.56734
ští	-8.57302
C	-8.57779
▁čas	-8.57958
▁10	-8.5802
▁stejně	-8.58024
▁1	-8.58111
ím	-8.58217
▁říká	-8.583
▁Š	-8.58357
1	-8.5855
▁některé	-8.5951
▁kolem	-8.59568
▁země	-8.59712
▁ceny	-8.60119
▁mu	-8.60244
ter	-8.60517
ace	-8.60941
▁zákona	-8.60985
pa	-8.61117
val	-8.61188
▁zboží	-8.61191
▁ú	-8.6123
ické	-8.61537
w	-8.61634
▁tam	-8.6185
ši	-8.62331
▁mě	-8.62408
▁zákon	-8.62854
▁oblasti	-8.6307
ců	-8.6312
os	-8.6348
▁dobře	-8.63615
▁Vy	-8.63685
▁2	-8.6371
▁příliš	-8.63738
ob	-8.63787
▁patří	-8.6384
ili	-8.64071
▁finanční	-8.6431
▁svůj	-8.64508
▁dosud	-8.64514
▁pracovní	-8.64704
▁3	-8.64768
▁některých	-8.64934
6	-8.6518
▁práci	-8.65187
▁firma	-8.65528
▁zemí	-8.6558
dy	-8.66149
▁byli	-8.6618
▁neu	-8.66216
9	-8.6627
vr	-8.66515
▁vůbec	-8.66613
▁svět	-8.6666
▁opět	-8.66891
aci	-8.67162
▁několika	-8.67221
▁sociální	-8.67786
ované	-8.67878
▁vždy	-8.6794
▁období	-8.68301
lou	-8.68342
dí	-8.68634
▁Jan	-8.6874
E	-8.68843
0	-8.68948
▁neboť	-8.69147
▁E	-8.69244
ur	-8.69688
▁nepo	-8.71172
▁ten	-8.71731
▁%	-8.72344
hu	-8.72383
br	-8.72481
▁střední	-8.72484
▁nejsou	-8.72612
▁často	-8.72896
pe	-8.729
▁vyšší	-8.73176
▁jež	-8.73702
▁nemá	-8.73772
▁systému	-8.74213
ají	-8.74469
nosti	-8.74587
lit	-8.74722
▁dokonce	-8.74837
▁program	-8.74871
ila	-8.74989
00	-8.74992
▁jste	-8.75223
Z	-8.7528
▁přímo	-8.75332
▁hodin	-8.75658
▁USA	-8.75824
pra	-8.75924
ční	-8.76311
▁společnost	-8.76334
▁měli	-8.76379
▁19	-8.76548
▁sám	-8.76568
ější	-8.76582
▁Kč	-8.77149
▁N	-8.7721
▁nevy	-8.77258
▁Js	-8.77314
▁lidé	-8.77513
▁celé	-8.77674
▁doby	-8.78039
▁části	-8.78068
zí	-8.78076
ací	-8.78234
ační	-8.78246
▁nebude	-8.78442
▁den	-8.78452
▁obchodní	-8.78469
během	-8.78675
ot	-8.78973
▁rovněž	-8.79055
ovali	-8.79183
▁vám	-8.79322
▁níž	-8.79336
8	-8.79348
▁pět	-8.79412
▁čtyři	-8.79675
fi	-8.79739
vod	-8.79784
▁informace	-8.79838
▁trhu	-8.79922
▁prezident	-8.80125
▁sebe	-8.80242
ing	-8.80587
▁nimi	-8.80602
▁První	-8.80634
▁vše	-8.80651
str	-8.80666
▁počet	-8.80678
es	-8.80761
pat	-8.80778
vůli	-8.81088
▁nez	-8.81285
stav	-8.81351
včetně	-8.81433
zřejmě	-8.81669
▁půl	-8.81712
▁situace	-8.8183
▁takže	-8.81959
▁Ty	-8.82119
▁W	-8.82381
vy	-8.8261
▁zahraničí	-8.82638
▁státní	-8.82759
skou	-8.83037
ol	-8.83157
mat	-8.83329
▁mohl	-8.83397
▁ředitel	-8.83706
▁jedn	-8.8418
let	-8.84444
tato	-8.84846
▁méně	-8.8488
▁např	-8.85234
▁ministr	-8.85308
▁Evropy	-8.85519
▁peníze	-8.85519
▁řešení	-8.85568
O	-8.85689
▁takové	-8.85818
ú	-8.86336
▁víc	-8.86377
▁Zatím	-8.86379
op	-8.86498
▁mnoho	-8.86508
▁něj	-8.86828
▁5	-8.8709
ad	-8.8714
▁chce	-8.87162
F	-8.87162
▁pří	-8.87183
ovací	-8.87263
▁snad	-8.87452
▁způsobem	-8.87452
▁největší	-8.87475
▁znamená	-8.88085
Á	-8.88192
▁člověk	-8.88228
▁stav	-8.88403
▁spíše	-8.88461
▁republiky	-8.8847
▁jednotlivý	-8.88515
▁české	-8.88565
sp	-8.88846
▁nedo	-8.88982
ste	-8.88989
▁velký	-8.89118
▁rozdíl	-8.89429
▁sto	-8.89585
▁tří	-8.89587
▁navíc	-8.89785
▁rozhodnutí	-8.89798
▁přitom	-8.89821
▁dále	-8.89868
▁re	-8.89921
▁nes	-8.89931
▁dobu	-8.89957
▁vlastně	-8.90686
rt	-8.90781
▁šest	-8.90847
ovým	-8.90887
▁problémy	-8.90917
sta	-8.90969
▁jednoho	-8.91092
ání	-8.91288
man	-8.91394
▁naopak	-8.91543
▁Před	-8.91599
vo	-8.91796
▁množství	-8.91988
▁naší	-8.92954
%	-8.93183
ga	-8.93541
▁zájem	-8.93548
vat	-8.93569
▁letošní	-8.93662
▁města	-8.93818
▁skutečně	-8.93837
ik	-8.93962
▁život	-8.94001
▁1992	-8.94143
▁20	-8.94257
▁mimo	-8.94482
▁straně	-8.94506
▁většinou	-8.94695
▁znovu	-8.94702
▁řízení	-8.94704
▁zahraniční	-8.94969
bě	-8.94976
▁zhruba	-8.95214
▁životní	-8.96034
▁vláda	-8.96062
án	-8.96194
▁Petr	-8.96207
ud	-8.96237
▁současné	-8.96334
▁jej	-8.96354
klad	-8.96552
U	-8.96588
▁území	-8.97011
čka	-8.97036
ice	-8.97072
▁platí	-8.97216
▁dost	-8.97235
gr	-8.9724
nov	-8.97313
▁jiných	-8.97464
ovala	-8.97476
▁Jiří	-8.97481
H	-8.97483
▁soud	-8.97687
té	-8.97741
ck	-8.97769
ant	-8.97802
▁minut	-8.97959
▁nelze	-8.97988
sti	-8.98105
▁pan	-8.9813
▁zase	-8.98165
▁celý	-8.98246
▁1.	-8.98333
▁bych	-8.98735
▁začal	-8.98759
▁Tr	-8.988
▁velké	-8.98867
▁Re	-8.98951
ič	-8.98973
▁letos	-8.99476
rad	-8.99508
▁postup	-8.99564
kon	-8.99808
▁dlouho	-8.99848
▁smlouvy	-8.99861
▁tzv	-8.99885
▁dolarů	-8.99915
▁neza	-9.00156
ul	-9.00812
▁Ta	-9.00936
▁osob	-9.00998
▁návrh	-9.01147
▁jedné	-9.01221
▁Se	-9.0136
▁pomocí	-9.01543
▁Te	-9.01666
▁lepší	-9.01809
nik	-9.0198
▁obě	-9.01991
ev	-9.01992
cen	-9.02085
▁Bo	-9.02125
▁roky	-9.02287
hled	-9.02454
▁činnosti	-9.02562
▁trh	-9.02721
▁prohlásil	-9.02852
▁spolu	-9.03
stup	-9.0339
ven	-9.03521
nit	-9.03541
▁problém	-9.03572
▁4	-9.03747
▁Ch	-9.0376
▁Přesto	-9.03902
▁vás	-9.0416
▁Ma	-9.04218
▁jednou	-9.04227
▁moc	-9.04661
▁světě	-9.04756
▁různých	-9.04826
▁hlavní	-9.05299
▁později	-9.0531
▁státu	-9.05983
pis	-9.06107
▁nemůže	-9.0622
▁30	-9.06321
▁můžete	-9.06443
zn	-9.06663
ník	-9.06695
ního	-9.06705
▁vedení	-9.06763
▁ČSFR	-9.06846
ák	-9.06902
ův	-9.0723
▁programu	-9.07236
▁pěti	-9.07276
há	-9.0758
ali	-9.07599
▁člověka	-9.07676
▁Evropě	-9.07885
jší	-9.0789
▁podniku	-9.0831
▁skupiny	-9.08358
▁století	-9.08416
▁Václav	-9.08808
▁6	-9.08875
▁služby	-9.08935
▁věci	-9.09021
▁Má	-9.09223
▁bývalé	-9.0947
▁málo	-9.09525
▁deset	-9.09554
id	-9.09567
▁domácí	-9.09689
kové	-9.09775
▁jaké	-9.09846
▁činnost	-9.09905
▁funkce	-9.09998
▁jinak	-9.09999
▁prý	-9.10059
sk	-9.10243
▁mělo	-9.10438
▁zároveň	-9.10713
▁kole	-9.10819
▁jedna	-9.10904
do	-9.10953
▁situaci	-9.11069
kl	-9.11069
nt	-9.11237
▁obou	-9.11571
ství	-9.11576
▁dnešní	-9.11612
▁dobré	-9.11624
vedl	-9.11681
:	-9.11718
▁Ro	-9.11867
▁chyb	-9.11952
▁možná	-9.12153
▁snímku	-9.12154
men	-9.12204
▁náklady	-9.12362
▁stojí	-9.12681
▁100	-9.12838
▁přesto	-9.12935
▁jedno	-9.13166
nout	-9.13251
▁St	-9.1326
bou	-9.13375
▁místní	-9.13517
▁prvním	-9.13543
sku	-9.13567
▁CD	-9.13647
▁cenu	-9.13912
▁máme	-9.1407
▁nových	-9.14144
▁tvrdí	-9.14186
▁měly	-9.1425
be	-9.14284
▁mohli	-9.14343
▁děti	-9.14357
▁1993	-9.14358
▁vedoucí	-9.14454
▁firem	-9.14512
▁text	-9.14512
▁Pa	-9.14618
▁autor	-9.14774
▁Le	-9.14886
ován	-9.15144
▁získat	-9.15477
▁Praha	-9.15477
ct	-9.15658
▁způsob	-9.16003
žen	-9.16038
▁nejlepší	-9.16218
▁států	-9.16262
▁Mar	-9.16425
▁Byl	-9.16528
▁toto	-9.16537
▁majetku	-9.1661
▁nakonec	-9.1661
▁těch	-9.16703
per	-9.16707
▁všechno	-9.16766
pro	-9.16808
ému	-9.16835
▁15	-9.16929
▁cen	-9.17032
▁nikdy	-9.17185
▁podnik	-9.17247
ném	-9.17549
▁11	-9.17728
Í	-9.17732
▁já	-9.17831
krát	-9.17856
▁Ob	-9.17882
▁kon	-9.17979
ber	-9.17988
▁právní	-9.18013
▁výši	-9.18144
▁premiér	-9.18239
▁podniků	-9.18347
▁konce	-9.18637
▁svém	-9.18868
▁pár	-9.18945
▁lety	-9.19001
▁pa	-9.19132
▁místě	-9.1928
▁vliv	-9.19542
▁proč	-9.19547
▁dříve	-9.19609
▁vody	-9.19759
▁dne	-9.19783
▁možnosti	-9.20061
▁třetí	-9.20067
▁americké	-9.20103
▁nového	-9.20177
ště	-9.202
▁dál	-9.20217
šlo	-9.20331
gen	-9.20382
▁nepři	-9.20493
▁Prahy	-9.20681
ském	-9.20722
▁sobotu	-9.20746
tře	-9.20764
ovaných	-9.21038
as	-9.21144
▁nebyl	-9.2116
▁stavu	-9.21183
▁nutné	-9.21276
▁kdyby	-9.21369
ig	-9.21529
kov	-9.21604
▁stran	-9.21626
▁mezinárodní	-9.21672
olog	-9.22103
▁bychom	-9.22229
▁týden	-9.22403
▁předseda	-9.22427
▁parlamentu	-9.22543
nice	-9.23006
▁osm	-9.23142
▁přece	-9.23279
▁Tento	-9.23315
▁zemi	-9.23616
▁ministerstva	-9.23693
▁pohled	-9.23714
▁Ten	-9.23874
ilo	-9.23878
nými	-9.23907
nutí	-9.24106
▁Tato	-9.2462
hy	-9.24755
▁menší	-9.24824
▁obraz	-9.24883
ner	-9.24885
▁prostor	-9.24913
▁informací	-9.24923
▁policie	-9.24923
▁všichni	-9.24923
▁organizace	-9.24924
▁samozřejmě	-9.24989
▁potom	-9.24993
▁zdravotní	-9.25031
▁Není	-9.2521
▁Další	-9.25253
▁poté	-9.25324
dle	-9.2534
▁rychle	-9.25512
▁nikdo	-9.25547
▁8	-9.25682
▁můžeme	-9.25703
▁přístup	-9.25779
ed	-9.25782
dl	-9.25958
▁di	-9.26006
▁nový	-9.26009
▁malé	-9.26059
▁hlavně	-9.26179
▁poměrně	-9.26323
▁druhý	-9.26344
jde	-9.26386
up	-9.26421
CH	-9.26615
▁českých	-9.26629
▁cena	-9.26702
ář	-9.26756
▁Kromě	-9.26798
▁nižší	-9.26802
▁podíl	-9.26905
plat	-9.26912
ón	-9.27009
▁dodal	-9.27085
▁věcí	-9.27145
▁prezidenta	-9.27314
trochu	-9.27432
▁sdružení	-9.27451
▁něho	-9.2746
▁dvěma	-9.27519
čin	-9.27584
nebo	-9.28244
sko	-9.28354
▁Ú	-9.28412
íme	-9.28461
▁50	-9.28607
▁SSSR	-9.28709
▁sobě	-9.28716
▁efekt	-9.28732
▁Jana	-9.28819
▁Ka	-9.28822
▁25	-9.28919
ver	-9.29166
▁prohlášení	-9.29354
▁Mezi	-9.29363
▁čtyř	-9.29379
▁200	-9.29541
šel	-9.29602
del	-9.29652
bychom	-9.29674
▁Jako	-9.29707
▁škol	-9.29756
▁vývoj	-9.29971
▁podmínky	-9.30004
▁komise	-9.30004
▁Jestli	-9.30004
▁někdy	-9.30005
▁bo	-9.30026
▁žádné	-9.30048
ran	-9.30184
form	-9.30236
jich	-9.30425
sky	-9.30565
nes	-9.30569
ovy	-9.30665
▁večer	-9.30857
▁základě	-9.30911
rů	-9.31066
ovém	-9.31262
▁výroby	-9.31315
▁kam	-9.31337
▁zemích	-9.31395
▁západní	-9.31455
▁Evropské	-9.3155
▁význam	-9.31658
ač	-9.3166
▁došlo	-9.31742
▁kromě	-9.31856
▁většina	-9.31978
ir	-9.32097
▁mnoh	-9.32166
▁13	-9.32166
▁ex	-9.32209
▁čím	-9.32306
▁plat	-9.32703
▁místa	-9.32881
▁ostatní	-9.32898
ící	-9.33281
▁hned	-9.33323
fr	-9.33381
▁určité	-9.33393
▁malý	-9.33411
bl	-9.33484
rod	-9.33728
▁fakt	-9.33779
▁šesti	-9.33792
▁mnoha	-9.33812
▁peněz	-9.33991
prve	-9.33994
▁tvoří	-9.33996
▁výrazně	-9.34042
dním	-9.3407
▁nejvyšší	-9.34087
▁40	-9.34244
rn	-9.34318
vin	-9.34369
▁života	-9.34385
▁miliard	-9.34555
▁tehdy	-9.34671
▁rozpočtu	-9.34678
pol	-9.3471
ovaný	-9.34734
▁jich	-9.34784
▁názor	-9.34928
mohlo	-9.34947
▁jistě	-9.34961
▁pokus	-9.34978
▁hry	-9.35096
▁Ba	-9.35114
dob	-9.35161
▁objekt	-9.35193
▁sedm	-9.35206
and	-9.35236
▁stal	-9.35274
viz	-9.35285
▁vysoké	-9.35356
▁Ná	-9.35452
mohla	-9.35604
▁1991	-9.3563
▁východní	-9.35687
▁členů	-9.35894
▁dosavadní	-9.36046
▁teď	-9.36062
▁provoz	-9.36076
▁vítězství	-9.36091
proti	-9.36155
▁milionu	-9.36341
nem	-9.36432
▁Mo	-9.36489
▁nebylo	-9.36609
ována	-9.36699
▁prosince	-9.3674
čky	-9.36741
▁poprvé	-9.36744
▁prostředky	-9.36746
▁akce	-9.36787
▁práv	-9.36846
hal	-9.36847
ej	-9.36952
koli	-9.36972
▁úřad	-9.37104
▁12	-9.37262
▁La	-9.37338
RA	-9.37417
▁konkrétní	-9.3744
▁unie	-9.37445
ic	-9.37459
▁nějak	-9.3784
▁žádný	-9.37907
▁opatření	-9.38144
▁spolupráci	-9.38144
▁výsledky	-9.38144
▁teprve	-9.38166
ily	-9.3819
▁času	-9.38306
▁zdá	-9.38332
iny	-9.38475
▁16	-9.38657
▁her	-9.38812
▁stejné	-9.3885
▁politické	-9.39054
▁Kr	-9.39261
▁jenž	-9.39293
kla	-9.39441
▁1994	-9.39567
▁dat	-9.39611
▁prakticky	-9.39618
▁Pře	-9.39648
mluv	-9.39718
▁vnitřní	-9.39729
▁ODS	-9.39744
ických	-9.40064
čet	-9.401
▁obyvatel	-9.40135
▁trenér	-9.40179
iště	-9.40264
▁hlediska	-9.40287
▁prostřednictví	-9.40287
G	-9.403
▁utkání	-9.40324
J	-9.40418
hn	-9.40521
▁nena	-9.40532
▁stál	-9.40546
▁deseti	-9.40691
▁republice	-9.41011
▁velice	-9.41017
▁procenta	-9.41099
▁zisk	-9.41208
▁projekt	-9.41223
▁ministra	-9.41228
▁celou	-9.41299
▁Pr	-9.41349
▁někdo	-9.41743
▁daně	-9.41844
▁dostal	-9.41914
lek	-9.41943
▁jí	-9.41968
▁znám	-9.42212
rán	-9.42223
raz	-9.42235
▁Vý	-9.4235
▁dispozici	-9.4248
kách	-9.42549
itel	-9.42558
▁Jen	-9.42605
slov	-9.42633
▁souvislosti	-9.42717
díky	-9.42763
hle	-9.42915
▁typu	-9.43216
▁1990	-9.43217
▁telefon	-9.43266
▁řadu	-9.4332
▁řád	-9.43333
NÍ	-9.43375
kol	-9.43593
čení	-9.4373
les	-9.43742
▁kterým	-9.43836
▁změny	-9.43892
▁rámci	-9.43968
▁osobní	-9.44031
▁ledna	-9.44053
▁jejím	-9.44069
plav	-9.44088
▁prostě	-9.44289
▁připraven	-9.44298
▁mo	-9.44355
▁Lu	-9.44437
van	-9.44486
ající	-9.44569
▁sil	-9.44594
▁původní	-9.44718
▁nejméně	-9.44732
▁podařilo	-9.44817
vou	-9.44831
▁vítěz	-9.44844
▁Nej	-9.44847
▁mne	-9.44856
▁bod	-9.44864
▁budeme	-9.44901
ovány	-9.45038
▁sebou	-9.45398
ina	-9.4542
tek	-9.45468
▁roli	-9.45556
▁loni	-9.45566
▁prodej	-9.45612
▁představ	-9.45617
▁všem	-9.4571
▁doma	-9.45904
▁různé	-9.45905
▁státy	-9.45914
▁7	-9.45993
var	-9.46035
aj	-9.46037
▁čs	-9.46179
▁Například	-9.46236
▁podnikání	-9.46272
▁vod	-9.46323
ment	-9.46418
ček	-9.46659
▁9	-9.46814
▁pomoc	-9.46903
▁dá	-9.46998
▁minulý	-9.47009
vní	-9.47028
▁opravdu	-9.47031
▁tolik	-9.47121
▁Jde	-9.47154
▁výše	-9.47211
▁volební	-9.47295
▁výkon	-9.47302
▁právo	-9.47491
▁Č	-9.47539
▁kom	-9.47648
▁miliónů	-9.47781
▁smlouvu	-9.47781
▁snaží	-9.47783
▁Ti	-9.47832
▁nedávno	-9.47835
ická	-9.47899
▁náš	-9.47925
▁nepro	-9.47949
zen	-9.47951
▁vládní	-9.48025
▁18	-9.4804
▁služeb	-9.48119
▁oprav	-9.48431
▁funkci	-9.48563
▁Dnes	-9.48613
▁slov	-9.48709
▁zvýšení	-9.48734
gu	-9.4889
pokoj	-9.48897
▁Roz	-9.48927
▁Zá	-9.48956
▁věc	-9.49289
▁okolí	-9.49353
▁přednost	-9.49382
▁model	-9.49438
▁Kdo	-9.49461
▁slova	-9.49474
▁účast	-9.49487
▁Klaus	-9.49536
▁měsíců	-9.49545
▁hor	-9.49575
▁středu	-9.49813
▁neo	-9.49847
▁získal	-9.49961
▁chování	-9.50122
▁ministerstvo	-9.50143
▁koaliční	-9.50143
▁chtějí	-9.50143
▁zvláštní	-9.50155
▁pojištění	-9.50296
dávají	-9.50322
ér	-9.50323
▁dnech	-9.50324
ským	-9.50345
▁růst	-9.50387
▁sta	-9.50461
▁my	-9.50521
lin	-9.50547
ať	-9.5064
ková	-9.508
▁ode	-9.5081
▁podporu	-9.50818
▁jiného	-9.50899
▁Windows	-9.50943
Š	-9.50979
▁národní	-9.51003
▁ekonomické	-9.51043
▁metrů	-9.51088
zo	-9.51155
▁postupně	-9.51177
▁úřadu	-9.51205
▁plán	-9.51241
fe	-9.51268
iz	-9.51291
fo	-9.51361
▁zahraničních	-9.51402
bar	-9.51505
▁hráčů	-9.51548
▁Al	-9.51567
▁případ	-9.51673
▁rady	-9.51698
▁zpět	-9.5175
▁společenství	-9.51796
▁24	-9.51832
ostí	-9.51914
▁De	-9.51946
šli	-9.51962
▁hlas	-9.52018
ké	-9.52247
▁čeká	-9.52288
bal	-9.5238
▁svazu	-9.52518
▁bývalý	-9.52792
átor	-9.53051
▁republik	-9.53089
▁Pak	-9.53213
▁nemusí	-9.53383
▁2.	-9.53386
▁číslo	-9.53415
▁pořád	-9.53469
nos	-9.53545
vil	-9.53658
▁Zde	-9.53781
nul	-9.53811
mysl	-9.53813
▁pracovníků	-9.53822
▁základ	-9.53861
▁podobně	-9.54021
šť	-9.54035
▁míst	-9.54201
▁poslanců	-9.54209
▁přibližn	-9.54209
▁ročně	-9.54212
▁zástupce	-9.54223
▁nadále	-9.54337
▁tržní	-9.54374
▁klubu	-9.54395
▁Bude	-9.54516
ovaly	-9.54601
len	-9.54726
▁14	-9.54813
▁Pod	-9.54817
▁klub	-9.54929
tor	-9.5497
ska	-9.54971
▁disk	-9.55012
▁MS	-9.5511
▁neod	-9.55114
ložit	-9.55161
kami	-9.5545
▁poměr	-9.55758
nk	-9.55797
▁Většin	-9.55882
▁nabídky	-9.55883
▁hospodářství	-9.55883
▁lépe	-9.55891
▁každ	-9.55905
▁hodně	-9.55971
▁počtu	-9.55976
ovalo	-9.56005
▁týmu	-9.56031
▁In	-9.56073
▁podniky	-9.56226
stává	-9.56234
▁led	-9.56293
▁generální	-9.56324
▁sami	-9.56326
ického	-9.56365
▁muž	-9.56513
▁manžel	-9.56609
▁přesně	-9.56646
▁umožňuje	-9.5673
▁podstatně	-9.56785
bor	-9.5682
nění	-9.56823
▁jenom	-9.56832
▁svaz	-9.56948
▁titul	-9.57126
▁problémů	-9.57201
cký	-9.57342
▁Ani	-9.57383
▁olympijské	-9.57389
▁vede	-9.5748
▁ta	-9.57504
▁Ho	-9.57539
▁fondu	-9.57544
▁považuje	-9.57585
▁začíná	-9.57586
ický	-9.57637
▁případech	-9.5767
▁musíme	-9.5767
▁říci	-9.57691
▁potvrdil	-9.57703
▁novou	-9.57762
▁městě	-9.57839
AN	-9.5786
▁závod	-9.57991
▁vů	-9.58105
▁občanů	-9.58193
▁banky	-9.58315
▁rozvoj	-9.58332
íky	-9.58419
▁obvykle	-9.58447
▁sítě	-9.58455
▁pomoci	-9.5849
▁oddělení	-9.58538
▁českého	-9.58622
▁řada	-9.5865
▁možností	-9.58702
rát	-9.58754
stoupil	-9.58765
ujeme	-9.58872
▁vedle	-9.58873
ele	-9.58935
▁Ze	-9.58961
▁dopis	-9.59095
▁nebyla	-9.59206
▁Br	-9.59285
▁otázku	-9.59316
▁výrobků	-9.59316
▁politiky	-9.59444
▁průběhu	-9.59647
▁úspěch	-9.59706
kul	-9.59754
▁ryb	-9.59864
▁22	-9.60013
ené	-9.60061
▁změn	-9.60075
▁tým	-9.60124
▁skupin	-9.60139
▁nabízí	-9.60193
Dr	-9.60241
▁nemají	-9.60297
▁miliardy	-9.60343
▁ulici	-9.60418
▁17	-9.60427
▁zdrojů	-9.60471
▁výbor	-9.60548
▁výzkum	-9.6068
▁skutečnost	-9.60798
▁kterém	-9.60801
▁moci	-9.60831
dra	-9.60871
▁krok	-9.60993
▁takto	-9.61038
uji	-9.61047
▁otázka	-9.61078
▁otázky	-9.61078
▁úrovni	-9.61078
▁chvíli	-9.61079
▁celkem	-9.61083
ovaná	-9.61085
▁Česká	-9.61098
slav	-9.61123
▁uvádí	-9.61193
▁moderní	-9.61407
▁celkové	-9.61422
št	-9.61543
potřeb	-9.61655
rak	-9.61667
▁pražské	-9.61725
▁Už	-9.61806
znal	-9.6182
▁věd	-9.61864
▁mistrovství	-9.61971
tím	-9.62046
▁film	-9.62215
▁postavení	-9.62253
▁cestu	-9.62282
▁jednom	-9.62283
▁názoru	-9.62424
▁objektů	-9.62425
▁dohody	-9.62434
▁schopn	-9.62459
kor	-9.6251
▁byt	-9.62554
ané	-9.62555
ď	-9.62693
000	-9.62754
▁energie	-9.62872
▁dětí	-9.62872
▁zaměstnanců	-9.62873
▁NATO	-9.62875
lem	-9.62931
▁proces	-9.62986
▁textu	-9.63056
▁pozornost	-9.63144
▁automobil	-9.63215
mer	-9.63344
▁Pří	-9.6338
▁počítače	-9.63449
SE	-9.63461
ak	-9.63476
nc	-9.63485
tur	-9.63611
▁chtěl	-9.63722
▁společností	-9.63724
ó	-9.63746
nil	-9.6377
▁strana	-9.63771
▁finále	-9.63781
▁ba	-9.63806
cím	-9.63844
▁kterých	-9.63943
pil	-9.63953
▁představuje	-9.63982
▁měsíce	-9.63999
▁takový	-9.64026
EN	-9.64027
▁listopadu	-9.64043
▁provozu	-9.64085
▁setkání	-9.64158
▁vybavení	-9.64167
▁působí	-9.64201
▁obsah	-9.64239
▁budoucí	-9.64332
▁každé	-9.64424
▁sama	-9.64516
▁Sa	-9.64534
▁nikoli	-9.64567
▁prostředků	-9.64701
▁musel	-9.64706
▁Země	-9.64716
▁cizí	-9.64738
▁čtvrtek	-9.64743
mír	-9.648
▁Tím	-9.64815
▁Ještě	-9.64817
▁světové	-9.64825
▁skupina	-9.64832
▁Ha	-9.64897
▁současně	-9.64925
▁obchodního	-9.64995
níci	-9.65005
▁řadě	-9.65025
▁příští	-9.65044
▁parlament	-9.65189
atel	-9.65239
▁Da	-9.65305
nské	-9.65448
brán	-9.65485
▁platit	-9.6554
▁výrobky	-9.65625
▁Navíc	-9.65625
▁Nyní	-9.65629
▁OSN	-9.65637
▁produkce	-9.6565
nic	-9.65704
sil	-9.65715
▁atd	-9.65834
▁vztah	-9.65885
▁Zeman	-9.6591
▁neděli	-9.65972
pen	-9.66049
▁obchod	-9.66264
▁nemoc	-9.66298
ster	-9.6634
▁oba	-9.66356
▁druhém	-9.66422
rop	-9.66472
▁skutečnosti	-9.66482
ge	-9.66522
▁hrát	-9.66543
▁obchodu	-9.66545
▁Josef	-9.66559
▁federální	-9.66559
▁zasedání	-9.66565
▁dobrý	-9.66622
▁muset	-9.6666
▁zdroje	-9.66679
he	-9.66787
▁kvalitní	-9.66829
ard	-9.66899
▁dr	-9.67074
▁hlavním	-9.67139
pt	-9.67179
▁Dr	-9.67205
un	-9.67221
py	-9.67227
go	-9.6724
▁nepře	-9.67257
stal	-9.67315
▁prezentace	-9.67503
▁srovnání	-9.67504
▁speciální	-9.67512
▁ti	-9.67539
▁začátku	-9.67557
ca	-9.67595
▁kterého	-9.67635
▁výboru	-9.67659
▁jiný	-9.6776
▁Li	-9.67853
▁součástí	-9.67883
jící	-9.67939
▁mluvčí	-9.67946
▁bank	-9.67974
▁akcií	-9.6799
inu	-9.68012
▁přiče	-9.68039
álně	-9.68054
▁zápas	-9.68061
▁použití	-9.68066
▁hodnoty	-9.68075
ík	-9.68087
Ž	-9.68118
vání	-9.68243
▁start	-9.68356
▁teorie	-9.68455
▁buď	-9.68459
▁1989	-9.6846
▁privatizace	-9.68462
▁apod	-9.68477
vu	-9.68513
▁jasné	-9.68652
▁školy	-9.68675
▁vzor	-9.68704
th	-9.68785
▁ME	-9.68835
▁21	-9.68857
▁společné	-9.68991
▁plně	-9.69028
▁vyhrál	-9.69256
nský	-9.69262
▁těm	-9.69278
▁poně	-9.69317
▁šéf	-9.69539
ang	-9.69567
▁domů	-9.69629
▁ním	-9.69776
▁dopravy	-9.69777
▁Be	-9.69801
▁kolik	-9.699
▁objektu	-9.69901
▁jednotlivé	-9.69926
▁závěr	-9.70023
▁našem	-9.70063
ovými	-9.70205
▁Ku	-9.70258
▁možno	-9.70305
▁veřejné	-9.70387
▁zdravotnictví	-9.70387
▁umění	-9.70389
▁Někter	-9.7039
▁zvolen	-9.70428
▁Ivan	-9.70458
▁Jelcin	-9.70476
ST	-9.70518
psal	-9.70585
▁následující	-9.70637
eta	-9.70646
▁papír	-9.70754
▁hra	-9.70906
▁telefonní	-9.70943
▁Čí	-9.71037
▁údaje	-9.71055
kli	-9.71061
▁Bylo	-9.71152
▁gól	-9.71368
▁nebezpečí	-9.71368
▁podobě	-9.7137
▁Pavel	-9.71376
▁rozhodující	-9.71422
▁Podobn	-9.71431
▁ostatních	-9.71442
▁vznikl	-9.71585
▁investice	-9.71604
▁státního	-9.71667
mar	-9.71688
▁celého	-9.71704
▁noci	-9.71797
▁kultury	-9.71836
▁akci	-9.71868
nek	-9.71876
▁práva	-9.71946
ben	-9.71995
▁spojení	-9.72035
▁vstup	-9.72369
jem	-9.72445
▁společně	-9.72471
▁dalším	-9.72509
▁zájmu	-9.7268
▁snadno	-9.72683
▁soutěže	-9.72686
▁vzájemn	-9.72692
▁aktivit	-9.72698
▁60	-9.72729
▁smrti	-9.72753
den	-9.72758
Č	-9.72826
nd	-9.72835
▁politických	-9.7284
▁spojen	-9.72858
▁Proč	-9.72924
rob	-9.73151
▁projev	-9.73167
např	-9.73184
řitom	-9.73221
tem	-9.73251
voz	-9.73337
▁televizní	-9.73358
▁jméno	-9.7336
▁Miloš	-9.73361
▁Toto	-9.73433
nici	-9.73455
šti	-9.73476
▁tisíce	-9.73501
jev	-9.73534
▁střel	-9.73563
▁70	-9.7379
▁vyz	-9.73817
oč	-9.74045
vláště	-9.74084
▁Čech	-9.7411
ární	-9.74183
▁Rad	-9.74267
▁určen	-9.74296
▁snímek	-9.74369
▁Stejn	-9.74386
▁hnutí	-9.74386
▁zdraví	-9.74402
ností	-9.74414
▁lidi	-9.74462
▁post	-9.7448
▁český	-9.74493
chází	-9.74502
rád	-9.74516
cké	-9.74516
bud	-9.74517
▁počítač	-9.74565
▁důvodů	-9.74595
▁nejvíce	-9.746
▁vytvoření	-9.74655
▁rád	-9.74655
▁list	-9.74758
▁předem	-9.74833
▁trvá	-9.74886
nese	-9.7489
▁trest	-9.74945
▁Tu	-9.74994
▁plné	-9.75121
▁žen	-9.75274
rovna	-9.75331
ena	-9.75349
▁Jaroslav	-9.75388
▁motiv	-9.75389
▁pás	-9.75427
▁vzhledem	-9.75443
▁konci	-9.75566
▁velkou	-9.75655
▁manažer	-9.75791
▁mužů	-9.75902
▁jisté	-9.75928
pad	-9.75947
▁mil	-9.75949
▁dává	-9.75993
▁hráči	-9.76083
ok	-9.76236
píše	-9.76317
▁Český	-9.76319
▁těžko	-9.7642
▁okolo	-9.76424
▁podobný	-9.76439
ovo	-9.76444
▁Já	-9.7645
▁pocit	-9.76485
▁daleko	-9.76576
▁Ž	-9.76586
▁nákup	-9.76616
▁soudu	-9.76619
▁odmítl	-9.76634
▁plyn	-9.76741
▁typ	-9.76805
však	-9.76809
ika	-9.76823
▁tr	-9.77002
▁spíš	-9.77037
▁gen	-9.77051
▁An	-9.77066
ler	-9.77109
▁vyh	-9.77136
svoji	-9.77314
▁náměstí	-9.77461
▁přátel	-9.77468
▁delší	-9.77469
▁někteří	-9.77469
▁zástupci	-9.77471
▁září	-9.77485
▁světový	-9.7749
▁zaměstnání	-9.77503
▁rukou	-9.77503
▁kilometrů	-9.77543
▁obsahuje	-9.77553
▁hodiny	-9.7758
▁prodeje	-9.77654
▁Ru	-9.77754
▁oboru	-9.77889
▁přijat	-9.77899
▁celkov	-9.77906
ici	-9.77916
▁Izrael	-9.77933
kovi	-9.7794
elný	-9.78098
▁věku	-9.78112
nka	-9.78123
rat	-9.78137
▁koncem	-9.78138
▁smysl	-9.78205
▁způsobil	-9.78341
▁kulturní	-9.78393
▁mohly	-9.78462
ění	-9.78509
▁výsledek	-9.78514
▁cestovní	-9.78514
půjč	-9.78524
▁majitel	-9.78532
est	-9.78683
▁motor	-9.78693
tky	-9.78697
▁pu	-9.78704
▁přišel	-9.78775
▁druhů	-9.78818
▁ředitele	-9.78888
čku	-9.78945
▁zkušenosti	-9.78987
tů	-9.79055
ovaného	-9.79079
▁řad	-9.79148
měř	-9.79315
▁odhad	-9.79507
▁Kčs	-9.79536
▁aplikace	-9.79577
▁existuje	-9.79577
▁nejbližší	-9.79577
▁podmínek	-9.79577
▁nebudou	-9.79578
▁Může	-9.79579
▁zůstává	-9.79579
▁dnů	-9.79601
▁přechod	-9.79624
▁koalice	-9.79692
▁olympijský	-9.79718
▁pracovat	-9.79734
▁objekty	-9.79752
OV	-9.79812
▁hospodářské	-9.79912
nci	-9.80083
▁Jedno	-9.80158
▁stavební	-9.80158
čil	-9.80166
koliv	-9.80227
▁Ber	-9.80232
▁měst	-9.80245
▁každého	-9.80282
▁nějaké	-9.80307
30	-9.80427
▁fond	-9.80516
▁výměn	-9.8054
▁příprav	-9.80614
▁smyslu	-9.80622
▁úroveň	-9.80653
▁starší	-9.80657
▁výnos	-9.80663
▁termín	-9.80695
▁tady	-9.80703
CE	-9.80801
stál	-9.80822
▁případně	-9.8084
▁dosáhl	-9.80891
▁minulosti	-9.8094
19	-9.81153
ismu	-9.81166
▁nová	-9.81316
▁běžné	-9.81456
▁rychlost	-9.81612
▁Nové	-9.81719
▁poslanci	-9.8174
▁pátek	-9.8174
▁praxi	-9.81741
▁jediný	-9.81793
alo	-9.81796
▁lékař	-9.81818
pravidla	-9.81821
dají	-9.81877
▁pla	-9.81901
dění	-9.81917
▁určitě	-9.81923
▁příklad	-9.81925
▁Každý	-9.81973
nictví	-9.81995
▁Brně	-9.82007
tal	-9.82036
▁Bez	-9.82166
▁skončil	-9.82368
jet	-9.8239
▁loňské	-9.82517
fer	-9.82548
zv	-9.82553
lék	-9.82567
▁mám	-9.82584
▁Pan	-9.82613
jat	-9.82626
▁dotaz	-9.82666
řad	-9.82669
▁stud	-9.82721
ký	-9.82785
▁tun	-9.82797
der	-9.82813
▁lékaře	-9.82817
▁důležité	-9.82839
▁vidět	-9.82839
puštěn	-9.82839
▁šanci	-9.82839
▁příkaz	-9.8284
mž	-9.82872
▁prvního	-9.82923
▁druh	-9.82994
tel	-9.83082
▁kvality	-9.83099
óz	-9.83149
▁syn	-9.8319
áři	-9.83395
ala	-9.83406
▁Bu	-9.83482
ton	-9.83527
dává	-9.83669
▁oblast	-9.8382
▁výrobce	-9.8395
▁Přes	-9.83953
▁síly	-9.83962
▁volbách	-9.83976
▁stačí	-9.8401
▁července	-9.84019
▁odpovídá	-9.8404
jezd	-9.84052
▁dny	-9.84101
por	-9.8411
▁léta	-9.84113
▁nikoliv	-9.84137
▁podnikatel	-9.84148
din	-9.84165
▁změnit	-9.84192
▁nárok	-9.8428
▁pís	-9.84438
šek	-9.84454
SK	-9.84475
▁Německa	-9.84524
▁knihy	-9.84577
byl	-9.84586
ren	-9.84644
▁členy	-9.84678
port	-9.84723
▁porad	-9.84737
▁vyp	-9.84803
ismus	-9.84842
▁doba	-9.84989
▁zemřel	-9.85075
raději	-9.85099
cházejí	-9.85125
▁Jeden	-9.85128
dit	-9.85129
▁podstatě	-9.85217
ložil	-9.85323
▁nákladů	-9.85326
třech	-9.85372
▁hvězd	-9.85396
▁zranění	-9.85453
▁vývoje	-9.85637
ROM	-9.8565
▁tisku	-9.85963
tvo	-9.8599
▁Ar	-9.86089
pit	-9.8611
▁Ministerstv	-9.8621
▁oprávněn	-9.8621
▁technologie	-9.8621
▁výrobu	-9.8621
▁tepla	-9.86212
▁vět	-9.86226
▁úplně	-9.86233
▁představitelé	-9.86316
▁vrchol	-9.86323
▁investiční	-9.86325
▁přehled	-9.86359
▁techniky	-9.86386
▁rozšíření	-9.86453
▁koncert	-9.86458
▁druhou	-9.86585
▁host	-9.86689
▁činí	-9.86691
isté	-9.86705
▁Že	-9.86765
▁23	-9.86822
▁podobné	-9.86845
▁živ	-9.86887
▁voleb	-9.86936
▁Již	-9.86952
nů	-9.87061
▁dokument	-9.87243
icky	-9.87293
▁síť	-9.87368
▁míry	-9.87533
▁Nový	-9.87538
▁podnikatele	-9.87548
▁vys	-9.87583
▁celá	-9.87602
ujících	-9.8772
▁výrobní	-9.87791
▁volby	-9.87806
lík	-9.87824
▁zprávy	-9.87843
▁polovin	-9.87912
ováním	-9.8792
▁boj	-9.88012
her	-9.88112
▁rodin	-9.88172
šit	-9.88177
▁jakým	-9.88226
kládá	-9.88263
nce	-9.88325
▁Ra	-9.88341
▁ruské	-9.88381
▁novin	-9.88457
▁domu	-9.88474
▁Če	-9.8848
▁vytvořit	-9.88522
▁jízd	-9.88584
▁dvakrát	-9.88585
zení	-9.88586
▁výběr	-9.8862
skoro	-9.88622
▁podnikatelů	-9.88626
▁80	-9.88731
▁chcete	-9.88869
▁dal	-9.8887
▁pre	-9.88884
▁popis	-9.88934
▁sportovní	-9.8897
vede	-9.88972
nky	-9.89015
▁spoj	-9.89018
▁dvacet	-9.89021
▁vlastnosti	-9.89035
▁spor	-9.89055
▁pracuje	-9.89087
vé	-9.89096
▁kap	-9.89098
bývá	-9.89165
▁těles	-9.89263
▁bytů	-9.89273
▁chod	-9.89281
▁vaše	-9.89283
ten	-9.89334
padl	-9.8948
▁národ	-9.89521
nec	-9.89542
jdou	-9.8964
▁financí	-9.89698
▁Kar	-9.89724
IN	-9.89726
dů	-9.89732
▁konečně	-9.89782
▁Kdyby	-9.89783
▁též	-9.89785
tah	-9.89798
▁návrhu	-9.89816
▁bývá	-9.89834
▁vývoz	-9.89862
značně	-9.89895
▁každém	-9.89917
ěte	-9.89929
▁Hrad	-9.90001
▁jaký	-9.9004
son	-9.90049
ováno	-9.90112
▁partner	-9.90148
ává	-9.90201
▁vrátil	-9.90221
LA	-9.90244
šení	-9.90269
▁SR	-9.90317
▁počítá	-9.90348
10	-9.90364
▁Její	-9.90386
▁dělat	-9.90547
▁seznam	-9.90573
▁jít	-9.90813
▁Di	-9.90864
▁federace	-9.90889
▁firmě	-9.90889
▁použít	-9.90889
▁výsledků	-9.90889
▁Všechny	-9.90889
▁fotbalové	-9.90896
▁současnosti	-9.90918
▁prv	-9.90923
zhledem	-9.90928
▁dvaceti	-9.9094
▁evropských	-9.90954
íte	-9.91001
▁zpracování	-9.91012
▁obrany	-9.91295
▁hráč	-9.91312
▁průmyslu	-9.91339
▁hranice	-9.91359
ickou	-9.91422
▁Německu	-9.91453
▁bodů	-9.91513
▁bezpečnostní	-9.91543
▁prav	-9.91562
▁vojenské	-9.91779
tní	-9.91789
AR	-9.918
myšlen	-9.9183
▁pole	-9.91868
ejte	-9.92062
▁Společenství	-9.92094
▁Vladimír	-9.92094
▁Právě	-9.92094
▁nejlépe	-9.92095
▁zbraní	-9.92095
zem	-9.92097
▁pravděpodobně	-9.92105
vnitř	-9.92111
▁dostat	-9.92124
▁Běh	-9.92132
▁původně	-9.92164
▁osmi	-9.92224
▁Měl	-9.9227
hla	-9.92329
▁objeví	-9.9236
uto	-9.92422
▁opak	-9.92443
▁Cen	-9.92478
vají	-9.92489
▁autobus	-9.92513
cího	-9.92544
EL	-9.92571
tivní	-9.92584
▁pokles	-9.92585
star	-9.9268
▁použit	-9.92703
▁ochran	-9.92705
▁Firma	-9.92706
▁amerických	-9.92725
▁cílem	-9.92755
▁přírodní	-9.92795
▁export	-9.92805
▁osoby	-9.92869
ška	-9.92876
▁občan	-9.92892
šil	-9.92904
▁proud	-9.93001
▁disku	-9.93018
▁kancelář	-9.9318
▁slovo	-9.93203
jak	-9.93274
▁vidí	-9.93299
▁dlouhé	-9.93313
▁předpokládá	-9.93313
▁důvod	-9.93323
▁patrně	-9.93324
▁člen	-9.93333
▁udělat	-9.9336
▁dokáže	-9.9343
▁dostane	-9.93441
▁sněmovny	-9.93546
▁roční	-9.93639
zní	-9.93682
▁vhodné	-9.93723
▁rad	-9.93868
W	-9.93927
▁volné	-9.93952
ned	-9.93985
ide	-9.94044
▁Star	-9.94058
▁prostoru	-9.94132
▁ženy	-9.94184
▁zůstal	-9.9421
ávat	-9.94339
▁NA	-9.94352
▁kurz	-9.94369
▁informační	-9.94548
▁hovoří	-9.94548
▁jazyk	-9.94548
▁čísla	-9.94548
▁brzy	-9.94549
▁pravda	-9.94584
▁úvěr	-9.94606
▁těmi	-9.94666
▁využití	-9.94694
▁metod	-9.94829
▁růstu	-9.9491
▁lidský	-9.95066
▁zisku	-9.95076
▁auto	-9.9512
50	-9.95203
mor	-9.95338
▁veřejnosti	-9.95338
▁ústavu	-9.95347
▁rokem	-9.95351
▁severní	-9.95372
net	-9.95599
▁tenis	-9.95616
▁záznam	-9.9566
▁Ca	-9.95695
▁zas	-9.95697
▁většinu	-9.95798
▁dovolenou	-9.95798
▁jinde	-9.95798
▁péče	-9.95798
▁začne	-9.9583
▁nemohou	-9.95832
▁místopředsed	-9.95885
ll	-9.95916
pel	-9.95918
dávat	-9.95946
▁vědět	-9.95951
▁vládě	-9.95982
▁objevil	-9.95997
▁(1	-9.9607
▁molekul	-9.96254
▁denně	-9.9629
ita	-9.9632
▁čele	-9.96363
▁témat	-9.96409
▁90	-9.96432
▁kop	-9.96481
bře	-9.96534
▁takovou	-9.96552
vz	-9.96572
▁národního	-9.96611
nické	-9.96637
▁mění	-9.96672
▁Ke	-9.96739
▁data	-9.96746
▁vědecké	-9.96766
▁prací	-9.96973
▁vodní	-9.96983
▁stanoven	-9.96999
▁pokračovat	-9.97063
▁pozadí	-9.97064
▁látky	-9.9707
ovu	-9.97076
▁kruh	-9.97091
▁stala	-9.97102
▁nechce	-9.97158
▁sluneční	-9.97185
▁500	-9.97191
▁čem	-9.9722
▁New	-9.97256
ij	-9.97275
▁snížení	-9.97296
▁2000	-9.97308
měr	-9.97497
ření	-9.97528
▁veřejnost	-9.97531
▁potřebné	-9.97804
▁podrob	-9.97938
▁stalo	-9.98178
dal	-9.98261
dával	-9.98271
▁UEFA	-9.98346
▁demokracie	-9.98346
▁důležitý	-9.98346
▁hodnocení	-9.98346
▁oficiální	-9.98346
▁označil	-9.98346
▁televizi	-9.98346
▁naprosto	-9.98346
▁Spojený	-9.98347
▁kurs	-9.98351
▁Havel	-9.98352
▁nijak	-9.98356
▁kolo	-9.98401
▁300	-9.98409
▁ukazuje	-9.98447
▁okamžitě	-9.98472
▁procesu	-9.98515
▁míru	-9.98597
ír	-9.98598
▁povrch	-9.98616
ený	-9.98642
▁rada	-9.98682
▁zabývá	-9.98685
▁jednot	-9.98743
▁nebyly	-9.98786
▁roze	-9.98803
▁bezpečnosti	-9.98855
dní	-9.98879
▁cesty	-9.98941
▁současn	-9.99071
▁pozor	-9.99151
▁vzniku	-9.99302
▁dát	-9.9948
rovná	-9.9951
▁téma	-9.99613
▁majetek	-9.99644
▁řečeno	-9.99645
▁počasí	-9.99647
taj	-9.99674
▁ČSSD	-9.99689
▁členové	-9.9974
procesor	-9.99743
▁body	-9.99817
▁potřeby	-9.99844
▁stanice	-9.99932
kázal	-10.0003
▁kanceláře	-10.0015
▁sklad	-10.0015
▁pra	-10.0024
▁vládu	-10.0027
▁respekt	-10.0032
ivé	-10.0038
▁35	-10.0057
ňuje	-10.006
▁lékaři	-10.0062
▁28	-10.0063
▁odborné	-10.0072
KA	-10.0076
▁nemohl	-10.0079
▁řady	-10.0081
▁hodnot	-10.0081
▁rekord	-10.0094
▁onemocnění	-10.0096
▁požadavky	-10.0096
▁příjmy	-10.0096
▁rozhodně	-10.0096
▁názvem	-10.0096
▁nějaký	-10.0098
▁učitel	-10.0104
▁dosáhnout	-10.0105
▁lidem	-10.0106
▁Martin	-10.0116
▁systémů	-10.0122
HO	-10.0127
▁dospěl	-10.0129
▁Slovensku	-10.0133
▁standard	-10.0138
▁ekonomiky	-10.0142
▁dodává	-10.0143
▁variant	-10.0149
▁zahájení	-10.0149
▁počátku	-10.0149
lení	-10.015
▁zákony	-10.0155
hi	-10.0155
▁ploch	-10.0172
zu	-10.0174
▁postoj	-10.0185
▁čtvrt	-10.0194
loží	-10.0206
▁odbor	-10.0208
ňování	-10.0208
▁potravin	-10.0213
cházet	-10.0216
▁konference	-10.0229
▁televize	-10.0229
▁vánoční	-10.0229
▁hlavního	-10.023
▁ligy	-10.023
▁policejní	-10.023
▁funkcí	-10.0233
▁účel	-10.0248
▁slib	-10.0254
▁Státní	-10.0256
▁jednak	-10.0264
▁získá	-10.0266
▁soubor	-10.0277
res	-10.0283
▁třicet	-10.0284
▁Hor	-10.0285
▁celém	-10.0285
▁prů	-10.0286
RO	-10.0289
nému	-10.0292
▁mechaniky	-10.0294
stran	-10.0299
▁cit	-10.0302
▁společného	-10.0305
▁vybaven	-10.0307
vad	-10.0308
OR	-10.0316
▁přístupu	-10.0317
žení	-10.0326
leté	-10.0344
dat	-10.0346
▁Prezident	-10.0364
▁poskytuje	-10.0364
▁připravil	-10.0364
▁zásah	-10.0364
▁Československu	-10.0364
▁zločin	-10.0365
▁vnitra	-10.0365
▁velká	-10.0365
▁Vše	-10.0368
▁soutěž	-10.0376
věřil	-10.038
▁1,	-10.0389
▁prost	-10.0392
▁Společnost	-10.0394
▁PowerPoint	-10.0397
▁škody	-10.0398
kový	-10.0403
▁rychlostí	-10.0409
ion	-10.0411
▁hotel	-10.0412
▁nechal	-10.0413
▁zvyk	-10.0413
▁parlamentní	-10.0414
▁druhá	-10.0415
▁Aby	-10.0417
▁Kub	-10.0423
počítá	-10.0427
▁řekla	-10.0427
▁aktiv	-10.0432
▁Velké	-10.044
▁Bar	-10.0443
▁ES	-10.0447
sed	-10.0449
dla	-10.0453
▁trestní	-10.0454
▁přenos	-10.046
brž	-10.046
▁obrat	-10.0463
▁struktur	-10.0464
▁souboru	-10.0469
▁druhého	-10.0469
▁radost	-10.0481
plnění	-10.0486
▁měsíc	-10.0488
▁obcí	-10.0489
▁druhu	-10.0492
vádí	-10.0493
▁bran	-10.0494
▁lékařů	-10.0495
kovou	-10.0496
▁teplo	-10.0496
▁kláves	-10.0501
▁zemědělství	-10.0501
▁servis	-10.0502
▁látek	-10.0502
▁ohledu	-10.0503
▁desítky	-10.0504
▁měsících	-10.0504
▁najít	-10.0504
▁teplot	-10.0505
staví	-10.0508
▁Čechách	-10.0508
▁Atlantě	-10.0509
ani	-10.0509
▁daní	-10.051
▁závěru	-10.051
držel	-10.0512
▁zaplatí	-10.0521
▁Cel	-10.0524
▁povinnost	-10.0526
TA	-10.0527
▁zákoníku	-10.0527
▁vydání	-10.0531
▁rozhodl	-10.0539
▁strom	-10.0543
▁jinou	-10.0544
▁hladin	-10.0544
▁město	-10.0559
▁planet	-10.056
OH	-10.0567
▁správy	-10.057
▁str	-10.0573
▁dopravní	-10.0584
▁odpad	-10.0585
vali	-10.0587
méně	-10.0593
pustí	-10.0593
lat	-10.0594
lep	-10.0602
▁takového	-10.0603
▁zákonů	-10.0606
▁Američan	-10.0608
▁vznik	-10.061
▁obr	-10.0612
▁výběru	-10.0624
▁díl	-10.0624
letý	-10.0633
▁napsal	-10.0635
odpovědn	-10.0638
▁hudební	-10.064
▁schopen	-10.064
▁tradiční	-10.064
▁ustanovení	-10.064
▁výrobců	-10.064
▁těžký	-10.064
▁Francie	-10.064
▁Národní	-10.064
▁nabídku	-10.064
▁snímků	-10.064
▁pořadatel	-10.0641
▁evropské	-10.0643
▁uplatnění	-10.0648
▁společný	-10.0654
ger	-10.0655
▁oznámil	-10.0668
▁pohyb	-10.067
▁ráno	-10.0672
▁přijde	-10.0675
▁státech	-10.0677
ER	-10.0683
LI	-10.0685
kám	-10.0687
▁hráče	-10.069
▁dalšího	-10.0694
▁Jin	-10.0696
▁slavn	-10.0697
před	-10.07
nského	-10.0707
▁minulé	-10.0708
▁přesvědčen	-10.0724
něk	-10.0728
▁hranic	-10.0734
▁začali	-10.0739
▁nově	-10.0742
▁NE	-10.0746
▁zásob	-10.0746
▁řeč	-10.0753
▁27	-10.077
fu	-10.0775
▁důsled	-10.0778
▁těžké	-10.0781
▁využít	-10.0781
▁přijetí	-10.0781
▁působení	-10.0782
▁odměn	-10.0782
▁řešit	-10.0782
▁domov	-10.0783
▁rozpočet	-10.0784
▁školství	-10.0784
▁hodlá	-10.0784
▁samo	-10.0786
60	-10.0787
▁tentokrát	-10.0787
▁převážně	-10.0791
▁nim	-10.0791
▁zajistit	-10.0793
▁stroj	-10.0794
▁ceně	-10.0801
pak	-10.0803
▁příjem	-10.0804
▁dějin	-10.0805
▁Takže	-10.0811
▁družstev	-10.0812
▁pořadí	-10.0814
▁vztahu	-10.0818
▁vysokou	-10.0819
▁částky	-10.082
▁vyplývá	-10.0826
ke	-10.0826
▁útok	-10.0826
▁změna	-10.0829
▁okamžiku	-10.0832
vedou	-10.0834
▁údajn	-10.0836
blíž	-10.0837
▁jednotliv	-10.0837
▁blok	-10.0839
▁rezerv	-10.0841
▁omezen	-10.0842
▁slovenské	-10.0844
▁jiná	-10.0846
▁knih	-10.0849
▁rozum	-10.085
▁%.	-10.0851
▁kal	-10.0854
▁polo	-10.0861
▁chybí	-10.0875
rit	-10.088
▁úprav	-10.0885
ško	-10.0886
sáhl	-10.0886
▁Lib	-10.0896
▁potřebuje	-10.0902
▁Bra	-10.0903
▁chtěli	-10.0908
SP	-10.0911
▁jednat	-10.0914
vel	-10.0915
▁nesmí	-10.0921
▁kandidát	-10.0924
▁bohužel	-10.0924
▁nejrůznější	-10.0924
▁spolupráce	-10.0924
▁družstva	-10.0924
dostatečně	-10.0924
▁Mezinárodní	-10.0925
řídil	-10.0926
▁seznamu	-10.0933
▁povolení	-10.0934
▁místech	-10.0938
▁udělal	-10.0942
ovský	-10.0943
mj	-10.0943
▁moře	-10.0944
▁mimořádn	-10.0948
▁názory	-10.0948
▁takovém	-10.0949
▁směrem	-10.095
▁cestou	-10.0953
▁údajů	-10.0954
▁výhod	-10.0964
dané	-10.0976
▁nejde	-10.0978
dali	-10.0982
rab	-10.0982
rou	-10.0983
▁Ni	-10.0988
zoval	-10.1001
▁400	-10.1002
▁výš	-10.1005
▁zdroj	-10.1005
▁demokratické	-10.101
ive	-10.1022
ast	-10.1038
▁myslím	-10.1046
▁posl	-10.1048
vané	-10.1049
▁soukromé	-10.1052
▁máte	-10.1054
▁hromad	-10.106
▁jestli	-10.1064
▁pondělí	-10.1069
▁prezentaci	-10.1069
▁vyslovil	-10.1069
▁smluvní	-10.107
▁mistr	-10.1071
▁měsíční	-10.1078
ckých	-10.108
▁pravidelně	-10.1081
▁předtím	-10.1086
hodný	-10.1087
▁armády	-10.1088
pře	-10.1089
▁kola	-10.1091
▁výzkumu	-10.1093
▁materiál	-10.111
kat	-10.1114
▁zákaz	-10.1117
číst	-10.112
▁známé	-10.1154
▁systémy	-10.1156
▁případů	-10.116
řídit	-10.1161
řka	-10.1164
▁žádn	-10.1171
▁turnaj	-10.1172
▁vz	-10.1174
▁tisk	-10.1178
▁uvedla	-10.1184
▁vztahy	-10.1195
▁odbyt	-10.1201
▁vědy	-10.1201
▁neměl	-10.1204
▁HIV	-10.1216
▁Poslední	-10.1216
▁konferenci	-10.1216
▁podmínkách	-10.1216
▁příjmů	-10.1216
▁úrovně	-10.1216
▁června	-10.1216
▁spoust	-10.1217
▁radnice	-10.1218
▁Mlad	-10.1218
▁Pavl	-10.122
▁Zákon	-10.1221
▁výjimkou	-10.1224
▁Du	-10.1225
▁Han	-10.1228
▁LN	-10.123
▁podpis	-10.1231
▁dané	-10.1239
▁dvanáct	-10.1239
▁par	-10.1241
▁změnu	-10.1241
▁pravé	-10.1242
▁politiku	-10.1244
aly	-10.1247
▁daňové	-10.1247
▁taková	-10.125
▁zásad	-10.1259
▁částku	-10.1262
▁přijal	-10.1266
▁mechanika	-10.1278
▁přízniv	-10.1281
▁velikost	-10.1283
▁vysoký	-10.1293
▁politický	-10.1293
▁rodiny	-10.1316
▁němu	-10.1317
ovské	-10.1317
▁My	-10.1324
klo	-10.1327
▁konkurence	-10.1329
▁tiskové	-10.133
▁očekává	-10.1331
dělal	-10.1332
▁Každ	-10.1334
▁součást	-10.1334
▁sedmi	-10.1334
▁sestav	-10.1339
níků	-10.1343
▁vln	-10.1348
▁Jedna	-10.1351
▁museli	-10.1351
▁vydal	-10.1354
▁směru	-10.1363
▁Největší	-10.1365
▁Současn	-10.1365
▁většině	-10.1365
▁kapitol	-10.1365
▁války	-10.1365
▁účetnictví	-10.1365
▁aliance	-10.1366
▁tvrzení	-10.1367
drží	-10.1371
▁centra	-10.1371
▁Naše	-10.1375
rozměr	-10.1376
násob	-10.1376
padá	-10.1376
▁jednoznačně	-10.1391
▁zvířat	-10.1403
▁PO	-10.1408
▁tvář	-10.1408
▁slab	-10.141
▁padesát	-10.1418
▁míč	-10.1419
▁sever	-10.1419
▁skupině	-10.142
ckého	-10.1426
lín	-10.1429
▁daň	-10.1432
▁ostr	-10.1448
AD	-10.1448
ovaným	-10.145
ávají	-10.1455
▁styl	-10.1459
▁Rusko	-10.1468
tovat	-10.1473
▁hodnotu	-10.1483
▁ODA	-10.1486
AL	-10.1487
▁poslanec	-10.1494
▁aktivity	-10.1495
▁Kon	-10.1496
▁polovinu	-10.15
▁poz	-10.1501
▁výraz	-10.1504
stoupí	-10.1506
▁sv	-10.1515
▁Evropa	-10.1517
▁Gorbačov	-10.1517
▁většiny	-10.1517
▁politice	-10.1517
▁vždycky	-10.1517
▁začít	-10.1518
▁leží	-10.1524
▁třemi	-10.1527
▁Jenže	-10.153
▁nemocnice	-10.1533
▁pořádku	-10.1534
▁individuální	-10.1535
▁Václava	-10.1536
▁Ot	-10.1536
▁PRO	-10.1538
▁uvedené	-10.1542
▁3.	-10.1544
▁Německo	-10.1548
20	-10.1552
▁hlasování	-10.1552
▁pracovníci	-10.1554
kryt	-10.1555
kar	-10.1559
▁Dva	-10.156
▁předsedy	-10.1561
KO	-10.1563
▁test	-10.1564
▁univerzity	-10.1566
▁stejn	-10.1576
eny	-10.1583
▁diváků	-10.1585
▁budoucnosti	-10.1586
osud	-10.159
▁oslav	-10.1598
ES	-10.1607
▁studentů	-10.1607
áci	-10.1607
▁slouží	-10.1614
nové	-10.1614
▁jím	-10.1619
▁životě	-10.1625
▁záměr	-10.1626
díl	-10.163
▁hrál	-10.1632
▁příslušn	-10.1637
▁adres	-10.164
▁staré	-10.1649
▁nutno	-10.1662
▁chlad	-10.1663
▁hrad	-10.1666
▁AIDS	-10.1671
▁Británie	-10.1671
▁vzdělání	-10.1671
▁Možná	-10.1671
▁srpna	-10.1671
▁obyvatelstva	-10.1671
▁nástup	-10.1675
▁konec	-10.1678
▁Vždyť	-10.1679
▁čase	-10.168
▁demokratick	-10.1681
▁německé	-10.1687
▁paní	-10.1692
▁kraj	-10.1697
▁trval	-10.1699
▁lidské	-10.1711
RE	-10.1713
▁Škoda	-10.1714
▁soudní	-10.1715
▁Gr	-10.1716
▁miliony	-10.1722
▁hlasů	-10.1723
▁Nov	-10.1724
par	-10.1725
▁známo	-10.1727
▁důsledku	-10.1728
▁posun	-10.1729
ble	-10.1731
▁Fr	-10.1732
▁tvar	-10.1732
▁pán	-10.1734
▁složení	-10.1739
DO	-10.174
▁týká	-10.1741
▁žije	-10.1741
▁mnohé	-10.175
ickým	-10.175
▁zásadní	-10.1754
kan	-10.1754
rok	-10.1758
jasn	-10.1761
▁aktivní	-10.1762
▁předchozí	-10.1767
ároveň	-10.1774
▁používá	-10.1775
▁běžný	-10.1777
▁takových	-10.178
▁princip	-10.1797
▁souhlas	-10.1803
▁státních	-10.1807
▁založen	-10.1808
▁koupit	-10.1811
▁soupeř	-10.1812
▁akt	-10.1823
▁katastrof	-10.1827
▁očekávat	-10.1827
▁připravuje	-10.1827
▁silniční	-10.1827
▁tajemství	-10.1827
▁čísle	-10.1827
▁název	-10.1827
▁buněk	-10.1827
▁Západ	-10.1828
▁verze	-10.183
směs	-10.183
▁jejího	-10.1835
▁odpor	-10.1836
▁zdalek	-10.1838
▁uspořádání	-10.1838
▁průměru	-10.1838
pír	-10.1841
razil	-10.1841
▁zařazen	-10.1845
▁piva	-10.1849
▁úřady	-10.185
ených	-10.1851
75	-10.1857
▁poznání	-10.186
▁Bi	-10.1864
▁Hol	-10.1866
stoupit	-10.1868
▁John	-10.1871
▁příčin	-10.1873
▁chceme	-10.1875
▁kvalitu	-10.1875
▁Vol	-10.1878
▁výkonu	-10.1878
▁příštím	-10.188
▁hmot	-10.1882
▁pobyt	-10.1884
▁dochází	-10.1886
běžně	-10.1893
▁počítačů	-10.1899
EM	-10.1902
▁americký	-10.1909
NI	-10.1912
▁Me	-10.1912
▁jiným	-10.1921
▁pokut	-10.1923
▁povinnosti	-10.1923
▁150	-10.1926
▁banka	-10.1934
ovanou	-10.1939
▁určitý	-10.1941
metr	-10.1943
▁jaká	-10.1947
dem	-10.1949
▁dní	-10.1952
ívají	-10.1959
▁stane	-10.1961
ama	-10.197
▁zápase	-10.1971
▁technické	-10.1975
áni	-10.1978
▁devět	-10.1983
▁režisér	-10.1986
▁zřejmé	-10.1986
▁občas	-10.1986
▁zůstat	-10.1986
▁pachatel	-10.1986
▁přírody	-10.1986
▁trend	-10.1986
▁privatizaci	-10.1987
▁marek	-10.1988
▁článku	-10.1988
▁sdělil	-10.1989
▁Karel	-10.1991
▁okresní	-10.1997
▁projektu	-10.1999
▁formul	-10.2003
▁muži	-10.2004
▁vyžaduje	-10.2007
CI	-10.2008
▁zajímavé	-10.201
▁premiéra	-10.2012
▁vánoce	-10.2012
▁pozitivní	-10.2012
▁Ši	-10.2013
▁jaderné	-10.2014
▁Ri	-10.2015
▁odborníků	-10.2015
▁agentury	-10.2019
▁částí	-10.2021
▁stroje	-10.2021
▁Tři	-10.2021
▁Asi	-10.2022
▁úvahu	-10.2024
NÁ	-10.2026
▁správ	-10.2034
▁dohod	-10.2035
▁sovětské	-10.2037
▁ústav	-10.2045
▁přísn	-10.2049
▁hlavních	-10.2054
▁vyjádřil	-10.2064
▁relativn	-10.2066
bil	-10.2071
85	-10.2071
hlav	-10.2074
▁příštího	-10.2074
inter	-10.2077
▁vytvořen	-10.2083
▁jaderný	-10.2085
▁zákazník	-10.2087
trh	-10.2095
LE	-10.2113
IS	-10.2114
čel	-10.2124
▁96	-10.2125
36	-10.2128
NO	-10.213
▁úkol	-10.213
▁Miroslav	-10.2147
▁jména	-10.2147
▁organizací	-10.2147
▁tlačítko	-10.2147
▁zahájil	-10.2147
▁věnovat	-10.2147
▁válce	-10.2147
▁historii	-10.2147
▁následn	-10.2147
▁rozhlas	-10.2147
▁Myslím	-10.215
▁roste	-10.2152
▁Ci	-10.2153
▁vaší	-10.2161
▁změně	-10.2166
▁programy	-10.217
utí	-10.2172
▁ztratil	-10.2174
▁přeprav	-10.2178
▁politika	-10.218
rem	-10.2185
▁vývoji	-10.2187
▁liší	-10.2188
▁Nová	-10.2189
wa	-10.2191
hrát	-10.2193
▁sport	-10.2197
▁východ	-10.22
▁proveden	-10.2212
▁požádal	-10.222
▁Oba	-10.2223
▁soutěži	-10.2227
tají	-10.2228
eb	-10.2229
▁úspor	-10.223
▁kontakt	-10.2231
dvacet	-10.2232
▁režimu	-10.224
▁svobod	-10.2247
▁republika	-10.2257
▁nedá	-10.2259
▁jediné	-10.2261
vát	-10.2262
dělit	-10.2264
▁druhy	-10.2265
padal	-10.2269
▁cesta	-10.227
▁hotelu	-10.2271
▁div	-10.2272
▁uveden	-10.2275
▁rod	-10.2276
▁hraje	-10.2276
▁Fa	-10.2282
▁26	-10.2284
řek	-10.2284
▁rostlin	-10.229
▁neví	-10.229
budete	-10.2291
▁pracovník	-10.2295
ěkteří	-10.231
▁1995	-10.2311
▁Někd	-10.2311
▁jednoduché	-10.2311
▁nabízejí	-10.2311
▁považován	-10.2311
▁Základní	-10.2311
sloužil	-10.2311
▁snížil	-10.2311
▁špatné	-10.2311
▁zůstane	-10.2311
▁hormon	-10.2311
▁tajemník	-10.2312
▁zimní	-10.2313
sad	-10.2313
izovat	-10.2315
▁úřadů	-10.2315
▁programů	-10.2326
▁mechanik	-10.2328
slovensk	-10.2333
▁smlouva	-10.2335
▁pravidel	-10.2335
▁abych	-10.2338
▁déle	-10.2339
▁Stál	-10.234
▁porazil	-10.2342
tud	-10.2343
▁Mám	-10.2344
/2	-10.2346
▁4.	-10.2347
▁doktor	-10.2348
kových	-10.2354
rot	-10.236
ozi	-10.2363
▁signál	-10.2373
▁tráv	-10.2374
ance	-10.2376
▁typů	-10.2376
ěji	-10.2377
▁užit	-10.2378
▁dob	-10.2392
▁příslušné	-10.2399
padají	-10.2404
▁hod	-10.2404
▁veškeré	-10.2404
▁hranici	-10.2406
tit	-10.2408
▁zákazníků	-10.241
▁normální	-10.241
▁skutečné	-10.2414
▁aut	-10.2416
▁pacientů	-10.2417
MA	-10.242
vala	-10.2424
MU	-10.2431
▁chud	-10.2432
▁kanál	-10.2433
pustit	-10.244
▁typy	-10.2447
▁reprezentant	-10.2454
▁Hlavní	-10.2456
▁budu	-10.2457
▁stranu	-10.2458
držet	-10.246
▁programové	-10.2462
▁kultur	-10.2467
níky	-10.247
stické	-10.2472
dom	-10.2472
pir	-10.2475
▁globální	-10.2478
▁sponzor	-10.2478
▁řidič	-10.2478
▁úterý	-10.2478
▁iniciativ	-10.2478
▁Lidé	-10.2478
▁kapalin	-10.2478
▁včas	-10.2478
▁někdejší	-10.2478
▁šance	-10.2479
▁Letos	-10.2479
TI	-10.248
▁existují	-10.2481
▁pořad	-10.2483
▁lednu	-10.2484
▁jestliže	-10.2485
▁končí	-10.2489
JE	-10.2489
▁postih	-10.249
klep	-10.2492
rez	-10.2492
▁barev	-10.2495
▁muže	-10.25
▁ruce	-10.2501
▁nerv	-10.2505
▁bytu	-10.2509
ju	-10.2515
▁stejný	-10.2516
▁malá	-10.2518
▁hledání	-10.2521
věřit	-10.2523
▁někter	-10.2524
▁kapacit	-10.2528
▁dům	-10.2529
▁oblastí	-10.2532
praví	-10.2532
▁značné	-10.2534
▁profesionální	-10.2541
▁získala	-10.2546
▁fotbal	-10.2548
▁spokojen	-10.2562
▁dělá	-10.2565
▁příspěvk	-10.2567
stávají	-10.2568
▁Sb	-10.2569
▁kapitálu	-10.2571
▁podnikatelské	-10.2575
▁symbol	-10.2581
▁váš	-10.2585
▁soukrom	-10.2588
▁problémem	-10.259
▁Františ	-10.2593
▁bit	-10.2594
jedno	-10.2602
▁svému	-10.2602
▁dokázal	-10.2614
▁krajin	-10.2619
▁Česko	-10.262
rd	-10.2625
áno	-10.2629
bytek	-10.2631
ickém	-10.2632
ivost	-10.2634
pracovat	-10.2636
▁lev	-10.2644
▁Federální	-10.2647
▁používat	-10.2647
▁trénink	-10.2647
▁útvar	-10.2647
▁verzi	-10.2647
▁potíže	-10.2647
▁mzdy	-10.2647
▁patnáct	-10.2648
▁najednou	-10.2648
▁členství	-10.2649
▁výklad	-10.265
▁tabulky	-10.265
▁shromáždění	-10.2651
▁úmysl	-10.2651
▁Zdá	-10.2651
▁nejdříve	-10.2652
▁novým	-10.2652
▁vystoupení	-10.2652
▁studie	-10.2653
▁vrátit	-10.2654
▁škole	-10.2654
▁zvlášť	-10.2656
ony	-10.2662
OS	-10.2664
▁včerejší	-10.2666
▁lékařské	-10.2669
▁odpověď	-10.2669
onu	-10.2673
▁Chce	-10.2676
▁třetím	-10.2677
▁rozdělení	-10.2679
▁vznikla	-10.2682
▁děje	-10.2686
▁investor	-10.2694
DE	-10.2699
váží	-10.2699
▁liber	-10.27
▁délk	-10.2706
▁Nebo	-10.2708
▁OS	-10.2723
▁centru	-10.2724
▁označení	-10.2726
▁deník	-10.2727
▁akcí	-10.2728
▁vztahů	-10.2735
▁vnější	-10.2739
▁zprávu	-10.274
▁akcie	-10.2749
▁těsně	-10.2755
čně	-10.2756
▁časem	-10.2761
▁dávno	-10.2763
▁případné	-10.2774
lid	-10.2775
▁počítači	-10.2784
▁Sv	-10.2786
▁nezbytn	-10.2786
něte	-10.2788
prostřed	-10.2789
kům	-10.2792
▁riziko	-10.2797
mět	-10.2797
▁Francouz	-10.2806
▁MB	-10.2813
▁mikro	-10.2814
▁katalog	-10.2819
▁prospěch	-10.2819
▁umožnil	-10.2819
▁výrobci	-10.2819
▁Československa	-10.2819
▁paragraf	-10.2819
▁rozhodne	-10.2819
▁domnívá	-10.2819
▁hospodaření	-10.282
▁Nicméně	-10.282
▁zaměstnanci	-10.2821
ČSL	-10.2821
▁spočívá	-10.283
cení	-10.2832
▁soukromých	-10.2834
▁pohybu	-10.2849
▁ostrov	-10.285
▁odpovídající	-10.285
▁pozici	-10.2851
▁odpadů	-10.2854
▁záznamník	-10.2855
přes	-10.2859
set	-10.2862
níku	-10.2864
nesou	-10.2869
▁soudí	-10.2869
▁zaměstnavatel	-10.2884
▁střed	-10.2885
▁schopnost	-10.2885
▁počítat	-10.2886
▁silné	-10.2887
kyně	-10.2887
lů	-10.2895
▁objem	-10.2897
▁umí	-10.2897
též	-10.2897
▁12.	-10.2903
lib	-10.2904
▁scén	-10.2912
▁podepsal	-10.2912
▁analýz	-10.2915
▁park	-10.2915
neme	-10.2918
▁ruský	-10.2919
▁týdne	-10.2922
vést	-10.2922
▁podzim	-10.2926
klád	-10.2927
▁pracoval	-10.2929
▁pop	-10.2931
▁posledním	-10.2939
▁Velk	-10.2941
DA	-10.2941
▁platnost	-10.2941
denní	-10.2944
▁dar	-10.2955
▁britské	-10.2961
▁pojistné	-10.2962
antní	-10.2985
řez	-10.299
▁díla	-10.2991
▁odvětví	-10.2995
▁firmu	-10.2995
▁hrozí	-10.2995
▁mozku	-10.2995
▁Tomáš	-10.2995
▁propag	-10.2995
▁hovor	-10.2996
▁Pohár	-10.2996
▁hledat	-10.2997
▁získali	-10.2999
▁DNA	-10.2999
▁prvků	-10.3
razit	-10.3
▁Dále	-10.3
▁Čern	-10.3
▁horší	-10.3001
▁dluh	-10.3005
▁mnozí	-10.3005
kají	-10.3013
▁půdě	-10.3018
izace	-10.3023
razí	-10.3024
og	-10.3025
▁rozvoje	-10.3028
▁poměru	-10.3033
▁kol	-10.3039
graf	-10.304
▁uzavření	-10.3042
▁letošním	-10.3043
árně	-10.3045
▁klid	-10.3047
▁vědomí	-10.3048
náší	-10.3048
▁ukázal	-10.3049
▁neroz	-10.3052
▁příbuzn	-10.3059
tion	-10.3061
▁region	-10.3068
pul	-10.3069
▁per	-10.307
pustil	-10.3079
san	-10.3081
▁dovoz	-10.3082
▁změnil	-10.3084
trž	-10.3088
▁žena	-10.3088
▁poháru	-10.3091
▁budoucnost	-10.3092
▁protest	-10.3101
▁teploty	-10.3102
▁cest	-10.3107
RU	-10.3108
boj	-10.3109
▁metody	-10.3109
▁uložen	-10.312
▁zemědělské	-10.3121
▁údaj	-10.3126
řízení	-10.3128
▁snah	-10.3139
sty	-10.314
▁fin	-10.3142
▁Fo	-10.3143
▁ochranu	-10.3146
▁čtenář	-10.315
▁Rus	-10.3159
front	-10.316
znamenat	-10.3173
▁aplikací	-10.3173
▁problematik	-10.3173
▁upozornil	-10.3173
▁výrobě	-10.3173
▁zdůraznil	-10.3173
▁Československo	-10.3173
▁Existuj	-10.3173
▁natolik	-10.3173
▁informoval	-10.3173
▁výroba	-10.3173
▁rodiče	-10.3173
▁tudíž	-10.3174
▁podpory	-10.3174
▁bankovní	-10.3174
▁nechtěl	-10.3174
▁reprezentace	-10.3174
jedině	-10.3175
▁účasti	-10.3178
▁křiv	-10.3181
brat	-10.3181
▁limit	-10.3181
▁vytváření	-10.3183
▁částečně	-10.3184
▁odst	-10.3186
▁vlastností	-10.3208
▁centrální	-10.3211
▁jiném	-10.3212
▁zavedení	-10.3216
▁Poté	-10.3217
▁19.	-10.3219
40	-10.3223
▁pacient	-10.3225
▁zpráva	-10.3226
▁Her	-10.3233
▁karty	-10.3236
▁záležitost	-10.3237
▁Bre	-10.3239
▁měnit	-10.324
padlo	-10.3241
▁Ex	-10.3241
▁Švédsk	-10.3246
▁dílo	-10.3246
▁režim	-10.3251
▁účastníků	-10.3272
šp	-10.3298
▁dalšími	-10.3299
▁pohledu	-10.33
dostala	-10.3304
▁Musí	-10.3305
mark	-10.3306
▁umístěn	-10.3307
stane	-10.3307
NA	-10.3312
▁hospodářsk	-10.3314
▁významné	-10.3318
▁zmíněné	-10.3325
▁mé	-10.3325
▁důvodu	-10.3326
hraje	-10.3335
dor	-10.334
ologie	-10.3344
▁neexistuje	-10.3355
▁odpoledne	-10.3355
▁připojištění	-10.3355
▁rozhodčí	-10.3355
▁paměti	-10.3355
▁pomalu	-10.3355
▁vyloučen	-10.3356
▁Americk	-10.3356
▁kvalifikaci	-10.3356
bel	-10.3357
▁super	-10.3357
bere	-10.3358
▁česká	-10.336
▁připomíná	-10.3362
žijí	-10.3363
▁povinn	-10.3364
bylo	-10.3364
▁organismu	-10.3366
▁oblastech	-10.3369
▁Hus	-10.3371
▁svědčí	-10.3371
▁reklam	-10.3373
▁nynější	-10.3376
ral	-10.3377
▁Nad	-10.3388
▁materiálů	-10.3399
land	-10.3405
▁směr	-10.3408
▁Pe	-10.3409
roj	-10.3411
▁Slovenska	-10.3412
▁ztráty	-10.3417
ros	-10.3418
▁budov	-10.3419
▁Ústav	-10.3421
bývají	-10.3424
▁zkušenost	-10.3425
▁potřeba	-10.3431
▁voda	-10.3445
▁graf	-10.3453
▁přinesl	-10.3456
pětí	-10.3457
▁Nejs	-10.3458
▁Sta	-10.346
ale	-10.3461
▁loňském	-10.3466
▁brněnské	-10.3467
▁kapitál	-10.3471
▁forma	-10.3471
▁novel	-10.3472
▁úst	-10.3474
▁obrazu	-10.3476
▁vzájemné	-10.3478
▁zraněn	-10.3478
▁dohodu	-10.3478
▁pochyb	-10.3479
▁poloviny	-10.3483
▁chat	-10.3483
▁The	-10.3488
dis	-10.3491
▁odboru	-10.3492
▁děj	-10.3495
▁nejvíc	-10.3498
▁metr	-10.35
jen	-10.3506
ier	-10.351
▁památ	-10.3526
▁rádi	-10.3531
▁roh	-10.3532
nějších	-10.3532
▁rozliš	-10.354
▁Itálie	-10.354
▁Ovšem	-10.354
▁Program	-10.354
▁konflikt	-10.354
▁výhradn	-10.354
▁úspěšně	-10.354
▁minimální	-10.354
▁neustále	-10.354
▁stránce	-10.354
▁rychlé	-10.354
hlédnout	-10.3541
▁praxe	-10.3541
▁záchran	-10.3541
▁chorob	-10.3541
▁desetiletí	-10.3541
▁úsek	-10.3542
▁regionální	-10.3543
▁vyjádření	-10.3543
▁nicméně	-10.3543
▁desítek	-10.3544
▁Inter	-10.3545
▁Ministr	-10.3547
▁zdejší	-10.3548
▁přístroje	-10.3548
▁vzal	-10.3549
▁Ital	-10.355
▁Ostravě	-10.3551
▁vybrat	-10.3554
▁dodnes	-10.356
▁slev	-10.3562
▁Tam	-10.3567
ins	-10.357
▁činitel	-10.3572
▁občanské	-10.3573
▁určitou	-10.3576
▁ročník	-10.3587
ička	-10.3587
▁tlak	-10.3595
ór	-10.3595
▁musím	-10.36
oma	-10.3604
izaci	-10.3605
▁soustavy	-10.3609
har	-10.3611
▁vlastnost	-10.3613
zb	-10.3623
▁obecně	-10.3633
▁rozhovoru	-10.3633
bral	-10.3641
nova	-10.3647
▁důkaz	-10.3648
▁Fin	-10.3651
čních	-10.3654
▁autorů	-10.3661
ičky	-10.3662
▁standardní	-10.3669
bili	-10.3675
▁hotov	-10.3681
▁Mi	-10.3681
▁přesun	-10.3694
▁vývozu	-10.3704
▁KSČM	-10.372
▁Všichni	-10.3729
▁jednoduchý	-10.3729
▁náměstek	-10.3729
▁poptávky	-10.3729
▁profesor	-10.3729
▁zvítězil	-10.3729
▁zúčastnil	-10.3729
▁špatně	-10.3729
▁Naopak	-10.3729
▁jediná	-10.373
▁poslance	-10.373
▁Snad	-10.373
▁odborníci	-10.373
▁určit	-10.373
▁zaměstnance	-10.3731
▁čtení	-10.3731
▁kostel	-10.3731
▁video	-10.3732
▁měření	-10.3733
▁potřebují	-10.3734
▁okna	-10.3734
▁nabídl	-10.3734
▁zkouš	-10.3735
▁koncentrace	-10.3735
ick	-10.3739
▁problému	-10.3739
▁atlet	-10.375
▁Fran	-10.375
kář	-10.3752
▁přestup	-10.3754
▁ústavní	-10.3754
▁totem	-10.3757
▁zpráv	-10.3758
▁II	-10.3759
▁italské	-10.3759
▁produktů	-10.376
▁závodu	-10.3764
▁záležitostí	-10.3767
ekonomický	-10.3768
▁vychází	-10.3768
▁čin	-10.377
▁stovky	-10.3773
▁automaticky	-10.3783
▁zrušení	-10.3787
▁vzduchu	-10.379
▁reálné	-10.3791
IT	-10.3795
▁čekají	-10.3796
rp	-10.3797
▁rozsahu	-10.3806
▁řádu	-10.3811
▁zlom	-10.3815
▁anti	-10.3815
▁pohár	-10.3819
▁představují	-10.3831
▁nástroj	-10.3834
▁neměli	-10.3835
▁filmu	-10.3836
▁lidsk	-10.3845
▁letní	-10.3849
▁No	-10.3854
▁uměl	-10.3856
▁činností	-10.3859
áků	-10.3866
▁29	-10.387
ávání	-10.3874
▁vlastním	-10.3875
▁mně	-10.3887
bin	-10.3888
▁býval	-10.3891
▁svá	-10.3893
hav	-10.3916
▁investovat	-10.3921
▁Ředitel	-10.3921
▁upraven	-10.3921
▁mladé	-10.3921
▁historie	-10.3921
▁turistů	-10.3922
▁zbraně	-10.3922
▁bydlení	-10.3922
bavit	-10.3922
▁věnoval	-10.3922
▁pojetí	-10.3922
▁hodnota	-10.3925
▁zákonem	-10.3925
▁nechat	-10.3926
▁lidmi	-10.3926
▁krátce	-10.3929
hel	-10.393
▁dodávky	-10.3934
▁pohybuje	-10.3935
▁soutěží	-10.3941
▁pozice	-10.3942
pek	-10.3952
▁voličů	-10.3952
▁úspěchu	-10.3955
▁činil	-10.3955
▁šampionátu	-10.3959
hem	-10.396
▁rozpad	-10.3961
▁domácím	-10.3963
▁domě	-10.3965
▁Soud	-10.3967
ller	-10.397
▁Evropsk	-10.397
cem	-10.397
▁postav	-10.3983
▁námi	-10.3985
▁pouhý	-10.3992
▁omezení	-10.4001
▁dopad	-10.4003
▁soupeře	-10.4007
oři	-10.401
▁dostává	-10.4011
▁zajímav	-10.4019
▁Kla	-10.4023
▁17.	-10.4031
sadil	-10.4032
▁provedení	-10.4033
▁student	-10.4035
ovského	-10.4036
lze	-10.404
▁výchov	-10.4041
▁osud	-10.4044
▁návrhy	-10.4045
gan	-10.4045
▁spolehliv	-10.4046
ence	-10.4059
▁materiálu	-10.4059
▁obviněn	-10.4062
▁rychlosti	-10.4067
▁investic	-10.407
měl	-10.4072
▁nejdůležitější	-10.4076
▁jinými	-10.4077
▁dodavatel	-10.4078
▁obecní	-10.4078
▁nájemné	-10.4079
mile	-10.408
▁současný	-10.4081
▁různým	-10.4082
▁jakou	-10.4099
▁vědeck	-10.4109
▁čisté	-10.4113
▁Především	-10.4118
▁elektrárny	-10.4118
▁měsíčně	-10.4118
▁umožní	-10.4118
▁úspěšné	-10.4118
▁Richard	-10.4118
▁Spojené	-10.4118
▁minimálně	-10.4118
▁snížit	-10.4118
▁zvýšit	-10.4118
▁úsilí	-10.4118
▁snímky	-10.4118
▁míře	-10.4119
▁tvorbu	-10.4119
▁doslova	-10.4119
▁setkal	-10.4119
▁poškození	-10.4119
▁kritik	-10.4119
▁Češi	-10.4121
▁zvýšil	-10.4121
▁Ano	-10.4122
▁pravdu	-10.4122
▁nucen	-10.4122
art	-10.4122
▁myší	-10.4125
▁celek	-10.4127
▁správně	-10.4135
▁Par	-10.4135
▁zobrazení	-10.4138
▁ano	-10.414
▁policistů	-10.414
▁objev	-10.4144
▁anglické	-10.4144
▁okolností	-10.4144
▁sobotní	-10.4148
pád	-10.415
▁cestě	-10.4153
48	-10.4155
▁rozvod	-10.4163
out	-10.4169
▁samotné	-10.4172
▁žádná	-10.4173
▁černé	-10.4175
▁mistrů	-10.4176
▁žádném	-10.4177
ista	-10.4183
▁cítí	-10.4186
▁domácích	-10.419
▁červen	-10.4196
▁600	-10.4197
▁nejlepším	-10.4198
▁potenciál	-10.4202
čan	-10.4202
▁festivalu	-10.4204
▁třídy	-10.4205
jíž	-10.4214
čili	-10.4214
ŘE	-10.4216
▁vzniká	-10.4217
▁konstatoval	-10.4222
▁centrum	-10.4228
▁zjistil	-10.4235
▁technick	-10.4238
▁nep	-10.4241
snad	-10.4244
▁Kor	-10.4259
▁PowerPointu	-10.4269
▁povrchu	-10.4277
▁oper	-10.4277
jal	-10.4284
▁poklesu	-10.4287
▁nemoci	-10.4288
▁dítě	-10.4293
▁denní	-10.4294
áním	-10.4295
▁vést	-10.4298
▁tříd	-10.4302
▁subjekt	-10.4309
▁polovina	-10.4311
▁prac	-10.4315
▁zpravodaj	-10.4316
▁existence	-10.4318
▁konkurenční	-10.4318
▁matematik	-10.4318
▁pojišťovny	-10.4318
▁rozhodování	-10.4318
▁úspěšný	-10.4318
▁ČNR	-10.4318
▁širší	-10.4318
▁Samozřejmě	-10.4318
▁divadla	-10.4318
▁editor	-10.4318
▁půjde	-10.4318
▁výskyt	-10.4318
▁sdělení	-10.4318
▁nabídka	-10.4318
▁městské	-10.4318
▁obsadil	-10.4321
▁strach	-10.4322
▁úraz	-10.4323
▁dobrovoln	-10.4325
▁Muž	-10.4327
▁map	-10.4328
▁společenské	-10.4328
entní	-10.4329
▁představení	-10.4331
▁myšlení	-10.4332
▁nezávislých	-10.4333
čné	-10.4333
▁nastoupil	-10.4334
▁Or	-10.4335
▁technický	-10.434
▁výdaje	-10.4345
▁skupinu	-10.4353
▁úvodní	-10.4359
mot	-10.4367
han	-10.4367
▁Proti	-10.437
▁armáda	-10.437
▁podnikatelé	-10.4377
áme	-10.4383
▁půdy	-10.4385
▁znát	-10.4389
▁mal	-10.4389
▁nebyli	-10.4392
išť	-10.4393
▁Kol	-10.4399
▁klade	-10.4404
▁ochot	-10.4414
▁generál	-10.4415
▁vysokých	-10.4416
▁zákazníky	-10.4419
▁výstav	-10.4419
VA	-10.443
▁úpravy	-10.443
volat	-10.4432
▁zaměřen	-10.4439
▁smrt	-10.4442
▁cm	-10.4453
padne	-10.4463
▁účastní	-10.4465
▁hodinu	-10.4467
rej	-10.4471
▁Slovensko	-10.4475
▁celní	-10.4476
kládání	-10.4485
ičtí	-10.4493
▁Char	-10.4499
▁maximáln	-10.4502
▁chemické	-10.4504
▁odpadní	-10.4505
▁Němci	-10.4522
▁církve	-10.4522
▁týdny	-10.4522
▁usnesení	-10.4522
▁surovin	-10.4522
▁nízké	-10.4522
▁odmítá	-10.4522
▁fotograf	-10.4522
▁kolegy	-10.4522
▁zapotřebí	-10.4522
▁vražd	-10.4522
▁přišla	-10.4522
▁1988	-10.4523
▁privatizační	-10.4523
▁Teď	-10.4524
kombin	-10.4525
▁létě	-10.4525
▁FS	-10.4529
▁lov	-10.453
▁StB	-10.4531
▁bezpečnost	-10.4536
valy	-10.4537
▁pas	-10.4539
▁předpoklad	-10.4543
▁prodejní	-10.4546
▁výuk	-10.4546
▁vůle	-10.4547
zemní	-10.455
▁náklad	-10.4552
kupní	-10.4552
▁konstru	-10.4554
oje	-10.4555
▁žijící	-10.4556
▁přímé	-10.4561
▁rozhovor	-10.4563
▁postaven	-10.4566
▁mladých	-10.4566
▁Bur	-10.4566
▁porušení	-10.4568
▁fyzik	-10.4573
▁zájmy	-10.4574
letěl	-10.4574
dol	-10.4575
▁rozporu	-10.4577
▁Per	-10.458
▁představitelů	-10.4581
▁založil	-10.4582
▁důsledky	-10.4582
▁uspořáda	-10.4585
▁německých	-10.4591
▁oni	-10.4591
▁německého	-10.4592
▁jižní	-10.4593
▁Internetu	-10.4598
▁lidského	-10.4599
▁daňový	-10.4603
třel	-10.4604
▁Kde	-10.4607
▁mluví	-10.4607
kraji	-10.4609
▁původu	-10.461
cc	-10.4615
▁automobilů	-10.462
80	-10.4623
▁velikosti	-10.4635
sídl	-10.4637
race	-10.4645
býval	-10.4655
▁nehod	-10.4656
▁úrok	-10.4659
ona	-10.4664
▁obce	-10.4671
inak	-10.4675
▁částka	-10.4677
▁neznám	-10.4681
▁rozhodla	-10.469
dání	-10.4697
▁formát	-10.4703
▁Sovětské	-10.4705
TO	-10.4709
▁hře	-10.4716
bírá	-10.4718
▁18.	-10.4719
▁postupu	-10.4721
▁Egypt	-10.473
▁Moskvě	-10.473
▁firmou	-10.473
▁pokračoval	-10.473
▁technologií	-10.473
▁vynikající	-10.473
▁zvyšuje	-10.473
▁devíti	-10.473
▁populace	-10.473
▁třináct	-10.473
▁Třetí	-10.473
▁spisovatel	-10.473
▁dovolené	-10.473
▁štěstí	-10.473
▁ihned	-10.473
▁Francii	-10.473
▁Předseda	-10.473
▁Pomuku	-10.473
▁reprezentační	-10.473
▁mužstva	-10.473
▁Bush	-10.473
▁funkční	-10.473
▁tábor	-10.4731
vzdor	-10.4731
▁spotřební	-10.4732
tickou	-10.4732
▁správné	-10.4733
▁mluvit	-10.4734
▁Boris	-10.4734
▁uvedený	-10.4734
▁Milan	-10.4735
▁představy	-10.4735
▁barevné	-10.4735
▁20.	-10.4736
▁šok	-10.4739
▁obětí	-10.4739
▁Místo	-10.474
KDU	-10.4742
▁Více	-10.4746
▁úmrtnosti	-10.4746
▁Avšak	-10.4751
▁podklad	-10.4754
TE	-10.4755
▁těla	-10.4762
▁přichází	-10.4763
psané	-10.4765
hodil	-10.4766
▁nemocnici	-10.4767
▁zastoupení	-10.4771
▁volb	-10.4778
KU	-10.4778
▁Druhý	-10.4783
▁řeči	-10.4785
▁obavy	-10.4787
▁myslí	-10.4795
▁všeho	-10.4795
▁prodává	-10.48
▁Jižní	-10.4807
▁lesní	-10.4809
▁dětské	-10.4811
kož	-10.4813
hlásí	-10.4813
▁příležitost	-10.4824
,5	-10.4832
ria	-10.4836
▁Val	-10.4842
▁kód	-10.4843
▁studiu	-10.4848
▁detail	-10.4861
▁ročníku	-10.4863
▁molekuly	-10.4864
ša	-10.4872
▁vážně	-10.4882
▁uvědom	-10.4882
iletý	-10.4886
▁krátké	-10.4888
▁pražsk	-10.4896
▁příštích	-10.4896
▁realit	-10.4904
▁jedná	-10.4911
tvrdil	-10.4914
▁snaha	-10.4916
▁nebezpečn	-10.4917
▁kroky	-10.4921
▁šíř	-10.4922
▁pražském	-10.4924
▁doprav	-10.493
▁hru	-10.494
▁byty	-10.494
▁financování	-10.4943
▁konkurenci	-10.4943
▁nakladatelství	-10.4943
▁sledovat	-10.4943
▁tehdejší	-10.4943
▁transformace	-10.4943
▁výsledkem	-10.4943
▁zlepšení	-10.4943
▁úmrtí	-10.4943
▁negativní	-10.4943
▁rozhodnout	-10.4943
▁budoucnu	-10.4943
▁příjmu	-10.4943
▁civilní	-10.4943
▁zabránit	-10.4943
▁Vláda	-10.4943
▁cukr	-10.4943
▁souvisí	-10.4943
▁Slavie	-10.4943
▁jedinou	-10.4943
▁Wales	-10.4944
ůj	-10.4945
▁Kanad	-10.4945
▁operace	-10.4945
▁Euro	-10.4945
▁PCB	-10.4945
▁střet	-10.4945
▁postižen	-10.4945
▁dlužník	-10.4946
stru	-10.4947
▁Man	-10.495
▁váh	-10.4952
▁Vedle	-10.4953
ologické	-10.4953
telné	-10.4962
▁formou	-10.4963
▁škola	-10.4967
▁osmdesát	-10.4968
▁jezdí	-10.497
▁charakter	-10.4971
▁zaplatit	-10.4971
▁Sam	-10.4971
▁výhodné	-10.4973
elné	-10.4976
▁vyzval	-10.4978
▁náhod	-10.4978
jmenován	-10.4982
▁překvapení	-10.4983
▁zbytečné	-10.4983
▁UK	-10.4983
▁celkový	-10.4994
▁řídí	-10.4994
▁prodat	-10.4996
▁českým	-10.4999
▁povinností	-10.4999
▁33	-10.5005
hradí	-10.5005
▁0	-10.5011
▁starých	-10.5018
▁největším	-10.5021
▁vyspělý	-10.5021
▁45	-10.5022
působil	-10.5025
▁příležitosti	-10.5026
▁německý	-10.5026
▁příslušný	-10.5027
▁dostih	-10.5031
▁dialog	-10.504
▁produktu	-10.5046
▁obec	-10.5049
▁napětí	-10.5053
ouze	-10.5054
▁3000	-10.5057
▁velkým	-10.5059
▁účely	-10.5072
▁dojde	-10.5073
▁hlad	-10.5077
▁soustav	-10.5082
▁partnery	-10.5088
▁západ	-10.5091
▁jakých	-10.5091
▁noviny	-10.5091
▁bot	-10.5094
▁komor	-10.5094
▁novém	-10.5095
▁probíh	-10.5095
▁školní	-10.5097
▁vlád	-10.5098
▁pracovníky	-10.5099
▁nákladní	-10.5102
▁Obě	-10.5104
ejména	-10.5107
▁neměla	-10.5107
istů	-10.5112
fyzikální	-10.5123
▁zápasy	-10.5125
▁historické	-10.5128
▁32	-10.5129
dařilo	-10.5136
▁oči	-10.5141
▁pravidla	-10.5144
▁Mal	-10.5148
ovky	-10.5148
enou	-10.5149
▁troj	-10.5153
▁někde	-10.516
▁Ostatně	-10.516
▁Sdružení	-10.516
▁rekreační	-10.516
▁služba	-10.516
▁záleží	-10.516
▁červnu	-10.516
▁Plzeň	-10.516
▁přiznání	-10.516
▁porovnání	-10.516
▁krize	-10.516
▁navrhl	-10.5161
▁Bor	-10.5161
▁výrok	-10.5162
▁sítí	-10.5162
▁prázdnin	-10.5162
▁zná	-10.5164
▁místnosti	-10.5164
▁Ačkoli	-10.5166
▁obrázek	-10.5169
▁způsoben	-10.5169
▁zobraz	-10.5171
▁požár	-10.5171
▁195	-10.5174
▁zahrad	-10.5174
ňují	-10.5175
▁jednotky	-10.5176
▁klíč	-10.5177
▁placení	-10.5177
ujte	-10.5178
▁zápasu	-10.5179
▁přináší	-10.518
▁jasně	-10.518
▁udržet	-10.5183
▁začátkem	-10.5184
▁dostali	-10.5191
▁pomohl	-10.5191
▁starý	-10.5194
▁znalosti	-10.52
▁lesy	-10.5202
▁účetní	-10.5205
▁Washingtonu	-10.5207
rní	-10.5212
▁hodnotě	-10.5214
▁Moravy	-10.5217
▁prodávat	-10.5217
▁historický	-10.5221
▁strojů	-10.5222
▁turnaje	-10.5226
kin	-10.5227
▁staro	-10.5232
▁nemáme	-10.5236
▁tamní	-10.5237
▁set	-10.524
stu	-10.5248
jedná	-10.5262
jel	-10.5266
▁Firm	-10.527
▁El	-10.5275
▁dvoj	-10.5278
▁hokej	-10.5278
ějším	-10.5278
▁trenéra	-10.5283
▁Ruska	-10.5288
▁nezávislost	-10.529
▁perspektiv	-10.5291
▁vědecký	-10.5293
▁pražského	-10.5296
skal	-10.5298
▁všemi	-10.5299
vodí	-10.5304
▁hran	-10.5306
und	-10.5315
íček	-10.5316
kládají	-10.532
▁klient	-10.5321
part	-10.5322
▁regul	-10.5322
▁důchod	-10.5323
▁uzavřel	-10.5326
▁vědom	-10.5329
▁schválen	-10.5329
▁Nez	-10.5331
▁nese	-10.534
EC	-10.5342
▁Rusk	-10.5343
rst	-10.5349
▁PC	-10.5356
stavit	-10.5356
▁vedením	-10.5358
▁věk	-10.5376
▁místy	-10.5376
sát	-10.5378
▁modelů	-10.5379
▁americk	-10.538
▁Bratislavě	-10.5382
▁kompromis	-10.5382
▁odpověděl	-10.5382
▁otázce	-10.5382
▁týdnů	-10.5382
▁uskuteční	-10.5382
▁Návrh	-10.5382
▁nabídnout	-10.5382
▁Nakonec	-10.5382
▁péči	-10.5382
▁podpora	-10.5382
▁žalob	-10.5383
▁dovolit	-10.5383
▁server	-10.5383
▁nepodařilo	-10.5384
▁kategorie	-10.5384
▁okno	-10.5385
▁žlut	-10.5385
▁Podnik	-10.5386
▁partnerů	-10.5386
▁nedostatek	-10.5386
▁něž	-10.5387
ica	-10.5389
▁tvrd	-10.5392
▁připravit	-10.5393
▁Brno	-10.5396
▁prvky	-10.5397
▁120	-10.5397
povídá	-10.5398
kazuje	-10.5399
▁nech	-10.5399
▁návštěvě	-10.5401
▁stará	-10.5401
▁jaterní	-10.5411
▁tajné	-10.5411
▁zjistit	-10.5412
okr	-10.5416
▁přiznal	-10.5423
▁provést	-10.5423
▁slovy	-10.5429
▁malou	-10.5429
▁okrese	-10.5431
▁sluš	-10.5432
tle	-10.5432
▁kontrolu	-10.5434
▁nezaměstnanosti	-10.5435
▁buňky	-10.5436
▁získání	-10.5437
ební	-10.544
▁past	-10.5442
Ř	-10.5443
▁případu	-10.5444
▁domácnosti	-10.5448
▁osobně	-10.5448
▁vojenský	-10.5455
▁stanici	-10.5456
pálen	-10.5457
▁poloh	-10.5457
▁spotřebitel	-10.5461
▁Ad	-10.5461
▁vložen	-10.5465
▁hledá	-10.5465
▁Evropský	-10.5472
▁operační	-10.5479
mého	-10.548
▁koruny	-10.5487
▁událost	-10.5491
▁víkend	-10.5505
▁druhým	-10.5513
▁0,	-10.5513
při	-10.5517
▁prohrál	-10.5527
▁záruk	-10.5529
ON	-10.5533
tak	-10.5534
▁přeměn	-10.554
▁stejném	-10.5557
vir	-10.5558
▁filmů	-10.5561
▁dřív	-10.5563
▁přítomn	-10.5564
▁metoda	-10.5573
▁hrají	-10.5576
▁ekonomik	-10.558
▁prodal	-10.5589
vádějí	-10.5592
▁začalo	-10.5594
▁partnera	-10.5595
hovořil	-10.5595
▁oficiálně	-10.5598
▁ekonom	-10.56
musela	-10.5606
▁případy	-10.5607
▁Št	-10.5607
▁advokát	-10.561
▁existenci	-10.561
▁funguje	-10.561
▁otevření	-10.561
▁otázek	-10.561
▁pojišťovna	-10.561
▁rozhodovat	-10.561
▁vytvoří	-10.561
▁Slunce	-10.561
▁ostatně	-10.561
▁lokalit	-10.561
▁situací	-10.561
▁Znamen	-10.561
▁letadla	-10.561
▁zůstávají	-10.561
▁dlouhodobé	-10.561
▁stáří	-10.561
▁žádá	-10.561
▁molekulární	-10.5611
▁aktuální	-10.5612
▁operaci	-10.5612
▁přání	-10.5612
▁pochod	-10.5612
▁vyšetřování	-10.5613
▁SRN	-10.5614
▁Obecn	-10.5615
▁protein	-10.5616
▁skutečný	-10.5616
▁vystudoval	-10.5618
▁fan	-10.5618
▁zájemců	-10.5619
▁změní	-10.562
bíd	-10.5621
▁fakultě	-10.5621
▁formě	-10.5629
▁vypadá	-10.563
lis	-10.5634
▁západních	-10.5635
▁sezóně	-10.5635
▁vyberte	-10.5635
▁spojené	-10.5639
▁fakulty	-10.5639
▁Brna	-10.564
▁státním	-10.5641
▁potřeboval	-10.5647
ete	-10.5647
ána	-10.5652
éměř	-10.5652
▁dobrou	-10.5653
▁církev	-10.5654
▁proměn	-10.5658
▁zjištění	-10.5658
▁pozná	-10.5659
▁širok	-10.5659
▁kont	-10.566
▁vstupu	-10.5663
▁16.	-10.5664
▁nájemného	-10.5671
▁členem	-10.5672
▁složen	-10.5676
vítá	-10.5677
▁návštěvníků	-10.568
▁přicházejí	-10.5681
▁nástroje	-10.5682
▁cíle	-10.5685
▁Er	-10.5691
▁komory	-10.5694
▁ministrů	-10.5706
▁produkt	-10.5708
áček	-10.5712
▁víkendu	-10.5715
▁obyvatelé	-10.5715
▁čist	-10.5718
▁fa	-10.5719
muž	-10.5723
prázdn	-10.5723
▁čeho	-10.5726
▁jedenáct	-10.5727
▁docela	-10.573
▁most	-10.573
▁postižené	-10.5736
▁průměrn	-10.5742
▁struktury	-10.5743
▁označen	-10.5749
ola	-10.5752
15	-10.5752
▁brankář	-10.5761
▁pobytu	-10.5761
▁odpovědnost	-10.5762
MO	-10.5766
▁začaly	-10.5768
▁pivovar	-10.577
▁nutnost	-10.5771
vající	-10.5772
▁církevní	-10.5797
▁Německ	-10.58
▁rozdíly	-10.5805
▁přístroj	-10.5805
skými	-10.5808
▁věří	-10.5809
platí	-10.5809
▁red	-10.5809
působit	-10.5809
▁takovým	-10.5814
▁modelu	-10.582
▁stisk	-10.5821
▁zjištěn	-10.5825
ticky	-10.5825
▁vojensk	-10.5828
▁klubů	-10.5832
▁čt	-10.5833
tická	-10.5834
stával	-10.5838
▁významný	-10.5838
▁trans	-10.5842
▁Anglie	-10.5842
▁Nejvyšší	-10.5842
▁disciplín	-10.5842
▁institucí	-10.5842
▁laboratoř	-10.5842
▁mladší	-10.5842
▁nejčastěji	-10.5842
▁příspěvek	-10.5842
▁software	-10.5842
▁přispěl	-10.5842
▁nestačí	-10.5842
▁rodičů	-10.5842
▁organizační	-10.5842
▁pochopitelně	-10.5842
▁přinejmenším	-10.5842
▁Polici	-10.5842
▁souboj	-10.5842
▁vlastnictví	-10.5843
▁přijít	-10.5843
▁dráhy	-10.5843
▁tvorby	-10.5843
▁zabezpečení	-10.5844
▁podobu	-10.5844
▁výplat	-10.5845
▁poruch	-10.5846
▁vrátí	-10.5846
▁Stačí	-10.5846
▁vědců	-10.5847
▁poznatky	-10.5848
▁Pal	-10.5854
▁policisté	-10.5857
▁přijmout	-10.5857
▁Bosně	-10.5857
▁vozů	-10.5858
▁ekonomických	-10.5858
▁nemusel	-10.5859
▁uznání	-10.586
▁kart	-10.586
▁stop	-10.586
▁Králové	-10.5861
čila	-10.5862
▁obsahu	-10.5864
▁předpisů	-10.5864
▁prodeji	-10.5867
▁levnější	-10.587
▁předsedou	-10.5873
▁hodinách	-10.5874
▁smut	-10.5879
▁vytváří	-10.588
▁léky	-10.5883
▁dohoda	-10.5884
▁George	-10.5885
▁majitele	-10.5889
▁čekal	-10.589
▁obrazovky	-10.5892
SA	-10.5901
▁mysli	-10.5901
▁Olomouci	-10.5902
kova	-10.5902
▁komplexní	-10.5906
▁ideální	-10.5906
▁prostory	-10.5912
▁ztrát	-10.5913
▁starosti	-10.5915
vykl	-10.5916
ine	-10.5917
▁nezávisl	-10.5918
bod	-10.592
▁částic	-10.592
staral	-10.5924
šky	-10.5928
▁fyziky	-10.5932
▁nepod	-10.5932
cker	-10.5937
▁volně	-10.5942
▁uvažuje	-10.5942
▁nápad	-10.5943
▁obran	-10.5944
▁českou	-10.5946
▁dodat	-10.5952
ňovat	-10.5959
▁olympiád	-10.5966
▁věděl	-10.5969
▁festival	-10.5976
▁sekund	-10.5976
▁jistot	-10.5977
▁zápasů	-10.5978
▁zad	-10.5981
▁plochy	-10.5984
▁pacienta	-10.5989
ložení	-10.5991
▁hus	-10.5996
nedávn	-10.6002
▁vydává	-10.6005
ejme	-10.6007
▁náhradní	-10.6015
▁českém	-10.6016
▁optim	-10.6017
spal	-10.6018
ráže	-10.6028
▁zvýšen	-10.6028
▁auta	-10.6029
▁ministrem	-10.6033
▁novinářů	-10.6033
ODS	-10.6034
áš	-10.6041
▁55	-10.6041
▁vzrostl	-10.6042
ruší	-10.6042
▁uzavře	-10.6045
,6	-10.6048
dostanou	-10.6051
▁Stát	-10.6052
▁On	-10.6052
▁Anglii	-10.608
▁Jaromír	-10.608
▁Microsoft	-10.608
▁NHL	-10.608
▁francouzské	-10.608
▁jménem	-10.608
▁medaile	-10.608
▁navzájem	-10.608
▁odpovědi	-10.608
▁sortiment	-10.608
▁uzavřít	-10.608
▁veřejně	-10.608
▁využívat	-10.608
▁článek	-10.608
▁mužstvo	-10.608
▁Major	-10.608
▁asociace	-10.608
▁duchovní	-10.608
▁poskytují	-10.608
▁řetěz	-10.608
▁dětem	-10.608
▁chvíle	-10.608
▁ČEZ	-10.608
▁bolest	-10.608
▁požadavek	-10.608
▁zástupců	-10.6081
▁zhorš	-10.6082
▁měřítk	-10.6082
▁Chtěl	-10.6082
nová	-10.6083
▁okolní	-10.6083
▁zabývat	-10.6087
12	-10.6087
▁hrob	-10.6087
▁milion	-10.6088
▁Slav	-10.6088
▁podal	-10.6088
age	-10.6088
hodnou	-10.609
▁zemské	-10.609
▁výpočetní	-10.6091
▁dres	-10.6091
▁třikrát	-10.6092
▁Prav	-10.6094
▁venkov	-10.6095
86	-10.6095
zaměstnan	-10.6095
▁disket	-10.6097
▁původ	-10.6105
▁Paul	-10.6112
▁pojme	-10.6113
▁půd	-10.6116
soudil	-10.6118
▁San	-10.6123
▁výstavby	-10.6125
▁stanoví	-10.6127
izované	-10.6128
▁ulice	-10.6129
▁týkající	-10.613
kládat	-10.6131
▁chodí	-10.6136
volání	-10.6139
▁sloup	-10.6139
▁pracující	-10.6141
šly	-10.6145
▁Dvě	-10.6146
▁umístění	-10.6146
▁osobnosti	-10.6147
▁Dobr	-10.6152
▁praktické	-10.6154
▁používání	-10.616
pas	-10.6161
▁Takové	-10.6161
▁čtvrté	-10.6166
▁stanovení	-10.6168
▁vklad	-10.6171
▁Profitu	-10.6175
▁250	-10.6176
▁(2	-10.6183
▁fondů	-10.6184
▁Jedin	-10.6187
▁samé	-10.6192
průměr	-10.6193
▁obsahující	-10.6199
ěřitel	-10.6199
▁sousední	-10.62
lka	-10.6204
▁žádost	-10.6205
▁minulém	-10.6207
▁účastník	-10.6209
▁samostatné	-10.6212
▁česko	-10.6213
▁významu	-10.6216
▁občansk	-10.6216
▁pokusil	-10.6219
▁průzkum	-10.6219
▁třiceti	-10.6224
▁rodinné	-10.6235
▁argument	-10.6243
ány	-10.6256
▁trhy	-10.6257
▁obratu	-10.6265
▁mistra	-10.6265
pust	-10.6268
▁CO	-10.627
▁ekologické	-10.6276
▁rozdělen	-10.6279
hání	-10.6279
▁uživatelů	-10.6282
▁prezidentem	-10.6286
ovce	-10.6286
▁dvanácti	-10.6286
▁zato	-10.629
71	-10.6308
▁hospodářský	-10.6308
▁hospod	-10.6311
▁pracují	-10.6313
▁značný	-10.6314
▁stimul	-10.6322
▁počítačové	-10.6324
▁Důležit	-10.6324
▁dlouhý	-10.6324
▁generace	-10.6324
▁ministři	-10.6324
▁považuji	-10.6324
▁souladu	-10.6324
▁údržb	-10.6324
▁vyhlášk	-10.6324
▁vysoká	-10.6324
▁Polska	-10.6324
▁organizaci	-10.6324
▁obrátil	-10.6324
▁Michal	-10.6324
▁chtít	-10.6324
▁vlajk	-10.6324
▁motocykl	-10.6325
▁Možnost	-10.6325
▁doping	-10.6326
▁tepeln	-10.6326
▁studia	-10.6326
▁nejspíš	-10.6326
▁územní	-10.6327
▁omyl	-10.6327
▁dolar	-10.6328
▁nedělní	-10.6328
▁podstat	-10.6328
▁skončila	-10.633
▁min	-10.633
▁sluch	-10.6331
zdrav	-10.6335
MI	-10.6335
▁obecné	-10.6337
▁neznamená	-10.6337
▁vyplatí	-10.6338
pana	-10.6338
▁Ří	-10.6339
▁ukazují	-10.6342
▁odborných	-10.6344
▁související	-10.6345
▁předložil	-10.6346
▁lesů	-10.6346
▁Zlín	-10.6351
ZE	-10.6351
skočil	-10.6354
vest	-10.6357
▁společensk	-10.6357
▁nástrojů	-10.636
▁vystoupil	-10.6362
▁vyhrála	-10.6365
▁zajištění	-10.637
▁kdysi	-10.6371
tažení	-10.6372
ukce	-10.6372
▁prst	-10.6375
▁ST	-10.6377
▁noční	-10.6378
▁ačkoli	-10.6379
▁Karlovy	-10.6379
▁silně	-10.638
▁styk	-10.6381
▁uživatel	-10.6385
▁občané	-10.639
AV	-10.6393
▁obchodním	-10.6394
▁časopisu	-10.6395
▁možných	-10.6396
▁silnic	-10.6396
▁Obchodní	-10.6397
▁nedávné	-10.6397
▁nemělo	-10.6399
▁panelu	-10.64
▁ZA	-10.64
▁vědě	-10.6416
▁skončilo	-10.6424
běhu	-10.6431
▁sekundu	-10.6432
▁způsobu	-10.6437
▁Slovenské	-10.6438
▁získáva	-10.644
▁vydá	-10.6441
▁ústavy	-10.6448
▁schopnosti	-10.6449
reform	-10.6457
bla	-10.6457
▁univerzit	-10.6461
▁regionu	-10.6468
▁dosah	-10.6472
▁průmyslový	-10.6473
▁pohybují	-10.6474
▁Poslaneck	-10.6476
▁dostalo	-10.6479
▁zahájen	-10.648
▁ochrany	-10.6488
yl	-10.6495
▁Lin	-10.6497
▁zákazníka	-10.6498
▁možný	-10.6502
▁politického	-10.6503
tický	-10.6508
▁Fil	-10.6509
▁přenosu	-10.6511
▁souvislost	-10.6513
▁10.	-10.6517
▁široké	-10.652
děk	-10.6521
▁mini	-10.6523
kazují	-10.6538
▁zpěv	-10.6538
▁mimořádné	-10.654
▁míní	-10.6544
▁pojištěn	-10.6545
▁náhrad	-10.6555
ativní	-10.6556
jmout	-10.6558
▁mnohd	-10.656
▁přechodu	-10.6565
▁vystaven	-10.6573
▁atmosféře	-10.6574
▁delegace	-10.6574
▁francouzský	-10.6574
▁inflace	-10.6574
▁poptávka	-10.6574
▁sedmnáct	-10.6574
▁službu	-10.6574
▁dozvěděl	-10.6574
▁nejnovější	-10.6574
▁vysokoškol	-10.6574
▁všude	-10.6574
▁Skutečn	-10.6574
▁badatel	-10.6574
▁mandát	-10.6574
▁považují	-10.6574
▁přírodě	-10.6574
▁Viktor	-10.6574
▁penzijní	-10.6574
▁politická	-10.6574
▁zábav	-10.6574
▁Popper	-10.6574
▁doprovod	-10.6574
▁vyšetřovatel	-10.6574
▁čísel	-10.6574
▁dohodnut	-10.6575
▁devadesát	-10.6575
▁Podnikatel	-10.6575
▁citliv	-10.6575
▁květnu	-10.6575
▁podaří	-10.6576
▁velitel	-10.6576
▁stanovisko	-10.6577
▁rytm	-10.6577
▁výstup	-10.6578
tát	-10.6578
▁mínění	-10.6578
▁brát	-10.6579
▁kvalita	-10.6579
▁vysvětlit	-10.6579
▁dřívější	-10.6579
▁opravy	-10.6579
▁vrací	-10.6579
▁vysvětlení	-10.658
▁myši	-10.6581
▁dobou	-10.6582
▁dokonale	-10.6584
▁zlato	-10.6584
▁Nejvíce	-10.6584
▁řeší	-10.6585
▁stupně	-10.6586
▁Čas	-10.6587
▁obvod	-10.6587
tav	-10.659
▁prosadit	-10.6591
▁Chceme	-10.6593
72	-10.6594
▁chladn	-10.6594
▁léků	-10.6595
▁vědci	-10.6597
▁dám	-10.6598
▁kamer	-10.6599
▁nedostal	-10.66
▁podílel	-10.66
▁projekty	-10.66
▁grafik	-10.6602
▁Kolik	-10.6603
▁nebe	-10.6603
▁vysvětlil	-10.6604
▁nechá	-10.6604
▁představit	-10.6605
▁hodnotí	-10.6606
▁dosahuje	-10.6607
▁slovenských	-10.661
jedou	-10.661
▁znaků	-10.662
▁čemu	-10.6622
▁zkušeností	-10.6624
čtí	-10.6625
ovněž	-10.6626
platit	-10.6626
▁Novák	-10.6628
▁titulu	-10.6628
koupit	-10.6629
▁ukázalo	-10.6638
▁trvale	-10.6639
Sc	-10.6641
LO	-10.6645
orku	-10.6649
▁přípravě	-10.665
▁orgánů	-10.665
▁nesouhlasí	-10.665
OU	-10.6651
▁plný	-10.6652
▁zbytek	-10.6654
hnal	-10.6657
bran	-10.6661
▁RN	-10.6663
▁oceán	-10.6665
▁odchodu	-10.6666
▁místem	-10.6677
▁dojem	-10.6678
elů	-10.668
▁třídě	-10.6689
▁role	-10.6691
IL	-10.6693
ČS	-10.6695
▁800	-10.6699
kupovat	-10.6699
▁doklad	-10.6701
▁mimořádný	-10.6703
rám	-10.6704
▁Čs	-10.6709
▁stanic	-10.6709
▁závodě	-10.6713
počet	-10.6714
▁materiály	-10.6714
šování	-10.6717
11	-10.672
▁rizik	-10.6721
▁rozsah	-10.6727
▁cenný	-10.6729
▁vodou	-10.674
▁Představ	-10.6741
pravděpodobností	-10.6744
▁Ostrava	-10.6745
▁výstava	-10.6747
▁Paříž	-10.675
▁herec	-10.6753
▁koho	-10.6753
▁kanceláří	-10.6759
▁směn	-10.6764
▁obor	-10.6765
izovan	-10.6766
▁viděl	-10.6767
▁jimi	-10.6782
▁nalezen	-10.6784
▁čtenáře	-10.6804
▁sval	-10.6804
rna	-10.681
ováni	-10.681
nést	-10.6813
▁názorů	-10.6818
▁cenou	-10.6819
rah	-10.6819
ocel	-10.6821
ujícího	-10.6829
▁přírodověd	-10.683
EK	-10.683
hlížet	-10.6831
▁Zajímav	-10.6831
▁atraktivní	-10.6831
▁blízké	-10.6831
▁milióny	-10.6831
▁montáž	-10.6831
▁požadavků	-10.6831
▁rozhraní	-10.6831
▁složky	-10.6831
▁telekomunikační	-10.6831
▁tiskárny	-10.6831
▁Výsledk	-10.6831
▁dlouhá	-10.6831
▁používají	-10.6831
▁chráněn	-10.6831
▁externí	-10.6831
▁koncepce	-10.6831
▁nabídce	-10.6831
▁vysoce	-10.6831
▁závisí	-10.6831
▁naděje	-10.6831
▁barvy	-10.6831
▁muzea	-10.6831
▁učinil	-10.6832
▁rozšířit	-10.6832
▁žebříčku	-10.6833
▁předpokládat	-10.6834
▁unii	-10.6834
prodej	-10.6835
▁osobních	-10.6835
▁skladb	-10.6836
▁vysvětluje	-10.6836
▁naději	-10.6837
▁Chyb	-10.6839
▁Irsk	-10.6842
▁bytové	-10.6842
obec	-10.6846
▁větším	-10.6846
▁umožňující	-10.685
▁můj	-10.6852
▁Dán	-10.6852
▁uvést	-10.6857
▁Stran	-10.6857
▁km	-10.686
▁Nikdo	-10.6861
▁čtyřech	-10.6863
▁dvojice	-10.6866
▁kniha	-10.6867
▁reáln	-10.6868
psat	-10.6868
▁stín	-10.687
▁totéž	-10.6872
volal	-10.6874
▁grafické	-10.6875
▁Sparty	-10.6877
soci	-10.6877
tematick	-10.688
▁Autor	-10.6883
▁pořádá	-10.6891
▁Tur	-10.6893
▁nemůžeme	-10.6895
▁návštěvu	-10.69
▁agentura	-10.6907
▁akciové	-10.6909
▁bi	-10.691
áhy	-10.6913
▁návrat	-10.6913
▁pevné	-10.6915
▁šat	-10.6916
▁fotbalistů	-10.6917
▁čtyřmi	-10.6919
projevuje	-10.6923
▁Mat	-10.6925
Ú	-10.6927
▁stěn	-10.6933
▁přední	-10.6934
enství	-10.6941
▁způsoby	-10.6941
▁podstatné	-10.6944
▁budovy	-10.6945
▁jakékoli	-10.6948
▁studium	-10.6948
▁krátk	-10.6949
▁podání	-10.6953
▁představu	-10.6954
▁drah	-10.6956
▁noc	-10.696
▁britský	-10.6965
▁Den	-10.6977
▁sam	-10.698
▁finančn	-10.6983
▁divák	-10.6984
tání	-10.6987
▁představil	-10.6989
▁potřebný	-10.6994
▁světového	-10.6994
▁Profit	-10.6995
▁zaměstnavatele	-10.6996
▁stranou	-10.7006
▁Mil	-10.7008
skok	-10.7013
▁nároky	-10.7019
▁polské	-10.702
▁komplex	-10.7022
▁Nizozemsk	-10.7025
▁Hra	-10.7026
▁přev	-10.7027
▁nebezpečné	-10.7029
▁registr	-10.703
čovat	-10.7035
▁klientů	-10.7039
ug	-10.7045
▁geolog	-10.7049
stavení	-10.7051
▁kup	-10.7056
▁okolnost	-10.7059
▁listu	-10.7064
▁Moh	-10.7066
ctví	-10.7066
▁nachází	-10.7074
▁patřil	-10.7074
▁celku	-10.7075
▁experiment	-10.7077
ess	-10.7079
▁Bud	-10.7086
▁Cena	-10.7086
těl	-10.7087
▁dán	-10.7088
▁Cha	-10.7091
favorit	-10.7094
▁Itálii	-10.7094
▁divadelní	-10.7094
▁inženýr	-10.7094
▁obligace	-10.7094
▁otevřené	-10.7094
▁peněžní	-10.7094
▁požaduje	-10.7094
▁přirozený	-10.7094
▁snižování	-10.7094
▁vojáků	-10.7094
▁výjimečn	-10.7094
▁úrovní	-10.7094
▁Miloslav	-10.7094
▁rychlý	-10.7094
▁zjistí	-10.7094
▁odsouzen	-10.7094
▁povinen	-10.7094
▁nevěděl	-10.7094
▁průkaz	-10.7094
▁absolvent	-10.7094
▁menšin	-10.7094
▁podívat	-10.7094
▁důkladn	-10.7094
▁Jugoslávii	-10.7094
▁najevo	-10.7095
▁orgán	-10.7096
▁zavře	-10.7097
▁Dom	-10.7097
▁Peter	-10.7097
▁říct	-10.7098
▁dálnic	-10.7099
▁Střed	-10.7099
▁stanov	-10.7099
▁tisíci	-10.71
ité	-10.71
▁vybírat	-10.7101
▁skončení	-10.7101
▁nesmírn	-10.7106
▁strav	-10.7107
▁fax	-10.7107
běhl	-10.7109
▁agent	-10.7109
žije	-10.711
ráží	-10.711
▁koupí	-10.711
▁pivo	-10.7113
▁systémem	-10.7116
▁některým	-10.7118
▁Moravě	-10.7121
▁kusů	-10.7122
pořád	-10.7123
▁hlavu	-10.7124
▁pokyn	-10.7126
▁povolání	-10.7127
▁předmětem	-10.7127
▁cyklus	-10.7127
▁japonské	-10.7127
▁odvolání	-10.7133
▁Počet	-10.7135
nických	-10.7143
ecká	-10.7146
▁podnikové	-10.7151
▁resp	-10.7165
▁důvodem	-10.7167
▁dílem	-10.7169
▁dohodl	-10.717
AC	-10.7172
▁úvěrů	-10.7176
učili	-10.7182
▁dramatick	-10.7184
▁Dá	-10.7186
logický	-10.7191
▁výstavy	-10.7199
▁starosta	-10.7206
PS	-10.7207
▁kartu	-10.7214
kládal	-10.7214
▁fotbalový	-10.7214
▁filmový	-10.7215
▁předmět	-10.722
▁Dalším	-10.7221
gel	-10.7225
▁podřízen	-10.7229
važoval	-10.7231
▁Pre	-10.7234
▁vlny	-10.7241
▁Kovo	-10.7247
▁Změn	-10.7256
▁profesionál	-10.7261
▁neznámý	-10.7262
▁předložen	-10.7262
držení	-10.7266
▁pražský	-10.7269
▁spol	-10.727
▁Ste	-10.7273
▁národů	-10.7275
▁Ruské	-10.7277
▁Lékař	-10.7281
▁nájemní	-10.7283
▁okraj	-10.7284
procentní	-10.7286
▁přípravy	-10.7293
kovat	-10.7295
▁schválil	-10.7305
▁zaveden	-10.7311
▁trestný	-10.7319
▁objektiv	-10.732
▁obsazen	-10.7321
hlásil	-10.7324
úpln	-10.7324
znamená	-10.7326
▁jistý	-10.7327
isty	-10.7327
▁klasick	-10.7328
▁znak	-10.7331
▁rovin	-10.7336
▁zajištěn	-10.7337
▁starost	-10.7338
▁Např	-10.7345
▁Auto	-10.7346
ěsíční	-10.7348
AM	-10.7351
elná	-10.7355
▁průběh	-10.7355
▁Řad	-10.7362
▁bodu	-10.7362
▁průmysl	-10.7363
▁nákupu	-10.7364
▁volný	-10.7364
▁Kazachstán	-10.7364
▁Několik	-10.7364
▁Oznámil	-10.7364
▁Univerzit	-10.7364
▁bariér	-10.7364
▁existovat	-10.7364
▁informaci	-10.7364
▁obtížné	-10.7364
▁prezentací	-10.7364
▁svědomí	-10.7364
▁vyjádřit	-10.7364
▁vytvářet	-10.7364
▁ztrácí	-10.7364
▁Problém	-10.7364
▁komerční	-10.7364
▁poskytovat	-10.7364
▁střediska	-10.7364
▁ubytování	-10.7364
▁února	-10.7364
▁československé	-10.7364
▁veletrh	-10.7364
▁Slovinsk	-10.7364
záběr	-10.7364
▁zmizel	-10.7364
▁pěst	-10.7364
▁vlákn	-10.7364
nášejí	-10.7365
▁komunikace	-10.7365
▁vybraný	-10.7366
▁optimální	-10.7366
▁Bójové	-10.7367
▁náskok	-10.7367
▁prováděn	-10.7367
▁zdánlivě	-10.7368
▁zítra	-10.7368
střelil	-10.7369
▁továrn	-10.737
▁bezplatn	-10.7371
▁Ben	-10.7372
▁rychleji	-10.7373
▁zvolil	-10.7373
týdenní	-10.7374
▁hrách	-10.7374
▁sále	-10.7374
▁31.	-10.738
▁kupující	-10.7381
▁jednotek	-10.7382
nozí	-10.7386
▁hlavy	-10.7388
▁závodech	-10.739
▁tradice	-10.739
▁zaznamenal	-10.7391
▁objevuje	-10.7392
▁ústřední	-10.7394
▁slavnostní	-10.7398
▁hrdin	-10.7398
▁podvod	-10.7401
▁nadace	-10.7401
▁vesnici	-10.7402
myslí	-10.7404
▁politiků	-10.7406
▁předpisy	-10.7408
▁boji	-10.7409
▁teplota	-10.741
▁všeobecné	-10.7413
▁fyzické	-10.742
▁dohodě	-10.742
▁vysloven	-10.7421
▁koupil	-10.7421
najdete	-10.7423
▁předsed	-10.7423
▁dostávají	-10.7429
▁novinář	-10.7431
▁brání	-10.7432
▁cíl	-10.7432
▁schopna	-10.7433
▁kontroly	-10.7438
▁vzdálenosti	-10.744
▁Svoboda	-10.7441
▁obvinění	-10.7441
▁souborů	-10.7442
▁narodil	-10.7442
▁kalů	-10.7445
věří	-10.7447
▁češt	-10.7452
▁vznikají	-10.7453
▁mírové	-10.7456
▁zajímavý	-10.7461
▁hledají	-10.7463
▁udělá	-10.7465
▁účt	-10.7469
▁Vlastní	-10.7471
▁návratu	-10.7473
▁odběratel	-10.7477
▁klepn	-10.7479
▁tvrdé	-10.7482
▁rizika	-10.7485
▁chyt	-10.7492
▁jasno	-10.7493
▁Sun	-10.7494
▁větr	-10.7506
▁uplynul	-10.7511
▁34	-10.7518
▁ostatními	-10.7526
▁zvuk	-10.7527
▁připoj	-10.7535
▁signálu	-10.7537
▁Nebyl	-10.7538
▁Internet	-10.7538
▁správu	-10.7542
▁důvody	-10.7545
▁prach	-10.7549
▁bloku	-10.7553
▁uchazeč	-10.7555
končit	-10.7556
▁čtyřicet	-10.756
▁vyrovná	-10.756
▁domácnost	-10.756
▁Har	-10.7563
31	-10.7568
▁konečné	-10.7578
ston	-10.7578
počátku	-10.7582
rum	-10.7588
▁porážk	-10.7592
případě	-10.7605
41	-10.7613
▁společn	-10.7614
▁boje	-10.7615
▁horní	-10.7616
▁správný	-10.7616
▁závodů	-10.7617
▁Lá	-10.7622
▁distribu	-10.7633
▁privatiz	-10.7636
▁mohu	-10.7637
▁využívá	-10.764
LU	-10.764
▁ClipArt	-10.7642
▁demokracii	-10.7642
▁fanoušků	-10.7642
▁jednoduše	-10.7642
▁lustrační	-10.7642
▁navštívil	-10.7642
▁nepochybn	-10.7642
▁nádraží	-10.7642
▁obligací	-10.7642
▁opoziční	-10.7642
▁otevřel	-10.7642
▁otázkou	-10.7642
▁ovzduší	-10.7642
▁pracoviště	-10.7642
▁prokurátor	-10.7642
▁vyrábí	-10.7642
▁železniční	-10.7642
poloviční	-10.7642
▁pobřeží	-10.7642
▁častěji	-10.7642
▁Pracovní	-10.7642
▁příchod	-10.7642
stěhoval	-10.7642
▁odstranit	-10.7642
▁modul	-10.7642
▁knize	-10.7642
▁záření	-10.7642
▁věnován	-10.7642
▁obnoven	-10.7642
▁Tehd	-10.7643
▁blízkosti	-10.7643
▁vážné	-10.7643
▁dohodnout	-10.7644
▁raket	-10.7644
▁poradensk	-10.7645
▁Motor	-10.7645
▁oblečení	-10.7645
▁říkal	-10.7646
▁scénář	-10.7646
▁přínos	-10.7647
▁písmen	-10.7647
44	-10.7647
▁pečlivě	-10.7648
▁bomb	-10.7648
▁jakém	-10.7649
▁Rád	-10.765
▁několikrát	-10.765
▁chyběl	-10.765
▁státě	-10.7654
▁pramen	-10.7655
▁Pět	-10.7656
▁vyvolal	-10.7658
▁pomůže	-10.7661
▁ovládání	-10.7661
▁kus	-10.7663
▁velkého	-10.7663
rent	-10.7663
myslet	-10.7664
líbil	-10.7665
▁společník	-10.7665
▁kvalitě	-10.7669
▁komunistické	-10.7669
▁uprostřed	-10.7671
▁připadá	-10.7672
TU	-10.7674
▁klimatický	-10.7674
▁spis	-10.7679
hodnotit	-10.768
▁dopravě	-10.7684
lob	-10.7685
▁Mark	-10.7688
▁Kraj	-10.7692
▁žít	-10.7693
▁určené	-10.7698
▁Pražské	-10.77
▁Taková	-10.7701
▁výpravy	-10.7705
▁mezinárodních	-10.7708
▁chemický	-10.7711
▁nejlepších	-10.7722
▁sbír	-10.7723
▁novináři	-10.7726
▁znaky	-10.7727
▁plánu	-10.7729
▁Rakousku	-10.773
▁viděli	-10.7732
▁Vznik	-10.7739
▁blíží	-10.7739
▁tvořen	-10.7745
vedli	-10.7752
▁tajný	-10.7754
bezpeč	-10.7755
▁1000	-10.7762
▁zvukov	-10.7765
hladov	-10.7767
▁sportu	-10.7768
▁obrazů	-10.7768
▁převzal	-10.7772
▁Indi	-10.7772
rušení	-10.7773
▁Tad	-10.778
stroj	-10.7782
▁různ	-10.7783
▁Japonsk	-10.7791
▁doprava	-10.7791
▁Rusku	-10.7793
▁určitých	-10.7793
▁souhlasí	-10.7796
▁Let	-10.78
▁Ros	-10.7801
počíta	-10.7803
▁měsíci	-10.781
▁jmen	-10.7813
▁okamžik	-10.7824
▁odchod	-10.7825
▁úvěry	-10.7826
ohledem	-10.7834
▁automatick	-10.7835
▁žil	-10.7837
▁aminokyselin	-10.7839
▁právník	-10.7852
▁fondy	-10.7854
▁samostatný	-10.7857
▁fyzick	-10.786
▁vlast	-10.7866
kázat	-10.7871
▁císař	-10.7872
▁začínají	-10.7874
▁vytvořil	-10.7879
histor	-10.7884
ill	-10.7888
řazen	-10.789
tických	-10.7911
▁termínu	-10.7916
▁vstupné	-10.7917
▁patnácti	-10.7926
ičtější	-10.7927
▁Americe	-10.7927
▁dopoledne	-10.7927
▁doporučuje	-10.7927
▁kompres	-10.7927
▁ministerstvu	-10.7927
▁nejrychleji	-10.7927
▁partneři	-10.7927
▁považovat	-10.7927
▁rekonstrukci	-10.7927
▁rozhoduje	-10.7927
▁spravedliv	-10.7927
▁strategie	-10.7927
▁dveře	-10.7927
▁policii	-10.7927
▁reakce	-10.7927
▁dubna	-10.7927
▁vyrábět	-10.7927
▁úhrad	-10.7927
▁majetkov	-10.7927
▁Trenér	-10.7927
▁sledoval	-10.7927
▁sloužit	-10.7927
▁Havla	-10.7928
▁politickou	-10.7928
▁taneční	-10.7928
▁srdce	-10.7928
nášet	-10.7928
▁jaře	-10.7928
▁areálu	-10.7928
▁humor	-10.7928
▁Klub	-10.7929
čištění	-10.7929
▁vězení	-10.793
▁penze	-10.793
▁vzít	-10.793
▁psát	-10.7931
▁rozlišení	-10.7931
▁krve	-10.7932
▁čekat	-10.7932
▁výlet	-10.7933
▁Konečn	-10.7934
▁poskytnout	-10.7934
▁dotací	-10.7934
▁klesl	-10.7934
▁trvat	-10.7934
▁zachovat	-10.7935
▁špičk	-10.7936
IP	-10.7937
koupil	-10.7942
▁dřev	-10.7942
tisk	-10.7942
VI	-10.7945
▁stavby	-10.7946
oji	-10.7946
▁obsahovat	-10.7949
▁ukončení	-10.7949
▁Zájem	-10.7953
▁testu	-10.7956
▁vydat	-10.7957
▁pokládá	-10.7958
▁provádět	-10.7959
▁elektrické	-10.796
íka	-10.796
▁stati	-10.7964
▁mírně	-10.7966
▁sovětských	-10.7966
▁dítěte	-10.7967
▁narození	-10.7967
pozn	-10.7971
▁zastavit	-10.7971
▁Mnoho	-10.7972
▁událostí	-10.7973
▁cestující	-10.7976
▁teoretick	-10.7976
▁vlak	-10.7977
▁postavit	-10.7977
▁připojení	-10.7978
▁přišli	-10.7985
▁techniku	-10.7986
▁zjevn	-10.7987
▁vším	-10.7994
▁objektivní	-10.7995
far	-10.7996
▁schválení	-10.7996
▁určený	-10.8
▁sezón	-10.8003
▁kabinetu	-10.8005
▁hluboko	-10.8008
▁Musím	-10.801
▁orgány	-10.8015
▁příkladem	-10.8016
▁managementu	-10.8018
▁Eva	-10.8018
▁Celkov	-10.8021
▁cosi	-10.8024
▁události	-10.8032
▁rodinný	-10.8033
▁posil	-10.8035
▁drobn	-10.8036
▁produkty	-10.8036
▁večerní	-10.8042
▁zjistili	-10.8047
▁maximální	-10.8047
▁En	-10.8054
▁vašeho	-10.8054
užit	-10.8061
▁Hr	-10.8063
▁bohat	-10.8063
▁sociálního	-10.8064
▁přesvědčení	-10.8065
▁plynu	-10.807
▁kontakty	-10.807
▁obci	-10.8071
▁sídle	-10.8074
:3	-10.8077
▁samostatně	-10.8077
▁principy	-10.8077
▁čistý	-10.808
▁výhody	-10.8081
ňující	-10.8083
▁CS	-10.8085
ezi	-10.8088
▁15.	-10.8095
čené	-10.8096
▁rozhodli	-10.81
▁soubory	-10.8102
▁5.	-10.8103
▁stejným	-10.8107
▁vyhlásil	-10.8112
▁modern	-10.8112
▁Vlast	-10.8114
▁monitor	-10.8117
▁občany	-10.8117
▁souhlasu	-10.8121
▁černo	-10.8134
▁severu	-10.8134
▁zmíněný	-10.8137
plňuje	-10.8139
▁útoku	-10.814
▁potřebu	-10.8144
CD	-10.8145
▁dopravu	-10.8154
▁Met	-10.8159
▁dělí	-10.816
▁průmyslové	-10.8162
skému	-10.8162
▁oznámila	-10.8163
▁přestáv	-10.817
▁Malé	-10.8171
cal	-10.8177
▁Mnoh	-10.8178
▁kmen	-10.8179
▁rozšířen	-10.8183
▁vodu	-10.8184
▁odkaz	-10.8184
▁cyklu	-10.8184
▁rostou	-10.8187
vádět	-10.8189
▁kontrol	-10.819
▁placen	-10.8193
▁skvěl	-10.8194
▁člena	-10.8197
▁plno	-10.8197
▁los	-10.8197
▁Clinton	-10.8202
▁rodina	-10.8202
▁setká	-10.8206
ejít	-10.8206
▁kluby	-10.8208
legislativ	-10.8209
▁král	-10.8211
▁poskytl	-10.8214
ingu	-10.8216
▁praktický	-10.8216
▁hlasy	-10.8219
▁blízko	-10.822
▁Stanislav	-10.8222
▁geometrie	-10.8222
▁miliónu	-10.8222
▁nepřízniv	-10.8222
▁opozice	-10.8222
▁producent	-10.8222
▁snižuje	-10.8222
▁vstříc	-10.8222
▁výsledku	-10.8222
▁zahrnuje	-10.8222
▁zásluh	-10.8222
▁závazn	-10.8222
zapomněl	-10.8222
▁zahynul	-10.8222
▁účinky	-10.8222
▁března	-10.8222
▁rozmezí	-10.8222
▁funkcionář	-10.8222
▁šťastn	-10.8222
▁aparát	-10.8222
▁páté	-10.8222
▁sotva	-10.8222
▁využil	-10.8222
▁zvýší	-10.8222
▁kupónov	-10.8222
▁středověk	-10.8222
▁čtvrtletí	-10.8222
▁klesá	-10.8222
▁necelý	-10.8222
▁nositel	-10.8222
▁rakouské	-10.8222
▁knihovn	-10.8222
▁morální	-10.8222
▁terén	-10.8223
▁pověst	-10.8223
▁Fond	-10.8223
▁téhož	-10.8225
▁útočník	-10.8226
▁nesmysl	-10.8227
▁Šest	-10.8228
▁diskusi	-10.8229
▁činit	-10.8231
cházející	-10.8232
▁návod	-10.8233
▁únik	-10.8238
▁zajišťuje	-10.8239
▁nedovol	-10.8241
▁prodá	-10.8241
ismem	-10.8244
▁vybral	-10.8244
▁školách	-10.8245
▁Lon	-10.8245
▁věnuje	-10.8255
▁zachování	-10.826
▁pravomoci	-10.826
▁formátu	-10.8261
▁projevil	-10.8261
▁přestal	-10.8264
▁stráž	-10.8264
▁příběh	-10.8265
skutk	-10.8267
dent	-10.8267
▁poradce	-10.8268
▁sjezd	-10.8268
▁kovů	-10.8269
▁vzpomíná	-10.8269
drželi	-10.8272
dová	-10.8278
▁formy	-10.8285
lap	-10.8287
▁krajan	-10.8288
▁představiteli	-10.8288
▁příčinou	-10.8291
▁provádí	-10.8292
▁duchu	-10.8293
▁prokázal	-10.8295
zákon	-10.83
25	-10.8304
mála	-10.8305
příliš	-10.8306
BA	-10.8311
▁Bla	-10.8313
▁Zemi	-10.8322
▁pražských	-10.8323
▁vstoupil	-10.8323
▁průměrné	-10.833
▁soust	-10.833
▁Rada	-10.8339
▁urychlen	-10.8344
▁zásadně	-10.8347
▁padesáti	-10.8349
▁kandidátů	-10.8353
▁vlně	-10.8355
▁ozbrojený	-10.836
▁účtu	-10.8363
▁volbu	-10.837
▁běžn	-10.8371
▁Stal	-10.8373
▁obrovské	-10.8375
asi	-10.8376
▁Hel	-10.8386
▁Svět	-10.8391
▁slep	-10.8396
▁ostře	-10.8404
▁130	-10.8405
OLE	-10.8406
▁Michael	-10.841
čnost	-10.8414
▁postupy	-10.8418
▁výbuch	-10.842
▁stán	-10.8423
▁link	-10.8434
▁personál	-10.8437
▁formu	-10.8441
▁minulost	-10.8443
▁Občanské	-10.8445
▁následujících	-10.8446
▁Jelcinov	-10.8449
▁obsahují	-10.845
edení	-10.8457
▁Klause	-10.8457
▁daném	-10.8463
▁hal	-10.8464
▁1992.	-10.8466
▁46	-10.847
▁osoba	-10.847
▁nabízen	-10.8472
▁snaz	-10.8475
▁Karl	-10.8478
▁obchody	-10.8478
lip	-10.848
ářské	-10.8481
▁vzdálenost	-10.8482
▁barevný	-10.8486
▁loňský	-10.8494
Vesmír	-10.8507
▁jediným	-10.8511
▁poznat	-10.8516
▁architekt	-10.8518
▁reakci	-10.8519
▁Slov	-10.8519
▁odešl	-10.8521
▁Španěl	-10.8522
▁implant	-10.8524
▁interak	-10.8524
▁gigant	-10.8525
▁Otázka	-10.8525
▁definitivně	-10.8525
▁digitální	-10.8525
▁divadlo	-10.8525
▁důvěru	-10.8525
▁hřišti	-10.8525
▁jednorázov	-10.8525
▁kyslíku	-10.8525
▁navrhuje	-10.8525
▁otevřený	-10.8525
▁označit	-10.8525
▁pokračování	-10.8525
▁prognóz	-10.8525
▁předvolební	-10.8525
▁sekretář	-10.8525
▁softwarov	-10.8525
▁transformaci	-10.8525
▁výročí	-10.8525
▁vězňů	-10.8525
▁používal	-10.8525
▁sexuální	-10.8525
▁zemědělců	-10.8525
▁zvyšování	-10.8525
▁vozidel	-10.8525
▁Třeba	-10.8525
▁náměstk	-10.8525
▁prosinci	-10.8525
▁prozatím	-10.8525
▁vyskytují	-10.8525
▁Československé	-10.8525
▁října	-10.8525
▁Býval	-10.8525
▁opačné	-10.8525
▁vazby	-10.8525
▁vteřin	-10.8525
▁poplatky	-10.8525
▁počtem	-10.8525
▁statistik	-10.8525
▁obvyklé	-10.8525
▁rozsáhlé	-10.8525
▁Práce	-10.8525
▁rakovin	-10.8525
▁nikoho	-10.8525
▁Východ	-10.8525
▁svoje	-10.8526
▁ceník	-10.8526
▁zastavil	-10.8527
▁hluboké	-10.8527
▁myšlenky	-10.8528
▁modely	-10.8528
▁sedmdesát	-10.8529
▁Člen	-10.8531
ečná	-10.8532
▁Hill	-10.8532
látka	-10.8534
▁6.	-10.8534
5%	-10.8534
▁Cest	-10.8537
▁začátek	-10.8537
▁Morav	-10.8538
▁výdajů	-10.854
padla	-10.8543
▁papíru	-10.8544
▁neplatí	-10.8544
▁poradit	-10.8545
▁rozšířil	-10.8547
vice	-10.855
stupovat	-10.8551
▁mechanismus	-10.8552
příště	-10.8553
▁oběti	-10.8554
▁tunel	-10.8556
▁38	-10.8557
▁rostoucí	-10.8561
▁zrušit	-10.8564
▁třetiny	-10.8564
▁čtrnáct	-10.8566
▁představitele	-10.8567
zemědělských	-10.8569
nášel	-10.8572
▁bratr	-10.8573
▁koordin	-10.8574
▁příležitostí	-10.8577
▁Hlavním	-10.8578
▁zabýval	-10.8581
▁Uvedl	-10.8584
▁tuzemsku	-10.8585
▁východě	-10.8586
▁schopností	-10.8591
▁Ře	-10.8593
leč	-10.8595
17	-10.8596
▁chtěla	-10.8597
▁kapel	-10.8598
vrácení	-10.8605
▁přítomnosti	-10.8609
▁sezóny	-10.861
▁fotbalist	-10.861
,8	-10.8619
▁Jaké	-10.862
▁majitelé	-10.8621
▁živé	-10.8623
▁dílů	-10.8627
HA	-10.8628
▁stručn	-10.8628
▁nastavení	-10.8629
▁Rakouska	-10.863
poví	-10.863
ME	-10.8632
▁zůstalo	-10.8636
▁ona	-10.8637
▁objevují	-10.8645
▁kvantov	-10.8648
▁vědí	-10.8655
▁radi	-10.8655
bírají	-10.8658
▁uvaž	-10.8659
▁reklamy	-10.8659
▁výkonný	-10.866
▁Spo	-10.8661
▁výborů	-10.8662
▁písemn	-10.8663
▁záležitosti	-10.8664
▁vlasti	-10.8666
▁jih	-10.8668
LOV	-10.8672
▁staveb	-10.8672
▁svobody	-10.8674
▁krajiny	-10.8674
▁chyby	-10.8675
daných	-10.8678
▁Mag	-10.8682
▁pokuty	-10.8682
▁psycholog	-10.8688
▁Šv	-10.8696
▁postavil	-10.8701
▁výrobních	-10.872
▁diplomat	-10.8723
▁vysvětl	-10.8724
▁primátor	-10.8724
▁Pomoc	-10.8727
▁Jaká	-10.8728
▁výkonné	-10.8728
▁znění	-10.8731
▁dramat	-10.8732
logicky	-10.874
▁stylu	-10.874
▁Vlk	-10.8745
▁známý	-10.875
▁listin	-10.875
▁důraz	-10.876
▁nastal	-10.8762
89	-10.8763
▁čtenářů	-10.8766
nete	-10.8767
▁14.	-10.8769
▁koncertu	-10.8777
▁filmové	-10.8781
▁zdravotního	-10.8782
▁věda	-10.8783
lidov	-10.8783
▁Němec	-10.8788
▁zveřejněn	-10.8792
▁smí	-10.8794
▁Výbor	-10.8804
sion	-10.8808
▁7.	-10.881
▁přítomnost	-10.8815
▁Mont	-10.8817
▁pravděpodobnost	-10.8818
povídají	-10.882
▁Či	-10.8825
▁ostatním	-10.8825
cová	-10.8828
▁existující	-10.8831
ografie	-10.8837
▁Angličan	-10.8837
▁Argentin	-10.8837
▁Evropu	-10.8837
▁Mechanik	-10.8837
▁Mečiar	-10.8837
▁Němců	-10.8837
▁Premiér	-10.8837
▁Staroměstské	-10.8837
▁Systém	-10.8837
▁Vývoj	-10.8837
▁absolutní	-10.8837
▁definitivní	-10.8837
▁kilobajtů	-10.8837
▁paradox	-10.8837
▁podezření	-10.8837
▁potvrzuje	-10.8837
▁připomněl	-10.8837
▁sjednocení	-10.8837
▁smlouvě	-10.8837
▁teorií	-10.8837
▁komplikov	-10.8837
▁tabulce	-10.8837
▁tvořit	-10.8837
▁účinek	-10.8837
▁režii	-10.8837
▁pochopil	-10.8837
▁schůze	-10.8837
▁aspekt	-10.8837
▁lehce	-10.8837
▁zdarma	-10.8837
▁zrušil	-10.8837
▁ukončil	-10.8837
▁čerstv	-10.8837
▁nález	-10.8837
▁pokrok	-10.8837
▁membrán	-10.8837
▁špatný	-10.8837
▁Jihlav	-10.8837
▁zastupitelstva	-10.8838
▁tramvaj	-10.8838
▁střetnutí	-10.8839
▁hustot	-10.8839
▁spotřeby	-10.8839
▁vyřešen	-10.8839
▁pověřen	-10.8839
▁podepsán	-10.8839
▁GSM	-10.884
▁nádor	-10.884
▁("	-10.884
▁nedokázal	-10.884
▁vězni	-10.8841
▁celků	-10.8841
▁bránit	-10.8841
▁nejenom	-10.8842
▁produkci	-10.8843
▁Cíle	-10.8844
▁diskuse	-10.8845
▁ovoce	-10.8845
tratil	-10.8845
▁výkony	-10.8847
▁přístav	-10.8848
▁našel	-10.8849
▁Brit	-10.8849
▁Dodal	-10.8849
▁kódování	-10.8849
▁balík	-10.8851
▁Řeck	-10.8851
▁dosáhla	-10.8851
▁kamion	-10.8852
▁dětský	-10.8853
▁vyvíj	-10.8854
týká	-10.8854
▁dostatek	-10.8854
▁běh	-10.8855
▁Druhá	-10.8855
▁vaši	-10.8856
VÍ	-10.8856
▁Jaký	-10.8858
▁kyselin	-10.8858
íci	-10.8859
▁vyvolává	-10.8862
▁státem	-10.8864
▁zájm	-10.8864
▁Úřadu	-10.8865
▁soused	-10.8866
▁systematick	-10.8866
▁Jednání	-10.8866
▁tuzemské	-10.8869
▁životním	-10.887
▁dolní	-10.8874
▁předložit	-10.8875
▁pokladn	-10.8875
▁akademie	-10.8875
▁závislosti	-10.8875
▁klasický	-10.8875
▁nahradil	-10.8879
▁veřejných	-10.888
▁překlad	-10.8882
▁ulic	-10.8882
▁temp	-10.8884
▁výstavě	-10.8887
▁fakultu	-10.889
istický	-10.889
▁menších	-10.8891
▁náhodou	-10.8891
▁nájemník	-10.8892
▁přímý	-10.8894
▁Karadžič	-10.8895
▁Světové	-10.8895
▁užívání	-10.8896
▁zvěře	-10.8898
▁zahraničním	-10.8899
▁strážník	-10.8899
faktor	-10.8903
táhne	-10.8907
jímá	-10.8913
▁prof	-10.8917
▁Kam	-10.8919
▁Severní	-10.8922
jedna	-10.8926
▁nezávislé	-10.8927
▁vyžádal	-10.8928
▁KB	-10.8928
▁Sparta	-10.8928
▁stranick	-10.8932
▁karta	-10.8938
▁anglický	-10.8939
▁obrovský	-10.894
▁škodu	-10.8941
▁léč	-10.8941
▁obav	-10.8941
▁klidně	-10.8944
ňoval	-10.895
ptal	-10.8951
▁kontrolní	-10.8953
▁startu	-10.8956
▁zdravotnické	-10.8957
▁poznal	-10.8962
▁základem	-10.8967
▁týdnech	-10.897
▁zdravé	-10.8971
▁exportu	-10.8972
▁odborn	-10.8977
▁náročn	-10.8979
▁podobného	-10.898
ED	-10.8982
▁trenérem	-10.8986
end	-10.8987
rgi	-10.8991
stupují	-10.8993
▁ukázk	-10.8993
▁příčiny	-10.9001
jako	-10.9004
ens	-10.9012
▁Olomouc	-10.9034
▁škod	-10.9039
▁pohyboval	-10.904
▁městský	-10.9042
▁koní	-10.9046
▁principu	-10.905
▁Ústavní	-10.9051
▁vzduch	-10.9056
ánek	-10.9067
▁firemní	-10.9069
nových	-10.9084
▁bezprostředn	-10.9089
▁silný	-10.9105
▁Mir	-10.9109
▁koně	-10.9111
▁budova	-10.9113
počítat	-10.9114
▁seminář	-10.9116
▁hrub	-10.9117
▁třetího	-10.9118
▁odraz	-10.912
▁jiní	-10.9123
▁bio	-10.9127
▁okamžit	-10.9128
třída	-10.913
▁sporu	-10.9133
▁Úřad	-10.9134
▁olej	-10.9146
▁důstojn	-10.9146
▁potřebn	-10.9151
▁recept	-10.9159
ačtyřicet	-10.916
pomeňme	-10.916
▁Bruselu	-10.916
▁ToolBook	-10.916
▁Určit	-10.916
▁demonstra	-10.916
▁dohromady	-10.916
▁dražší	-10.916
▁dynamick	-10.916
▁nejnižší	-10.916
▁přispět	-10.916
▁sportovců	-10.916
▁uskutečnit	-10.916
▁volejbal	-10.916
▁Člověk	-10.916
▁nemohu	-10.916
▁podporovat	-10.916
▁pokračují	-10.916
▁snažit	-10.916
▁Poslanc	-10.916
▁chystá	-10.916
▁index	-10.916
▁vyřešit	-10.916
▁každoročn	-10.916
▁krizi	-10.916
▁medaili	-10.916
▁vybudovat	-10.916
▁bílkovin	-10.916
▁vypadat	-10.916
▁Mnichov	-10.916
sáhne	-10.916
▁uvidí	-10.916
▁Vysok	-10.916
▁srážek	-10.916
▁Osobn	-10.916
▁skončí	-10.916
▁turisty	-10.916
▁doufá	-10.916
▁mlýn	-10.916
▁spořiteln	-10.916
▁kolegů	-10.916
▁sněhu	-10.916
▁mzdov	-10.9161
▁zhodnocení	-10.9161
▁tvorbě	-10.9161
▁dobrá	-10.9161
▁obilí	-10.9161
▁mld	-10.9162
tika	-10.9162
▁pouští	-10.9163
▁klasické	-10.9164
▁vedlejší	-10.9164
▁síti	-10.9164
▁sběr	-10.9164
▁dcer	-10.9164
vázal	-10.9165
▁risk	-10.9166
▁těší	-10.9167
▁porozumění	-10.9167
▁pokračuje	-10.9167
▁přesvědčit	-10.9167
▁Form	-10.9168
▁čestn	-10.9168
▁Odbor	-10.9168
▁magnet	-10.9168
▁spodní	-10.9168
▁atmosféry	-10.9169
▁dešti	-10.917
▁hůře	-10.917
▁penzion	-10.9172
▁zbytečně	-10.9172
▁deviz	-10.9173
▁vyřazen	-10.9175
chůd	-10.9175
▁úkon	-10.9175
▁chlap	-10.9176
▁umělecké	-10.9177
▁všeobecně	-10.9178
▁připojit	-10.9181
88	-10.9181
▁přinést	-10.9181
▁Hradci	-10.9183
spraš	-10.9183
▁vesnice	-10.9184
▁najde	-10.9185
▁Krát	-10.9188
▁poznamenal	-10.9189
▁tělo	-10.9189
▁ruky	-10.9189
▁členský	-10.919
▁Cup	-10.9192
▁rovině	-10.9199
▁spolupracovníků	-10.9202
▁Senátu	-10.9203
▁Jelcina	-10.9211
▁pohádk	-10.9212
▁obsazení	-10.9213
▁prosadil	-10.9214
▁stávající	-10.9216
noví	-10.9218
▁silnice	-10.9222
▁moment	-10.9223
▁189	-10.9231
▁dala	-10.9237
▁Američané	-10.9238
čela	-10.924
▁Novotný	-10.9241
jeli	-10.9244
▁opustit	-10.925
ložený	-10.925
70	-10.9253
▁personální	-10.9254
▁čtyřiceti	-10.9256
▁zájemce	-10.9257
▁volných	-10.9258
▁počítačový	-10.9262
nutně	-10.9264
▁Chorvatska	-10.9268
▁kolektivní	-10.9268
▁palác	-10.9269
ker	-10.927
▁grafický	-10.9271
▁zájmů	-10.9272
▁kapitálové	-10.9272
▁Rakousk	-10.9275
▁požadované	-10.9282
▁postoje	-10.9282
▁dovozu	-10.9282
jan	-10.9286
▁mlh	-10.9288
hraniční	-10.9288
▁průměrný	-10.9289
ÁT	-10.929
▁nadšen	-10.9299
▁Rozhod	-10.9301
▁získan	-10.9301
ačnou	-10.9302
▁vyrovnan	-10.9304
▁Karla	-10.9309
▁analýzy	-10.931
▁samozřejm	-10.931
nili	-10.931
▁nevím	-10.9312
▁důchodu	-10.9314
▁závodní	-10.9318
▁statistick	-10.9323
▁časové	-10.9327
▁Kohl	-10.9332
▁vedla	-10.9336
▁dalo	-10.9338
ávali	-10.9343
▁tlaku	-10.9343
▁kvalit	-10.9346
▁mírn	-10.9354
▁drobné	-10.9355
▁objemu	-10.9357
▁odborník	-10.9363
▁mnou	-10.9363
▁levé	-10.9371
slyš	-10.9374
tiky	-10.9374
▁autobusy	-10.9377
▁přivedl	-10.9379
▁grafu	-10.938
▁kolektiv	-10.9383
lčí	-10.9388
▁management	-10.9388
▁Lab	-10.9389
▁osobnost	-10.939
▁nepříjemné	-10.9394
znamenal	-10.9403
▁Sever	-10.9411
▁buňk	-10.9414
▁mladý	-10.942
čková	-10.9428
▁trestné	-10.9436
knout	-10.944
▁projektů	-10.9448
▁obal	-10.945
▁popř	-10.9452
▁zvíře	-10.9452
▁Žen	-10.9453
pravit	-10.9455
▁předběžn	-10.9456
ung	-10.9462
řídí	-10.9464
▁1,5	-10.9464
▁ideál	-10.9466
▁tiskov	-10.9468
pin	-10.9468
▁svobodné	-10.9468
nvestiční	-10.9481
▁Nic	-10.9485
▁speciali	-10.9491
▁legend	-10.9493
▁Mluvčí	-10.9493
▁Rudolf	-10.9493
▁dosažení	-10.9493
▁elektráren	-10.9493
▁intenzit	-10.9493
▁jednoduchá	-10.9493
▁metropoli	-10.9493
▁nechtějí	-10.9493
▁nejpozději	-10.9493
▁obsažen	-10.9493
▁otevřena	-10.9493
▁pochopení	-10.9493
▁teorii	-10.9493
▁tradičně	-10.9493
▁výpověď	-10.9493
plácet	-10.9493
▁Pardubic	-10.9493
▁hrozb	-10.9493
▁neutrální	-10.9493
▁únoru	-10.9493
▁jmění	-10.9493
▁Moskva	-10.9493
▁Peníze	-10.9493
▁reakcí	-10.9493
▁složitější	-10.9493
▁očekával	-10.9493
▁likvidace	-10.9493
▁Divadl	-10.9493
táhnout	-10.9493
▁hezk	-10.9494
▁břehu	-10.9494
▁nevýhod	-10.9494
▁Zástupc	-10.9494
▁restauraci	-10.9494
▁poplatník	-10.9494
▁Obdobn	-10.9495
▁Rozdíl	-10.9495
▁bytost	-10.9495
▁úlev	-10.9495
▁dotace	-10.9495
▁dojít	-10.9496
cvič	-10.9497
▁operací	-10.9497
▁textový	-10.9497
▁kabel	-10.9498
▁kategorii	-10.9498
▁dělají	-10.9498
▁reálný	-10.95
▁vtip	-10.95
▁výhodnější	-10.95
▁panel	-10.95
▁Slovan	-10.95
▁vzácn	-10.9504
▁projednáva	-10.9504
▁mezd	-10.9506
▁utrpěl	-10.9508
visí	-10.9509
▁podporuje	-10.9509
▁reformy	-10.9512
▁množ	-10.9515
▁udržení	-10.9515
▁městech	-10.9519
▁sněmovně	-10.9519
▁oblačnost	-10.9519
▁konečný	-10.9521
▁stíhání	-10.9524
▁Dokon	-10.9525
▁zabezpeč	-10.953
▁časopisů	-10.9532
▁Takový	-10.9533
▁vešker	-10.9538
▁přijdou	-10.9539
▁žádostí	-10.9543
▁Nemá	-10.9547
▁vína	-10.9548
PI	-10.9555
▁Tour	-10.956
▁konve	-10.9561
▁výrazný	-10.9562
▁bílé	-10.9569
▁vzpomínk	-10.9574
▁odborníky	-10.9577
▁přijel	-10.9577
▁mladí	-10.9582
▁realitní	-10.9584
▁využívání	-10.9584
hý	-10.9588
▁Bank	-10.959
▁značn	-10.959
▁pochází	-10.9592
▁mechanick	-10.9592
▁OD	-10.9594
▁mluvil	-10.9596
▁vlk	-10.9597
▁Paříži	-10.9601
▁žádosti	-10.9608
▁sezónu	-10.9615
▁hledal	-10.9615
▁důsledk	-10.9618
▁šedesát	-10.9621
polí	-10.9634
▁vyvolá	-10.9635
▁uložení	-10.9637
příč	-10.9649
▁nastavit	-10.965
▁škoda	-10.9652
▁založení	-10.9662
▁hmoty	-10.9666
▁Olymp	-10.9671
▁Svat	-10.9674
▁mluvčího	-10.9678
▁domy	-10.9679
DI	-10.9689
▁tank	-10.969
nický	-10.9697
▁letecké	-10.9698
▁zákazníkům	-10.97
▁nemohli	-10.97
▁svobodu	-10.9706
dáme	-10.9707
▁obvodní	-10.9707
▁ukázala	-10.9712
▁nepr	-10.9712
▁muse	-10.9713
▁monopol	-10.9714
▁provozní	-10.9714
▁reprezentantů	-10.9715
tkání	-10.9719
▁pochybnost	-10.9721
▁Chorvatsk	-10.9722
▁skla	-10.9723
▁záměru	-10.9724
▁tich	-10.9729
▁struktura	-10.9731
▁časopise	-10.9738
▁Plat	-10.9753
▁Mon	-10.9754
▁snažil	-10.9755
▁nezaměstnanost	-10.9756
▁provedl	-10.9757
▁ztráta	-10.9758
▁lékařsk	-10.9759
rodil	-10.9768
▁neboli	-10.9771
oučástí	-10.9781
▁posíl	-10.9782
▁grafick	-10.9784
▁ekologick	-10.9791
▁narozen	-10.9791
▁čtrnácti	-10.9791
dpověď	-10.9792
▁ohrožen	-10.9795
▁odstup	-10.9796
ectví	-10.9796
▁dodá	-10.9799
▁Šp	-10.98
▁týmy	-10.981
▁kilometr	-10.981
▁Kur	-10.9815
▁dokumentu	-10.9816
▁řídící	-10.9817
▁nedostat	-10.982
▁úrokov	-10.9824
▁zvětš	-10.9826
▁výkonnost	-10.9829
▁Graf	-10.9832
▁každému	-10.9836
▁pochopit	-10.9836
▁zvýšené	-10.9838
▁Afriky	-10.9838
▁Ameriky	-10.9838
▁Bohužel	-10.9838
▁Ladislav	-10.9838
▁Nedávn	-10.9838
▁Plzni	-10.9838
▁SCSI	-10.9838
▁Telecom	-10.9838
▁devatenáct	-10.9838
▁energii	-10.9838
▁gymnázi	-10.9838
▁instituce	-10.9838
▁investování	-10.9838
▁konkrétně	-10.9838
▁nejvýznamnější	-10.9838
▁nizozemsk	-10.9838
▁plzeňsk	-10.9838
▁strojírensk	-10.9838
▁výrobek	-10.9838
▁čtvereční	-10.9838
▁čtvrtfinále	-10.9838
▁hudby	-10.9838
▁podpořil	-10.9838
▁přirozené	-10.9838
▁hloubk	-10.9838
▁lokální	-10.9838
▁kapitán	-10.9838
▁Policisté	-10.9838
▁chránit	-10.9838
▁požadují	-10.9838
▁rámeček	-10.9838
▁mládí	-10.9838
▁ohrožuj	-10.9838
▁názvu	-10.9838
▁pobočk	-10.9838
▁koncepci	-10.9838
▁David	-10.9838
▁trzích	-10.9838
▁ztráce	-10.9838
▁nejúspěšnější	-10.9838
▁léčebn	-10.9838
▁nalézt	-10.9838
▁Všeobecn	-10.9838
máhají	-10.9838
▁schránk	-10.9838
▁Včera	-10.9838
▁odstavce	-10.9838
▁okénk	-10.9838
▁dražb	-10.9838
▁použil	-10.9838
▁vybrané	-10.9839
▁závad	-10.9839
▁zaujal	-10.9839
▁zimě	-10.9839
▁ekonomicky	-10.9839
▁Chip	-10.9839
▁klasifik	-10.9839
▁stabilní	-10.9839
▁věnovan	-10.984
ight	-10.984
▁dvojic	-10.9842
▁obrázky	-10.9842
▁nadcházející	-10.9843
▁Tentokrát	-10.9844
▁Nevím	-10.9845
▁koncern	-10.9845
beton	-10.9846
▁lamp	-10.9846
hodné	-10.9848
▁stačil	-10.9848
▁faktorů	-10.9849
▁síla	-10.9849
▁kategorií	-10.9851
stihnout	-10.9851
▁hlavou	-10.9852
▁navazuj	-10.9854
▁49	-10.9855
▁plod	-10.9855
▁bojovat	-10.986
▁chodit	-10.9861
▁právnické	-10.9862
▁konat	-10.9864
▁opravdov	-10.9864
▁Londýně	-10.9866
▁světovou	-10.9866
mus	-10.9866
▁tón	-10.9867
▁umělecký	-10.9869
▁parametrů	-10.9869
▁posílen	-10.9871
▁originální	-10.9872
▁kritérií	-10.9873
▁relac	-10.9873
▁tradici	-10.9875
▁spravedlnosti	-10.9877
'	-10.9879
▁připojen	-10.988
▁Děti	-10.988
▁způsobuje	-10.9885
▁přítel	-10.9887
▁zbývající	-10.9888
▁pozorovatel	-10.9894
▁vyvoláva	-10.9894
▁schůzky	-10.9897
▁třetinu	-10.9897
▁šéfa	-10.9897
▁uživatele	-10.9898
▁vesmíru	-10.9899
▁Japon	-10.99
▁úvahy	-10.9903
▁zájemci	-10.9903
▁nezbytné	-10.9905
▁Kap	-10.9905
jednat	-10.9907
najdeme	-10.9908
▁činu	-10.9909
▁uznal	-10.9909
▁slíbil	-10.991
▁úkolem	-10.9911
▁nemocných	-10.9913
▁biologické	-10.9915
▁okruhu	-10.9918
▁Lidové	-10.9926
▁povede	-10.9927
▁blíže	-10.9928
▁drahé	-10.993
▁paliva	-10.9937
▁starosty	-10.9943
eček	-10.9949
CP	-10.9951
vnějších	-10.9953
▁Stav	-10.9961
▁Lit	-10.9965
bíhají	-10.9969
mann	-10.9974
▁turistický	-10.9974
▁úroky	-10.9979
▁podnikatelský	-10.998
▁zaměření	-10.9982
▁způsobené	-10.9986
▁úkolů	-10.9988
▁opustil	-10.999
▁výkonem	-10.999
▁bosenský	-10.999
▁pouhé	-10.999
▁uvedení	-10.9994
▁manipul	-10.9994
▁scény	-11
▁Mohl	-11.0002
▁dokumentů	-11.0003
▁platy	-11.0004
▁objevit	-11.0014
▁Med	-11.0018
▁Zahraničn	-11.002
národních	-11.0022
cestoval	-11.0024
▁Mas	-11.0025
▁podat	-11.0028
▁čtvrtý	-11.0028
▁Alb	-11.0029
▁udržel	-11.0029
▁zásady	-11.003
▁čtvrtin	-11.0031
▁realiz	-11.0033
plynul	-11.0035
▁klidu	-11.0046
ČE	-11.0052
▁představí	-11.0056
leb	-11.0062
čern	-11.0072
▁poukaz	-11.0074
▁paláce	-11.0077
▁hradu	-11.0082
kování	-11.0087
▁nesouhlas	-11.0087
▁odkud	-11.0089
▁koupi	-11.009
▁listopad	-11.0091
▁Bend	-11.0094
▁sklon	-11.0097
▁180	-11.0098
▁zahraničními	-11.01
▁poklesl	-11.0104
plyn	-11.0105
krás	-11.011
▁vzdálen	-11.0113
▁zakázk	-11.0114
▁výprav	-11.0114
kolik	-11.0124
▁vývojové	-11.013
SO	-11.0132
▁odložen	-11.0133
▁stovk	-11.0134
▁ochotn	-11.0139
▁dalšímu	-11.014
▁zastoupen	-11.0151
▁pravý	-11.0152
▁časopis	-11.0154
▁filmy	-11.0157
▁koš	-11.0158
▁šestnáct	-11.0161
▁akademi	-11.0162
▁zůstala	-11.0164
▁jednoznačn	-11.0172
▁51	-11.0174
▁Karlov	-11.0177
▁chemick	-11.0187
▁Ter	-11.0194
nápověd	-11.0195
palestinsk	-11.0195
▁1996	-11.0195
▁Alexandr	-11.0195
▁Barceloně	-11.0195
▁Británii	-11.0195
▁Bělehrad	-11.0195
▁IFOR	-11.0195
▁Nejlepší	-11.0195
▁Portugalsk	-11.0195
▁chorvatské	-11.0195
▁fázi	-11.0195
▁honorář	-11.0195
▁instalaci	-11.0195
▁multimediální	-11.0195
▁následek	-11.0195
▁podmínkou	-11.0195
▁populární	-11.0195
▁požádat	-11.0195
▁pravidlo	-11.0195
▁publikován	-11.0195
▁tlačítka	-11.0195
▁tlačítkem	-11.0195
▁týdně	-11.0195
▁umožnit	-11.0195
▁březnu	-11.0195
▁cigaret	-11.0195
▁pomáhá	-11.0195
▁úsměv	-11.0195
▁Organiza	-11.0195
▁bazén	-11.0195
▁normy	-11.0195
▁azbest	-11.0195
▁kratší	-11.0195
▁vrstvy	-11.0195
▁déšť	-11.0195
▁konzul	-11.0195
▁naléhav	-11.0195
▁ploše	-11.0195
▁Srbsk	-11.0195
▁zklamán	-11.0195
▁chalup	-11.0195
▁těžce	-11.0195
spěje	-11.0195
▁divize	-11.0195
▁doposud	-11.0195
▁Robert	-11.0195
▁sociálně	-11.0195
▁kanadsk	-11.0195
▁Věřím	-11.0195
▁Soubor	-11.0195
▁zajímat	-11.0195
▁likvidaci	-11.0195
▁Část	-11.0195
▁značky	-11.0195
▁někoho	-11.0195
▁pololetí	-11.0195
▁příslušníci	-11.0195
▁ocitl	-11.0196
▁barvu	-11.0196
▁pozdější	-11.0196
▁1987	-11.0196
▁stoupl	-11.0196
▁prodávající	-11.0196
▁komisi	-11.0197
▁kvalifikace	-11.0197
▁nutný	-11.0197
▁založené	-11.0197
▁Hodnot	-11.0197
▁ekonomice	-11.0197
▁Případ	-11.0197
▁debat	-11.0197
▁klimatu	-11.0198
▁historik	-11.0198
▁Jenom	-11.0199
hrává	-11.02
▁drog	-11.0202
▁uvažovat	-11.0203
▁zeleni	-11.0203
▁Generální	-11.0204
▁děd	-11.0204
▁právnických	-11.0206
▁prud	-11.0206
▁Die	-11.0207
▁fyzický	-11.0207
krýt	-11.0208
▁tvrdý	-11.0209
▁červenci	-11.021
▁desky	-11.0211
▁ukáže	-11.0211
▁pevný	-11.0213
pouštějí	-11.0213
▁odpovídal	-11.0213
▁rozbor	-11.0214
ODA	-11.0217
▁horách	-11.0217
▁Novotná	-11.0219
▁ukázat	-11.0219
▁pozorování	-11.0219
▁výstavbě	-11.0223
▁vzorky	-11.0225
▁potvrzení	-11.0225
▁letiště	-11.0226
▁vydělá	-11.0228
▁provozovatel	-11.023
▁termo	-11.023
▁Často	-11.0232
▁elektro	-11.0232
▁vánoc	-11.0233
▁cenách	-11.0234
IC	-11.0234
žití	-11.0235
▁myšlenka	-11.0237
lezl	-11.0238
▁Znám	-11.0239
▁ohrožení	-11.024
mínil	-11.0241
▁společném	-11.0241
▁parametry	-11.0241
▁vozy	-11.0247
▁Atlanty	-11.0247
bíral	-11.025
▁vzp	-11.025
▁mezinárodním	-11.0251
▁zjednoduš	-11.0251
bojí	-11.0252
▁umělé	-11.0253
▁adresu	-11.0253
▁muzeum	-11.0254
▁úvodu	-11.0255
▁%)	-11.026
▁Slovensk	-11.0262
▁nahradit	-11.0263
▁absolvoval	-11.0267
▁JU	-11.0267
▁Svazu	-11.027
▁vyšel	-11.027
▁řeky	-11.0273
▁přírodovědecké	-11.0273
▁sektoru	-11.0274
▁SV	-11.0275
▁očekávání	-11.0278
lské	-11.0279
▁plet	-11.028
▁Vít	-11.0281
▁průmyslov	-11.0281
▁třetina	-11.0285
▁účelem	-11.0286
▁určitém	-11.0291
▁99	-11.0296
▁plynů	-11.0298
▁obrovsk	-11.0301
▁představitel	-11.0301
▁parku	-11.0303
▁jediného	-11.031
▁dvojí	-11.0312
▁zaplatil	-11.0312
večer	-11.0313
▁neznámé	-11.0313
▁pojem	-11.0315
▁srážky	-11.0323
▁napsat	-11.0329
▁propad	-11.0329
▁skryt	-11.0332
dejme	-11.0339
cími	-11.034
ézt	-11.0344
▁Mik	-11.0346
▁nedokáž	-11.0346
▁studenti	-11.0348
▁průzkumu	-11.0351
berg	-11.0352
▁obchodů	-11.0354
▁styku	-11.0354
▁ztrátu	-11.0356
▁cíli	-11.0365
▁příspěvky	-11.0368
▁stupni	-11.0372
▁spokojeni	-11.0373
Švýcarsk	-11.0387
čátkem	-11.0396
▁Velm	-11.04
▁potenciální	-11.0407
IST	-11.0411
měrně	-11.0413
JÍ	-11.0415
▁bíl	-11.0416
▁varianty	-11.0417
▁školu	-11.0417
▁desít	-11.0434
▁podílu	-11.0435
▁změnila	-11.0436
▁nějakým	-11.0442
čkách	-11.0446
▁britsk	-11.0446
pustili	-11.0449
yplývá	-11.0453
▁ochotni	-11.0454
▁hlubo	-11.0456
▁vzdá	-11.0457
▁alkohol	-11.046
▁Výstav	-11.046
▁vymezen	-11.0461
stavovat	-11.0461
▁založena	-11.0461
▁specializované	-11.0462
▁příjemné	-11.0463
▁hrála	-11.0465
▁sub	-11.0467
▁mírový	-11.0467
vesel	-11.0469
▁Správ	-11.0471
▁masov	-11.0474
▁Celk	-11.0476
▁elektron	-11.0476
▁návštěvník	-11.0478
▁výrazné	-11.0481
▁Společn	-11.0484
▁zbytk	-11.0485
▁poškoz	-11.0487
▁důchodové	-11.0487
▁případný	-11.0496
▁ekonomika	-11.0497
studoval	-11.0503
▁pouště	-11.0503
dnes	-11.0504
▁zjednodušen	-11.0507
.12.	-11.051
▁Martina	-11.051
▁ucho	-11.0517
ďte	-11.0517
▁postupné	-11.0522
▁Nikd	-11.0522
▁působící	-11.0523
▁kontrola	-11.0526
▁figur	-11.0529
▁společenský	-11.0531
IA	-11.0531
▁vedoucího	-11.0536
▁doplň	-11.0537
▁španělské	-11.0545
ontrol	-11.055
jíždějí	-11.0553
▁interpret	-11.0553
▁americkém	-11.0558
▁úzk	-11.0559
▁stanovis	-11.0559
povídal	-11.056
▁Chomutov	-11.0565
▁Ukrajiny	-11.0565
▁Zvláštní	-11.0565
▁akcionářů	-11.0565
▁církví	-11.0565
▁deficit	-11.0565
▁galerie	-11.0565
▁hřiště	-11.0565
▁náboženství	-11.0565
▁orchestr	-11.0565
▁potrestán	-11.0565
▁priorit	-11.0565
▁prosazovat	-11.0565
▁páteční	-11.0565
▁upozorňuje	-11.0565
▁1997	-11.0565
▁Koaliční	-11.0565
▁držitel	-11.0565
▁ovladač	-11.0565
▁ovlivňuje	-11.0565
▁posádk	-11.0565
▁zpracováva	-11.0565
▁šetření	-11.0565
▁bronz	-11.0565
▁naznačil	-11.0565
▁nepřátel	-11.0565
▁určuje	-11.0565
▁IBM	-11.0565
▁Původně	-11.0565
▁burze	-11.0565
▁dveří	-11.0565
▁příznak	-11.0565
▁vrstev	-11.0565
▁enzym	-11.0565
▁oxidu	-11.0565
▁patrné	-11.0565
▁produktivit	-11.0565
připravovan	-11.0565
▁usilovat	-11.0565
▁podporou	-11.0565
▁proslul	-11.0565
▁podnicích	-11.0565
▁potíží	-11.0565
▁příslušníků	-11.0565
▁pronájem	-11.0565
▁fáze	-11.0565
▁sdělovací	-11.0566
▁kritické	-11.0566
▁nedaleko	-11.0566
▁Formát	-11.0566
▁příliv	-11.0566
▁filozofie	-11.0566
▁královn	-11.0566
▁Word	-11.0566
▁Tureck	-11.0566
▁vzestup	-11.0566
▁naposledy	-11.0566
▁lyžař	-11.0566
▁zámku	-11.0566
vázat	-11.0566
▁svátky	-11.0567
▁středoevropsk	-11.0567
▁integraci	-11.0567
▁hutní	-11.0567
▁srdeční	-11.0567
▁myšlenkou	-11.0567
▁násilí	-11.0567
▁obrázků	-11.0568
▁těžb	-11.0568
střih	-11.0568
▁hostitel	-11.0568
▁historick	-11.0569
▁odhadnout	-11.0569
▁myšlenku	-11.057
▁duše	-11.057
▁manželství	-11.057
▁šíření	-11.057
▁Kreml	-11.0571
▁Týr	-11.0571
▁sílu	-11.0571
▁nehodlá	-11.0571
▁uhlí	-11.0572
▁vážný	-11.0572
▁tratí	-11.0572
▁slabší	-11.0572
▁přežití	-11.0572
▁prováze	-11.0573
▁nevhodn	-11.0573
▁obnovu	-11.0573
▁znamenalo	-11.0574
▁nízko	-11.0574
▁nájem	-11.0574
▁dlouhodobě	-11.0575
▁podnět	-11.0575
▁stanovit	-11.0576
hodlají	-11.0577
▁testování	-11.0577
▁sledování	-11.0578
▁zdanění	-11.058
▁zákazníci	-11.0582
▁doporučení	-11.0584
▁Komis	-11.0585
▁posoudit	-11.0585
▁soustředění	-11.059
▁profil	-11.059
▁silnější	-11.0599
▁Labem	-11.0603
▁moravsk	-11.0604
▁sklo	-11.0609
▁poslání	-11.061
▁přístrojů	-11.061
▁foto	-11.0611
▁jádro	-11.0613
▁úředníků	-11.0613
67	-11.0616
▁Nejde	-11.0618
▁tvrdě	-11.0619
▁následky	-11.0622
▁přinese	-11.0626
▁úlohu	-11.0627
▁jezer	-11.0627
▁vládou	-11.0629
▁přehlídky	-11.0632
▁totožn	-11.0633
▁začínající	-11.0635
kryl	-11.0638
▁experti	-11.0651
ong	-11.0653
▁válka	-11.0661
dělování	-11.0662
▁zápisu	-11.0663
▁Nizozem	-11.0664
▁soudce	-11.0664
▁Jac	-11.0669
▁Naši	-11.0672
▁KON	-11.0677
▁vymez	-11.0682
▁kvalifik	-11.0685
▁Platí	-11.069
PT	-11.0695
▁zachoval	-11.0695
pisuje	-11.0696
▁výbuchu	-11.0696
řád	-11.0696
▁mez	-11.0702
▁světlo	-11.0704
▁technického	-11.0705
▁nasazení	-11.0705
letí	-11.0709
▁technika	-11.0709
▁týmem	-11.0711
▁předpoklady	-11.0714
▁italský	-11.0715
▁sbor	-11.0719
▁hotelů	-11.0723
▁jistotu	-11.0732
▁specifick	-11.0736
▁snahy	-11.0737
▁ziskem	-11.0741
riti	-11.0744
▁lidové	-11.0744
části	-11.0747
▁Mc	-11.0759
▁výstavu	-11.0759
▁agentur	-11.0761
▁Mel	-11.0762
▁kvalifikovan	-11.0766
▁Byli	-11.0767
nechává	-11.0779
▁ikon	-11.078
▁slovník	-11.078
▁papírů	-11.0782
▁měnové	-11.0783
▁reagoval	-11.0786
nder	-11.0789
▁náročné	-11.0795
▁fotbalu	-11.08
▁přenosov	-11.0806
korun	-11.0815
▁All	-11.0819
▁osobě	-11.0819
lizace	-11.082
▁trvalo	-11.0823
▁překr	-11.0823
kupuje	-11.0825
▁díly	-11.0828
▁kulturních	-11.0836
▁spory	-11.0837
▁zákazu	-11.0837
▁Vítěz	-11.0839
▁Malý	-11.0843
▁vysoko	-11.0846
▁kabinet	-11.0847
▁předvedl	-11.085
▁zabývají	-11.0851
▁výběrové	-11.0852
▁zaměstnanec	-11.0856
▁rozpor	-11.0861
▁chová	-11.0862
mořsk	-11.0864
▁srážk	-11.0869
▁poskytnut	-11.0869
▁centrál	-11.0869
▁obrazovk	-11.0872
▁Výhod	-11.0873
▁návštěv	-11.0874
demokratick	-11.0878
▁snížen	-11.088
jištěn	-11.0881
▁Dan	-11.0883
daly	-11.0894
▁malého	-11.0899
těsn	-11.09
počtu	-11.0902
▁telefonu	-11.0903
▁Jedn	-11.0905
▁trati	-11.0908
▁programem	-11.0911
▁vrcholu	-11.0911
▁66	-11.0912
▁Win	-11.0915
▁vzhled	-11.0922
▁veden	-11.0923
▁typické	-11.0941
▁pes	-11.0941
▁komunik	-11.0943
▁specifik	-11.0943
▁daný	-11.0944
ŘÍ	-11.0944
▁doplněn	-11.0946
▁zajímavost	-11.0949
▁inteligen	-11.0949
▁1984	-11.095
▁Nejdřív	-11.095
▁Rakušan	-11.095
▁Republik	-11.095
▁Thajsk	-11.095
▁Vedoucí	-11.095
▁Výzkum	-11.095
▁dodatečně	-11.095
▁důležitá	-11.095
▁fotoaparát	-11.095
▁franků	-11.095
▁inspekce	-11.095
▁instalace	-11.095
▁majetkem	-11.095
▁nezměnil	-11.095
▁pohledávek	-11.095
▁redakce	-11.095
▁upozornit	-11.095
▁vyšetření	-11.095
radioaktivní	-11.095
▁Temelín	-11.095
▁nejmenší	-11.095
▁Bejbl	-11.095
▁certifikát	-11.095
▁stupňů	-11.095
▁zakladatel	-11.095
▁zoufal	-11.095
▁konstrukce	-11.095
▁Průměrn	-11.095
▁pojmů	-11.095
▁zkratk	-11.095
▁ordinac	-11.095
▁vyvinul	-11.095
▁DPH	-11.095
▁stovek	-11.095
▁dvojnásobn	-11.095
▁vojsk	-11.095
▁Bílé	-11.095
▁přežít	-11.095
▁teplá	-11.095
▁jedince	-11.095
▁sehrál	-11.095
▁Sokol	-11.095
▁ozdob	-11.095
▁chápat	-11.095
▁audio	-11.0951
▁Řešení	-11.0951
▁zkoumá	-11.0951
▁Asociac	-11.0951
▁vyroben	-11.0951
▁Prostě	-11.0951
▁uváděn	-11.0951
▁restaurace	-11.0951
▁1968	-11.0951
▁sněhov	-11.0951
▁kvalifikační	-11.0952
▁platební	-11.0952
▁formální	-11.0952
▁Plán	-11.0952
▁vázán	-11.0952
▁1986	-11.0953
▁něčem	-11.0953
ČNÍ	-11.0953
▁poznatků	-11.0953
▁zatížen	-11.0953
▁modem	-11.0954
▁německá	-11.0954
▁III	-11.0955
▁spolupracovat	-11.0955
▁složité	-11.0955
▁volbami	-11.0955
▁3,5	-11.0956
▁Les	-11.0956
▁nohy	-11.0956
▁května	-11.0957
▁Cheb	-11.0957
▁rychlejší	-11.0957
nutit	-11.0958
▁rozložení	-11.0959
losování	-11.0959
▁ČZ	-11.0959
▁zlaté	-11.096
▁žáků	-11.096
▁marně	-11.096
▁podzemní	-11.096
▁pružn	-11.0961
▁Bill	-11.0961
▁Sovětský	-11.0961
▁nápis	-11.0962
▁DEM	-11.0962
mlouva	-11.0963
▁Tedy	-11.0965
▁legislativní	-11.0966
▁odstranění	-11.0966
▁nájemce	-11.0967
▁užitek	-11.0967
skop	-11.0968
▁Potom	-11.0969
▁upravit	-11.097
▁procento	-11.0971
▁Belgie	-11.0971
▁sláv	-11.0973
▁bilance	-11.0973
▁oznámení	-11.0975
▁vyvolat	-11.0976
▁připraveni	-11.098
▁Britsk	-11.0984
▁týdeník	-11.0985
▁Jedná	-11.0989
cházelo	-11.0991
▁měny	-11.0991
▁Nejen	-11.0993
▁elektřiny	-11.0993
▁ruku	-11.0995
▁určena	-11.0995
▁hrubého	-11.0997
▁osobností	-11.0997
izační	-11.1
tisícov	-11.1001
▁manželka	-11.1001
▁poslanecké	-11.1002
▁jevů	-11.1004
▁vstupní	-11.1006
▁vedlo	-11.1007
SKO	-11.1008
▁Německem	-11.1009
▁Lux	-11.1011
▁tarif	-11.1014
▁demokratů	-11.1015
▁tvor	-11.1016
▁vzdálené	-11.1017
CA	-11.1025
▁koalici	-11.1027
▁návštěvy	-11.1032
bývající	-11.1036
▁bezprostřední	-11.104
▁oborů	-11.1042
▁výstavbu	-11.1044
▁desetin	-11.1047
stva	-11.1049
▁nekonečn	-11.1049
▁samotný	-11.1049
▁republiku	-11.1053
▁stejná	-11.1057
▁Svobod	-11.1059
▁specializovan	-11.106
▁spotřebu	-11.1063
▁výběrem	-11.1063
atrně	-11.1063
▁Výstava	-11.1069
▁úz	-11.1071
▁provede	-11.1072
▁linky	-11.1073
▁Františk	-11.1075
vyšších	-11.1077
▁neshod	-11.108
▁fotbalových	-11.1081
▁charakterizova	-11.1085
▁Dub	-11.1088
▁monitoru	-11.109
▁vůdce	-11.109
▁Japonsku	-11.1092
▁primátora	-11.1093
▁polohy	-11.1093
VÁ	-11.1102
▁vložit	-11.1104
▁evropského	-11.1104
▁orgánu	-11.1105
tisknout	-11.1105
▁oceánu	-11.1112
▁skutečností	-11.1112
▁obvodu	-11.1113
▁skupinou	-11.1115
▁půdu	-11.112
▁700	-11.1126
▁cel	-11.1129
psaný	-11.1131
▁ostrovy	-11.1134
▁evropsk	-11.1138
ámek	-11.1138
▁kapacity	-11.114
nin	-11.1146
svědčil	-11.1146
▁červené	-11.1148
▁rusk	-11.1159
▁ozbrojen	-11.1164
▁uvedeno	-11.1166
konala	-11.1167
▁pozván	-11.117
jov	-11.117
hodnost	-11.1172
▁vzrůst	-11.1173
▁hydro	-11.1176
▁šedesáti	-11.1181
▁připustil	-11.1194
▁zdravotnický	-11.1194
▁sportovních	-11.1195
▁samot	-11.1197
▁Jediný	-11.1201
▁Zda	-11.1211
▁turistick	-11.1216
▁Obča	-11.1216
▁Škod	-11.122
▁platný	-11.1223
▁metru	-11.1223
▁dokumenty	-11.1226
lární	-11.1229
▁vysla	-11.123
▁svěřen	-11.123
▁současném	-11.123
▁hvězdy	-11.1234
káže	-11.1234
▁paliv	-11.1237
▁pru	-11.1244
▁zápis	-11.1247
▁mořský	-11.1248
▁IV	-11.125
▁původním	-11.1253
▁Norsk	-11.1255
usi	-11.1255
léhá	-11.1264
FS	-11.1266
▁stížnost	-11.1267
▁Sol	-11.1268
▁zájezd	-11.127
poslední	-11.1273
▁Rady	-11.1273
měnit	-11.1275
▁stole	-11.1282
▁zdi	-11.1283
▁podstatný	-11.1284
▁listy	-11.1287
CO	-11.1292
hruba	-11.1297
▁Vod	-11.1307
▁filozof	-11.1307
OST	-11.1315
▁vybírá	-11.1315
▁vyplácen	-11.1316
wan	-11.1317
▁Londýn	-11.1318
místě	-11.1327
▁rozvoji	-11.1328
trpěl	-11.1332
▁zřetel	-11.1337
▁zálož	-11.1338
▁Pen	-11.1339
jistit	-11.134
▁učí	-11.1341
▁základy	-11.1341
▁plány	-11.1342
▁rovnová	-11.1342
▁Vždy	-11.1349
ALI	-11.1349
▁EuroTel	-11.135
▁Kalvoda	-11.135
▁brambor	-11.135
▁domnívají	-11.135
▁firmám	-11.135
▁hovořit	-11.135
▁naštěstí	-11.135
▁nežádoucí	-11.135
▁ovlivňují	-11.135
▁označuje	-11.135
▁posuzovat	-11.135
▁publiku	-11.135
▁radikální	-11.135
▁rejstříku	-11.135
▁spoluhráč	-11.135
▁vyhlídk	-11.135
▁Okresní	-11.135
▁Sociální	-11.135
▁dubnu	-11.135
▁energetik	-11.135
▁komponent	-11.135
▁převzít	-11.135
▁uplatnit	-11.135
▁zázemí	-11.135
▁Poborský	-11.135
▁odlišný	-11.135
▁Elektr	-11.135
▁souhrn	-11.135
▁efektivní	-11.135
▁kamarád	-11.135
▁Českomoravsk	-11.135
▁Domácí	-11.135
▁připomínk	-11.135
▁redaktor	-11.135
▁nevědí	-11.135
▁viditeln	-11.135
▁celostátní	-11.135
▁zásilk	-11.135
▁Musel	-11.135
▁Všechno	-11.135
▁záloh	-11.135
▁osvobození	-11.135
▁učinit	-11.135
▁pokoušel	-11.135
▁nejrychlejší	-11.135
▁nestačil	-11.135
▁sněžení	-11.135
▁navržen	-11.135
▁Šéf	-11.135
▁slyšet	-11.135
▁forem	-11.135
▁prodlení	-11.1351
▁ztracen	-11.1351
▁vracet	-11.1351
▁dlouhodobý	-11.1351
▁samospráv	-11.1351
▁rysy	-11.1351
▁stránek	-11.1351
▁Slavii	-11.1351
▁škál	-11.1351
▁podílejí	-11.1351
▁obrazovce	-11.1352
▁Objekt	-11.1352
▁přál	-11.1352
▁Grand	-11.1352
▁studií	-11.1353
▁občanství	-11.1354
žádají	-11.1354
biologie	-11.1354
▁obrázku	-11.1356
▁Vesel	-11.1356
▁přizpůsobit	-11.1356
▁velko	-11.1358
lepnutím	-11.1359
▁dohad	-11.1359
▁pracovnice	-11.1361
▁ÚV	-11.1362
▁Roman	-11.1362
▁Číny	-11.1364
▁vezme	-11.1366
▁včerejším	-11.1368
▁dobách	-11.1369
▁podnikat	-11.137
▁demokraté	-11.1371
▁Druhou	-11.1371
▁prodloužení	-11.1371
▁NOV	-11.1371
▁stavbu	-11.1374
▁převoz	-11.1378
▁regulace	-11.1378
▁fronty	-11.1382
▁Dohod	-11.1382
▁znalostí	-11.1383
▁vzniknou	-11.1384
▁trvalé	-11.1385
▁Wimbledonu	-11.1387
rážky	-11.1388
▁krátký	-11.1389
▁olympijsk	-11.1389
▁summitu	-11.1391
▁orientaci	-11.1392
▁písemně	-11.1393
▁každodenní	-11.1393
▁dávk	-11.1395
▁nemovitosti	-11.1396
▁Zelen	-11.1398
▁podporují	-11.1398
▁výjimky	-11.1402
▁zbrojní	-11.1402
▁zpěvák	-11.1408
▁ukládání	-11.1411
▁64	-11.1413
▁ztrátou	-11.1414
▁klima	-11.1415
▁předmětů	-11.1417
▁kritéria	-11.1423
▁Fotbal	-11.1429
▁Pražského	-11.1432
▁uvede	-11.1432
zanedbateln	-11.1436
▁módní	-11.1442
▁obchodníci	-11.1442
▁Ger	-11.1444
▁snažili	-11.1447
▁Nor	-11.1449
▁živnost	-11.1449
▁resortu	-11.145
▁celkovém	-11.1451
▁jednalo	-11.1453
▁teplotě	-11.1455
▁smích	-11.1457
▁plyne	-11.1458
▁světla	-11.1462
▁sboru	-11.1465
▁Test	-11.1469
▁doplňk	-11.1471
▁předměty	-11.1473
▁zrušen	-11.1474
▁úplné	-11.1474
▁vnímá	-11.1474
▁překvapil	-11.1475
▁vůz	-11.1475
▁vyhlášen	-11.1481
iletá	-11.1484
▁německém	-11.1493
▁sjezdu	-11.1496
US	-11.1499
ohra	-11.1502
▁Michaela	-11.1503
▁zvuku	-11.1504
▁odehráv	-11.1506
▁hit	-11.1509
▁obdobné	-11.1513
▁návštěva	-11.1516
▁mapy	-11.1519
▁náhradu	-11.152
▁poslal	-11.1524
▁důkazy	-11.1527
▁známých	-11.1528
▁bojů	-11.1542
▁předchozích	-11.1543
vlastn	-11.1543
▁přijatelné	-11.1547
▁připravena	-11.1547
splnění	-11.1549
▁charakteru	-11.155
▁úspory	-11.1554
▁tvaru	-11.1555
▁úkoly	-11.1556
▁sestavení	-11.1558
▁některý	-11.1566
▁hráli	-11.157
jmenovaný	-11.1572
▁domluv	-11.1572
▁Sovětském	-11.1577
▁plát	-11.158
▁Ostravar	-11.1582
▁maďarský	-11.1582
▁kandidáty	-11.1583
▁zvukové	-11.1588
▁odbory	-11.1588
▁špičkové	-11.1588
▁planety	-11.159
SM	-11.1592
▁přiměřen	-11.1593
▁zvěř	-11.161
▁divu	-11.1621
kově	-11.1628
▁evropském	-11.1639
▁koalic	-11.164
▁konto	-11.1642
▁investorů	-11.165
řádně	-11.165
▁známe	-11.1653
▁sněmovn	-11.1654
▁chci	-11.1656
▁vstoupit	-11.1659
▁věty	-11.1661
▁magistrát	-11.1661
▁obyvatele	-11.1662
▁tip	-11.1663
▁period	-11.1673
▁mód	-11.1673
14	-11.1674
iček	-11.1675
novými	-11.1676
▁Boj	-11.168
íčko	-11.1681
▁uměle	-11.1687
▁metra	-11.1689
▁řízen	-11.169
OVÁ	-11.1692
▁osvět	-11.1693
▁Pražský	-11.1703
stávat	-11.1704
▁Prac	-11.1707
OP	-11.1721
▁mládež	-11.1723
▁podílí	-11.1726
tivnější	-11.1728
▁výkonů	-11.1729
rušit	-11.1729
▁mechanismu	-11.1729
▁Čechů	-11.1738
▁komunisti	-11.1744
šetřit	-11.1748
blok	-11.1755
▁integr	-11.1759
▁velkém	-11.1766
▁statut	-11.1766
mýšlí	-11.1767
rehabilit	-11.1767
▁Alžbět	-11.1767
▁CADKON	-11.1767
▁Finanční	-11.1767
▁Intergraph	-11.1767
▁Lebeď	-11.1767
▁Nejčastěj	-11.1767
▁Pithart	-11.1767
▁Srbů	-11.1767
▁altruismu	-11.1767
▁asistent	-11.1767
▁bližší	-11.1767
▁církvi	-11.1767
▁dědictví	-11.1767
▁komunální	-11.1767
▁konferencí	-11.1767
▁leasing	-11.1767
▁nepřetržit	-11.1767
▁neschopnost	-11.1767
▁nábytku	-11.1767
▁odmítají	-11.1767
▁odpovědí	-11.1767
▁ovlivněn	-11.1767
▁reagovat	-11.1767
▁schůzi	-11.1767
▁softwaru	-11.1767
▁strategii	-11.1767
▁technologii	-11.1767
▁triumf	-11.1767
▁ukazatel	-11.1767
▁uzavírá	-11.1767
▁vytvářejí	-11.1767
▁zpoždění	-11.1767
▁zpátky	-11.1767
▁zálivu	-11.1767
▁žádoucí	-11.1767
▁Vídni	-11.1767
▁Zjuganov	-11.1767
▁atentát	-11.1767
▁fenomén	-11.1767
▁jazz	-11.1767
▁nejstarší	-11.1767
▁otevírá	-11.1767
▁říjnu	-11.1767
▁dovednost	-11.1767
▁nárůst	-11.1767
▁nezaměstnaných	-11.1767
▁Mazda	-11.1767
▁Bratink	-11.1767
▁Mencl	-11.1767
▁splatnosti	-11.1767
▁vyvinut	-11.1767
▁nízká	-11.1767
▁vyznačuj	-11.1767
▁zpomal	-11.1767
▁podpoře	-11.1767
▁Polsko	-11.1767
▁navrhnout	-11.1767
▁nepřím	-11.1767
▁dokáží	-11.1767
▁zůstanou	-11.1767
▁mřížk	-11.1767
▁splnit	-11.1767
▁multi	-11.1767
▁zazněl	-11.1767
▁diagram	-11.1767
▁náprav	-11.1767
▁kombinaci	-11.1767
▁maximum	-11.1767
▁stůl	-11.1767
▁Praktick	-11.1767
▁zvolit	-11.1767
▁přednášk	-11.1768
▁Mimo	-11.1768
▁rozsáhlý	-11.1768
▁Andre	-11.1768
▁zařadil	-11.1768
▁Nabídk	-11.1768
▁délce	-11.1768
▁Charles	-11.1769
▁vrchní	-11.1769
▁komunikaci	-11.1769
▁trpí	-11.1769
▁zahrnut	-11.1769
▁vyrovnal	-11.1769
▁Zálež	-11.1769
▁junio	-11.1769
▁ligové	-11.1769
▁ponechat	-11.1769
▁Sedm	-11.1769
kryje	-11.177
▁kondom	-11.177
jíždí	-11.1771
▁okresů	-11.1771
▁nastat	-11.1771
▁podmíněn	-11.1772
▁kreslení	-11.1772
▁nakažen	-11.1773
▁pracovníka	-11.1773
▁Bonn	-11.1773
▁simul	-11.1773
▁nejvýše	-11.1773
▁Technick	-11.1774
▁52	-11.1774
▁interval	-11.1775
▁otec	-11.1775
▁bance	-11.1775
oprvé	-11.1776
▁Stručně	-11.1776
▁jmenuje	-11.1777
▁živočichů	-11.1777
▁nedal	-11.1782
▁resort	-11.1783
▁kilogramů	-11.1783
charakterizuj	-11.1783
▁blesk	-11.1783
▁rud	-11.1784
chytit	-11.1785
▁předal	-11.1785
▁pohybovat	-11.1787
▁přijímá	-11.1787
▁obchodování	-11.1789
▁respektovat	-11.1789
▁Data	-11.179
▁oleje	-11.1791
▁dočasně	-11.1791
▁prvé	-11.1791
▁mrav	-11.1792
▁odejít	-11.1793
▁Brazílie	-11.1793
jdu	-11.1796
▁postižených	-11.1796
▁energetické	-11.1801
▁květin	-11.1803
▁jistou	-11.1803
▁předcházel	-11.1803
omín	-11.1804
▁potřebujeme	-11.1805
▁pádu	-11.1805
▁fotbalov	-11.1806
▁šestnácti	-11.1807
hřeb	-11.1807
▁dokončení	-11.1807
▁poskytování	-11.1807
stanou	-11.1809
▁trik	-11.1809
▁padesátých	-11.1811
▁Mír	-11.1813
▁skládá	-11.1815
▁vkladů	-11.1819
▁nepříjemn	-11.1821
▁vyhlášení	-11.1821
▁zaplacení	-11.1824
▁kontrole	-11.1828
▁účinnosti	-11.1832
▁obtížně	-11.1835
▁zastavení	-11.1835
▁jezdil	-11.1837
▁vozidla	-11.1838
▁Kniha	-11.1838
▁Chci	-11.1839
▁kongresu	-11.1841
▁typický	-11.1843
▁Postup	-11.1846
▁schématu	-11.1851
▁ZÁ	-11.1856
▁uložit	-11.1858
▁katolické	-11.1859
schválila	-11.186
▁zakázky	-11.1863
▁objeven	-11.1865
být	-11.1869
▁Vstup	-11.187
vládne	-11.1876
▁probíhal	-11.1887
▁celo	-11.1888
▁Bro	-11.1889
▁listů	-11.189
▁míra	-11.1895
▁plic	-11.1896
▁vaku	-11.1897
▁pevn	-11.1898
▁titulů	-11.1906
▁nápady	-11.1913
▁brankáře	-11.1916
▁projeví	-11.1918
▁lidu	-11.1918
▁valné	-11.1919
▁hale	-11.1923
98	-11.1924
▁Siln	-11.1931
▁Jistě	-11.1942
▁sousedů	-11.1944
▁představoval	-11.1945
▁niž	-11.1946
▁růstem	-11.1948
▁maz	-11.195
svědčení	-11.1953
▁královsk	-11.1953
▁čínské	-11.1959
▁oblíben	-11.1961
▁čtenáři	-11.1963
▁vzá	-11.1965
etické	-11.197
▁Olympi	-11.1973
vodně	-11.1973
▁typick	-11.1973
▁dokázali	-11.1976
▁reprezentanti	-11.1978
▁jedenácti	-11.1979
▁očekávan	-11.1983
▁předpokladu	-11.1984
▁textové	-11.1985
▁nazýva	-11.1986
▁určení	-11.1988
▁uplynulý	-11.1989
▁jasný	-11.1989
▁zabývající	-11.1989
hodit	-11.1992
▁stejných	-11.1995
▁schéma	-11.1998
▁testy	-11.1998
▁tváří	-11.1999
▁neměly	-11.2003
▁specifické	-11.2004
▁loňsk	-11.201
▁služební	-11.201
▁zvýšila	-11.2014
▁přidal	-11.2014
▁společných	-11.2015
▁úvah	-11.2016
▁šla	-11.2018
▁spotřebitele	-11.202
▁symbolick	-11.202
21	-11.2021
pochyby	-11.2023
▁hotely	-11.2023
Ile	-11.2029
▁klíče	-11.2034
▁soli	-11.2042
bíhá	-11.2046
▁objevily	-11.2046
▁osudu	-11.2047
▁350	-11.205
▁expert	-11.2054
▁zeměmi	-11.2063
stupující	-11.2064
▁vznikající	-11.2067
▁zvlád	-11.2072
IG	-11.2073
▁Johna	-11.2077
členné	-11.2081
▁obdobn	-11.2084
▁jist	-11.2091
▁mís	-11.2091
▁zvířata	-11.2092
▁přijala	-11.2093
▁pravidelné	-11.2098
levo	-11.2099
▁nemocný	-11.2103
▁katolick	-11.2106
▁vysíla	-11.2107
trhl	-11.2108
▁přijateln	-11.2108
▁odmítli	-11.211
tivně	-11.2114
▁190	-11.2118
▁dividend	-11.212
▁Ján	-11.2125
▁chodb	-11.2126
▁včerejš	-11.2133
▁obsluh	-11.2136
▁rodinu	-11.214
▁požadovaný	-11.2141
▁získává	-11.2143
▁900	-11.2144
▁jazyka	-11.2152
stoupení	-11.2155
▁působ	-11.2157
▁pedagog	-11.2159
▁astronom	-11.216
▁předchozím	-11.2165
▁hrd	-11.2167
▁zkušen	-11.217
▁Invest	-11.2174
pomíná	-11.2185
▁hráčem	-11.2187
▁expozi	-11.2189
▁produk	-11.2191
škodliv	-11.2195
▁říkají	-11.2197
▁pozdě	-11.2198
▁Pozor	-11.2201
▁Bratislava	-11.2201
▁Casimir	-11.2201
▁Demokratick	-11.2201
▁Ostatní	-11.2201
▁Počítač	-11.2201
▁Tigrid	-11.2201
▁cizince	-11.2201
▁dodržování	-11.2201
▁galerii	-11.2201
▁generací	-11.2201
▁hlubší	-11.2201
▁hypotéz	-11.2201
▁kompetence	-11.2201
▁konstatuje	-11.2201
▁metropole	-11.2201
▁nejmodernější	-11.2201
▁nejznámější	-11.2201
▁nominální	-11.2201
▁otevřít	-11.2201
▁podpořit	-11.2201
▁požadovat	-11.2201
▁prohlídk	-11.2201
▁představenstva	-11.2201
▁přitažliv	-11.2201
▁semifinále	-11.2201
▁strategií	-11.2201
▁udržuje	-11.2201
▁vojáci	-11.2201
▁výsledn	-11.2201
▁wimbledonsk	-11.2201
▁zveřejnil	-11.2201
▁šablon	-11.2201
▁žadatel	-11.2201
dostatečnou	-11.2201
▁Kolumb	-11.2201
▁Majitel	-11.2201
▁Nedvěd	-11.2201
▁byznys	-11.2201
▁charakteristik	-11.2201
▁literární	-11.2201
▁polojasno	-11.2201
▁požadoval	-11.2201
▁složek	-11.2201
střílel	-11.2201
▁Africe	-11.2201
▁NDR	-11.2201
▁kodex	-11.2201
▁nátlak	-11.2201
▁stránky	-11.2201
▁vyhovuje	-11.2201
▁Dříve	-11.2201
▁údolí	-11.2201
▁divadle	-11.2201
▁patřičn	-11.2201
▁vystřídal	-11.2201
▁čtvrteční	-11.2201
▁nevidí	-11.2201
▁položky	-11.2201
▁logické	-11.2201
▁nízký	-11.2201
▁rytíř	-11.2201
▁Městsk	-11.2202
▁doporučil	-11.2202
▁počínaj	-11.2202
▁poplatek	-11.2202
▁vyrovnat	-11.2202
▁účinku	-11.2202
▁podobná	-11.2202
▁stoupá	-11.2202
▁Jugoslávie	-11.2202
chlazení	-11.2202
▁Prodej	-11.2202
▁Komerčn	-11.2202
▁nejhorší	-11.2202
▁štáb	-11.2202
povídat	-11.2202
▁potravinářské	-11.2202
▁splnil	-11.2202
▁Rychl	-11.2202
▁počkat	-11.2202
▁Maďarsku	-11.2202
▁fotografie	-11.2202
▁přijme	-11.2202
▁rakouský	-11.2202
následuj	-11.2203
▁korekc	-11.2203
▁reaktor	-11.2203
▁ničem	-11.2203
▁ekonomická	-11.2203
▁zaručen	-11.2203
▁nápoj	-11.2203
▁bohatství	-11.2203
▁malíř	-11.2204
▁Začal	-11.2204
▁Marie	-11.2204
▁radnici	-11.2205
▁verzí	-11.2205
▁vstupenk	-11.2205
▁vloni	-11.2205
▁barva	-11.2205
▁Uveden	-11.2206
▁neděle	-11.2206
▁vyhnout	-11.2206
▁lodi	-11.2207
▁dozor	-11.2207
▁jezdit	-11.2207
▁měkk	-11.2207
▁divok	-11.2208
▁Ruml	-11.2208
▁odhalen	-11.2209
▁psychiatr	-11.2211
▁nedostatku	-11.2213
▁peset	-11.2214
▁okresy	-11.2214
▁cement	-11.2214
▁změnám	-11.2215
serv	-11.2216
▁obřad	-11.2216
▁oborech	-11.2216
▁předcházející	-11.2217
▁podílet	-11.2217
▁uvědomit	-11.2217
▁odvet	-11.2218
▁centimetrů	-11.2221
▁EU	-11.2221
▁novinách	-11.2221
▁duch	-11.2221
▁prodejny	-11.2222
ujme	-11.2223
▁nemovitostí	-11.2223
▁překvapivě	-11.2224
▁zlatý	-11.2224
▁řekne	-11.2224
může	-11.2224
▁armádě	-11.2225
▁přelom	-11.2227
▁plánování	-11.2228
▁tabulka	-11.2232
▁Žid	-11.2232
▁složitý	-11.2234
▁zvaný	-11.2234
▁uvádějí	-11.2236
▁seriálu	-11.2237
▁krut	-11.2238
▁ocenění	-11.2243
▁astronomi	-11.2243
▁ukládá	-11.2244
▁prožil	-11.2245
celku	-11.2245
▁mládeže	-11.2247
▁referendum	-11.2247
▁kvalitou	-11.225
▁fotbalisté	-11.2251
▁návrhů	-11.2252
▁Dopravní	-11.2252
▁správce	-11.2252
▁zkušební	-11.2253
padesát	-11.2254
▁propojení	-11.2255
▁Excelu	-11.2256
▁přidat	-11.2257
▁trenérů	-11.2258
munist	-11.2259
▁oddíl	-11.2259
▁procesoru	-11.2263
▁hmotnosti	-11.2263
▁Budou	-11.2264
▁skalní	-11.2264
▁závazky	-11.2266
▁návštěvnost	-11.2273
NC	-11.2275
▁tvarů	-11.2281
▁budově	-11.2282
kého	-11.2282
▁šed	-11.2285
▁vozu	-11.2286
▁císaře	-11.2287
▁pokryt	-11.2288
Severoatlantické	-11.2291
▁dodavatele	-11.2292
▁vyjde	-11.2295
▁psa	-11.2296
▁energetický	-11.2296
▁Potřebuje	-11.2299
Gar	-11.23
▁optick	-11.23
▁zubní	-11.2302
▁stadiónu	-11.2303
▁Spor	-11.2304
▁materiálem	-11.2304
▁obchodníků	-11.2306
▁magistrátu	-11.2313
▁5000	-11.2313
▁Brod	-11.2319
▁položil	-11.232
▁lesa	-11.2322
▁dolů	-11.2323
ručí	-11.233
▁hrou	-11.2344
▁čínský	-11.2348
▁bojovn	-11.2348
▁tvůrc	-11.2348
▁Prof	-11.2352
▁evropským	-11.2353
▁ekologický	-11.2353
▁kupon	-11.2355
▁starého	-11.2357
▁zřízení	-11.236
▁odpovědnosti	-11.2361
▁Voj	-11.2364
▁konečn	-11.2367
▁krokem	-11.2371
▁jugoslávské	-11.2372
▁básník	-11.2375
▁podzimní	-11.2377
▁zkresl	-11.2378
▁vytvořila	-11.2378
čkem	-11.2381
▁zvýšily	-11.2385
▁studenty	-11.2387
▁zdát	-11.2391
▁rozpočtové	-11.2391
▁přírodního	-11.2392
▁novely	-11.2395
díval	-11.2396
▁obecný	-11.2399
▁platil	-11.2404
▁menu	-11.2405
▁strávil	-11.2408
▁Dal	-11.2409
otisk	-11.2411
▁průběžn	-11.2413
▁černý	-11.2413
▁ranní	-11.2418
▁překvap	-11.2421
DOS	-11.2429
▁muselo	-11.243
▁klíčový	-11.243
▁statistické	-11.2431
▁záměry	-11.2438
▁dav	-11.2441
▁zvon	-11.245
příkladu	-11.2451
26	-11.2454
▁sestavy	-11.2455
▁známá	-11.2455
▁zmíněn	-11.2459
▁Host	-11.2459
▁narazil	-11.2471
▁přesvědč	-11.2473
▁Spart	-11.2473
▁krále	-11.2479
▁významným	-11.2496
▁přesvědčiv	-11.2497
▁objevili	-11.2501
▁snadné	-11.2507
▁výhodu	-11.2508
přijeli	-11.2512
biologick	-11.2514
schopné	-11.2516
▁43	-11.252
▁volí	-11.2524
ářství	-11.2526
▁úpravu	-11.2527
míněn	-11.2533
▁znalost	-11.2542
▁Kan	-11.255
▁stadión	-11.2551
▁okruh	-11.2551
▁Volb	-11.2553
▁Výrob	-11.2556
▁projevy	-11.2556
▁garant	-11.2558
▁260	-11.2561
▁výtvarné	-11.2565
▁přehlídk	-11.2575
▁měří	-11.2577
▁plocha	-11.2582
▁úředník	-11.2597
ářských	-11.2603
▁uzná	-11.2609
▁stíhán	-11.2613
▁zub	-11.2619
▁velkoobchod	-11.2624
▁převážn	-11.2624
▁výstavb	-11.2624
zývají	-11.2637
▁horské	-11.2638
▁Mac	-11.264
pořádat	-11.2647
▁přesahuj	-11.265
natý	-11.2654
▁obličej	-11.2656
▁uprchl	-11.2656
FIFA	-11.2656
▁Budějovic	-11.2656
▁Dienstbier	-11.2656
▁Dosavadní	-11.2656
▁Fischer	-11.2656
▁Kongres	-11.2656
▁Manažer	-11.2656
▁Siemens	-11.2656
▁Skupina	-11.2656
▁Těžko	-11.2656
▁byrokrat	-11.2656
▁design	-11.2656
▁disponuj	-11.2656
▁družstvo	-11.2656
▁družstvu	-11.2656
▁geometrii	-11.2656
▁inflaci	-11.2656
▁naznačuje	-11.2656
▁neuspěl	-11.2656
▁normálně	-11.2656
▁označován	-11.2656
▁regenerace	-11.2656
▁rekonstrukce	-11.2656
▁rozšiřuje	-11.2656
▁rámečku	-11.2656
▁seznámit	-11.2656
▁skupenství	-11.2656
▁službě	-11.2656
▁strategické	-11.2656
▁transformační	-11.2656
▁zajistí	-11.2656
▁zúčastnit	-11.2656
▁Štědrý	-11.2656
▁1982	-11.2656
▁biskup	-11.2656
▁dodávek	-11.2656
▁posuzován	-11.2656
▁přiznává	-11.2656
▁shodují	-11.2656
▁stránku	-11.2656
▁Červen	-11.2656
připravoval	-11.2656
▁Poldi	-11.2656
▁středisko	-11.2656
▁čistíren	-11.2656
▁neomezen	-11.2656
▁středisku	-11.2656
▁vstupenek	-11.2656
▁zákrok	-11.2656
▁Armád	-11.2656
▁Dušan	-11.2656
▁vládnoucí	-11.2656
▁informován	-11.2656
▁velvyslanectví	-11.2656
▁posléze	-11.2656
▁žádat	-11.2656
▁Náklady	-11.2656
▁nabídkou	-11.2656
▁skromn	-11.2656
▁usiluje	-11.2656
▁uznat	-11.2656
▁vazeb	-11.2656
▁konstrukcí	-11.2656
▁Bavor	-11.2656
▁zastánc	-11.2656
▁udržova	-11.2656
▁jindy	-11.2656
▁Manžel	-11.2656
▁vazba	-11.2656
▁Varech	-11.2656
▁Otevř	-11.2656
▁tribunál	-11.2656
▁salát	-11.2656
▁leckd	-11.2656
▁hrůz	-11.2656
▁spoléha	-11.2657
▁senátní	-11.2657
▁přejít	-11.2657
▁Projekt	-11.2657
▁náhlé	-11.2657
▁nepotřebuje	-11.2657
▁nabídne	-11.2657
▁duševní	-11.2657
▁směřuje	-11.2657
▁rozmístěn	-11.2657
▁Rozhodnutí	-11.2658
▁Slavia	-11.2658
▁Oprav	-11.2658
krácen	-11.2658
▁chaos	-11.2658
▁integrace	-11.2658
▁zodpovědnost	-11.2658
▁chuť	-11.2658
▁trvající	-11.2658
▁nesporn	-11.2658
▁kated	-11.2659
▁regulační	-11.2659
▁nejsem	-11.2659
▁ohně	-11.266
▁Bělohradský	-11.266
střelen	-11.2661
▁Nadace	-11.2661
allye	-11.2663
▁podrobnosti	-11.2663
blížení	-11.2663
▁věrn	-11.2663
▁nezákonn	-11.2663
▁turné	-11.2665
▁Závod	-11.2666
ckner	-11.2666
▁kontrolovat	-11.2667
▁nedošlo	-11.2667
▁tmav	-11.2668
▁neumí	-11.2668
▁napaden	-11.2669
▁Milán	-11.267
▁strop	-11.2671
▁památek	-11.2672
▁svatb	-11.2674
▁slunce	-11.2674
▁kdykoliv	-11.2674
▁atmosféra	-11.2675
▁sedimentů	-11.2675
▁pozic	-11.2675
▁šedesátých	-11.2676
Přerov	-11.2677
▁faktory	-11.2677
▁souhlasit	-11.2678
▁sedmdesátých	-11.2678
▁pravděpodobné	-11.2679
▁zaslouží	-11.268
▁automat	-11.2681
▁kůže	-11.2681
▁upozornění	-11.2681
▁Kolek	-11.2684
▁Clintonov	-11.2687
▁pěkně	-11.2687
▁37	-11.2695
DU	-11.2699
▁vystupuj	-11.27
▁plná	-11.2704
▁dostaneme	-11.2705
objednáv	-11.2707
▁matka	-11.2708
▁Los	-11.2708
▁vyhodnocen	-11.271
▁Váš	-11.2711
▁značná	-11.2713
off	-11.2714
▁univerzitě	-11.2717
▁datové	-11.2717
▁uživatelé	-11.2718
▁dokázat	-11.2718
▁olympiádě	-11.272
▁zveřejnění	-11.2723
▁moři	-11.2723
▁luxusní	-11.2724
▁počátk	-11.2724
▁zatčen	-11.2725
kurzor	-11.2726
▁závažný	-11.2729
▁světeln	-11.273
▁sféry	-11.2731
▁Děl	-11.2731
▁závažné	-11.2732
▁dotazník	-11.2734
▁literatury	-11.2734
▁armádu	-11.2736
▁násiln	-11.2737
▁švédské	-11.2737
▁interní	-11.2738
▁tlakem	-11.274
▁dividendy	-11.2742
▁mise	-11.2743
▁zničení	-11.2744
▁zuby	-11.2749
▁slibuje	-11.2754
▁spojit	-11.2756
▁zbytky	-11.2756
▁zásadě	-11.2758
▁přizpůsob	-11.2761
▁Car	-11.2766
▁spojů	-11.2767
▁postupovat	-11.2767
▁nějakém	-11.277
▁nešlo	-11.2774
▁mateřské	-11.2778
▁ducha	-11.2779
▁způsobů	-11.278
dělat	-11.2782
▁Asie	-11.2783
▁jednal	-11.2783
▁městského	-11.2785
▁silným	-11.2787
▁alkoholu	-11.2787
▁činů	-11.279
pravují	-11.2791
▁metodou	-11.2795
▁Bulharsk	-11.2795
▁Fotbalist	-11.2795
▁analog	-11.2796
▁Změny	-11.2796
▁svěřenc	-11.2797
▁Lékaři	-11.2798
▁rozhovorů	-11.28
▁pojistného	-11.28
▁popisuje	-11.2804
▁samy	-11.2805
▁obory	-11.2807
▁podnikatelsk	-11.2807
▁doklady	-11.2808
▁Své	-11.2809
▁fyzika	-11.2811
▁argumenty	-11.2812
▁středo	-11.2812
▁olympiády	-11.2816
▁výstavní	-11.2819
▁závěrečném	-11.282
▁záruky	-11.2822
potřebě	-11.2825
▁prohráli	-11.2826
▁nutnosti	-11.2826
například	-11.2826
▁klienty	-11.2827
▁stopy	-11.2827
▁příslušného	-11.2828
▁fotbalista	-11.2829
▁Čtyři	-11.283
▁nastala	-11.2833
▁úspěchem	-11.2836
▁Poslanec	-11.2838
▁nebezpečný	-11.284
▁brněnsk	-11.2841
▁spojuje	-11.2851
hodinové	-11.2853
▁tělesné	-11.2866
▁republikou	-11.2866
▁pacienti	-11.287
▁podepsali	-11.2877
▁Konce	-11.2885
který	-11.2887
▁slovem	-11.2894
▁pout	-11.2903
▁Ann	-11.2905
▁Tisk	-11.2913
▁ČT	-11.2922
ENÍ	-11.2924
▁Nemoh	-11.2926
▁získaný	-11.2926
álka	-11.2935
▁urychl	-11.2936
▁mozkov	-11.2937
▁Con	-11.2982
▁hračk	-11.2986
▁prestiž	-11.2995
ŽE	-11.3003
▁důvěry	-11.3007
▁Vaše	-11.301
kreslen	-11.302
▁pěkn	-11.3022
▁Washington	-11.3028
▁nemocnic	-11.3028
▁nasazen	-11.3029
▁slun	-11.303
▁Rok	-11.3035
▁klíčové	-11.3036
▁Karadžiče	-11.3044
▁zničen	-11.3044
▁literatur	-11.3051
▁schůzk	-11.3051
hrají	-11.3056
▁sektor	-11.3056
▁užívá	-11.3062
▁známým	-11.3072
▁pouč	-11.3074
atmosfér	-11.3081
▁samostatn	-11.3081
hodná	-11.3083
▁oceněn	-11.3088
▁kout	-11.3093
▁náročný	-11.3099
▁podlehl	-11.3103
▁kouř	-11.3106
UN	-11.3107
šetří	-11.3114
▁Jir	-11.3124
nejvýš	-11.3125
ifikace	-11.3127
▁manažerské	-11.3131
▁organizáto	-11.3131
▁Blízké	-11.3132
▁Gabčíkov	-11.3132
▁Jindřich	-11.3132
▁Kreslení	-11.3132
▁Předpokládá	-11.3132
▁aplikaci	-11.3132
▁důležitou	-11.3132
▁filharmoni	-11.3132
▁kanalizace	-11.3132
▁kariéru	-11.3132
▁komunistů	-11.3132
▁konkurent	-11.3132
▁neexistují	-11.3132
▁nepřítel	-11.3132
▁ovlivnit	-11.3132
▁podmínkám	-11.3132
▁popularit	-11.3132
▁přirozeně	-11.3132
▁referenda	-11.3132
▁snižovat	-11.3132
▁svědky	-11.3132
▁ubytovací	-11.3132
▁vojáky	-11.3132
▁vynález	-11.3132
▁výpovědi	-11.3132
▁zneužití	-11.3132
▁zázrak	-11.3132
atlantick	-11.3132
▁lehké	-11.3132
▁předpokládal	-11.3132
▁setkáváme	-11.3132
▁Michail	-11.3132
▁fosilní	-11.3132
▁kontrakt	-11.3132
▁obrátit	-11.3132
▁paralel	-11.3132
▁pomůck	-11.3132
zřídka	-11.3132
▁přivezl	-11.3132
▁rubrik	-11.3132
▁stupeň	-11.3132
▁etapě	-11.3132
▁jedinců	-11.3132
▁zvyšují	-11.3132
▁Atlantiku	-11.3132
▁klobouk	-11.3132
▁nezmění	-11.3132
▁československý	-11.3132
▁politicky	-11.3132
▁povahy	-11.3132
▁antropologie	-11.3132
▁přírodu	-11.3132
▁Dynam	-11.3132
▁válku	-11.3132
▁Trans	-11.3132
▁talent	-11.3132
nutil	-11.3132
▁budoucna	-11.3132
imochodem	-11.3132
▁zbaven	-11.3132
▁češtině	-11.3132
hlíží	-11.3132
▁týče	-11.3132
▁výtečn	-11.3133
▁přídav	-11.3133
▁Karpov	-11.3133
▁administrativní	-11.3133
▁smečky	-11.3133
▁zkrátka	-11.3133
▁Boyle	-11.3133
▁Lendl	-11.3133
▁obzor	-11.3133
▁image	-11.3133
▁kombinace	-11.3133
▁mzda	-11.3133
▁chybět	-11.3133
▁vyšla	-11.3133
▁hokejisté	-11.3133
▁vytížen	-11.3133
▁Španělska	-11.3133
▁stavět	-11.3134
▁rumunsk	-11.3134
▁staletí	-11.3134
▁kritický	-11.3134
▁distributor	-11.3134
▁vyráběn	-11.3134
▁Středisk	-11.3135
▁poražen	-11.3135
▁Zdeňk	-11.3135
▁nálad	-11.3135
▁dostupné	-11.3135
▁rozprav	-11.3135
▁Říman	-11.3135
▁dívat	-11.3135
▁arabské	-11.3136
▁prapor	-11.3136
krývají	-11.3136
▁Optima	-11.3136
▁nohou	-11.3136
▁1980	-11.3136
▁Intel	-11.3136
▁Skot	-11.3136
▁ocenil	-11.3137
▁psů	-11.3137
▁solidní	-11.3138
▁liberální	-11.3138
▁Minul	-11.3138
▁nezbývá	-11.3138
▁příznivců	-11.3138
▁příjezd	-11.3138
▁jídla	-11.3139
▁převah	-11.3139
▁zabit	-11.3139
▁plnit	-11.3139
▁Maďarsko	-11.3139
▁JAK	-11.3139
▁2,5	-11.3139
▁Spolu	-11.314
▁ligový	-11.3141
▁Říká	-11.3141
kcionáři	-11.3142
▁Příští	-11.3143
▁Peck	-11.3143
následoval	-11.3143
▁arabský	-11.3144
▁znečištění	-11.3144
rovnávací	-11.3145
▁závodník	-11.3145
abilní	-11.3146
bydlí	-11.3146
▁Pokus	-11.3146
▁oken	-11.3146
▁Konec	-11.3147
▁vyměnit	-11.3148
▁varování	-11.3149
▁Škol	-11.3149
▁ráj	-11.315
▁sáze	-11.315
▁ohni	-11.3151
▁převést	-11.3151
▁osnov	-11.3151
68	-11.3151
▁nápln	-11.3152
▁tabu	-11.3152
▁matky	-11.3152
▁induk	-11.3153
▁uzavřena	-11.3153
sadit	-11.3153
▁euro	-11.3153
▁výraznější	-11.3154
▁vítr	-11.3155
kazil	-11.3155
▁dokončen	-11.3155
▁Krist	-11.3156
▁stád	-11.3157
▁kroků	-11.3159
▁Vesmíru	-11.3161
▁náležit	-11.3161
▁vybudování	-11.3164
zřetelně	-11.3166
▁uznávan	-11.3166
▁pohřeb	-11.3166
▁uvolnění	-11.3167
▁zvládnout	-11.3168
▁polární	-11.3171
▁hlasovat	-11.3173
▁podoba	-11.3174
▁vystoupí	-11.3175
▁stavba	-11.3175
▁kurt	-11.3176
escu	-11.3177
▁vzdal	-11.3178
▁Označ	-11.3179
▁genetick	-11.318
▁současným	-11.318
přesněji	-11.3182
▁Belgii	-11.3183
▁vyprš	-11.3183
▁expertů	-11.3186
▁kořeny	-11.3186
▁tržby	-11.3187
▁knížky	-11.319
▁částkou	-11.3192
konců	-11.3198
▁starostí	-11.3198
▁Slovák	-11.32
OT	-11.3202
▁průměrně	-11.3206
▁zachován	-11.3207
▁slyší	-11.3208
▁kontinentu	-11.3208
▁extrémní	-11.3219
▁volbou	-11.322
▁komet	-11.3222
NS	-11.3222
okres	-11.3228
▁zní	-11.323
▁majitelů	-11.3233
jadern	-11.3234
▁kluk	-11.3237
pomínají	-11.3237
▁kapacitou	-11.324
▁krevní	-11.3247
▁registrac	-11.3247
▁významně	-11.3252
▁učení	-11.3253
▁elektrický	-11.3256
danou	-11.3263
▁kanálů	-11.3268
▁německým	-11.327
▁Ekonomick	-11.3271
▁prestižní	-11.3271
▁zobrazen	-11.3271
dél	-11.3276
pracuje	-11.3277
▁obhájce	-11.3277
▁vytvořili	-11.3278
▁Voda	-11.3279
▁svalov	-11.3279
niknout	-11.3279
▁absolv	-11.3281
▁veškerý	-11.3282
▁uchazečů	-11.3284
▁had	-11.329
▁komentář	-11.3294
▁Las	-11.3295
▁krav	-11.3297
▁adapt	-11.3297
▁1500	-11.3297
▁čistě	-11.33
▁obchodě	-11.3301
▁krvi	-11.3309
žívání	-11.3315
AG	-11.332
▁nemocí	-11.332
▁detailní	-11.3321
řejmě	-11.3324
▁vzpomín	-11.3324
93	-11.3328
▁elektronické	-11.3332
▁převlád	-11.3334
▁subjektů	-11.3336
dvacetiletý	-11.3339
bund	-11.3341
▁archeolog	-11.3341
▁krásné	-11.3349
▁Aleš	-11.335
can	-11.3352
vláda	-11.3355
▁Mor	-11.3358
▁Žádn	-11.3363
▁italsk	-11.3368
▁Věr	-11.3369
▁tenisové	-11.3377
▁relativní	-11.3379
UJE	-11.3381
▁maďarské	-11.3383
▁bon	-11.3384
▁nezná	-11.3385
▁okraji	-11.3391
▁technologický	-11.3397
chrom	-11.3397
▁propadl	-11.3398
místo	-11.3409
tvrdí	-11.3411
▁odběratelů	-11.3423
▁obyčejný	-11.3428
▁ráz	-11.3432
nická	-11.3434
▁manažerů	-11.3434
▁jugoslávsk	-11.3439
▁biolog	-11.3467
▁krajní	-11.3469
▁elektronický	-11.3471
▁vítězů	-11.3481
▁125	-11.3492
▁hotové	-11.3493
▁Pražsk	-11.3502
▁kuponov	-11.3502
▁smrtí	-11.3514
▁zadní	-11.3518
▁organick	-11.3522
▁týkají	-11.3527
likvid	-11.3528
▁mak	-11.353
▁Svaz	-11.3531
▁uspořádal	-11.3545
▁totemismu	-11.3549
▁sfér	-11.3551
▁japon	-11.3557
▁Chorvat	-11.3567
▁atomové	-11.3568
▁odpovídají	-11.3572
▁Min	-11.3572
▁terorist	-11.3574
▁předání	-11.3578
▁řešen	-11.3579
▁záznamové	-11.3583
▁oddělen	-11.3584
▁komunismu	-11.3594
▁zřízen	-11.3596
▁předpis	-11.3603
hradit	-11.3607
▁brzd	-11.361
▁Masarykov	-11.3611
▁svobodný	-11.3611
▁norma	-11.3613
RS	-11.362
▁Závěr	-11.362
▁identifik	-11.3622
bírat	-11.3628
▁Bosn	-11.3628
olicejní	-11.363
▁konzerv	-11.3632
▁obdiv	-11.3632
▁Bohemia	-11.3632
▁počáteční	-11.3632
▁strategický	-11.3632
peptid	-11.3632
▁Boleslav	-11.3632
▁Doufám	-11.3632
▁HGF	-11.3632
▁Pojišťovna	-11.3632
▁Výsledek	-11.3632
▁Wembley	-11.3632
▁Zdravotn	-11.3632
▁anonymní	-11.3632
▁cizinců	-11.3632
▁definovat	-11.3632
▁dvojnásobek	-11.3632
▁dětmi	-11.3632
▁evidenci	-11.3632
▁humanitární	-11.3632
▁intenzivně	-11.3632
▁komfort	-11.3632
▁kriminál	-11.3632
▁království	-11.3632
▁lhůty	-11.3632
▁nabídnut	-11.3632
▁neúspěch	-11.3632
▁otázkách	-11.3632
▁ošetření	-11.3632
▁připomenout	-11.3632
▁revoluce	-11.3632
▁tvůrčí	-11.3632
▁týdnu	-11.3632
▁uhličitého	-11.3632
▁upozorňují	-11.3632
▁uskutečň	-11.3632
▁užitečné	-11.3632
▁veřejnou	-11.3632
▁výrobku	-11.3632
▁většinov	-11.3632
▁zajistil	-11.3632
▁zdravotně	-11.3632
▁zvyšovat	-11.3632
▁zážitek	-11.3632
neštěstí	-11.3632
▁Havlov	-11.3632
▁Poborského	-11.3632
▁PŘED	-11.3632
▁převzetí	-11.3632
▁sankce	-11.3632
▁sportovci	-11.3632
▁zloděj	-11.3632
▁řekněme	-11.3632
▁LDS	-11.3632
▁Strakoni	-11.3632
▁Výjimk	-11.3632
▁ostravské	-11.3632
▁umístit	-11.3632
▁skener	-11.3632
▁série	-11.3632
▁souprav	-11.3632
▁Mostaru	-11.3632
▁Nobelov	-11.3632
▁naprosté	-11.3632
▁sleduje	-11.3632
▁srpnu	-11.3632
▁krystal	-11.3632
▁mobilní	-11.3632
▁opačný	-11.3632
▁pátý	-11.3632
pomáhal	-11.3632
▁potravy	-11.3632
▁projednávání	-11.3632
▁zhoubn	-11.3632
▁MHz	-11.3632
▁centrem	-11.3632
▁komisí	-11.3632
▁nepatří	-11.3632
▁kompost	-11.3632
▁odevzda	-11.3632
▁stačit	-11.3632
▁Komora	-11.3632
▁Názor	-11.3632
▁chemie	-11.3632
▁stěžují	-11.3632
▁pozemků	-11.3632
skočit	-11.3632
▁minimum	-11.3632
▁národnostní	-11.3632
▁rozvinut	-11.3632
▁letišti	-11.3632
▁Ústí	-11.3632
▁konzervativní	-11.3632
▁veličin	-11.3632
▁sehnat	-11.3632
▁Počítá	-11.3632
▁Úprav	-11.3632
▁Prahu	-11.3633
▁shluk	-11.3633
▁obnovit	-11.3633
▁vyhověl	-11.3633
▁obránce	-11.3633
▁promítá	-11.3633
▁turisté	-11.3633
▁modernizaci	-11.3633
▁kostým	-11.3633
▁proběhla	-11.3633
▁nebrání	-11.3633
▁remíz	-11.3633
▁román	-11.3633
▁vykonávat	-11.3633
▁Filip	-11.3634
▁karet	-11.3634
▁podobnost	-11.3634
vážet	-11.3634
▁azyl	-11.3634
▁emise	-11.3635
▁pilot	-11.3635
▁realizaci	-11.3635
▁podoby	-11.3635
▁zaslal	-11.3635
▁diskusí	-11.3635
▁moudr	-11.3635
▁cítit	-11.3636
▁experimentální	-11.3636
▁1948	-11.3637
▁náhle	-11.3637
▁chrání	-11.3637
ford	-11.3637
▁dovoluje	-11.3638
▁Mistr	-11.3638
▁videa	-11.3638
▁léčení	-11.3638
▁Chang	-11.3639
▁potřebovat	-11.3639
▁půjčky	-11.3639
▁vylepš	-11.3639
▁dárk	-11.364
▁budování	-11.364
▁odmítnut	-11.3641
▁očima	-11.3642
▁nádob	-11.3644
▁volit	-11.3645
▁Klepn	-11.3645
▁bát	-11.3645
▁tabulku	-11.3646
▁rozdělit	-11.3646
▁podruhé	-11.3646
▁dovolí	-11.3646
určují	-11.3647
▁Vzá	-11.3647
▁nahoru	-11.3649
▁obává	-11.3649
▁Ukázal	-11.365
▁ušetří	-11.3651
▁atmosféru	-11.3651
▁přestane	-11.3651
▁oblib	-11.3652
▁formulář	-11.3653
rychlostní	-11.3655
▁prosím	-11.3656
▁venku	-11.3657
▁nechci	-11.3658
▁španělsk	-11.366
▁Karlový	-11.366
▁hovořili	-11.3664
▁hromadné	-11.3664
▁kolekc	-11.3664
▁užitku	-11.3664
▁Důvodem	-11.3664
▁přerušen	-11.3665
▁přišly	-11.3667
▁technikou	-11.3669
▁vkus	-11.3669
▁vybere	-11.3671
▁prostorách	-11.3675
▁láh	-11.3676
▁prvek	-11.3677
NG	-11.3677
▁vyhledá	-11.3677
▁Seznam	-11.3678
▁vydělal	-11.368
▁změnách	-11.3684
▁vycházet	-11.3685
▁pták	-11.3686
▁jednotné	-11.3686
▁týmů	-11.3687
▁architektury	-11.3689
▁vlastníkem	-11.3691
▁popsat	-11.3691
▁Smlouva	-11.3695
▁kontrolou	-11.3696
▁čelní	-11.3698
▁semináře	-11.37
▁pohotovost	-11.3701
▁Olomouce	-11.3701
slovní	-11.3702
▁automobilový	-11.3707
▁diplomatické	-11.3708
▁policisty	-11.3711
▁dělníků	-11.3712
▁voliči	-11.3712
▁ostrovů	-11.3714
▁běže	-11.3725
▁prodejně	-11.3733
▁technik	-11.3733
▁plní	-11.3735
▁stížnosti	-11.3737
▁nevíme	-11.374
▁zadání	-11.3746
▁POD	-11.375
▁izraelský	-11.3752
cestovat	-11.3764
▁závěrečný	-11.3767
▁Koup	-11.3768
▁Stan	-11.377
▁moravské	-11.3772
jížděl	-11.3774
▁chirurg	-11.3778
▁klinick	-11.3784
▁vstupuje	-11.3792
▁svazové	-11.3797
▁rozhodlo	-11.38
▁vzniklé	-11.3806
▁uvolnil	-11.3807
▁Tým	-11.3812
erie	-11.3817
▁způsobit	-11.3818
▁Večer	-11.3825
▁ústavů	-11.3847
▁věřím	-11.3853
▁bezpečně	-11.3853
▁Králov	-11.3854
▁používan	-11.3856
oporu	-11.3856
▁42	-11.3864
hrával	-11.3872
MF	-11.3874
▁reklamní	-11.3875
▁Podstatn	-11.3878
▁vycházel	-11.3879
▁tempo	-11.3879
▁140	-11.3886
▁procesů	-11.3892
▁cenové	-11.3899
76	-11.3928
sazování	-11.3932
▁Hal	-11.3959
▁obranné	-11.3969
▁soupeřů	-11.3975
▁Lig	-11.3977
▁Kup	-11.3978
izraelsk	-11.398
▁policist	-11.3982
▁tvůrce	-11.3983
morav	-11.3988
▁tuzemsk	-11.3988
▁Řekl	-11.4001
▁volič	-11.4006
▁Turist	-11.4007
▁psycho	-11.401
▁nejedn	-11.4011
svit	-11.4011
▁popsán	-11.402
ohledně	-11.4021
zie	-11.4023
mohou	-11.4024
▁využit	-11.4051
▁slabý	-11.4054
▁šampionát	-11.4055
▁stříbrné	-11.4055
atřicet	-11.4061
▁jakkoli	-11.4061
▁zemědělsk	-11.4063
▁vyžadují	-11.4063
▁aneb	-11.4076
▁účinnost	-11.4076
▁následk	-11.4077
▁těle	-11.4077
▁veřejný	-11.4085
▁spolupracovník	-11.409
▁56	-11.4091
▁Barn	-11.4092
▁kapr	-11.4095
projevilo	-11.4103
▁věčn	-11.4107
▁jednoznačný	-11.4107
▁zněl	-11.4117
▁integrovan	-11.4118
▁lázeňsk	-11.4118
▁příslušnost	-11.412
alternativ	-11.4123
▁Důvod	-11.4125
▁Japonsko	-11.4125
▁povolen	-11.4128
▁výpočet	-11.4135
▁zved	-11.4137
▁Maďar	-11.4149
ždyť	-11.4153
▁stanovené	-11.4154
ografii	-11.4158
▁šíří	-11.4158
sekretariát	-11.4158
▁Bayern	-11.4158
▁Dvořák	-11.4158
▁Jednotliv	-11.4158
▁Lubomír	-11.4158
▁Náměst	-11.4158
▁Sarajev	-11.4158
▁Schneider	-11.4158
▁Vinohrad	-11.4158
▁Weizs	-11.4158
▁bratislavsk	-11.4158
▁cizinci	-11.4158
▁cizině	-11.4158
▁deklarace	-11.4158
▁institut	-11.4158
▁kancléř	-11.4158
▁kmitočt	-11.4158
▁komunisté	-11.4158
▁lékáren	-11.4158
▁medailí	-11.4158
▁ministerstev	-11.4158
▁nejsilnější	-11.4158
▁nemožné	-11.4158
▁nečekaně	-11.4158
▁opozici	-11.4158
▁oslaben	-11.4158
▁oživení	-11.4158
▁portfoli	-11.4158
▁posouzení	-11.4158
▁přeháňky	-11.4158
▁redakci	-11.4158
▁restituční	-11.4158
▁skript	-11.4158
▁spánku	-11.4158
▁struktuře	-11.4158
▁tabulátor	-11.4158
▁tiskárna	-11.4158
▁univerzáln	-11.4158
▁uspokojení	-11.4158
▁uzávěr	-11.4158
▁vyloučit	-11.4158
▁zúčastní	-11.4158
zrcadl	-11.4158
▁Antonín	-11.4158
▁Benešov	-11.4158
▁altruist	-11.4158
▁archív	-11.4158
▁informovat	-11.4158
▁minerální	-11.4158
▁nevznik	-11.4158
▁ohlášen	-11.4158
▁princezn	-11.4158
▁přidružen	-11.4158
▁stadia	-11.4158
▁výkyvy	-11.4158
▁zlepšil	-11.4158
▁zlepšit	-11.4158
instalovat	-11.4158
šetřil	-11.4158
▁stoupenc	-11.4158
▁svatební	-11.4158
▁Libanon	-11.4159
▁Mazdy	-11.4159
▁lístky	-11.4159
▁nahrazen	-11.4159
▁preventivn	-11.4159
▁řemesl	-11.4159
▁válkou	-11.4159
▁letadlo	-11.4159
▁porušil	-11.4159
▁ČSAV	-11.4159
▁ohrom	-11.4159
▁licence	-11.4159
▁kádru	-11.4159
▁neuvažuj	-11.4159
▁slalom	-11.4159
▁čáry	-11.4159
hlédl	-11.4159
▁ovládat	-11.4159
▁doplnit	-11.4159
▁zahájí	-11.4159
▁Něco	-11.4159
▁Polsku	-11.4159
rozhodoval	-11.4159
▁penalt	-11.4159
▁pozemky	-11.4159
▁jedinečn	-11.4159
▁jídlo	-11.4159
▁jedinci	-11.4159
▁vyrábějí	-11.4159
▁účinný	-11.4159
▁potrvá	-11.4159
▁odškodnění	-11.4159
▁tisíciletí	-11.4159
▁užívat	-11.4159
▁Odhad	-11.4159
▁dealer	-11.4159
▁umístil	-11.4159
štejn	-11.4159
▁veliká	-11.4159
▁nestalo	-11.4159
▁USD	-11.4159
pálil	-11.4159
▁Maastrichtu	-11.4159
▁nebudu	-11.4159
▁návštěvníci	-11.4159
▁kůži	-11.4159
▁žánr	-11.416
▁hlášen	-11.416
▁odvozen	-11.416
▁městečk	-11.416
▁Holub	-11.416
▁Hlas	-11.416
▁dopředu	-11.416
▁nemění	-11.416
▁vracejí	-11.416
▁hornin	-11.4161
▁koncentrací	-11.4161
▁Krkonoších	-11.4161
▁přečte	-11.4161
▁setkat	-11.4161
▁Zásad	-11.4161
▁dřevěný	-11.4162
▁východisk	-11.4162
▁otřes	-11.4163
▁restaurací	-11.4163
▁zlata	-11.4163
▁ruchu	-11.4163
▁masa	-11.4163
▁dešťov	-11.4163
▁zakončen	-11.4163
▁léčba	-11.4164
▁mikroorganismů	-11.4164
▁zasvěcen	-11.4164
▁řešil	-11.4165
▁Juli	-11.4165
▁chybějící	-11.4165
▁jádra	-11.4165
přát	-11.4166
▁odstín	-11.4168
▁Nesmí	-11.4168
▁odmítnout	-11.4168
▁přenesen	-11.4168
▁spokojenosti	-11.4169
▁realizovat	-11.4169
lákat	-11.4171
▁úkor	-11.4171
▁náročnější	-11.4172
▁absurdní	-11.4172
▁městská	-11.4172
▁rozhodnuto	-11.4172
▁tuzemských	-11.4174
▁vydělat	-11.4174
▁SNS	-11.4174
▁stres	-11.4174
▁záložník	-11.4174
▁Situace	-11.4176
▁obrace	-11.4176
▁základnu	-11.4179
▁hlavě	-11.418
▁zkoušky	-11.4181
▁vidění	-11.4182
▁vyšetřovací	-11.4185
▁kytarist	-11.4188
▁opakovat	-11.4189
▁drát	-11.419
▁vykazuje	-11.4191
▁protokol	-11.4191
▁hostů	-11.4191
▁převeden	-11.4193
▁bohatý	-11.4193
▁oceňuj	-11.4193
▁letoun	-11.4193
0.000	-11.4193
▁Byt	-11.4194
▁kdybychom	-11.4194
▁mírou	-11.4196
▁myslíte	-11.4196
▁počítají	-11.4196
▁linek	-11.4199
▁ukládat	-11.4199
▁odvolal	-11.42
▁středně	-11.4203
▁víno	-11.4203
▁střelec	-11.4206
▁závazků	-11.4207
▁řádek	-11.4208
▁skvělé	-11.4209
▁vztahuje	-11.4212
▁právnick	-11.4213
▁Bójů	-11.4224
▁islámské	-11.4225
▁Hodn	-11.4228
▁stačilo	-11.4228
▁potka	-11.423
▁Chorvatsko	-11.423
▁varoval	-11.4231
▁kartě	-11.4236
▁boku	-11.4237
▁různá	-11.4239
▁vyplývající	-11.425
▁nalezení	-11.4257
▁otce	-11.4262
▁Pel	-11.4262
▁nespokojenost	-11.4265
▁Kamp	-11.4265
▁zájezdy	-11.4267
NSK	-11.4268
▁Husov	-11.4276
▁družic	-11.4283
▁soch	-11.4286
▁smrteln	-11.4288
▁politik	-11.4289
▁rodné	-11.4292
strašně	-11.4293
▁pevně	-11.4301
▁schémat	-11.4302
▁rána	-11.4313
▁Světov	-11.4319
7%	-11.4327
▁př	-11.4344
méno	-11.4344
▁91	-11.4345
▁členské	-11.4348
▁jeskyn	-11.4359
▁živý	-11.4371
▁kvalitativn	-11.4373
▁horský	-11.4377
▁pocházejí	-11.4382
▁postižení	-11.4382
▁cílov	-11.4385
▁srovnatelné	-11.4393
▁testů	-11.4401
▁kapitálový	-11.4421
▁hlava	-11.4423
▁magi	-11.4429
▁prezidentský	-11.4437
▁výtvarn	-11.4441
▁Král	-11.4445
způsobují	-11.4462
▁válečné	-11.4471
▁cílů	-11.4477
psychologick	-11.448
ÁNÍ	-11.448
▁uskutečnil	-11.4486
▁Tip	-11.4505
▁křesťan	-11.4509
šený	-11.451
87	-11.4524
NU	-11.4525
▁hrubé	-11.4534
▁srovnatelný	-11.4538
▁stromů	-11.456
▁speciálně	-11.4568
▁poločase	-11.4569
▁všeobecn	-11.4582
▁závazk	-11.4582
▁lacin	-11.4584
▁Potřeb	-11.459
▁odráž	-11.4591
▁Severoatlantick	-11.46
▁Atlant	-11.46
▁pozitiv	-11.4605
▁účet	-11.4614
▁adresář	-11.4619
▁teoretické	-11.4619
▁rozumné	-11.4622
▁zákoník	-11.4626
▁drahá	-11.4629
▁úzké	-11.4633
▁Tenis	-11.4634
sáhnout	-11.4642
▁přispíva	-11.4643
▁přítele	-11.4646
jednán	-11.4647
▁Ostrav	-11.4648
▁obdobný	-11.465
▁komplet	-11.4657
posled	-11.4658
▁věnuj	-11.466
▁Rumunsk	-11.4669
▁oblačno	-11.467
▁umožňují	-11.4672
jišťuje	-11.4681
▁dočasn	-11.4682
vrátit	-11.469
koupí	-11.4691
▁odjel	-11.4692
ČSSD	-11.4694
▁Dag	-11.4695
▁osmnáct	-11.4695
především	-11.4706
▁využije	-11.4712
▁administra	-11.4714
▁Bezpečnost	-11.4714
▁laboratorní	-11.4714
ejzajímavější	-11.4714
populárnější	-11.4714
škráb	-11.4714
▁Bierhoff	-11.4714
▁Evropou	-11.4714
▁Jackson	-11.4714
▁Jupiter	-11.4714
▁Karadžic	-11.4714
▁Letošní	-11.4714
▁Madrid	-11.4714
▁Naštěstí	-11.4714
▁Obyvatel	-11.4714
▁Olszewsk	-11.4714
▁Sněmovn	-11.4714
▁Softwar	-11.4714
▁Stehlík	-11.4714
▁arcibiskup	-11.4714
▁burzy	-11.4714
▁celosvětov	-11.4714
▁dirigent	-11.4714
▁energií	-11.4714
▁hepatocyt	-11.4714
▁kandidovat	-11.4714
▁krátkodobé	-11.4714
▁leccos	-11.4714
▁neexistoval	-11.4714
▁nešťastn	-11.4714
▁následovat	-11.4714
▁opozicí	-11.4714
▁premiéře	-11.4714
▁překážky	-11.4714
▁seriózní	-11.4714
▁stability	-11.4714
▁sudetský	-11.4714
▁televizor	-11.4714
▁totalitní	-11.4714
▁viceprezident	-11.4714
▁vzdělávání	-11.4714
▁zdůvodnil	-11.4714
▁závislá	-11.4714
▁Úspěšn	-11.4714
▁úspěšnost	-11.4714
▁Čtvrt	-11.4714
▁Město	-11.4714
▁Ukrajina	-11.4714
▁dostatečné	-11.4714
▁imunitní	-11.4714
▁kontext	-11.4714
▁nahrávk	-11.4714
▁odlišné	-11.4714
▁ozónu	-11.4714
▁podotkl	-11.4714
▁poskytne	-11.4714
▁preferenc	-11.4714
▁prezervativ	-11.4714
▁prokuratur	-11.4714
▁restitucí	-11.4714
▁tendenci	-11.4714
▁učebnic	-11.4714
▁výkres	-11.4714
▁výslovně	-11.4714
▁zakázán	-11.4714
▁získají	-11.4714
▁Litvínov	-11.4714
▁Moderní	-11.4714
▁Podívej	-11.4714
▁chorvatský	-11.4714
▁incident	-11.4714
▁kapitul	-11.4714
▁londýn	-11.4714
▁náleží	-11.4714
▁socialismu	-11.4714
▁výrobou	-11.4714
▁záleže	-11.4714
▁porušování	-11.4714
▁zachránil	-11.4714
▁znamení	-11.4714
▁filtr	-11.4714
▁laserov	-11.4714
▁těžší	-11.4714
▁Pražan	-11.4714
▁mrtvé	-11.4714
▁vyměnil	-11.4714
▁vyžádá	-11.4714
▁zemědělci	-11.4714
▁Dukly	-11.4714
▁Kopřiv	-11.4714
▁abeced	-11.4714
▁herečka	-11.4714
burgu	-11.4714
▁Island	-11.4714
▁MIDI	-11.4714
▁Mandler	-11.4714
▁chápán	-11.4714
▁živnostenský	-11.4714
▁položku	-11.4714
▁nutná	-11.4714
▁profese	-11.4714
▁Obvodní	-11.4714
▁naučit	-11.4714
▁hrozil	-11.4714
▁charitativní	-11.4714
▁příroda	-11.4714
▁ČSAD	-11.4714
▁druzí	-11.4714
▁Atleti	-11.4714
▁Vojenské	-11.4714
▁výlučn	-11.4714
▁zajímal	-11.4714
▁Dlouho	-11.4714
▁stěží	-11.4714
▁necelé	-11.4714
▁Hapal	-11.4714
▁rozumět	-11.4715
▁kubismu	-11.4715
▁převažuj	-11.4715
▁Maďarska	-11.4715
▁uplatňova	-11.4715
▁Akci	-11.4715
▁vystupoval	-11.4715
▁mýtu	-11.4715
▁proměnliv	-11.4715
▁frakc	-11.4715
▁zvrat	-11.4716
▁diváci	-11.4716
▁koncentraci	-11.4716
▁vyjít	-11.4716
▁provozovat	-11.4716
sudek	-11.4716
▁Soutěž	-11.4716
▁přečetl	-11.4716
▁Berger	-11.4716
▁utajen	-11.4717
▁kresb	-11.4717
▁poctiv	-11.4717
▁obvinil	-11.4717
▁kopané	-11.4718
▁kláštera	-11.4719
▁studené	-11.4719
▁tvorba	-11.4719
▁ultra	-11.4719
▁nesměl	-11.4719
▁česky	-11.472
▁cítil	-11.472
háněl	-11.472
ázev	-11.472
píší	-11.4721
▁loď	-11.4722
▁Příklad	-11.4722
▁balení	-11.4722
▁duši	-11.4723
▁kámen	-11.4724
▁publikace	-11.4724
▁úder	-11.4725
▁síni	-11.4725
▁sovětský	-11.4726
▁1950	-11.4726
▁přidělen	-11.4726
▁Politick	-11.4727
▁potvrzují	-11.4727
▁zvyklí	-11.4727
▁prázdninách	-11.4727
▁obdrží	-11.4728
▁očích	-11.4728
týž	-11.4728
▁obsáhl	-11.4728
▁vzorků	-11.4729
▁expozice	-11.473
▁utekl	-11.473
▁sbírky	-11.473
▁bohaté	-11.4731
▁ČESK	-11.4731
poškozené	-11.4731
▁plot	-11.4732
▁vznikne	-11.4732
▁osmnácti	-11.4733
▁trůn	-11.4734
▁připravují	-11.4734
▁dostupný	-11.4734
▁písma	-11.4734
▁vysílání	-11.4735
▁Prag	-11.4735
ůstek	-11.4735
▁vníma	-11.4736
▁alternativní	-11.4736
▁důstojník	-11.4738
▁Masaryk	-11.4738
▁chápe	-11.4738
▁dobro	-11.474
▁zanikl	-11.474
▁Alma	-11.4742
▁drobných	-11.4743
účtování	-11.4743
▁Potvrdil	-11.4744
▁Švýcarska	-11.4744
▁uplatňují	-11.4745
dávky	-11.4746
▁Syn	-11.4747
▁osobám	-11.4747
čínsk	-11.4748
▁zasáhnout	-11.4748
▁přihlásil	-11.4748
▁vyrovnání	-11.475
▁překvapiv	-11.4752
nechávají	-11.4752
▁náhodně	-11.4752
▁politikou	-11.4753
▁zvukových	-11.4753
▁měnil	-11.4754
▁infekce	-11.4756
▁branku	-11.4757
▁kompletní	-11.4757
ografické	-11.4758
▁mistrovsk	-11.4759
▁Rumunsko	-11.476
▁FC	-11.4761
tržení	-11.4763
▁potřebujete	-11.4764
▁trojic	-11.4765
▁předsednictv	-11.4767
▁čaj	-11.4768
▁sídla	-11.4769
▁psaní	-11.4771
▁izraelské	-11.4772
▁zajímá	-11.4774
▁prezidentovi	-11.4774
▁výměník	-11.4777
▁MOV	-11.4777
▁řádky	-11.4778
▁přerušení	-11.478
ňovací	-11.4781
▁částečn	-11.4782
hořel	-11.4782
LED	-11.4783
▁pravomocí	-11.4784
▁pětadvacet	-11.4789
lezsk	-11.4793
▁prodejna	-11.4796
▁momentáln	-11.4797
▁léto	-11.48
▁spojených	-11.4802
▁77	-11.4806
▁sídlí	-11.4807
▁udává	-11.4808
▁Řek	-11.4808
▁odjezd	-11.4809
▁získávání	-11.4811
▁jmenoval	-11.4814
▁Tvrdí	-11.4819
▁stříbrn	-11.4825
▁provozování	-11.4829
dána	-11.4831
▁armádní	-11.4831
▁poskytnutí	-11.4833
▁uzavřené	-11.4833
▁Optic	-11.4834
▁drav	-11.4834
▁měnov	-11.4835
▁Geo	-11.4838
▁tiskový	-11.4839
▁soukromým	-11.4845
▁levné	-11.4846
▁Baník	-11.4847
▁ověřen	-11.4849
▁zdokonal	-11.4853
▁životnost	-11.4855
▁mořské	-11.4857
▁přesvědčil	-11.4864
▁Buď	-11.4868
▁Alp	-11.4869
▁dosahují	-11.4874
▁vyjadřují	-11.4877
▁nezískal	-11.4884
▁slovenský	-11.4886
▁dokonalé	-11.4891
▁pivovarů	-11.4893
▁plánované	-11.4893
▁touh	-11.4895
▁zadržen	-11.4898
▁nálož	-11.4898
ařské	-11.4906
jednala	-11.4909
▁takzvané	-11.4909
▁odborů	-11.4915
▁pouh	-11.4915
▁nábožensk	-11.4923
▁faktur	-11.4924
▁230	-11.4924
ogenní	-11.4926
▁tečk	-11.4928
▁Obsah	-11.4936
bytová	-11.494
placení	-11.4944
▁svobodn	-11.4944
Centr	-11.4945
soudit	-11.4949
▁mozkové	-11.495
TER	-11.4953
ash	-11.4954
▁Sport	-11.4956
▁Švýcar	-11.496
▁výživ	-11.4968
▁Občansk	-11.4972
padnout	-11.4982
▁obyčejné	-11.4986
▁lidový	-11.4992
▁předčasné	-11.4994
tlačit	-11.5011
▁proměnil	-11.5014
▁hlás	-11.5015
archeologi	-11.5049
▁zdravý	-11.505
▁vesnic	-11.5054
▁klimatické	-11.5058
▁vyrovnaný	-11.5072
▁takzvaný	-11.5074
▁počítačov	-11.5076
▁etický	-11.508
▁příbuzné	-11.5086
▁vzkaz	-11.5093
vezm	-11.5095
▁dávn	-11.5104
▁komentáře	-11.5105
▁závažn	-11.511
▁Carl	-11.5113
▁Zákaz	-11.5116
tvořily	-11.5118
pozoruhodn	-11.512
▁poledne	-11.5124
▁Zemanov	-11.513
▁poradil	-11.5135
izování	-11.5137
▁186	-11.5144
▁mladík	-11.5147
▁úměrn	-11.5149
konalo	-11.5151
▁dospělé	-11.5151
▁letecký	-11.516
▁tradic	-11.5163
▁radio	-11.5181
▁vlastníků	-11.5187
▁chodil	-11.519
▁vědec	-11.5196
▁kongres	-11.5197
▁Ostravsk	-11.5198
▁vesmír	-11.5198
▁ponech	-11.5198
▁bojoval	-11.5204
▁muzeu	-11.5207
jednali	-11.5211
▁pojistn	-11.5228
▁jater	-11.5229
▁překvapen	-11.5232
▁potvrzen	-11.5254
▁dělník	-11.5266
389	-11.5266
▁vykoná	-11.5269
▁květ	-11.5278
▁náboženské	-11.5283
▁Staré	-11.5285
ukční	-11.5285
▁srozumiteln	-11.5289
německou	-11.5293
vyjádřen	-11.5294
▁restaur	-11.5294
▁klášte	-11.5298
▁Krkonoš	-11.5299
nešní	-11.53
▁Jugosláv	-11.5301
▁začínal	-11.5301
svobozen	-11.5302
▁nesprávn	-11.5302
doporučují	-11.5302
egyptsk	-11.5302
▁Běloruska	-11.5302
▁Eduard	-11.5302
▁Jihoafrick	-11.5302
▁Manchester	-11.5302
▁Městě	-11.5302
▁Niederl	-11.5302
▁Pentium	-11.5302
▁Polskem	-11.5302
▁Pořadatel	-11.5302
▁Poštovní	-11.5302
▁Rozhovor	-11.5302
▁Svorada	-11.5302
▁asteroid	-11.5302
▁displej	-11.5302
▁doprovázen	-11.5302
▁ekvivalent	-11.5302
▁generaci	-11.5302
▁gramotnost	-11.5302
▁hřbitov	-11.5302
▁instance	-11.5302
▁inzerát	-11.5302
▁konfiguraci	-11.5302
▁kooperac	-11.5302
▁mechanismy	-11.5302
▁ministerstvem	-11.5302
▁mrtvých	-11.5302
▁mužstvu	-11.5302
▁nejlevnější	-11.5302
▁nejvhodnější	-11.5302
▁nepřijatelné	-11.5302
▁organismů	-11.5302
▁oteplení	-11.5302
▁ovlivňova	-11.5302
▁označují	-11.5302
▁pohromadě	-11.5302
▁potvrdit	-11.5302
▁pracovišti	-11.5302
▁prohlašuje	-11.5302
▁protagonist	-11.5302
▁redukci	-11.5302
▁rozvržení	-11.5302
▁sluchátka	-11.5302
▁stabilitu	-11.5302
▁strojírenství	-11.5302
▁svědků	-11.5302
▁ubytovn	-11.5302
▁uskutečněn	-11.5302
▁vyjadřova	-11.5302
▁vzdělávací	-11.5302
▁výhrady	-11.5302
▁výsledcích	-11.5302
▁zachránit	-11.5302
▁zaměstnává	-11.5302
▁zvýhodněn	-11.5302
▁závazek	-11.5302
▁závislé	-11.5302
▁1981	-11.5302
▁Kepler	-11.5302
▁Mozart	-11.5302
▁Pravděpodobn	-11.5302
▁Thomas	-11.5302
▁Uvažuje	-11.5302
▁Vědci	-11.5302
▁bázi	-11.5302
▁kampaň	-11.5302
▁odehrál	-11.5302
▁podmínkami	-11.5302
▁složku	-11.5302
▁vyvrchol	-11.5302
▁zastávk	-11.5302
▁zbraň	-11.5302
▁Výběr	-11.5302
▁kliniky	-11.5302
▁očekávají	-11.5302
▁prokázán	-11.5302
▁pátrá	-11.5302
přihlášk	-11.5302
▁Balkán	-11.5302
▁komentoval	-11.5302
▁překonat	-11.5302
▁vyjednávání	-11.5302
▁Právní	-11.5302
▁kosmický	-11.5302
▁pouštní	-11.5302
▁hmyz	-11.5302
▁kontrast	-11.5302
▁obtíže	-11.5302
▁sazby	-11.5302
omputer	-11.5302
▁SNR	-11.5302
▁podléha	-11.5302
▁poplatků	-11.5302
▁vazbě	-11.5302
▁vyřešil	-11.5302
▁dráhu	-11.5302
▁jedinec	-11.5302
▁profesí	-11.5302
▁sérii	-11.5302
opakovaně	-11.5302
režie	-11.5302
▁prvotní	-11.5302
▁lidstva	-11.5302
▁ojediněle	-11.5302
▁přehrad	-11.5302
▁přijímat	-11.5302
▁odvahu	-11.5302
▁neviděl	-11.5302
▁zahrnují	-11.5302
▁Gross	-11.5302
▁otravy	-11.5302
▁čistírn	-11.5302
▁absenc	-11.5302
▁povahu	-11.5302
KDS	-11.5302
▁uplatnil	-11.5302
hlížel	-11.5303
▁Smith	-11.5303
▁kolaps	-11.5303
▁partie	-11.5303
▁Reuter	-11.5303
▁sladk	-11.5303
▁jarní	-11.5303
▁nadějn	-11.5303
▁postačí	-11.5303
▁zastupitelstvo	-11.5303
hlédnutí	-11.5303
▁2:1	-11.5303
▁Radovan	-11.5303
▁vpravo	-11.5303
▁velkolep	-11.5303
▁obezit	-11.5303
▁patent	-11.5303
▁cvičení	-11.5303
▁kombinací	-11.5303
▁počty	-11.5303
obdržela	-11.5303
▁Kučer	-11.5303
▁etapy	-11.5303
▁liberalizac	-11.5303
▁dimenz	-11.5303
▁doplnil	-11.5303
▁sportovce	-11.5303
▁filozofii	-11.5303
▁smečka	-11.5303
▁ohlas	-11.5303
▁Vilém	-11.5304
▁afér	-11.5304
▁finance	-11.5304
▁ekonomickou	-11.5304
▁Kvalit	-11.5304
▁konverz	-11.5304
▁převrat	-11.5304
▁lůžk	-11.5304
▁Baker	-11.5304
ohrozil	-11.5304
▁Ford	-11.5304
▁Španělsko	-11.5304
▁zaměřuje	-11.5304
▁sníží	-11.5304
▁spoření	-11.5304
▁dvor	-11.5304
▁koncentr	-11.5305
▁derby	-11.5305
▁1998	-11.5305
▁léčbě	-11.5305
▁hluboký	-11.5305
▁Krás	-11.5305
▁děkan	-11.5305
běhne	-11.5305
▁zmenšen	-11.5305
▁členění	-11.5306
pravdě	-11.5306
▁Hráč	-11.5306
▁nedostatkem	-11.5306
▁studii	-11.5306
▁WAV	-11.5306
▁nezvykl	-11.5306
▁výměr	-11.5306
▁článků	-11.5307
ředstavitelé	-11.5309
▁Přírod	-11.5309
jednává	-11.5309
▁běží	-11.531
▁jednotlivců	-11.531
▁švýcarské	-11.5311
▁pravice	-11.5311
▁ISO	-11.5311
▁vyzván	-11.5311
▁Winter	-11.5311
▁vynesl	-11.5311
▁pravdy	-11.5312
▁předloh	-11.5312
▁dozví	-11.5312
▁mezer	-11.5313
▁pestr	-11.5313
▁trase	-11.5313
▁tureck	-11.5314
eportáž	-11.5314
▁zvláštnost	-11.5315
▁celky	-11.5315
▁závěrečné	-11.5315
▁dálkové	-11.5316
▁sbírek	-11.5316
▁prosazuje	-11.5317
▁čelit	-11.5317
▁salon	-11.5318
▁alternativy	-11.5318
▁usilují	-11.5319
▁průvodce	-11.5319
vypořádá	-11.532
▁podávání	-11.5321
▁tenkrát	-11.5321
▁udělen	-11.5321
▁plus	-11.5322
▁vyplni	-11.5322
▁tvrdit	-11.5322
▁protivník	-11.5323
▁jakéhokoli	-11.5324
▁okresu	-11.5325
▁správnou	-11.5325
▁Provoz	-11.5326
▁nákladech	-11.5326
▁lodí	-11.5327
▁anketě	-11.5327
▁základny	-11.5327
▁mohutn	-11.5328
▁ušetřit	-11.5328
▁památky	-11.5329
▁pomáhat	-11.5329
▁vyhleda	-11.5332
▁skutečnou	-11.5332
▁námět	-11.5333
▁dýcha	-11.5333
▁porost	-11.5336
▁silami	-11.5336
▁pití	-11.5337
▁ideologick	-11.5337
▁skupinách	-11.5338
▁znamenala	-11.5338
▁branky	-11.5341
▁domku	-11.5342
▁Kolín	-11.5342
▁jmenování	-11.5343
▁komunismus	-11.5347
▁nazval	-11.5348
▁pozorovatelů	-11.535
▁pětinu	-11.5351
hlédne	-11.5351
árek	-11.5354
▁NT	-11.5355
▁pozdní	-11.5355
▁obchodech	-11.5355
▁vyznačen	-11.5356
▁vydrží	-11.5356
▁myln	-11.5358
▁záměrně	-11.5359
▁stranách	-11.5359
▁skoku	-11.5361
▁štít	-11.5361
▁zkrac	-11.5362
▁pomník	-11.5363
▁vidíte	-11.5365
dále	-11.5367
▁využívající	-11.5371
▁Palác	-11.5373
▁zažil	-11.5378
▁odluk	-11.5379
▁obuv	-11.5381
▁přibývá	-11.5381
▁Žádný	-11.5384
▁těsné	-11.5396
▁pozval	-11.5397
▁maličkost	-11.5398
▁Horní	-11.54
kromě	-11.5404
dáte	-11.5405
SOU	-11.541
print	-11.5413
▁armád	-11.5414
▁polský	-11.5415
program	-11.5416
▁publikací	-11.5417
reál	-11.5424
▁opon	-11.5427
▁jednotný	-11.5428
sazení	-11.5453
▁atomov	-11.5456
elektrick	-11.5461
▁jednotka	-11.5467
rozuměj	-11.5474
▁samostatnost	-11.5481
▁závodníků	-11.5485
▁neobvykl	-11.5492
OJ	-11.5492
▁desítká	-11.5492
▁rozlož	-11.5495
pouštět	-11.5507
▁odbornost	-11.5511
▁Osm	-11.5519
▁ledové	-11.5521
▁stabiliz	-11.5547
▁dvaadvacet	-11.5547
▁Přibyl	-11.5549
▁perspektivní	-11.5552
ktické	-11.5553
▁vznikal	-11.5559
▁měřit	-11.5563
▁technologické	-11.5577
OSTI	-11.5579
▁třetin	-11.5585
▁skleníkový	-11.5586
▁hokejové	-11.5587
▁Nedo	-11.5587
ikonu	-11.5594
▁muslimsk	-11.5605
▁geo	-11.5605
▁očekávané	-11.5608
▁povrchové	-11.5623
▁spolupracují	-11.563
▁skleník	-11.5634
▁oblíbený	-11.5639
▁dialogové	-11.564
▁anglick	-11.5642
▁příznivé	-11.5642
▁bosen	-11.5656
obrazit	-11.5659
▁Čtyř	-11.5687
ručně	-11.5695
HP	-11.5702
▁fakult	-11.5708
▁maxim	-11.5723
▁úvod	-11.5725
mentálně	-11.5725
▁Novotn	-11.5729
▁hub	-11.5731
▁nadměrn	-11.5737
▁Hub	-11.5739
▁450	-11.5743
▁kritéri	-11.5749
▁hrozn	-11.5749
▁240	-11.5765
▁pravomoc	-11.5767
▁krev	-11.5786
▁parametr	-11.5789
▁neobvyklé	-11.5789
▁družstevní	-11.579
▁vozov	-11.5793
▁Histori	-11.5796
▁výjimk	-11.5809
hrání	-11.5812
▁Vaš	-11.5815
▁Moc	-11.5819
▁koordinac	-11.5824
▁úloh	-11.5824
BU	-11.5829
▁61	-11.5845
▁využívají	-11.5854
▁ústřed	-11.5857
pojit	-11.5862
▁Velký	-11.5872
DP	-11.5874
▁Brněnsk	-11.5874
eckém	-11.5877
▁ukončen	-11.588
▁uvolněn	-11.5881
▁ovládá	-11.5883
▁dokonč	-11.5899
▁centimetr	-11.5899
uskutečnila	-11.5908
funk	-11.5911
▁algoritm	-11.5913
▁dívá	-11.5918
podivu	-11.5922
▁účinně	-11.5926
členný	-11.5926
▁fundamentalist	-11.5927
Cagiva	-11.5927
▁Apple	-11.5927
▁Barcelony	-11.5927
▁Dudajev	-11.5927
▁Frankfurt	-11.5927
▁Harrachov	-11.5927
▁Honecker	-11.5927
▁Konkrétn	-11.5927
▁Liverpool	-11.5927
▁Lobkowicz	-11.5927
▁Moskvy	-11.5927
▁Měsíc	-11.5927
▁Původní	-11.5927
▁Schumacher	-11.5927
▁Stráský	-11.5927
▁angličtiny	-11.5927
▁atribut	-11.5927
▁cizinec	-11.5927
▁databázový	-11.5927
▁dosaženo	-11.5927
▁dětství	-11.5927
▁efektivnosti	-11.5927
▁epidemie	-11.5927
▁eventuáln	-11.5927
▁evoluce	-11.5927
▁exhibic	-11.5927
▁expanz	-11.5927
▁extremist	-11.5927
▁hollywoodsk	-11.5927
▁intenzivní	-11.5927
▁jménu	-11.5927
▁kinematografie	-11.5927
▁komplikace	-11.5927
▁konkurs	-11.5927
▁kriminalist	-11.5927
▁kritizoval	-11.5927
▁lhůtě	-11.5927
▁metabolick	-11.5927
▁mláďat	-11.5927
▁nabízel	-11.5927
▁nabízet	-11.5927
▁nelíbí	-11.5927
▁nesmějí	-11.5927
▁notebook	-11.5927
▁ohrozit	-11.5927
▁pohledávky	-11.5927
▁pozůstatk	-11.5927
▁počínání	-11.5927
▁pronájmu	-11.5927
▁pódiu	-11.5927
▁rozšiřování	-11.5927
▁skrývá	-11.5927
▁spekulace	-11.5927
▁spekulací	-11.5927
▁svědectví	-11.5927
▁tlačítek	-11.5927
▁trápí	-11.5927
▁vyčleněn	-11.5927
▁vztazích	-11.5927
▁výdělečn	-11.5927
▁zdůrazňuje	-11.5927
▁ÚSES	-11.5927
▁úředníci	-11.5927
▁ČSTK	-11.5927
▁Čarnogursk	-11.5927
generační	-11.5927
▁Budinský	-11.5927
▁Luboš	-11.5927
▁Opět	-11.5927
▁TNF	-11.5927
▁Větší	-11.5927
▁hnízd	-11.5927
▁levněji	-11.5927
▁nazývá	-11.5927
▁poloostrov	-11.5927
▁polštář	-11.5927
▁předpokládají	-11.5927
▁redakční	-11.5927
▁separatist	-11.5927
▁seznámil	-11.5927
▁stadion	-11.5927
▁znepokojen	-11.5927
kontaminac	-11.5927
▁bezespor	-11.5927
▁bydliště	-11.5927
▁omezování	-11.5927
▁ropovod	-11.5927
▁lůžek	-11.5927
▁plynáren	-11.5927
Oscar	-11.5927
▁poskytovan	-11.5927
▁prodavač	-11.5927
▁Vánoční	-11.5927
▁profesní	-11.5927
▁rozmnož	-11.5927
▁učební	-11.5927
▁výzvu	-11.5927
▁šlecht	-11.5927
▁Tchaj	-11.5927
▁kosmické	-11.5927
▁mrtvol	-11.5927
▁nekončí	-11.5927
kompenz	-11.5927
▁Haagu	-11.5927
▁nerozumí	-11.5927
▁přiznat	-11.5927
▁matematické	-11.5927
▁terminologi	-11.5927
KDH	-11.5927
▁Vánoce	-11.5927
▁sdružuj	-11.5927
▁skandál	-11.5927
▁belgick	-11.5927
▁spektrum	-11.5927
▁pojmy	-11.5927
▁nazvaný	-11.5927
▁odlišuj	-11.5927
▁recenze	-11.5927
▁pronajat	-11.5927
▁demisi	-11.5927
▁minulou	-11.5927
▁Easy	-11.5928
▁uváděl	-11.5928
▁Myslíte	-11.5928
▁nejmladší	-11.5928
▁pokouší	-11.5928
▁mezisklad	-11.5928
▁praxí	-11.5928
▁plakát	-11.5928
▁pryč	-11.5928
▁nevadí	-11.5928
▁koupě	-11.5928
týkat	-11.5928
▁mutace	-11.5928
▁napodob	-11.5928
major	-11.5928
▁převyšuj	-11.5928
▁Kyjev	-11.5928
▁hygienické	-11.5928
▁stereo	-11.5928
▁vyvážen	-11.5928
kročit	-11.5928
▁reprezentuje	-11.5928
▁zastupování	-11.5928
▁snižují	-11.5928
▁Neznám	-11.5928
▁levicov	-11.5928
▁PŘI	-11.5928
▁Římě	-11.5928
týkal	-11.5928
▁něčím	-11.5928
▁pohlaví	-11.5928
▁veterán	-11.5928
▁bydlet	-11.5928
▁zastupitelství	-11.5928
▁usiloval	-11.5928
▁inteligentní	-11.5929
▁inkas	-11.5929
▁strážníci	-11.5929
▁rovnost	-11.5929
▁ocas	-11.5929
▁Group	-11.5929
2:0	-11.5929
▁výtisk	-11.5929
▁ledovce	-11.5929
▁spuštění	-11.5929
▁neodpovídá	-11.5929
▁slyšel	-11.5929
▁vyrobil	-11.5929
▁teplé	-11.5929
▁součin	-11.593
▁sousedství	-11.593
▁námitky	-11.593
▁průhledn	-11.593
▁nezajímá	-11.593
▁střechy	-11.593
▁vápenc	-11.593
▁komunikací	-11.5931
▁interpretace	-11.5931
▁grant	-11.5931
▁pyšn	-11.5931
▁někam	-11.5931
▁stoprocentní	-11.5931
▁HDP	-11.5932
▁Dukla	-11.5932
▁norem	-11.5932
▁léčby	-11.5932
▁sumy	-11.5932
▁běžc	-11.5932
▁stolní	-11.5932
▁Olg	-11.5932
STAV	-11.5933
▁Thun	-11.5933
▁Nájem	-11.5933
▁pamatuje	-11.5933
▁složitost	-11.5934
▁kabin	-11.5934
▁kníže	-11.5934
▁Nemůže	-11.5935
▁hmotnost	-11.5935
▁prudké	-11.5936
▁Prohlásil	-11.5936
kontinentální	-11.5937
▁datum	-11.5937
▁dostavil	-11.5937
▁Grafová	-11.5938
▁určí	-11.5938
▁švýcarský	-11.5939
▁ptát	-11.5939
▁Solid	-11.5939
bajt	-11.5939
▁přežil	-11.594
▁hektarů	-11.5941
▁Lys	-11.5941
▁teplý	-11.5942
▁poškodil	-11.5942
▁geografick	-11.5943
▁jmenovat	-11.5943
Finsko	-11.5943
▁pozitivně	-11.5944
▁prodejců	-11.5944
▁přenést	-11.5944
míří	-11.5944
▁minima	-11.5945
▁Neměl	-11.5945
▁selekčn	-11.5946
▁dílčí	-11.5946
▁novinkou	-11.5947
▁makro	-11.5948
▁Zpočátku	-11.5948
▁účelům	-11.5948
▁Postupně	-11.5949
▁špičkových	-11.595
▁Libor	-11.595
▁naučil	-11.595
▁dějinách	-11.5951
▁sídlo	-11.5951
▁hluk	-11.5952
tahuje	-11.5953
▁předešl	-11.5953
▁přestávce	-11.5954
▁Web	-11.5955
▁Tatra	-11.5956
▁10%	-11.5956
▁zkoušku	-11.5959
▁Polák	-11.5962
rozuměl	-11.5962
▁uznává	-11.5965
▁rozměrů	-11.5968
▁odhaduje	-11.5969
▁Vodičk	-11.5969
▁zvířete	-11.5969
▁Rozhodn	-11.5969
▁sestra	-11.5971
▁socialistické	-11.5971
▁nebýval	-11.5973
▁zvolí	-11.5974
▁svazek	-11.5977
▁LID	-11.5978
platila	-11.5981
▁inspektor	-11.5981
▁59	-11.5983
▁List	-11.5986
▁zapsán	-11.5987
▁invalidní	-11.5988
vlas	-11.5989
▁Zkus	-11.599
▁filozofické	-11.5994
▁Listin	-11.5996
▁starožitnost	-11.5996
▁rizikový	-11.5999
atřicetilet	-11.6003
▁klientel	-11.6003
▁Těm	-11.601
▁příjemný	-11.601
▁gest	-11.6015
▁organ	-11.6016
▁prázdné	-11.602
▁vyhrazen	-11.6023
▁pěkný	-11.6031
▁94	-11.6034
▁hád	-11.6035
▁omezeným	-11.6035
▁nepříjemný	-11.6036
▁pomocník	-11.604
▁vzrost	-11.6048
▁zlikvidov	-11.6053
▁lese	-11.6055
▁čar	-11.6056
▁vývojový	-11.6061
▁zaujím	-11.6086
▁zásobník	-11.6089
▁sond	-11.609
▁zhodnoc	-11.6093
TON	-11.6093
psání	-11.6098
sunut	-11.6108
▁vývojář	-11.6109
▁výzkumné	-11.6113
vládní	-11.6114
▁neobyčejn	-11.6117
hrnul	-11.6119
▁demokrat	-11.6127
rovnávání	-11.6129
slouží	-11.614
vinil	-11.6144
▁monopolní	-11.616
škodí	-11.6173
▁jakoukoli	-11.6175
▁Ivo	-11.6181
▁položen	-11.6184
1992	-11.6188
▁řecké	-11.619
▁trojnásobn	-11.6192
USA	-11.6195
pracování	-11.6199
▁ilustrac	-11.62
▁Žád	-11.6201
UD	-11.6209
▁levný	-11.6216
které	-11.6227
▁elektrod	-11.6231
jistá	-11.6235
▁konstatova	-11.6239
▁stanovil	-11.6243
▁hostin	-11.6251
▁nákladné	-11.6258
▁Rozhodl	-11.6281
▁používané	-11.6301
▁vizi	-11.631
▁Švéd	-11.6322
▁etnick	-11.6328
▁evoluční	-11.6332
▁peče	-11.6344
růstá	-11.6344
▁uklid	-11.635
▁sovět	-11.6352
▁krásn	-11.636
▁uvolni	-11.6384
▁nepřinesl	-11.6385
▁Obchod	-11.6395
▁neprav	-11.6398
▁vyjadřuj	-11.6401
▁William	-11.6405
▁62	-11.6406
▁nud	-11.6413
▁využíván	-11.6415
▁uvědomil	-11.6437
▁druž	-11.644
▁publika	-11.6444
vědčí	-11.6446
▁přírodovědeck	-11.6449
▁příznačn	-11.6458
▁táhn	-11.6461
▁Opti	-11.6466
▁Tvrd	-11.647
obyčejně	-11.647
▁mask	-11.6477
▁kontinent	-11.6478
▁vozidl	-11.648
▁leteck	-11.6482
▁Knih	-11.6487
▁akciov	-11.6502
▁závislost	-11.6512
▁knížk	-11.6514
čítat	-11.6514
▁zkušebn	-11.6515
▁milost	-11.6518
▁zbytečný	-11.652
▁Míst	-11.6521
sovětsk	-11.6521
dražil	-11.6521
▁souhlasil	-11.6524
tabulk	-11.6525
▁Dět	-11.6539
▁zaplacen	-11.6541
▁infekc	-11.6543
▁naplněn	-11.6549
▁Brazíli	-11.6551
▁uplatňuj	-11.6559
▁dvacát	-11.6559
▁Způsob	-11.6563
máhat	-11.6564
▁sediment	-11.6566
▁penzi	-11.6569
spektr	-11.6574
hodinový	-11.6582
chybějí	-11.6588
reprezenta	-11.6589
▁KSČ	-11.6591
▁Začátk	-11.6593
▁Účast	-11.6593
ality	-11.6594
ntelektuál	-11.6594
▁Vídeň	-11.6594
▁elementární	-11.6594
▁mediální	-11.6594
JPEG	-11.6594
sloučenin	-11.6594
▁Austrálie	-11.6594
▁Domnívám	-11.6594
▁FBIS	-11.6594
▁Harvard	-11.6594
▁Informace	-11.6594
▁Ludvík	-11.6594
▁Mitterrand	-11.6594
▁Oldřich	-11.6594
▁Pivovar	-11.6594
▁Saúdsk	-11.6594
▁Vešker	-11.6594
▁WWW	-11.6594
▁definice	-11.6594
▁deklaraci	-11.6594
▁důležitější	-11.6594
▁federaci	-11.6594
▁firmách	-11.6594
▁fungování	-11.6594
▁hardwarov	-11.6594
▁interiér	-11.6594
▁jednodušší	-11.6594
▁komentátor	-11.6594
▁konfigurace	-11.6594
▁konkurovat	-11.6594
▁krasobruslař	-11.6594
▁literatuře	-11.6594
▁marketingu	-11.6594
▁nacionalism	-11.6594
▁nominaci	-11.6594
▁novotvary	-11.6594
▁nukleární	-11.6594
▁odpovědět	-11.6594
▁pneumatik	-11.6594
▁pojišťovnou	-11.6594
▁poptávku	-11.6594
▁problematice	-11.6594
▁předpovědi	-11.6594
▁předvánoční	-11.6594
▁přerozdělování	-11.6594
▁racionální	-11.6594
▁referát	-11.6594
▁rekreaci	-11.6594
▁rozsáhlejší	-11.6594
▁rozvíjejí	-11.6594
▁rozčleněn	-11.6594
▁rubrice	-11.6594
▁seskupení	-11.6594
▁stěžovat	-11.6594
▁symplektick	-11.6594
▁trénovat	-11.6594
▁vláken	-11.6594
▁vypráví	-11.6594
▁vyžadovat	-11.6594
▁východoevropský	-11.6594
▁zapomenout	-11.6594
▁zaručit	-11.6594
▁zavražděn	-11.6594
▁zodpovězen	-11.6594
▁zákulisí	-11.6594
▁úložiště	-11.6594
▁Četrans	-11.6594
▁červnov	-11.6594
▁1983	-11.6594
▁Hamburk	-11.6594
▁Pistol	-11.6594
▁bankovnictví	-11.6594
▁domorodc	-11.6594
▁infarkt	-11.6594
▁kosmonaut	-11.6594
▁médií	-11.6594
▁nenávist	-11.6594
▁prozradil	-11.6594
▁pseudo	-11.6594
▁přihlášen	-11.6594
▁rozvíjet	-11.6594
▁tiskáren	-11.6594
▁tolerance	-11.6594
▁špatnou	-11.6594
▁Maďarskem	-11.6594
▁kvót	-11.6594
▁osaměl	-11.6594
▁palubě	-11.6594
▁plošný	-11.6594
▁populaci	-11.6594
▁povolební	-11.6594
▁procedur	-11.6594
▁tendence	-11.6594
▁Návrat	-11.6594
▁infikova	-11.6594
▁kampaně	-11.6594
▁otazník	-11.6594
▁rozsudk	-11.6594
▁analytick	-11.6594
▁cementárn	-11.6594
▁makléř	-11.6594
▁neškodn	-11.6594
▁Právo	-11.6594
▁archiv	-11.6594
▁milimetr	-11.6594
▁odvezl	-11.6594
▁zjišťova	-11.6594
▁funkčnost	-11.6594
▁vzbudil	-11.6594
▁účinků	-11.6594
▁Kladně	-11.6594
▁Veřejn	-11.6594
▁uvítal	-11.6594
▁fází	-11.6594
▁mikrofon	-11.6594
▁placentál	-11.6594
▁reagují	-11.6594
znamenají	-11.6594
▁pozměň	-11.6594
▁vyslovit	-11.6594
▁Francií	-11.6594
▁praktik	-11.6594
▁stráví	-11.6594
▁účinné	-11.6594
▁Ctrl	-11.6594
▁Michel	-11.6594
přízeň	-11.6594
▁komunit	-11.6594
▁taxonomie	-11.6594
▁finalist	-11.6594
▁ujistil	-11.6594
▁domníval	-11.6594
▁hospodaří	-11.6594
▁nabídek	-11.6594
▁Irák	-11.6594
▁logik	-11.6594
▁amatér	-11.6594
▁podobnou	-11.6594
▁Kurzy	-11.6594
▁zastupuje	-11.6594
▁povstal	-11.6594
▁biochemi	-11.6594
▁značku	-11.6594
▁ustavující	-11.6594
▁vybojoval	-11.6594
▁aridní	-11.6594
▁popředí	-11.6595
▁Marián	-11.6595
▁pól	-11.6595
▁dřevěné	-11.6595
▁přehnan	-11.6595
▁tragick	-11.6595
▁Prokop	-11.6595
▁desek	-11.6595
▁vrstva	-11.6595
▁přípustn	-11.6595
▁směřující	-11.6595
▁ovládací	-11.6595
▁vystavuje	-11.6595
▁narkom	-11.6595
▁plastik	-11.6595
šňů	-11.6595
▁fixac	-11.6595
▁brazilsk	-11.6595
▁nazvané	-11.6595
▁zánět	-11.6595
▁trasy	-11.6595
▁ČSD	-11.6595
▁rozdělí	-11.6595
zkoumat	-11.6595
▁konsensus	-11.6596
▁učiní	-11.6596
▁architektonick	-11.6596
▁Super	-11.6596
▁oboustrann	-11.6596
▁Proces	-11.6596
▁Moravia	-11.6596
▁jednostrann	-11.6596
▁virus	-11.6596
▁uplatňován	-11.6596
▁poušti	-11.6596
▁1976	-11.6596
▁češtiny	-11.6596
▁Soulu	-11.6596
▁Setkání	-11.6597
▁střídají	-11.6597
▁komunikační	-11.6597
▁robot	-11.6597
▁rockov	-11.6597
▁bankrot	-11.6597
▁profesi	-11.6597
▁holub	-11.6597
▁lázní	-11.6598
▁Nechci	-11.6598
▁zimy	-11.6598
▁realizace	-11.6598
▁dotaci	-11.6598
▁Cítí	-11.6598
▁Značn	-11.6598
▁nepřesnost	-11.6598
▁zabránil	-11.6598
▁volající	-11.6599
▁léčbu	-11.6599
▁spotřeba	-11.6599
▁zničil	-11.6599
▁kameny	-11.6599
▁fakticky	-11.6599
▁obstará	-11.66
▁mezistátní	-11.66
ALE	-11.6601
▁šipk	-11.6601
▁sníh	-11.6601
▁toxické	-11.6601
▁nepamatuj	-11.6602
▁rekordman	-11.6602
▁publikaci	-11.6603
yplynulo	-11.6603
▁touží	-11.6603
▁vyprávěl	-11.6604
▁faul	-11.6604
▁všední	-11.6605
▁dvoudenní	-11.6605
▁faktorem	-11.6607
▁zajišťující	-11.6607
▁nestátní	-11.6607
▁PŘÍ	-11.6607
evropský	-11.6608
▁desetkrát	-11.6608
svědčuje	-11.6608
▁použije	-11.6608
▁vlasy	-11.6609
▁produkcí	-11.6611
1972	-11.6612
rábě	-11.6612
▁vysílač	-11.6613
▁distribuční	-11.6613
▁vynutil	-11.6613
▁ředitelství	-11.6613
▁líčí	-11.6613
▁spektra	-11.6614
▁cestách	-11.6614
▁konání	-11.6615
▁výtvarník	-11.6616
▁uheln	-11.6616
▁Hleda	-11.6616
▁významnější	-11.6617
▁bál	-11.6619
▁přesností	-11.6619
▁umělci	-11.6624
▁Výš	-11.6625
▁Lidový	-11.6628
▁zvířecí	-11.6633
azeta	-11.6633
▁hrazen	-11.6635
▁Francouzský	-11.6646
▁pozoruhodné	-11.665
▁zelený	-11.665
plácení	-11.6651
▁poškozený	-11.6654
▁pedagogick	-11.6661
symetri	-11.6661
▁pevnin	-11.6663
▁vypracoval	-11.6663
▁krádež	-11.6663
▁jazykov	-11.667
▁Václavské	-11.6675
ousek	-11.6675
▁přispívají	-11.668
256	-11.6682
▁vysílací	-11.6685
▁předsedkyn	-11.669
▁nulov	-11.6691
▁rozpočtový	-11.6694
▁pomst	-11.6698
▁kalendářní	-11.6712
▁nabízený	-11.6712
dražit	-11.6716
▁zoologick	-11.6718
kontroluje	-11.6718
▁Významn	-11.673
▁Fakt	-11.6735
▁válečný	-11.6736
▁Historick	-11.6737
▁filmař	-11.6741
▁protějš	-11.6749
▁diplomatický	-11.6749
▁Výrobc	-11.6751
▁zúčastněný	-11.6756
▁Lac	-11.6757
▁oceánické	-11.676
▁ledový	-11.6763
▁optimismu	-11.6765
▁Kamen	-11.6773
▁uzavřený	-11.6781
▁plen	-11.6783
▁návratnost	-11.6793
▁bránil	-11.68
▁sestaven	-11.68
děláme	-11.6826
▁výhodný	-11.6828
▁krásný	-11.6837
▁maso	-11.6841
▁Podpor	-11.6872
▁citeln	-11.6876
▁Alan	-11.6878
▁lekto	-11.6897
▁ukáz	-11.6907
▁socialist	-11.6912
přestává	-11.6922
konaly	-11.693
nsen	-11.6939
▁nacházel	-11.6942
▁modifik	-11.6951
▁lebk	-11.6953
▁nedělá	-11.6977
pravicov	-11.698
▁definovan	-11.6982
přineslo	-11.6984
operační	-11.7002
▁odstupné	-11.7013
hradil	-11.7014
▁osazen	-11.7015
1991	-11.7018
produkt	-11.7019
▁dokonalý	-11.702
LET	-11.7035
živí	-11.7042
▁náboženský	-11.7067
panuje	-11.7071
▁Vznikl	-11.7074
pokládat	-11.7098
▁vrácen	-11.7117
▁ovlivnil	-11.7124
▁strašn	-11.7127
▁Druh	-11.7129
▁jakýkoli	-11.7133
▁splněn	-11.7148
▁slavný	-11.7149
magnetické	-11.7166
istického	-11.7166
▁pořádají	-11.7169
avky	-11.7184
▁Osl	-11.7186
▁nemovitost	-11.7189
ůbec	-11.7193
▁slušný	-11.72
▁ryz	-11.7201
▁propojen	-11.7219
▁srovnateln	-11.7221
▁spravedlnost	-11.7226
▁elektřin	-11.7227
▁Jih	-11.723
▁poskytován	-11.7238
▁architektur	-11.7239
▁bytový	-11.724
gramů	-11.7253
▁Perské	-11.7261
▁bilanc	-11.7266
pracovala	-11.7267
▁učit	-11.7268
▁doporučen	-11.7272
▁Víc	-11.7272
▁produkuj	-11.7276
▁kilogram	-11.728
▁průvod	-11.7296
▁psy	-11.7301
glaciál	-11.7308
▁Digital	-11.7308
▁Hospodářsk	-11.7308
▁Kuvajt	-11.7308
▁bulharsk	-11.7308
▁databáze	-11.7308
▁ofsajd	-11.7308
▁prospěšn	-11.7308
▁severozápad	-11.7308
▁velvyslanec	-11.7308
ýpovědní	-11.7308
▁1979	-11.7308
▁Akademie	-11.7308
▁Albertville	-11.7308
▁Bohuslav	-11.7308
▁Bratislavy	-11.7308
▁Delphi	-11.7308
▁General	-11.7308
▁Muslim	-11.7308
▁Netanjahu	-11.7308
▁Princip	-11.7308
▁Pálffy	-11.7308
▁Reichel	-11.7308
▁SPIRIT	-11.7308
▁TWA	-11.7308
▁Vynikající	-11.7308
▁bezmocn	-11.7308
▁brožur	-11.7308
▁buněčné	-11.7308
▁ceremoniál	-11.7308
▁databázi	-11.7308
▁delegát	-11.7308
▁diktátor	-11.7308
▁drůbež	-11.7308
▁dveřmi	-11.7308
▁emitent	-11.7308
▁finálové	-11.7308
▁havárii	-11.7308
▁holding	-11.7308
▁inzulín	-11.7308
▁kanalizací	-11.7308
▁katalyzátor	-11.7308
▁kazašsk	-11.7308
▁komedie	-11.7308
▁kompetencí	-11.7308
▁konstantní	-11.7308
▁kultuře	-11.7308
▁lidstvo	-11.7308
▁milisekund	-11.7308
▁nechybí	-11.7308
▁nosorožců	-11.7308
▁novorozen	-11.7308
▁odpolední	-11.7308
▁olomoucké	-11.7308
▁omezit	-11.7308
▁organismy	-11.7308
▁paměť	-11.7308
▁paradigma	-11.7308
▁podezřelý	-11.7308
▁pojišťoven	-11.7308
▁pojišťovně	-11.7308
▁portfeje	-11.7308
▁pořizovací	-11.7308
▁poštovní	-11.7308
▁pátku	-11.7308
▁přibližuj	-11.7308
▁přísluší	-11.7308
▁radikálně	-11.7308
▁raketoplán	-11.7308
▁splátek	-11.7308
▁stěžuje	-11.7308
▁telekomunikací	-11.7308
▁těhotenství	-11.7308
▁vlhkost	-11.7308
▁vrtulník	-11.7308
▁vyzkoušel	-11.7308
▁vyčerpán	-11.7308
▁vídeňské	-11.7308
▁zahájit	-11.7308
▁zajišťoval	-11.7308
▁zakázek	-11.7308
▁zaručuje	-11.7308
▁zdůraznit	-11.7308
▁zneužívání	-11.7308
▁zpracovává	-11.7308
▁záruční	-11.7308
▁zázračn	-11.7308
▁Černomyrdin	-11.7308
▁Život	-11.7308
▁železnice	-11.7308
▁Němce	-11.7308
▁Teplice	-11.7308
▁injekc	-11.7308
▁komisař	-11.7308
▁pohodlné	-11.7308
▁poválečn	-11.7308
▁překonání	-11.7308
▁sféře	-11.7308
▁stadiu	-11.7308
▁tekutin	-11.7308
▁thajské	-11.7308
▁zopakoval	-11.7308
▁účinnou	-11.7308
▁FMV	-11.7308
▁KGB	-11.7308
▁lehký	-11.7308
▁málokdo	-11.7308
▁prodluž	-11.7308
▁Československý	-11.7308
▁Dokument	-11.7308
▁SGI	-11.7308
▁nesrovnateln	-11.7308
▁obyvatelstvo	-11.7308
▁PET	-11.7308
▁Student	-11.7308
▁komodit	-11.7308
▁lahví	-11.7308
▁smířit	-11.7308
▁informuje	-11.7308
▁trénuj	-11.7308
▁kolegové	-11.7308
▁Zajímal	-11.7308
▁Západoevropsk	-11.7308
▁nejblíže	-11.7308
▁odstavec	-11.7308
▁vyústi	-11.7308
▁rozsáhlou	-11.7308
▁James	-11.7308
▁chystají	-11.7308
▁podepsat	-11.7308
▁udržován	-11.7308
▁polymer	-11.7308
▁svrchované	-11.7308
▁přeplněn	-11.7308
▁sloučení	-11.7308
▁dávek	-11.7308
▁umírněn	-11.7308
▁srbské	-11.7308
▁nikomu	-11.7308
▁někomu	-11.7308
▁Prahou	-11.7308
▁železné	-11.7308
▁netrpěliv	-11.7308
▁vzdělan	-11.7308
▁Automatick	-11.7308
▁Holandsk	-11.7308
▁loupež	-11.7308
▁nepodaří	-11.7308
▁tvořiv	-11.7308
▁odhalit	-11.7308
▁poznámky	-11.7308
▁podporoval	-11.7309
▁Kadlec	-11.7309
▁Mlýn	-11.7309
▁mutací	-11.7309
▁Louis	-11.7309
▁dědeček	-11.7309
▁Fuchs	-11.7309
▁Zpráv	-11.7309
▁nedaleké	-11.7309
▁oběhové	-11.7309
běhnout	-11.7309
▁přetížen	-11.7309
▁něčeho	-11.7309
▁prováděl	-11.7309
▁úchyt	-11.7309
▁chleba	-11.7309
▁odvážn	-11.7309
▁Účastníci	-11.7309
▁šancí	-11.7309
▁Následující	-11.7309
▁modré	-11.7309
▁mocenské	-11.7309
▁vybudoval	-11.7309
▁hokejistů	-11.7309
▁stromeček	-11.7309
▁fotografií	-11.7309
opouštěl	-11.7309
▁formálně	-11.7309
▁legendární	-11.731
▁Suková	-11.731
▁Týden	-11.731
▁Front	-11.731
▁účinnější	-11.731
▁příloh	-11.731
▁Opava	-11.731
▁kamenné	-11.731
▁kamión	-11.731
hánějí	-11.731
▁kopií	-11.731
▁nejsme	-11.731
▁transport	-11.731
▁Kouba	-11.731
▁implantát	-11.731
▁Bartoš	-11.731
▁kapsy	-11.731
▁vyhořelé	-11.731
▁dovážen	-11.731
▁hlučn	-11.731
▁lehko	-11.731
▁Ježek	-11.731
▁pojmu	-11.7311
▁zmizí	-11.7311
▁lákav	-11.7311
▁Samotn	-11.7311
▁Zápas	-11.7311
▁Španělsku	-11.7311
▁písmo	-11.7311
▁adaptace	-11.7311
▁nazvat	-11.7311
▁metan	-11.7312
▁princ	-11.7312
▁výsad	-11.7312
▁Zvýšen	-11.7312
▁neuron	-11.7312
▁usedl	-11.7312
▁skladatel	-11.7312
▁1970	-11.7312
▁jinam	-11.7312
▁nikam	-11.7312
hrádk	-11.7313
smluvně	-11.7313
▁vejce	-11.7313
▁jízdenk	-11.7313
▁registrační	-11.7313
▁nereáln	-11.7313
▁zády	-11.7313
▁Hledá	-11.7313
▁tržb	-11.7313
▁neznají	-11.7313
LSNS	-11.7314
▁stimulaci	-11.7314
▁topení	-11.7314
▁protestant	-11.7314
▁únosn	-11.7314
▁rovný	-11.7314
▁štědr	-11.7314
▁hraček	-11.7314
▁vyhledávání	-11.7314
▁třídenní	-11.7314
▁ležel	-11.7314
▁nosič	-11.7315
▁Klasick	-11.7315
▁Jaw	-11.7315
▁vyzkoušet	-11.7315
▁oblouk	-11.7315
▁bohatší	-11.7315
▁zranil	-11.7315
▁umělců	-11.7315
▁Obavy	-11.7316
▁nikde	-11.7316
▁lékařství	-11.7316
▁pískov	-11.7316
▁Přenos	-11.7316
▁republikánsk	-11.7317
▁kořen	-11.7317
ničím	-11.7317
▁články	-11.7317
▁kouření	-11.7317
▁Januš	-11.7318
▁sněmu	-11.7318
▁Jágr	-11.7318
▁nájezd	-11.7318
▁odezv	-11.7319
▁potká	-11.7319
▁Obraz	-11.7319
▁Radnic	-11.732
▁starat	-11.732
vážil	-11.732
▁koncept	-11.732
▁odnětí	-11.732
vracení	-11.7321
▁koncepčn	-11.7322
▁Místopředsed	-11.7322
▁kras	-11.7322
▁Kováč	-11.7323
▁posílit	-11.7324
▁nádrž	-11.7325
▁Stef	-11.7325
rovné	-11.7325
▁řadič	-11.7326
▁odnesl	-11.7327
▁stanovisku	-11.7327
▁sloves	-11.7327
▁602	-11.7328
▁Horák	-11.7329
▁sešla	-11.733
▁vracel	-11.7332
▁Esc	-11.7332
▁dostání	-11.7332
▁spolupracuje	-11.7335
▁technic	-11.7335
▁okně	-11.7336
▁zelené	-11.7336
▁palet	-11.734
▁Snah	-11.7344
▁pětatřicet	-11.7345
▁křesťanské	-11.7357
▁basketbalist	-11.736
▁protín	-11.7363
▁sochař	-11.7363
▁neplatn	-11.7363
značení	-11.7365
▁dokonal	-11.7369
▁Indián	-11.737
extrémně	-11.7371
▁překonal	-11.7372
▁koncov	-11.7376
Edit	-11.7379
▁Hut	-11.7383
tvrze	-11.7387
▁ponechal	-11.7387
▁nechut	-11.7389
▁teroristický	-11.7393
▁Výborný	-11.7394
▁říční	-11.7395
tažené	-11.7398
MW	-11.742
Komensk	-11.742
působí	-11.7422
▁doplňují	-11.7426
formulovat	-11.7426
▁stáj	-11.7427
▁zmiňuj	-11.7427
▁skutečn	-11.7439
▁Adam	-11.7442
▁psací	-11.7443
▁regulac	-11.7454
point	-11.7454
▁kostr	-11.7458
▁drsn	-11.7458
vydržel	-11.748
bitový	-11.7482
▁skrz	-11.7485
▁vyrůst	-11.7489
schová	-11.749
konkurenceschopn	-11.749
▁Běl	-11.7497
▁poločas	-11.75
▁důvěryhodn	-11.7501
▁Park	-11.7502
▁vyplacen	-11.7528
▁vyplněn	-11.7531
▁působnost	-11.7548
zemědělská	-11.7554
▁špičkov	-11.7592
▁nedoved	-11.7597
ICK	-11.7602
▁meziroční	-11.7613
▁proměnn	-11.7618
hraj	-11.7619
▁animac	-11.7668
socialistický	-11.7668
▁vyplatil	-11.7677
▁výhodn	-11.7683
▁návrhář	-11.7689
muslimské	-11.7692
▁počítal	-11.7696
▁Izraelsk	-11.7724
vládnout	-11.7741
▁uzavřeno	-11.7773
uživatelské	-11.7776
▁vyspěl	-11.7791
▁výtvarný	-11.7802
▁Nebude	-11.7808
▁vůdc	-11.7809
▁čtyřlet	-11.7817
▁dechov	-11.7817
▁vápn	-11.7824
▁Chemi	-11.7851
▁individu	-11.7866
▁mateřsk	-11.7871
▁vytvořený	-11.7873
▁požadovan	-11.7892
▁mušk	-11.7893
hlídce	-11.7906
▁Ročn	-11.7906
poskytla	-11.7908
státní	-11.7918
soudí	-11.7924
▁poprav	-11.7943
▁Belgi	-11.7952
▁piv	-11.7954
▁meteorolog	-11.7961
stižen	-11.7965
▁Senát	-11.7973
psána	-11.7974
▁Bój	-11.7974
▁výdaj	-11.7978
▁samotn	-11.7989
▁každodenn	-11.7994
▁orientac	-11.7995
ILA	-11.7996
▁vypracován	-11.8004
▁souvisl	-11.8012
▁náhradník	-11.8025
▁soustředěn	-11.8026
▁Vietnam	-11.8034
▁vytvářen	-11.8034
▁kytar	-11.8036
▁poruše	-11.8037
čátek	-11.8045
▁anket	-11.8046
ladil	-11.8067
průchod	-11.8075
▁muzik	-11.8077
▁diskrimin	-11.8077
▁Bukureš	-11.8077
▁Navrátil	-11.8077
▁biotechnologi	-11.8077
▁prvoligov	-11.8077
▁západoevropský	-11.8077
deutsche	-11.8077
korespond	-11.8077
restrukturalizac	-11.8077
soustřeďuje	-11.8077
▁Australan	-11.8077
▁Bedřich	-11.8077
▁Chvalovský	-11.8077
▁Dlouhý	-11.8077
▁Frýdku	-11.8077
▁Giovanni	-11.8077
▁Gretzky	-11.8077
▁Hendrix	-11.8077
▁Holbrooke	-11.8077
▁Hovořil	-11.8077
▁Kravčuk	-11.8077
▁Margaret	-11.8077
▁Marseille	-11.8077
▁MicroStation	-11.8077
▁OpenScript	-11.8077
▁Oxfordu	-11.8077
▁Očekává	-11.8077
▁Padesát	-11.8077
▁Parlament	-11.8077
▁Plzně	-11.8077
▁Pospíšil	-11.8077
▁Rangers	-11.8077
▁Silvestr	-11.8077
▁Sládka	-11.8077
▁Stockholm	-11.8077
▁Varšav	-11.8077
▁Zeitung	-11.8077
▁antropogenní	-11.8077
▁bezšňůrov	-11.8077
▁cyklů	-11.8077
▁delegací	-11.8077
▁disident	-11.8077
▁dominantní	-11.8077
▁doporučit	-11.8077
▁elektrárna	-11.8077
▁epizod	-11.8077
▁fanoušci	-11.8077
▁fyziologick	-11.8077
▁havárie	-11.8077
▁horizontu	-11.8077
▁hřbet	-11.8077
▁instalační	-11.8077
▁investoři	-11.8077
▁izolační	-11.8077
▁jihovýchodní	-11.8077
▁kariéry	-11.8077
▁karlovarsk	-11.8077
▁knihkupectví	-11.8077
▁libovolné	-11.8077
▁manažeři	-11.8077
▁navštívit	-11.8077
▁nejčastější	-11.8077
▁nepochopil	-11.8077
▁návaznost	-11.8077
▁odcházel	-11.8077
▁osamostatn	-11.8077
▁podmínku	-11.8077
▁podrážděn	-11.8077
▁poliklinik	-11.8077
▁portrét	-11.8077
▁poselství	-11.8077
▁prezentován	-11.8077
▁připomínal	-11.8077
▁reprezentovat	-11.8077
▁revoluci	-11.8077
▁rovnoběž	-11.8077
▁rovnoměrn	-11.8077
▁roztříštěn	-11.8077
▁službách	-11.8077
▁stránkách	-11.8077
▁tiskárnu	-11.8077
▁turistiky	-11.8077
▁třicátých	-11.8077
▁uspokojit	-11.8077
▁utrpení	-11.8077
▁ušlechtil	-11.8077
▁výcvik	-11.8077
▁zákonodárn	-11.8077
▁zásuvk	-11.8077
▁závislý	-11.8077
navrhovatel	-11.8077
vyskytuje	-11.8077
ŠTÍ	-11.8077
▁Hercegovin	-11.8077
▁Klient	-11.8077
▁Překvap	-11.8077
▁Stráž	-11.8077
▁analytik	-11.8077
▁biosfér	-11.8077
▁definován	-11.8077
▁diktatur	-11.8077
▁domnívat	-11.8077
▁handicap	-11.8077
▁hypoték	-11.8077
▁konvertibilit	-11.8077
▁křesla	-11.8077
▁lukrativní	-11.8077
▁medvěd	-11.8077
▁média	-11.8077
▁perfektní	-11.8077
▁posuzoval	-11.8077
▁povzbuz	-11.8077
▁příchozí	-11.8077
▁půvab	-11.8077
▁schvalování	-11.8077
▁středisek	-11.8077
▁substantiv	-11.8077
▁trolejbus	-11.8077
▁tělovýchov	-11.8077
▁upravuje	-11.8077
▁veterinární	-11.8077
▁zapomenut	-11.8077
▁začátečn	-11.8077
▁zvážit	-11.8077
▁útlum	-11.8077
▁čtvrtletně	-11.8077
▁Štěpán	-11.8077
▁Kralup	-11.8077
▁Kultur	-11.8077
▁Památk	-11.8077
▁Záhřebu	-11.8077
▁legální	-11.8077
▁nepůjde	-11.8077
▁nevyhnul	-11.8077
▁odhodlán	-11.8077
▁výchozí	-11.8077
▁všelijak	-11.8077
▁zlepšování	-11.8077
▁Kontakt	-11.8077
▁Solidarit	-11.8077
▁dodávku	-11.8077
▁hájit	-11.8077
▁iniciátor	-11.8077
pište	-11.8077
▁Sportovní	-11.8077
▁evidentn	-11.8077
▁fázové	-11.8077
▁lístku	-11.8077
▁neskončil	-11.8077
▁náznak	-11.8077
▁ministerský	-11.8077
▁pařížsk	-11.8077
▁politici	-11.8077
▁převezme	-11.8077
▁srovnávat	-11.8077
▁studijní	-11.8077
▁vizuální	-11.8077
▁nebytový	-11.8078
▁tabák	-11.8078
▁vhodnější	-11.8078
▁vůdčí	-11.8078
▁hesla	-11.8078
▁intelektuální	-11.8078
▁sváteční	-11.8078
▁chápou	-11.8078
▁romantick	-11.8078
▁Informoval	-11.8078
▁nervozit	-11.8078
▁recese	-11.8078
▁vyrobit	-11.8078
▁delikt	-11.8078
▁shodli	-11.8078
▁barokní	-11.8078
▁úklid	-11.8078
▁certifikace	-11.8078
▁afrických	-11.8078
▁licenci	-11.8078
▁rovnou	-11.8078
▁názvy	-11.8078
▁položek	-11.8078
▁monarchi	-11.8078
▁sazba	-11.8078
▁židovské	-11.8078
▁fašismu	-11.8078
▁látku	-11.8078
▁stránka	-11.8078
▁vybuchl	-11.8078
▁netuší	-11.8078
▁přijede	-11.8078
▁prověrk	-11.8078
▁dovezen	-11.8078
▁vypovězen	-11.8078
▁vyřeší	-11.8078
▁dráze	-11.8078
▁Snímek	-11.8078
▁krizí	-11.8078
▁provází	-11.8078
▁konektor	-11.8078
▁Pechar	-11.8078
▁trošk	-11.8078
▁Žije	-11.8078
▁Belgičan	-11.8078
▁Soros	-11.8078
▁ideologie	-11.8078
▁hloup	-11.8078
▁zachycuj	-11.8078
▁zátěž	-11.8078
▁mrzí	-11.8078
▁smíšený	-11.8078
▁Příprav	-11.8078
▁poezie	-11.8078
ručením	-11.8078
▁zkrácení	-11.8078
▁motýl	-11.8078
▁klasik	-11.8078
▁mléko	-11.8078
▁obrátí	-11.8078
▁letadel	-11.8078
▁Francis	-11.8078
▁Albert	-11.8078
▁laskav	-11.8078
▁obklop	-11.8078
▁záchod	-11.8078
▁Diana	-11.8078
▁biologii	-11.8079
▁útul	-11.8079
▁pohodlně	-11.8079
▁podporovan	-11.8079
▁čtyřnásobn	-11.8079
▁Nynější	-11.8079
▁odcizi	-11.8079
▁Pravidl	-11.8079
▁emisí	-11.8079
▁rámec	-11.8079
▁úročen	-11.8079
▁nezdá	-11.8079
▁opatrně	-11.8079
▁setkávají	-11.8079
▁akutní	-11.8079
▁šperk	-11.8079
▁postranní	-11.8079
▁prostředkem	-11.8079
▁iluze	-11.8079
▁reprezentaci	-11.8079
▁nalezli	-11.8079
▁juniorů	-11.8079
▁mléka	-11.8079
▁zdražení	-11.8079
▁odrůd	-11.8079
▁Údaj	-11.8079
▁nedokonč	-11.808
▁objednávky	-11.808
▁nepočítal	-11.808
▁linie	-11.808
▁hyper	-11.808
mínka	-11.808
▁zaměstnanosti	-11.808
▁krabic	-11.808
▁rozpočtů	-11.808
▁dědičn	-11.8081
▁dárek	-11.8081
▁Obvykl	-11.8081
▁přizpůsobení	-11.8081
▁Zlatý	-11.8081
▁určován	-11.8081
▁Boston	-11.8082
▁spolkové	-11.8082
▁Uhersk	-11.8082
▁zpravodajství	-11.8082
▁hladovku	-11.8082
▁podceňova	-11.8082
chovávat	-11.8082
▁útěk	-11.8082
▁ekologie	-11.8082
▁Nováček	-11.8083
▁láska	-11.8083
▁výjezd	-11.8083
▁říkat	-11.8083
▁vyvíjet	-11.8083
▁vztek	-11.8083
▁biologických	-11.8083
tlačil	-11.8083
▁aukcí	-11.8083
▁odolnost	-11.8084
▁deregulac	-11.8084
▁udělil	-11.8084
▁důchodců	-11.8084
▁Lenn	-11.8084
▁poučení	-11.8085
▁Atén	-11.8085
▁Hrál	-11.8085
▁vyhnul	-11.8085
▁Hotel	-11.8085
▁skokan	-11.8085
▁Trnav	-11.8086
▁pozemkov	-11.8086
▁Řadič	-11.8086
▁výmluv	-11.8086
obtížnější	-11.8087
▁NEZ	-11.8087
▁lidech	-11.8087
▁vlastnické	-11.8087
▁smyslupln	-11.8087
▁silnicích	-11.8087
▁gard	-11.8088
▁pasáž	-11.8088
▁krouž	-11.8088
▁výpis	-11.8089
▁Příčin	-11.8089
▁podobá	-11.809
▁poslanecký	-11.809
▁hymn	-11.809
▁principiáln	-11.809
▁natočil	-11.809
▁čistot	-11.8091
▁shoda	-11.8091
točit	-11.8092
▁příčku	-11.8092
dokonalejší	-11.8093
▁Popov	-11.8093
▁Botan	-11.8093
▁organizován	-11.8095
▁sólo	-11.8096
▁zánik	-11.8098
▁psí	-11.8098
interpretaci	-11.8099
▁slovinsk	-11.8099
věřuje	-11.8101
▁unikl	-11.8103
▁jezdce	-11.8103
NOVÁ	-11.8104
▁ozval	-11.8104
▁zima	-11.8106
▁Pár	-11.8108
▁akční	-11.8111
▁kytic	-11.8111
podstatnější	-11.8112
Místku	-11.8112
▁suché	-11.8117
▁šál	-11.8118
▁Čísl	-11.812
▁vzdálený	-11.8122
range	-11.8127
▁nabit	-11.8128
▁odebíra	-11.8129
▁Kraus	-11.8133
▁Květ	-11.8145
milionový	-11.8145
divné	-11.8146
▁Vytvořen	-11.8146
▁zbylý	-11.8149
▁fungující	-11.8151
▁nerozhodn	-11.8158
opádn	-11.8159
pravdivost	-11.8159
▁vykonává	-11.8162
▁tisícovk	-11.8168
▁potravinářský	-11.8172
ometrick	-11.8176
podnik	-11.8179
jevit	-11.8181
▁islámský	-11.8194
▁soukromník	-11.8202
světlení	-11.8205
▁garáž	-11.8209
▁skel	-11.8211
▁psychologické	-11.8226
LOU	-11.8227
▁tenistk	-11.8236
▁tenisový	-11.8243
mnohých	-11.8247
▁dokončil	-11.8262
▁neposkyt	-11.8272
▁informovanost	-11.8278
▁akciový	-11.8289
ktorů	-11.8292
▁umělý	-11.8292
▁přicházel	-11.8339
▁prázdný	-11.8347
drobnější	-11.8377
▁slan	-11.8382
▁vnesen	-11.8389
▁zpracoval	-11.84
nekonečně	-11.8409
▁Svobodn	-11.8441
▁stiskn	-11.8453
▁Steve	-11.8456
▁modifikac	-11.8478
dotýká	-11.8487
▁Fotbalov	-11.8493
7,5	-11.8499
▁Podstat	-11.8508
▁kolečk	-11.852
▁Sovět	-11.8534
svěce	-11.8536
6,5	-11.8541
růstající	-11.8546
▁ilustr	-11.8556
▁stabilizovan	-11.8571
▁žádal	-11.8577
▁Obsahuj	-11.8583
▁elektronick	-11.8583
▁obměn	-11.861
cházely	-11.8643
kreslí	-11.8643
▁rostl	-11.8645
▁spouště	-11.8656
▁islám	-11.8682
nezávislý	-11.8682
▁basketbal	-11.869
▁rozumn	-11.8753
švédsk	-11.8762
INA	-11.8766
▁vyplývají	-11.8766
▁Georg	-11.8772
▁motorový	-11.8783
▁zástup	-11.8804
▁Excel	-11.8806
assa	-11.8807
yžaduje	-11.8808
▁zbytečn	-11.881
USK	-11.8814
▁slavnostn	-11.8818
EMI	-11.8822
▁fungují	-11.8831
sledují	-11.8834
hlédn	-11.884
▁vycház	-11.8842
▁Zájemc	-11.8842
dvacátého	-11.8849
edmdesát	-11.8853
▁vybudován	-11.8856
▁společenstv	-11.8862
▁uplatněn	-11.8864
▁prodloužen	-11.8866
▁Hlavn	-11.8873
▁odstraněn	-11.8875
▁trub	-11.8875
▁Aktiv	-11.8875
▁vysílá	-11.888
▁public	-11.888
▁vydan	-11.8882
1.1	-11.8891
oblečen	-11.8901
▁Skal	-11.8904
▁SDL	-11.8905
▁vydavatel	-11.891
cionálně	-11.8911
▁Komárk	-11.8911
▁Kratochvíl	-11.8911
▁Plečnik	-11.8911
▁Příslušn	-11.8911
▁Uživatel	-11.8911
▁Wernisch	-11.8911
▁demokracií	-11.8911
▁indián	-11.8911
▁jihozápad	-11.8911
▁kambodžsk	-11.8911
▁nejjednodušší	-11.8911
▁olympionik	-11.8911
▁onemocněl	-11.8911
▁opodstatněn	-11.8911
▁peněženk	-11.8911
▁relikvi	-11.8911
▁revoluční	-11.8911
▁televizí	-11.8911
▁trinitron	-11.8911
▁štafet	-11.8911
▁živočišn	-11.8911
emigrant	-11.8911
endotoxin	-11.8911
inflační	-11.8911
ymfocyty	-11.8911
▁Agassi	-11.8911
▁Bruntál	-11.8911
▁EVROP	-11.8911
▁Galerie	-11.8911
▁Grimaux	-11.8911
▁Hamilton	-11.8911
▁Institut	-11.8911
▁Kovařík	-11.8911
▁Kredba	-11.8911
▁Leopold	-11.8911
▁MPEG	-11.8911
▁Nazarbajev	-11.8911
▁Nejdůležitější	-11.8911
▁Palestinců	-11.8911
▁Podmínkou	-11.8911
▁Později	-11.8911
▁Přibliž	-11.8911
▁Suchopár	-11.8911
▁Umožňuje	-11.8911
▁Vladislav	-11.8911
▁Vltavy	-11.8911
▁absolutně	-11.8911
▁bosenskosrbsk	-11.8911
▁celoživotní	-11.8911
▁civilizace	-11.8911
▁fanoušky	-11.8911
▁financovat	-11.8911
▁fungovat	-11.8911
▁hierarchi	-11.8911
▁inscenace	-11.8911
▁interview	-11.8911
▁kolísání	-11.8911
▁komplikuje	-11.8911
▁konfrontace	-11.8911
▁kontinuit	-11.8911
▁kopírování	-11.8911
▁ledovců	-11.8911
▁lékárny	-11.8911
▁matematice	-11.8911
[...]
