<unk>	0
<s>	0
</s>	0
<doc>	0
</doc>	0
<head>	0
</head>	0
<phr>	0
</phr>	0
▁	-1.70789
,	-3.24203
.	-3.39027
▁a	-4.29993
▁v	-4.40031
▁se	-4.48876
▁na	-4.62694
a	-4.67391
ch	-4.92949
m	-4.96085
▁je	-5.00842
u	-5.01027
i	-5.06643
y	-5.12354
ho	-5.14409
▁"	-5.19231
▁že	-5.26287
▁z	-5.31195
▁s	-5.36324
▁o	-5.55708
▁do	-5.57933
ou	-5.60523
e	-5.6542
á	-5.67066
▁-	-5.77274
o	-5.7802
▁pro	-5.78171
▁za	-5.87093
í	-5.89623
é	-5.90076
▁k	-5.93392
ě	-5.96139
▁to	-5.96471
▁i	-5.9669
em	-5.97796
▁ve	-6.00339
▁(	-6.01053
▁po	-6.06058
▁V	-6.06455
s	-6.06737
▁by	-6.09663
to	-6.10255
▁ale	-6.19189
>	-6.20791
▁si	-6.27834
ž	-6.33571
t	-6.34756
mi	-6.34906
▁jsou	-6.38453
▁jako	-6.41782
▁které	-6.43494
▁od	-6.48231
▁však	-6.51325
ů	-6.528
▁:	-6.53888
)	-6.54617
ý	-6.54866
▁při	-6.56657
ých	-6.57197
▁tak	-6.57821
▁který	-6.63024
▁nebo	-6.71719
▁jeho	-6.72298
▁bude	-6.73275
?	-6.75633
▁ne	-6.77524
▁jen	-6.79122
ní	-6.82595
▁než	-6.87263
▁má	-6.8916
x	-6.91249
me	-6.93363
▁už	-6.94534
▁aby	-6.95289
▁Na	-6.96705
▁A	-6.9681
▁byl	-6.97135
▁jejich	-6.99155
▁S	-6.99228
▁před	-6.99677
▁jsem	-7.00477
▁až	-7.0064
▁být	-7.00722
▁jak	-7.00798
▁Po	-7.01149
▁která	-7.05285
▁také	-7.0588
▁jsme	-7.09155
▁<	-7.10294
te	-7.10315
▁podle	-7.1051
▁ze	-7.10567
▁Je	-7.16577
mu	-7.18668
▁Z	-7.20157
▁co	-7.21506
▁není	-7.22274
▁bylo	-7.25612
▁mezi	-7.26332
▁ani	-7.26721
ce	-7.27553
▁či	-7.28708
▁ještě	-7.28794
▁své	-7.28877
▁již	-7.30342
▁když	-7.30573
▁může	-7.31289
▁byla	-7.33318
ně	-7.3499
▁toho	-7.36002
▁O	-7.36398
kud	-7.37408
▁let	-7.37859
l	-7.38757
ého	-7.39127
/	-7.39521
▁korun	-7.40519
▁P	-7.40752
▁pak	-7.43725
v	-7.44568
▁další	-7.45622
▁K	-7.45828
▁kteří	-7.4626
▁tím	-7.46596
▁té	-7.47858
).	-7.48826
ka	-7.49676
z	-7.5042
▁kde	-7.51043
ové	-7.51942
▁více	-7.52536
▁roku	-7.52584
k	-7.5262
▁první	-7.52934
▁tedy	-7.53011
▁vy	-7.56968
▁nich	-7.57398
že	-7.59268
▁To	-7.6061
▁bez	-7.61237
▁mají	-7.62883
),	-7.63871
ky	-7.65408
▁tu	-7.66179
▁roce	-7.66906
▁pouze	-7.67193
▁musí	-7.67701
▁tom	-7.68417
▁kdy	-7.69121
▁li	-7.69227
ek	-7.69831
▁tomu	-7.70164
li	-7.71384
▁pod	-7.71615
-	-7.7228
p	-7.72709
▁proto	-7.72909
▁ke	-7.72969
ech	-7.73083
▁budou	-7.7461
▁třeba	-7.75451
▁protože	-7.76321
▁totiž	-7.77063
na	-7.78259
▁nás	-7.79176
▁lze	-7.79512
d	-7.79743
▁proti	-7.80486
ým	-7.81538
▁I	-7.81945
ová	-7.82485
▁Za	-7.83026
▁byly	-7.8363
▁měl	-7.8399
▁poslední	-7.8443
▁velmi	-7.84523
▁její	-7.84602
▁zatím	-7.85319
▁asi	-7.85563
▁M	-7.88183
r	-7.88234
▁nad	-7.88292
▁ty	-7.88335
▁řekl	-7.88961
▁Podl	-7.89189
ku	-7.89488
▁včera	-7.89813
ná	-7.9038
la	-7.91229
cí	-7.93813
▁Ne	-7.93908
▁dnes	-7.94492
né	-7.94694
▁firmy	-7.95218
ci	-7.96233
n	-7.97049
▁D	-7.97205
▁dva	-7.97302
▁především	-7.9758
▁vlastní	-7.99031
▁Pro	-7.99593
▁případě	-8.00071
▁'	-8.00965
▁tisíc	-8.01599
▁například	-8.01713
▁všech	-8.02844
▁rok	-8.03262
▁přes	-8.03576
▁době	-8.0465
▁nyní	-8.04862
▁mít	-8.06126
▁nám	-8.06363
▁U	-8.06471
ovat	-8.07111
▁J	-8.07593
▁ji	-8.08081
jí	-8.08138
▁tři	-8.08971
▁lidí	-8.09835
▁jim	-8.09856
▁společnosti	-8.09934
▁mohou	-8.10181
▁práce	-8.10264
co	-8.11043
▁stále	-8.11198
▁těchto	-8.11471
▁ovšem	-8.11608
▁Při	-8.11873
▁všechny	-8.11913
ň	-8.12484
▁zda	-8.12693
nou	-8.13685
▁jeden	-8.14066
▁několik	-8.15049
▁Ve	-8.15573
▁kterou	-8.15987
b	-8.16096
uje	-8.16225
▁což	-8.16812
▁Do	-8.17403
j	-8.17744
it	-8.18205
▁tento	-8.18733
ových	-8.18981
▁pře	-8.19239
▁procent	-8.19479
ovi	-8.19998
▁něm	-8.20656
...	-8.20876
▁možné	-8.2106
ách	-8.21442
▁jde	-8.21732
▁České	-8.22082
▁Ale	-8.2271
▁dvou	-8.22828
▁dalších	-8.23118
▁nové	-8.23454
cela	-8.24149
právě	-8.24497
▁měla	-8.25248
▁ČR	-8.25626
ování	-8.25966
▁Jak	-8.26397
▁Praze	-8.26405
ný	-8.2668
▁naše	-8.27131
téměř	-8.27228
▁zejména	-8.27416
▁svou	-8.27837
š	-8.28023
ost	-8.28615
č	-8.29439
▁strany	-8.29849
▁Proto	-8.30731
▁jednání	-8.31104
▁prostředí	-8.31778
▁kdo	-8.31804
▁sice	-8.32171
▁zařízení	-8.32223
▁letech	-8.3245
ům	-8.32788
lo	-8.33642
▁základní	-8.33831
▁T	-8.33957
▁svého	-8.34001
▁dvě	-8.34846
▁svých	-8.349
▁Kdy	-8.35138
en	-8.35522
▁nejen	-8.36311
▁větší	-8.36943
▁jiné	-8.37001
▁Co	-8.38171
▁naši	-8.38184
ze	-8.38717
▁světa	-8.39099
▁tomto	-8.391
▁možnost	-8.39272
▁místo	-8.39442
▁nic	-8.41277
▁každý	-8.41283
▁N	-8.41398
▁000	-8.41862
▁Tak	-8.42126
▁H	-8.42588
▁milionů	-8.42871
▁druhé	-8.4293
il	-8.42948
c	-8.43695
▁něco	-8.44105
▁vlády	-8.4413
▁svým	-8.4429
▁R	-8.44619
▁zde	-8.45053
▁stát	-8.45239
▁část	-8.45284
▁uvedl	-8.45365
▁stejně	-8.46089
▁mu	-8.46853
spo	-8.47365
▁ceny	-8.47511
ři	-8.48007
▁zákona	-8.48293
▁%	-8.48413
▁kolem	-8.485
ými	-8.4929
▁B	-8.49688
▁Od	-8.49945
cích	-8.50088
▁oblasti	-8.50693
▁dobře	-8.51226
▁příliš	-8.51566
▁systém	-8.5198
▁tam	-8.52008
▁země	-8.52053
▁2	-8.52097
▁říká	-8.52109
▁dosud	-8.52212
▁svůj	-8.52227
či	-8.52272
▁byli	-8.52442
▁některých	-8.52637
▁práci	-8.5289
▁některé	-8.53037
▁L	-8.53795
▁patří	-8.53969
▁1	-8.54018
▁zboží	-8.54244
▁vůbec	-8.54321
ovou	-8.55355
ské	-8.56324
al	-8.56468
▁vždy	-8.56521
▁opět	-8.56784
▁neboť	-8.568
▁roz	-8.57499
le	-8.57703
▁zemí	-8.57793
▁jež	-8.58373
st	-8.58379
▁C	-8.58688
▁10	-8.59289
ře	-8.59335
▁nej	-8.59365
▁firma	-8.59771
▁nejsou	-8.60328
▁sociální	-8.60799
▁často	-8.60911
▁období	-8.61072
▁pracovní	-8.61312
▁systému	-8.61412
▁finanční	-8.62116
ných	-8.6225
▁den	-8.62273
▁několika	-8.62408
no	-8.62453
osti	-8.62558
▁dokonce	-8.62667
▁jste	-8.62919
▁USA	-8.63587
▁měli	-8.63596
▁sám	-8.63865
ový	-8.63972
▁Js	-8.6422
at	-8.64394
▁Kč	-8.64668
ští	-8.65105
ám	-8.65157
▁lidé	-8.65209
▁celé	-8.65273
ém	-8.65288
▁níž	-8.66558
▁střední	-8.66728
S	-8.6675
▁rovněž	-8.66759
během	-8.66901
▁trhu	-8.67242
g	-8.6773
▁vyšší	-8.67947
▁nimi	-8.68192
▁přímo	-8.68403
▁doby	-8.68698
ny	-8.68796
včetně	-8.69132
vůli	-8.69155
in	-8.6927
▁části	-8.69516
▁situace	-8.69533
▁takže	-8.69555
ují	-8.69601
▁3	-8.70135
▁zahraničí	-8.70341
▁státní	-8.70467
zřejmě	-8.70564
ta	-8.70675
ne	-8.70719
ni	-8.70802
ami	-8.71008
A	-8.7123
▁vše	-8.71417
ra	-8.7164
▁informace	-8.71789
tato	-8.71947
▁G	-8.72117
▁počet	-8.72376
▁méně	-8.72685
▁mohl	-8.72976
▁společnost	-8.72979
▁Evropy	-8.73222
▁peníze	-8.73227
▁hodin	-8.73262
si	-8.73546
▁např	-8.73805
▁Zatím	-8.74073
▁pět	-8.74093
▁víc	-8.74123
▁vám	-8.74205
▁chce	-8.74445
▁něj	-8.74481
▁znamená	-8.74501
▁nebude	-8.74725
▁mě	-8.75
▁způsobem	-8.75122
▁takové	-8.75288
▁Jan	-8.75747
▁spíše	-8.75963
▁republiky	-8.75966
▁zákon	-8.76045
▁nemá	-8.7671
▁dále	-8.76864
▁velký	-8.76874
▁navíc	-8.77487
▁přitom	-8.7751
▁dobu	-8.77649
▁čas	-8.77722
▁První	-8.78342
▁vlastně	-8.78367
▁problémy	-8.78397
▁ten	-8.78722
▁jednoho	-8.78765
▁sebe	-8.78766
▁české	-8.79081
▁naopak	-8.79246
▁čtyři	-8.79722
po	-8.7986
▁ředitel	-8.80056
▁obchodní	-8.80605
kou	-8.80713
▁Ty	-8.81093
h	-8.81253
▁města	-8.81266
▁zájem	-8.8137
▁5	-8.81378
▁letošní	-8.81466
▁skutečně	-8.81534
ly	-8.81605
el	-8.8161
▁straně	-8.8213
▁ministr	-8.82237
▁největší	-8.82351
▁znovu	-8.82441
▁životní	-8.82443
▁jej	-8.82476
▁vláda	-8.82544
je	-8.82601
▁jednotlivý	-8.82711
▁většinou	-8.82756
▁zahraniční	-8.82761
M	-8.82806
D	-8.83019
▁mnoho	-8.83243
▁zhruba	-8.83263
▁20	-8.83584
▁současné	-8.83637
▁řešení	-8.83817
▁prezident	-8.84254
▁řízení	-8.84332
▁platí	-8.84431
▁území	-8.84714
▁jiných	-8.85114
▁Jiří	-8.85184
▁nelze	-8.85683
▁celý	-8.85842
▁snad	-8.86247
▁bych	-8.86356
▁1992	-8.86645
▁začal	-8.86979
▁letos	-8.87121
ť	-8.87344
f	-8.87375
▁smlouvy	-8.87564
▁dolarů	-8.87578
▁půl	-8.87599
▁rozhodnutí	-8.87827
lu	-8.88419
▁tzv	-8.88586
▁velké	-8.88605
▁jedné	-8.88719
▁mimo	-8.88887
▁r	-8.88987
T	-8.89055
▁program	-8.89328
▁pomocí	-8.89568
▁množství	-8.8993
▁činnosti	-8.90092
▁zase	-8.90437
se	-8.90698
▁naší	-8.90977
on	-8.91417
▁roky	-8.91451
▁Přesto	-8.91576
▁vás	-8.91608
▁člověk	-8.91631
ově	-8.92192
▁světě	-8.92223
▁různých	-8.92513
K	-8.9258
or	-8.92663
▁hlavní	-8.92871
▁státu	-8.9307
▁jednou	-8.93278
▁později	-8.9341
▁šest	-8.93481
ích	-8.93643
ří	-8.9373
▁můžete	-8.93946
▁programu	-8.94222
er	-8.94551
▁ČSFR	-8.94724
▁člověka	-8.94991
ův	-8.95068
▁podniku	-8.95521
▁Evropě	-8.95589
▁vedení	-8.95663
▁dost	-8.95761
▁skupiny	-8.95868
▁století	-8.96125
▁Petr	-8.96408
▁věci	-8.96443
▁1.	-8.96489
▁tří	-8.96503
▁služby	-8.96639
▁málo	-8.96829
▁rozdíl	-8.9698
▁deset	-8.96984
▁dlouho	-8.97162
▁Václav	-8.97286
▁domácí	-8.97347
▁mělo	-8.9763
▁jinak	-8.97701
▁činnost	-8.97864
▁obou	-8.98167
▁prý	-8.98347
▁zároveň	-8.98407
▁situaci	-8.98772
tu	-8.98798
▁Před	-8.99083
▁prohlásil	-8.99463
▁snímku	-8.99858
▁náklady	-8.99891
▁nových	-9.00136
▁trh	-9.00183
ného	-9.00388
▁možná	-9.004
▁přesto	-9.00434
▁život	-9.00457
▁spolu	-9.00499
▁prvním	-9.00594
▁tvrdí	-9.00679
vá	-9.00768
▁cenu	-9.00871
▁problém	-9.01224
▁měly	-9.01251
ným	-9.01292
▁nemůže	-9.01324
▁návrh	-9.01369
▁máme	-9.01467
▁jaké	-9.0176
▁mohli	-9.01785
ř	-9.01875
▁děti	-9.0206
čí	-9.02244
▁firem	-9.02746
vě	-9.03062
▁získat	-9.0318
▁Praha	-9.03495
▁toto	-9.03658
▁států	-9.03673
N	-9.03779
pl	-9.03904
▁těch	-9.04177
▁majetku	-9.04315
▁CD	-9.04324
▁nakonec	-9.04373
▁všechno	-9.04443
▁Byl	-9.04573
▁funkce	-9.04698
▁4	-9.04749
▁stojí	-9.04838
▁nikdy	-9.04886
▁bývalé	-9.05241
▁lety	-9.05254
ský	-9.05268
▁lepší	-9.05293
▁svém	-9.05395
▁výši	-9.05582
▁svět	-9.05796
oval	-9.05939
▁proč	-9.06124
▁místě	-9.06346
R	-9.06562
▁1993	-9.06571
I	-9.06901
us	-9.06965
▁vody	-9.07002
▁americké	-9.07015
▁možnosti	-9.07274
▁konce	-9.07621
▁stavu	-9.07887
▁nového	-9.08011
▁dříve	-9.08157
▁100	-9.08163
▁dnešní	-9.08181
▁Prahy	-9.08384
▁třetí	-9.08423
▁sobotu	-9.08426
▁30	-9.0867
▁jedna	-9.08965
▁nutné	-9.08979
by	-9.09122
ry	-9.09132
▁mezinárodní	-9.09387
▁nebyl	-9.0952
U	-9.09535
▁pěti	-9.09698
▁parlamentu	-9.09918
▁moc	-9.10165
▁místní	-9.10288
va	-9.10304
▁přece	-9.10355
▁předseda	-9.1052
▁zemi	-9.10701
▁bychom	-9.10959
▁Tento	-9.10995
▁osob	-9.11069
▁ministerstva	-9.11396
B	-9.11411
▁stav	-9.11476
▁týden	-9.11671
ru	-9.11817
ro	-9.11859
ji	-9.11913
ového	-9.11927
ste	-9.11953
an	-9.12092
▁Tato	-9.12199
L	-9.12235
▁Není	-9.12385
▁15	-9.12414
▁informací	-9.12627
▁policie	-9.12627
▁podniků	-9.12639
▁poté	-9.12707
▁všichni	-9.12836
▁samozřejmě	-9.12995
ská	-9.1301
▁Vy	-9.13013
▁rychle	-9.13228
▁můžeme	-9.13246
▁nikdo	-9.13249
▁Další	-9.13261
da	-9.13685
▁F	-9.13715
nebo	-9.13832
▁hlavně	-9.13876
▁nový	-9.13991
ko	-9.14057
▁českých	-9.14299
▁poměrně	-9.14384
ec	-9.14495
▁prezidenta	-9.14498
▁Kromě	-9.14502
▁něho	-9.14507
▁věcí	-9.14687
ova	-9.14801
ského	-9.15042
▁Ten	-9.15057
ující	-9.15057
▁sdružení	-9.15143
▁dvěma	-9.15166
trochu	-9.15208
▁50	-9.15397
▁stran	-9.1569
▁vedoucí	-9.15734
V	-9.15757
▁Jana	-9.15887
jich	-9.16165
bychom	-9.16297
▁SSSR	-9.16413
▁pan	-9.17011
▁Mezi	-9.1706
če	-9.17377
▁Jako	-9.17504
▁organizace	-9.17515
▁dobré	-9.17593
▁kdyby	-9.17658
▁Jestli	-9.17707
▁komise	-9.17707
▁podmínky	-9.17708
▁sobě	-9.17709
▁někdy	-9.17709
ají	-9.17919
▁základě	-9.18456
▁pohled	-9.18565
▁Evropské	-9.18689
ním	-9.18908
▁jedno	-9.18997
▁zemích	-9.19042
▁došlo	-9.19198
▁výroby	-9.19409
▁čím	-9.19465
kem	-9.19678
▁kromě	-9.19687
za	-9.19698
▁E	-9.19706
▁Má	-9.19859
▁většina	-9.19906
▁způsob	-9.19926
ba	-9.20134
▁postup	-9.20193
▁místa	-9.20299
▁určité	-9.207
▁ostatní	-9.20727
▁hned	-9.21021
▁nejlepší	-9.21308
▁de	-9.21377
▁života	-9.21486
dním	-9.21839
ti	-9.22227
▁právní	-9.22257
▁rozpočtu	-9.22377
O	-9.22391
▁hry	-9.22492
▁dál	-9.22638
▁ti	-9.22807
▁podíl	-9.22835
lá	-9.22968
▁cena	-9.23041
▁druhý	-9.23047
nu	-9.2305
▁vysoké	-9.2306
▁tehdy	-9.2306
▁jistě	-9.23091
re	-9.23091
▁východní	-9.23145
▁malé	-9.2345
▁mnoha	-9.23543
▁jich	-9.23658
▁teď	-9.23753
▁prohlášení	-9.23866
▁ob	-9.23885
▁milionu	-9.23904
▁nebylo	-9.24117
▁ním	-9.24267
▁prosince	-9.24444
▁prostředky	-9.24445
▁poprvé	-9.24447
▁vývoj	-9.24458
2	-9.2471
▁stejné	-9.2478
▁času	-9.24808
▁unie	-9.25144
ků	-9.25372
hl	-9.25701
▁spolupráci	-9.25847
▁výsledky	-9.25858
▁teprve	-9.25869
▁opatření	-9.25874
▁jenž	-9.25978
▁jí	-9.26441
▁dodal	-9.26545
1	-9.26546
▁výrazně	-9.26603
▁nějak	-9.26638
▁žádné	-9.26705
▁40	-9.26711
▁večer	-9.27046
ím	-9.27122
▁prakticky	-9.27309
3	-9.2738
▁vnitřní	-9.27389
▁tvoří	-9.27559
▁potom	-9.2785
▁procenta	-9.27855
▁hlediska	-9.2799
▁prostřednictví	-9.2799
▁utkání	-9.28018
▁čtyř	-9.28049
▁jedn	-9.28115
▁kterým	-9.28321
▁200	-9.2861
▁republice	-9.28715
▁ministra	-9.28733
▁celou	-9.2882
▁velice	-9.28822
▁premiér	-9.2891
▁ODS	-9.292
▁osm	-9.29214
▁někdo	-9.29446
▁daně	-9.29467
du	-9.29486
nost	-9.29502
ha	-9.29547
▁mnoh	-9.29556
mohlo	-9.29739
▁vliv	-9.29908
▁prostor	-9.29916
▁pár	-9.30168
▁dispozici	-9.30182
▁akce	-9.30198
▁souvislosti	-9.30258
▁obě	-9.30277
díky	-9.30298
P	-9.30439
9	-9.30498
▁řadu	-9.30553
▁typu	-9.30586
hle	-9.30655
▁1990	-9.30922
ší	-9.30964
Á	-9.31013
▁minut	-9.31022
▁já	-9.31132
▁6	-9.31321
▁změny	-9.31412
▁Ta	-9.31433
▁obyvatel	-9.31561
mohla	-9.31592
▁rámci	-9.31669
▁ledna	-9.31674
▁zdravotní	-9.3181
▁mne	-9.319
ty	-9.3202
▁původní	-9.32183
▁sebou	-9.32187
▁budeme	-9.32254
▁názor	-9.32283
▁doma	-9.32289
▁stal	-9.32355
▁nejméně	-9.32429
▁menší	-9.32462
▁podařilo	-9.32479
ri	-9.32559
▁státy	-9.331
▁roli	-9.33187
C	-9.33235
▁různé	-9.33286
▁čs	-9.33459
▁vítězství	-9.33475
ější	-9.33746
▁Například	-9.3394
▁podnikání	-9.33963
▁p	-9.34185
▁dne	-9.34474
▁výše	-9.3452
▁Š	-9.34649
▁opravdu	-9.34712
▁Jde	-9.34738
▁podnik	-9.34814
ví	-9.34817
▁tolik	-9.35183
ov	-9.35237
▁západní	-9.3542
▁smlouvu	-9.35485
ních	-9.35498
▁miliónů	-9.35504
▁náš	-9.35505
4	-9.35527
▁minulý	-9.35535
▁prostě	-9.35572
▁peněz	-9.35597
od	-9.35636
▁nedávno	-9.35637
ských	-9.35709
ení	-9.35889
▁miliard	-9.35968
▁Jen	-9.36127
▁funkci	-9.36266
▁Dnes	-9.36301
▁zvýšení	-9.36381
▁právo	-9.36476
▁služeb	-9.36498
▁loni	-9.36533
▁význam	-9.36664
▁vů	-9.36863
▁Kdo	-9.37094
▁měsíců	-9.37167
▁středu	-9.37253
lí	-9.37341
▁žádný	-9.3746
▁sto	-9.37575
▁dnech	-9.37801
▁chtějí	-9.37847
▁koaliční	-9.37847
▁ministerstvo	-9.37847
▁pojištění	-9.37941
▁politické	-9.38282
▁nižší	-9.385
▁šesti	-9.38575
▁metrů	-9.38689
▁jiného	-9.38714
▁postupně	-9.38724
proti	-9.38814
▁úřadu	-9.38866
▁rady	-9.38871
▁Windows	-9.38926
▁8	-9.38971
▁zahraničních	-9.3913
jší	-9.39285
▁12	-9.39406
▁získal	-9.39482
▁společenství	-9.39487
▁svazu	-9.39549
de	-9.39786
▁trenér	-9.40412
▁pomoc	-9.40437
▁členů	-9.40449
▁soud	-9.40534
▁25	-9.40721
▁nemusí	-9.41086
▁číslo	-9.41094
▁Zde	-9.41262
▁podobně	-9.41825
▁podporu	-9.41853
bu	-9.41946
▁nadále	-9.41972
▁Bude	-9.42
▁klubu	-9.42016
▁počtu	-9.42571
▁1991	-9.42609
▁osobní	-9.42787
▁Pak	-9.42861
nější	-9.4305
▁kam	-9.43109
▁dat	-9.43309
▁týmu	-9.43334
▁ta	-9.43364
▁podniky	-9.43402
▁ročně	-9.4346
▁Většin	-9.43586
▁hospodářství	-9.43586
▁nabídky	-9.43586
▁lépe	-9.43587
▁malý	-9.43606
▁přibližn	-9.4361
▁okolí	-9.43721
▁MS	-9.43845
▁Ani	-9.43857
▁nepo	-9.43886
ovým	-9.43914
▁Se	-9.44084
▁každ	-9.4413
▁podstatně	-9.44417
▁umožňuje	-9.44433
E	-9.44451
▁jenom	-9.44475
▁přesně	-9.44679
▁dostal	-9.4468
▁W	-9.44688
▁hodně	-9.44703
▁výkon	-9.44745
▁růst	-9.44765
▁fondu	-9.44922
▁slova	-9.44997
▁chování	-9.45011
is	-9.45012
▁musíme	-9.45191
▁provoz	-9.45194
▁1994	-9.45267
▁začíná	-9.45288
▁říci	-9.45299
▁případech	-9.45325
▁novou	-9.45331
▁vede	-9.4538
▁městě	-9.45408
▁banky	-9.45646
▁nejvyšší	-9.45704
▁zisk	-9.45764
▁18	-9.4586
Dr	-9.45867
▁řada	-9.45894
▁pomoci	-9.45967
▁možností	-9.4609
▁sítě	-9.46162
▁oddělení	-9.46206
▁deseti	-9.46243
mž	-9.46352
▁vedle	-9.46406
▁českého	-9.46448
▁obvykle	-9.4653
▁nebyla	-9.46629
ému	-9.46798
▁cen	-9.46847
▁zdá	-9.46882
0	-9.46964
▁otázku	-9.4702
▁politiky	-9.47066
▁kterém	-9.47096
▁průběhu	-9.47234
▁celkové	-9.47319
▁miliardy	-9.47689
▁považuje	-9.47878
▁nabízí	-9.47897
▁nemají	-9.47919
▁ulici	-9.47957
▁zdrojů	-9.48019
os	-9.48092
ma	-9.48311
Z	-9.48508
▁Už	-9.48673
▁text	-9.48687
▁skutečnost	-9.48763
▁otázky	-9.48782
▁úrovni	-9.48782
▁chvíli	-9.48782
▁celkem	-9.48783
▁Česká	-9.48786
▁pracovníků	-9.49023
▁nevy	-9.49131
tra	-9.49168
▁hrát	-9.49173
5	-9.49233
▁moci	-9.49263
▁pražské	-9.49331
tě	-9.49498
▁názoru	-9.4957
ání	-9.49615
▁dosavadní	-9.49645
▁mistrovství	-9.49678
▁jednom	-9.49729
▁dohody	-9.49818
▁takto	-9.49823
▁postavení	-9.49827
▁zástupce	-9.49844
▁objektů	-9.49877
ve	-9.50274
▁platit	-9.50342
▁změn	-9.50471
ar	-9.50576
▁dětí	-9.50576
▁energie	-9.50576
▁NATO	-9.50577
▁snaží	-9.50684
ať	-9.50727
▁působí	-9.50855
▁dá	-9.50923
▁společností	-9.51181
▁sedm	-9.51235
ční	-9.51326
▁bývalý	-9.51342
▁Ze	-9.51349
▁cestu	-9.5135
▁objekt	-9.5137
▁takový	-9.51412
▁7	-9.51452
▁tržní	-9.51461
▁přístup	-9.51478
▁finále	-9.51485
▁listopadu	-9.51533
▁představuje	-9.51546
▁setkání	-9.51649
▁měsíce	-9.51686
▁kterých	-9.51729
▁sama	-9.51735
▁jejím	-9.51769
es	-9.51771
ěte	-9.51918
▁Klaus	-9.52038
▁světové	-9.52186
▁každé	-9.52248
▁prostředků	-9.52403
▁čtvrtek	-9.52414
▁Ještě	-9.52439
▁Tím	-9.52444
▁současně	-9.52548
▁řadě	-9.52583
▁obchodního	-9.5269
▁národní	-9.52806
▁hráčů	-9.52812
▁příští	-9.52864
▁zdroje	-9.5287
▁oba	-9.52936
▁textu	-9.52983
▁volební	-9.53088
▁my	-9.53119
▁Navíc	-9.53328
▁Nyní	-9.53331
▁produkce	-9.53335
▁OSN	-9.53336
▁výrobky	-9.53348
▁atd	-9.53362
▁neděli	-9.53425
▁nikoli	-9.53436
lé	-9.5347
tr	-9.53471
et	-9.5378
▁musel	-9.5394
▁skutečnosti	-9.53992
▁Josef	-9.54263
▁federální	-9.54263
▁zasedání	-9.54268
▁kvalitní	-9.54298
▁muset	-9.54319
▁výrobků	-9.54469
▁poně	-9.54502
▁všem	-9.54558
▁výboru	-9.54714
▁sami	-9.54719
▁hlavním	-9.54907
děl	-9.54972
řitom	-9.55017
▁sil	-9.55116
▁uvádí	-9.55142
▁začátku	-9.55216
▁srovnání	-9.55253
▁přiče	-9.55428
▁akcií	-9.55428
▁hodnoty	-9.55447
▁součástí	-9.55464
▁mluvčí	-9.55562
▁jiný	-9.5562
▁školy	-9.55683
▁tým	-9.55729
▁obchodu	-9.55735
w	-9.55736
▁prezentace	-9.55737
▁provozu	-9.56019
ter	-9.5604
ovali	-9.56049
tí	-9.5611
▁teorie	-9.56159
▁privatizace	-9.56159
▁apod	-9.56161
▁společné	-9.56195
▁jasné	-9.56205
▁zvláštní	-9.56391
▁2.	-9.56563
▁těm	-9.56609
▁problémů	-9.5665
▁generální	-9.56837
▁objektu	-9.5686
▁olympijské	-9.57088
▁dopravy	-9.57171
▁kterého	-9.5718
▁domů	-9.57194
▁plně	-9.57299
▁jednotlivé	-9.57322
▁1989	-9.57334
▁poslanců	-9.57372
▁buď	-9.57477
krát	-9.57547
vol	-9.57714
▁telefonní	-9.57738
vi	-9.57839
prve	-9.57906
▁chtěl	-9.57972
nutí	-9.57989
▁ekonomické	-9.58044
▁našem	-9.58055
▁veřejné	-9.58091
▁zdravotnictví	-9.58091
▁Někter	-9.58094
▁umění	-9.58112
▁kole	-9.58216
▁údaje	-9.58393
▁kolik	-9.58512
▁ME	-9.58514
▁Bylo	-9.58622
▁dalším	-9.58669
▁práva	-9.58886
▁podobě	-9.59105
▁kultury	-9.59142
▁ostatních	-9.59154
▁investice	-9.59185
▁noci	-9.59266
▁slov	-9.59279
ců	-9.59453
▁skupina	-9.59484
▁státního	-9.59542
▁celého	-9.59603
např	-9.59774
▁11	-9.59818
val	-9.59938
▁úřad	-9.5997
▁čeká	-9.60135
▁společně	-9.60152
▁přednost	-9.60171
▁zájmu	-9.60173
▁Proč	-9.60184
▁snadno	-9.6023
▁soutěže	-9.60286
ační	-9.60336
▁strana	-9.60355
▁smrti	-9.60364
▁občanů	-9.60411
▁předem	-9.60558
▁Toto	-9.60723
▁tisíce	-9.60791
▁her	-9.60934
▁obsah	-9.60976
▁jméno	-9.61062
▁politických	-9.61121
▁pracovat	-9.6114
še	-9.61215
▁míst	-9.61391
▁dává	-9.61603
▁24	-9.61704
dr	-9.61961
ká	-9.62066
▁Stejn	-9.62074
▁snímek	-9.62077
▁zdraví	-9.62079
▁vod	-9.62112
▁lidi	-9.62116
▁vytvoření	-9.62154
▁důvodů	-9.62191
▁Ivan	-9.62205
▁nejvíce	-9.62264
kr	-9.62373
▁16	-9.62444
▁soudu	-9.62903
▁moderní	-9.62995
▁vybavení	-9.63015
▁Jaroslav	-9.63092
▁vzhledem	-9.63202
▁velkou	-9.63202
▁mužů	-9.63328
▁dr	-9.63334
▁list	-9.63376
však	-9.63403
▁konkrétní	-9.6349
▁hráči	-9.63524
▁počítače	-9.63697
▁hnutí	-9.63731
ši	-9.63748
▁otázka	-9.63937
▁okolo	-9.64126
▁Země	-9.6413
ila	-9.64137
▁14	-9.64227
▁hodiny	-9.6457
▁věc	-9.64775
▁spíš	-9.64814
▁film	-9.64888
▁náměstí	-9.65165
▁zástupci	-9.65167
▁někteří	-9.65168
▁září	-9.65169
▁rukou	-9.6517
▁kilometrů	-9.65194
▁zaměstnání	-9.65197
▁obsahuje	-9.65201
▁Nej	-9.65273
▁60	-9.65297
svoji	-9.65332
▁věku	-9.65357
tá	-9.65364
▁koncem	-9.65366
▁oboru	-9.65432
▁mohly	-9.65618
skou	-9.65657
▁vládní	-9.65707
▁mám	-9.65711
▁nějaké	-9.65978
▁cestovní	-9.66217
▁výsledek	-9.66217
ství	-9.66221
let	-9.66279
▁přišel	-9.66309
▁druhů	-9.66349
▁zkušenosti	-9.6646
▁hospodářské	-9.66655
▁těžko	-9.6681
▁cizí	-9.66849
▁Kčs	-9.66861
▁objekty	-9.66913
▁St	-9.67174
▁Pavel	-9.67222
▁Může	-9.67281
▁dnů	-9.67283
▁podmínek	-9.67285
▁nebudou	-9.67292
▁koalice	-9.67344
▁stavební	-9.67408
▁Ti	-9.67463
▁zaměstnanců	-9.67637
▁existuje	-9.67645
▁smyslu	-9.67818
▁český	-9.67819
▁zůstává	-9.67881
▁celkov	-9.67933
▁běžné	-9.67992
ili	-9.68023
▁každého	-9.68047
▁dobrý	-9.68137
▁případ	-9.68161
▁bývá	-9.68311
▁úroveň	-9.68356
▁tady	-9.68367
▁dvacet	-9.68442
▁chyb	-9.68444
pravidla	-9.6845
▁loňské	-9.68495
▁minulosti	-9.68507
▁Podobn	-9.68517
▁dal	-9.68668
▁daleko	-9.68839
000	-9.68977
▁spojení	-9.69147
▁případně	-9.69298
▁pátek	-9.69443
▁praxi	-9.69444
▁poslanci	-9.69445
▁určitě	-9.69588
▁Každý	-9.69594
▁jediný	-9.69646
▁Já	-9.6981
ické	-9.69853
▁pozornost	-9.69904
▁rychlost	-9.69941
ck	-9.70057
▁Jelcin	-9.70266
▁Brně	-9.7034
▁zpět	-9.70342
▁důležité	-9.70542
▁vidět	-9.70542
▁13	-9.70543
▁šanci	-9.70543
▁konci	-9.70554
▁kvality	-9.706
▁doba	-9.70771
▁možno	-9.70935
▁výzkum	-9.71059
▁použití	-9.71089
▁druhém	-9.71293
ovy	-9.71297
ob	-9.7131
▁prvního	-9.71327
▁skupin	-9.71457
ol	-9.71467
▁zápas	-9.71577
▁šéf	-9.716
▁síly	-9.71657
▁volbách	-9.7166
▁července	-9.71668
▁dny	-9.71674
▁krok	-9.71694
▁nikoliv	-9.71727
▁změnit	-9.71796
viz	-9.71807
▁odpovídá	-9.71818
▁knihy	-9.71924
man	-9.7194
▁Německa	-9.72023
▁členy	-9.72091
▁nebezpečí	-9.72436
▁Český	-9.72517
▁rozvoj	-9.72672
▁účast	-9.72713
▁nákladů	-9.72813
▁podstatě	-9.72821
▁vztah	-9.72931
▁ruské	-9.72986
dl	-9.73233
▁tisku	-9.73236
ované	-9.73256
▁činí	-9.73276
dí	-9.73476
▁stačí	-9.73625
▁tepla	-9.73913
▁úplně	-9.73919
▁výrobu	-9.73953
▁představitelé	-9.74001
▁investiční	-9.74016
▁Ministerstv	-9.74054
00	-9.74155
▁druhou	-9.74207
▁práv	-9.74234
▁č	-9.74436
▁podobné	-9.74482
6	-9.74487
▁domu	-9.74581
▁techniky	-9.74642
▁Již	-9.74848
▁delší	-9.74874
▁podnikatele	-9.74949
aci	-9.75085
▁míry	-9.75126
▁celá	-9.75154
▁volby	-9.7521
▁pracuje	-9.75245
ROM	-9.75352
▁zprávy	-9.75407
▁léta	-9.75453
▁údajn	-9.75562
▁voleb	-9.75693
▁vznikl	-9.75749
▁fond	-9.75768
▁fakt	-9.75821
nosti	-9.75868
▁rád	-9.76
▁též	-9.76119
▁dvakrát	-9.76267
▁světový	-9.76273
▁vytvořit	-9.76293
▁obraz	-9.76329
▁polovin	-9.76372
▁televizní	-9.76379
▁chcete	-9.76461
▁návrhu	-9.7647
▁klub	-9.76479
▁vlastnosti	-9.76508
▁bytů	-9.76529
dnu	-9.76627
▁dělat	-9.76673
skoro	-9.76794
▁parlament	-9.76835
▁Pře	-9.76852
▁fotbalové	-9.76925
▁tun	-9.76984
sti	-9.77023
▁Ko	-9.77209
▁muž	-9.77384
▁financí	-9.77402
▁konečně	-9.7744
ali	-9.77526
▁SR	-9.77587
▁každém	-9.77653
▁jít	-9.77928
▁bod	-9.78214
ice	-9.78231
▁škol	-9.78318
vláště	-9.78372
dy	-9.78457
zhledem	-9.78543
▁federace	-9.78592
▁použít	-9.78592
▁firmě	-9.786
▁Jeden	-9.78605
do	-9.7862
▁evropských	-9.78632
▁Všechny	-9.78646
▁současnosti	-9.78669
▁zpracování	-9.78672
▁bodů	-9.78825
▁průmyslu	-9.78829
▁počítá	-9.78846
hr	-9.78847
▁Německu	-9.78875
ev	-9.79137
vý	-9.79235
▁Jedno	-9.79383
▁model	-9.79451
▁ženy	-9.79642
▁osoby	-9.79785
▁pravděpodobně	-9.79795
▁Právě	-9.79797
▁Společenství	-9.79797
▁Vladimír	-9.79797
▁zbraní	-9.79797
▁nejlépe	-9.79798
▁Bez	-9.79806
▁rozhodující	-9.79812
▁Běh	-9.79817
▁objeví	-9.79935
▁typ	-9.80017
▁ředitele	-9.80038
▁jaký	-9.80079
▁Zeman	-9.80134
pr	-9.80137
▁Firma	-9.80148
▁původně	-9.80225
▁projekt	-9.80238
▁cílem	-9.80269
▁amerických	-9.80281
▁schopn	-9.8039
▁neza	-9.80392
▁80	-9.80498
▁následující	-9.80591
▁byt	-9.80595
▁olympijský	-9.80898
▁prostoru	-9.80901
čky	-9.80937
▁udělat	-9.81036
▁sněmovny	-9.81073
▁vhodné	-9.81179
▁kulturní	-9.81262
H	-9.81268
značně	-9.81423
▁počítač	-9.81431
▁republik	-9.81482
▁žen	-9.81524
íky	-9.81609
▁dlouhé	-9.81706
▁důvod	-9.81811
▁lékaře	-9.81848
▁těmi	-9.81901
▁zisku	-9.81972
▁růstu	-9.8198
▁technologie	-9.82057
▁patrně	-9.82246
▁informační	-9.82251
▁čísla	-9.82251
▁brzy	-9.82251
▁hovoří	-9.82266
vr	-9.82313
▁obrany	-9.82361
▁Miloš	-9.82427
pe	-9.82439
▁nez	-9.82552
▁rokem	-9.82564
▁ústavu	-9.82595
str	-9.82729
▁veřejnosti	-9.82787
ing	-9.82896
▁vědecké	-9.82934
▁pravda	-9.83015
8	-9.83169
ran	-9.83223
raději	-9.83496
▁většinu	-9.83501
▁jinde	-9.83501
▁péče	-9.83501
▁začne	-9.83506
▁vodní	-9.83516
▁dovolenou	-9.83548
▁vládě	-9.83573
▁úspěch	-9.83627
▁denně	-9.83723
▁prací	-9.83729
▁data	-9.83741
▁čem	-9.83772
▁stala	-9.83913
▁slovo	-9.83923
▁takovou	-9.84006
▁výrobce	-9.84038
▁roční	-9.84046
▁17	-9.84109
▁vzájemn	-9.84124
▁ES	-9.84158
vy	-9.84174
▁vědět	-9.84275
▁národního	-9.84307
F	-9.84321
ovala	-9.84323
ad	-9.84533
▁nejbližší	-9.8456
▁prodej	-9.84649
▁aplikace	-9.84691
▁jisté	-9.84742
▁pozadí	-9.84767
▁látky	-9.84768
▁pokračovat	-9.84772
▁sluneční	-9.84808
▁potřebné	-9.85131
ul	-9.85273
▁stalo	-9.85342
▁nedo	-9.85344
▁zranění	-9.85393
▁procesu	-9.85396
▁dosáhl	-9.8581
▁nebyly	-9.86046
▁UEFA	-9.86049
▁demokracie	-9.86049
▁označil	-9.86049
▁televizi	-9.86049
▁oficiální	-9.8605
▁Havel	-9.8605
▁nijak	-9.86054
▁nemohou	-9.86063
▁ukazuje	-9.86069
▁okamžitě	-9.86072
▁hodnocení	-9.8608
▁budoucí	-9.86123
▁míru	-9.86128
▁zabývá	-9.86152
▁Spojený	-9.86166
▁naprosto	-9.86285
▁starší	-9.86302
▁určen	-9.86319
▁cesty	-9.86345
▁plné	-9.8641
▁bezpečnosti	-9.8644
▁vzniku	-9.86642
▁body	-9.86715
▁Nové	-9.86742
▁odborné	-9.86843
▁dát	-9.86941
▁svaz	-9.87022
▁výběr	-9.87025
▁třicet	-9.87132
▁termín	-9.87199
▁oblast	-9.87216
▁trvá	-9.87245
třech	-9.8725
▁řečeno	-9.87348
▁počasí	-9.8735
▁majetek	-9.87351
▁členové	-9.87394
br	-9.87473
▁stanice	-9.87524
▁vládu	-9.87539
▁kanceláře	-9.87559
▁potřeby	-9.8757
▁ČSSD	-9.87652
ostí	-9.87812
op	-9.87855
▁vyhrál	-9.87887
▁zákony	-9.87888
▁řady	-9.87941
▁lékaři	-9.87956
▁rozšíření	-9.87995
▁systémů	-9.88229
▁lidský	-9.88285
▁Nový	-9.88291
▁19	-9.8837
mj	-9.88541
nout	-9.88598
▁Měl	-9.88607
▁vývoje	-9.88615
▁hranice	-9.88639
▁nějaký	-9.88648
▁názvem	-9.88664
▁onemocnění	-9.88664
▁požadavky	-9.88664
▁rozhodně	-9.88665
▁příjmy	-9.88684
▁2000	-9.88686
▁lidem	-9.88706
▁vojenské	-9.8871
▁ekonomiky	-9.88717
▁500	-9.88724
▁dosáhnout	-9.88741
▁podobný	-9.88852
▁téma	-9.88869
▁Slovensku	-9.88901
ace	-9.88914
▁Ma	-9.88989
CH	-9.89065
pa	-9.89065
▁Martin	-9.89078
▁smysl	-9.89134
▁nes	-9.89137
▁rada	-9.89395
▁počátku	-9.89578
▁přístupu	-9.89636
▁nová	-9.89682
▁dokáže	-9.89982
▁konference	-9.89997
▁televize	-9.89997
▁ligy	-9.89998
▁vánoční	-9.89999
▁dostat	-9.9
▁policejní	-9.90002
▁Státní	-9.90121
▁jednak	-9.90123
▁mechaniky	-9.90199
▁hlavního	-9.90215
▁řekla	-9.9026
▁300	-9.9037
▁trestní	-9.90443
▁Čech	-9.90456
▁celém	-9.90496
ák	-9.90577
▁výsledků	-9.90616
▁neu	-9.90623
▁společného	-9.90858
lou	-9.90948
▁prodeje	-9.9099
▁pole	-9.9105
▁Tu	-9.91099
▁lékař	-9.91126
▁soubor	-9.91204
▁poskytuje	-9.91348
▁vnitra	-9.91349
▁velká	-9.9135
▁Prezident	-9.91351
▁Československu	-9.91372
▁parlamentní	-9.91373
Í	-9.91495
▁nechal	-9.915
brž	-9.9154
▁škody	-9.91547
▁Aby	-9.91571
▁osmi	-9.91582
án	-9.91602
▁druhá	-9.91674
▁rychlostí	-9.91694
▁Ná	-9.91749
▁proces	-9.91813
▁Velké	-9.91852
▁závěru	-9.91919
▁závod	-9.91928
id	-9.91955
▁druhu	-9.91974
▁souboru	-9.92019
▁disk	-9.92041
▁PowerPoint	-9.92046
▁výrobní	-9.92078
▁řad	-9.92108
▁obchod	-9.92147
▁skončil	-9.92228
▁majitel	-9.92272
ven	-9.92611
▁zákonů	-9.92646
▁druhého	-9.92673
▁zemědělství	-9.92718
▁látek	-9.92719
▁najít	-9.92729
▁měsících	-9.92733
▁Čechách	-9.92748
▁desítky	-9.92752
▁Atlantě	-9.9276
▁správy	-9.92786
▁dopravní	-9.92789
▁dní	-9.92795
▁zákoníku	-9.92881
▁jinou	-9.92918
▁vydání	-9.92921
▁měsíc	-9.92945
▁město	-9.9295
méně	-9.93145
šlo	-9.93182
▁povinnost	-9.93206
ed	-9.93371
▁výbor	-9.93419
▁výběru	-9.93428
ant	-9.93431
▁Ú	-9.93446
▁čele	-9.93468
▁70	-9.93496
▁takového	-9.93564
▁rozhodl	-9.9361
▁dvaceti	-9.93926
kách	-9.94085
▁Francie	-9.94107
▁schopen	-9.94107
▁nabídku	-9.94107
▁ustanovení	-9.94108
▁snímků	-9.94109
▁uplatnění	-9.94164
dávají	-9.94185
▁ráno	-9.9419
▁evropské	-9.94236
▁státech	-9.94314
fi	-9.94403
▁začali	-9.94551
▁oznámil	-9.94575
▁přijde	-9.94685
▁získá	-9.9476
▁soukromé	-9.94866
▁změna	-9.95024
▁nim	-9.95155
NÍ	-9.95231
pro	-9.95248
▁těžké	-9.95516
▁využít	-9.95516
▁působení	-9.95519
▁hodlá	-9.95523
▁rozpočet	-9.95523
▁školství	-9.95523
▁seznamu	-9.9554
▁přijetí	-9.9555
▁zajistit	-9.95555
▁tentokrát	-9.95558
▁převážně	-9.95595
ovaných	-9.95602
▁dalšího	-9.95607
▁pokus	-9.95628
▁pořadí	-9.9572
▁částky	-9.9573
▁vysokou	-9.9574
▁Takže	-9.95753
▁Cen	-9.95767
▁jiná	-9.95775
▁okamžiku	-9.95845
▁vyplývá	-9.95848
▁chybí	-9.95878
▁minulé	-9.96006
▁využití	-9.96249
J	-9.96358
▁chtěli	-9.96438
▁odmítl	-9.96452
G	-9.96476
▁obrat	-9.96506
tím	-9.96548
▁Re	-9.96563
▁názory	-9.96647
▁nesmí	-9.96688
▁ceně	-9.96771
▁bank	-9.96785
▁Její	-9.96834
▁předpokládá	-9.96867
▁Cel	-9.96872
▁Přes	-9.96878
▁spolupráce	-9.96944
▁nejrůznější	-9.96945
▁Mezinárodní	-9.96952
▁směrem	-9.97003
▁místech	-9.97011
▁povolení	-9.97017
▁údajů	-9.97025
▁cestou	-9.97148
ver	-9.97159
bor	-9.97159
▁nejde	-9.97191
vo	-9.97235
▁řešit	-9.9733
▁máte	-9.97333
▁bohužel	-9.97434
▁družstva	-9.97434
ga	-9.97583
▁němu	-9.97626
▁stane	-9.97687
▁výzkumu	-9.97811
pra	-9.98015
▁Ke	-9.9805
▁systémy	-9.98071
▁potřebuje	-9.981
nými	-9.98141
▁druh	-9.98221
▁jednat	-9.98285
▁uvedla	-9.98322
▁vznik	-9.98331
▁jestli	-9.98358
▁pondělí	-9.98393
▁prezentaci	-9.98393
len	-9.98406
▁ohledu	-9.98408
▁armády	-9.98443
▁pravidelně	-9.98452
▁vyslovil	-9.98458
▁předtím	-9.98489
▁Li	-9.98503
▁smluvní	-9.98546
▁La	-9.98586
▁připraven	-9.98649
▁dodává	-9.98769
▁vědy	-9.98789
gr	-9.98791
▁případů	-9.98849
▁veřejnost	-9.98939
▁vztahy	-9.99169
▁podnikatel	-9.99236
▁daňové	-9.99291
▁tiskové	-9.99333
▁změnu	-9.99477
▁taková	-9.99619
▁dostane	-9.99752
▁dvanáct	-9.99801
▁konferenci	-9.99864
▁podmínkách	-9.99864
▁úrovně	-9.99864
▁spoust	-9.99867
▁radnice	-9.99867
▁června	-9.99868
▁příjmů	-9.9987
▁Poslední	-9.99874
▁výjimkou	-9.99908
▁politiku	-9.99951
▁částku	-10.0004
lit	-10.0007
▁rodiny	-10.0012
nit	-10.0015
▁směru	-10.0019
▁severní	-10.0021
▁důležitý	-10.0027
▁HIV	-10.0037
▁plyn	-10.0037
▁neměl	-10.0038
▁vztahu	-10.0068
▁on	-10.0077
▁podnikatelů	-10.0079
▁pokles	-10.0082
▁speciální	-10.0084
▁museli	-10.0089
▁hráče	-10.0094
hal	-10.0103
▁hráč	-10.011
▁Naše	-10.011
▁konkurence	-10.0113
▁vstup	-10.0117
▁jakým	-10.0119
▁padesát	-10.0128
▁Jedna	-10.013
uto	-10.0132
▁války	-10.0136
▁většině	-10.0136
▁účetnictví	-10.0136
▁Současn	-10.0136
▁tvrzení	-10.0136
▁volné	-10.0138
▁moře	-10.0138
▁%.	-10.0139
▁New	-10.0141
ilo	-10.0144
▁jednoznačně	-10.0146
▁aliance	-10.0147
▁re	-10.0155
▁žádn	-10.0169
▁aktivity	-10.017
▁skupině	-10.0171
▁hodnotu	-10.0178
▁polovinu	-10.0222
▁přírodní	-10.0225
▁bezpečnostní	-10.0231
▁Rusko	-10.0236
▁Ro	-10.0238
▁hraje	-10.0243
▁akci	-10.0245
▁Mám	-10.0247
▁Václava	-10.025
ník	-10.0255
▁nově	-10.0259
▁řád	-10.0266
▁90	-10.0267
▁většiny	-10.0287
▁politice	-10.0287
▁začít	-10.0287
▁vždycky	-10.0288
▁člen	-10.0289
▁pořádku	-10.0291
▁ODA	-10.0293
▁nemocnice	-10.0295
▁Jenže	-10.0297
▁individuální	-10.0299
▁centra	-10.0301
▁třemi	-10.0301
▁pracovníci	-10.0302
▁Německo	-10.0304
▁univerzity	-10.0306
▁předsedy	-10.032
▁LN	-10.0334
▁Tr	-10.0334
▁Roz	-10.0334
▁budoucnosti	-10.0341
nik	-10.0347
▁německé	-10.0352
▁životě	-10.036
▁paní	-10.0364
▁Kdyby	-10.0373
▁koupit	-10.0375
▁Pod	-10.0378
▁sportovní	-10.0379
▁snížení	-10.0379
▁jím	-10.0399
SK	-10.0405
ur	-10.0406
rt	-10.0409
▁čase	-10.0412
ací	-10.0413
▁22	-10.0416
▁poměr	-10.0417
sta	-10.0417
ček	-10.0425
zn	-10.0432
rad	-10.0437
▁AIDS	-10.0441
▁Británie	-10.0441
▁srpna	-10.0441
▁obyvatelstva	-10.0441
▁Možná	-10.0445
▁předchozí	-10.0448
▁Vždyť	-10.0449
▁hlasů	-10.0449
▁objevil	-10.0455
▁důsledku	-10.0464
▁složení	-10.0469
▁miliony	-10.0472
▁Mar	-10.0482
▁vzdělání	-10.0494
▁takových	-10.0499
nice	-10.0517
▁týká	-10.0517
▁Ba	-10.0528
▁ex	-10.0529
▁úřady	-10.0535
▁vaše	-10.0537
bal	-10.0539
alo	-10.0543
vnitř	-10.0554
ároveň	-10.0558
▁výkonu	-10.0563
▁používá	-10.0566
▁400	-10.0571
▁státních	-10.0572
▁místopředsed	-10.0575
▁banka	-10.0584
▁35	-10.0589
▁projektu	-10.0591
▁očekávat	-10.0597
▁silniční	-10.0597
▁buněk	-10.0597
▁verze	-10.0598
▁připravuje	-10.06
▁zdalek	-10.06
▁kvalitu	-10.0606
▁uspořádání	-10.0608
▁příštím	-10.061
▁dochází	-10.0612
ovací	-10.0613
▁myslím	-10.0618
▁průměru	-10.0625
▁21	-10.0632
▁chceme	-10.0635
▁zajímavé	-10.0636
▁počítačů	-10.0636
▁auto	-10.0645
▁jiným	-10.066
▁John	-10.0661
▁premiéra	-10.0667
▁jejího	-10.0669
▁povinnosti	-10.067
▁disku	-10.0679
▁funkcí	-10.068
▁hudební	-10.0683
▁obcí	-10.0695
▁Pan	-10.0695
▁muži	-10.0696
▁stroje	-10.0697
▁demokratické	-10.0698
▁150	-10.0708
▁měsíční	-10.0709
▁technické	-10.0709
▁síť	-10.0709
▁napsal	-10.0711
šel	-10.0726
▁závěr	-10.0729
▁částí	-10.0737
▁konec	-10.0744
▁OS	-10.0751
▁piva	-10.0753
▁přírody	-10.0756
▁zřejmé	-10.0756
▁privatizaci	-10.0756
▁Karel	-10.0757
▁marek	-10.0757
▁název	-10.0757
▁článku	-10.0758
▁okresní	-10.0759
▁úvahu	-10.076
▁občas	-10.0761
▁vyžaduje	-10.0767
▁jaderné	-10.0769
▁odborníků	-10.0771
▁agentury	-10.0774
▁programy	-10.0793
▁Oba	-10.0799
▁kolo	-10.081
budete	-10.0814
▁mění	-10.0825
▁hlavních	-10.0826
▁poslanec	-10.0834
▁kola	-10.0834
▁sovětské	-10.0842
▁příštího	-10.0859
▁relativn	-10.0861
ován	-10.0866
▁budu	-10.0869
▁4.	-10.0888
▁nepro	-10.0891
▁současn	-10.0892
▁těžký	-10.0898
▁přechod	-10.09
▁vývoji	-10.0902
▁jména	-10.0917
▁věnovat	-10.0917
▁historii	-10.0917
▁válce	-10.0917
▁Myslím	-10.0918
▁vaší	-10.092
▁vyjádřil	-10.0922
▁zákaz	-10.0927
▁plat	-10.0929
▁liší	-10.0929
▁politika	-10.0931
▁vývoz	-10.0934
▁ni	-10.0955
▁režimu	-10.096
▁hotelu	-10.0964
▁změně	-10.0968
ního	-10.0973
▁druhy	-10.0984
▁Škoda	-10.0992
ží	-10.0998
▁úřadů	-10.1003
▁programů	-10.1005
▁nákup	-10.1006
▁výrobců	-10.1008
▁Miroslav	-10.1009
▁titul	-10.1009
▁Společnost	-10.1021
▁soutěž	-10.1022
▁tlačítko	-10.1047
ily	-10.1057
▁Č	-10.1062
▁aktivní	-10.1074
▁bytu	-10.1078
ěkteří	-10.1081
▁považován	-10.1081
▁1995	-10.1081
▁Základní	-10.1087
ální	-10.1088
▁smlouva	-10.1088
▁pocit	-10.1088
ic	-10.1089
▁stranu	-10.1092
▁vzor	-10.1097
▁autor	-10.1097
▁mechanika	-10.1101
kové	-10.1105
▁družstev	-10.1115
bou	-10.1116
▁typů	-10.1116
▁hranici	-10.1118
▁jednoduché	-10.1121
▁zůstane	-10.1125
▁roste	-10.1131
▁abych	-10.1135
▁veškeré	-10.1144
▁zvířat	-10.1148
▁skutečné	-10.115
▁potvrdil	-10.1163
▁rekord	-10.1163
▁Stál	-10.1165
▁typy	-10.1165
▁hra	-10.1174
▁počítat	-10.1182
dle	-10.1182
▁zákazníků	-10.1187
▁lékařů	-10.1193
▁Že	-10.1205
▁podnikatelské	-10.1224
▁Hlavní	-10.1236
▁devět	-10.1246
▁svému	-10.1247
▁kláves	-10.1247
▁úterý	-10.1248
▁Lidé	-10.1248
▁šance	-10.1248
▁Letos	-10.1248
▁někdejší	-10.1249
▁lednu	-10.1249
▁globální	-10.125
▁set	-10.1251
ována	-10.1251
▁ruce	-10.1252
▁jestliže	-10.1254
▁dům	-10.1258
▁profesionální	-10.1261
7	-10.1269
▁hledání	-10.127
▁získala	-10.1274
▁oblastí	-10.1284
▁dělá	-10.1284
▁My	-10.1284
▁kapitálu	-10.1287
▁značné	-10.1289
▁stejný	-10.1293
tní	-10.1299
sk	-10.13
▁vrátit	-10.1305
▁problémem	-10.1327
▁96	-10.1342
▁pořád	-10.1342
jící	-10.1346
▁telefon	-10.1353
▁molekul	-10.1355
▁uvedené	-10.1355
▁sta	-10.1356
ú	-10.1366
vin	-10.1373
▁vznikla	-10.1388
řka	-10.1394
▁soutěži	-10.1398
▁třetím	-10.1405
▁nepři	-10.1413
▁Chce	-10.1414
▁včerejší	-10.1415
▁Zákon	-10.1416
▁používat	-10.1417
▁verzi	-10.1417
▁potíže	-10.1417
▁vystoupení	-10.1418
▁tabulky	-10.1419
▁nejdříve	-10.1422
▁shromáždění	-10.1422
▁novým	-10.1424
▁mzdy	-10.1424
▁zvlášť	-10.1426
▁časem	-10.1426
▁nedá	-10.1427
▁někter	-10.1429
▁známé	-10.143
▁odpověď	-10.1432
▁rozdělení	-10.1435
▁najednou	-10.1436
/2	-10.1438
▁23	-10.1439
▁3.	-10.1447
▁označení	-10.146
▁vztahů	-10.1465
▁zprávu	-10.1474
▁dob	-10.1476
▁členství	-10.1476
▁silné	-10.1492
▁existují	-10.1504
▁počítači	-10.1505
ič	-10.151
inak	-10.1512
▁tisk	-10.1517
ící	-10.1524
▁centru	-10.153
▁plán	-10.1536
▁posledním	-10.1543
▁soudí	-10.1555
▁jakou	-10.1561
cen	-10.1569
▁nechce	-10.1574
dostatečně	-10.1577
▁včas	-10.1584
▁hospodaření	-10.159
▁zaměstnanci	-10.159
▁Nicméně	-10.159
▁výrobci	-10.159
▁odpadů	-10.1593
▁spočívá	-10.1599
▁dané	-10.1603
▁soukromých	-10.1605
▁pozici	-10.1605
ejte	-10.1605
▁prospěch	-10.1606
▁mil	-10.1606
▁odpovídající	-10.1608
▁respekt	-10.1611
▁Československa	-10.1616
ovalo	-10.1619
▁pohybu	-10.1623
▁soudní	-10.1628
▁díla	-10.1639
▁MB	-10.165
▁občanské	-10.1664
▁poměru	-10.1665
▁Národní	-10.1665
▁radost	-10.1672
▁velikost	-10.1673
▁vnější	-10.1676
▁schopnost	-10.1682
▁týdne	-10.1691
▁objem	-10.1698
▁podepsal	-10.1701
ovými	-10.1701
▁patnáct	-10.1706
rod	-10.1713
▁Františ	-10.1716
▁pojistné	-10.1721
▁získali	-10.1726
▁očekává	-10.1734
ač	-10.1736
▁zvolen	-10.1737
▁Sb	-10.1756
▁zaplatí	-10.1757
dostala	-10.1765
▁hledat	-10.1766
▁prvků	-10.1766
▁Dále	-10.1766
▁Pohár	-10.1766
▁DNA	-10.1768
▁firmu	-10.1768
▁mozku	-10.177
▁půdě	-10.1771
▁mnozí	-10.1773
▁letošním	-10.1778
ném	-10.1778
▁Nová	-10.1787
▁teploty	-10.179
▁sedmi	-10.179
▁poháru	-10.1795
▁zemědělské	-10.1796
▁metody	-10.1803
▁neví	-10.1806
▁nárok	-10.1816
▁ochranu	-10.1826
▁stanoven	-10.1832
▁Největší	-10.1835
▁měnit	-10.1842
▁0	-10.1847
rovna	-10.1848
▁základ	-10.1853
▁účasti	-10.1864
▁hrozí	-10.1865
▁zemřel	-10.1868
▁tradiční	-10.1869
▁tajemství	-10.1869
▁poznání	-10.1876
as	-10.1876
hled	-10.1878
▁budoucnost	-10.188
▁republika	-10.1881
▁výraz	-10.1882
▁NA	-10.1885
th	-10.1892
▁materiál	-10.1894
hn	-10.1915
▁Vše	-10.192
▁úvěr	-10.1931
▁déle	-10.1939
▁žije	-10.1939
▁zůstat	-10.1939
▁snah	-10.1939
▁natolik	-10.1944
▁rodiče	-10.1944
▁zdůraznil	-10.1944
▁podpory	-10.1944
▁tudíž	-10.1944
▁reprezentace	-10.1944
▁výrobě	-10.1946
del	-10.1947
▁pohledu	-10.1947
rn	-10.1948
▁seznam	-10.1948
▁částečně	-10.1949
▁vytváření	-10.1952
▁Poté	-10.1952
▁Dva	-10.1955
▁centrální	-10.1956
▁Tři	-10.1959
▁vlastností	-10.196
▁karty	-10.196
▁dílo	-10.1961
▁Existuj	-10.1966
▁Československo	-10.1968
▁slouží	-10.1969
▁vzájemné	-10.1971
▁významné	-10.1974
▁dávno	-10.1979
▁dalšími	-10.198
▁zavedení	-10.198
▁efekt	-10.1981
▁jaderný	-10.1991
sko	-10.1996
▁aplikací	-10.2005
▁výroba	-10.2014
pis	-10.2019
▁start	-10.2022
fr	-10.2023
EL	-10.2029
▁záležitost	-10.2037
▁důvodu	-10.2042
▁obrazu	-10.2047
▁lidské	-10.2048
▁musím	-10.2055
kami	-10.2077
▁riziko	-10.2078
▁leží	-10.2079
▁slovenské	-10.208
▁společný	-10.2088
ot	-10.2114
čka	-10.2117
▁připojištění	-10.2126
▁pomalu	-10.2126
▁kvalifikaci	-10.2126
▁neexistuje	-10.2126
▁česká	-10.2126
▁připomíná	-10.2128
▁odpoledne	-10.2129
▁oblastech	-10.2132
▁brněnské	-10.2132
▁svědčí	-10.2139
▁materiálů	-10.2147
nt	-10.2151
▁odboru	-10.2154
ková	-10.2156
▁dohodu	-10.2159
▁ztráty	-10.2159
▁mnohé	-10.2159
▁mně	-10.2163
▁Musí	-10.2169
▁Slovenska	-10.2172
▁Ho	-10.2204
▁teplo	-10.2215
▁poloviny	-10.222
▁potřeba	-10.2223
pětí	-10.2226
▁rádi	-10.223
▁představ	-10.2231
▁měst	-10.2232
▁nabízejí	-10.2234
▁nutno	-10.2239
▁technický	-10.2242
▁zásadní	-10.2247
▁loňském	-10.2247
▁ryb	-10.2248
▁přístroje	-10.225
cházet	-10.2253
▁zahájení	-10.2253
ovaný	-10.2255
▁autorů	-10.2259
▁Ústav	-10.2267
▁příklad	-10.2275
▁nejvíc	-10.2275
ina	-10.2282
▁tajemník	-10.2285
ané	-10.2287
CE	-10.2296
▁programové	-10.2296
▁končí	-10.2297
▁vánoce	-10.2302
▁Itálie	-10.2311
▁Ovšem	-10.2311
▁Program	-10.2311
▁stránce	-10.2311
▁praxe	-10.2311
▁minimální	-10.2311
▁desítek	-10.2311
▁vybrat	-10.2313
▁Ostravě	-10.2314
▁nicméně	-10.2314
▁Ministr	-10.2314
▁zdejší	-10.2316
ovo	-10.2316
▁neustále	-10.2317
▁vyjádření	-10.2321
▁osud	-10.2324
▁malá	-10.2325
▁dodnes	-10.2326
▁soustavy	-10.2327
▁mimořádn	-10.2328
▁standardní	-10.2333
▁rozhovoru	-10.234
▁určitou	-10.2347
▁problému	-10.235
RA	-10.2353
▁Ch	-10.2359
▁staré	-10.2361
▁ústavní	-10.2368
▁takovém	-10.2368
▁italské	-10.2379
▁vývozu	-10.2388
▁řádu	-10.2394
▁váš	-10.24
▁závodu	-10.2403
▁čisté	-10.2433
▁Ha	-10.2441
▁pa	-10.2444
▁Mo	-10.2448
mat	-10.2459
▁Někd	-10.2462
▁znám	-10.2464
ujeme	-10.2466
▁žena	-10.2482
pat	-10.2482
▁Velk	-10.2485
▁úkol	-10.2485
▁filmu	-10.2495
▁těsně	-10.2499
▁nemohl	-10.2499
▁Všichni	-10.2499
▁náměstek	-10.2499
▁špatně	-10.2499
▁Naopak	-10.25
▁Snad	-10.25
▁jediná	-10.25
▁poptávky	-10.25
▁odborníci	-10.25
▁zaměstnance	-10.25
▁okna	-10.25
▁poslance	-10.25
▁Hor	-10.25
▁manažer	-10.2501
▁KSČM	-10.2501
▁potřebují	-10.2502
▁koncentrace	-10.2505
▁vychází	-10.2506
▁samo	-10.2507
▁měření	-10.2508
▁automaticky	-10.2508
▁stovky	-10.2511
▁produktů	-10.2513
▁liber	-10.2528
▁záležitostí	-10.2529
▁souhlas	-10.2531
▁zrušení	-10.2531
▁vzduchu	-10.2535
▁spokojen	-10.2546
há	-10.2548
▁rozsahu	-10.2549
jet	-10.2565
též	-10.2578
▁neměli	-10.2581
▁přesvědčen	-10.2581
▁jedná	-10.2592
▁činností	-10.2599
raz	-10.2601
▁úspěchu	-10.2601
▁19.	-10.2603
▁současný	-10.2614
▁zákonem	-10.2616
▁Evropa	-10.2622
▁diváků	-10.2623
▁daní	-10.2626
▁studentů	-10.2627
▁papír	-10.2629
▁pravé	-10.2643
▁oni	-10.2643
▁Ob	-10.2656
▁příslušné	-10.2657
▁Zdá	-10.2667
▁ochran	-10.267
hy	-10.2677
▁rozvoje	-10.2678
▁Každ	-10.2682
▁rozhodne	-10.2683
▁trest	-10.2684
▁řeč	-10.2688
ště	-10.2691
▁paměti	-10.2692
▁Ředitel	-10.2692
▁historie	-10.2692
▁věnoval	-10.2692
▁bydlení	-10.2692
▁pojetí	-10.2692
▁investovat	-10.2693
▁dodávky	-10.2694
▁lidmi	-10.2694
bavit	-10.2694
▁krátce	-10.2694
▁pohybuje	-10.2695
rak	-10.2695
▁voličů	-10.27
and	-10.27
▁12.	-10.2707
▁dostává	-10.2708
▁šampionátu	-10.2708
▁návrhy	-10.2709
▁mladé	-10.2713
▁domě	-10.2713
▁provedení	-10.272
▁normální	-10.2724
▁daň	-10.2725
▁omezení	-10.2725
hu	-10.2725
ík	-10.2726
▁muže	-10.2735
▁cesta	-10.2743
▁domácím	-10.2747
▁obecní	-10.2749
čet	-10.275
▁vítěz	-10.275
▁různým	-10.2754
▁čtení	-10.2755
tud	-10.2759
mír	-10.2763
▁materiálu	-10.2765
HO	-10.2765
▁Br	-10.2765
nk	-10.2768
▁určit	-10.2768
ických	-10.2772
▁boj	-10.2772
▁Bo	-10.2781
▁De	-10.2795
▁9	-10.2797
▁vést	-10.2798
▁rychlosti	-10.2805
▁jinými	-10.2812
var	-10.2818
mého	-10.282
dali	-10.2823
▁koncert	-10.283
▁nájemné	-10.2833
▁Čí	-10.2835
ském	-10.2846
Š	-10.2848
čin	-10.2881
▁studie	-10.2885
▁Především	-10.2888
▁Richard	-10.2888
▁snížit	-10.2888
▁umožní	-10.2888
▁úsilí	-10.2888
▁elektrárny	-10.2888
▁minimálně	-10.2888
▁míře	-10.2888
▁doslova	-10.2888
▁měsíčně	-10.2888
▁pravdu	-10.2888
▁Češi	-10.2888
▁snímky	-10.2889
▁Spojené	-10.2889
EN	-10.2891
▁celek	-10.2891
▁zvýšit	-10.2891
▁policistů	-10.2893
ický	-10.2893
▁zobrazení	-10.2897
▁Zá	-10.2899
▁myší	-10.2899
▁tvorbu	-10.29
▁pozice	-10.29
▁poškození	-10.29
▁obecně	-10.2901
▁okolností	-10.2901
stav	-10.2906
▁cestě	-10.2907
▁mistrů	-10.2908
▁odpadní	-10.2911
ovaly	-10.2913
▁akcie	-10.2915
▁třídy	-10.2921
▁ú	-10.2923
▁povrchu	-10.293
▁žádná	-10.2934
▁žádném	-10.2934
▁festivalu	-10.2934
▁nemoci	-10.2938
vou	-10.2945
▁km	-10.2949
iny	-10.2951
▁Evropsk	-10.2961
lze	-10.2961
▁domácích	-10.2963
▁cm	-10.2967
▁centrum	-10.2969
▁vzniká	-10.297
▁poklesu	-10.2977
ovu	-10.2979
▁nechat	-10.298
▁PowerPointu	-10.2985
▁známo	-10.2999
níci	-10.3006
▁jediné	-10.3006
▁skupinu	-10.3007
▁hodinu	-10.3007
▁správně	-10.301
ala	-10.3014
ten	-10.3017
čtí	-10.3017
▁ba	-10.3018
▁nena	-10.302
ber	-10.3022
▁dějin	-10.3025
▁dokument	-10.3027
▁FS	-10.3027
▁znát	-10.3029
▁jaká	-10.304
▁zpráv	-10.304
▁uvedený	-10.3043
▁polovina	-10.3047
▁Federální	-10.3056
▁zahájil	-10.3059
▁neod	-10.3061
směs	-10.3069
▁hospodářsk	-10.3072
▁Ku	-10.3074
▁tvář	-10.3077
▁Tam	-10.3081
▁Samozřejmě	-10.3088
▁divadla	-10.3088
▁pojišťovny	-10.3088
▁rozhodování	-10.3088
▁ČNR	-10.3088
▁nabídka	-10.3088
▁širší	-10.3088
▁půjde	-10.3088
▁konkurenční	-10.3089
▁myšlení	-10.3092
▁vrátil	-10.3093
▁výskyt	-10.3094
▁nebyli	-10.3101
▁půdy	-10.3102
▁armáda	-10.3103
▁sdělení	-10.3105
▁představení	-10.3105
▁nezávislých	-10.3114
▁výdaje	-10.3123
ovány	-10.3125
▁podnikatelé	-10.3126
▁postoj	-10.3132
▁úpravy	-10.3139
▁zákazníky	-10.314
▁export	-10.3144
▁vysokých	-10.3146
▁prodejní	-10.3148
ned	-10.3158
up	-10.3158
▁námi	-10.3164
▁existence	-10.3177
▁britské	-10.3186
jak	-10.3213
▁organizací	-10.3216
▁akcí	-10.3219
▁hlasování	-10.3222
▁paragraf	-10.3229
▁zpráva	-10.3232
▁17.	-10.3248
ig	-10.3251
▁maximáln	-10.3251
SE	-10.3252
▁daňový	-10.3266
▁pořad	-10.3268
▁II	-10.3271
▁občan	-10.3275
▁přední	-10.3275
▁voda	-10.3279
ik	-10.328
tem	-10.3284
▁reprezentant	-10.3289
▁Němci	-10.3292
▁církve	-10.3292
▁nízké	-10.3292
▁odmítá	-10.3292
▁týdny	-10.3292
▁zapotřebí	-10.3292
▁přišla	-10.3292
▁usnesení	-10.3292
▁privatizační	-10.3292
▁Teď	-10.3292
▁1988	-10.3292
▁létě	-10.3292
▁StB	-10.3294
▁Slovensko	-10.3297
▁stejn	-10.33
▁příslušný	-10.3301
tal	-10.3302
▁Proti	-10.3303
▁správné	-10.3303
▁Kde	-10.3306
▁děje	-10.3312
▁mluví	-10.3312
▁zájmy	-10.3313
▁automobilů	-10.3313
▁obce	-10.3316
▁porušení	-10.3316
▁mladých	-10.3317
▁důsledky	-10.3321
▁původu	-10.3321
▁letní	-10.3322
▁ruský	-10.3323
zí	-10.3325
port	-10.3334
▁Internetu	-10.3341
ej	-10.3342
▁žijící	-10.3343
▁Ano	-10.3354
▁představy	-10.3359
ovém	-10.3361
▁německých	-10.3362
▁lidského	-10.3363
▁velikosti	-10.3367
he	-10.3367
▁hvězd	-10.337
▁německého	-10.3373
▁částka	-10.3378
▁vědecký	-10.3379
▁myslí	-10.3384
▁škola	-10.3387
▁Te	-10.3387
▁smrt	-10.3396
▁běžný	-10.3399
▁Sovětské	-10.3401
ive	-10.3406
Ž	-10.3407
nil	-10.341
▁bezpečnost	-10.341
▁barevné	-10.3414
▁vůle	-10.3415
ovaná	-10.3417
ická	-10.3418
ským	-10.3427
▁rozhodla	-10.3432
▁řeči	-10.3435
▁pacientů	-10.3435
▁vědomí	-10.3436
▁zmíněné	-10.3441
ář	-10.3442
▁řídí	-10.3446
▁vyspělý	-10.3455
▁byty	-10.3464
▁Tomáš	-10.3466
▁uveden	-10.3467
▁pozitivní	-10.3468
▁Asi	-10.3477
▁Dr	-10.3495
▁Moskvě	-10.35
▁Třetí	-10.35
▁populace	-10.35
▁vynikající	-10.35
▁Francii	-10.35
▁štěstí	-10.35
▁ihned	-10.35
▁technologií	-10.35
▁spotřební	-10.35
▁mužstva	-10.35
▁mluvit	-10.3501
ČSL	-10.3501
▁Pomuku	-10.3501
Sc	-10.3501
▁firmou	-10.3502
▁obětí	-10.3502
▁zvyšuje	-10.3503
▁ročník	-10.3506
▁příprav	-10.3506
▁těla	-10.3508
▁dovolené	-10.351
▁Více	-10.3512
▁obavy	-10.3512
▁úmrtnosti	-10.3513
▁vlastním	-10.3514
▁nemocnici	-10.3516
▁zastoupení	-10.352
▁Avšak	-10.352
▁neo	-10.3524
▁Předseda	-10.3534
▁úspor	-10.3539
▁pracovník	-10.354
ita	-10.354
▁Jižní	-10.3541
Č	-10.3542
▁lesní	-10.3548
▁Druhý	-10.355
▁příkaz	-10.3554
▁míč	-10.3564
kov	-10.3568
▁chod	-10.357
▁ročníku	-10.3574
▁Milan	-10.3575
▁školní	-10.3591
▁Česko	-10.3592
▁všeho	-10.3596
▁výhradn	-10.3597
:	-10.3598
▁vidí	-10.3607
▁tamní	-10.3614
▁kroky	-10.3614
▁zdroj	-10.3621
▁příležitost	-10.3621
sp	-10.3623
KA	-10.3633
▁odvětví	-10.3637
▁horší	-10.364
▁studiu	-10.3642
blíž	-10.3644
▁molekuly	-10.3647
▁přichází	-10.3648
▁snaha	-10.3651
▁určitý	-10.3654
čení	-10.3659
▁tenis	-10.3662
▁představují	-10.3663
▁největším	-10.3667
▁příštích	-10.3668
něk	-10.3678
▁osmdesát	-10.3682
▁celkový	-10.3686
▁pražském	-10.3691
▁postupu	-10.3696
vést	-10.3707
▁doktor	-10.3711
▁lékařské	-10.3712
EM	-10.3713
▁budoucnu	-10.3713
▁civilní	-10.3713
▁konkurenci	-10.3713
▁nakladatelství	-10.3713
▁sledovat	-10.3713
▁transformace	-10.3713
▁zlepšení	-10.3713
▁úmrtí	-10.3713
▁zabránit	-10.3713
▁Slavie	-10.3713
▁souvisí	-10.3713
▁tehdejší	-10.3713
▁jedinou	-10.3713
▁operace	-10.3713
▁PCB	-10.3714
▁výsledkem	-10.3714
▁financování	-10.3716
▁příjmu	-10.3717
▁rozhodnout	-10.3717
▁funkční	-10.3719
▁formou	-10.372
▁Vedle	-10.372
▁Vláda	-10.3722
▁zbytečné	-10.3723
mluv	-10.3723
▁zaplatit	-10.3726
stup	-10.3727
▁výhodné	-10.3729
padá	-10.373
▁nákladní	-10.3738
▁Pr	-10.3739
▁prodat	-10.3743
▁americký	-10.3746
▁600	-10.3748
▁Obě	-10.3751
▁účely	-10.3753
▁povinností	-10.3757
▁partnery	-10.3761
▁produktu	-10.3764
▁noviny	-10.3764
▁starých	-10.3765
▁účastní	-10.3767
▁příležitosti	-10.3777
▁přijal	-10.3779
▁placení	-10.3789
gen	-10.3789
▁německý	-10.3801
▁pracovníky	-10.3802
▁koruny	-10.3803
▁velkým	-10.3805
▁pražsk	-10.3816
▁Lu	-10.382
nul	-10.3828
▁napětí	-10.3829
▁zápasy	-10.3829
sku	-10.3833
▁Le	-10.3836
ouze	-10.3838
▁zápasu	-10.3843
▁neměla	-10.3849
▁uzavření	-10.3865
dob	-10.3867
▁kapalin	-10.3869
▁dostali	-10.3877
koliv	-10.3878
▁rychlé	-10.3881
▁kontrolu	-10.3896
▁zůstal	-10.3898
nem	-10.3899
form	-10.3899
pana	-10.3908
▁jasně	-10.3917
▁někde	-10.393
▁Ostatně	-10.393
▁Sdružení	-10.393
▁rekreační	-10.393
▁krize	-10.393
▁červnu	-10.3931
▁přiznání	-10.3933
▁udržet	-10.3934
▁sítí	-10.3935
▁porovnání	-10.3935
▁obrázek	-10.3939
per	-10.3939
▁místnosti	-10.3939
▁prodávat	-10.3942
plav	-10.3945
▁Moravy	-10.3949
▁znalosti	-10.3952
▁začátkem	-10.3953
▁strojů	-10.3953
▁hodnotě	-10.3955
▁všemi	-10.3957
▁lesy	-10.3959
▁Washingtonu	-10.3961
▁rozporu	-10.3962
ska	-10.3962
▁zimní	-10.3963
▁trenéra	-10.3963
▁dotaz	-10.3968
▁turnaje	-10.3978
▁Ačkoli	-10.3982
▁f	-10.3985
ster	-10.3989
vzdor	-10.3992
ud	-10.3995
ben	-10.3999
▁hodnota	-10.3999
▁nemáme	-10.4
▁stroj	-10.4001
▁Pa	-10.4003
▁barev	-10.4008
▁prodává	-10.4014
▁vedením	-10.4015
▁Ruska	-10.4019
vé	-10.403
▁hod	-10.403
▁hře	-10.403
▁operační	-10.4031
▁nynější	-10.4032
▁modelů	-10.4036
vat	-10.4037
▁použit	-10.4049
▁spor	-10.4053
▁Da	-10.4054
▁součást	-10.4055
▁spojené	-10.4057
osud	-10.4062
▁místy	-10.4063
vu	-10.4065
▁dojde	-10.4067
▁případu	-10.4067
▁případné	-10.4068
nov	-10.407
▁jednotky	-10.4072
▁slovy	-10.4074
▁čísle	-10.4081
▁cenný	-10.4082
▁pražského	-10.4084
▁přináší	-10.4084
mile	-10.4089
▁porazil	-10.4099
rát	-10.4104
▁záleží	-10.4105
▁obr	-10.4109
▁styl	-10.4125
vod	-10.4133
▁pravidla	-10.4133
kupní	-10.414
▁pobyt	-10.4143
▁dítě	-10.4143
bě	-10.4146
▁soupeře	-10.4147
▁Nebo	-10.4149
▁Bratislavě	-10.4153
▁Návrh	-10.4153
▁nabídnout	-10.4153
▁otázce	-10.4153
▁týdnů	-10.4153
▁uskuteční	-10.4153
▁dovolit	-10.4153
▁péči	-10.4153
▁podpora	-10.4153
▁okno	-10.4153
▁nedostatek	-10.4153
▁nepodařilo	-10.4153
▁kategorie	-10.4153
▁Brno	-10.4155
▁Nakonec	-10.4155
▁věd	-10.4156
▁připravit	-10.4156
▁návštěvě	-10.4156
▁prvky	-10.4156
▁buňky	-10.4158
▁stará	-10.4159
▁Podnik	-10.4163
▁druhým	-10.4165
▁jaterní	-10.4165
▁malou	-10.4171
▁domácnosti	-10.4172
▁Pavl	-10.4174
▁osobně	-10.4177
▁stál	-10.4182
▁Evropský	-10.4183
▁získání	-10.4185
▁provést	-10.4186
▁nezaměstnanosti	-10.4194
▁stanici	-10.4194
eprve	-10.4194
▁tlak	-10.4196
▁blok	-10.4214
▁ano	-10.4215
▁něž	-10.4216
▁charakter	-10.4229
▁partnera	-10.423
bl	-10.4236
▁3000	-10.4236
▁všechn	-10.4239
▁vstupu	-10.4242
▁filmů	-10.4264
musela	-10.4267
pol	-10.4276
▁případy	-10.4278
nic	-10.4279
nd	-10.428
dat	-10.4288
▁pracoval	-10.4288
▁státním	-10.4291
▁začalo	-10.4299
lík	-10.4301
mar	-10.4301
▁regionální	-10.4303
▁stává	-10.4322
▁ochot	-10.4327
▁čtenář	-10.4327
▁odpověděl	-10.433
OV	-10.4331
▁postižené	-10.4333
uji	-10.4333
▁dřív	-10.4336
zen	-10.4351
▁profesor	-10.4353
▁ministrů	-10.4359
ete	-10.4367
▁západních	-10.4367
▁modelu	-10.4368
éměř	-10.4374
▁Místo	-10.4379
,5	-10.438
▁Slunce	-10.438
▁funguje	-10.438
▁ostatně	-10.438
▁otázek	-10.438
▁pojišťovna	-10.438
▁rozhodovat	-10.438
▁stáří	-10.438
▁dlouhodobé	-10.438
▁letadla	-10.438
▁molekulární	-10.438
▁žádá	-10.438
▁operaci	-10.438
▁aktuální	-10.438
▁přání	-10.4381
▁SRN	-10.4382
▁oficiálně	-10.4382
▁vyšetřování	-10.4382
▁vystudoval	-10.4384
▁sezóně	-10.4385
▁formě	-10.4385
▁vypadá	-10.4386
▁Brna	-10.4386
▁vytvoří	-10.4387
▁fakultě	-10.4389
▁UK	-10.4395
▁nese	-10.4396
▁sv	-10.4397
▁dobrou	-10.4399
▁jezdí	-10.44
▁fakulty	-10.4402
▁návštěvníků	-10.4403
▁odst	-10.4404
▁komory	-10.4406
▁zjištění	-10.4406
▁otevření	-10.4408
▁vyberte	-10.4409
▁struktury	-10.441
▁úspěšně	-10.4411
▁rozdíly	-10.4412
té	-10.4417
▁The	-10.4418
▁členem	-10.4419
▁víkendu	-10.442
▁hrál	-10.4421
▁cíle	-10.4421
ment	-10.4423
ion	-10.4423
▁denní	-10.4431
ler	-10.4436
▁začaly	-10.4439
▁pobytu	-10.4449
▁nájemného	-10.445
IN	-10.445
▁princip	-10.446
▁obyvatelé	-10.4465
▁takovým	-10.4469
▁dohoda	-10.4474
▁docela	-10.4496
▁klubů	-10.4497
ca	-10.4497
▁prodeji	-10.45
▁jižní	-10.4507
▁příjem	-10.4511
▁pořadatel	-10.4515
▁snížil	-10.4517
ct	-10.4522
▁obsahu	-10.4528
▁brankář	-10.4531
▁čtvrté	-10.4536
▁významný	-10.4539
▁účastníků	-10.4547
▁odpovědnost	-10.4551
▁tvar	-10.4554
▁hotel	-10.4563
tek	-10.4563
rů	-10.4564
▁zůstávají	-10.4564
▁prostory	-10.4569
ovaného	-10.4575
▁církev	-10.4576
▁odhad	-10.4581
▁americk	-10.4585
▁zjistit	-10.4585
▁nucen	-10.4591
▁stejném	-10.4597
▁mé	-10.4604
gu	-10.4605
▁Bar	-10.4609
▁Anglie	-10.4612
▁institucí	-10.4612
▁nestačí	-10.4613
▁Nejvyšší	-10.4613
▁příspěvek	-10.4613
▁Polici	-10.4613
▁přinejmenším	-10.4613
▁mladší	-10.4613
▁přijít	-10.4613
▁dráhy	-10.4613
▁Stačí	-10.4613
▁organizační	-10.4615
▁poznatky	-10.4615
▁vozů	-10.4616
▁policisté	-10.4616
▁vlastnictví	-10.4617
▁zabezpečení	-10.4617
▁levnější	-10.4618
▁Bosně	-10.4619
▁přijmout	-10.462
▁On	-10.4621
▁Králové	-10.4621
▁předpisů	-10.4622
▁záměr	-10.4622
▁uznání	-10.4623
▁nejlepším	-10.4623
▁hodnot	-10.4624
▁tvorby	-10.4625
kli	-10.4626
▁komplexní	-10.4627
▁vrátí	-10.4627
▁hodinách	-10.4629
▁obrazovky	-10.4631
▁podobu	-10.4633
der	-10.4634
▁fyziky	-10.4634
▁předsedou	-10.4644
▁PRO	-10.4645
▁jiném	-10.4645
▁Američan	-10.4646
▁Olomouci	-10.4648
▁léky	-10.4649
▁zákazník	-10.4649
▁českou	-10.4657
▁starosti	-10.466
▁zvýšil	-10.466
▁plochy	-10.4664
▁vytváří	-10.4667
▁ekonomických	-10.4669
▁pacienta	-10.467
▁úspěšné	-10.4687
stoupí	-10.4691
▁nejdůležitější	-10.4691
▁zápasů	-10.4692
ODS	-10.4692
▁nejčastěji	-10.4693
▁pochopitelně	-10.47
▁16.	-10.4704
▁SE	-10.4705
▁auta	-10.4706
▁popis	-10.471
▁zemské	-10.4718
▁fotbal	-10.4724
cím	-10.4727
▁mnohd	-10.4728
▁vojensk	-10.4729
▁připravil	-10.4733
▁chodí	-10.4736
▁rodinné	-10.4742
▁ministrem	-10.4747
▁podzim	-10.4751
▁Bi	-10.4754
▁úprav	-10.4755
▁průmyslový	-10.4757
▁potravin	-10.4773
▁městské	-10.4784
▁pří	-10.4784
▁kancelář	-10.4803
▁postaven	-10.4805
▁konstatoval	-10.4813
▁významu	-10.4813
▁ústav	-10.4813
▁di	-10.4817
▁video	-10.4819
tel	-10.4825
tur	-10.4842
▁Anglii	-10.4851
▁NHL	-10.4851
▁asociace	-10.4851
▁duchovní	-10.4851
▁jménem	-10.4851
▁medaile	-10.4851
▁mužstvo	-10.4851
▁navzájem	-10.4851
▁odpovědi	-10.4851
▁uzavřít	-10.4851
▁využívat	-10.4851
▁článek	-10.4851
▁chvíle	-10.4851
▁dětem	-10.4851
▁ČEZ	-10.4851
▁Jaromír	-10.4851
▁Microsoft	-10.4851
▁zástupců	-10.4851
▁Chtěl	-10.4851
▁požadavek	-10.4851
▁okolní	-10.4851
lin	-10.4853
▁zabývat	-10.4857
▁výpočetní	-10.4857
▁třikrát	-10.4858
▁Dvě	-10.4867
▁Vý	-10.4869
▁výstavby	-10.487
▁dopis	-10.4874
▁týkající	-10.4878
▁18.	-10.4879
▁trhy	-10.488
▁28	-10.4883
▁umístění	-10.4884
▁projev	-10.4893
▁Takové	-10.4896
▁používání	-10.4898
▁osobnosti	-10.4899
▁praktické	-10.4899
▁samostatné	-10.49
▁stanovení	-10.4905
ené	-10.491
▁obsahující	-10.4911
▁Profitu	-10.4912
▁špatné	-10.4913
▁pás	-10.4913
▁zato	-10.4913
▁fondů	-10.4913
▁mistra	-10.4933
▁francouzské	-10.4933
▁veřejně	-10.4935
ký	-10.4937
▁jednoduchý	-10.4944
▁úvodní	-10.4948
▁ekologické	-10.4948
jde	-10.4957
▁generál	-10.496
▁obratu	-10.4964
▁Jedin	-10.4974
▁45	-10.4975
cké	-10.4977
kovi	-10.4977
▁motiv	-10.4979
▁odpor	-10.4982
▁prezidentem	-10.4985
bar	-10.4987
▁počítačové	-10.4989
▁250	-10.4992
▁svá	-10.4994
▁Di	-10.4997
▁ona	-10.4998
▁nepře	-10.5001
▁žádost	-10.5002
▁soupeř	-10.5002
▁post	-10.5007
▁sdělil	-10.5009
▁čekají	-10.501
▁minulém	-10.5011
▁průměrn	-10.5012
▁skončila	-10.5023
▁120	-10.5024
▁vyhrála	-10.5025
žen	-10.5027
▁chemické	-10.5045
▁Rusk	-10.5046
▁turnaj	-10.5059
▁PO	-10.5069
▁organismu	-10.5075
▁knih	-10.5079
11	-10.5079
stavit	-10.5081
▁Stát	-10.5084
▁kolegy	-10.5088
▁způsobu	-10.5088
pen	-10.5089
▁dlouhý	-10.5094
▁ministři	-10.5094
▁považuji	-10.5094
▁vysoká	-10.5094
▁obrátil	-10.5094
▁organizaci	-10.5094
▁Michal	-10.5095
▁chtít	-10.5095
▁nechtěl	-10.5095
▁generace	-10.5095
▁územní	-10.5095
▁studia	-10.5095
▁pl	-10.5096
▁volně	-10.5097
▁souladu	-10.5097
▁vyplatí	-10.5098
▁neznamená	-10.5099
▁nejspíš	-10.51
▁Karlovy	-10.5104
▁ačkoli	-10.5105
▁související	-10.5105
▁Polska	-10.5106
▁lesů	-10.5107
▁nástrojů	-10.5109
▁zajištění	-10.511
▁silně	-10.5112
▁nastoupil	-10.5113
▁časopisu	-10.5122
▁panelu	-10.5122
▁10.	-10.5122
▁odborných	-10.5123
▁kdysi	-10.5124
▁občané	-10.5128
ó	-10.5131
zu	-10.5133
▁sklad	-10.5139
▁sekundu	-10.5142
son	-10.5143
▁možných	-10.5145
▁opravy	-10.5146
▁nemělo	-10.5146
▁skončilo	-10.5151
▁ústavy	-10.5156
▁přenosu	-10.5157
▁Poslaneck	-10.5162
▁gól	-10.5167
▁Obchodní	-10.5168
kon	-10.517
▁reprezentační	-10.517
▁ochrany	-10.5171
▁33	-10.5173
▁příčin	-10.5174
▁Slovenské	-10.5175
ke	-10.5178
▁předložil	-10.5178
▁dostalo	-10.5187
▁vedl	-10.5187
▁schopnosti	-10.5188
▁zákazníka	-10.5193
▁titulu	-10.5198
▁přechodu	-10.5198
▁kurs	-10.5198
▁nástroj	-10.5201
▁planet	-10.5202
▁sport	-10.5205
▁hodnotí	-10.5205
▁Ar	-10.5209
▁šlo	-10.5211
▁RN	-10.5214
▁dobou	-10.5216
▁projekty	-10.5218
▁stanoví	-10.5224
▁dají	-10.5227
ale	-10.5227
▁novém	-10.5227
▁32	-10.5242
▁trval	-10.5246
▁přicházejí	-10.5252
muž	-10.5256
▁čemu	-10.5263
ST	-10.5264
▁reálné	-10.5266
▁totem	-10.5269
▁turistů	-10.5271
▁ode	-10.5272
▁desetiletí	-10.5273
ici	-10.5274
▁Americk	-10.5276
▁zápase	-10.5276
▁představitelů	-10.528
▁politického	-10.5281
▁jimi	-10.5282
▁syn	-10.5291
▁režisér	-10.5291
▁kon	-10.5299
▁Plzeň	-10.5301
▁Ra	-10.5311
▁Nad	-10.5316
▁míní	-10.5319
▁regionu	-10.5321
▁bytové	-10.5321
půjč	-10.5327
▁čeho	-10.5336
LA	-10.5341
▁existenci	-10.5344
▁atmosféře	-10.5344
▁inflace	-10.5344
▁přírodě	-10.5344
▁službu	-10.5344
▁delegace	-10.5344
▁penzijní	-10.5344
▁považují	-10.5344
▁politická	-10.5345
▁květnu	-10.5345
▁poptávka	-10.5345
▁brát	-10.5345
▁vysvětlení	-10.5345
▁hledá	-10.5346
▁stupně	-10.5346
▁mínění	-10.5346
▁stanovisko	-10.5347
▁vysvětlil	-10.5349
▁vysvětlit	-10.5349
▁dokonale	-10.5349
▁kvalita	-10.535
▁podaří	-10.535
nést	-10.5353
▁Nejvíce	-10.5353
▁dřívější	-10.5354
▁dosahuje	-10.5355
▁představit	-10.5356
▁prosadit	-10.5357
▁léků	-10.5359
▁Chceme	-10.536
▁aut	-10.5363
▁znaků	-10.5363
▁ukazují	-10.5364
▁role	-10.5366
▁myši	-10.5368
▁ukázalo	-10.537
▁zkušeností	-10.537
▁slovenských	-10.5371
▁orgánů	-10.5375
▁přípravě	-10.5376
▁francouzský	-10.5376
▁trvale	-10.5376
ovněž	-10.5377
▁nebezpečné	-10.538
▁zbytek	-10.5385
kla	-10.5386
▁Čs	-10.5386
▁odchodu	-10.5387
▁grafické	-10.5395
▁Gorbačov	-10.5402
▁kanceláří	-10.5405
LI	-10.5406
▁místem	-10.541
AN	-10.5413
CI	-10.5415
dal	-10.5418
▁materiály	-10.543
tky	-10.543
▁všude	-10.5431
▁vysoký	-10.5436
▁režim	-10.5442
▁výstava	-10.5444
▁In	-10.5447
▁vodou	-10.5449
▁změní	-10.5452
▁novin	-10.5456
▁ko	-10.5458
est	-10.5459
60	-10.5463
▁deník	-10.5464
pravděpodobností	-10.5466
▁800	-10.5469
sky	-10.5472
▁Tad	-10.5473
dla	-10.5476
orku	-10.5478
▁cenou	-10.5479
▁27	-10.5483
▁kniha	-10.5484
▁sestav	-10.5488
jev	-10.5494
▁představu	-10.5498
▁závodě	-10.55
▁domnívá	-10.5501
▁názorů	-10.5501
▁20.	-10.5501
▁jedenáct	-10.551
▁pracují	-10.5518
▁adres	-10.5526
▁dojem	-10.5527
▁podnikové	-10.5531
▁čtenáře	-10.5532
▁zásob	-10.5532
▁vrchol	-10.5533
▁výklad	-10.5534
▁rozsah	-10.5534
▁zúčastnil	-10.5536
nické	-10.5536
ge	-10.5544
hlav	-10.5561
▁vzal	-10.5564
kl	-10.5565
▁osobních	-10.5573
▁stud	-10.5574
▁způsoby	-10.5576
▁přestup	-10.5577
ď	-10.558
▁zbraně	-10.5582
▁zásad	-10.5586
iště	-10.5587
▁vážně	-10.56
▁Výsledk	-10.5601
▁dlouhá	-10.5601
▁chráněn	-10.5601
▁koncepce	-10.5601
▁atraktivní	-10.5601
▁používají	-10.5601
▁telekomunikační	-10.5601
▁naděje	-10.5601
▁závisí	-10.5601
▁muzea	-10.5601
▁blízké	-10.5601
▁unii	-10.5601
▁rozšířit	-10.5602
▁žebříčku	-10.5602
▁vysvětluje	-10.5602
▁tiskárny	-10.5603
▁předpokládat	-10.5605
▁naději	-10.5605
▁vysoce	-10.5605
▁externí	-10.5608
▁můj	-10.5609
▁barvy	-10.561
▁složky	-10.5611
▁návštěvu	-10.5611
▁Sparty	-10.5611
▁umožňující	-10.5612
▁dvojice	-10.5614
▁Ostrava	-10.5615
▁uvést	-10.5616
▁čtyřech	-10.5618
projevuje	-10.5621
▁Nikdo	-10.5623
▁Autor	-10.5623
▁milióny	-10.5628
▁prodal	-10.5637
▁hrají	-10.5638
▁přenos	-10.5641
▁totéž	-10.5642
▁třiceti	-10.5643
▁akciové	-10.5645
▁nemoc	-10.5645
▁agentura	-10.5647
▁nemůžeme	-10.5649
ang	-10.5652
▁budovy	-10.5655
nka	-10.5658
▁čtyřmi	-10.5667
▁noční	-10.5676
ard	-10.5677
▁podal	-10.5679
nec	-10.5681
▁studium	-10.5687
▁neznámý	-10.5688
▁nároky	-10.5689
▁nabídce	-10.569
▁živ	-10.5696
▁politický	-10.57
▁podání	-10.5702
▁tajné	-10.5708
voz	-10.5715
▁Ka	-10.5719
▁filmový	-10.5723
▁podstatné	-10.5725
▁vědci	-10.5726
▁trestný	-10.5726
▁trend	-10.5732
▁listu	-10.5733
▁navrhl	-10.5736
▁pán	-10.5742
vádí	-10.5748
be	-10.5754
▁stranou	-10.5758
▁kol	-10.5758
▁návrat	-10.576
▁obor	-10.5765
▁umí	-10.5769
▁nabídl	-10.577
▁Cena	-10.5776
▁vydal	-10.5777
▁světového	-10.578
▁cest	-10.5783
▁finančn	-10.5791
▁píše	-10.5791
▁bodu	-10.5796
▁Profit	-10.5798
▁systémem	-10.5802
ejména	-10.5809
▁Nebyl	-10.5817
▁střed	-10.5819
▁obchodním	-10.5836
▁spisovatel	-10.5849
▁negativní	-10.5856
▁dvanácti	-10.5863
▁Itálii	-10.5864
▁povinen	-10.5864
▁podívat	-10.5864
▁Miloslav	-10.5864
▁Jugoslávii	-10.5864
▁říct	-10.5864
▁najevo	-10.5864
▁Peter	-10.5865
▁obligace	-10.5866
▁vybírat	-10.5867
▁fax	-10.5868
▁objev	-10.5868
▁vojáků	-10.5869
▁pivo	-10.5869
▁peněžní	-10.587
▁snižování	-10.5871
▁Moravě	-10.5874
▁skončení	-10.5874
▁kusů	-10.5875
▁předmětem	-10.5876
▁hlavu	-10.5877
▁povolání	-10.5884
▁cyklus	-10.5885
▁odvolání	-10.5887
▁kartu	-10.5892
nese	-10.5894
▁japonské	-10.5894
▁přehled	-10.5898
▁úvěrů	-10.5899
▁dílem	-10.5903
▁národů	-10.5906
vali	-10.5906
▁pouhý	-10.5907
▁Kolik	-10.5908
▁celku	-10.5908
▁vlny	-10.5911
▁věří	-10.5917
▁některým	-10.5919
▁výstavy	-10.5919
▁jakékoli	-10.5919
▁důvodem	-10.592
▁odbyt	-10.5923
▁složen	-10.5923
▁dění	-10.5923
▁škole	-10.5924
▁oprávněn	-10.5927
▁Če	-10.5932
ké	-10.5939
▁jakých	-10.594
▁přípravy	-10.594
▁starosta	-10.5943
▁Počet	-10.5943
▁umístěn	-10.5944
▁Dalším	-10.595
▁fotbalový	-10.5953
ju	-10.5957
▁Ruské	-10.596
▁fyzické	-10.5961
lem	-10.5968
▁horní	-10.5968
▁upozornil	-10.5969
▁důkaz	-10.5973
▁nákupu	-10.5974
▁českým	-10.5975
lid	-10.5979
▁tvrdé	-10.5982
▁posun	-10.5984
klad	-10.5989
▁Znamen	-10.599
▁automobil	-10.5998
▁záznamník	-10.6011
▁George	-10.6011
▁jistý	-10.6023
lat	-10.6024
▁devíti	-10.6024
▁partner	-10.603
▁klid	-10.6063
inu	-10.6069
▁Lékař	-10.607
▁informoval	-10.607
▁schopna	-10.6072
▁volný	-10.6073
▁hotov	-10.6079
▁Major	-10.6082
sil	-10.609
▁přímé	-10.6091
30	-10.6095
▁průběh	-10.6098
▁jasno	-10.6099
▁dovoz	-10.6103
▁požaduje	-10.6103
▁Např	-10.6106
OU	-10.6106
▁bankovní	-10.6112
▁Ru	-10.6116
▁ploch	-10.6118
nozí	-10.6124
▁partnerů	-10.6126
▁chemický	-10.6126
▁bloku	-10.6129
leté	-10.6131
fer	-10.6132
▁Řad	-10.6133
▁Univerzit	-10.6134
▁existovat	-10.6134
▁informaci	-10.6134
▁obtížné	-10.6134
▁prezentací	-10.6134
▁vyjádřit	-10.6134
▁vytvářet	-10.6134
▁února	-10.6134
▁ubytování	-10.6134
▁optimální	-10.6134
▁zítra	-10.6135
▁Bójové	-10.6135
▁hrách	-10.6137
▁jednotek	-10.6137
▁zdánlivě	-10.6138
onu	-10.6138
▁rychleji	-10.6139
▁ztrácí	-10.6139
▁tradice	-10.6141
▁československé	-10.6141
ovský	-10.6142
▁nadace	-10.6144
▁závodech	-10.6144
▁hlavy	-10.6146
▁objevuje	-10.6147
▁brání	-10.6149
▁politiků	-10.6149
▁správu	-10.6149
▁ústřední	-10.6151
▁střediska	-10.6151
▁obvinění	-10.6152
▁dohodě	-10.6153
▁kontroly	-10.6154
▁boje	-10.6154
▁předpisy	-10.6155
MA	-10.6156
▁kal	-10.6157
▁vedou	-10.6157
▁Vlastní	-10.6159
▁kalů	-10.6159
▁dostávají	-10.616
▁mysli	-10.616
▁vesnici	-10.6161
▁založen	-10.6169
▁narodil	-10.6172
▁hrad	-10.6173
▁slavnostní	-10.6173
▁Al	-10.6175
▁vzdálenosti	-10.618
▁souborů	-10.6182
▁signálu	-10.6184
▁rizika	-10.6187
▁Svoboda	-10.619
▁sále	-10.6192
plat	-10.6196
▁ozbrojený	-10.6198
▁zaveden	-10.62
▁návratu	-10.6204
▁mistr	-10.6206
▁PC	-10.6209
IS	-10.6211
▁vysloven	-10.6213
▁drží	-10.6222
▁správný	-10.6222
▁udělá	-10.6223
▁klepn	-10.6225
▁oči	-10.6225
zo	-10.6232
▁sobotní	-10.6233
▁ideální	-10.6234
ine	-10.6239
počátku	-10.6242
▁závodů	-10.6254
případě	-10.6264
▁ostatními	-10.6265
▁domov	-10.6268
▁důvody	-10.6269
lek	-10.6276
ón	-10.6282
▁zkušenost	-10.6297
▁jazyk	-10.6304
▁nápad	-10.6308
▁Fr	-10.6311
▁vznikají	-10.6312
▁určený	-10.6313
ěji	-10.6327
▁vybraný	-10.633
jíž	-10.6334
▁vědců	-10.6337
pak	-10.634
▁určené	-10.6342
NA	-10.6343
▁přispěl	-10.6348
▁čtyřicet	-10.6348
▁řeší	-10.635
▁komunikace	-10.6353
▁hlas	-10.6363
▁státě	-10.6365
▁dětské	-10.6365
▁historický	-10.638
najdete	-10.6382
▁samostatný	-10.6392
rem	-10.6393
▁sportu	-10.6401
▁mohu	-10.6408
▁demokracii	-10.6412
▁jednoduše	-10.6412
▁nádraží	-10.6412
▁otázkou	-10.6412
▁ovzduší	-10.6412
▁vyrábí	-10.6412
▁častěji	-10.6412
▁obnoven	-10.6412
▁knize	-10.6412
▁obligací	-10.6412
▁čísel	-10.6412
▁věnován	-10.6412
▁záření	-10.6412
▁vážné	-10.6412
▁dohodnout	-10.6413
▁pracoviště	-10.6413
▁oblečení	-10.6414
▁vyvolal	-10.6415
▁několikrát	-10.6416
▁pobřeží	-10.6416
▁komunistické	-10.6417
▁uprostřed	-10.6418
▁žít	-10.6418
▁kvalitě	-10.6419
▁dopravě	-10.6419
▁předsed	-10.6419
▁opoziční	-10.642
▁blízkosti	-10.6421
▁klimatický	-10.6422
▁příchod	-10.6422
▁ovládání	-10.6422
▁nepochybn	-10.6424
▁odstranit	-10.6429
▁připadá	-10.6431
▁servis	-10.6432
▁novináři	-10.6434
lep	-10.6435
▁nejlepších	-10.6437
▁investor	-10.6438
▁Pražské	-10.644
▁Internet	-10.6441
▁demokratick	-10.6441
▁Rakousku	-10.6442
▁výpravy	-10.6446
▁železniční	-10.6447
▁obrazů	-10.6447
▁kop	-10.6449
▁Taková	-10.6451
▁znaky	-10.6451
▁běžně	-10.6455
▁viděli	-10.6459
▁testu	-10.6466
▁rodinný	-10.6471
▁velkého	-10.6474
kor	-10.6477
▁uzavřel	-10.6478
ér	-10.6478
▁působit	-10.6481
▁mezinárodních	-10.6481
▁str	-10.6482
▁metoda	-10.6487
▁oprav	-10.6488
▁Rusku	-10.6494
▁souhlasí	-10.6496
▁5.	-10.6497
mot	-10.65
▁úvěry	-10.6507
W	-10.6507
koli	-10.651
▁jednotliv	-10.6518
▁určitých	-10.653
▁východ	-10.6535
▁festival	-10.6538
▁pohyb	-10.6538
▁měsíci	-10.6542
▁metod	-10.6548
nek	-10.6548
kám	-10.6552
▁formu	-10.6555
▁dopravu	-10.6556
▁termínu	-10.6558
▁fondy	-10.6559
DE	-10.656
▁částic	-10.6563
▁společn	-10.6567
▁strach	-10.6572
řídit	-10.6576
▁sídle	-10.658
▁kapitál	-10.6584
▁plánu	-10.6586
86	-10.6591
ble	-10.6595
▁doprava	-10.6596
ast	-10.6598
▁prohrál	-10.66
▁tajný	-10.6601
▁větším	-10.6601
▁umožnil	-10.6603
ohledem	-10.6613
▁vodu	-10.6623
▁vytvořil	-10.6623
lib	-10.6623
▁forma	-10.6625
▁zlato	-10.6626
▁Musím	-10.6629
▁okamžik	-10.6631
▁účetní	-10.6632
▁večerní	-10.6637
▁pohybují	-10.6638
stoupil	-10.6641
▁pozor	-10.6642
▁pomůže	-10.6645
▁býval	-10.6645
▁zvítězil	-10.6647
▁výnos	-10.6649
▁široké	-10.6651
men	-10.6651
▁převzal	-10.6658
▁software	-10.6659
št	-10.666
▁nemusel	-10.6663
▁začínají	-10.667
▁advokát	-10.6673
▁komerční	-10.6675
šli	-10.668
▁ulice	-10.669
▁Americe	-10.6698
▁dopoledne	-10.6698
▁ministerstvu	-10.6698
▁nejrychleji	-10.6698
▁reakce	-10.6698
▁rekonstrukci	-10.6698
▁rozhoduje	-10.6698
▁strategie	-10.6698
▁policii	-10.6698
▁srdce	-10.6698
▁dveře	-10.6698
▁partneři	-10.6698
▁Klub	-10.6698
▁vzít	-10.6698
▁krve	-10.6698
▁trvat	-10.6698
▁vězení	-10.6698
▁penze	-10.6698
▁psát	-10.6698
▁čekat	-10.6699
▁jaře	-10.6699
▁dotací	-10.6699
▁dubna	-10.6699
▁politickou	-10.6699
▁Konečn	-10.67
▁považovat	-10.67
▁zachovat	-10.6701
▁Trenér	-10.6701
aj	-10.6701
▁poskytnout	-10.6702
▁narození	-10.6702
▁stavby	-10.6704
▁ukončení	-10.6704
▁obsahovat	-10.6707
▁provádět	-10.6708
▁objektivní	-10.671
▁Havla	-10.6711
▁přišli	-10.6712
▁areálu	-10.6713
▁obci	-10.6715
▁pas	-10.672
▁vším	-10.672
▁událostí	-10.6722
▁vojenský	-10.6725
▁Mnoho	-10.6728
▁postavit	-10.6728
▁vrací	-10.6729
▁sovětských	-10.6729
▁hranic	-10.6729
▁severu	-10.673
▁schválení	-10.6731
▁zastavit	-10.6733
▁připojení	-10.6733
nění	-10.6734
▁orgány	-10.6735
nici	-10.6736
ele	-10.6736
▁aktivit	-10.6736
▁příkladem	-10.6738
▁kontakty	-10.6739
▁průmyslové	-10.6741
rou	-10.6744
▁výhody	-10.6746
▁kabinetu	-10.6748
oje	-10.6751
▁budov	-10.6752
▁dodat	-10.6752
▁události	-10.6753
▁managementu	-10.6756
ění	-10.6757
▁zjistili	-10.6757
▁cosi	-10.6758
▁produkty	-10.6759
▁hlasy	-10.676
▁útoku	-10.6761
▁učitel	-10.6765
slov	-10.6767
▁přesvědčení	-10.677
▁principy	-10.6774
▁rodina	-10.6776
▁maximální	-10.6776
▁samostatně	-10.678
un	-10.678
▁65	-10.6782
▁občany	-10.6783
▁vyhlásil	-10.6785
▁využívá	-10.6789
▁výstav	-10.679
▁slib	-10.6791
▁elektrické	-10.6792
▁dokázal	-10.6792
hodil	-10.6793
čili	-10.6796
▁Rad	-10.6797
▁vyrábět	-10.6798
▁souhlasu	-10.6801
▁výkonné	-10.6802
▁sloužit	-10.6805
tře	-10.6805
▁čin	-10.6806
▁vašeho	-10.6809
▁55	-10.6817
držení	-10.6822
▁setkal	-10.6825
▁soubory	-10.6827
▁rozhodli	-10.6831
▁dělí	-10.6832
nky	-10.6834
▁stejným	-10.6836
▁Rada	-10.6838
▁obrovské	-10.6844
▁kluby	-10.6848
▁předpoklad	-10.6848
OH	-10.6852
▁rad	-10.6856
ór	-10.6862
▁zásadně	-10.6866
▁změnil	-10.6867
▁zmíněný	-10.6871
10	-10.6872
nové	-10.6874
▁1000	-10.6874
▁produkt	-10.6876
▁člena	-10.6878
▁akt	-10.6879
▁sociálního	-10.688
▁průměrné	-10.688
▁jakém	-10.6881
▁znamenat	-10.6881
ger	-10.6882
▁projevil	-10.6887
▁techniku	-10.6889
▁oznámila	-10.6893
▁vyzval	-10.6897
▁přiznal	-10.6898
jedou	-10.691
▁hran	-10.6921
▁pravidel	-10.6922
▁živé	-10.6923
▁1,	-10.6931
▁Bra	-10.6934
▁založil	-10.6942
▁zaměstnavatele	-10.6952
▁pečlivě	-10.696
▁nástroje	-10.6962
iz	-10.6962
▁postupy	-10.6962
les	-10.6965
▁povinn	-10.6965
příliš	-10.6965
nes	-10.6966
OS	-10.6966
▁milion	-10.6967
▁víme	-10.6968
▁Německ	-10.6968
▁cyklu	-10.6968
▁rostou	-10.6977
▁Ot	-10.6978
▁hor	-10.6991
▁Stanislav	-10.6992
▁března	-10.6992
▁geometrie	-10.6992
▁rozmezí	-10.6992
▁zahrnuje	-10.6992
▁sotva	-10.6992
▁kupónov	-10.6992
▁klesá	-10.6992
▁rakouské	-10.6992
▁čtvrtletí	-10.6992
▁zahynul	-10.6992
▁využil	-10.6993
▁návod	-10.6993
▁téhož	-10.6995
▁diskusi	-10.6996
▁snižuje	-10.6996
▁výsledku	-10.6997
▁morální	-10.6998
▁zajišťuje	-10.6998
▁map	-10.6999
▁poradce	-10.6999
▁školách	-10.6999
▁opozice	-10.6999
▁účinky	-10.7
▁vzpomíná	-10.7001
▁třídě	-10.7001
▁kovů	-10.7001
▁pravomoci	-10.7005
▁zvýší	-10.7006
▁formy	-10.7007
▁obec	-10.7007
▁činit	-10.7008
▁Tehd	-10.7014
▁zachování	-10.7016
▁přestal	-10.7026
▁miliónu	-10.7026
▁provádí	-10.7028
řídil	-10.7028
ření	-10.7029
▁duchu	-10.703
▁kandidátů	-10.7031
▁volbu	-10.7035
▁příčinou	-10.7037
kul	-10.7042
▁představiteli	-10.7043
▁příběh	-10.7043
▁formátu	-10.7044
▁Kr	-10.7045
▁startu	-10.7056
40	-10.7057
▁Zemi	-10.7065
▁pražských	-10.7075
▁přinesl	-10.7077
áři	-10.7087
ckých	-10.7092
▁producent	-10.7095
▁papíru	-10.7096
▁plnění	-10.7096
ak	-10.7097
dostanou	-10.7099
sad	-10.7099
▁zaměstnavatel	-10.7104
padají	-10.7107
▁kurz	-10.711
▁Boris	-10.7118
tak	-10.712
▁obchody	-10.7125
▁Občanské	-10.7125
íme	-10.713
go	-10.7131
▁klasický	-10.7132
▁Han	-10.7136
▁poskytl	-10.7136
▁modely	-10.7142
ír	-10.7146
kol	-10.7149
psal	-10.7151
oč	-10.7152
▁daném	-10.7155
▁ztratil	-10.7155
▁rozhodčí	-10.7156
▁chyby	-10.716
▁následujících	-10.7173
▁přenosov	-10.7178
▁věda	-10.7185
▁Popper	-10.7192
▁Zájem	-10.7197
▁krátké	-10.7197
▁filmové	-10.7199
▁Michael	-10.72
▁příslušn	-10.7201
▁průzkum	-10.7212
▁15.	-10.7216
vají	-10.7218
▁loňský	-10.7219
▁Du	-10.7225
▁San	-10.7226
▁výbuch	-10.7227
▁jediným	-10.7238
▁test	-10.7244
▁našel	-10.7249
puštěn	-10.7252
▁menšin	-10.7253
▁pojištěn	-10.726
TA	-10.7263
▁vstoupil	-10.7263
▁Mnoh	-10.7264
▁podpis	-10.7264
▁postižen	-10.7265
▁koní	-10.7268
▁nezávislé	-10.727
▁vstříc	-10.7271
íte	-10.7273
▁nedávné	-10.7275
▁barevný	-10.7275
▁služba	-10.7276
dané	-10.7277
▁soutěží	-10.7277
▁reakci	-10.7283
▁chtěla	-10.7284
▁uvažuje	-10.7287
ající	-10.7288
▁26	-10.7293
▁Otázka	-10.7295
▁divadlo	-10.7295
▁kyslíku	-10.7295
▁označit	-10.7295
▁prognóz	-10.7295
▁sekretář	-10.7295
▁transformaci	-10.7295
▁vozidel	-10.7295
▁vězňů	-10.7295
▁zvyšování	-10.7295
▁důvěru	-10.7295
▁počtem	-10.7295
▁prosinci	-10.7295
▁vazby	-10.7295
▁Práce	-10.7295
▁digitální	-10.7295
▁nikoho	-10.7295
▁pokračování	-10.7295
▁definitivně	-10.7295
▁Býval	-10.7295
▁výročí	-10.7295
▁svoje	-10.7295
▁myšlenky	-10.7296
▁Člen	-10.7296
▁hluboké	-10.7296
ává	-10.7297
▁poradit	-10.7297
▁hřišti	-10.73
▁oběti	-10.7301
▁sexuální	-10.7302
▁navrhuje	-10.7302
▁majitele	-10.7303
▁neplatí	-10.7303
▁mírně	-10.7304
▁výdajů	-10.7305
▁poplatky	-10.7305
▁Třeba	-10.7306
▁rozšířil	-10.7306
▁začátek	-10.7306
ností	-10.7307
▁října	-10.7308
▁boji	-10.7308
▁sezóny	-10.7309
zemědělských	-10.731
▁krajiny	-10.731
▁mechanismus	-10.7313
▁tuzemsku	-10.7314
▁Jaké	-10.7314
▁zrušit	-10.7315
▁pokuty	-10.7316
▁Uvedl	-10.7317
▁dílů	-10.7318
▁super	-10.732
▁Československé	-10.7321
▁východě	-10.7323
▁třetiny	-10.7325
pel	-10.7325
▁reklamy	-10.7326
▁útok	-10.7327
▁Hlavním	-10.7328
▁tisíci	-10.733
▁anti	-10.7331
▁vědí	-10.7335
▁příležitostí	-10.7335
▁zůstalo	-10.7339
▁svobody	-10.7339
▁koncertu	-10.734
▁Rakouska	-10.734
▁činil	-10.7342
▁schopností	-10.7345
▁přítomnosti	-10.7347
▁výborů	-10.735
▁představitele	-10.7351
▁nastavení	-10.7353
NÁ	-10.7355
▁postavil	-10.7357
▁majitelé	-10.7357
▁obsahují	-10.7359
▁ukázal	-10.7359
▁prv	-10.7361
zv	-10.7362
▁povrch	-10.7366
mysl	-10.7366
fe	-10.7369
▁náhradní	-10.7372
▁oslav	-10.7374
▁1992.	-10.7374
▁objevují	-10.7374
▁Světové	-10.7378
ros	-10.738
▁nesmírn	-10.738
▁nesouhlasí	-10.738
▁společenské	-10.7387
▁stylu	-10.7392
▁starý	-10.7395
▁záležitosti	-10.7403
▁zjistil	-10.7412
▁českém	-10.7413
▁spojen	-10.7423
šti	-10.7432
▁metr	-10.7438
▁necelý	-10.7438
▁ekonomický	-10.744
▁známý	-10.7445
▁výrobních	-10.7462
▁mimořádný	-10.7464
ujících	-10.7467
ováno	-10.7473
▁klidně	-10.7478
▁silný	-10.7484
LE	-10.7486
▁exportu	-10.7486
ok	-10.7492
▁sousední	-10.7494
cký	-10.7494
▁Izrael	-10.7499
▁cíl	-10.7501
kyně	-10.7501
ška	-10.7501
▁obrovský	-10.7502
▁primátor	-10.7514
▁výkony	-10.7514
hi	-10.7516
▁11.	-10.752
▁dosáhla	-10.7523
▁Obecn	-10.7528
▁nejnovější	-10.753
íci	-10.7531
▁rodičů	-10.7534
čátkem	-10.7535
▁fotbalistů	-10.7535
▁firemní	-10.7536
▁Úřadu	-10.7536
▁Soud	-10.7537
▁učinil	-10.754
▁zdravotního	-10.7542
▁obsadil	-10.7544
ner	-10.7545
▁surovin	-10.7546
▁CO	-10.7549
▁Muž	-10.755
▁klasické	-10.7552
▁státem	-10.7552
▁Bush	-10.7554
▁textový	-10.7554
ren	-10.7555
myšlen	-10.7557
▁ostatním	-10.7569
▁účtu	-10.757
▁padesáti	-10.7573
▁důraz	-10.7574
bytek	-10.7592
den	-10.7592
▁dětský	-10.7596
▁Pomoc	-10.7597
▁6.	-10.7599
▁menších	-10.7603
▁Euro	-10.7606
▁Evropu	-10.7607
▁Premiér	-10.7607
▁Systém	-10.7607
▁Vývoj	-10.7607
▁kilobajtů	-10.7607
▁lehce	-10.7607
▁potvrzuje	-10.7607
▁režii	-10.7607
▁sjednocení	-10.7607
▁smlouvě	-10.7607
▁tabulce	-10.7607
▁teorií	-10.7607
▁tvořit	-10.7607
▁zdarma	-10.7607
▁účinek	-10.7607
▁schůze	-10.7608
▁podezření	-10.7608
▁spotřeby	-10.7608
▁zastupitelstva	-10.7608
▁nedokázal	-10.7608
▁střetnutí	-10.7608
▁bránit	-10.7608
▁Sa	-10.7608
▁definitivní	-10.7608
▁GSM	-10.7608
▁produkci	-10.7609
▁celků	-10.7609
▁Inter	-10.7609
▁resp	-10.761
▁ovoce	-10.761
▁nejenom	-10.761
▁absolutní	-10.761
▁diskuse	-10.761
▁("	-10.7611
▁NE	-10.7611
dis	-10.7611
▁vaši	-10.7612
▁předložit	-10.7613
▁vlastnost	-10.7614
▁akademie	-10.7614
▁dolní	-10.7614
▁vyvolává	-10.7616
▁kódování	-10.7617
kládají	-10.762
▁Druhá	-10.7623
▁Staroměstské	-10.7624
▁kontrolní	-10.7624
▁zahraničním	-10.7625
▁Jednání	-10.7625
▁Severní	-10.7625
▁dostatek	-10.7625
týká	-10.7626
▁najde	-10.7629
▁Sparta	-10.7631
▁Dodal	-10.7631
▁náhodou	-10.7632
▁zdravé	-10.7635
▁výstavě	-10.7636
▁závislosti	-10.7637
▁užívání	-10.7639
▁veřejných	-10.7639
▁fakultu	-10.7641
▁zvěře	-10.7647
▁připomněl	-10.7649
▁nahradil	-10.7651
▁základem	-10.7654
▁teplota	-10.7657
▁pachatel	-10.7659
▁škodu	-10.766
▁Mir	-10.766
▁trénink	-10.7661
ismus	-10.7661
▁označen	-10.7666
▁ukončil	-10.7667
▁starost	-10.7668
din	-10.767
▁Změn	-10.768
▁Ústavní	-10.7683
▁kom	-10.7683
▁příčiny	-10.7685
▁zdravotnické	-10.7685
▁36	-10.7693
▁host	-10.7695
▁chat	-10.7696
▁vyžádal	-10.7699
▁principu	-10.77
▁pevné	-10.7702
▁způsobil	-10.7706
▁sporu	-10.7706
▁trenérem	-10.7709
KO	-10.7718
▁Němec	-10.772
▁čtrnáct	-10.7724
▁Novák	-10.7729
▁31.	-10.7731
▁trestné	-10.7732
▁týdnech	-10.7741
▁34	-10.7745
vad	-10.7754
▁bratr	-10.7755
tit	-10.7755
▁7.	-10.7764
py	-10.7767
▁důsled	-10.777
▁podobného	-10.7774
ier	-10.7774
▁fyzický	-10.7775
80	-10.7775
▁formát	-10.7777
▁jiní	-10.7781
▁mnou	-10.7785
▁lékařsk	-10.7791
edení	-10.7798
▁znění	-10.7809
▁reálný	-10.7813
▁graf	-10.7816
brán	-10.7826
▁variant	-10.7832
▁pokračoval	-10.7834
▁Firm	-10.7842
▁pravděpodobnost	-10.7851
▁situací	-10.7854
▁rozhraní	-10.7855
fo	-10.7859
jako	-10.7861
▁životním	-10.7863
▁Paul	-10.7867
aly	-10.7869
▁bezprostředn	-10.7876
▁nezávislost	-10.7877
vedl	-10.7879
▁odsouzen	-10.7881
▁klíč	-10.7881
▁zjištěn	-10.7882
▁Jelcina	-10.7884
▁grafický	-10.7884
olog	-10.789
▁vlně	-10.789
rop	-10.7893
vil	-10.7903
▁jmenován	-10.7906
▁modul	-10.7914
▁poskytují	-10.7919
▁Viktor	-10.7929
▁Svět	-10.793
jedině	-10.793
▁Poslanc	-10.793
▁chystá	-10.793
▁dražší	-10.793
▁krizi	-10.793
▁nemohu	-10.793
▁podporovat	-10.793
▁přispět	-10.793
▁sportovců	-10.793
▁vyřešit	-10.793
▁Člověk	-10.793
▁skončí	-10.793
▁Osobn	-10.793
▁turisty	-10.793
▁nejnižší	-10.793
▁dohromady	-10.793
▁sněhu	-10.793
▁mld	-10.793
▁obilí	-10.793
▁dobrá	-10.793
▁snažit	-10.7931
▁těší	-10.7931
▁atmosféry	-10.7931
▁vypadat	-10.7931
▁přesvědčit	-10.7932
▁Hradci	-10.7932
▁pokračuje	-10.7933
85	-10.7933
▁třetího	-10.7933
▁vybudovat	-10.7933
▁vedlejší	-10.7933
▁zbytečně	-10.7933
▁ruky	-10.7935
▁připojit	-10.7935
▁zhodnocení	-10.7935
▁porozumění	-10.7936
▁tvorbě	-10.7938
▁všeobecně	-10.7938
▁síti	-10.7939
▁poznamenal	-10.794
▁Bruselu	-10.794
▁srážek	-10.7942
▁JE	-10.7942
íka	-10.7946
▁staví	-10.7947
▁vesnice	-10.7948
ismu	-10.7949
▁rovině	-10.7949
▁přinést	-10.7949
▁SP	-10.7949
▁obsazení	-10.795
▁spolupracovníků	-10.795
▁analýzy	-10.7951
▁koupí	-10.7954
▁Chorvatska	-10.7955
▁Senátu	-10.7958
▁opustit	-10.7962
▁důchodu	-10.7963
▁autobusy	-10.7966
▁kolektivní	-10.7966
▁Američané	-10.7969
▁dovozu	-10.7972
letý	-10.7972
▁silnice	-10.7972
▁zájmů	-10.7975
▁(1	-10.7975
▁zlom	-10.7976
koupit	-10.7981
▁Mohl	-10.7984
▁zájemce	-10.7985
▁nachází	-10.7988
▁ztrát	-10.799
▁výkonný	-10.7996
rat	-10.7999
%	-10.7999
▁městský	-10.8003
▁Kon	-10.8003
▁Ni	-10.8004
▁grafu	-10.8005
▁Karla	-10.8008
▁Zahraničn	-10.8009
▁požadované	-10.8009
▁bílé	-10.8014
▁volných	-10.802
▁drobné	-10.8023
▁plno	-10.8025
▁nevím	-10.8026
▁přivedl	-10.8026
▁tlaku	-10.8031
▁nepříjemné	-10.8033
▁dalo	-10.8037
▁průměrný	-10.8038
▁cítí	-10.804
▁patnácti	-10.8043
▁projektů	-10.8055
▁přijat	-10.8056
▁objemu	-10.8056
▁členský	-10.8057
▁130	-10.8063
▁personální	-10.8069
▁struktura	-10.8079
kat	-10.8079
▁Rus	-10.8088
ený	-10.8091
TE	-10.8097
▁nástup	-10.8099
▁získan	-10.8106
▁Takový	-10.8108
▁vedla	-10.8109
▁1,5	-10.8122
▁hůře	-10.813
pře	-10.813
▁konečný	-10.8131
▁hledají	-10.8134
▁vědě	-10.8137
▁turistický	-10.8138
ll	-10.8142
▁dokumentu	-10.8143
▁událost	-10.8147
▁kvantov	-10.8151
▁záznam	-10.8156
▁investic	-10.8158
věřil	-10.8171
▁nutnost	-10.8174
▁osobnost	-10.8177
▁editor	-10.8178
▁prosadil	-10.8178
▁potenciál	-10.8179
▁otevřené	-10.8184
▁průmysl	-10.8184
▁neb	-10.8187
▁prof	-10.8191
▁management	-10.8196
denní	-10.8196
▁neboli	-10.8203
▁překvapení	-10.8207
50	-10.8209
nictví	-10.8211
▁výrazný	-10.8216
leč	-10.8227
volat	-10.8236
▁značný	-10.8237
hlížet	-10.8248
▁aminokyselin	-10.825
▁Jaká	-10.8262
5%	-10.8263
▁Mluvčí	-10.8263
▁dosažení	-10.8263
▁metropoli	-10.8263
▁nechtějí	-10.8263
▁pochopení	-10.8263
▁teorii	-10.8263
▁tradičně	-10.8263
▁únoru	-10.8263
▁Peníze	-10.8263
▁neutrální	-10.8263
▁reakcí	-10.8263
▁výpověď	-10.8263
▁Zástupc	-10.8263
▁likvidace	-10.8263
▁restauraci	-10.8263
▁Rozdíl	-10.8264
▁nejpozději	-10.8264
▁jmění	-10.8264
▁Rudolf	-10.8264
▁dotace	-10.8264
▁operací	-10.8264
▁dojít	-10.8264
▁kategorii	-10.8265
▁dělají	-10.8265
▁výhodnější	-10.8266
▁dělení	-10.8267
▁mezd	-10.8267
▁reformy	-10.8268
▁elektráren	-10.8268
▁realitní	-10.8269
▁podporuje	-10.827
▁sněmovně	-10.827
▁břehu	-10.8272
▁městech	-10.8273
▁vína	-10.8274
▁přijdou	-10.8275
stal	-10.8276
15	-10.8277
▁udržení	-10.8277
▁časopisů	-10.8278
▁Tour	-10.8278
▁jednoduchá	-10.8279
▁pochází	-10.828
▁sezónu	-10.8281
▁účel	-10.8282
star	-10.8285
něte	-10.8287
▁vybaven	-10.8289
▁stíhání	-10.829
▁uložení	-10.8291
▁skla	-10.8299
ňování	-10.8299
▁žádostí	-10.8302
▁otevřena	-10.8303
▁těles	-10.8305
▁hledal	-10.8305
táhnout	-10.8306
▁zraněn	-10.8307
▁Paříži	-10.8308
fu	-10.8309
▁odborníky	-10.8309
▁hmoty	-10.831
▁obvodní	-10.8311
RU	-10.8312
▁využívání	-10.8312
▁past	-10.8316
▁svobodu	-10.8318
▁vln	-10.8325
▁založení	-10.8325
▁Lon	-10.833
▁strom	-10.8331
▁rezerv	-10.8332
▁vystaven	-10.8341
▁domy	-10.8347
▁žádosti	-10.8352
▁kandidát	-10.8353
88	-10.8357
kin	-10.8357
▁OH	-10.8358
nesou	-10.8359
▁omezen	-10.836
▁záměru	-10.8361
▁škoda	-10.8365
▁ukázala	-10.8367
▁nemohli	-10.8377
▁hru	-10.8382
píše	-10.8385
▁upraven	-10.8386
▁schválil	-10.8393
san	-10.8397
▁reprezentantů	-10.8399
▁mimořádné	-10.84
▁vešker	-10.84
▁platy	-10.8404
▁činu	-10.8404
▁letecké	-10.8406
▁Důležit	-10.8409
▁provozní	-10.8412
▁zákazníkům	-10.8412
itel	-10.8413
▁šedesát	-10.8415
▁ztráta	-10.8418
▁rodin	-10.8428
▁schválen	-10.8438
▁řídící	-10.8439
nedávn	-10.8439
▁zvýšené	-10.844
▁požádal	-10.8446
og	-10.8452
TO	-10.8454
▁čtvrtý	-10.8456
▁mo	-10.8457
běhu	-10.8458
▁složitější	-10.846
her	-10.8464
▁hlad	-10.8465
vz	-10.8468
▁mladí	-10.8471
▁Čas	-10.8471
▁server	-10.8473
▁patřil	-10.8475
▁mluvčího	-10.8478
▁týmy	-10.8481
▁limit	-10.8482
▁vydává	-10.8483
vede	-10.8485
▁monitor	-10.8489
por	-10.8492
▁každému	-10.8492
▁Ca	-10.8493
▁zvýšen	-10.8495
▁Jin	-10.8501
▁uspořáda	-10.8502
▁stanic	-10.8504
▁podnikatelský	-10.8506
▁uskutečnit	-10.8516
▁zařazen	-10.8516
▁slep	-10.8516
▁platnost	-10.8517
▁kompromis	-10.8517
▁pražský	-10.852
▁vývojové	-10.8524
▁zná	-10.8526
▁úrovní	-10.8531
▁úmysl	-10.8534
▁muse	-10.8536
▁klade	-10.8539
'	-10.8539
▁výstup	-10.8539
ačnou	-10.854
▁navštívil	-10.854
▁zad	-10.8541
▁nezaměstnanost	-10.8545
▁značn	-10.8547
▁noc	-10.855
▁herec	-10.8551
▁snažil	-10.8551
▁šéfa	-10.8553
▁diplomat	-10.8554
▁podílel	-10.8554
oučástí	-10.8557
▁dopad	-10.8558
▁založené	-10.8563
ovské	-10.8571
▁dala	-10.8578
čku	-10.8579
▁poskytovat	-10.8582
▁obecné	-10.8589
▁stačil	-10.8593
▁Francouz	-10.8596
běhl	-10.8597
▁plný	-10.8602
▁adresu	-10.8603
rd	-10.8608
nci	-10.8608
▁Ameriky	-10.8608
▁Bohužel	-10.8608
▁SCSI	-10.8608
▁chránit	-10.8608
▁energii	-10.8608
▁mládí	-10.8608
▁podpořil	-10.8608
▁instituce	-10.8608
▁kapitán	-10.8608
▁koncepci	-10.8608
▁názvu	-10.8608
▁přirozené	-10.8608
▁Včera	-10.8608
▁blízko	-10.8608
▁čtvrtfinále	-10.8608
▁Nedávn	-10.8608
▁ekonomicky	-10.8608
▁investování	-10.8608
▁nejvýznamnější	-10.8608
▁Plzni	-10.8608
▁stabilní	-10.8608
▁Ladislav	-10.8608
▁Policisté	-10.8608
▁trzích	-10.8608
▁rámeček	-10.8608
▁výrobek	-10.8609
▁pokusil	-10.861
▁zimě	-10.861
▁síla	-10.8611
▁obrázky	-10.8611
▁konat	-10.8612
▁uznal	-10.8612
▁tón	-10.8612
▁kritérií	-10.8612
▁Tentokrát	-10.8613
▁Londýně	-10.8613
▁chodit	-10.8613
▁tělo	-10.8613
▁použil	-10.8614
▁bojovat	-10.8615
▁Malé	-10.8615
ij	-10.8615
▁postupné	-10.8615
▁David	-10.8616
▁tradici	-10.8616
▁úvahy	-10.8616
▁hlavou	-10.8618
▁Afriky	-10.8618
▁Pět	-10.8618
▁hudby	-10.8618
▁odstavce	-10.8619
▁lokální	-10.8619
▁parametrů	-10.862
▁právnické	-10.8621
▁originální	-10.8621
▁umělecký	-10.8622
▁schůzky	-10.8624
▁požadují	-10.8625
▁způsobuje	-10.8625
▁scény	-10.8627
▁bosenský	-10.8628
▁faktorů	-10.8628
▁vesmíru	-10.8629
▁zbývající	-10.8629
▁nezbytné	-10.863
▁Vznik	-10.8631
▁povede	-10.8631
▁Děti	-10.8632
bývá	-10.8633
▁úroky	-10.8634
▁vlasti	-10.8635
▁zájemci	-10.8636
▁uživatele	-10.8638
▁spravedlnosti	-10.8639
ir	-10.8641
▁nalézt	-10.8646
▁třetinu	-10.8646
▁nemocných	-10.8654
▁slíbil	-10.8656
▁úkolem	-10.8656
▁světovou	-10.8657
▁drahé	-10.8658
han	-10.8659
▁okruhu	-10.866
▁Dobr	-10.8661
▁způsobené	-10.8664
kar	-10.8665
pokoj	-10.8667
▁paliva	-10.8667
▁los	-10.8669
▁Lidové	-10.867
▁Klause	-10.8671
▁dokumentů	-10.8674
▁představí	-10.8674
▁starosty	-10.8675
bere	-10.8676
▁sekund	-10.8677
▁přijel	-10.8678
pil	-10.8679
▁grafick	-10.868
jat	-10.8684
ovky	-10.8687
▁vybrané	-10.8687
▁udržel	-10.8688
iletý	-10.8689
▁zásady	-10.869
▁celní	-10.8691
▁podat	-10.8692
▁klidu	-10.8696
▁hradu	-10.8696
izace	-10.8697
▁společensk	-10.8699
▁úkolů	-10.8699
RO	-10.8701
▁Několik	-10.8701
▁blíže	-10.8704
▁uvedení	-10.8704
▁symbol	-10.8713
▁pouhé	-10.8715
▁výkonem	-10.8715
▁Bu	-10.8717
šly	-10.8718
▁zásah	-10.8722
▁rozdělen	-10.8731
▁Vol	-10.8733
▁Mi	-10.8746
▁dalšímu	-10.8747
▁paláce	-10.8749
▁zní	-10.8752
▁hovořil	-10.8755
▁95	-10.8756
▁sklon	-10.8757
▁otevřel	-10.8757
▁výš	-10.8757
▁konkrétně	-10.8759
▁zůstala	-10.876
▁společenský	-10.8762
▁umělé	-10.8763
▁odkud	-10.8774
AV	-10.8776
▁skutečný	-10.8778
klád	-10.878
▁přátel	-10.8783
vnějších	-10.879
par	-10.8792
▁biologické	-10.8798
▁min	-10.8805
▁lustrační	-10.8807
▁Nevím	-10.8809
▁školu	-10.8809
ickou	-10.881
oři	-10.8812
TI	-10.8814
▁9.	-10.8815
▁filmy	-10.8816
▁30.	-10.8816
▁pevný	-10.8818
▁připojen	-10.8819
▁zahraničními	-10.8821
▁jeví	-10.8822
▁děl	-10.8826
áš	-10.8828
▁pokyn	-10.8832
▁hloub	-10.8834
▁bran	-10.8836
ana	-10.8838
▁Britsk	-10.8838
zb	-10.8843
▁potřebný	-10.8844
hla	-10.8849
▁objevit	-10.8851
▁čtvrt	-10.8863
AR	-10.8864
▁výrok	-10.8865
▁nalezen	-10.887
▁platný	-10.8887
▁česko	-10.8888
▁svědomí	-10.8891
▁8.	-10.8895
▁možný	-10.8896
▁vzduch	-10.8898
▁hrob	-10.8898
▁monopol	-10.8903
▁dítěte	-10.8904
skal	-10.8905
▁parku	-10.8907
ičtí	-10.891
rna	-10.891
▁děj	-10.8913
▁ochotni	-10.8917
dit	-10.8918
ováním	-10.8919
kož	-10.892
zení	-10.892
▁Ital	-10.8923
▁Dá	-10.893
▁exportní	-10.893
▁plynu	-10.8935
▁ono	-10.8936
▁přínos	-10.8943
AL	-10.8947
▁student	-10.8952
▁agent	-10.8953
▁standard	-10.8955
rán	-10.8955
▁výhod	-10.8956
▁koně	-10.8959
▁poli	-10.8961
▁Auto	-10.8962
▁Alexandr	-10.8965
▁Barceloně	-10.8965
▁Británii	-10.8965
▁Nejlepší	-10.8965
▁březnu	-10.8965
▁déšť	-10.8965
▁fázi	-10.8965
▁instalaci	-10.8965
▁normy	-10.8965
▁následek	-10.8965
▁pomáhá	-10.8965
▁požádat	-10.8965
▁pravidlo	-10.8965
▁tlačítka	-10.8965
▁tlačítkem	-10.8965
▁týdně	-10.8965
▁umožnit	-10.8965
▁divize	-10.8965
▁kratší	-10.8965
▁ploše	-10.8965
▁těžce	-10.8965
▁vrstvy	-10.8965
▁Část	-10.8965
▁likvidaci	-10.8965
▁značky	-10.8965
▁Soubor	-10.8965
▁podmínkou	-10.8965
▁někoho	-10.8965
▁populární	-10.8965
▁pololetí	-10.8965
▁doposud	-10.8966
▁Robert	-10.8966
▁příslušníci	-10.8966
▁ekonomice	-10.8966
▁komisi	-10.8966
▁pozdější	-10.8966
▁klimatu	-10.8966
▁telefonu	-10.8967
▁podílu	-10.8967
▁desky	-10.8967
▁IFOR	-10.8967
▁uvažovat	-10.8968
▁červenci	-10.8968
▁kvalifikace	-10.8968
▁horách	-10.8969
▁ukázat	-10.8969
▁Generální	-10.897
▁Hodnot	-10.897
bel	-10.8971
▁Novotná	-10.8971
▁multimediální	-10.8971
ODA	-10.8971
▁právnických	-10.8972
▁zajímat	-10.8974
▁letiště	-10.8975
▁vzorky	-10.8976
▁kus	-10.8977
▁výstavbě	-10.8978
▁vyšel	-10.8979
▁cenách	-10.8979
▁barvu	-10.8979
šení	-10.898
▁vozy	-10.898
▁potvrzení	-10.8981
▁parametry	-10.8984
▁pozorování	-10.8985
▁pojem	-10.8985
▁ukáže	-10.8987
▁chyběl	-10.8987
▁JU	-10.899
▁ohrožení	-10.8991
▁Atlanty	-10.8991
▁Cíle	-10.8993
▁působící	-10.8995
▁účelem	-10.8995
▁%)	-10.8997
▁příspěvky	-10.8999
▁srážky	-10.9001
▁obvyklé	-10.9001
▁lidsk	-10.9001
▁plynů	-10.9003
▁věnuje	-10.9003
▁úvodu	-10.9004
▁ekonomika	-10.9004
▁důchodové	-10.9005
▁mezinárodním	-10.9005
▁dvojí	-10.9005
,8	-10.9006
▁muzeum	-10.9008
▁očekávání	-10.9009
▁Svazu	-10.9014
▁sektoru	-10.9016
▁Karadžič	-10.9017
▁přírodovědecké	-10.9018
▁držet	-10.9022
▁styku	-10.9025
óz	-10.9025
▁napsat	-10.9027
▁potenciální	-10.9027
▁řeky	-10.9028
▁úst	-10.9029
▁studenti	-10.9029
▁příjemné	-10.9031
▁varianty	-10.9035
▁obchodů	-10.9036
▁nahradit	-10.9037
▁třetina	-10.9038
▁ztrátu	-10.9039
dem	-10.9043
▁Organiza	-10.9044
▁průzkumu	-10.9046
▁španělské	-10.9049
ologie	-10.9051
nému	-10.9053
▁cíli	-10.9055
ide	-10.9056
tp	-10.9058
ab	-10.906
▁kontrola	-10.9063
dra	-10.9064
▁pra	-10.9065
▁Františk	-10.9067
▁jediného	-10.9074
▁zjevn	-10.9078
▁polo	-10.9078
LO	-10.9084
▁rostlin	-10.9085
▁změnila	-10.9085
▁trvalé	-10.9086
▁spokojeni	-10.9087
19	-10.9088
skutk	-10.9088
▁Velm	-10.9092
▁Často	-10.9094
rám	-10.9096
▁založena	-10.91
▁černé	-10.9102
▁pořádá	-10.9104
▁určitém	-10.9106
▁Pří	-10.9109
▁75	-10.9113
▁výrazné	-10.9114
▁hrála	-10.9115
▁38	-10.9118
▁experiment	-10.9121
▁Slovensk	-10.9131
▁předložen	-10.9132
▁Les	-10.9146
▁signál	-10.9146
▁udělal	-10.9147
▁specializované	-10.9149
▁postih	-10.9149
▁osoba	-10.9151
▁chorvatské	-10.9152
▁46	-10.9158
▁nějakým	-10.9159
▁rychlý	-10.916
▁společném	-10.9163
▁světov	-10.9168
▁představitel	-10.917
ama	-10.9171
leb	-10.918
▁důsledně	-10.9182
▁odkaz	-10.9185
▁menším	-10.9194
▁král	-10.9203
▁tr	-10.9209
tav	-10.9211
▁italský	-10.9212
národních	-10.9213
▁tvořen	-10.9223
▁Martina	-10.9226
ug	-10.9232
razit	-10.9232
wa	-10.9234
▁Celk	-10.9234
▁tábor	-10.9235
▁dohod	-10.9242
▁Vlk	-10.9245
▁taneční	-10.9257
tor	-10.9263
▁zájemců	-10.9269
▁devadesát	-10.927
▁šestnáct	-10.9271
▁pověst	-10.9272
nů	-10.9272
▁koupi	-10.9275
▁stisk	-10.9278
▁kupující	-10.9279
▁dar	-10.9279
▁čtyřiceti	-10.9279
▁zásluh	-10.9287
nová	-10.9289
▁Podnikatel	-10.9292
IT	-10.9295
▁přesun	-10.9296
▁Výbor	-10.9302
▁náskok	-10.9309
▁nastal	-10.9313
▁vedoucího	-10.9314
▁Společn	-10.9322
Ú	-10.9324
▁mírové	-10.9327
▁humor	-10.9332
▁Koaliční	-10.9336
▁Ukrajiny	-10.9336
▁Zvláštní	-10.9336
▁burze	-10.9336
▁církví	-10.9336
▁galerie	-10.9336
▁naznačil	-10.9336
▁náboženství	-10.9336
▁upozorňuje	-10.9336
▁určuje	-10.9336
▁šetření	-10.9336
▁ovlivňuje	-10.9336
▁patrné	-10.9336
▁sdělovací	-10.9336
▁držitel	-10.9336
▁příliv	-10.9336
▁usilovat	-10.9336
▁podporou	-10.9336
▁fáze	-10.9336
▁vzestup	-10.9336
nutně	-10.9336
▁integraci	-10.9336
vázat	-10.9336
▁filozofie	-10.9336
▁hutní	-10.9336
▁Formát	-10.9336
▁zámku	-10.9336
▁1997	-10.9336
▁myšlenkou	-10.9336
▁svátky	-10.9336
▁duše	-10.9336
▁slabší	-10.9336
▁manželství	-10.9336
▁myšlenku	-10.9337
▁nehodlá	-10.9337
▁nízko	-10.9337
▁sílu	-10.9337
▁obnovu	-10.9337
▁přežití	-10.9337
▁srdeční	-10.9337
▁obrázků	-10.9337
▁podnicích	-10.9337
▁Původně	-10.9338
▁Komis	-10.9338
▁hřiště	-10.9338
▁šíření	-10.9339
▁plod	-10.9339
▁odhadnout	-10.9339
▁testování	-10.934
▁pronájem	-10.9341
hodlají	-10.9342
▁potíží	-10.9343
▁prosazovat	-10.9343
▁Or	-10.9345
▁sledování	-10.9345
▁doporučení	-10.9345
▁silnější	-10.9346
▁úředníků	-10.9347
▁Nejde	-10.9347
▁přístrojů	-10.935
20	-10.9351
▁posoudit	-10.9352
▁zákazníci	-10.9353
▁Byli	-10.9353
▁naposledy	-10.9353
▁olej	-10.9353
▁znamenalo	-10.9353
▁soustředění	-10.9354
pas	-10.9354
▁tvrdě	-10.9355
▁Labem	-10.9355
▁úlohu	-10.9355
▁přinese	-10.9355
▁jistotu	-10.9355
▁následky	-10.9358
▁přehlídky	-10.9358
▁Nikd	-10.936
▁příslušníků	-10.9365
▁vládou	-10.9367
▁nedaleko	-10.9367
▁soudce	-10.9368
▁viděl	-10.937
▁válka	-10.937
▁karta	-10.9371
▁Naši	-10.9372
▁začínající	-10.9372
▁stanovit	-10.9373
▁ostře	-10.9376
▁Platí	-10.9382
cího	-10.9382
▁protest	-10.9386
▁Eva	-10.9389
▁lidové	-10.939
▁pouště	-10.9391
▁díl	-10.9395
▁Ž	-10.9395
▁rozsáhlé	-10.9396
▁vím	-10.9398
▁rostoucí	-10.9398
▁zápisu	-10.9399
▁hotelů	-10.9399
▁národ	-10.9401
▁náročné	-10.9402
▁předal	-10.9404
▁díly	-10.9404
▁americkém	-10.9404
▁experti	-10.9405
tů	-10.9405
▁papírů	-10.9413
▁porad	-10.9413
táhne	-10.9413
▁předpoklady	-10.9414
▁technika	-10.9414
▁vložit	-10.9418
▁moravsk	-10.9419
▁výbuchu	-10.9419
▁samotné	-10.9421
kolik	-10.9421
▁výstavu	-10.9423
▁Dan	-10.9424
▁Cest	-10.9429
▁manžel	-10.9434
▁vrcholu	-10.9434
▁týmem	-10.9439
▁spory	-10.9442
vyšších	-10.9442
▁procento	-10.9442
▁fotbalu	-10.9446
▁číst	-10.9448
▁pacient	-10.9449
▁krátký	-10.945
▁ziskem	-10.945
▁měnové	-10.9451
ick	-10.9455
▁Malý	-10.9457
▁Výhod	-10.9459
▁rozlišení	-10.9461
▁snahy	-10.9464
▁vstupní	-10.9466
▁IBM	-10.9466
nechává	-10.9467
▁pohádk	-10.9473
▁14.	-10.9474
▁světlo	-10.9477
boj	-10.948
▁technického	-10.9483
▁All	-10.9491
▁zákazu	-10.9494
razí	-10.9498
▁připraveni	-10.9501
▁osobě	-10.9501
ona	-10.9502
▁tříd	-10.9502
▁červené	-10.9504
▁Me	-10.9511
dařilo	-10.952
▁85	-10.9521
▁chová	-10.9523
▁tuzemské	-10.9526
▁trvalo	-10.9528
▁našim	-10.9529
▁vzdálené	-10.953
▁programem	-10.9539
▁školení	-10.9541
▁dospěl	-10.9542
▁republiku	-10.9544
pustil	-10.9546
▁soused	-10.9554
nášet	-10.9557
▁oxidu	-10.9559
▁kulturních	-10.9565
▁víkend	-10.958
▁nedělní	-10.9581
MI	-10.9582
ených	-10.9594
klo	-10.9596
dů	-10.9602
▁češt	-10.9604
▁úspěšný	-10.9605
▁Nejs	-10.9616
▁určena	-10.9616
▁koho	-10.9618
▁Oznámil	-10.9623
▁180	-10.9623
▁Jaký	-10.9626
▁přítomnost	-10.9628
▁29	-10.9629
ens	-10.9633
▁vzdálenost	-10.9636
▁podstatný	-10.9638
▁typické	-10.964
▁fanoušků	-10.9647
lení	-10.9649
▁trati	-10.9649
▁praktický	-10.9656
▁zabývají	-10.9657
▁Problém	-10.9658
▁kabinet	-10.9658
▁Možnost	-10.9658
▁výlet	-10.9658
▁poskytnut	-10.9662
▁sortiment	-10.9663
▁opak	-10.9669
▁malého	-10.9673
rit	-10.9674
▁1987	-10.9679
▁základním	-10.9682
▁okrese	-10.9683
mer	-10.9684
ejme	-10.9688
▁ZA	-10.9689
▁zvolil	-10.9689
▁snížen	-10.9692
▁vzhled	-10.9695
▁zvíře	-10.9703
CA	-10.9703
▁mírový	-10.9704
▁potřeb	-10.9704
▁Ros	-10.9704
ráží	-10.9708
▁poznat	-10.971
▁přístroj	-10.971
▁jádro	-10.9712
▁podvod	-10.9713
stál	-10.9714
icky	-10.9714
▁bi	-10.9719
▁Bejbl	-10.972
▁Vedoucí	-10.972
▁dodatečně	-10.972
▁důležitá	-10.972
▁fotoaparát	-10.972
▁franků	-10.972
▁instalace	-10.972
▁konstrukce	-10.972
▁pohledávek	-10.972
▁redakce	-10.972
▁stupňů	-10.972
▁upozornit	-10.972
▁vyšetření	-10.972
▁pojmů	-10.972
▁přežít	-10.972
▁DPH	-10.972
▁Asociac	-10.972
▁jedince	-10.972
▁restaurace	-10.972
▁Řešení	-10.972
▁Prostě	-10.972
▁kvalifikační	-10.972
▁sněhov	-10.9721
▁1984	-10.9721
▁majetkem	-10.9721
▁formální	-10.9721
▁stovek	-10.9721
▁1968	-10.9721
▁nohy	-10.9721
▁nejmenší	-10.9721
▁1986	-10.9721
▁inspekce	-10.9721
▁poznatků	-10.9721
▁Průměrn	-10.9721
▁Tedy	-10.9721
▁legislativní	-10.9722
▁května	-10.9722
▁spolupracovat	-10.9722
▁nápis	-10.9722
▁podzemní	-10.9722
▁marně	-10.9723
pálen	-10.9723
▁Bill	-10.9723
▁chápat	-10.9724
▁drog	-10.9724
▁III	-10.9724
▁3,5	-10.9724
▁upravit	-10.9725
▁ruku	-10.9726
▁rychlejší	-10.9726
▁manželka	-10.9726
▁vyvolat	-10.9727
▁DEM	-10.9728
▁platební	-10.9728
▁užitek	-10.9729
▁Potom	-10.9729
▁Belgie	-10.973
▁odstranění	-10.9731
▁Nejen	-10.9733
▁elektřiny	-10.9734
▁rozložení	-10.9734
▁jevů	-10.9734
▁návštěvy	-10.9734
▁žáků	-10.9735
▁volbami	-10.9735
▁polohy	-10.9738
▁bilance	-10.9739
▁Lux	-10.9739
▁oznámení	-10.9742
▁Sovětský	-10.9742
▁sociálně	-10.9742
▁většího	-10.9743
▁uměl	-10.9744
▁Japonsku	-10.9746
▁utrpěl	-10.9748
▁půdu	-10.9752
▁linky	-10.9753
▁měny	-10.9754
▁výstavbu	-10.9755
▁osobností	-10.9755
▁uplynulý	-10.9755
váží	-10.9756
▁Německem	-10.9756
▁Jedná	-10.9756
▁Nejdřív	-10.9759
▁koalici	-10.976
▁Výstava	-10.976
▁zvukové	-10.9763
▁ostrovy	-10.9763
▁týdeník	-10.9765
▁hrubého	-10.9768
▁demokratů	-10.9768
▁složité	-10.977
▁kapacity	-10.9771
hnal	-10.9772
▁vz	-10.9772
pt	-10.9774
▁obvodu	-10.9776
▁orgánu	-10.9776
▁vedlo	-10.9778
▁oborů	-10.9782
▁oceánu	-10.9783
▁bezprostřední	-10.9786
▁stejná	-10.9787
▁potřebu	-10.979
MU	-10.9794
▁monitoru	-10.9796
▁výběrem	-10.9799
▁nájemní	-10.9802
▁Rady	-10.9803
eb	-10.9806
▁Celkov	-10.9807
▁systematick	-10.9809
bud	-10.9809
▁nájemce	-10.981
▁metru	-10.9816
▁poukaz	-10.9817
▁následn	-10.983
▁hvězdy	-10.9835
▁dokumenty	-10.9839
▁primátora	-10.9839
out	-10.984
▁skutečností	-10.9845
padlo	-10.9846
▁reagoval	-10.9847
▁fotbalových	-10.9848
▁nastavit	-10.985
▁obdobné	-10.985
▁25.	-10.9852
▁mechanik	-10.9852
▁základy	-10.9854
▁skupinou	-10.9854
▁velitel	-10.9855
▁plány	-10.9859
▁vůdce	-10.9862
▁tráv	-10.9862
▁Be	-10.9872
▁běh	-10.9872
▁plyne	-10.9875
▁poslanecké	-10.9877
RE	-10.988
▁Hol	-10.9883
▁evropského	-10.9892
ony	-10.9893
▁připustil	-10.9894
▁vzniknou	-10.9895
inter	-10.9896
▁Sv	-10.9902
▁pohár	-10.9902
▁sportovních	-10.991
70	-10.991
▁mořský	-10.991
▁prozatím	-10.9912
▁Bílé	-10.9917
▁zlaté	-10.9918
▁současném	-10.9921
▁šedesáti	-10.9924
▁Jediný	-10.9925
jal	-10.9926
▁úz	-10.9929
ruší	-10.9932
▁bohat	-10.9932
TU	-10.9935
▁zdravotnický	-10.9938
elný	-10.9942
▁rozvoji	-10.9945
▁listy	-10.996
▁zpravodaj	-10.9962
kům	-10.9963
▁jmen	-10.9965
▁specializovan	-10.9969
▁potřeboval	-10.9971
▁připravena	-10.9975
▁konečné	-10.9976
▁šel	-10.9978
▁třináct	-10.9979
ral	-10.9979
MO	-10.9981
▁odraz	-10.9994
▁prvé	-10.9995
▁chci	-10.9995
▁Pracovní	-10.9996
▁podklad	-10.9999
▁Obdobn	-11.0002
číst	-11.0007
▁průměr	-11.0009
▁Zajímav	-11.0011
▁silnic	-11.0019
▁Mon	-11.0028
▁probíh	-11.0029
šek	-11.0038
▁německá	-11.0038
▁vyp	-11.0039
▁minuty	-11.0045
při	-11.0048
▁zápis	-11.0053
▁hluboko	-11.0053
▁původním	-11.0054
▁51	-11.0055
▁rozvod	-11.0055
▁raket	-11.0059
▁fotbalov	-11.0059
usi	-11.0061
▁čistý	-11.0061
▁klientů	-11.0062
▁divadelní	-11.0063
▁gen	-11.0078
▁právník	-11.0079
ller	-11.008
▁koupil	-11.0096
▁Mechanik	-11.0098
▁vstupné	-11.0098
▁uvedeno	-11.0099
stávají	-11.0099
áci	-11.0099
▁pomohl	-11.0106
▁hlubo	-11.0107
▁motocykl	-11.0108
▁von	-11.0109
▁pu	-11.0109
▁Fa	-11.0109
▁doporučuje	-11.011
hodnou	-11.0111
▁zaznamenal	-11.0113
▁Ján	-11.0117
▁věděl	-11.0119
▁postoje	-11.0119
▁domnívají	-11.012
▁hovořit	-11.012
▁komponent	-11.012
▁naštěstí	-11.012
▁nežádoucí	-11.012
▁odlišný	-11.012
▁převzít	-11.012
▁uplatnit	-11.012
▁zázemí	-11.012
▁Musel	-11.012
▁Poborský	-11.012
▁brambor	-11.012
▁nevědí	-11.012
▁Domácí	-11.012
▁učinit	-11.012
▁zásilk	-11.012
▁Sociální	-11.012
▁pokoušel	-11.012
▁sněžení	-11.012
▁škál	-11.012
▁forem	-11.012
▁Slavii	-11.012
▁slyšet	-11.012
▁nejrychlejší	-11.012
▁prodlení	-11.012
▁vracet	-11.012
▁efektivní	-11.0121
▁stránek	-11.0121
▁dlouhodobý	-11.0121
▁firmám	-11.0121
▁obrazovce	-11.0121
▁dubnu	-11.0121
▁studií	-11.0121
▁radikální	-11.0121
▁přizpůsobit	-11.0121
▁občanství	-11.0122
▁podílejí	-11.0122
▁označuje	-11.0122
▁Vesel	-11.0122
▁posuzovat	-11.0123
▁fronty	-11.0123
▁Karlový	-11.0123
▁Číny	-11.0124
▁obrázku	-11.0124
▁stavbu	-11.0126
▁Okresní	-11.0127
▁dobách	-11.0129
▁pracovnice	-11.013
▁rejstříku	-11.013
▁kritéria	-11.013
▁Všechno	-11.013
▁podnikat	-11.0131
▁písemně	-11.0133
jdou	-11.0133
▁každodenní	-11.0133
▁poslal	-11.0135
▁Roman	-11.0135
▁souhrn	-11.0136
▁prodloužení	-11.0136
▁regulace	-11.0137
▁demokraté	-11.0137
▁znalostí	-11.0138
▁osvobození	-11.0138
▁náhradu	-11.0139
▁výjimky	-11.014
▁předmětů	-11.014
eček	-11.014
▁zbrojní	-11.014
▁rysy	-11.0141
▁Druhou	-11.0142
▁Kalvoda	-11.0143
▁včerejším	-11.0143
mark	-11.0144
▁Wimbledonu	-11.0144
set	-11.0145
▁redaktor	-11.0146
▁všeobecné	-11.0146
▁teplotě	-11.0146
▁summitu	-11.0147
▁ukládání	-11.0147
▁úplné	-11.015
▁návštěva	-11.0152
▁orientaci	-11.0153
▁bot	-11.0153
▁obchodníci	-11.0154
▁vůz	-11.0155
▁škod	-11.0156
▁nemovitosti	-11.0156
hrát	-11.0156
▁představil	-11.0157
▁tvaru	-11.0159
lka	-11.016
▁resortu	-11.0162
▁předměty	-11.0162
▁bojů	-11.0164
▁ztrátou	-11.0167
▁módní	-11.0167
▁jednalo	-11.0168
▁vstoupit	-11.0171
▁věty	-11.0173
▁divu	-11.0177
▁odbory	-11.0178
▁špičkové	-11.0178
▁sboru	-11.0179
▁vybírá	-11.0183
▁Čechů	-11.0184
▁sjezdu	-11.0184
▁zvuku	-11.0184
elné	-11.0187
▁Karl	-11.019
▁nezávisl	-11.019
▁kandidáty	-11.0192
spal	-11.0193
▁konto	-11.0193
▁49	-11.0194
▁13.	-11.0194
▁zastavil	-11.0195
▁snažili	-11.0196
▁stop	-11.0198
▁mapy	-11.0203
▁spol	-11.0204
čela	-11.0208
▁světla	-11.0209
▁Cha	-11.0211
▁Pražského	-11.0212
▁důkazy	-11.0213
▁planety	-11.022
kovou	-11.0227
,6	-11.0233
▁celkovém	-11.0236
▁sestavení	-11.0237
ivé	-11.0237
▁úspory	-11.0238
DA	-11.024
▁charakteru	-11.0243
▁Michaela	-11.0248
▁známých	-11.0249
▁úkoly	-11.0251
Ile	-11.0256
čně	-11.0257
▁Moskva	-11.0258
▁investorů	-11.0261
▁ovlivňují	-11.0262
▁uživatel	-11.0264
rovná	-11.0267
▁metra	-11.0268
▁předvolební	-11.027
▁požár	-11.0272
▁klient	-11.0274
▁zdi	-11.0275
▁")	-11.0276
konala	-11.0278
▁citliv	-11.0279
bývají	-11.028
▁ClipArt	-11.028
▁některý	-11.0283
▁ochotn	-11.0283
tion	-11.0285
▁německém	-11.0294
▁rod	-11.0294
▁nebezpečný	-11.0295
▁naším	-11.03
▁bolest	-11.03
▁bývají	-11.0302
▁neznám	-11.0306
▁daný	-11.0306
▁Aleš	-11.0306
▁skládá	-11.031
ES	-11.0313
▁předchozích	-11.0317
▁700	-11.0326
▁47	-11.0326
▁evropském	-11.0331
▁svobod	-11.0336
▁drah	-11.0337
▁maďarský	-11.0338
cházelo	-11.0345
▁typický	-11.0345
▁oceán	-11.0346
▁objeven	-11.0351
▁prav	-11.0352
čern	-11.0353
šit	-11.036
▁autora	-11.0361
▁roze	-11.0362
▁Ben	-11.0362
▁vydat	-11.0362
rušení	-11.0366
▁páté	-11.0367
▁jevy	-11.0367
cky	-11.0369
25	-11.0369
▁pracovníka	-11.0369
▁výkonů	-11.0369
▁podílí	-11.0377
ičky	-11.0378
▁vystoupil	-11.0379
net	-11.0393
nvestiční	-11.0396
části	-11.0401
▁styk	-11.0403
áhy	-11.0405
Severoatlantické	-11.0405
▁služební	-11.0412
▁olympijsk	-11.0412
3,	-11.0413
▁vámi	-11.0416
▁počítačový	-11.0425
ráže	-11.0432
▁procesor	-11.0433
▁kuponov	-11.0434
▁doklad	-11.0442
▁okolnost	-11.0444
cker	-11.0448
▁fyzikální	-11.0451
▁obyvatele	-11.0452
být	-11.0456
▁Pražský	-11.0457
▁vyšetřovatel	-11.0458
▁Kor	-11.0459
▁Němců	-11.0462
▁Novotný	-11.0464
▁magistrát	-11.047
▁vysoko	-11.047
▁Sovětském	-11.0473
▁mlýn	-11.0473
▁statistické	-11.0473
daly	-11.0475
▁krajan	-11.0476
▁uživatelů	-11.048
ena	-11.0485
loni	-11.0489
▁mód	-11.0489
▁čtenářů	-11.049
ton	-11.0494
▁významn	-11.0495
▁per	-11.0504
▁užit	-11.0507
schválila	-11.051
▁Olomouc	-11.0511
▁britsk	-11.0512
▁vyvíj	-11.0513
▁mechanismu	-11.0514
▁řešením	-11.0514
▁oleje	-11.0518
▁Šest	-11.0519
▁kód	-11.0525
▁Než	-11.0527
res	-11.0529
daných	-11.0536
▁statut	-11.0537
▁CADKON	-11.0537
▁Lebeď	-11.0537
▁Pithart	-11.0537
▁Srbů	-11.0537
▁Zjuganov	-11.0537
▁bližší	-11.0537
▁církvi	-11.0537
▁konferencí	-11.0537
▁nárůst	-11.0537
▁nízká	-11.0537
▁odpovědí	-11.0537
▁ovlivněn	-11.0537
▁reagovat	-11.0537
▁schůzi	-11.0537
▁softwaru	-11.0537
▁strategii	-11.0537
▁zpátky	-11.0537
▁zálivu	-11.0537
▁nezaměstnaných	-11.0537
▁Šéf	-11.0537
▁žádoucí	-11.0537
▁zazněl	-11.0537
▁technologii	-11.0537
▁Mencl	-11.0537
▁uzavírá	-11.0537
▁Vídni	-11.0537
▁dědictví	-11.0537
▁stůl	-11.0537
▁nábytku	-11.0537
▁kombinaci	-11.0537
▁zařadil	-11.0537
▁Praktick	-11.0537
▁navrhnout	-11.0537
▁vrchní	-11.0537
▁komunikaci	-11.0537
▁maximum	-11.0537
▁Mazda	-11.0537
▁délce	-11.0537
▁nastat	-11.0538
▁bance	-11.0538
▁otec	-11.0539
▁23.	-11.0539
▁okresů	-11.0539
▁zvolit	-11.0539
▁Finanční	-11.0539
▁kreslení	-11.054
▁vyrovnal	-11.054
▁blesk	-11.0541
stupují	-11.0541
▁dokáží	-11.0541
▁pohybovat	-11.0542
▁nejvýše	-11.0543
▁komunální	-11.0543
▁Polsko	-11.0544
▁odejít	-11.0544
▁živočichů	-11.0544
▁Brazílie	-11.0544
▁odmítají	-11.0544
▁Stručně	-11.0545
▁respektovat	-11.0545
▁Chci	-11.0545
▁pochopit	-11.0545
▁dočasně	-11.0545
▁obchodování	-11.0545
▁kilogramů	-11.0546
▁ponechat	-11.0546
▁uložit	-11.0546
▁splatnosti	-11.0547
▁vkladů	-11.0548
▁Postup	-11.0549
▁říjnu	-11.055
▁bo	-11.0552
▁splnit	-11.0552
oprvé	-11.0552
▁levé	-11.0554
▁řidič	-11.0555
▁kontrole	-11.0555
▁Nic	-11.0557
▁energetické	-11.056
▁Dom	-11.0561
▁Spor	-11.0562
▁údaj	-11.0562
▁jistou	-11.0564
89	-11.0564
▁témat	-11.0564
▁poskytování	-11.0566
▁zakázky	-11.0566
▁zaplacení	-11.0567
▁vozidla	-11.0568
▁potřebujeme	-11.0568
bíhá	-11.0569
▁kongresu	-11.057
▁zastavení	-11.0571
▁anglické	-11.0571
▁schématu	-11.0572
▁dokončení	-11.0573
▁Moh	-11.0574
▁postižených	-11.0574
▁klíče	-11.0576
▁titulů	-11.0576
▁vyhlášení	-11.0578
▁KB	-11.0579
▁padesátých	-11.058
▁Kniha	-11.0584
▁Stav	-11.0585
▁projeví	-11.0587
▁účinnosti	-11.0588
▁míra	-11.0588
▁lidu	-11.0589
▁zvukov	-11.0589
▁trpí	-11.059
▁Intergraph	-11.0591
▁katolické	-11.0593
▁pádu	-11.0593
▁hale	-11.0598
▁valné	-11.0599
▁listů	-11.06
▁odbor	-11.0601
▁vzá	-11.0602
▁tip	-11.0603
▁šok	-11.0605
▁kontakt	-11.0606
pochyby	-11.0611
▁představoval	-11.0612
▁recept	-11.0613
▁48	-11.0613
▁poruch	-11.0615
▁kruh	-11.0616
▁Jedn	-11.0617
▁specifické	-11.0617
hodit	-11.0618
▁rodinu	-11.062
▁niž	-11.0621
,4	-11.0622
▁snaz	-11.0623
▁64	-11.0624
ON	-11.0629
▁nápady	-11.063
▁dokázali	-11.063
▁podnikatelsk	-11.0632
▁předpokladu	-11.0635
▁dosti	-11.0639
▁lov	-11.0645
▁hotely	-11.0647
▁sousedů	-11.0649
▁zabývající	-11.0651
▁21.	-11.0653
▁čtenáři	-11.0656
▁zvuk	-11.0657
▁Den	-11.0661
átor	-11.0665
▁Představ	-11.0665
▁růstem	-11.0668
▁podřízen	-11.0668
▁spotřebitele	-11.0669
▁vědu	-11.0669
▁reprezentanti	-11.067
▁určení	-11.067
vítá	-11.0671
bili	-11.0671
▁tváří	-11.0678
▁jazyka	-11.0682
▁zůstanou	-11.0685
▁drobn	-11.0687
▁našli	-11.0687
▁brankáře	-11.0687
ána	-11.0688
▁církevní	-11.0688
ja	-11.0692
▁pravidelné	-11.0694
▁vznikající	-11.0698
▁věk	-11.0698
▁jakož	-11.0699
KU	-11.07
▁Jistě	-11.0701
▁každým	-11.0704
▁objevily	-11.0706
ického	-11.0707
▁Prvním	-11.0708
▁zvýšila	-11.0709
VA	-11.071
lci	-11.071
ista	-11.0712
▁neměly	-11.0712
▁osudu	-11.0714
▁pokusy	-11.0721
▁vys	-11.0723
▁Sun	-11.0724
▁přijala	-11.0725
▁odmítli	-11.0729
▁Volb	-11.0731
▁vyhlášen	-11.0731
▁společných	-11.0733
▁Št	-11.0735
volání	-11.0739
▁ÚV	-11.0742
bíd	-11.0743
▁stála	-11.0744
▁rozhovor	-11.0745
▁Par	-11.0746
losování	-11.0749
▁výchov	-11.0754
▁stejných	-11.0756
▁závodní	-11.0757
▁obtížně	-11.0761
Ř	-11.0766
kládal	-11.0766
▁beze	-11.077
▁zeměmi	-11.0771
▁nemám	-11.0778
▁Stal	-11.078
▁zvířata	-11.0785
▁rozsáhlý	-11.0786
▁Johna	-11.0795
▁odpovídal	-11.0797
ány	-11.08
šť	-11.0801
▁přev	-11.0805
bin	-11.0805
van	-11.0806
asi	-11.081
▁uvede	-11.0817
▁hráčem	-11.0817
72	-11.0819
▁Wales	-11.0819
▁známe	-11.0822
▁katalog	-11.0825
▁dostih	-11.0826
▁únik	-11.0832
▁protein	-11.0833
náší	-11.0833
▁závažný	-11.0835
▁návrhů	-11.0837
▁zahrnut	-11.0839
▁sehrál	-11.0841
▁proměn	-11.0843
▁vládních	-11.0845
▁klíčový	-11.0845
▁přidal	-11.0846
▁praví	-11.0847
▁zahájen	-11.0847
▁modern	-11.0848
▁hladin	-11.0849
jezd	-11.0855
▁uplynul	-11.0855
▁pěst	-11.0856
▁expert	-11.086
▁moment	-11.0861
▁císaře	-11.0862
▁66	-11.0867
áme	-11.087
▁znak	-11.0873
▁vázán	-11.0874
▁Zemana	-11.0874
▁Chyb	-11.0876
najdeme	-11.0877
▁hmot	-11.0877
▁odchod	-11.0878
▁sjezd	-11.0882
▁Rozhodn	-11.0883
▁hrdin	-11.0886
▁jmenuje	-11.0889
▁požadovaný	-11.0893
ckého	-11.0899
▁Fotbal	-11.09
▁nehod	-11.0901
▁cestující	-11.0902
celku	-11.0902
▁schéma	-11.0904
▁oblačnost	-11.0906
▁nevěděl	-11.0907
▁jest	-11.0907
▁novinářů	-11.0908
▁Ri	-11.0908
▁dres	-11.0909
▁umělecké	-11.091
▁dividend	-11.0911
▁Jac	-11.0912
▁obsažen	-11.0915
▁pokládá	-11.0916
▁existující	-11.0916
dává	-11.0918
▁Bla	-11.092
▁členům	-11.0922
▁konkrétním	-11.0925
jeli	-11.0925
▁zrušil	-11.0928
kryje	-11.0928
▁urychlen	-11.0928
oji	-11.093
▁svěřen	-11.0932
▁získává	-11.0933
▁nižších	-11.0938
▁zaměřen	-11.0938
▁zaujal	-11.0938
▁Divadl	-11.0939
IST	-11.0939
▁premiéru	-11.0939
skočil	-11.0942
▁provedl	-11.0946
▁ST	-11.0948
▁vytvořen	-11.0949
▁pohyboval	-11.0949
padne	-11.0951
▁zdravotním	-11.0957
▁Mark	-11.0958
▁stupni	-11.0965
▁říkají	-11.0969
▁pozdě	-11.097
▁Bratislava	-11.0972
▁Dříve	-11.0972
▁Nedvěd	-11.0972
▁Ostatní	-11.0972
▁Tigrid	-11.0972
▁charakteristik	-11.0972
▁cizince	-11.0972
▁divadle	-11.0972
▁galerii	-11.0972
▁hlubší	-11.0972
▁kompetence	-11.0972
▁konstatuje	-11.0972
▁literární	-11.0972
▁metropole	-11.0972
▁nejmodernější	-11.0972
▁polojasno	-11.0972
▁požadovat	-11.0972
▁semifinále	-11.0972
▁složek	-11.0972
▁strategií	-11.0972
▁udržuje	-11.0972
▁vyhovuje	-11.0972
▁údolí	-11.0972
▁šablon	-11.0972
▁Majitel	-11.0972
▁nejznámější	-11.0972
▁otevřít	-11.0972
▁počínaj	-11.0972
▁Komerčn	-11.0972
▁poplatek	-11.0972
▁stránky	-11.0972
▁představenstva	-11.0972
▁Jugoslávie	-11.0972
▁Prodej	-11.0972
▁NDR	-11.0972
▁čtvrteční	-11.0972
▁Mimo	-11.0972
▁fotografie	-11.0972
▁nejhorší	-11.0972
▁přijme	-11.0972
▁ekonomická	-11.0972
▁generací	-11.0972
▁malíř	-11.0972
▁chorob	-11.0972
▁radnici	-11.0972
▁vyhnout	-11.0972
▁Začal	-11.0972
▁jezdit	-11.0972
▁nedostatku	-11.0972
▁Marie	-11.0972
▁logické	-11.0972
▁bohatství	-11.0973
▁Ruml	-11.0973
▁dešti	-11.0973
▁nominální	-11.0973
▁uvědomit	-11.0973
▁neděle	-11.0974
▁podobná	-11.0974
▁vyrovnat	-11.0974
▁překvapivě	-11.0975
▁peset	-11.0975
▁přelom	-11.0976
▁předcházející	-11.0976
▁novinách	-11.0977
▁podílet	-11.0977
▁prodejny	-11.0978
▁centimetrů	-11.0978
▁armádě	-11.0978
▁Africe	-11.0979
▁fotbalisté	-11.0979
▁okresy	-11.0979
▁sedí	-11.0979
▁oborech	-11.098
▁položky	-11.098
▁počkat	-11.0981
▁závazky	-11.0981
▁změnám	-11.0982
▁vyjde	-11.0982
▁Maďarsku	-11.0982
▁uvádějí	-11.0982
▁1994.	-11.0983
ité	-11.0983
▁tabulka	-11.0985
▁plánování	-11.0985
▁kvalitou	-11.0986
▁oper	-11.0987
▁nemovitostí	-11.0989
▁dodržování	-11.0989
▁skalní	-11.099
▁Dopravní	-11.0991
▁nevýhod	-11.0992
▁trenérů	-11.0993
▁vozu	-11.0993
▁mládeže	-11.0993
▁seriálu	-11.0995
▁novely	-11.0996
▁vojáci	-11.0996
▁řekne	-11.0997
ika	-11.0997
▁zubní	-11.0999
▁tvarů	-11.1
▁přidat	-11.1
▁zkušební	-11.1001
▁dolů	-11.1001
▁výměnu	-11.1002
▁ocenění	-11.1003
▁menu	-11.1004
▁přijatelné	-11.1005
▁referendum	-11.1005
přijeli	-11.1006
▁Excelu	-11.1007
▁Budou	-11.1008
▁dav	-11.101
▁propojení	-11.1011
▁potravinářské	-11.1012
▁budově	-11.1012
kládá	-11.1016
▁hmotnosti	-11.1017
▁zřízení	-11.1017
▁posílen	-11.1023
▁týdenní	-11.1027
tah	-11.1028
▁Demokratick	-11.1028
▁vystřídal	-11.1032
▁materiálem	-11.1037
▁stadiónu	-11.1037
▁Clinton	-11.1038
▁tvrdil	-11.104
▁podzimní	-11.1043
▁magistrátu	-11.1043
▁vedoucích	-11.1045
▁studenty	-11.1046
▁ředitelem	-11.1047
▁procesoru	-11.1047
▁SV	-11.1051
▁volí	-11.1051
▁hráli	-11.1054
▁známá	-11.1055
▁výhodu	-11.1055
▁básník	-11.1057
ůj	-11.1057
▁zdát	-11.1064
▁lesa	-11.1064
▁hlásí	-11.1066
▁energetický	-11.1068
▁obchodníků	-11.1071
▁narazil	-11.1071
▁žijí	-11.1071
▁Potřebuje	-11.1071
▁alkohol	-11.1073
▁Rok	-11.1074
enství	-11.1075
▁aktivitu	-11.1075
▁krokem	-11.1076
▁Nez	-11.1077
▁par	-11.1078
▁sestavy	-11.1078
▁strávil	-11.1082
▁evropským	-11.1082
▁projevy	-11.1084
▁přehledu	-11.1085
▁zvýšily	-11.1087
▁záměry	-11.1087
▁jugoslávské	-11.1091
▁ranní	-11.1091
▁čínský	-11.1093
▁rozpočtové	-11.1094
kládat	-11.1095
▁odpovědnosti	-11.1096
▁Ši	-11.1098
▁úpravu	-11.1099
▁vloni	-11.1107
▁snadné	-11.1108
▁stávající	-11.1109
▁zavře	-11.111
▁jedenácti	-11.1113
▁starého	-11.1116
▁odešl	-11.112
▁vytvořila	-11.112
▁muselo	-11.1125
▁plocha	-11.1126
▁nos	-11.1126
▁prázdnin	-11.1126
▁podpořit	-11.1127
▁člověku	-11.1127
kan	-11.1129
myslí	-11.1136
▁teplot	-11.1141
pustí	-11.1144
▁syna	-11.1149
▁přírodního	-11.1149
▁rozpad	-11.115
▁taky	-11.1153
▁vlád	-11.1157
▁objevili	-11.1158
▁zvyk	-11.1165
ujícího	-11.1165
▁závody	-11.1171
▁datové	-11.1172
▁procesy	-11.1173
▁stoupá	-11.1174
▁28.	-11.1176
▁Své	-11.1177
ďte	-11.1178
▁testy	-11.1179
▁rozhodnutím	-11.1184
▁ikon	-11.1186
▁předchozím	-11.1188
▁správce	-11.1188
▁odborn	-11.1191
ence	-11.1191
▁působil	-11.1194
árně	-11.1195
lis	-11.1197
▁západním	-11.1201
▁obrazy	-11.1204
▁5000	-11.1207
▁otevře	-11.1208
kovat	-11.121
▁výtvarné	-11.1217
rst	-11.1218
▁Let	-11.1223
▁nezbytn	-11.1223
rob	-11.1228
▁odborník	-11.1229
▁kup	-11.1231
▁hal	-11.1235
▁řek	-11.1243
novými	-11.1244
▁kroku	-11.1245
▁struktur	-11.125
▁významným	-11.1252
▁čtrnácti	-11.1258
▁Svobod	-11.1259
▁nedostal	-11.1269
▁texty	-11.1279
počet	-11.1288
čních	-11.129
▁kg	-11.1292
▁konkrétních	-11.1297
▁jednáních	-11.1297
▁klasick	-11.1298
98	-11.1298
plňuje	-11.13
razil	-11.1304
▁prodejem	-11.1306
▁vědeck	-11.1311
▁sklo	-11.1324
pustit	-11.1324
držel	-11.1327
▁způsobů	-11.1331
▁křiv	-11.1334
▁minulost	-11.1336
▁rovin	-11.1336
▁Kohl	-11.1336
▁fakta	-11.1339
pos	-11.1342
▁náročný	-11.1344
▁prožil	-11.1346
▁spoj	-11.1346
▁Met	-11.1352
▁volebním	-11.1355
▁Fond	-11.1358
▁rozpor	-11.1358
▁Fin	-11.1358
▁stadión	-11.1358
▁okruh	-11.1359
12	-11.1362
af	-11.1363
▁260	-11.1364
▁vyskytují	-11.1368
▁sedmdesát	-11.1372
▁druhému	-11.1373
dní	-11.1377
▁grafik	-11.1378
▁zaměření	-11.138
▁svobodné	-11.1386
tají	-11.1387
řazen	-11.1388
▁seminář	-11.1388
kombin	-11.1388
▁způsoben	-11.1389
▁park	-11.1393
▁každoročn	-11.1397
níky	-11.1398
▁debat	-11.1398
▁převážn	-11.14
▁svazové	-11.1401
▁zmíněn	-11.1401
▁Správ	-11.1402
▁stole	-11.1402
▁vrstev	-11.1403
▁mikro	-11.1404
álně	-11.1407
▁myšlenka	-11.1408
jmout	-11.141
▁uspořádal	-11.1411
▁Ste	-11.1412
▁Tur	-11.1414
▁polské	-11.1418
▁Graf	-11.1419
▁zpěv	-11.1424
▁probíhal	-11.1426
▁Grand	-11.1426
▁stíhán	-11.1426
▁1982	-11.1426
▁Armád	-11.1426
▁Dienstbier	-11.1426
▁Dosavadní	-11.1426
▁Fischer	-11.1426
▁Siemens	-11.1426
▁družstvo	-11.1426
▁družstvu	-11.1426
▁geometrii	-11.1426
▁inflaci	-11.1426
▁konstrukcí	-11.1426
▁naznačuje	-11.1426
▁normálně	-11.1426
▁regenerace	-11.1426
▁rekonstrukce	-11.1426
▁rozšiřuje	-11.1426
▁seznámit	-11.1426
▁shodují	-11.1426
▁skupenství	-11.1426
▁službě	-11.1426
▁stránku	-11.1426
▁vstupenek	-11.1426
▁zúčastnit	-11.1426
▁čistíren	-11.1426
▁Štědrý	-11.1426
▁Bavor	-11.1426
▁Poldi	-11.1426
▁uznat	-11.1426
▁nabídkou	-11.1426
▁žádat	-11.1426
▁Manžel	-11.1426
▁dodávek	-11.1426
▁Skupina	-11.1426
▁integrace	-11.1426
▁Dušan	-11.1426
▁Slavia	-11.1426
▁posléze	-11.1426
▁směřuje	-11.1426
▁duševní	-11.1427
▁Náklady	-11.1427
▁salát	-11.1427
▁rámečku	-11.1427
▁spoléha	-11.1427
▁rozmístěn	-11.1427
▁prezidentský	-11.1427
▁transformační	-11.1427
▁nesporn	-11.1427
▁regulační	-11.1427
▁Rozhodnutí	-11.1427
▁jindy	-11.1428
▁turné	-11.1428
▁podrobnosti	-11.1428
▁napaden	-11.1428
▁slunce	-11.1428
▁nedošlo	-11.1428
▁informován	-11.1428
▁přejít	-11.1428
jedno	-11.1428
▁usiluje	-11.1428
▁atmosféra	-11.1428
▁památek	-11.1429
▁přiznává	-11.1429
▁Varech	-11.1429
▁Bělohradský	-11.1429
▁Milán	-11.143
▁Těžko	-11.1431
ukce	-11.1432
▁matka	-11.1433
▁souhlasit	-11.1434
▁literatury	-11.1434
▁kůže	-11.1434
▁zajistí	-11.1435
▁středisko	-11.1436
▁Nadace	-11.1436
▁sedimentů	-11.1436
▁pravděpodobné	-11.1436
▁plná	-11.1439
▁nejsem	-11.144
▁dokázat	-11.144
▁anglický	-11.144
▁kdykoliv	-11.144
▁pěkně	-11.144
▁sedmdesátých	-11.1441
▁spojů	-11.1441
▁velvyslanectví	-11.1441
ckner	-11.1442
▁armádu	-11.1444
▁upozornění	-11.1444
▁zveřejnění	-11.1445
▁olympiádě	-11.1446
▁šedesátých	-11.1446
▁moři	-11.1447
▁závažné	-11.1447
▁středisku	-11.1447
▁zaslouží	-11.1447
▁švédské	-11.1449
▁dotazník	-11.1449
▁sféry	-11.1452
▁platné	-11.1452
▁univerzitě	-11.1452
▁fotbalista	-11.1452
▁2,	-11.1454
▁záruky	-11.1454
▁neuspěl	-11.1454
▁slibuje	-11.1455
▁interní	-11.1456
▁Mečiar	-11.1457
▁uživatelé	-11.1458
▁luxusní	-11.1458
▁postupovat	-11.1458
▁dostaneme	-11.1459
▁zbytky	-11.1459
▁zničení	-11.1461
▁nešlo	-11.1464
▁přijímá	-11.1466
▁samy	-11.1466
▁činů	-11.1466
▁Úřad	-11.1468
▁směn	-11.1468
▁složitý	-11.1468
▁faktory	-11.1468
▁smluv	-11.1468
▁Fotbalist	-11.1469
▁ohrožen	-11.147
▁zuby	-11.147
▁olympiády	-11.1471
▁senátní	-11.1472
▁spojuje	-11.1473
▁zásadě	-11.1474
▁horské	-11.1475
▁příspěvku	-11.1475
▁rozhovorů	-11.1475
platit	-11.1476
▁mise	-11.1477
▁popisuje	-11.1478
▁výstavní	-11.1478
▁zodpovědnost	-11.1481
▁náhlé	-11.1482
▁tlakem	-11.1482
lob	-11.1482
▁hrou	-11.1484
▁vládnoucí	-11.1485
například	-11.1485
▁argumenty	-11.1486
▁Mc	-11.1487
▁metodou	-11.1489
▁dividendy	-11.1491
▁měří	-11.1491
▁zprávě	-11.1493
▁klienty	-11.1495
▁alkoholu	-11.1497
▁hus	-11.1497
▁proudu	-11.1498
brat	-11.1499
▁množstvím	-11.1499
zákon	-11.1499
▁automobilový	-11.1501
▁stopy	-11.1501
platí	-11.1504
▁pacienti	-11.1505
▁Asie	-11.1507
▁silným	-11.151
▁doklady	-11.1512
▁Mí	-11.1513
▁Změny	-11.1515
▁přím	-11.1516
▁Ad	-11.1516
▁mateřské	-11.1517
▁nutnosti	-11.1517
▁strategické	-11.1519
▁úspěchem	-11.1523
rum	-11.1523
▁výnosy	-11.1524
danou	-11.1535
▁obory	-11.1535
▁klíčové	-11.1536
▁Lékaři	-11.1537
age	-11.1538
▁nastala	-11.1541
▁překlad	-11.1542
▁prohráli	-11.1546
▁Případ	-11.1548
▁městského	-11.155
▁tělesné	-11.155
▁kapacit	-11.155
▁propadl	-11.1551
▁reáln	-11.1556
▁potřebn	-11.1556
▁vlak	-11.1558
▁slovem	-11.1559
jasn	-11.1559
▁stě	-11.1561
▁Rozhod	-11.157
▁přirozený	-11.157
▁tvrdý	-11.157
:3	-11.157
▁republikou	-11.1571
enc	-11.1571
▁přípravu	-11.1577
iner	-11.1578
▁motor	-11.158
▁příslušného	-11.1581
▁trvání	-11.1584
▁DO	-11.1584
▁proud	-11.1586
▁manažerské	-11.159
▁pojistného	-11.1591
▁minutě	-11.1593
▁pochyb	-11.1594
hav	-11.1597
▁podepsali	-11.1597
▁garant	-11.16
▁efektu	-11.1602
▁pracující	-11.1604
▁tenisové	-11.1604
▁závěrečném	-11.1605
▁Vítěz	-11.1607
▁zahájením	-11.1608
▁daních	-11.1608
▁nadcházející	-11.161
▁mal	-11.1615
AM	-11.1617
▁připraveny	-11.1621
▁souboj	-11.1623
▁podlehl	-11.1628
▁značná	-11.1637
▁1996	-11.1638
tažení	-11.1639
▁získaný	-11.1647
▁návrhem	-11.1649
▁kontrolovat	-11.1651
CD	-11.1651
▁úspěchy	-11.1653
splnění	-11.1656
▁závodník	-11.1658
kázal	-11.1666
▁0,	-11.167
ička	-11.1676
▁propad	-11.1678
▁orgán	-11.1683
▁poradensk	-11.1684
▁dluh	-11.1687
▁led	-11.169
▁kont	-11.1695
▁argument	-11.1695
▁red	-11.1697
▁jinému	-11.1701
NO	-11.1701
▁pís	-11.1704
▁známým	-11.1707
▁nejúspěšnější	-11.1707
ávat	-11.1707
▁takovému	-11.1712
▁fyzika	-11.1714
▁ekonomického	-11.1718
▁obvod	-11.172
▁univerzit	-11.1729
▁kroků	-11.1731
▁volb	-11.1737
▁nějakém	-11.1737
▁nemohla	-11.1738
IC	-11.1738
▁žil	-11.1741
▁Podstatn	-11.1746
▁původ	-11.1748
▁toku	-11.1749
▁malým	-11.1768
▁bariér	-11.1769
▁Poslanec	-11.1771
▁Nemoh	-11.1771
▁Karadžiče	-11.1777
▁studoval	-11.1778
▁dvoj	-11.1779
chází	-11.1785
▁zvláštním	-11.1788
gel	-11.1788
▁personál	-11.1795
▁zastoupen	-11.1802
▁samot	-11.1802
▁Srbsk	-11.1802
▁obal	-11.1803
▁Tomu	-11.1809
▁útočník	-11.1812
▁dosah	-11.1812
▁loňsk	-11.1812
bírá	-11.1814
▁kapitálové	-11.1816
▁900	-11.1816
▁No	-11.1818
▁dosavadních	-11.1819
▁Her	-11.182
▁př	-11.1821
▁Kar	-11.1827
▁svobodný	-11.1827
▁důvěry	-11.183
▁úprava	-11.1831
▁aktivita	-11.1831
▁plném	-11.1832
▁Chip	-11.1832
▁pokrok	-11.1833
ša	-11.1835
oucí	-11.1835
▁Washington	-11.1835
ezi	-11.1838
▁prestiž	-11.1843
▁nechá	-11.1843
▁důsledk	-11.1847
hruba	-11.1848
jel	-11.1848
isté	-11.1849
▁balík	-11.185
▁priorit	-11.1851
▁jakými	-11.1852
▁ekologick	-11.1853
▁užívá	-11.186
▁všemu	-11.1865
eta	-11.1867
mor	-11.1871
▁trvající	-11.1872
ozi	-11.1874
▁sbor	-11.1875
▁zaměstnanec	-11.1876
ňuje	-11.1878
▁Věřím	-11.188
▁Paříž	-11.1884
▁Objekt	-11.1884
▁pre	-11.1884
dnes	-11.1885
ues	-11.1885
▁dokončen	-11.1887
žení	-11.1892
▁stavbě	-11.1892
áni	-11.1894
▁Hra	-11.1896
nejvýš	-11.1896
ŘÍ	-11.1896
ačtyřicet	-11.1899
▁zas	-11.1901
▁Zálež	-11.1902
stává	-11.1902
▁Jindřich	-11.1903
▁Michail	-11.1903
▁aplikaci	-11.1903
▁důležitou	-11.1903
▁kanalizace	-11.1903
▁kariéru	-11.1903
▁komunistů	-11.1903
▁lehké	-11.1903
▁obrátit	-11.1903
▁ovlivnit	-11.1903
▁přirozeně	-11.1903
▁referenda	-11.1903
▁snižovat	-11.1903
▁stupeň	-11.1903
▁svědky	-11.1903
▁ubytovací	-11.1903
▁výpovědi	-11.1903
▁zneužití	-11.1903
▁jedinců	-11.1903
▁přírodu	-11.1903
▁válku	-11.1903
▁podmínkám	-11.1903
▁zbaven	-11.1903
▁Boyle	-11.1903
▁budoucna	-11.1903
▁administrativní	-11.1903
▁týče	-11.1903
▁Kreslení	-11.1903
▁antropologie	-11.1903
▁fosilní	-11.1903
▁kombinace	-11.1903
▁hokejisté	-11.1903
▁přivezl	-11.1903
▁zkrátka	-11.1903
▁smečky	-11.1903
▁češtině	-11.1903
▁dívat	-11.1903
▁dostupné	-11.1903
▁příjezd	-11.1903
▁stavět	-11.1903
▁prapor	-11.1903
▁nezmění	-11.1903
▁staletí	-11.1903
▁Intel	-11.1903
▁Optima	-11.1903
▁nezbývá	-11.1903
▁ocenil	-11.1903
▁nohou	-11.1903
▁Zdeňk	-11.1904
▁Minul	-11.1904
▁1980	-11.1904
▁zázrak	-11.1904
▁psů	-11.1904
▁ligový	-11.1904
▁nápln	-11.1904
▁Říká	-11.1905
▁Příští	-11.1905
▁vítr	-11.1905
▁Konec	-11.1905
▁matky	-11.1905
▁jídla	-11.1906
násob	-11.1906
▁varování	-11.1906
▁kontrakt	-11.1906
▁solidní	-11.1907
▁Karpov	-11.1907
▁Ci	-11.1908
konců	-11.1908
▁vyměnit	-11.1908
▁hlasovat	-11.1908
▁setkáváme	-11.1908
▁převést	-11.1909
▁ráj	-11.191
▁etapě	-11.191
▁vašem	-11.191
▁chybět	-11.191
▁Atlantiku	-11.1911
▁kontinentu	-11.1911
▁znečištění	-11.1911
▁stavba	-11.1911
▁EU	-11.1912
▁výraznější	-11.1913
▁vystoupí	-11.1915
▁chuť	-11.1915
▁vyřešen	-11.1916
▁komu	-11.1917
▁vojáky	-11.1919
▁knížky	-11.1919
▁vítěze	-11.1919
▁liberální	-11.1919
▁Říman	-11.192
▁Španělska	-11.1921
pir	-11.1922
▁povahy	-11.1922
▁Belgii	-11.1923
▁kanálů	-11.1924
▁osnov	-11.1924
▁rizik	-11.1924
▁uvedli	-11.1925
▁logicky	-11.1925
▁tržby	-11.1925
▁částkou	-11.1926
▁vybudování	-11.1927
▁detailní	-11.1927
▁sektor	-11.1929
▁uvolnění	-11.1929
▁oken	-11.193
und	-11.193
▁učení	-11.1931
▁podobným	-11.1932
▁CS	-11.1933
▁současným	-11.1933
▁zvládnout	-11.1935
místě	-11.1935
umět	-11.1936
▁expertů	-11.1937
▁fin	-11.1937
▁uzavřena	-11.1938
▁kořeny	-11.194
▁čistě	-11.1941
▁Mag	-11.1941
▁volbou	-11.1942
▁kapacitou	-11.1942
▁KDU	-11.1942
▁Blízké	-11.1942
tivní	-11.1943
▁subjektů	-11.1943
▁krevní	-11.1944
lap	-11.1945
▁starostí	-11.1946
▁Bank	-11.1947
ždyť	-11.1947
▁uchazečů	-11.1948
pot	-11.1949
▁mzda	-11.1949
▁Maďarsko	-11.1951
▁krajní	-11.1951
▁Voda	-11.1952
▁arabské	-11.1952
yl	-11.1953
▁vyšla	-11.1953
▁nemocí	-11.1955
▁úseku	-11.1956
▁sloužil	-11.1956
▁Kam	-11.1956
▁zpětn	-11.1958
▁příznivců	-11.1958
▁play	-11.196
▁prestižní	-11.1963
▁průměrně	-11.1964
▁Výrob	-11.1965
▁Předpokládá	-11.1967
▁Vesmíru	-11.1968
▁okraji	-11.1971
▁strukturu	-11.1975
▁Ex	-11.1983
▁lék	-11.1984
▁brněnsk	-11.1985
▁sval	-11.1986
▁mechaniku	-11.1986
pit	-11.1988
tisknout	-11.1991
▁oceněn	-11.1991
▁2,5	-11.1992
cházejí	-11.1992
▁krásné	-11.1995
ějším	-11.1996
▁zásahu	-11.1996
▁Mel	-11.1997
▁obchodě	-11.1997
▁učí	-11.2
▁37	-11.2003
▁mozkov	-11.2006
▁ekonom	-11.2007
▁hosty	-11.2007
hraje	-11.2009
▁veškerý	-11.2011
▁právem	-11.2014
▁vytvořili	-11.2014
▁vlastními	-11.2015
▁Fo	-11.2016
stu	-11.202
▁počítačov	-11.2021
▁manažerů	-11.2021
▁elektronické	-11.2023
▁zadní	-11.2024
▁německým	-11.2027
▁projevu	-11.2029
▁tvary	-11.203
▁turnaji	-11.2031
▁páteční	-11.2042
▁vedly	-11.2042
▁záznamové	-11.2043
▁obhájce	-11.2045
▁přesný	-11.2046
rok	-11.2047
▁přijali	-11.2048
▁dějiny	-11.2052
▁slabý	-11.2053
▁div	-11.2053
šování	-11.2053
▁Pe	-11.2055
▁dvojnásobn	-11.2056
▁ztratila	-11.2057
▁náhod	-11.2057
▁350	-11.2058
▁maďarské	-11.206
PS	-11.206
cení	-11.2062
▁vyh	-11.2062
▁komentář	-11.2065
▁Masarykov	-11.2069
poví	-11.207
dáme	-11.207
▁relativní	-11.2072
místo	-11.2072
▁HZDS	-11.2073
▁politicky	-11.2073
▁uváděn	-11.2074
věřit	-11.2077
▁Per	-11.2078
▁rud	-11.2081
▁most	-11.2082
▁majitelů	-11.2085
▁vydala	-11.2087
▁pr	-11.209
vání	-11.2091
▁asistent	-11.2091
▁Host	-11.2094
▁poměry	-11.2095
tvo	-11.2096
▁získáva	-11.2101
ičtější	-11.2105
▁22.	-11.2106
nský	-11.2106
▁Kla	-11.2108
▁vodě	-11.211
tedy	-11.211
▁hotové	-11.2115
▁jednal	-11.2117
▁Husov	-11.2118
▁horský	-11.2118
lín	-11.2119
▁vítězů	-11.212
řejmě	-11.2121
bývalo	-11.2127
▁občana	-11.2129
bude	-11.2135
▁automatické	-11.2142
▁předání	-11.2143
ovanou	-11.2143
▁elektronický	-11.2144
metr	-11.2163
art	-11.2166
▁kontaktu	-11.217
▁zabit	-11.2174
znamenat	-11.2178
▁obyčejný	-11.2179
padla	-11.2179
▁spotřebitel	-11.2185
▁potvrdila	-11.2185
▁zločin	-11.2185
▁atomové	-11.2188
▁témata	-11.2191
▁významně	-11.2191
▁nájem	-11.2193
▁ran	-11.2196
▁historické	-11.2199
▁jednotné	-11.2199
▁dával	-11.22
▁1500	-11.22
▁kritický	-11.22
▁čištění	-11.2203
▁trans	-11.2203
ívají	-11.2205
▁mís	-11.2216
VI	-11.2225
▁dle	-11.2227
▁Staré	-11.2231
har	-11.2234
utí	-11.2234
▁vět	-11.2235
dejme	-11.2236
▁stanovené	-11.2244
▁jednotlivým	-11.2247
valy	-11.2252
řádně	-11.2253
▁otevřený	-11.2258
▁cenové	-11.2259
▁kostel	-11.2259
▁budova	-11.226
▁přesné	-11.2265
eny	-11.2272
▁následujícím	-11.2273
trh	-11.2274
UJE	-11.2277
▁kolektiv	-11.228
▁jugoslávsk	-11.2281
prázdn	-11.2283
▁týmů	-11.2286
▁jejími	-11.2287
▁kolech	-11.229
▁ledový	-11.2294
nského	-11.2294
▁image	-11.2301
▁Týr	-11.2303
▁královn	-11.2303
▁arabský	-11.2303
▁ocitl	-11.2303
nce	-11.2307
▁klesl	-11.2307
▁Výš	-11.2312
ino	-11.2312
▁výprav	-11.2314
CO	-11.2316
▁mandát	-11.2317
▁moravské	-11.2317
▁dolar	-11.2321
čil	-11.2323
▁ráda	-11.2325
▁pouští	-11.2329
▁zemědělců	-11.233
▁akcionářů	-11.233
▁zdanění	-11.2333
▁index	-11.2333
▁Pražsk	-11.2333
▁Kazachstán	-11.2334
hradit	-11.2335
▁Svaz	-11.2335
▁certifikát	-11.2338
▁Izraelsk	-11.2338
▁intenzit	-11.234
▁rakovin	-11.2341
▁týkají	-11.2345
▁nejlepšího	-11.2346
▁spodní	-11.2348
▁předběžn	-11.2349
ložili	-11.2352
▁mluvil	-11.2357
▁vývojem	-11.2359
▁99	-11.2359
▁OD	-11.2362
▁Mal	-11.2363
▁blíží	-11.2363
▁odpovídají	-11.2363
▁sponzor	-11.2364
▁prst	-11.2364
▁jih	-11.2364
▁medaili	-11.2368
▁sportovním	-11.237
▁akciov	-11.237
▁Dokon	-11.2371
▁kabel	-11.2371
▁publikován	-11.2373
pad	-11.2374
▁vzniklé	-11.2376
▁zachoval	-11.2377
▁komunismu	-11.2379
ins	-11.238
▁hrálo	-11.2382
▁Konce	-11.2383
dom	-11.2385
▁Bor	-11.2389
nutit	-11.2389
▁opravu	-11.2392
▁Závěr	-11.2394
▁výkonnost	-11.2395
▁Klepn	-11.2401
▁dlouhodobě	-11.2402
olicejní	-11.2402
peptid	-11.2403
▁Doufám	-11.2403
▁Mostaru	-11.2403
▁Výjimk	-11.2403
▁Výsledek	-11.2403
▁Wembley	-11.2403
▁anonymní	-11.2403
▁cizinců	-11.2403
▁definovat	-11.2403
▁dětmi	-11.2403
▁humanitární	-11.2403
▁intenzivně	-11.2403
▁komisí	-11.2403
▁království	-11.2403
▁lhůty	-11.2403
▁mobilní	-11.2403
▁nabídnut	-11.2403
▁nepatří	-11.2403
▁otázkách	-11.2403
▁připomenout	-11.2403
▁revoluce	-11.2403
▁sankce	-11.2403
▁skener	-11.2403
▁srpnu	-11.2403
▁uhličitého	-11.2403
▁umístit	-11.2403
▁upozorňují	-11.2403
▁veřejnou	-11.2403
▁zdravotně	-11.2403
▁Komora	-11.2403
▁Názor	-11.2403
▁pozemků	-11.2403
▁pátý	-11.2403
▁stačit	-11.2403
▁série	-11.2403
▁řekněme	-11.2403
skočit	-11.2403
▁týdnu	-11.2403
▁užitečné	-11.2403
▁vyhověl	-11.2403
▁Ústí	-11.2403
▁Prahu	-11.2403
▁projednávání	-11.2403
▁tvůrčí	-11.2403
▁audio	-11.2403
▁obránce	-11.2403
▁shluk	-11.2403
▁turisté	-11.2403
▁letišti	-11.2403
▁zážitek	-11.2403
▁modernizaci	-11.2403
▁sportovci	-11.2403
▁nebrání	-11.2403
▁vykonávat	-11.2403
▁Bohemia	-11.2403
▁zaslal	-11.2403
▁minimum	-11.2403
▁kostým	-11.2403
ill	-11.2403
▁karet	-11.2403
▁realizaci	-11.2403
▁proběhla	-11.2403
▁sleduje	-11.2403
▁1948	-11.2403
▁HGF	-11.2403
▁emise	-11.2403
▁převzetí	-11.2403
▁zajistil	-11.2403
▁evidenci	-11.2403
▁Chang	-11.2403
▁léčení	-11.2404
▁tmav	-11.2404
▁cítit	-11.2404
▁dvojnásobek	-11.2404
▁atmosféru	-11.2404
▁experimentální	-11.2404
▁videa	-11.2404
▁půjčky	-11.2404
▁rozdělit	-11.2404
▁přestane	-11.2405
▁ČZ	-11.2405
▁ošetření	-11.2405
▁očima	-11.2405
NI	-11.2406
▁Ukázal	-11.2406
▁venku	-11.2407
▁ušetří	-11.2407
▁prosím	-11.2407
▁potřebovat	-11.2407
▁Poborského	-11.2407
▁tabulku	-11.2407
▁nahoru	-11.2408
▁dovoluje	-11.2408
▁nechci	-11.2408
▁nádor	-11.241
sty	-11.241
▁potravy	-11.2411
▁čelní	-11.2411
▁běže	-11.2413
▁podruhé	-11.2413
dělování	-11.2414
▁výrobku	-11.2415
▁Pojišťovna	-11.2415
▁centrem	-11.2416
▁stěžují	-11.2416
▁prvek	-11.2416
▁ostrovů	-11.2416
▁stanov	-11.2418
▁vycházet	-11.2419
▁policisty	-11.242
▁odměny	-11.242
▁používal	-11.2421
atel	-11.2422
▁architektury	-11.2423
▁prostorách	-11.2423
▁přišly	-11.2423
▁chybu	-11.2425
▁voliči	-11.2426
68	-11.2426
▁Důvodem	-11.2427
▁technikou	-11.2428
▁národnostní	-11.2429
▁prodejně	-11.243
▁případný	-11.2431
▁užitku	-11.2434
▁Mac	-11.2434
▁volit	-11.2435
▁Lab	-11.2435
▁reklamní	-11.2435
▁problematiku	-11.2437
▁stížnosti	-11.2438
▁Švédsku	-11.2438
ust	-11.2439
▁Seznam	-11.244
▁kontrolou	-11.244
dni	-11.2441
▁biologick	-11.2442
▁semináře	-11.2442
▁způsobit	-11.2443
▁Smlouva	-11.2443
▁změnách	-11.2444
▁podoby	-11.2444
▁plní	-11.2445
▁novela	-11.2445
rab	-11.2446
▁Olomouce	-11.2447
▁opravě	-11.2449
▁vlastníkem	-11.245
▁Film	-11.2451
▁sehnat	-11.2454
▁posil	-11.2459
▁chladu	-11.246
▁dělníků	-11.246
▁vybere	-11.2461
▁Lig	-11.2462
▁naprosté	-11.2462
▁elektrický	-11.2468
▁Er	-11.2471
▁požadavkům	-11.2471
▁Chorvat	-11.2471
▁vstupuje	-11.2472
▁rozhovory	-11.2474
▁kruhy	-11.2476
▁rozpadu	-11.248
▁stráž	-11.2482
vádějí	-11.2485
▁vzdal	-11.2485
▁novinářům	-11.2488
▁pracujících	-11.2488
▁rostliny	-11.2488
▁světu	-11.2489
▁43	-11.2489
▁Tým	-11.2489
stanou	-11.249
teče	-11.249
▁125	-11.2492
▁vydělal	-11.2493
▁stromy	-11.2494
PT	-11.2495
▁ducha	-11.2495
▁šíří	-11.2496
▁nevíme	-11.2496
▁udělali	-11.2498
ork	-11.2498
▁lize	-11.2499
▁hovořili	-11.2499
▁krav	-11.2503
▁úmyslu	-11.2503
▁Kup	-11.2504
▁ústavů	-11.2505
▁potenciálu	-11.2507
▁geny	-11.2509
▁stříbrné	-11.2511
▁plnit	-11.2511
▁Nobelov	-11.2512
▁rodné	-11.2514
▁hlasu	-11.2516
▁mistry	-11.2517
▁26.	-11.2517
▁klubem	-11.2517
NC	-11.2518
nc	-11.2518
▁procesů	-11.2519
▁ostravské	-11.2519
▁rozhodlo	-11.2519
▁závěrečný	-11.2524
níků	-11.2525
▁plochu	-11.253
kový	-11.253
▁SD	-11.2531
▁položil	-11.2535
▁komora	-11.2536
▁výkladu	-11.2539
▁deníku	-11.2541
sté	-11.2541
▁šestnácti	-11.2542
▁skvělé	-11.2546
▁vycházel	-11.255
▁věta	-11.2551
▁obranné	-11.2553
▁pověřen	-11.2555
čel	-11.2558
tito	-11.256
pracovat	-11.2561
ickým	-11.2562
▁činila	-11.2564
elů	-11.2564
▁kovy	-11.2565
▁papíry	-11.2565
▁27.	-11.2568
▁obdiv	-11.2571
tický	-11.2573
▁soupeřů	-11.2575
▁efekty	-11.2577
▁jednoznačný	-11.258
▁LDS	-11.2582
▁zvyšovat	-11.2582
▁MHz	-11.2582
▁El	-11.2582
,7	-11.2583
▁telefony	-11.2586
▁pocity	-11.2593
▁Kdybych	-11.2594
▁Řekl	-11.2603
▁jdou	-11.2603
▁Egypt	-11.2607
ovaným	-11.2611
▁Mé	-11.2616
▁tvrd	-11.2617
ola	-11.2622
▁vážný	-11.2626
▁smí	-11.263
poloviční	-11.2631
psané	-11.2633
▁výhodn	-11.2634
▁24.	-11.2634
▁kilometr	-11.2638
procentní	-11.2642
▁nutný	-11.2643
▁přírodověd	-11.2645
▁dělal	-11.2648
▁budoucího	-11.2652
vedli	-11.2652
▁Japonsko	-11.2652
volal	-11.2655
počítá	-11.2656
▁procenty	-11.2656
▁podnikatelům	-11.266
▁vyhráli	-11.2661
▁hostů	-11.2663
▁tvůrce	-11.2663
▁sloup	-11.2665
▁Turist	-11.2669
polí	-11.267
▁Večer	-11.2675
▁As	-11.2675
▁katolick	-11.2678
▁Plat	-11.2683
▁naléhav	-11.2683
jem	-11.2686
dají	-11.2688
US	-11.269
jednat	-11.2692
ng	-11.2692
▁bohatý	-11.2693
▁komor	-11.2693
hlásí	-11.2693
▁popsán	-11.2693
VÍ	-11.2699
▁Text	-11.2701
▁vtip	-11.2702
▁chemie	-11.2702
AD	-11.2702
▁okraj	-11.2704
zoval	-11.2704
▁vydá	-11.2704
měř	-11.2708
▁pozornosti	-11.2709
▁obává	-11.2711
▁zákonu	-11.2713
žijí	-11.2727
▁zákoně	-11.2728
▁soupeři	-11.2731
▁agentur	-11.2735
▁prodá	-11.2735
▁nep	-11.2736
▁postupů	-11.274
▁vyv	-11.2746
projevilo	-11.2749
▁odmítla	-11.2749
nete	-11.275
▁Západ	-11.2751
měnit	-11.2756
▁gigant	-11.2757
▁komplex	-11.2758
▁průmyslov	-11.2761
▁běžn	-11.2764
dová	-11.2769
▁napadl	-11.2771
ohledně	-11.2774
era	-11.2777
▁konzervativní	-11.2784
▁disket	-11.2785
▁Světov	-11.279
▁duch	-11.2793
▁Pre	-11.2794
vel	-11.2795
▁fotograf	-11.2797
▁následuj	-11.2801
krytí	-11.2801
nder	-11.2802
▁stolu	-11.2803
end	-11.2804
▁zřízen	-11.2806
▁Všeobecn	-11.2808
▁rusk	-11.2809
▁stálé	-11.2812
▁Zlín	-11.2812
▁výběrové	-11.2815
▁vojsk	-11.2828
▁produktivit	-11.283
▁Argentin	-11.2832
▁mini	-11.2835
▁izraelský	-11.2836
▁nezná	-11.2841
▁budování	-11.2844
▁Sta	-11.2844
▁mém	-11.2845
▁odpovědn	-11.2846
nin	-11.2849
níku	-11.2851
▁Miloše	-11.2853
▁Svat	-11.2854
▁požadavků	-11.2857
▁nejvyšších	-11.2858
▁of	-11.286
▁aparát	-11.286
▁veletrh	-11.2861
▁císař	-11.2861
▁potrestán	-11.2863
▁Gr	-11.2864
▁účinnost	-11.2865
pin	-11.2865
▁cigaret	-11.2866
▁Rád	-11.2866
▁rozbor	-11.2866
▁bílkovin	-11.2867
▁dodavatele	-11.2867
cvič	-11.2868
ině	-11.2869
▁tank	-11.2873
▁vyžadují	-11.2876
▁nebe	-11.2886
▁jednorázov	-11.2887
nos	-11.2897
▁Angličan	-11.29
▁spoluhráč	-11.2901
▁Důvod	-11.2903
▁Zemanov	-11.2903
▁vytvářejí	-11.2905
part	-11.2905
dpověď	-11.2907
▁Projekt	-11.2907
alternativ	-11.2908
▁Zda	-11.2909
▁kondom	-11.2913
▁otevírá	-11.2917
▁červen	-11.2918
▁prud	-11.2921
stické	-11.2925
▁Španěl	-11.2927
▁Weizs	-11.2929
▁Jednotliv	-11.2929
▁Lubomír	-11.2929
▁Náměst	-11.2929
▁cizinci	-11.2929
▁cizině	-11.2929
▁deklarace	-11.2929
▁kmitočt	-11.2929
▁komunisté	-11.2929
▁lístky	-11.2929
▁medailí	-11.2929
▁ministerstev	-11.2929
▁nemožné	-11.2929
▁nečekaně	-11.2929
▁opozici	-11.2929
▁redakci	-11.2929
▁restituční	-11.2929
▁stadia	-11.2929
▁struktuře	-11.2929
▁uspokojení	-11.2929
▁výkyvy	-11.2929
▁zlepšit	-11.2929
▁zúčastní	-11.2929
▁letadlo	-11.2929
▁minerální	-11.2929
▁nahrazen	-11.2929
▁válkou	-11.2929
▁Benešov	-11.2929
▁potrvá	-11.2929
▁pozemky	-11.2929
▁jídlo	-11.2929
▁ovládat	-11.2929
▁zahájí	-11.2929
▁jedinci	-11.2929
▁licence	-11.2929
▁čáry	-11.2929
▁Antonín	-11.2929
▁umístil	-11.2929
▁vyrábějí	-11.2929
▁návštěvníci	-11.2929
▁Dvořák	-11.2929
▁nebudu	-11.2929
▁nejsilnější	-11.2929
▁Něco	-11.2929
▁odvozen	-11.2929
▁kůži	-11.2929
▁Mazdy	-11.2929
▁ČSAV	-11.2929
▁nestalo	-11.2929
▁tisíciletí	-11.2929
▁dopředu	-11.2929
▁koncentrací	-11.2929
▁informovat	-11.2929
▁USD	-11.2929
▁Maastrichtu	-11.2929
▁léčba	-11.2929
▁Schneider	-11.2929
▁Krkonoších	-11.2929
▁úkor	-11.293
▁vyloučit	-11.293
▁vracejí	-11.293
▁setkat	-11.293
▁tempo	-11.293
lákat	-11.2931
▁Val	-11.2931
▁zkoušky	-11.2931
▁užívat	-11.2932
▁mikroorganismů	-11.2932
▁oživení	-11.2932
oma	-11.2932
▁základnu	-11.2932
padal	-11.2932
▁kancléř	-11.2933
▁chybějící	-11.2933
▁vykazuje	-11.2933
▁vydělat	-11.2933
▁Nesmí	-11.2933
▁náročnější	-11.2934
bydlí	-11.2934
▁spánku	-11.2935
LU	-11.2935
▁odškodnění	-11.2935
▁závazků	-11.2935
▁SNS	-11.2936
▁svatební	-11.2936
▁víno	-11.2936
▁přeháňky	-11.2937
▁odmítnout	-11.2937
▁rozhodujícím	-11.2938
▁rozhodnuto	-11.2938
▁absurdní	-11.2938
▁hlavě	-11.2939
▁Hrad	-11.294
▁posouzení	-11.294
▁nemění	-11.2941
▁linek	-11.2942
▁doplnit	-11.2943
▁vidění	-11.2943
▁Chorvatsko	-11.2943
▁Los	-11.2943
instalovat	-11.2943
▁vyšetřovací	-11.2943
▁Situace	-11.2944
▁ukládat	-11.2944
▁zájezdy	-11.2944
▁varoval	-11.2945
▁výpočet	-11.2945
▁řádek	-11.2946
▁měřítku	-11.2946
▁Polsku	-11.2947
▁mírou	-11.2948
▁vztahuje	-11.2948
▁tiskárna	-11.295
▁letoun	-11.295
▁popsat	-11.295
▁Ří	-11.295
▁vybral	-11.2951
▁kartě	-11.2951
▁islámské	-11.2951
▁myslíte	-11.2953
▁městská	-11.2953
▁různá	-11.2954
▁Bójů	-11.2954
▁spokojenosti	-11.2956
▁genů	-11.2956
▁boku	-11.2956
▁rána	-11.2958
▁jádra	-11.296
▁Slovinska	-11.2963
staral	-11.2964
▁kádru	-11.2964
▁Věr	-11.2964
▁terénu	-11.2964
▁pracovním	-11.2966
▁údržbu	-11.2968
▁matematiky	-11.2968
▁hovoru	-11.2969
▁kdybychom	-11.2969
▁porušil	-11.2969
▁Kole	-11.2969
▁tuzemských	-11.297
▁subjekty	-11.2972
stával	-11.2973
▁hit	-11.2974
▁Váš	-11.2977
▁stačilo	-11.2978
▁vyplývající	-11.2978
▁Japonska	-11.2979
▁kanálu	-11.298
▁partnerem	-11.2981
▁nalezení	-11.2982
▁zadání	-11.2984
▁fyziku	-11.2985
▁radu	-11.2988
krátko	-11.2991
▁záložník	-11.2992
letěl	-11.2993
▁ruchu	-11.2994
▁délku	-11.2995
▁účastníky	-11.2998
▁zlata	-11.2998
yplývá	-11.2998
▁hranicích	-11.2998
▁slovník	-11.2999
▁teoretické	-11.3
rád	-11.3005
▁stiskn	-11.3009
▁řidiči	-11.3011
tažením	-11.3011
▁příznivé	-11.3011
▁přítele	-11.3012
▁dresu	-11.3013
▁typick	-11.3013
jímá	-11.3014
▁rozumné	-11.3014
▁Doba	-11.3014
OP	-11.3017
▁140	-11.302
▁volba	-11.302
▁pevně	-11.3021
▁testů	-11.3024
▁pouh	-11.3029
mana	-11.303
▁kostela	-11.303
▁standardu	-11.3031
ějších	-11.3031
strašně	-11.3032
▁okresech	-11.3033
▁Fran	-11.3034
▁postižení	-11.3041
▁trojic	-11.3044
▁odvolal	-11.3044
vedou	-11.3044
▁hospodářský	-11.3044
▁variantu	-11.3045
pouštějí	-11.3047
▁technick	-11.3047
ňoval	-11.3047
lék	-11.3048
ston	-11.3048
▁bodem	-11.3051
2.	-11.3052
▁výnosu	-11.3057
▁informovali	-11.3058
zní	-11.3059
▁znají	-11.3059
▁metodu	-11.3059
dělit	-11.306
▁iniciativa	-11.306
far	-11.3061
▁hlava	-11.3061
▁servisu	-11.3062
▁manžela	-11.3064
▁dopisy	-11.3067
zích	-11.307
▁členské	-11.307
21	-11.3071
▁řetěz	-11.3071
▁pla	-11.3071
▁bytí	-11.3076
▁92	-11.3076
▁stávají	-11.3076
skými	-11.3076
▁knihu	-11.3078
▁opakovat	-11.3078
▁zůstaly	-11.3081
▁pat	-11.3082
▁hrubé	-11.3085
▁rozliš	-11.3086
▁linka	-11.3086
▁obsazen	-11.3087
▁přítomn	-11.3089
před	-11.3092
DI	-11.3097
▁srovnatelné	-11.3099
▁Řek	-11.3102
▁číslem	-11.3103
▁momentáln	-11.3104
▁velkém	-11.3109
▁ryby	-11.3109
▁způsobila	-11.311
▁přinesla	-11.311
▁ukládá	-11.311
▁přesvědčeni	-11.3112
▁tiskový	-11.3112
▁kaly	-11.3115
▁52	-11.3118
kládání	-11.3121
▁určeno	-11.3123
▁autobus	-11.3133
▁režiséra	-11.3133
ectví	-11.3134
▁pád	-11.3136
▁předvedl	-11.3139
drží	-11.314
▁domnívám	-11.3141
48	-11.3141
▁skok	-11.3143
▁časopise	-11.3143
▁pop	-11.3144
hý	-11.3145
▁drahá	-11.3146
▁regul	-11.3149
▁Car	-11.3151
▁membrán	-11.3151
▁cit	-11.3151
jdu	-11.3155
EK	-11.3156
▁stromů	-11.3157
istů	-11.3157
▁hradí	-11.3161
▁hormon	-11.3171
▁sešli	-11.3172
měl	-11.3176
▁platu	-11.3182
bil	-11.3184
hlédl	-11.3184
etické	-11.3191
▁jezdil	-11.3191
▁bytě	-11.3197
▁kap	-11.32
▁jakého	-11.3201
dění	-11.3201
▁manažera	-11.3202
▁firmami	-11.3206
▁dřevěný	-11.3214
▁Jeli	-11.3215
bírat	-11.3216
▁speciálně	-11.3228
ZE	-11.323
áček	-11.3233
▁Jelcinov	-11.3235
▁bohaté	-11.324
ph	-11.3242
▁FIFA	-11.3244
▁řekli	-11.3244
▁kurzor	-11.3247
▁útvar	-11.3249
▁kapitálový	-11.3249
▁řez	-11.325
▁ČS	-11.325
▁skryt	-11.3253
▁prost	-11.3254
hem	-11.3263
▁spotřebu	-11.3265
▁samotný	-11.327
▁reklama	-11.3271
▁využije	-11.3274
▁příště	-11.3276
▁chovat	-11.3277
IL	-11.3278
▁zabýval	-11.3279
cal	-11.3281
▁ostrov	-11.3282
▁Kolek	-11.3283
ani	-11.3287
▁srovnatelný	-11.3291
mála	-11.3294
řídí	-11.3298
▁Test	-11.3298
▁lidový	-11.33
▁top	-11.3308
loží	-11.331
▁Win	-11.332
▁počátk	-11.3322
▁technologický	-11.3325
▁SI	-11.3327
▁poločase	-11.3329
▁zvěř	-11.3331
▁placen	-11.3333
▁stali	-11.3333
▁region	-11.3333
iček	-11.3334
SA	-11.3334
telné	-11.3335
přes	-11.3337
▁zavedl	-11.334
▁podmíněn	-11.3342
ČSSD	-11.3353
poslední	-11.3361
▁znal	-11.3362
▁délk	-11.3362
především	-11.3365
čan	-11.3366
ologické	-11.3367
▁nejedn	-11.3369
▁veden	-11.337
▁nech	-11.3371
▁paliv	-11.3371
▁některého	-11.3374
mění	-11.338
▁projednáva	-11.3386
▁sedmnáct	-11.339
▁odjel	-11.3392
▁nesouhlas	-11.3394
▁Fe	-11.3394
▁29.	-11.3395
▁výtvarn	-11.3395
▁ing	-11.3395
▁Nor	-11.3397
▁cc	-11.34
▁chodu	-11.3403
▁Označ	-11.3405
tickou	-11.3406
▁počítají	-11.3409
novu	-11.3412
ovce	-11.3413
jednala	-11.3414
▁Bur	-11.3414
▁Telecom	-11.3415
76	-11.3417
▁přál	-11.3418
hel	-11.3419
▁pravém	-11.3423
▁podnět	-11.3423
ávají	-11.3423
▁úkon	-11.3423
▁zákoník	-11.3424
▁pochopil	-11.3427
prodej	-11.3428
▁kyselin	-11.3434
▁vezme	-11.3434
▁nabídne	-11.3435
▁scénář	-11.3436
▁klima	-11.3441
znamená	-11.3444
FS	-11.3445
▁vlk	-11.3445
▁Znám	-11.3447
▁věnuj	-11.3449
▁absolvoval	-11.3453
▁Chomutov	-11.3457
▁bývalém	-11.3458
▁Počítač	-11.3458
▁pokračují	-11.3458
▁rozhlas	-11.346
▁umožňují	-11.3461
jen	-11.3463
▁účet	-11.3464
▁enzym	-11.3469
▁krvi	-11.3469
slat	-11.347
▁Republik	-11.3471
dostatečnou	-11.3471
pomeňme	-11.3473
▁filozof	-11.3474
▁semen	-11.3475
▁uskutečnil	-11.3477
ložil	-11.3481
látka	-11.3481
▁opustil	-11.3481
▁oblačno	-11.3482
allye	-11.3482
▁zjistí	-11.3483
▁vkus	-11.3483
letí	-11.3483
▁Nejčastěj	-11.3484
▁Podívej	-11.3484
▁Bezpečnost	-11.3484
▁Evropou	-11.3484
▁Jupiter	-11.3484
▁Letošní	-11.3484
▁Moderní	-11.3484
▁Město	-11.3484
▁Naštěstí	-11.3484
▁Stehlík	-11.3484
▁Ukrajina	-11.3484
▁burzy	-11.3484
▁dostatečné	-11.3484
▁energií	-11.3484
▁imunitní	-11.3484
▁kandidovat	-11.3484
▁krátkodobé	-11.3484
▁náleží	-11.3484
▁následovat	-11.3484
▁odlišné	-11.3484
▁opozicí	-11.3484
▁ozónu	-11.3484
▁podotkl	-11.3484
▁poskytne	-11.3484
▁premiéře	-11.3484
▁překážky	-11.3484
▁seriózní	-11.3484
▁stability	-11.3484
▁televizor	-11.3484
▁totalitní	-11.3484
▁těžší	-11.3484
▁viceprezident	-11.3484
▁vzdělávání	-11.3484
▁výkres	-11.3484
▁výslovně	-11.3484
▁zachránil	-11.3484
▁zemědělci	-11.3484
▁znamení	-11.3484
▁závislá	-11.3484
▁získají	-11.3484
▁Úspěšn	-11.3484
▁úspěšnost	-11.3484
▁herečka	-11.3484
▁nutná	-11.3484
▁položku	-11.3484
▁příroda	-11.3484
▁vyžádá	-11.3484
▁Island	-11.3484
▁naučit	-11.3484
▁MIDI	-11.3484
▁výlučn	-11.3484
▁Hapal	-11.3484
▁profese	-11.3484
▁živnostenský	-11.3484
▁charitativní	-11.3484
▁vystupoval	-11.3484
▁chápán	-11.3484
▁Obvodní	-11.3485
▁ČSAD	-11.3485
▁Olszewsk	-11.3485
▁koncentraci	-11.3485
▁leccos	-11.3485
▁diváci	-11.3485
▁druzí	-11.3485
▁vyjít	-11.3485
▁chápe	-11.3485
▁nesměl	-11.3485
▁cítil	-11.3485
▁studené	-11.3485
▁filtr	-11.3485
▁česky	-11.3485
▁kopané	-11.3485
▁Spolu	-11.3485
▁obdrží	-11.3486
▁zvyklí	-11.3486
▁balení	-11.3486
▁kámen	-11.3486
▁písma	-11.3486
▁síni	-11.3486
▁trůn	-11.3486
▁dostupný	-11.3486
▁rozumět	-11.3487
▁Obyvatel	-11.3487
▁publikace	-11.3487
▁Soutěž	-11.3488
▁zanikl	-11.3488
▁vzorků	-11.3488
▁Potvrdil	-11.3488
▁prázdninách	-11.3488
▁sbírky	-11.3488
účtování	-11.3489
▁Švýcarska	-11.3489
▁branku	-11.3491
▁Vaše	-11.3491
▁Bro	-11.3491
▁zdůvodnil	-11.3492
▁náhodně	-11.3492
▁přihlásil	-11.3493
▁FC	-11.3494
▁přerušení	-11.3495
▁výměník	-11.3495
▁barva	-11.3496
▁výrobou	-11.3496
jednali	-11.3496
▁1950	-11.3496
▁nasazení	-11.3496
▁levné	-11.3497
▁jakkoli	-11.3497
▁Dukly	-11.3497
▁porušování	-11.3497
▁připravují	-11.3497
▁tendenci	-11.3497
▁biologie	-11.3498
▁vysílání	-11.3499
▁Rumunsko	-11.35
▁udává	-11.3501
▁armádní	-11.3501
▁expozice	-11.3501
▁přečetl	-11.3501
▁sídla	-11.3501
▁kompletní	-11.3502
▁pravomocí	-11.3503
▁řádky	-11.3503
▁Maďarska	-11.3503
▁provozovat	-11.3503
▁drobných	-11.3504
▁politikou	-11.3504
▁osobám	-11.3504
▁drav	-11.3504
▁prodejna	-11.3504
▁odjezd	-11.3505
▁hrub	-11.3506
▁vyrovnání	-11.3507
▁stěží	-11.3507
nda	-11.3507
▁předčasné	-11.3508
▁Žena	-11.3508
▁Vložit	-11.3508
▁alternativní	-11.3508
nechávají	-11.3509
▁izraelské	-11.3509
▁42	-11.3509
▁léto	-11.3511
▁sídlí	-11.3511
▁Příklad	-11.3511
▁zasáhnout	-11.3512
▁zajímavá	-11.3513
▁zajímá	-11.3516
▁kraje	-11.3516
▁necelé	-11.3517
ložit	-11.3518
▁infekce	-11.3519
▁Vojenské	-11.3519
▁potřebujete	-11.3519
soudit	-11.3519
▁IV	-11.3519
▁výměny	-11.3519
▁příslušníky	-11.3519
▁scénu	-11.3519
▁psaní	-11.352
dvacet	-11.352
▁31	-11.3522
▁jmenoval	-11.3523
▁textové	-11.3523
▁Optic	-11.3524
▁Tvrdí	-11.3525
▁56	-11.3525
▁zbytku	-11.3525
▁nevidí	-11.3527
▁rodině	-11.3528
▁odborů	-11.3529
těl	-11.3529
▁pozná	-11.3532
▁provozování	-11.3532
▁tvorba	-11.3532
▁dorazil	-11.3533
▁uplatňují	-11.3533
▁ToolBooku	-11.3534
▁nemocného	-11.3534
▁neznámé	-11.3536
▁dohodli	-11.3536
▁vraždy	-11.3536
▁kláštera	-11.3537
▁hradě	-11.3539
▁sdělit	-11.3539
▁obvinil	-11.354
▁charakterizuj	-11.3541
▁získávání	-11.3541
▁analýza	-11.3543
▁poradil	-11.3544
▁spojených	-11.3545
▁slavného	-11.3546
▁mořské	-11.3547
ptal	-11.3548
▁ruch	-11.3549
▁nakupovat	-11.355
▁rozhlasu	-11.3552
▁tělesn	-11.3554
▁Buď	-11.3555
▁osobu	-11.3555
▁příkazem	-11.3556
▁veletrhu	-11.3557
▁bio	-11.3558
▁Víme	-11.356
▁grafiky	-11.356
▁prezidentovi	-11.3561
▁zvukových	-11.3562
▁laboratorní	-11.3562
padnout	-11.3564
▁hladiny	-11.3565
▁zbývá	-11.3566
▁výchovy	-11.3566
tlačit	-11.3567
▁Husa	-11.3568
▁anglického	-11.357
▁poskytnutí	-11.3571
▁vyrovnaný	-11.3572
▁dokonalé	-11.3575
▁očích	-11.3575
▁kruhu	-11.3576
▁70.	-11.3577
pustili	-11.3581
▁Ostravsk	-11.3583
▁zásahy	-11.3583
▁uživatelům	-11.3585
▁zařazeny	-11.3586
▁pivovarů	-11.3587
▁zdravý	-11.3587
▁radní	-11.359
▁požádali	-11.3592
▁přímý	-11.3592
▁platnosti	-11.3593
▁Don	-11.3595
▁Izraelem	-11.3596
cími	-11.3597
▁dole	-11.3598
▁stromu	-11.3599
příč	-11.3601
▁obsadili	-11.3602
▁realizovat	-11.3605
▁takzvané	-11.3612
▁proměnil	-11.3613
▁obviněn	-11.3614
▁uzavřené	-11.3618
▁zásoby	-11.362
▁cel	-11.3622
▁východu	-11.3622
▁Novém	-11.3623
▁převeden	-11.3631
otisk	-11.3635
▁naproti	-11.3636
▁vyjadřují	-11.3637
▁dopise	-11.3642
▁narazí	-11.3642
▁osmé	-11.3642
▁gólu	-11.3642
▁mozkové	-11.3646
▁aneb	-11.3646
71	-11.3647
▁Carl	-11.3648
race	-11.3648
▁opačném	-11.3648
▁přístupem	-11.365
▁plánované	-11.3654
▁poledne	-11.366
▁Chart	-11.3661
BA	-11.3663
.12.	-11.3664
▁bojoval	-11.3671
▁OLE	-11.3672
▁zvítězila	-11.3675
▁Výzkum	-11.3678
▁zadržen	-11.368
▁utekl	-11.3681
▁Dag	-11.3682
▁kdež	-11.3683
▁čekání	-11.3683
▁domova	-11.3685
▁komunistický	-11.3686
▁vznikne	-11.3693
▁částice	-11.3694
▁širok	-11.3694
▁soukromým	-11.3695
▁nezískal	-11.3696
▁jemu	-11.3701
▁průkaz	-11.3701
▁autory	-11.3702
▁závěry	-11.3705
▁dodala	-11.3706
▁rozšířen	-11.3707
▁klimatické	-11.3709
▁pilot	-11.3711
▁kritické	-11.3713
padl	-11.3718
▁připravila	-11.3719
ujte	-11.372
▁snížila	-11.3721
▁omezené	-11.3729
▁majitelem	-11.373
▁náhle	-11.3733
land	-11.3733
▁Jean	-11.3734
▁kapitoly	-11.3735
vice	-11.3736
▁obyčejné	-11.3739
ker	-11.3744
▁skončily	-11.3747
▁softwarový	-11.3747
▁věřit	-11.3747
žije	-11.3748
▁Čechy	-11.3748
▁očekávané	-11.3754
▁Lib	-11.3765
ěné	-11.377
▁bezpečnostních	-11.3772
▁speciálních	-11.3773
▁časové	-11.3776
▁předpokládal	-11.3777
▁známa	-11.3778
▁zajímavý	-11.3779
lic	-11.3782
ers	-11.3786
▁etický	-11.3787
▁říkám	-11.3789
▁plic	-11.3793
▁pochod	-11.3794
▁Dal	-11.3794
▁mm	-11.3797
▁štít	-11.3804
▁Čtyři	-11.3805
▁mladík	-11.3807
▁velkoobchod	-11.3814
▁bolesti	-11.3816
▁samé	-11.3818
▁ekologický	-11.3819
rp	-11.3826
▁daří	-11.3826
▁očí	-11.3835
▁Ře	-11.3836
sídl	-11.3839
389	-11.3839
▁vědom	-11.3839
▁zájm	-11.3844
▁středním	-11.3849
▁Man	-11.3853
▁talent	-11.3855
▁pokutu	-11.3856
▁nepr	-11.3857
díl	-11.3858
dávat	-11.3858
ečná	-11.3858
EC	-11.3863
▁důkladně	-11.3865
palestinsk	-11.3869
ézt	-11.387
▁zaměstnancům	-11.3874
▁Lit	-11.3875
▁komentáře	-11.3875
ováni	-11.3879
▁Krát	-11.3883
54	-11.3883
▁vyloučen	-11.3884
▁hol	-11.3886
▁předmět	-11.3888
▁zlé	-11.389
▁účastník	-11.3891
▁pachatele	-11.3892
▁hrůz	-11.3894
▁dohodnut	-11.3901
▁příjemný	-11.3903
▁ozdob	-11.3903
psat	-11.3903
▁americkým	-11.3904
▁dozvěděl	-11.3907
▁osmnáct	-11.3908
ární	-11.3908
▁popř	-11.3912
▁zvaný	-11.3912
koro	-11.3912
▁Vesmír	-11.3913
▁podpoře	-11.3914
ung	-11.3914
▁slovu	-11.3915
▁poslancům	-11.3917
ivost	-11.3918
tická	-11.3918
SP	-11.3919
▁hlás	-11.3921
▁výhodou	-11.3922
▁vyvolá	-11.3923
▁prohlásila	-11.3926
íček	-11.3929
▁staveb	-11.393
▁žalob	-11.3932
▁dávn	-11.3935
▁ja	-11.3938
▁výzkumné	-11.3941
▁letecký	-11.3942
bře	-11.3945
▁rizikový	-11.3945
▁110	-11.3945
▁profesionál	-11.3949
▁Sedm	-11.3949
▁takzvaný	-11.3952
líbil	-11.3952
▁běžným	-11.3954
áno	-11.3956
▁zajištěn	-11.3957
▁Moc	-11.3958
▁tvor	-11.3976
▁náměstk	-11.3977
nějších	-11.3978
▁časový	-11.3982
▁disciplín	-11.3984
nili	-11.3988
▁černý	-11.3988
▁jezer	-11.399
▁Pozor	-11.3991
▁Lá	-11.3991
▁sedmé	-11.3991
▁Stran	-11.3992
▁závěrečné	-11.3993
▁nejstarší	-11.3995
▁Uveden	-11.3995
▁vazeb	-11.3998
▁kamion	-11.3998
▁ryz	-11.3998
▁kolegů	-11.4
▁štáb	-11.4001
▁muzeu	-11.4002
▁povolen	-11.4003
▁doporučil	-11.4004
▁přístav	-11.4005
šl	-11.4005
▁Kub	-11.4006
▁koncern	-11.4008
▁zvětš	-11.4008
▁převoz	-11.4008
▁odráž	-11.4009
▁vteřin	-11.4011
▁společným	-11.4012
▁pojistn	-11.4013
▁figur	-11.4013
▁lodi	-11.4015
těsn	-11.4016
▁počítačem	-11.4016
▁prokurátor	-11.4018
slovní	-11.402
očí	-11.402
▁zpěvák	-11.4021
▁minutu	-11.4022
▁šed	-11.4022
▁dělník	-11.4022
▁družstevní	-11.4024
▁uzná	-11.4026
▁nabízen	-11.4026
KDU	-11.4028
prostřed	-11.4029
zem	-11.4031
▁povrchov	-11.4031
byl	-11.4031
▁dnem	-11.4032
▁biskup	-11.4032
▁uměle	-11.4033
▁šla	-11.4034
▁podepsán	-11.4035
kromě	-11.4036
▁vyrovnané	-11.4036
nova	-11.4036
▁jater	-11.404
OST	-11.4043
▁nátlak	-11.4045
▁Charles	-11.4045
▁Mnichov	-11.4046
▁překvapen	-11.4046
záběr	-11.4049
▁leasing	-11.4049
▁nemocný	-11.405
▁otřes	-11.4051
ED	-11.4051
▁souvislost	-11.4053
čené	-11.4054
IP	-11.4054
drželi	-11.4056
▁Boj	-11.4056
▁jednotný	-11.4057
▁předkládá	-11.4065
▁nepotřebuje	-11.4065
ruh	-11.4066
zrcadl	-11.4069
▁Peck	-11.407
▁tunel	-11.407
▁krystal	-11.407
pálil	-11.4071
ředstavitelé	-11.4072
▁1981	-11.4073
▁Eduard	-11.4073
▁Městě	-11.4073
▁Poštovní	-11.4073
▁Rozhovor	-11.4073
▁Svorada	-11.4073
▁Výběr	-11.4073
▁Vědci	-11.4073
▁bázi	-11.4073
▁displej	-11.4073
▁instance	-11.4073
▁inzerát	-11.4073
▁konfiguraci	-11.4073
▁mechanismy	-11.4073
▁ministerstvem	-11.4073
▁mužstvu	-11.4073
▁nejvhodnější	-11.4073
▁ovlivňova	-11.4073
▁očekávají	-11.4073
▁pohromadě	-11.4073
▁protagonist	-11.4073
▁prvotní	-11.4073
▁složku	-11.4073
▁sluchátka	-11.4073
▁stabilitu	-11.4073
▁svědků	-11.4073
▁vyjadřova	-11.4073
▁výsledcích	-11.4073
▁zbraň	-11.4073
▁závazek	-11.4073
▁závislé	-11.4073
▁dráhu	-11.4073
▁jedinec	-11.4073
▁odvahu	-11.4073
▁sazby	-11.4073
▁sérii	-11.4073
▁vazbě	-11.4073
▁Gross	-11.4073
▁Reuter	-11.4073
▁lidstva	-11.4073
▁otravy	-11.4073
▁profesí	-11.4073
▁slalom	-11.4073
▁vyjednávání	-11.4073
▁nejlevnější	-11.4073
▁uplatnil	-11.4073
▁Pořadatel	-11.4073
▁kolaps	-11.4073
▁postačí	-11.4073
▁prohlašuje	-11.4073
▁partie	-11.4073
▁Radovan	-11.4073
▁počty	-11.4073
▁vpravo	-11.4073
▁finance	-11.4073
▁kombinací	-11.4073
▁léčbě	-11.4073
▁Pentium	-11.4073
▁jarní	-11.4073
▁doplnil	-11.4073
▁smečka	-11.4073
▁rozvržení	-11.4073
▁ekvivalent	-11.4073
▁nedostatkem	-11.4073
▁zaměřuje	-11.4073
▁ekonomickou	-11.4073
▁sníží	-11.4073
▁pouštní	-11.4073
▁ohlas	-11.4073
▁sportovce	-11.4073
▁generaci	-11.4073
▁výhrady	-11.4073
▁filozofii	-11.4073
▁výměr	-11.4073
▁Vilém	-11.4073
▁Baker	-11.4073
▁derby	-11.4073
▁dialog	-11.4073
▁1998	-11.4073
▁cvičení	-11.4073
▁spoření	-11.4073
▁SNR	-11.4073
▁pravdy	-11.4073
▁studii	-11.4074
▁Hráč	-11.4074
▁pravice	-11.4074
▁čelit	-11.4074
▁správnou	-11.4074
▁jednotlivců	-11.4074
▁Běloruska	-11.4074
▁Winter	-11.4075
▁členění	-11.4075
▁ISO	-11.4075
▁lodí	-11.4075
▁potvrdit	-11.4075
▁překonat	-11.4075
▁památky	-11.4076
▁nákladech	-11.4076
▁článků	-11.4076
▁švýcarské	-11.4076
▁sbírek	-11.4077
KDS	-11.4077
▁dálkové	-11.4077
▁kampaň	-11.4077
▁vyhleda	-11.4077
▁zachránit	-11.4077
▁strojírenství	-11.4078
▁zastupitelstvo	-11.4078
▁poplatků	-11.4078
▁podmínkami	-11.4078
▁celky	-11.4078
nešní	-11.4078
▁označují	-11.4078
▁základny	-11.4079
▁plus	-11.4079
▁pracovišti	-11.4079
▁pití	-11.4079
▁ušetřit	-11.4079
▁vydrží	-11.4079
▁vzdělávací	-11.408
▁přijímat	-11.408
▁Škol	-11.408
▁Polskem	-11.408
▁Mil	-11.408
▁Rozhodl	-11.408
▁komentoval	-11.408
▁Provoz	-11.4081
▁2:1	-11.4081
▁nazval	-11.4081
▁organismů	-11.4081
▁Kolín	-11.4081
▁branky	-11.4082
▁domku	-11.4083
▁tenkrát	-11.4083
▁oteplení	-11.4083
▁ojediněle	-11.4083
▁pomáhat	-11.4084
▁vybrán	-11.4084
▁nepřijatelné	-11.4084
▁okresu	-11.4084
▁Palác	-11.4085
▁pozorovatelů	-11.4085
▁alternativy	-11.4085
▁obří	-11.4086
rez	-11.4086
opakovaně	-11.4087
▁trase	-11.4087
▁pětinu	-11.4087
▁scéně	-11.4087
▁prosazuje	-11.4087
▁silami	-11.4087
▁zaplatil	-11.4088
lární	-11.4088
▁spojeno	-11.4089
▁přísně	-11.4089
▁skupinách	-11.4089
▁kliniky	-11.409
▁záměrně	-11.409
jo	-11.4091
pek	-11.4091
▁hranicí	-11.4091
▁pozdní	-11.4091
německou	-11.4092
▁Air	-11.4093
▁anketě	-11.4093
▁slavný	-11.4093
▁slavné	-11.4093
▁ledové	-11.4093
▁odluk	-11.4093
▁obchodech	-11.4094
▁etapy	-11.4094
▁zárukou	-11.4095
▁domácností	-11.4096
▁odměnu	-11.4096
▁přibývá	-11.4097
▁vidíte	-11.4097
▁koordinac	-11.4097
▁povahu	-11.41
▁sladk	-11.41
▁pes	-11.4101
▁stranách	-11.4102
▁skutečnou	-11.4103
tovat	-11.4103
▁NT	-11.4105
▁jazyků	-11.4105
▁publikací	-11.4105
▁komunismus	-11.4105
stihnout	-11.4106
▁opravit	-11.4108
▁prodejce	-11.4108
▁problematiky	-11.4109
▁využívající	-11.4109
▁ideologick	-11.411
píší	-11.411
vir	-11.4111
▁Švýcar	-11.4111
berg	-11.4112
▁cukru	-11.4112
▁procentní	-11.4113
▁stavy	-11.4113
▁odpady	-11.4113
▁stínu	-11.4113
▁Nejsem	-11.4114
▁přenesen	-11.4115
▁přibylo	-11.4115
▁nadšen	-11.4115
▁Mat	-11.4115
▁zkratk	-11.4116
▁těsné	-11.4116
▁MOV	-11.4116
▁správě	-11.4117
▁konfliktu	-11.4118
▁Thomas	-11.4119
▁prochází	-11.412
▁reálná	-11.412
▁Žádný	-11.4121
▁reklam	-11.4121
▁zeleni	-11.4121
▁slabé	-11.4122
▁pochybnosti	-11.4123
▁světl	-11.4124
budovat	-11.4125
▁západu	-11.4125
ících	-11.4126
▁neviděl	-11.4126
▁podávání	-11.4126
▁hromada	-11.4127
▁dialogové	-11.4127
▁montáž	-11.4131
noví	-11.4131
▁slevy	-11.4133
▁Star	-11.4136
▁rodinou	-11.4139
lské	-11.4139
▁hub	-11.414
vající	-11.4141
▁vhodných	-11.4141
35	-11.4144
▁dávat	-11.4146
▁spolehlivě	-11.4147
▁(5	-11.4148
▁jmenování	-11.4149
▁zaměstnává	-11.415
▁historického	-11.4152
▁skleníkový	-11.4153
▁Kazachstánu	-11.4154
▁polského	-11.4154
▁prázdniny	-11.4155
▁77	-11.4155
▁otevřenou	-11.4156
▁skoku	-11.4156
stru	-11.4156
▁Španělsko	-11.4158
▁mostu	-11.4158
▁dlužníka	-11.4159
▁znamenala	-11.416
▁milión	-11.416
▁jednotn	-11.416
▁kapacitu	-11.4161
rel	-11.4162
▁zajímavých	-11.4162
▁perspektivní	-11.4164
▁spis	-11.4164
▁zařazení	-11.4165
▁levný	-11.4165
▁předloh	-11.4166
▁britských	-11.4167
▁osmnácti	-11.4169
▁Hr	-11.417
▁mezer	-11.4174
▁vybaveny	-11.418
bírají	-11.4182
▁postav	-11.4183
▁desítká	-11.4185
75	-11.4185
▁pravý	-11.4187
▁hokejové	-11.4189
▁zájemcům	-11.419
▁oprávnění	-11.4191
▁suroviny	-11.4191
▁smyslem	-11.4194
▁záznamu	-11.4196
▁chlad	-11.4196
▁vklad	-11.4197
▁začínal	-11.4197
▁1991.	-11.4198
▁tepelné	-11.4198
▁hospodářských	-11.42
▁časopis	-11.42
nz	-11.4201
▁účelu	-11.4202
▁pozval	-11.4202
▁azyl	-11.4203
▁panel	-11.4203
▁překvapením	-11.4204
▁závodníků	-11.4205
▁zahájena	-11.4205
▁čekal	-11.4206
▁vynesl	-11.4208
ingu	-11.4208
▁podpisu	-11.4208
učili	-11.4215
▁poznal	-11.4219
▁určitým	-11.4219
▁případem	-11.422
▁najdou	-11.4221
▁vyšším	-11.4222
▁automobilu	-11.4222
▁neumí	-11.4224
▁polský	-11.4229
▁potraviny	-11.4229
▁novináře	-11.423
běhne	-11.4234
ČNÍ	-11.4236
▁střel	-11.4236
▁vzniklo	-11.424
▁kandidáta	-11.4241
leva	-11.4241
▁devatenáct	-11.4241
▁vznikal	-11.4242
▁mask	-11.4244
▁místním	-11.4244
▁vlna	-11.4245
ško	-11.4248
▁součásti	-11.425
▁jist	-11.4251
▁cenami	-11.4252
▁pokračovala	-11.4253
▁technologické	-11.4253
dol	-11.426
▁(2	-11.426
▁historik	-11.4264
týdenní	-11.4264
▁vrátili	-11.4268
▁Ročn	-11.4269
▁manažery	-11.4269
▁cenné	-11.4269
▁Sen	-11.4271
oba	-11.4273
▁průvodce	-11.4274
platné	-11.4276
▁tvrdit	-11.4283
87	-11.4285
hoře	-11.4286
▁hlasováním	-11.4288
▁textů	-11.4293
▁Ford	-11.4293
stavení	-11.4301
▁91	-11.4303
▁tituly	-11.4305
▁základu	-11.4307
▁daného	-11.4312
▁převrat	-11.4312
▁mrtvých	-11.4312
▁Stan	-11.4318
mořsk	-11.4325
▁elektro	-11.4326
▁lékáren	-11.4329
▁zařízením	-11.433
▁britský	-11.4337
měrně	-11.4338
obdržela	-11.4338
▁podnikateli	-11.4342
dělení	-11.4344
▁vzdálen	-11.4345
▁1)	-11.4346
▁jakéhokoli	-11.4348
▁světem	-11.4351
▁čtvrtin	-11.4354
stávat	-11.4357
▁činy	-11.4358
▁povrchové	-11.4359
▁atomov	-11.4368
▁naučil	-11.4369
▁nabízený	-11.437
▁aktivac	-11.4371
▁palác	-11.4378
▁řídit	-11.4384
ica	-11.4386
▁vědec	-11.4386
▁přibyl	-11.4387
ručně	-11.4392
57	-11.4393
▁zápasem	-11.4394
▁nadměrn	-11.4394
▁zvolený	-11.4394
▁chladn	-11.4396
▁Severoatlantick	-11.44
likvid	-11.4403
▁známou	-11.4408
▁slev	-11.4416
▁Plán	-11.4416
▁dech	-11.442
jevit	-11.4423
▁poloviční	-11.4423
▁jejímu	-11.4425
roj	-11.4427
▁neštěstí	-11.4429
▁rytm	-11.4431
▁neobvyklé	-11.4431
▁genu	-11.4433
▁MU	-11.4435
▁čínské	-11.4438
▁240	-11.4439
▁třetin	-11.4441
▁olympiád	-11.4441
▁nud	-11.4442
45	-11.4449
děk	-11.4449
neme	-11.445
▁bit	-11.4451
hne	-11.4453
▁stranické	-11.4454
pozn	-11.4457
▁prováděn	-11.4459
▁symbolick	-11.4465
▁Spíš	-11.4469
▁průběžn	-11.4469
bral	-11.4469
▁váh	-11.4471
7%	-11.4472
▁pěkný	-11.4475
▁psycholog	-11.4476
▁poz	-11.4479
▁vyplněn	-11.448
▁hvězda	-11.4484
▁doplněn	-11.4488
▁přesvědčil	-11.4492
▁žánr	-11.4493
▁troj	-11.4495
▁ligové	-11.4496
▁Nemá	-11.4498
▁přirozeným	-11.4502
▁žádným	-11.4503
▁Rakousk	-11.4505
▁Král	-11.4508
LED	-11.4511
▁pokryt	-11.4512
▁kart	-11.4513
▁nepříjemný	-11.4514
▁smích	-11.4515
▁míče	-11.4515
▁Zd	-11.4516
éra	-11.4516
▁občansk	-11.4518
▁koalic	-11.4519
▁historick	-11.4525
▁občanům	-11.4526
▁Velký	-11.4526
▁přidělen	-11.4527
▁úsek	-11.4528
6.	-11.4528
sadil	-11.4532
tických	-11.4534
▁mladý	-11.4534
ota	-11.4534
▁Závod	-11.4538
▁pedagog	-11.4538
▁tiskov	-11.4543
▁fakult	-11.4543
▁žlut	-11.4548
▁Trh	-11.455
íš	-11.4555
▁automat	-11.4556
▁dostaly	-11.4557
▁inspektor	-11.4557
▁odmítnut	-11.4558
ikonu	-11.4562
▁hráčům	-11.4565
▁Ter	-11.4567
▁národním	-11.4567
67	-11.4569
áním	-11.4569
▁finančním	-11.4572
7,	-11.4575
▁výtečn	-11.4575
lidov	-11.4575
▁děkan	-11.4576
▁Obsah	-11.4576
▁vrt	-11.4576
▁slovensk	-11.4579
jedná	-11.4579
▁úvod	-11.4583
vní	-11.4586
▁samospráv	-11.4587
uskutečnila	-11.4589
▁spojit	-11.459
▁Občansk	-11.459
okres	-11.4596
▁sledoval	-11.4598
▁inženýr	-11.46
▁sever	-11.461
MF	-11.4613
▁zažil	-11.4614
▁nesmysl	-11.4618
▁bojovn	-11.4618
vala	-11.4621
▁dveří	-11.4621
▁kategorií	-11.4623
▁prů	-11.4625
▁KON	-11.4625
▁byznys	-11.4626
▁EuroTel	-11.4627
▁obřad	-11.4627
počíta	-11.4628
▁Výrobc	-11.4628
▁velko	-11.463
▁požadoval	-11.463
mentálně	-11.463
▁návštěvnost	-11.463
▁zákrok	-11.4633
▁remíz	-11.4635
▁vidím	-11.4635
▁záloh	-11.4637
▁Ostravar	-11.4637
▁duši	-11.4638
▁vystupuj	-11.4639
▁Histori	-11.464
▁Žid	-11.4641
třeba	-11.4642
▁Lac	-11.4642
▁Juli	-11.4643
▁Východ	-11.4643
▁krev	-11.4643
▁Mlad	-11.4643
krácen	-11.4644
▁hmotnost	-11.4649
▁vlivu	-11.4651
▁triumf	-11.4651
pír	-11.4652
▁dobrého	-11.4653
kají	-11.4653
▁Cup	-11.4654
▁přesahuj	-11.4657
ER	-11.4658
▁deficit	-11.4658
▁využívají	-11.4659
▁vánoc	-11.466
▁množ	-11.4662
96	-11.4662
▁uvolněn	-11.4663
▁setká	-11.4664
▁kouř	-11.4665
▁román	-11.4668
bíhají	-11.4668
▁vyřazen	-11.4668
▁elektrick	-11.4671
▁krut	-11.4671
vesel	-11.4672
tové	-11.4673
▁vazba	-11.4678
▁dívá	-11.4679
▁obnovit	-11.468
▁450	-11.4684
konalo	-11.4685
▁kurt	-11.4685
▁krále	-11.4686
▁povinné	-11.4686
sadit	-11.4688
hlédne	-11.4688
vých	-11.4688
tahuje	-11.4693
▁podporují	-11.4694
▁loď	-11.4695
▁risk	-11.4696
pust	-11.4696
▁Vždy	-11.4696
míří	-11.4697
▁účinně	-11.4697
▁Trans	-11.4697
▁Tchaj	-11.4698
▁databázový	-11.4698
▁Apple	-11.4698
▁Barcelony	-11.4698
▁Budinský	-11.4698
▁Liverpool	-11.4698
▁Lobkowicz	-11.4698
▁Moskvy	-11.4698
▁Opět	-11.4698
▁Schumacher	-11.4698
▁Stráský	-11.4698
▁TNF	-11.4698
▁Větší	-11.4698
▁angličtiny	-11.4698
▁atribut	-11.4698
▁bydliště	-11.4698
▁dosaženo	-11.4698
▁dětství	-11.4698
▁epidemie	-11.4698
▁evoluce	-11.4698
▁intenzivní	-11.4698
▁jménu	-11.4698
▁kosmické	-11.4698
▁lhůtě	-11.4698
▁lůžek	-11.4698
▁mrtvol	-11.4698
▁nabízel	-11.4698
▁nabízet	-11.4698
▁nekončí	-11.4698
▁nelíbí	-11.4698
▁nesmějí	-11.4698
▁pohledávky	-11.4698
▁polštář	-11.4698
▁počínání	-11.4698
▁prodavač	-11.4698
▁pronájmu	-11.4698
▁redakční	-11.4698
▁rozšiřování	-11.4698
▁seznámil	-11.4698
▁skrývá	-11.4698
▁svědectví	-11.4698
▁tlačítek	-11.4698
▁vztazích	-11.4698
▁výzvu	-11.4698
▁zdůrazňuje	-11.4698
▁ÚSES	-11.4698
▁Haagu	-11.4698
▁Luboš	-11.4698
▁Vánoční	-11.4698
▁plakát	-11.4698
▁profesní	-11.4698
▁přiznat	-11.4698
▁uváděl	-11.4698
▁pojmy	-11.4698
▁pokouší	-11.4698
▁Easy	-11.4698
▁pryč	-11.4698
▁demisi	-11.4698
▁mutace	-11.4698
▁praxí	-11.4698
týkat	-11.4698
▁komplikace	-11.4698
▁nevadí	-11.4698
▁zastupování	-11.4698
▁inteligentní	-11.4698
▁něčím	-11.4698
▁bezespor	-11.4698
▁vyrobil	-11.4698
▁Myslíte	-11.4698
▁Neznám	-11.4698
▁nejmladší	-11.4698
▁usiloval	-11.4698
▁ledovce	-11.4698
▁Group	-11.4698
▁bydlet	-11.4698
▁neodpovídá	-11.4698
▁bát	-11.4698
▁teplé	-11.4698
▁zastupitelství	-11.4698
▁pohlaví	-11.4698
▁mezisklad	-11.4698
▁ocas	-11.4698
▁slyšel	-11.4698
týkal	-11.4698
▁komunikací	-11.4698
▁reprezentuje	-11.4698
pravdě	-11.4698
▁léčby	-11.4698
▁stolní	-11.4698
▁levněji	-11.4698
▁nezajímá	-11.4698
▁trápí	-11.4698
▁veterán	-11.4698
▁Berger	-11.4698
▁někam	-11.4698
▁norem	-11.4698
▁PŘED	-11.4699
▁ČSTK	-11.4699
▁vyčleněn	-11.4699
▁námitky	-11.4699
▁určí	-11.4699
▁sousedství	-11.4699
▁HDP	-11.4699
▁stoprocentní	-11.4699
▁sumy	-11.4699
▁strážníci	-11.4699
KDH	-11.4699
▁střechy	-11.47
▁pozitivně	-11.47
▁Izraele	-11.47
▁zkoušku	-11.47
▁úředníci	-11.47
▁Prohlásil	-11.47
▁dílčí	-11.47
rozuměl	-11.47
▁teplý	-11.47
▁Nemůže	-11.47
13	-11.4701
▁přestávce	-11.4701
▁kinematografie	-11.4701
▁hluk	-11.4701
▁prodejců	-11.4701
▁Libor	-11.4701
▁novinkou	-11.4702
▁NOV	-11.4702
▁datum	-11.4702
▁Vánoce	-11.4702
▁Neměl	-11.4702
▁švýcarský	-11.4702
▁účelům	-11.4703
▁spekulace	-11.4703
▁Grafová	-11.4703
▁omezování	-11.4704
▁sídlo	-11.4704
▁socialistické	-11.4705
▁Pardubice	-11.4705
▁Tatra	-11.4705
▁hektarů	-11.4705
▁přenést	-11.4705
▁přírodním	-11.4706
▁vykázal	-11.4706
▁Původní	-11.4707
▁dějinách	-11.4707
▁Postupně	-11.4708
▁filozofické	-11.4708
▁posuzování	-11.4708
▁Olg	-11.4708
▁smrtí	-11.4709
▁sestra	-11.4709
▁trik	-11.4709
cová	-11.4709
dání	-11.471
▁Alma	-11.471
▁10%	-11.4711
▁uznává	-11.4711
▁ohrozit	-11.4711
▁plot	-11.4712
▁myslet	-11.4713
▁učební	-11.4713
▁poklesl	-11.4714
▁spektrum	-11.4714
▁disponuje	-11.4715
LOV	-11.4715
▁Zpočátku	-11.4716
▁hygienické	-11.4716
▁kompresi	-11.4717
▁považoval	-11.4717
▁úsměvem	-11.4717
▁domluv	-11.4717
▁předpokládají	-11.4718
▁odhaduje	-11.4719
▁přeměn	-11.472
▁Dukla	-11.472
▁Římě	-11.4721
▁fotbalisty	-11.4721
▁svazek	-11.4721
▁motocyklů	-11.4721
▁herci	-11.4722
▁korunu	-11.4722
▁zvon	-11.4722
▁zvířete	-11.4723
▁Určitě	-11.4723
▁spuštění	-11.4723
▁badatelé	-11.4723
▁dálnice	-11.4726
▁invalidní	-11.4727
▁bazénu	-11.4727
▁Londýna	-11.4728
▁rozměrů	-11.4728
▁minulou	-11.4729
▁špičkových	-11.4729
▁vyplácení	-11.4729
▁ostrově	-11.473
▁prázdné	-11.473
▁nevhodné	-11.4731
▁kritiky	-11.4733
▁Nizozemska	-11.4735
▁Listin	-11.4736
▁OK	-11.4737
▁posádky	-11.474
▁výuky	-11.474
▁zvol	-11.474
▁dáno	-11.4742
▁sporů	-11.4742
▁nahradí	-11.4743
sáhnout	-11.4743
▁vyhlášky	-11.4744
▁zrodil	-11.4744
▁převodu	-11.4744
▁Kremlu	-11.4744
▁azbestu	-11.4745
▁zbožím	-11.4745
▁sněmovna	-11.4745
▁Paříže	-11.4746
▁odpadu	-11.4746
▁efektivnosti	-11.4746
▁zvané	-11.4747
▁schránky	-11.4747
▁zakázku	-11.4748
▁Těm	-11.4748
▁klepnutím	-11.4749
▁uložen	-11.4749
▁iniciativy	-11.4749
▁zásobník	-11.475
▁zakázal	-11.4752
▁povrchem	-11.4752
▁ekonomickým	-11.4752
▁problémech	-11.4753
▁pořádně	-11.4755
▁příkladu	-11.4755
▁doplnění	-11.4755
▁Radnic	-11.4756
▁Pravda	-11.4757
▁doprovodu	-11.4757
▁sond	-11.4758
▁akcionáři	-11.4759
jmenovaný	-11.4759
▁pružn	-11.4759
▁učitelé	-11.476
▁jízdu	-11.476
▁prováze	-11.476
▁lese	-11.4763
▁geografick	-11.4763
▁vteřiny	-11.4764
▁Koup	-11.4765
▁Benda	-11.4765
▁etnick	-11.4765
▁vytvořený	-11.4766
▁Sol	-11.4766
▁vidíme	-11.4767
tratil	-11.4768
▁olympiádu	-11.4768
▁slevu	-11.4769
▁dialogu	-11.4771
▁tunelu	-11.4771
▁předmětu	-11.4772
▁paktu	-11.4773
▁hostin	-11.4775
▁složitost	-11.4776
▁Sex	-11.4778
▁interpretace	-11.478
▁okamžité	-11.4783
Vesmír	-11.4783
▁volném	-11.4784
▁dolaru	-11.4785
▁stanovil	-11.4785
▁položen	-11.4787
▁choroby	-11.4787
▁poplatníků	-11.4788
▁List	-11.4788
▁systémech	-11.4789
▁Václavské	-11.4792
▁mzdové	-11.4793
▁příspěvk	-11.4794
▁údaji	-11.4795
slouží	-11.4795
▁nákladné	-11.4796
▁procesory	-11.4797
▁prodávají	-11.4799
▁právním	-11.4799
▁používané	-11.4799
vát	-11.4799
▁plzeňské	-11.4799
▁Nova	-11.4799
vládne	-11.48
išť	-11.48
▁náměstka	-11.4801
trhl	-11.4801
▁leteck	-11.4801
▁pacienty	-11.4802
▁zaujím	-11.4802
▁silnici	-11.4803
▁celostátní	-11.4804
▁převyšuj	-11.4804
▁zaručen	-11.4805
▁koná	-11.4805
▁monopolní	-11.4807
potřeb	-11.4807
přineslo	-11.481
▁sortimentu	-11.4812
▁zakladatel	-11.4813
▁pomocník	-11.4813
▁otázkami	-11.4814
▁ceník	-11.4814
▁zemřelo	-11.4815
▁útvarů	-11.4815
▁tváře	-11.4816
▁vyhrazen	-11.4818
▁fyzik	-11.4826
▁ukázaly	-11.4827
▁užití	-11.4827
▁přežil	-11.4828
přestává	-11.4829
▁omezeným	-11.4831
▁Ivo	-11.4834
škodí	-11.4837
počtu	-11.4838
▁Tito	-11.4844
▁hodí	-11.4844
hodinové	-11.4845
▁střet	-11.4846
pera	-11.4846
▁věřím	-11.4847
OR	-11.4848
▁zvolí	-11.4849
Pro	-11.485
USA	-11.485
▁vysílač	-11.4855
▁Uvažuje	-11.4856
jeden	-11.4858
▁RAM	-11.4858
▁národa	-11.4861
▁soutěžích	-11.4862
▁vzali	-11.4863
jistá	-11.4868
▁Geo	-11.4868
▁vlastník	-11.4869
▁Dole	-11.4872
▁odběratele	-11.4876
▁Přím	-11.4879
▁soukrom	-11.4881
▁zúčastněný	-11.4883
▁oddíl	-11.4884
▁provede	-11.4886
▁porazili	-11.4886
▁zůstali	-11.489
▁vesnic	-11.4891
▁neobyčejn	-11.4892
▁zbytečný	-11.4893
ářské	-11.4894
▁oprávněné	-11.4896
▁Tisk	-11.4899
26	-11.4903
▁doufám	-11.4906
▁příkazu	-11.4908
▁největšího	-11.4909
antní	-11.491
▁Američanů	-11.491
▁dokázala	-11.491
▁vyvážen	-11.491
▁příklady	-11.4913
tika	-11.4915
▁slovenského	-11.4921
▁dnešním	-11.4921
istický	-11.4924
▁kritizoval	-11.4927
▁ptát	-11.4928
▁6,	-11.4936
▁matematické	-11.4938
▁tvůrc	-11.4938
nově	-11.4941
▁formul	-11.4941
▁stálý	-11.4944
▁dramatické	-11.4946
▁vložené	-11.495
▁místopředsedy	-11.4953
▁útoků	-11.4953
▁automobilové	-11.4954
▁podstat	-11.4954
▁hory	-11.4954
▁rozdílné	-11.4957
▁náboženský	-11.4959
▁koš	-11.4959
▁činitel	-11.4962
▁tradičních	-11.4971
▁Hus	-11.4971
▁vlastníka	-11.4983
▁způsobí	-11.4983
krás	-11.4989
▁tkání	-11.4994
▁prac	-11.4995
▁varianta	-11.4996
aných	-11.4999
tvořily	-11.5003
ash	-11.5005
vydržel	-11.5005
▁deviz	-11.5006
▁postupuje	-11.5008
▁dlužník	-11.501
▁příjemně	-11.5015
▁rekordní	-11.5021
stupující	-11.5022
dent	-11.5023
▁resort	-11.5024
řad	-11.503
živí	-11.5034
ht	-11.5043
▁les	-11.5045
kého	-11.5048
▁směr	-11.5049
▁kout	-11.5051
▁kvalifikovan	-11.5052
▁nejlepšími	-11.5059
▁kraj	-11.5059
▁skutečným	-11.5066
▁pomohla	-11.5067
dáte	-11.507
▁evoluční	-11.5077
ŽE	-11.5078
▁světle	-11.5082
svědčil	-11.5086
▁prokázán	-11.5095
obr	-11.5101
alba	-11.5103
▁vražd	-11.5109
pouštět	-11.5109
▁jednot	-11.5115
řez	-11.5115
▁Žádn	-11.5116
▁hodině	-11.5117
▁demokrat	-11.5118
▁uživatelské	-11.5121
▁stručn	-11.5121
▁kmen	-11.5124
šky	-11.5124
▁cítím	-11.5127
▁použitím	-11.5128
▁soustav	-11.5131
▁síťové	-11.5139
▁vhodný	-11.5141
▁bytový	-11.5142
▁párů	-11.5144
▁doufá	-11.5147
▁Vznikl	-11.5157
▁jede	-11.5159
▁uvědomil	-11.5159
tiky	-11.5161
▁Obchod	-11.5161
taž	-11.5162
▁malém	-11.5166
▁opačné	-11.517
izovat	-11.5172
lčí	-11.5176
▁stimul	-11.5181
▁72	-11.5182
nských	-11.5182
rot	-11.5188
▁vyjadřuj	-11.5188
anti	-11.5188
jte	-11.519
▁AC	-11.5193
▁politickým	-11.5194
▁důchod	-11.5195
▁186	-11.5195
pul	-11.5202
▁specifik	-11.5208
▁obran	-11.5209
3.	-11.5212
▁široký	-11.5214
▁postoupil	-11.5214
vrácení	-11.5227
obyčejně	-11.5227
▁Janov	-11.524
podivu	-11.5241
▁přistoupil	-11.5242
▁Vysok	-11.5245
▁ztracen	-11.5247
▁prokázal	-11.5247
▁dán	-11.5248
▁nepříjemn	-11.5249
▁násiln	-11.5251
icí	-11.5254
▁jakoukoli	-11.526
▁obchodník	-11.5263
▁přírodovědeck	-11.5265
▁Eli	-11.5267
▁vyvinul	-11.5267
ičku	-11.5267
▁vzrostl	-11.5267
▁znalost	-11.5271
evropský	-11.5273
▁astronom	-11.5274
▁chirurg	-11.5276
EP	-11.5278
▁krásný	-11.5278
jov	-11.5278
▁konstatova	-11.5279
▁leckd	-11.5279
hodinový	-11.528
▁kontrast	-11.5282
▁laboratoř	-11.5289
▁čtvereční	-11.5289
▁tratí	-11.529
▁ohně	-11.529
▁pocházejí	-11.529
▁klobouk	-11.5291
skop	-11.5291
▁násilí	-11.5292
▁design	-11.5293
▁kodex	-11.5293
▁Word	-11.5295
▁svatb	-11.5295
▁konkurent	-11.5296
▁výhodný	-11.5297
▁cement	-11.5298
▁extrémní	-11.5299
▁připomínk	-11.5302
štění	-11.5302
▁autorit	-11.5304
▁rytíř	-11.5305
▁uplatňuj	-11.5306
▁Každé	-11.5306
hlížel	-11.5308
AG	-11.5312
▁závislost	-11.5312
▁ideál	-11.5313
▁předák	-11.5315
ŘE	-11.5315
áty	-11.5318
krývají	-11.5322
▁infekc	-11.5323
▁Morav	-11.5325
▁kluk	-11.5326
▁Rakušan	-11.5326
▁vzrůst	-11.5327
▁uzavřený	-11.5328
▁elektrod	-11.5329
zaměstnan	-11.5331
▁norma	-11.5334
▁označován	-11.5335
▁pozván	-11.5336
▁fenomén	-11.5337
▁komfort	-11.5337
▁William	-11.5338
▁Kraj	-11.534
střelen	-11.534
▁nazvaný	-11.5341
▁Určit	-11.5341
▁stálo	-11.5345
▁měřit	-11.5347
▁penzi	-11.5347
šp	-11.5348
▁sediment	-11.5349
▁zajímavost	-11.535
▁fyzick	-11.535
17	-11.5355
▁Kolumbi	-11.5356
▁následné	-11.5358
▁použije	-11.5358
vážet	-11.5359
▁vzájemný	-11.536
▁strážník	-11.536
▁dopadl	-11.5361
▁dám	-11.5361
▁hornin	-11.5361
▁Jenom	-11.5362
▁nevznik	-11.5362
▁KSČ	-11.5363
▁bezpečně	-11.5364
▁Filip	-11.5364
▁1983	-11.5364
▁Austrálie	-11.5364
▁Ludvík	-11.5364
▁Návrat	-11.5364
▁Oldřich	-11.5364
▁Pistol	-11.5364
▁Vešker	-11.5364
▁WWW	-11.5364
▁definice	-11.5364
▁deklaraci	-11.5364
▁důležitější	-11.5364
▁federaci	-11.5364
▁fungování	-11.5364
▁hardwarov	-11.5364
▁infarkt	-11.5364
▁kampaně	-11.5364
▁konfigurace	-11.5364
▁konkurovat	-11.5364
▁literatuře	-11.5364
▁nukleární	-11.5364
▁odpovědět	-11.5364
▁plošný	-11.5364
▁pojišťovnou	-11.5364
▁populaci	-11.5364
▁problematice	-11.5364
▁prozradil	-11.5364
▁předpovědi	-11.5364
▁přerozdělování	-11.5364
▁rekreaci	-11.5364
▁rubrice	-11.5364
▁tiskáren	-11.5364
▁trénovat	-11.5364
▁vypráví	-11.5364
▁zapomenout	-11.5364
▁zaručit	-11.5364
▁zákulisí	-11.5364
▁špatnou	-11.5364
přízeň	-11.5364
▁Ctrl	-11.5364
▁Francií	-11.5364
▁Mitterrand	-11.5364
▁Právo	-11.5364
▁bankovnictví	-11.5364
▁reagují	-11.5364
▁ujistil	-11.5364
▁vláken	-11.5364
▁účinné	-11.5364
▁interiér	-11.5364
▁praktik	-11.5364
▁Kurzy	-11.5364
▁zastupuje	-11.5364
▁ustavující	-11.5364
▁značku	-11.5364
atlantick	-11.5364
▁elementární	-11.5364
▁jednodušší	-11.5364
▁mikrofon	-11.5364
▁povolební	-11.5364
▁východoevropský	-11.5364
▁Četrans	-11.5364
▁nabídek	-11.5364
▁předvánoční	-11.5364
▁rozdělí	-11.5364
▁multi	-11.5364
▁taxonomie	-11.5364
▁popředí	-11.5364
▁vrstva	-11.5364
▁stráví	-11.5364
▁úložiště	-11.5364
▁desek	-11.5364
▁ovládací	-11.5364
▁uplatňován	-11.5364
▁Pivovar	-11.5364
▁rozvíjet	-11.5365
▁lázní	-11.5365
▁realizace	-11.5365
▁rozsáhlejší	-11.5365
▁tolerance	-11.5365
▁poušti	-11.5365
▁léčbu	-11.5365
▁učiní	-11.5365
ford	-11.5365
▁komunikační	-11.5365
▁šipk	-11.5365
▁Soulu	-11.5365
▁FBIS	-11.5365
▁firmách	-11.5365
▁fází	-11.5365
▁vyžadovat	-11.5365
▁bankrot	-11.5365
▁zánět	-11.5365
▁Moravia	-11.5365
▁zabránil	-11.5365
▁dotaci	-11.5365
▁češtiny	-11.5365
▁poptávku	-11.5365
▁Setkání	-11.5365
▁sníh	-11.5365
▁distribuční	-11.5365
▁plaz	-11.5365
▁robot	-11.5365
▁Značn	-11.5365
▁spotřeba	-11.5365
▁Nechci	-11.5365
▁fakticky	-11.5365
▁holub	-11.5365
▁faul	-11.5365
▁toxické	-11.5366
▁nominaci	-11.5366
▁Vzá	-11.5366
▁kameny	-11.5366
▁obchodovat	-11.5366
▁1976	-11.5366
▁vyprávěl	-11.5366
▁publikaci	-11.5366
▁vyslovit	-11.5366
▁Cítí	-11.5366
▁ČSD	-11.5366
▁líčí	-11.5366
▁vysloužil	-11.5367
▁podobnou	-11.5367
▁všední	-11.5367
▁bál	-11.5367
▁vynutil	-11.5367
▁Data	-11.5368
▁bomb	-11.5368
chybějí	-11.5368
▁hospodaří	-11.5368
▁produkcí	-11.5368
▁vystavuje	-11.5369
▁pestr	-11.537
▁spektra	-11.537
▁dvoudenní	-11.537
▁mezistátní	-11.537
▁Maďarskem	-11.537
▁umělci	-11.5371
▁Informace	-11.5371
▁novotvary	-11.5371
▁mediální	-11.5371
▁hepatocytů	-11.5371
▁volající	-11.5371
▁přijatelná	-11.5371
▁zajišťující	-11.5372
▁vydávat	-11.5372
▁symplektick	-11.5372
▁cestách	-11.5372
▁seskupení	-11.5373
▁zimy	-11.5373
▁kardinál	-11.5373
▁připraví	-11.5373
▁desetkrát	-11.5374
▁konsensus	-11.5374
▁strop	-11.5374
▁výšky	-11.5374
▁nestátní	-11.5374
▁odsoudil	-11.5374
▁významnější	-11.5374
▁ředitelství	-11.5374
▁palubě	-11.5374
▁Kladně	-11.5375
▁tendence	-11.5375
▁vlasy	-11.5375
▁předloží	-11.5376
▁dosáhne	-11.5377
▁vyhodnocení	-11.5377
▁pozoruhodné	-11.5378
▁cokoli	-11.5378
▁zvířecí	-11.5378
▁vysílací	-11.5378
▁altruismus	-11.5378
▁distributor	-11.5379
▁konání	-11.5379
▁nouze	-11.5379
▁mlhy	-11.5379
▁Vstup	-11.538
▁prokázat	-11.5381
▁vyhrát	-11.5381
ousek	-11.5381
▁jednotlivce	-11.5381
▁řádku	-11.5382
▁ekonomikou	-11.5382
▁pomáhají	-11.5382
▁komentátor	-11.5383
▁pořádek	-11.5384
▁oceánické	-11.5384
▁krajině	-11.5385
▁jistotou	-11.5385
▁Park	-11.5385
▁zatížení	-11.5385
▁pokrýt	-11.5385
▁nástupce	-11.5385
▁hudbu	-11.5386
▁Číně	-11.5388
▁pásmu	-11.5388
▁různě	-11.5388
▁Šlo	-11.5388
▁zeď	-11.5389
▁ránu	-11.5389
▁sestaven	-11.5389
▁trasy	-11.5389
▁válečný	-11.5389
▁vědce	-11.5389
▁modelování	-11.539
▁evropskou	-11.539
▁faktorem	-11.5391
▁pozorovatelé	-11.5391
▁analýze	-11.5391
▁řetězce	-11.5392
▁předkol	-11.5392
▁sumu	-11.5393
▁zmínil	-11.5394
▁soukromí	-11.5394
▁liga	-11.5396
▁prostý	-11.5396
▁ekonomiku	-11.5396
▁vybojoval	-11.5397
▁autobusem	-11.5397
▁přesností	-11.5398
▁bránil	-11.5398
▁kurzů	-11.5399
▁vzbudil	-11.5399
▁dodavatelů	-11.54
▁dřevěné	-11.54
▁zkušen	-11.5401
▁vyloučeno	-11.5401
užit	-11.5401
▁nuly	-11.5402
▁motorem	-11.5403
▁startovat	-11.5403
díval	-11.5404
▁směřující	-11.5404
▁zvykem	-11.5404
▁vyřazení	-11.5405
měr	-11.5405
▁podepsání	-11.5407
▁dopisů	-11.5407
▁uchazeč	-11.5408
▁katastrofy	-11.5408
▁uvítal	-11.5409
▁pokladny	-11.541
▁Domnívám	-11.541
▁virus	-11.541
▁dodávat	-11.541
▁středoevropské	-11.5411
ovitých	-11.5411
▁hormonů	-11.5412
▁Lidový	-11.5412
▁kalendářní	-11.5413
▁technickou	-11.5414
▁návštěvníky	-11.5414
▁Chebu	-11.5415
▁listiny	-11.5415
▁nedokáže	-11.5417
▁středověku	-11.5417
lů	-11.5417
▁Syn	-11.5418
▁Francouzský	-11.5418
▁úhradu	-11.542
▁zastává	-11.542
36	-11.542
▁kulturu	-11.5421
▁Alžběta	-11.5421
▁Bratinka	-11.5421
▁podoba	-11.5422
▁rozpočtový	-11.5422
▁diváky	-11.5423
▁kanály	-11.5423
▁opakuje	-11.5423
▁slavnosti	-11.5423
▁porod	-11.5425
▁větru	-11.5425
▁telefonů	-11.5425
▁marketingu	-11.5425
▁Saúdsk	-11.5426
▁etapa	-11.5426
▁účinků	-11.5427
▁přispívají	-11.5427
▁dospělých	-11.5428
▁hrd	-11.5429
▁vyloučení	-11.5429
▁odstupné	-11.5434
▁230	-11.5434
▁disciplíny	-11.5435
▁postaví	-11.5436
▁Ber	-11.5439
▁dozvěděli	-11.544
▁délky	-11.544
▁hosté	-11.544
věří	-11.5442
▁přístavu	-11.5443
▁odvezl	-11.5447
▁autobusové	-11.5447
▁zločiny	-11.5449
▁útvaru	-11.5449
▁stoupla	-11.5449
▁vybrali	-11.5451
▁Anna	-11.5452
▁zodpovězen	-11.5453
▁aparátu	-11.5453
▁dluhy	-11.5454
▁badatel	-11.5454
▁Historick	-11.5455
▁pořádání	-11.5456
▁šťastný	-11.5457
▁návratnost	-11.5458
▁nastane	-11.546
▁vrah	-11.5463
▁městem	-11.5463
▁vzrostla	-11.5463
kově	-11.5464
▁vědecky	-11.5465
▁aplikacemi	-11.5466
▁nevěděli	-11.5466
▁horké	-11.5467
▁ledu	-11.5467
▁hladinu	-11.5473
▁proteinu	-11.5473
▁katalogu	-11.5473
▁svěřil	-11.5473
0.000	-11.5474
▁možnostech	-11.5476
▁nejbližším	-11.5477
▁zvolení	-11.5478
▁titulem	-11.5478
hodná	-11.5479
▁signály	-11.548
▁černého	-11.548
▁Možnosti	-11.5481
▁samotného	-11.5481
▁tématu	-11.5483
▁přísné	-11.5484
▁ostrova	-11.5484
▁nahoře	-11.5487
▁vyhledá	-11.5487
▁Hilla	-11.5487
▁královské	-11.5488
▁rezervy	-11.5488
▁počáteční	-11.5491
▁Perské	-11.5493
▁vysokým	-11.5494
▁klesla	-11.5495
▁chaty	-11.5496
klep	-11.5497
▁druhých	-11.5497
UM	-11.5498
▁Fakt	-11.5498
▁úspěšných	-11.5498
▁investici	-11.5499
▁nazvané	-11.55
▁nemáte	-11.5503
▁Dán	-11.5504
▁obchodníky	-11.5504
▁Dne	-11.5504
▁nezávislosti	-11.5506
▁kurzy	-11.5506
▁editoru	-11.5506
▁Gen	-11.5506
▁Muži	-11.5507
▁objevilo	-11.5508
▁pohybů	-11.5509
▁Var	-11.551
▁zaměstnavateli	-11.5513
▁tréninku	-11.5514
▁radí	-11.5515
▁vaku	-11.5516
▁Pal	-11.5516
munist	-11.5517
▁dramatick	-11.5519
▁hromadné	-11.552
▁řešil	-11.5521
čné	-11.5526
▁psa	-11.5527
▁sub	-11.5531
▁uši	-11.5533
▁představila	-11.5533
▁Sever	-11.5534
čila	-11.5536
▁góly	-11.5536
▁dobrém	-11.5537
▁dovnitř	-11.5538
cem	-11.5541
▁Prof	-11.5542
▁udělala	-11.5545
▁Odbor	-11.5545
▁odporu	-11.5546
▁nechtěli	-11.5546
▁volání	-11.5549
▁zobraz	-11.555
býval	-11.5552
▁kanceláři	-11.5552
▁Americké	-11.5555
▁kursu	-11.5556
▁založili	-11.5556
▁dotazy	-11.5558
▁nepřímo	-11.5559
▁děd	-11.556
▁vítězem	-11.5561
pokládat	-11.5561
▁podzimu	-11.5565
atrně	-11.5567
▁požádala	-11.5569
rý	-11.557
▁vyjádřen	-11.557
▁stěn	-11.5571
stran	-11.5577
▁umělý	-11.5581
▁dotazu	-11.5581
▁off	-11.5581
▁přítel	-11.5584
nej	-11.5586
▁filmař	-11.5587
▁dramat	-11.5588
▁kapacita	-11.5588
▁jízd	-11.559
▁statistick	-11.5591
▁známy	-11.5591
▁osobním	-11.5592
▁zub	-11.5593
▁bitv	-11.5593
izované	-11.5594
▁trvalý	-11.5595
▁staro	-11.5598
děláme	-11.5599
▁vlastníky	-11.5602
▁zápasech	-11.5602
▁odstoupil	-11.5603
hru	-11.5605
▁Způsob	-11.5606
▁upravené	-11.5611
▁tah	-11.5612
méno	-11.5614
▁nedělním	-11.5614
▁nacházejí	-11.5617
▁nabídla	-11.5618
stane	-11.5618
▁Černé	-11.5621
příště	-11.5624
▁samém	-11.5632
▁vložil	-11.5633
▁sbír	-11.5638
▁jasný	-11.5638
kupuje	-11.5644
▁dokonalý	-11.5645
▁časy	-11.5646
▁majetkové	-11.5647
večer	-11.5652
▁českému	-11.5652
▁zajímav	-11.5654
▁českými	-11.5654
počítat	-11.5658
který	-11.5659
▁Počítá	-11.566
čištění	-11.5662
▁Jejím	-11.5667
▁generálním	-11.5669
čkách	-11.5671
▁zabezpeč	-11.5672
▁Pen	-11.5675
graf	-11.5675
▁cizím	-11.5676
HA	-11.5678
bytová	-11.5681
▁disky	-11.5681
▁krátkém	-11.5683
▁opačný	-11.5683
▁poradenské	-11.5685
▁přeprav	-11.5686
ria	-11.5689
▁jakosti	-11.5692
▁Har	-11.5695
▁obecný	-11.5699
kých	-11.5701
▁prah	-11.5702
třel	-11.5705
▁Hodn	-11.5706
▁představa	-11.5707
▁jednáním	-11.571
visí	-11.5715
▁předků	-11.5717
▁nařídil	-11.5717
▁dosáhli	-11.5718
▁pravým	-11.5718
▁obcích	-11.572
▁knihovn	-11.5723
▁Bab	-11.5724
obec	-11.5732
▁vytvořené	-11.5733
▁stres	-11.5734
íků	-11.5734
kování	-11.5739
▁vypracoval	-11.5739
▁nepod	-11.574
▁Horní	-11.5741
▁šetřit	-11.5741
▁faktor	-11.5744
rně	-11.5747
▁polární	-11.5747
▁nedělá	-11.5747
▁Pel	-11.575
▁chlap	-11.5751
▁Casimir	-11.5754
enou	-11.5755
elná	-11.5759
▁Softwar	-11.576
▁vyroben	-11.5761
▁maso	-11.5766
▁náhradník	-11.5768
▁měnil	-11.5768
▁budoucím	-11.5769
staly	-11.5769
zkoumat	-11.577
▁Borise	-11.5773
▁uvolni	-11.5776
▁starších	-11.5777
▁logický	-11.578
▁nabízené	-11.5783
▁moderního	-11.5783
▁venkov	-11.5784
▁hodnotit	-11.5784
▁41	-11.5787
kání	-11.5787
vědčí	-11.5787
ong	-11.579
▁chyt	-11.5796
▁Kos	-11.5798
▁mužem	-11.5798
hlédnout	-11.5799
tle	-11.5799
▁příznivc	-11.58
500	-11.5806
drobnější	-11.5809
▁Ken	-11.5811
AC	-11.5811
▁kapitol	-11.5813
▁osobou	-11.5813
▁van	-11.5819
▁dávky	-11.5823
▁dodá	-11.5824
▁překonal	-11.5824
▁4000	-11.5827
▁trávi	-11.5827
▁velitele	-11.5829
▁omyl	-11.5834
uad	-11.5836
▁prodával	-11.5839
1%	-11.5843
▁Mladiče	-11.5844
▁sobotním	-11.5845
▁zřetelně	-11.5851
jížděl	-11.5853
▁dostával	-11.5853
▁slušný	-11.5853
dík	-11.5856
▁Las	-11.5857
▁šesté	-11.5858
▁špatný	-11.5867
▁kanál	-11.587
▁udělen	-11.5875
▁sluch	-11.5877
▁říkal	-11.5877
plyn	-11.5878
káže	-11.5884
▁Druh	-11.5886
▁foto	-11.5892
▁podrobně	-11.5894
vl	-11.5898
▁divák	-11.5901
▁proveden	-11.5907
▁Bob	-11.5913
▁statistik	-11.5915
znamenal	-11.5917
poskytla	-11.5918
▁zmizel	-11.5918
▁pout	-11.592
ME	-11.5921
▁poškozen	-11.5923
1.	-11.5926
▁písmen	-11.5927
▁splněn	-11.5929
▁problémům	-11.5929
▁kosti	-11.5932
1972	-11.5941
44	-11.5941
▁kříže	-11.5942
konaly	-11.5943
▁proměnliv	-11.5944
▁výplat	-11.5945
▁strašn	-11.5945
▁doprovod	-11.5946
▁kapel	-11.595
jednává	-11.5952
ůbec	-11.5954
▁ovlivnil	-11.5956
90	-11.5958
▁žádají	-11.5958
▁racionální	-11.5962
▁pane	-11.5965
▁poražen	-11.5966
▁Real	-11.5967
▁chyba	-11.5971
bitový	-11.5972
▁Hill	-11.5974
▁obrovsk	-11.5976
▁poplatník	-11.5976
▁Lendl	-11.5978
kdy	-11.5979
▁popularit	-11.5979
▁zveřejnil	-11.598
▁domácnost	-11.5981
▁televizním	-11.5982
▁bývalým	-11.5983
▁veřejný	-11.5985
▁svazk	-11.5985
▁nemovitost	-11.5986
▁pozic	-11.5987
▁rock	-11.5987
vlas	-11.5989
▁občanský	-11.5995
lle	-11.5999
▁těle	-11.6
▁žádného	-11.6001
▁charakterizova	-11.6002
▁53	-11.6002
▁myš	-11.6004
▁Kur	-11.6005
▁chaos	-11.6009
▁něčem	-11.6009
▁podobnost	-11.6011
střílel	-11.6012
▁myslel	-11.6013
▁trhů	-11.6014
▁poslání	-11.6014
▁rozumí	-11.6014
▁interval	-11.6014
▁spravedlnost	-11.6015
▁ovládá	-11.6015
▁odběratelů	-11.6016
▁objektiv	-11.6017
▁odcházejí	-11.6022
▁verzí	-11.6023
▁vězni	-11.6025
▁zemní	-11.6025
▁politickém	-11.6025
▁poskytován	-11.6028
▁propojen	-11.6028
▁ženské	-11.6029
▁zklamán	-11.603
▁nemocné	-11.6031
▁TV	-11.6031
▁mládež	-11.6035
▁zatčen	-11.6036
▁obdobím	-11.6036
▁naplněn	-11.6037
▁uzavře	-11.6038
▁diplomatické	-11.604
▁komet	-11.604
▁honorář	-11.6042
▁bilanc	-11.6043
▁obezit	-11.6044
▁Víc	-11.6045
▁Míst	-11.6047
dělat	-11.605
▁touží	-11.605
▁odvet	-11.6054
▁zvyšují	-11.6054
▁oblib	-11.6054
▁prodávající	-11.6061
▁skript	-11.6062
▁kilogram	-11.6064
▁chrání	-11.6064
daná	-11.6065
ero	-11.6065
▁způsobeno	-11.6066
pomáhal	-11.6066
▁Mistr	-11.6068
árek	-11.6071
rozhodoval	-11.6072
▁vycházejí	-11.6076
čínsk	-11.6076
▁učit	-11.6077
mus	-11.6078
▁velvyslanec	-11.6079
▁Akademie	-11.6079
▁Netanjahu	-11.6079
▁SPIRIT	-11.6079
▁brožur	-11.6079
▁kanalizací	-11.6079
▁komodit	-11.6079
▁milisekund	-11.6079
▁odpolední	-11.6079
▁poštovní	-11.6079
▁Albertville	-11.6079
▁Bratislavy	-11.6079
▁Delphi	-11.6079
▁Dennett	-11.6079
▁Digital	-11.6079
▁General	-11.6079
▁Hospodářsk	-11.6079
▁Němce	-11.6079
▁Princip	-11.6079
▁Pálffy	-11.6079
▁Reichel	-11.6079
▁TWA	-11.6079
▁Teplice	-11.6079
▁Vynikající	-11.6079
▁databáze	-11.6079
▁databázi	-11.6079
▁dveřmi	-11.6079
▁havárii	-11.6079
▁informuje	-11.6079
▁inzulín	-11.6079
▁komedie	-11.6079
▁komisař	-11.6079
▁kompetencí	-11.6079
▁lehký	-11.6079
▁lidstvo	-11.6079
▁nechybí	-11.6079
▁nesrovnateln	-11.6079
▁nosorožců	-11.6079
▁obyvatelstvo	-11.6079
▁olomoucké	-11.6079
▁omezit	-11.6079
▁pohodlné	-11.6079
▁pojišťoven	-11.6079
▁pojišťovně	-11.6079
▁portfeje	-11.6079
▁přeplněn	-11.6079
▁přísluší	-11.6079
▁sféře	-11.6079
▁splátek	-11.6079
▁těhotenství	-11.6079
▁vrtulník	-11.6079
▁zahájit	-11.6079
▁zaručuje	-11.6079
▁zdůraznit	-11.6079
▁zopakoval	-11.6079
▁zpracovává	-11.6079
▁záruční	-11.6079
▁účinnou	-11.6079
▁Černomyrdin	-11.6079
▁železné	-11.6079
▁SGI	-11.6079
▁Zajímal	-11.6079
▁kultuře	-11.6079
▁loupež	-11.6079
▁odstavec	-11.6079
▁svrchované	-11.6079
▁James	-11.6079
▁Kadlec	-11.6079
▁podepsat	-11.6079
▁přetížen	-11.6079
▁nikomu	-11.6079
▁někomu	-11.6079
▁odhalit	-11.6079
▁prováděl	-11.6079
▁Prahou	-11.6079
▁poznámky	-11.6079
▁Bohuslav	-11.6079
▁vybudoval	-11.6079
▁Automatick	-11.6079
▁mutací	-11.6079
▁Front	-11.6079
▁Fuchs	-11.6079
▁něčeho	-11.6079
▁Louis	-11.6079
▁formálně	-11.6079
▁legendární	-11.6079
▁pořizovací	-11.6079
LSNS	-11.6079
▁Zpráv	-11.6079
▁ceremoniál	-11.6079
▁chystají	-11.6079
▁hokejistů	-11.6079
▁mocenské	-11.6079
▁FMV	-11.6079
▁Opava	-11.6079
▁dědeček	-11.6079
▁kapsy	-11.6079
hánějí	-11.6079
▁Samotn	-11.6079
▁nazvat	-11.6079
▁fotografií	-11.6079
▁implantát	-11.6079
▁chleba	-11.6079
▁Kouba	-11.6079
▁diktátor	-11.6079
▁Účastníci	-11.6079
▁vyprš	-11.6079
▁zmizí	-11.6079
▁písmo	-11.6079
▁stromeček	-11.6079
▁oblouk	-11.6079
▁Hledá	-11.6079
▁usedl	-11.6079
▁paměť	-11.6079
▁registrační	-11.6079
▁katalyzátor	-11.6079
▁1979	-11.6079
▁nepodaří	-11.6079
▁podporoval	-11.6079
▁dávek	-11.6079
▁ležel	-11.6079
▁pojmu	-11.6079
▁stimulaci	-11.6079
▁Zápas	-11.6079
▁Přenos	-11.6079
▁pátku	-11.6079
▁ultra	-11.6079
▁nikam	-11.608
▁účinnější	-11.608
▁málokdo	-11.608
▁střelec	-11.608
▁vejce	-11.608
▁odezv	-11.608
▁jinam	-11.608
▁zakázek	-11.608
▁Následující	-11.608
▁zády	-11.608
▁1970	-11.608
▁nikde	-11.608
▁umělců	-11.608
▁Suková	-11.608
▁zranil	-11.608
▁inteligence	-11.608
▁starat	-11.6081
▁hraček	-11.6081
▁zneužívání	-11.6081
▁posílit	-11.6081
▁Jaw	-11.6081
▁Kováč	-11.6081
▁Stef	-11.6081
▁stanovisku	-11.6081
▁Obavy	-11.6081
isty	-11.6081
vracení	-11.6081
zdobí	-11.6081
▁dovednost	-11.6081
▁koncept	-11.6081
▁třídenní	-11.6081
▁vyzkoušet	-11.6082
▁KGB	-11.6082
▁manželkou	-11.6082
▁sněmu	-11.6082
▁Jágr	-11.6082
▁vyhledávání	-11.6082
▁lékařství	-11.6082
▁palet	-11.6082
▁odnětí	-11.6082
▁zelené	-11.6083
▁železnice	-11.6083
kryt	-11.6083
▁Snah	-11.6083
▁okně	-11.6083
▁deště	-11.6083
▁Ježek	-11.6083
▁topení	-11.6083
▁přenáší	-11.6083
▁Indián	-11.6084
▁Dostál	-11.6084
▁bohatší	-11.6084
▁řadič	-11.6084
▁deska	-11.6084
▁výsad	-11.6085
▁smířit	-11.6085
▁berou	-11.6085
▁stadiu	-11.6085
▁neznají	-11.6085
▁články	-11.6086
atřicetilet	-11.6086
▁kolegové	-11.6086
▁překonání	-11.6086
▁terč	-11.6086
RS	-11.6087
▁nejsme	-11.6087
▁Kovohut	-11.6087
extrémně	-11.6088
▁oběhové	-11.6088
▁křesťanské	-11.6088
▁nejblíže	-11.6088
▁zkoumání	-11.6088
▁ordinace	-11.6088
▁vyrazil	-11.6088
▁France	-11.6089
▁konstantní	-11.6089
▁odstoupení	-11.6089
▁jasná	-11.6089
▁spolupracuje	-11.6089
▁602	-11.609
▁organismy	-11.609
▁dostání	-11.609
▁říční	-11.6091
▁šancí	-11.6091
▁lahví	-11.6091
formulovat	-11.6092
▁kopií	-11.6093
▁novinky	-11.6093
▁stěžuje	-11.6093
▁ponechal	-11.6093
žili	-11.6093
▁tekutin	-11.6093
▁Dvou	-11.6094
▁stáj	-11.6094
▁Čína	-11.6095
▁cla	-11.6095
▁radikálně	-11.6095
hrával	-11.6096
▁nechut	-11.6096
▁rozsáhlou	-11.6096
▁sloučení	-11.6097
▁závazku	-11.6097
▁nedají	-11.6097
▁nehraje	-11.6097
▁adaptace	-11.6097
▁zařadit	-11.6097
ess	-11.6098
▁známky	-11.6098
▁představovat	-11.6098
▁výměně	-11.6098
▁vzdálený	-11.6098
▁skrz	-11.6098
▁regionů	-11.6098
▁ČESK	-11.6098
▁Španělsku	-11.6099
▁had	-11.6099
▁Student	-11.6099
▁Open	-11.6099
▁příznaky	-11.6099
▁spořitelny	-11.61
▁schopný	-11.61
▁půlnoci	-11.61
▁dobrovolně	-11.61
▁odletěl	-11.6101
▁zájezdů	-11.6101
▁stížností	-11.6101
NSK	-11.6101
▁záchranu	-11.6101
▁Alp	-11.6102
▁odhalení	-11.6103
▁basketbalist	-11.6103
reform	-11.6104
▁dopravou	-11.6104
▁sešla	-11.6104
▁způsobilosti	-11.6105
▁srovnateln	-11.6105
▁ropy	-11.6105
▁dovedl	-11.6105
▁kůry	-11.6106
▁pitné	-11.6106
ázev	-11.6106
▁dodržovat	-11.6106
▁výměnou	-11.6107
▁pozorovatel	-11.6107
▁drát	-11.6107
▁Československý	-11.6108
▁etapu	-11.6108
▁stručně	-11.6108
▁bodech	-11.6109
▁teoreticky	-11.611
hradil	-11.611
▁činitelé	-11.611
▁funkcionářů	-11.6111
▁61	-11.6111
▁Mnichově	-11.6111
▁Januš	-11.6112
▁neshody	-11.6112
▁hudba	-11.6112
▁Clintonová	-11.6112
▁kolena	-11.6112
▁Místopředsed	-11.6113
▁věcech	-11.6113
▁prodejen	-11.6113
▁Střední	-11.6114
▁Bonnu	-11.6115
▁pětatřicet	-11.6115
▁honoráře	-11.6115
%.	-11.6115
eme	-11.6115
▁Rakousko	-11.6116
▁publikum	-11.6116
▁předpokladů	-11.6117
▁plánuje	-11.6117
▁svatého	-11.6117
▁Kanady	-11.6118
▁soukromá	-11.6119
▁pojmem	-11.6119
▁vídeňské	-11.612
▁psací	-11.612
▁porážky	-11.612
▁Chorvatsku	-11.612
▁případném	-11.612
▁navázal	-11.6121
▁zdálo	-11.6122
▁dostanete	-11.6122
▁vlastnostmi	-11.6122
▁větě	-11.6123
▁zhoršil	-11.6123
▁znakem	-11.6123
▁provádění	-11.6124
▁mřížky	-11.6124
▁ukazatel	-11.6125
▁působnost	-11.6125
▁kostr	-11.6126
▁Adam	-11.6126
▁rakouských	-11.6126
▁nervové	-11.6127
▁náhrada	-11.6127
▁tématem	-11.6127
▁zklamání	-11.6127
▁lokality	-11.6127
ismem	-11.6127
▁pleti	-11.6128
▁hrací	-11.6129
▁skladby	-11.613
psání	-11.613
▁zpožděním	-11.613
▁zakládání	-11.6131
▁Výborný	-11.6133
smluvně	-11.6133
▁rohu	-11.6134
▁symbolem	-11.6134
▁rozměry	-11.6137
▁popsal	-11.6139
▁buněčné	-11.614
▁jednorázové	-11.6142
▁teplotou	-11.6143
▁hezké	-11.6143
▁popel	-11.6144
▁Ul	-11.6144
bez	-11.6145
▁uloženy	-11.6146
▁netrpěliv	-11.6146
vážil	-11.6147
▁nedaleké	-11.6148
▁thajské	-11.6149
▁směsi	-11.6149
▁ostré	-11.615
zemědělská	-11.615
▁nepříznivý	-11.6151
▁kostele	-11.6151
▁organismus	-11.6151
▁činitelů	-11.6151
▁programech	-11.6151
▁Západní	-11.6152
ding	-11.6153
▁POD	-11.6155
▁většinový	-11.6155
▁Strany	-11.6155
▁Řím	-11.6155
▁paláci	-11.6156
▁elektron	-11.6157
▁přestupu	-11.6157
▁lidskou	-11.6158
▁gólem	-11.6158
▁srbské	-11.6158
ňovat	-11.616
▁kyseliny	-11.616
▁ceníku	-11.616
▁čtverečních	-11.616
▁umožnilo	-11.6161
▁hormony	-11.6161
▁sedmnácti	-11.6161
▁přesněji	-11.6162
▁modré	-11.6163
▁pochopili	-11.6164
▁diskety	-11.6165
dána	-11.6165
▁kolegům	-11.6168
▁zajišťoval	-11.617
▁autobusu	-11.6171
▁skoky	-11.6172
▁Voj	-11.6174
▁Die	-11.6175
lena	-11.6177
▁viditeln	-11.618
▁sam	-11.6181
▁Jelcinovi	-11.6182
▁odp	-11.6184
▁použito	-11.6185
▁dluhu	-11.6186
▁nedal	-11.6186
▁bere	-11.6187
▁zmizela	-11.6187
▁zachován	-11.6187
▁startem	-11.6187
▁kontaktů	-11.6189
konkurenceschopn	-11.619
▁částech	-11.6191
▁boty	-11.6193
▁Map	-11.6193
▁kdybych	-11.6193
▁okolnosti	-11.6193
▁oslavil	-11.6194
socialistický	-11.6194
▁nemůžete	-11.6195
▁profil	-11.6196
▁výměna	-11.6196
▁teplotu	-11.6197
▁Švédsko	-11.6198
▁odhadů	-11.6199
▁pru	-11.6202
▁kancelářské	-11.6204
▁Vysoké	-11.6205
▁Západoevropsk	-11.6208
▁prach	-11.6209
▁čist	-11.6211
LET	-11.6211
▁neuvažuje	-11.6211
▁slavn	-11.6214
▁záznamy	-11.6214
▁měnící	-11.6216
▁klientům	-11.6216
pracovala	-11.6216
▁vníma	-11.6217
▁přip	-11.622
▁hrobu	-11.622
▁čerstvé	-11.622
▁Obsahuj	-11.622
▁Firmy	-11.6221
▁novinka	-11.6223
▁kamenné	-11.6225
▁třídu	-11.6226
▁pokusili	-11.6227
▁útoky	-11.6228
▁3,	-11.6229
▁Bulharsk	-11.6232
▁nastává	-11.6235
▁mimořádného	-11.6237
▁olympijském	-11.6241
▁investory	-11.6242
▁hrdina	-11.6242
▁dobrým	-11.6244
taj	-11.6244
placení	-11.6245
▁dohodnuté	-11.6245
▁oxid	-11.6247
▁Dlouho	-11.6247
ografie	-11.6247
IE	-11.6249
▁manželů	-11.625
▁kulturním	-11.6254
▁trendy	-11.6254
čov	-11.6254
▁vkládání	-11.6255
▁příznivý	-11.6257
řek	-11.6261
▁hmotné	-11.6263
97	-11.6264
▁dáma	-11.6264
78	-11.6264
▁účastí	-11.6267
▁zúčastnili	-11.6267
▁projevů	-11.627
▁Skutečn	-11.6272
▁vynález	-11.6273
což	-11.6276
▁vyhořelé	-11.6278
pisuje	-11.6278
bylo	-11.628
▁ČT	-11.628
▁vyřešil	-11.6282
▁poločas	-11.6283
▁zřídka	-11.6283
vané	-11.6284
▁peče	-11.6284
▁nároku	-11.6284
▁provedené	-11.6286
▁akciový	-11.6289
▁připravili	-11.6289
▁kapaliny	-11.6289
eně	-11.629
▁tich	-11.629
rodil	-11.6292
▁dopisu	-11.6293
▁motorový	-11.6293
▁zněl	-11.6295
▁objektem	-11.6296
ručí	-11.6298
▁proviz	-11.6299
▁zrušen	-11.6299
terak	-11.6302
▁desetiletích	-11.6303
SM	-11.6304
▁59	-11.6305
▁tyči	-11.6306
▁lékařského	-11.6312
▁Začátk	-11.6312
vojí	-11.6314
▁předností	-11.6317
sáhl	-11.6318
▁Zájemc	-11.632
▁trestu	-11.6321
▁hromadn	-11.633
▁oboustrann	-11.633
▁Kan	-11.6334
▁Nemám	-11.6337
▁podnikem	-11.6338
▁ministry	-11.634
▁nástrojem	-11.634
▁vhodným	-11.6341
▁úrokové	-11.6342
▁Národního	-11.6342
▁1:	-11.6345
▁chybou	-11.6345
▁jakýkoli	-11.6345
▁vypadl	-11.6349
▁atletické	-11.635
▁Evropan	-11.6351
končit	-11.6354
▁potvrdily	-11.6356
▁uvolnil	-11.6358
▁Gorbačova	-11.6362
▁divákům	-11.6363
▁An	-11.6363
▁chladné	-11.6364
▁úvěru	-11.6364
▁studentům	-11.6366
míněn	-11.6367
▁podob	-11.6369
▁známého	-11.6372
víme	-11.6375
▁přechodné	-11.6376
▁různ	-11.6379
ničím	-11.6382
tkání	-11.6385
▁váhy	-11.6388
▁VE	-11.639
▁sovětsk	-11.6393
jištěn	-11.6393
▁zasáhl	-11.6395
▁zobrazen	-11.6397
čn	-11.6398
▁Kol	-11.6401
▁stán	-11.6401
▁odvod	-11.6408
▁Mont	-11.6409
▁dělit	-11.6412
▁specifický	-11.6414
jan	-11.6417
▁lékařům	-11.6419
bla	-11.642
line	-11.6424
▁stavem	-11.6425
staví	-11.6433
▁snížením	-11.6435
▁majiteli	-11.6435
▁Bub	-11.6438
▁životem	-11.6441
▁schopné	-11.6442
▁prezidentské	-11.6442
imochodem	-11.6442
▁účinný	-11.6443
▁subjekt	-11.6443
▁pevn	-11.6444
▁otazník	-11.6446
▁zodpovědn	-11.6448
▁sociálním	-11.6452
CK	-11.6454
▁červený	-11.6456
kových	-11.6459
▁starým	-11.6466
▁We	-11.6466
▁přesnost	-11.647
▁tenisový	-11.6473
▁cenový	-11.6477
▁vstoupí	-11.6485
ativní	-11.6487
▁panu	-11.6493
střih	-11.6493
▁ucho	-11.6497
▁výtvarný	-11.6499
▁technik	-11.6501
▁kontrol	-11.6507
▁pouč	-11.6509
▁brzd	-11.6513
▁zlat	-11.6515
▁závazný	-11.6515
nucen	-11.6519
▁iniciativ	-11.6525
svit	-11.6528
▁zvukový	-11.6533
▁nekonečn	-11.6535
lech	-11.6537
14	-11.6539
▁úrokový	-11.6544
▁centrál	-11.6554
▁Politick	-11.6555
▁očekávaný	-11.6559
sadili	-11.656
▁meziroční	-11.6561
▁slavnost	-11.6562
▁vůdc	-11.6567
▁pětadvacet	-11.6569
▁pouhým	-11.657
▁nasazen	-11.6571
vrátit	-11.6574
▁1300	-11.6587
soudí	-11.6588
vládnout	-11.659
nových	-11.6591
▁vítězstvím	-11.6591
▁tepeln	-11.6592
které	-11.6593
trž	-11.6594
▁známost	-11.6594
▁manipul	-11.6599
95	-11.6602
▁maxim	-11.6603
▁Lys	-11.6604
▁magnet	-11.6604
kazuje	-11.6607
▁Sal	-11.6612
▁Dohod	-11.6616
▁Ann	-11.662
▁Nebude	-11.6622
▁zisky	-11.6622
▁chodil	-11.6622
kova	-11.6624
▁plánovaný	-11.6626
▁nález	-11.6626
▁JAK	-11.6629
označí	-11.6632
PI	-11.6637
platila	-11.664
▁odhadu	-11.6643
▁pozorně	-11.6645
▁popisu	-11.6647
▁požádá	-11.6647
▁extremist	-11.6651
▁čtvrti	-11.6651
▁jednoduch	-11.6652
▁vracel	-11.6659
ámek	-11.6663
▁kated	-11.6663
držet	-11.6668
šil	-11.6668
▁Škod	-11.6671
▁lékařem	-11.6672
▁akcionáře	-11.6676
▁mála	-11.6678
▁statistický	-11.6678
▁hrubý	-11.6678
▁skutečn	-11.6682
LN	-11.6684
ickém	-11.6685
▁fotbale	-11.6686
levo	-11.6688
▁dvojic	-11.669
ovice	-11.6692
▁odpovědný	-11.6693
▁adapt	-11.6693
▁mateřsk	-11.6694
▁neprav	-11.6701
▁severním	-11.6703
povídat	-11.6704
▁zbyl	-11.6706
▁neomezen	-11.6711
loha	-11.6714
▁závad	-11.6714
▁ptá	-11.6716
▁penězi	-11.6717
▁detail	-11.6718
▁reálném	-11.6719
▁západ	-11.6719
▁vymezi	-11.672
▁úzké	-11.6722
▁geolog	-11.6726
▁předpis	-11.6726
▁Nedo	-11.6726
▁výdaj	-11.6727
▁průhledn	-11.6728
▁Pokus	-11.6729
▁nepřátel	-11.6732
▁spolupracovník	-11.6734
▁chemick	-11.6738
93	-11.6738
▁9000	-11.6738
▁Ekonomick	-11.674
▁Ev	-11.6744
▁úlev	-11.6747
▁fa	-11.6748
▁očekával	-11.6748
▁nešťastn	-11.675
▁obrazovk	-11.6756
dávání	-11.6758
▁orchestr	-11.676
▁otevřeno	-11.6762
▁šampionát	-11.6766
▁zdokonal	-11.6768
luje	-11.6769
▁minul	-11.6769
▁diskusí	-11.677
členný	-11.6774
▁dosahují	-11.6775
▁neúspěch	-11.6776
▁strav	-11.6777
▁tribunál	-11.6777
▁ToolBook	-11.6779
▁Neu	-11.678
▁Senát	-11.678
▁orientac	-11.6784
▁nepřítel	-11.6786
▁nálad	-11.6786
▁schránk	-11.6787
tice	-11.6787
plácet	-11.6788
▁penzion	-11.6789
uf	-11.6791
▁životnost	-11.6793
rušit	-11.6795
▁neexistují	-11.6795
DU	-11.6795
▁pochybnost	-11.6795
rová	-11.6797
▁požadovan	-11.6799
ALE	-11.68
▁tisícovk	-11.6801
▁marketing	-11.6803
rah	-11.6804
▁náročn	-11.6806
▁94	-11.6806
▁nádob	-11.6807
▁krátk	-11.6807
▁kytar	-11.6808
SKO	-11.6808
▁soustředěn	-11.681
▁44	-11.681
▁cílů	-11.681
▁atentát	-11.681
▁Zásad	-11.6811
▁připomínají	-11.6814
▁vytvářen	-11.6815
▁Med	-11.6815
▁kořen	-11.6818
▁interak	-11.6818
čátek	-11.6818
iletá	-11.6819
▁rozprav	-11.682
▁úder	-11.6821
▁anket	-11.6822
▁kubismu	-11.6822
▁výrobním	-11.6823
▁třem	-11.6824
▁totemismu	-11.6824
▁Motor	-11.6824
▁meteorolog	-11.6824
▁jeskyn	-11.6826
▁osvobozen	-11.6827
▁měnov	-11.6828
▁patent	-11.6829
▁tabulátor	-11.6832
▁archív	-11.6832
▁soch	-11.6834
radioaktivní	-11.6834
▁senát	-11.6835
▁odehráv	-11.6835
ěsíční	-11.6835
izaci	-11.6836
▁odstín	-11.6839
▁právnick	-11.6841
krýt	-11.6841
▁muzik	-11.6843
hraj	-11.6844
▁Sport	-11.6846
▁Budějovic	-11.6846
▁efektivně	-11.6847
▁antropogenní	-11.6848
▁izolační	-11.6848
restrukturalizac	-11.6848
vyskytuje	-11.6848
▁Australan	-11.6848
▁Chvalovský	-11.6848
▁Frýdku	-11.6848
▁Gretzky	-11.6848
▁Holbrooke	-11.6848
▁Klient	-11.6848
▁Kravčuk	-11.6848
▁Margaret	-11.6848
▁Marseille	-11.6848
▁MicroStation	-11.6848
▁Oxfordu	-11.6848
▁Parlament	-11.6848
▁Pospíšil	-11.6848
▁Rangers	-11.6848
▁Sládka	-11.6848
▁Zeitung	-11.6848
▁analytik	-11.6848
▁báječn	-11.6848
▁cyklů	-11.6848
▁delikt	-11.6848
▁disident	-11.6848
▁dodávku	-11.6848
▁dominantní	-11.6848
▁domnívat	-11.6848
▁doporučit	-11.6848
▁elektrárna	-11.6848
▁epizod	-11.6848
▁fanoušci	-11.6848
▁fázové	-11.6848
▁havárie	-11.6848
▁hájit	-11.6848
▁hřbet	-11.6848
▁instalační	-11.6848
▁kariéry	-11.6848
▁křesla	-11.6848
▁libovolné	-11.6848
▁lístku	-11.6848
▁manažeři	-11.6848
▁navštívit	-11.6848
▁nejčastější	-11.6848
▁náznak	-11.6848
▁odcházel	-11.6848
▁perfektní	-11.6848
▁politici	-11.6848
▁portrét	-11.6848
▁poselství	-11.6848
▁posuzoval	-11.6848
▁prezentován	-11.6848
▁připomínal	-11.6848
▁příchozí	-11.6848
▁službách	-11.6848
▁stránkách	-11.6848
▁studijní	-11.6848
▁středisek	-11.6848
▁tabák	-11.6848
▁turistiky	-11.6848
▁uspokojit	-11.6848
▁ušlechtil	-11.6848
▁vyrobit	-11.6848
▁výchozí	-11.6848
▁výcvik	-11.6848
▁všelijak	-11.6848
▁zlepšování	-11.6848
▁zvážit	-11.6848
▁čtvrtletně	-11.6848
▁barokní	-11.6848
▁hesla	-11.6848
▁knihkupectví	-11.6848
▁nervozit	-11.6848
▁názvy	-11.6848
▁odhodlán	-11.6848
▁poliklinik	-11.6848
▁recese	-11.6848
▁rovnou	-11.6848
▁vizuální	-11.6848
▁vyřeší	-11.6848
▁vůdčí	-11.6848
▁zásuvk	-11.6848
▁úklid	-11.6848
▁Příprav	-11.6848
▁afrických	-11.6848
▁chápou	-11.6848
▁investoři	-11.6848
▁licenci	-11.6848
▁nebytový	-11.6848
▁prověrk	-11.6848
▁přijede	-11.6848
▁sváteční	-11.6848
▁vypovězen	-11.6848
▁certifikace	-11.6848
▁delegací	-11.6848
▁položek	-11.6848
▁provází	-11.6848
▁sazba	-11.6848
▁Pechar	-11.6848
▁Snímek	-11.6848
▁nepůjde	-11.6848
▁krizí	-11.6848
▁laskav	-11.6848
▁trolejbus	-11.6848
▁mléko	-11.6848
▁Kraus	-11.6848
▁dráze	-11.6848
▁návaznost	-11.6848
▁Francis	-11.6848
▁postranní	-11.6848
▁smíšený	-11.6848
▁Štěpán	-11.6848
▁Pravidl	-11.6848
▁šperk	-11.6848
▁ideologie	-11.6848
▁Údaj	-11.6848
▁podporovan	-11.6848
▁reprezentaci	-11.6848
▁reprezentovat	-11.6848
▁juniorů	-11.6848
▁odrůd	-11.6848
▁obrátí	-11.6848
▁poezie	-11.6848
▁motýl	-11.6848
▁iluze	-11.6848
▁emisí	-11.6848
▁útěk	-11.6848
▁mléka	-11.6848
▁prostředkem	-11.6848
▁stránka	-11.6848
▁biologii	-11.6848
▁letadel	-11.6848
▁Obvykl	-11.6848
▁akutní	-11.6848
▁projevují	-11.6848
▁nepochopil	-11.6848
▁větr	-11.6848
▁Nynější	-11.6848
▁masa	-11.6848
▁udělil	-11.6848
▁vztek	-11.6848
▁nevyhnul	-11.6848
▁rámec	-11.6848
▁Trnav	-11.6848
▁podmínku	-11.6848
▁hladovku	-11.6848
▁látku	-11.6848
▁říkat	-11.6848
▁láska	-11.6849
▁zaměstnanosti	-11.6849
▁důchodců	-11.6849
▁dárek	-11.6849
▁poměrů	-11.6849
▁spolkové	-11.6849
▁Příčin	-11.6849
▁profesi	-11.6849
▁výpis	-11.6849
abilní	-11.6849
▁gard	-11.6849
▁zpravodajství	-11.6849
▁rozpočtů	-11.6849
▁Plzně	-11.6849
▁vyvíjet	-11.6849
▁Zlatý	-11.6849
▁zdražení	-11.6849
bajt	-11.6849
▁Hrál	-11.6849
▁polohách	-11.685
▁Hotel	-11.685
▁motivace	-11.685
▁ekologie	-11.685
▁schvalování	-11.685
▁Botan	-11.685
▁Nováček	-11.685
interpretaci	-11.685
věřuje	-11.685
▁poučení	-11.685
▁krouž	-11.685
▁legální	-11.685
▁média	-11.685
▁Boston	-11.6851
▁Japonci	-11.6851
▁unikl	-11.6851
▁záchod	-11.6851
▁zátěž	-11.6851
▁Řadič	-11.6851
▁lidech	-11.6851
▁pátrání	-11.6851
▁síle	-11.6851
▁veterinární	-11.6851
▁památku	-11.6851
▁utrpení	-11.6851
▁jezdce	-11.6851
▁silnicích	-11.6852
▁CAD	-11.6852
▁Kontrol	-11.6852
▁upravuje	-11.6852
▁vyhnul	-11.6852
▁stanoviska	-11.6852
▁shoda	-11.6852
▁třicátých	-11.6852
▁představen	-11.6852
opádn	-11.6853
▁linie	-11.6853
▁psí	-11.6853
▁odcizi	-11.6853
▁Sportovní	-11.6854
obtížnější	-11.6854
▁směrech	-11.6854
▁Jenomže	-11.6854
▁Čísl	-11.6854
▁zpracovávat	-11.6854
▁nerozhodn	-11.6855
▁regionech	-11.6855
▁setkávají	-11.6855
▁říše	-11.6855
▁kdykoli	-11.6855
▁akční	-11.6855
▁IPS	-11.6855
přát	-11.6855
▁fronta	-11.6856
▁soustavně	-11.6856
▁důchodce	-11.6856
▁přizpůsobení	-11.6856
▁tiskárnu	-11.6857
▁prosazují	-11.6857
▁Zabývá	-11.6857
▁naučí	-11.6858
▁intelektuální	-11.6858
▁smyslupln	-11.6858
dokonalejší	-11.6858
dělal	-11.6858
▁plynule	-11.6859
▁statisíce	-11.6859
▁mrzí	-11.6859
▁vzdát	-11.6859
▁oceli	-11.686
▁iniciátor	-11.686
▁zemím	-11.686
▁parkování	-11.686
▁jihovýchodní	-11.686
Místku	-11.686
▁stoupl	-11.686
▁Nastavení	-11.6861
▁srovnávat	-11.6861
▁měrou	-11.6861
▁Podíl	-11.6861
▁radioaktivních	-11.6861
▁nevěří	-11.6861
▁západoevropský	-11.6862
▁suché	-11.6862
▁hudbou	-11.6862
▁Pár	-11.6862
▁BF	-11.6862
▁zjistíme	-11.6862
rochu	-11.6863
▁lukrativní	-11.6864
▁obdobně	-11.6864
▁Olympi	-11.6864
▁suma	-11.6865
▁stoly	-11.6866
mnohých	-11.6866
▁Made	-11.6866
▁propag	-11.6867
▁bitů	-11.6867
▁Slovan	-11.6867
▁Jihlavě	-11.6867
▁Záhřebu	-11.6867
▁středně	-11.6867
▁slabě	-11.6868
▁Hel	-11.6868
▁formace	-11.6868
▁soukromník	-11.6869
▁Informoval	-11.687
▁Dlouhý	-11.6871
▁spalování	-11.6871
▁zkrácení	-11.6871
soustřeďuje	-11.6871
▁korekce	-11.6871
▁nedokáž	-11.6872
▁biologických	-11.6872
▁islámský	-11.6872
▁Helen	-11.6872
▁horizontu	-11.6873
▁zachytit	-11.6873
▁ujal	-11.6874
▁organizátor	-11.6875
▁brány	-11.6875
▁vykonává	-11.6876
▁objednávky	-11.6876
▁procesech	-11.6876
▁dokladů	-11.6877
256	-11.6877
▁Skutečně	-11.6877
▁jízdě	-11.6878
▁židovské	-11.6878
▁odběru	-11.6878
ENÍ	-11.688
▁cenov	-11.688
▁zjednodušení	-11.688
▁Úpravy	-11.688
▁Min	-11.688
▁LID	-11.6881
átory	-11.6881
▁předcházel	-11.6881
▁vyznačen	-11.6881
▁Stalin	-11.6881
▁postihnout	-11.6881
spěje	-11.6882
koupí	-11.6882
▁funkcionáři	-11.6882
▁pokutou	-11.6883
ručením	-11.6883
▁prohlédnout	-11.6884
▁silná	-11.6884
▁modifikac	-11.6885
▁stejnojmenné	-11.6885
▁šaty	-11.6886
▁Alda	-11.6886
▁cokoliv	-11.6886
▁poškozený	-11.6886
▁výborně	-11.6886
▁úřadech	-11.6886
▁příčku	-11.6887
▁fungující	-11.6887
▁kapitole	-11.6888
▁úroků	-11.6888
▁dokazuje	-11.6888
▁pokračující	-11.6888
dražit	-11.6889
▁učitelů	-11.6889
▁zpěvačka	-11.6889
▁shodli	-11.689
▁čekalo	-11.689
▁polní	-11.689
▁Angličané	-11.689
▁policista	-11.6891
▁Skutečnost	-11.6892
▁konečn	-11.6892
▁špičky	-11.6893
▁psychologické	-11.6894
wi	-11.6895
pravdivost	-11.6895
▁podporující	-11.6896
▁nechceme	-11.6896
▁vlastnické	-11.6896
▁službami	-11.6897
▁písní	-11.6897
▁domech	-11.6897
▁zpracovat	-11.6898
cestovat	-11.6898
▁posunu	-11.6899
▁vhodnější	-11.6899
▁Diana	-11.6899
nské	-11.69
▁správní	-11.69
▁Nabídky	-11.69
▁Zvláště	-11.6901
▁obdrželi	-11.6902
▁vypracova	-11.6902
▁Čern	-11.6904
▁rozumu	-11.6904
▁odměna	-11.6904
▁dálnici	-11.6904
kladem	-11.6905
▁tuší	-11.6906
▁zbraněmi	-11.6906
▁Turecka	-11.6906
▁dně	-11.6907
▁schůzka	-11.6907
▁analýzu	-11.6907
▁odborové	-11.6908
47	-11.6909
▁velení	-11.691
▁koncertů	-11.691
▁nalezli	-11.691
▁Žije	-11.6911
▁správa	-11.6911
▁přátelé	-11.6911
▁vyhlášku	-11.6912
▁úrazu	-11.6913
▁nesl	-11.6915
▁přepravy	-11.6915
▁nutností	-11.6916
▁odkladu	-11.6916
▁Rud	-11.6917
▁jízdy	-11.6917
▁Či	-11.6918
▁Čeká	-11.692
▁nezávisle	-11.692
▁nepočítal	-11.6921
▁vzrostly	-11.6921
▁pravou	-11.6923
▁lekto	-11.6924
▁výplatu	-11.6924
▁prachu	-11.6924
▁křivka	-11.6924
▁vinou	-11.6924
▁programování	-11.6926
▁posláním	-11.6927
▁zima	-11.6929
▁kapr	-11.6929
bov	-11.6929
▁postavy	-11.6929
▁sledovali	-11.693
▁soli	-11.693
▁Popov	-11.6931
▁tenistk	-11.6931
▁příspěvků	-11.6932
▁neznáme	-11.6933
nášejí	-11.6933
▁poznali	-11.6933
▁scházejí	-11.6934
▁Cupu	-11.6934
▁samozřejmé	-11.6935
▁úkony	-11.6935
▁ústavem	-11.6936
▁Technické	-11.6937
▁obviněni	-11.6938
▁změnilo	-11.6939
▁reklamu	-11.6939
▁váhu	-11.6939
▁poct	-11.694
▁natočil	-11.694
▁žalobu	-11.694
▁nezávislý	-11.6941
▁technicky	-11.6941
běhnout	-11.6941
▁Podnikatelské	-11.6942
▁kategoriích	-11.6942
▁rakoviny	-11.6945
▁zveřejněné	-11.6946
▁neznámého	-11.6946
trpěl	-11.6949
▁používali	-11.6949
▁vlků	-11.6949
▁International	-11.6951
▁Management	-11.6951
Gar	-11.6951
▁kriminální	-11.6951
▁způsobilo	-11.6953
lip	-11.6953
▁kapitola	-11.6954
▁Fil	-11.6957
▁strategický	-11.6958
▁výstavb	-11.6959
▁příbuzných	-11.696
▁dani	-11.696
▁adrese	-11.6961
bosenské	-11.6962
▁prokázala	-11.6962
ložený	-11.6962
▁zemědělcům	-11.6962
▁písemné	-11.6963
▁nedávn	-11.6964
▁rezervní	-11.6965
▁převezme	-11.6965
▁Moj	-11.6965
▁větu	-11.6966
▁přeci	-11.6968
▁wimbledonské	-11.697
▁Hovořil	-11.6971
▁tvrdili	-11.6973
▁bojuje	-11.6973
▁Rudé	-11.6974
▁mírov	-11.6975
▁Dobrý	-11.6976
▁prázdný	-11.6977
nekonečně	-11.6977
▁Mohu	-11.698
HP	-11.698
▁požáru	-11.6981
▁provedena	-11.6982
▁vysokými	-11.6982
▁pravá	-11.6983
▁politickými	-11.6986
▁spojil	-11.6986
▁nizozemské	-11.6987
▁Kovo	-11.6988
▁devadesáti	-11.6988
▁odnesl	-11.6989
nar	-11.6989
▁limity	-11.699
▁Lam	-11.699
hrají	-11.699
▁vstupem	-11.6992
▁Argentina	-11.6992
▁obecného	-11.6995
▁zaměřený	-11.6996
volnou	-11.7005
▁128	-11.7005
▁prošel	-11.7006
▁teoretický	-11.7006
▁procentech	-11.7006
▁doprovázen	-11.7007
▁útočníka	-11.7009
▁rumunské	-11.7009
▁odklad	-11.7009
▁rozhodčího	-11.701
▁vlnu	-11.701
▁nástupu	-11.7015
▁neuděl	-11.7016
OLE	-11.7017
stein	-11.7018
▁Chyba	-11.7025
▁základů	-11.7025
▁vytvořena	-11.7026
lít	-11.7027
▁Spolkové	-11.7027
víz	-11.7027
▁kanadské	-11.7028
▁podobá	-11.7029
▁levá	-11.7032
▁kurzu	-11.7032
▁vloží	-11.7034
▁Tri	-11.7035
▁situacích	-11.7035
▁strojní	-11.7035
▁vel	-11.7036
stály	-11.7038
▁rodu	-11.7038
▁vypadal	-11.7039
▁obličeje	-11.7039
▁ploché	-11.704
▁strachu	-11.7042
▁telekomunikací	-11.7043
▁kazet	-11.7044
▁hrud	-11.7046
▁přebírá	-11.7046
▁nebudeme	-11.7046
▁stranick	-11.7048
▁kursy	-11.7048
▁Lin	-11.7049
▁důkladné	-11.7055
▁čtvrtka	-11.7058
▁Rom	-11.7059
ávání	-11.7059
▁pokoj	-11.7062
▁denním	-11.7063
▁zaměřené	-11.7063
▁Ir	-11.707
▁vzácné	-11.707
▁záměrů	-11.7071
▁příčinu	-11.7072
slyš	-11.7073
▁Vytvořen	-11.7074
▁disků	-11.7075
▁vkládat	-11.7077
▁následoval	-11.7078
jela	-11.7079
▁pracovali	-11.7079
▁doplňk	-11.7082
▁živý	-11.7083
▁zničil	-11.7085
▁Sam	-11.7087
▁proslulé	-11.7088
▁textem	-11.7089
65	-11.709
▁univerzitní	-11.7092
▁chybné	-11.7092
▁nebezpečím	-11.7093
▁odstup	-11.7093
▁zdroji	-11.7095
áků	-11.7097
▁přicházel	-11.7098
ovského	-11.7099
erie	-11.7099
▁účastníkům	-11.7103
▁dospělé	-11.7104
TON	-11.7104
▁spravedlivé	-11.7104
▁Fed	-11.7105
▁dodávají	-11.7106
važoval	-11.7107
▁Siln	-11.7109
▁oblíbené	-11.7109
potřebě	-11.7109
delov	-11.7109
▁soudem	-11.711
▁vyzvala	-11.7112
▁funkcemi	-11.7113
▁všeobecném	-11.7114
▁Mart	-11.7115
žití	-11.7115
▁sudetský	-11.7115
600	-11.7116
▁řadí	-11.7122
▁seznamy	-11.7124
▁šetří	-11.7125
wan	-11.7129
sunut	-11.7133
▁pacientům	-11.7135
▁Českomoravské	-11.7135
▁dneška	-11.7137
▁Budu	-11.7137
▁Žen	-11.7143
▁sloučenin	-11.7144
▁specifick	-11.7146
sit	-11.7146
▁organizacích	-11.7147
▁ministerský	-11.7148
▁večera	-11.7148
▁ROK	-11.715
▁oblastní	-11.715
▁tráví	-11.7151
vodí	-11.7153
▁matematick	-11.7158
▁přímým	-11.7159
▁sdělila	-11.7168
▁Gorbačovov	-11.7169
▁Roy	-11.7169
▁vrcholový	-11.7169
▁Brněnsk	-11.717
▁jevu	-11.7174
▁Společnosti	-11.7174
▁vysla	-11.7184
▁kytic	-11.7186
▁trošk	-11.7188
▁elektronick	-11.7189
▁ženu	-11.7191
▁jižním	-11.7192
lona	-11.7193
rej	-11.7193
▁Pohled	-11.7197
▁faktu	-11.7215
▁převlád	-11.7216
ovku	-11.7216
▁Zvýšen	-11.7219
dotýká	-11.722
▁svalové	-11.722
▁zřetel	-11.7223
▁půd	-11.7227
▁přispíva	-11.7227
▁rozumný	-11.7231
▁srozumiteln	-11.7233
ance	-11.7233
▁vrátila	-11.7237
▁příhod	-11.7245
▁rozměr	-11.7251
USK	-11.7251
▁muslimské	-11.7253
7,5	-11.7254
▁rozdílem	-11.7258
[...]
